<unk>	0
<s>	0
</s>	0
▁d	-0
es	-1
▁l	-2
on	-3
ti	-4
▁de	-5
en	-6
▁p	-7
re	-8
▁a	-9
▁c	-10
an	-11
▁s	-12
tion	-13
in	-14
er	-15
is	-16
ar	-17
ur	-18
le	-19
ent	-20
▁la	-21
▁du	-22
et	-23
▁m	-24
té	-25
te	-26
ation	-27
qu	-28
ré	-29
or	-30
▁des	-31
▁et	-32
▁"	-33
li	-34
▁à	-35
ou	-36
si	-37
ne	-38
▁au	-39
tr	-40
▁2	-41
ce	-42
ai	-43
om	-44
▁f	-45
▁L	-46
al	-47
ment	-48
ant	-49
▁le	-50
▁n	-51
ci	-52
▁con	-53
▁les	-54
."	-55
ri	-56
our	-57
▁en	-58
▁(	-59
19	-60
▁dé	-61
que	-62
di	-63
▁par	-64
est	-65
se	-66
vi	-67
un	-68
▁:	-69
▁20	-70
▁re	-71
ro	-72
me	-73
▁M	-74
de	-75
▁1	-76
fi	-77
au	-78
▁est	-79
at	-80
res	-81
el	-82
▁A	-83
ée	-84
▁com	-85
▁pré	-86
▁é	-87
tic	-88
tre	-89
ont	-90
▁C	-91
▁ré	-92
ac	-93
▁;	-94
▁in	-95
ans	-96
as	-97
▁g	-98
ér	-99
il	-100
▁«	-101
aire	-102
▁ou	-103
ve	-104
ticle	-105
▁mo	-106
it	-107
ch	-108
ter	-109
ex	-110
▁j	-111
▁pro	-112
inis	-113
bli	-114
ale	-115
és	-116
ag	-117
rê	-118
ie	-119
us	-120
▁ch	-121
▁»	-122
ab	-123
article	-124
rêté	-125
ces	-126
sion	-127
pp	-128
▁P	-129
tions	-130
▁R	-131
▁2019	-132
tu	-133
ubli	-134
▁tr	-135
une	-136
▁qu	-137
▁ar	-138
mp	-139
▁o	-140
▁comp	-141
▁b	-142
les	-143
▁dans	-144
▁D	-145
▁pour	-146
ol	-147
ati	-148
mb	-149
én	-150
),	-151
▁I	-152
sent	-153
-1	-154
▁—	-155
ts	-156
▁sont	-157
▁v	-158
oi	-159
ali	-160
▁3	-161
▁su	-162
ers	-163
oci	-164
▁t	-165
ées	-166
▁di	-167
▁aux	-168
▁fr	-169
▁ser	-170
▁S	-171
▁r	-172
▁un	-173
▁minis	-174
ec	-175
ate	-176
▁publi	-177
ul	-178
cation	-179
20	-180
eu	-181
ité	-182
ise	-183
ance	-184
orm	-185
▁co	-186
ad	-187
▁ac	-188
os	-189
eur	-190
ot	-191
ffi	-192
ff	-193
▁présent	-194
éc	-195
nel	-196
▁;"	-197
▁sur	-198
aux	-199
ort	-200
▁J	-201
ention	-202
im	-203
rec	-204
mbre	-205
mpl	-206
▁B	-207
▁an	-208
▁arrêté	-209
aires	-210
▁ti	-211
ations	-212
ques	-213
▁Le	-214
ine	-215
du	-216
ique	-217
▁dis	-218
alité	-219
ence	-220
éri	-221
arg	-222
ig	-223
▁h	-224
ère	-225
▁déc	-226
▁pr	-227
am	-228
ous	-229
osi	-230
▁ex	-231
▁servi	-232
▁Ar	-233
iv	-234
▁soci	-235
ap	-236
▁E	-237
▁gén	-238
teur	-239
▁nom	-240
▁qui	-241
▁une	-242
ins	-243
lé	-244
▁direc	-245
ès	-246
tes	-247
ion	-248
▁génér	-249
▁ministre	-250
▁ad	-251
▁charg	-252
ession	-253
og	-254
age	-255
▁Mme	-256
▁disp	-257
ier	-258
pr	-259
/20	-260
ib	-261
av	-262
ments	-263
▁conc	-264
▁cons	-265
tat	-266
ret	-267
ss	-268
▁al	-269
▁prof	-270
▁4	-271
ffici	-272
▁Les	-273
/2019	-274
mis	-275
ili	-276
▁G	-277
▁code	-278
tor	-279
onn	-280
ction	-281
ours	-282
▁201	-283
▁date	-284
ais	-285
▁V	-286
-0	-287
ure	-288
iné	-289
▁se	-290
insi	-291
▁ju	-292
minis	-293
▁ainsi	-294
▁F	-295
▁profession	-296
)."	-297
▁ins	-298
▁te	-299
sid	-300
lr	-301
ari	-302
▁5	-303
man	-304
entre	-305
▁pl	-306
ministr	-307
tifi	-308
op	-309
▁not	-310
ppli	-311
lis	-312
lec	-313
▁professionnel	-314
▁disposi	-315
▁"«	-316
▁aliné	-317
ord	-318
▁mots	-319
-2	-320
ourn	-321
ue	-322
ép	-323
▁nation	-324
▁prév	-325
▁rel	-326
▁mention	-327
anç	-328
ortant	-329
ét	-330
▁que	-331
form	-332
▁rempl	-333
end	-334
▁N	-335
ouv	-336
▁T	-337
ain	-338
ois	-339
iè	-340
▁fon	-341
tés	-342
▁av	-343
elle	-344
arre	-345
▁alinéa	-346
▁portant	-347
▁La	-348
ves	-349
▁rég	-350
▁mentionn	-351
▁contr	-352
ob	-353
arrete	-354
difi	-355
▁ci	-356
▁offici	-357
▁6	-358
▁modifi	-359
▁inter	-360
ix	-361
seil	-362
▁e	-363
▁19	-364
▁fin	-365
▁ass	-366
▁peu	-367
▁mé	-368
▁pers	-369
▁:"	-370
urs	-371
cri	-372
▁res	-373
ants	-374
nement	-375
téri	-376
▁relati	-377
▁officiel	-378
oc	-379
▁ter	-380
▁services	-381
▁7	-382
▁remplac	-383
▁dispositions	-384
▁jus	-385
able	-386
ournal	-387
lle	-388
près	-389
/2019-0	-390
▁Arrêté	-391
▁public	-392
▁parti	-393
org	-394
ublique	-395
▁II	-396
vec	-397
ER	-398
▁Journal	-399
che	-400
▁titre	-401
ales	-402
▁avec	-403
ors	-404
tement	-405
mes	-406
▁franç	-407
rem	-408
ten	-409
été	-410
▁suiv	-411
ille	-412
▁dép	-413
anis	-414
andi	-415
ux	-416
dat	-417
être	-418
▁trans	-419
▁"—	-420
vis	-421
titu	-422
▁2019,	-423
olog	-424
▁Par	-425
ens	-426
▁sec	-427
▁fix	-428
▁trav	-429
▁rec	-430
▁form	-431
tri	-432
ait	-433
▁décret	-434
LE	-435
oit	-436
▁déf	-437
▁comm	-438
▁être	-439
ption	-440
ense	-441
▁Rép	-442
ail	-443
▁san	-444
▁gr	-445
▁mar	-446
▁République	-447
aise	-448
ture	-449
pré	-450
▁ses	-451
▁condi	-452
▁général	-453
▁sp	-454
fs	-455
ge	-456
▁vi	-457
ution	-458
des	-459
ette	-460
organis	-461
ass	-462
▁candi	-463
Par	-464
▁sus	-465
▁appli	-466
AR	-467
▁française	-468
ablis	-469
gr	-470
▁prem	-471
▁Mar	-472
tivi	-473
sement	-474
▁candidat	-475
▁directeur	-476
00	-477
mission	-478
vier	-479
éd	-480
ième	-481
▁sous	-482
▁société	-483
▁deman	-484
écur	-485
▁ne	-486
▁conditions	-487
).	-488
sident	-489
▁sécur	-490
ON	-491
▁col	-492
dec	-493
um	-494
▁Au	-495
▁son	-496
▁H	-497
▁cas	-498
▁cl	-499
ir	-500
év	-501
▁ce	-502
▁sécurité	-503
administr	-504
▁entre	-505
Le	-506
ace	-507
alis	-508
▁civi	-509
TA	-510
▁8	-511
ons	-512
▁déce	-513
ite	-514
▁décembre	-515
acc	-516
▁dont	-517
▁conseil	-518
▁ét	-519
▁sera	-520
▁professionnelle	-521
tul	-522
ES	-523
▁deux	-524
vent	-525
▁titul	-526
Etat	-527
▁resp	-528
▁compter	-529
▁leur	-530
ement	-531
ues	-532
administration	-533
ard	-534
▁no	-535
▁peut	-536
tres	-537
▁ans	-538
nex	-539
▁notaire	-540
-3	-541
éci	-542
▁pas	-543
▁nationale	-544
▁chargé	-545
▁ph	-546
IN	-547
app	-548
▁santé	-549
sib	-550
▁générale	-551
▁Ch	-552
ilité	-553
oli	-554
▁service	-555
▁me	-556
▁associ	-557
▁conv	-558
▁ag	-559
cip	-560
▁concer	-561
th	-562
▁sal	-563
tice	-564
oin	-565
péri	-566
enti	-567
▁élec	-568
antes	-569
ances	-570
▁mê	-571
▁per	-572
jet	-573
éré	-574
▁travail	-575
née	-576
▁terri	-577
ences	-578
anvier	-579
gé	-580
▁janvier	-581
estion	-582
ination	-583
roit	-584
▁rés	-585
iques	-586
Mme	-587
entifi	-588
arrêté	-589
▁publics	-590
▁justice	-591
inté	-592
OU	-593
uti	-594
▁spéci	-595
asse	-596
▁tou	-597
▁droit	-598
▁susvis	-599
ct	-600
▁administr	-601
▁ma	-602
ond	-603
▁person	-604
▁nomm	-605
ents	-606
▁publié	-607
lement	-608
alités	-609
▁pos	-610
▁2018	-611
▁at	-612
▁supp	-613
▁demande	-614
oire	-615
ign	-616
▁formation	-617
illet	-618
EN	-619
présent	-620
ctions	-621
▁22	-622
cher	-623
ffec	-624
▁consul	-625
ach	-626
chn	-627
▁gestion	-628
▁titulaire	-629
tère	-630
11	-631
ris	-632
imp	-633
ages	-634
els	-635
▁juillet	-636
ean	-637
▁collec	-638
▁modifié	-639
▁salari	-640
▁acc	-641
fér	-642
onique	-643
▁représent	-644
▁9	-645
▁civile	-646
ticles	-647
▁même	-648
tance	-649
▁CH	-650
▁il	-651
▁concours	-652
AN	-653
▁dur	-654
▁ces	-655
▁mis	-656
▁articles	-657
▁Fr	-658
pl	-659
▁-	-660
▁Con	-661
▁ép	-662
▁1°	-663
ables	-664
▁che	-665
gu	-666
ouve	-667
toris	-668
tin	-669
ra	-670
▁fonction	-671
dic	-672
▁région	-673
La	-674
ante	-675
▁électr	-676
▁relatif	-677
écution	-678
▁premier	-679
ffice	-680
▁im	-681
▁2°	-682
▁cor	-683
▁cha	-684
ang	-685
▁techn	-686
▁né	-687
reu	-688
▁Paris	-689
▁sociale	-690
erci	-691
ères	-692
exécution	-693
iste	-694
▁sa	-695
cul	-696
▁cette	-697
▁gar	-698
ic	-699
▁12	-700
rier	-701
ération	-702
RE	-703
▁lim	-704
onom	-705
nexe	-706
▁proc	-707
▁médec	-708
ert	-709
and	-710
tru	-711
▁»,	-712
▁qualité	-713
▁sep	-714
BLE	-715
▁éc	-716
oy	-717
▁13	-718
gation	-719
Un	-720
▁produ	-721
appli	-722
lu	-723
ole	-724
▁200	-725
▁électronique	-726
tive	-727
enne	-728
trice	-729
▁organis	-730
ay	-731
▁rédi	-732
ril	-733
édu	-734
12	-735
trait	-736
ies	-737
ablissement	-738
gn	-739
▁mod	-740
▁résid	-741
▁référ	-742
ud	-743
▁président	-744
▁remplacés	-745
▁commun	-746
▁app	-747
obre	-748
▁oct	-749
▁nomination	-750
met	-751
ossi	-752
▁octobre	-753
▁Il	-754
▁O	-755
ateur	-756
▁partir	-757
▁durée	-758
▁compét	-759
st	-760
▁<	-761
▁mars	-762
▁susvisé	-763
▁après	-764
▁défin	-765
▁national	-766
TABLE	-767
▁cad	-768
▁dossi	-769
▁dépar	-770
▁Marie	-771
ures	-772
▁mai	-773
tembre	-774
▁septembre	-775
èg	-776
▁prop	-777
oir	-778
all	-779
vembre	-780
▁novembre	-781
▁juin	-782
tivités	-783
▁application	-784
1-1	-785
pe	-786
▁personn	-787
▁prévues	-788
▁trois	-789
ut	-790
▁ministère	-791
▁avril	-792
ière	-793
omp	-794
unal	-795
▁résidence	-796
US	-797
▁donn	-798
▁16	-799
▁convention	-800
action	-801
cription	-802
eurs	-803
eure	-804
TI	-805
▁mont	-806
▁supéri	-807
ché	-808
tique	-809
ôle	-810
▁lors	-811
▁cré	-812
Les	-813
▁2020	-814
rim	-815
/2019-1	-816
ature	-817
elles	-818
▁DE	-819
▁CHU	-820
▁acces	-821
sible	-822
omm	-823
▁classe	-824
▁direction	-825
-4	-826
ui	-827
NE	-828
▁recher	-829
▁plus	-830
▁fonctions	-831
ieu	-832
▁"1	-833
ision	-834
avi	-835
▁trib	-836
ffet	-837
▁10	-838
▁Jean	-839
▁Art	-840
évrier	-841
ût	-842
▁février	-843
▁préc	-844
ercice	-845
intégr	-846
mbres	-847
▁liste	-848
▁dél	-849
ersi	-850
ises	-851
▁autoris	-852
▁tex	-853
▁règ	-854
▁15	-855
II	-856
▁An	-857
AU	-858
▁indi	-859
adi	-860
▁"2	-861
empl	-862
▁respons	-863
▁31	-864
▁suivantes	-865
▁sein	-866
▁min	-867
▁publique	-868
▁vo	-869
tori	-870
arm	-871
trib	-872
enseig	-873
▁conform	-874
▁administrati	-875
rn	-876
▁sy	-877
▁11	-878
tant	-879
▁compte	-880
▁transp	-881
▁péri	-882
uli	-883
one	-884
uation	-885
ade	-886
▁mise	-887
ég	-888
▁personnel	-889
oût	-890
▁14	-891
▁bas	-892
▁eur	-893
ouver	-894
▁août	-895
▁recherche	-896
▁sign	-897
vre	-898
ception	-899
formation	-900
▁peuvent	-901
torité	-902
abilité	-903
▁complé	-904
▁territori	-905
▁candidats	-906
▁tribunal	-907
he	-908
▁(1	-909
▁III	-910
▁30	-911
▁cadre	-912
▁texte	-913
anci	-914
tivité	-915
exercice	-916
sements	-917
tation	-918
ément	-919
année	-920
▁23	-921
SS	-922
▁21	-923
join	-924
▁rép	-925
Mar	-926
▁ob	-927
▁déli	-928
éné	-929
▁médecine	-930
-5	-931
tée	-932
▁ren	-933
ill	-934
▁chef	-935
▁op	-936
▁accessible	-937
▁loi	-938
▁»."	-939
application	-940
▁consulter	-941
aine	-942
bre	-943
▁page	-944
thentifi	-945
tis	-946
▁personnes	-947
uis	-948
aint	-949
2-1	-950
▁non	-951
▁membres	-952
taire	-953
▁département	-954
▁leurs	-955
▁mission	-956
▁modalités	-957
intégralité	-958
ente	-959
eux	-960
▁vis	-961
▁mentionnés	-962
lè	-963
▁dossier	-964
▁198	-965
▁cer	-966
id	-967
iversi	-968
▁car	-969
ouvez	-970
ru	-971
▁pouvez	-972
▁dern	-973
extrait	-974
▁authentifi	-975
▁Vous	-976
▁décision	-977
▁images	-978
JUS	-979
▁authentifié	-980
▁réser	-981
▁article	-982
pit	-983
▁garde	-984
ém	-985
▁contrat	-986
ologie	-987
▁montant	-988
vant	-989
▁tous	-990
▁sce	-991
quel	-992
▁24	-993
ierre	-994
▁18	-995
esse	-996
▁3°	-997
▁chac	-998
▁établis	-999
▁certifi	-1000
▁médic	-1001
cations	-1002
ron	-1003
tif	-1004
▁auprès	-1005
▁inf	-1006
190	-1007
tach	-1008
sign	-1009
tiques	-1010
▁lieu	-1011
▁délai	-1012
▁ég	-1013
▁rédigé	-1014
▁sceaux	-1015
enseignement	-1016
▁contrôle	-1017
▁ouv	-1018
teurs	-1019
▁inséré	-1020
▁17	-1021
osition	-1022
▁for	-1023
▁remplacé	-1024
aci	-1025
▁jur	-1026
▁référence	-1027
▁pério	-1028
ps	-1029
œu	-1030
▁bi	-1031
EL	-1032
192	-1033
ph	-1034
▁financi	-1035
▁empl	-1036
▁ministéri	-1037
énéfi	-1038
▁man	-1039
▁bénéfi	-1040
▁exer	-1041
gueur	-1042
▁sit	-1043
▁nombre	-1044
▁Pour	-1045
▁charge	-1046
▁mois	-1047
▁poli	-1048
iss	-1049
elon	-1050
▁st	-1051
▁Saint	-1052
rap	-1053
▁prend	-1054
orts	-1055
aite	-1056
amment	-1057
▁finances	-1058
incip	-1059
tifs	-1060
▁sou	-1061
ath	-1062
▁France	-1063
▁respec	-1064
▁deuxième	-1065
▁li	-1066
▁intern	-1067
▁applic	-1068
vel	-1069
ouse	-1070
▁25	-1071
▁cour	-1072
térieur	-1073
▁lib	-1074
▁concern	-1075
▁doc	-1076
▁produit	-1077
até	-1078
ande	-1079
▁associés	-1080
▁moins	-1081
▁accord	-1082
▁chargés	-1083
utilis	-1084
opp	-1085
lar	-1086
▁princip	-1087
ane	-1088
offici	-1089
▁mes	-1090
▁comptes	-1091
▁conformément	-1092
▁concerne	-1093
▁droits	-1094
établissement	-1095
œuvre	-1096
▁comme	-1097
▁imp	-1098
pec	-1099
▁26	-1100
▁aff	-1101
AL	-1102
TE	-1103
▁supprim	-1104
▁réalis	-1105
-6	-1106
▁cap	-1107
▁épreu	-1108
entr	-1109
▁commission	-1110
tien	-1111
▁supérieur	-1112
alement	-1113
▁établissements	-1114
▁En	-1115
enant	-1116
▁"3	-1117
oires	-1118
onne	-1119
IC	-1120
▁mentionnées	-1121
IS	-1122
▁"4	-1123
ich	-1124
ress	-1125
▁Conseil	-1126
▁chaque	-1127
anc	-1128
▁membre	-1129
▁ni	-1130
opé	-1131
aiss	-1132
▁tout	-1133
office	-1134
anti	-1135
▁soit	-1136
ateurs	-1137
-7	-1138
annexe	-1139
ler	-1140
▁vigueur	-1141
ploit	-1142
▁effec	-1143
inscription	-1144
▁entrepr	-1145
▁cours	-1146
▁effet	-1147
▁temp	-1148
▁diff	-1149
▁inform	-1150
▁notamment	-1151
rée	-1152
▁ab	-1153
▁ress	-1154
▁territ	-1155
gram	-1156
ureau	-1157
officiers	-1158
▁mot	-1159
▁voie	-1160
erv	-1161
itre	-1162
aines	-1163
3-1	-1164
▁œuvre	-1165
▁AN	-1166
resse	-1167
▁27	-1168
▁obli	-1169
gén	-1170
stè	-1171
IL	-1172
ouvelle	-1173
olid	-1174
▁prévue	-1175
Au	-1176
▁sé	-1177
enn	-1178
▁28	-1179
▁corps	-1180
velopp	-1181
amen	-1182
▁directrice	-1183
▁permet	-1184
atr	-1185
Ch	-1186
▁ministériels	-1187
ric	-1188
▁née	-1189
▁délé	-1190
▁retr	-1191
▁réserve	-1192
ose	-1193
▁europé	-1194
▁loc	-1195
▁bénéfici	-1196
JUSC	-1197
ités	-1198
▁docu	-1199
ariti	-1200
▁chacun	-1201
▁pri	-1202
▁désign	-1203
▁moy	-1204
▁selon	-1205
▁“	-1206
viron	-1207
▁déclar	-1208
gie	-1209
▁centre	-1210
information	-1211
191	-1212
2-2	-1213
stitu	-1214
écret	-1215
▁secré	-1216
▁mentionné	-1217
hé	-1218
▁représentant	-1219
érations	-1220
emploi	-1221
tection	-1222
▁avant	-1223
fr	-1224
▁ann	-1225
▁recru	-1226
▁néces	-1227
udg	-1228
▁éché	-1229
▁section	-1230
▁pén	-1231
▁»"	-1232
OR	-1233
▁trai	-1234
▁log	-1235
mble	-1236
▁oblig	-1237
▁z	-1238
▁solid	-1239
ordonn	-1240
génie	-1241
decret	-1242
An	-1243
▁budg	-1244
AS	-1245
aut	-1246
Ar	-1247
▁mentionnée	-1248
▁2017	-1249
tribu	-1250
acement	-1251
31	-1252
cep	-1253
▁prise	-1254
mentation	-1255
▁limite	-1256
accord	-1257
Fr	-1258
▁systè	-1259
éducation	-1260
21	-1261
▁étu	-1262
vironnement	-1263
▁constitu	-1264
▁adjoin	-1265
▁salariée	-1266
▁Un	-1267
apitre	-1268
▁program	-1269
▁sans	-1270
ls	-1271
tall	-1272
▁doit	-1273
▁mili	-1274
▁première	-1275
▁projet	-1276
▁grou	-1277
▁grande	-1278
▁résul	-1279
agement	-1280
▁échéant	-1281
▁nommé	-1282
▁économ	-1283
▁règlement	-1284
yant	-1285
▁nommée	-1286
▁rapp	-1287
aluation	-1288
▁nature	-1289
▁stat	-1290
objet	-1291
idi	-1292
CH	-1293
▁épouse	-1294
▁bureau	-1295
NEX	-1296
▁personne	-1297
▁inscri	-1298
▁partie	-1299
▁29	-1300
ative	-1301
▁ANNEX	-1302
TR	-1303
▁fixant	-1304
ologique	-1305
trang	-1306
▁nive	-1307
▁ayant	-1308
erie	-1309
ven	-1310
aul	-1311
dici	-1312
qui	-1313
▁données	-1314
onc	-1315
▁relatives	-1316
▁période	-1317
▁(1),	-1318
▁affaires	-1319
mand	-1320
min	-1321
▁4°	-1322
IER	-1323
▁préf	-1324
▁instance	-1325
▁produits	-1326
▁Tou	-1327
▁U	-1328
ub	-1329
ources	-1330
▁déliv	-1331
▁prest	-1332
édure	-1333
33	-1334
▁chapitre	-1335
▁rele	-1336
▁liv	-1337
▁grade	-1338
▁Décret	-1339
▁mati	-1340
▁dom	-1341
▁compétences	-1342
▁présente	-1343
ern	-1344
▁Parti	-1345
▁pharm	-1346
▁table	-1347
▁responsabilité	-1348
▁suit	-1349
En	-1350
dem	-1351
▁épreuves	-1352
▁été	-1353
▁hors	-1354
naire	-1355
cc	-1356
▁2.	-1357
▁por	-1358
▁num	-1359
▁autres	-1360
oraire	-1361
▁annexe	-1362
▁collectivités	-1363
ase	-1364
42	-1365
▁différ	-1366
-9	-1367
▁notaires	-1368
yc	-1369
▁protection	-1370
xim	-1371
▁arm	-1372
ivi	-1373
▁office	-1374
clu	-1375
▁retraite	-1376
▁collective	-1377
▁navi	-1378
▁si	-1379
abli	-1380
▁entreprises	-1381
▁dou	-1382
▁toute	-1383
igne	-1384
▁faire	-1385
▁judici	-1386
▁"1°	-1387
▁exerc	-1388
onomie	-1389
4-1	-1390
▁sol	-1391
▁cul	-1392
▁site	-1393
atique	-1394
▁traitement	-1395
▁publiques	-1396
eures	-1397
▁IV	-1398
az	-1399
▁K	-1400
▁attribu	-1401
▁dipl	-1402
-8	-1403
▁”	-1404
▁fait	-1405
▁troisième	-1406
iversité	-1407
▁publication	-1408
col	-1409
▁supplé	-1410
▁mariti	-1411
▁Ce	-1412
In	-1413
rase	-1414
ensemble	-1415
▁"2°	-1416
▁justifi	-1417
éro	-1418
exploit	-1419
▁phrase	-1420
▁réglement	-1421
yl	-1422
▁recrutement	-1423
▁ANNEXE	-1424
▁ver	-1425
reuve	-1426
▁0	-1427
▁LA	-1428
▁dernier	-1429
▁chargée	-1430
UE	-1431
▁abro	-1432
ori	-1433
▁armées	-1434
prise	-1435
▁procédure	-1436
exp	-1437
mé	-1438
adém	-1439
inter	-1440
▁applicables	-1441
orme	-1442
activité	-1443
23	-1444
hér	-1445
assur	-1446
▁agents	-1447
oins	-1448
▁développ	-1449
▁activités	-1450
▁Gu	-1451
ôme	-1452
▁coop	-1453
▁partic	-1454
▁compt	-1455
▁ressources	-1456
▁ind	-1457
▁défense	-1458
▁effectu	-1459
ats	-1460
▁niveau	-1461
organisation	-1462
▁pris	-1463
pond	-1464
▁radi	-1465
ww	-1466
▁exp	-1467
pes	-1468
▁certific	-1469
truction	-1470
▁fixé	-1471
▁fig	-1472
▁actes	-1473
▁tableau	-1474
▁relevant	-1475
▁év	-1476
▁"5	-1477
direc	-1478
▁autre	-1479
MEN	-1480
accès	-1481
stitut	-1482
35	-1483
uissi	-1484
uc	-1485
▁sub	-1486
IT	-1487
▁es	-1488
▁particuli	-1489
▁agré	-1490
tées	-1491
TION	-1492
▁Dans	-1493
▁sci	-1494
istance	-1495
hili	-1496
ançois	-1497
ricul	-1498
▁2019."	-1499
évaluation	-1500
▁Article	-1501
erts	-1502
ppe	-1503
▁cin	-1504
gence	-1505
uel	-1506
▁postes	-1507
▁centr	-1508
▁condu	-1509
▁avis	-1510
▁jusqu	-1511
aissance	-1512
▁suivant	-1513
▁également	-1514
▁1.	-1515
jou	-1516
respond	-1517
▁travaux	-1518
act	-1519
▁correspond	-1520
ax	-1521
22	-1522
▁Elle	-1523
▁communi	-1524
1-2	-1525
atives	-1526
ore	-1527
dit	-1528
▁LE	-1529
▁heures	-1530
hilippe	-1531
▁conn	-1532
▁nécess	-1533
éral	-1534
▁particip	-1535
▁modifiant	-1536
▁vali	-1537
▁Pierre	-1538
▁In	-1539
alisation	-1540
ici	-1541
▁remplacement	-1542
président	-1543
▁prévu	-1544
aud	-1545
▁déter	-1546
▁techniques	-1547
ov	-1548
▁jours	-1549
agn	-1550
RA	-1551
▁00	-1552
urent	-1553
▁tran	-1554
▁lorsque	-1555
ches	-1556
atég	-1557
18	-1558
vision	-1559
demn	-1560
oivent	-1561
isation	-1562
▁technique	-1563
OT	-1564
appel	-1565
ma	-1566
uit	-1567
ôpit	-1568
▁juge	-1569
▁transport	-1570
ime	-1571
ouverture	-1572
atis	-1573
▁matière	-1574
▁personnels	-1575
▁plac	-1576
▁comité	-1577
▁y	-1578
tats	-1579
▁compris	-1580
▁compr	-1581
▁défini	-1582
par	-1583
ancement	-1584
abit	-1585
gis	-1586
▁jour	-1587
▁livre	-1588
▁remplacée	-1589
ann	-1590
agis	-1591
ptions	-1592
▁culture	-1593
▁fer	-1594
▁affec	-1595
▁limité	-1596
34	-1597
▁zone	-1598
▁lég	-1599
pro	-1600
▁utilis	-1601
rés	-1602
autorité	-1603
agrap	-1604
ueil	-1605
▁"6	-1606
▁ris	-1607
▁établi	-1608
▁informations	-1609
▁off	-1610
ah	-1611
mi	-1612
▁définies	-1613
atoire	-1614
▁actions	-1615
▁représentants	-1616
quis	-1617
riculture	-1618
▁part	-1619
AT	-1620
▁organismes	-1621
uelle	-1622
agistr	-1623
▁Al	-1624
endant	-1625
▁DU	-1626
environnement	-1627
▁fond	-1628
▁fourn	-1629
économie	-1630
▁développement	-1631
▁mal	-1632
▁té	-1633
▁carac	-1634
ET	-1635
▁Après	-1636
▁juridi	-1637
orsque	-1638
assurance	-1639
▁vice	-1640
▁tot	-1641
▁aéri	-1642
▁judiciaire	-1643
▁rou	-1644
mun	-1645
▁transi	-1646
▁transports	-1647
entes	-1648
▁tard	-1649
lée	-1650
▁salariés	-1651
5-1	-1652
dess	-1653
ospit	-1654
▁place	-1655
rég	-1656
▁transf	-1657
▁relative	-1658
usi	-1659
fin	-1660
▁élé	-1661
..	-1662
agriculture	-1663
▁W	-1664
▁Chris	-1665
▁suivants	-1666
Jean	-1667
▁ingénie	-1668
Ass	-1669
aur	-1670
ociation	-1671
fication	-1672
identifi	-1673
examen	-1674
AG	-1675
▁procéd	-1676
▁hum	-1677
▁Com	-1678
nelle	-1679
oles	-1680
▁étrang	-1681
▁commune	-1682
OUR	-1683
▁mesures	-1684
▁ense	-1685
▁interne	-1686
▁cal	-1687
▁ten	-1688
▁ajou	-1689
▁paragrap	-1690
▁met	-1691
▁missions	-1692
aison	-1693
IR	-1694
▁préfet	-1695
▁cel	-1696
▁budget	-1697
dr	-1698
▁maritime	-1699
EC	-1700
▁limitée	-1701
lex	-1702
▁piè	-1703
▁écri	-1704
▁territoire	-1705
▁ont	-1706
▁fixée	-1707
▁ligne	-1708
32	-1709
lo	-1710
-20	-1711
▁opérations	-1712
intérieur	-1713
▁suivante	-1714
▁complété	-1715
miss	-1716
▁cet	-1717
ichel	-1718
ils	-1719
▁annex	-1720
gés	-1721
rou	-1722
▁"7	-1723
▁maj	-1724
▁doivent	-1725
▁5°	-1726
▁libéral	-1727
▁respect	-1728
ran	-1729
▁attach	-1730
▁spécialité	-1731
▁secrétaire	-1732
▁cir	-1733
▁DES	-1734
▁maxim	-1735
ôpitaux	-1736
▁territoriales	-1737
Pierre	-1738
cours	-1739
iti	-1740
rêt	-1741
Institut	-1742
▁vol	-1743
yn	-1744
▁jury	-1745
▁2016	-1746
▁pê	-1747
▁police	-1748
épreuve	-1749
▁conten	-1750
▁suivi	-1751
▁complément	-1752
▁fixées	-1753
▁val	-1754
▁us	-1755
▁poin	-1756
▁rése	-1757
térieure	-1758
AM	-1759
▁insérés	-1760
lin	-1761
ARD	-1762
aide	-1763
jec	-1764
▁minim	-1765
▁plan	-1766
▁poste	-1767
admission	-1768
▁alinéas	-1769
▁rapport	-1770
étaire	-1771
▁déb	-1772
▁rest	-1773
▁pai	-1774
Arrêté	-1775
sibilité	-1776
▁prendre	-1777
30	-1778
urant	-1779
▁Pré	-1780
mer	-1781
▁répar	-1782
erce	-1783
oine	-1784
▁main	-1785
▁salarié	-1786
▁français	-1787
1.	-1788
▁install	-1789
▁bis	-1790
RO	-1791
▁maladi	-1792
AP	-1793
▁conclu	-1794
▁je	-1795
aisant	-1796
▁supprimés	-1797
▁notifi	-1798
sence	-1799
▁phy	-1800
pement	-1801
▁pati	-1802
▁matéri	-1803
Al	-1804
eng	-1805
étu	-1806
▁eng	-1807
▁temporaire	-1808
▁garanti	-1809
lon	-1810
RI	-1811
▁Cette	-1812
▁admis	-1813
50	-1814
él	-1815
▁écologique	-1816
▁régionale	-1817
▁réception	-1818
▁Y	-1819
alier	-1820
▁situation	-1821
▁base	-1822
▁transition	-1823
▁social	-1824
expéri	-1825
veill	-1826
▁contrib	-1827
▁paragraphe	-1828
▁""	-1829
Pour	-1830
▁2019.	-1831
od	-1832
▁inté	-1833
lles	-1834
▁199	-1835
éli	-1836
▁européenne	-1837
▁indivi	-1838
▁plusi	-1839
▁plusieurs	-1840
OL	-1841
tiers	-1842
effet	-1843
iers	-1844
▁système	-1845
24	-1846
itaire	-1847
▁lesquel	-1848
▁études	-1849
inc	-1850
▁individu	-1851
▁universi	-1852
▁remb	-1853
▁commiss	-1854
entreprise	-1855
▁modifiée	-1856
14	-1857
eau	-1858
ordre	-1859
atoires	-1860
▁précis	-1861
▁contre	-1862
up	-1863
Assistance	-1864
▁programme	-1865
▁documents	-1866
▁abrogé	-1867
▁spécifi	-1868
entrée	-1869
▁reconn	-1870
13	-1871
▁éléments	-1872
2.	-1873
hy	-1874
aly	-1875
itenti	-1876
▁pénitenti	-1877
▁norm	-1878
▁capit	-1879
AC	-1880
▁solidaire	-1881
▁3.	-1882
▁création	-1883
▁internet	-1884
agne	-1885
▁pay	-1886
tension	-1887
▁assure	-1888
/2019-07	-1889
atif	-1890
▁faisant	-1891
▁lui	-1892
▁rémun	-1893
▁hospit	-1894
▁vers	-1895
exploitation	-1896
▁précéd	-1897
aille	-1898
tenant	-1899
ange	-1900
autoris	-1901
élé	-1902
▁jeun	-1903
ograp	-1904
▁Publique	-1905
ze	-1906
▁disposition	-1907
▁exter	-1908
▁situ	-1909
,"	-1910
▁Prem	-1911
atégor	-1912
OM	-1913
▁accomp	-1914
▁prestations	-1915
are	-1916
▁consomm	-1917
▁permettant	-1918
organisme	-1919
adresse	-1920
▁or	-1921
▁numéri	-1922
ôt	-1923
▁000	-1924
▁employ	-1925
▁aér	-1926
taires	-1927
ergie	-1928
ograph	-1929
▁associé	-1930
▁attributions	-1931
illes	-1932
aisse	-1933
▁décisions	-1934
▁celles	-1935
▁frais	-1936
▁internation	-1937
▁simp	-1938
▁adjoint	-1939
atiques	-1940
▁administrative	-1941
▁institu	-1942
▁spécialités	-1943
ension	-1944
▁pres	-1945
▁soins	-1946
▁communes	-1947
▁Z	-1948
ennes	-1949
uer	-1950
▁donnée	-1951
CP	-1952
MENT	-1953
quelle	-1954
▁siè	-1955
atrice	-1956
▁commerce	-1957
état	-1958
Marie	-1959
▁laquelle	-1960
▁pièces	-1961
▁agric	-1962
▁déclaration	-1963
Union	-1964
▁humaines	-1965
▁physi	-1966
▁Partie	-1967
▁paiement	-1968
oph	-1969
tribution	-1970
▁délégu	-1971
▁établissement	-1972
▁De	-1973
onde	-1974
gée	-1975
▁inspec	-1976
▁champ	-1977
▁second	-1978
orte	-1979
oix	-1980
▁catégor	-1981
▁logement	-1982
▁Premier	-1983
▁ty	-1984
tib	-1985
▁année	-1986
▁groupe	-1987
▁relatifs	-1988
▁X	-1989
arial	-1990
▁règles	-1991
anes	-1992
ariat	-1993
chef	-1994
▁maî	-1995
▁Cl	-1996
▁susvisée	-1997
▁relations	-1998
ire	-1999
▁centrale	-2000
▁équi	-2001
tères	-2002
▁certificat	-2003
éth	-2004
▁compos	-2005
▁économique	-2006
autorisation	-2007
tent	-2008
)"	-2009
ocation	-2010
▁destin	-2011
▁Re	-2012
dits	-2013
▁vale	-2014
aume	-2015
▁dev	-2016
▁elle	-2017
▁syn	-2018
36	-2019
▁pouv	-2020
test	-2021
▁adress	-2022
▁magistr	-2023
▁Centre	-2024
▁Ré	-2025
▁toutes	-2026
▁dén	-2027
▁seu	-2028
▁statut	-2029
lus	-2030
▁pendant	-2031
entions	-2032
▁supérieure	-2033
▁fam	-2034
ind	-2035
▁maladie	-2036
▁télé	-2037
▁Th	-2038
France	-2039
▁35	-2040
▁six	-2041
▁as	-2042
tives	-2043
▁obten	-2044
▁mob	-2045
ice	-2046
-19	-2047
▁contin	-2048
▁professionnels	-2049
10	-2050
▁vé	-2051
ouis	-2052
▁activité	-2053
▁modification	-2054
énergie	-2055
/2019-06	-2056
énagement	-2057
mise	-2058
▁pêche	-2059
▁Ces	-2060
cole	-2061
▁Ly	-2062
▁exercer	-2063
endre	-2064
tention	-2065
ront	-2066
IE	-2067
naires	-2068
▁valid	-2069
▁principal	-2070
▁délégation	-2071
▁Gr	-2072
▁quali	-2073
union	-2074
▁unique	-2075
/2019-10	-2076
▁responsable	-2077
ver	-2078
vé	-2079
▁Une	-2080
▁signer	-2081
▁nécessaires	-2082
étés	-2083
ophe	-2084
rès	-2085
forme	-2086
région	-2087
ffre	-2088
tine	-2089
hic	-2090
▁taux	-2091
sur	-2092
78	-2093
èle	-2094
atri	-2095
otte	-2096
▁celui	-2097
hicu	-2098
▁notarial	-2099
eine	-2100
agers	-2101
▁nommés	-2102
▁assur	-2103
▁calcul	-2104
3-2	-2105
téph	-2106
3.	-2107
ry	-2108
▁Philippe	-2109
▁«-	-2110
▁diplôme	-2111
cité	-2112
▁véhicu	-2113
▁vue	-2114
▁François	-2115
sie	-2116
icol	-2117
▁mandat	-2118
orde	-2119
cid	-2120
▁Pro	-2121
▁véri	-2122
▁territoires	-2123
▁cinq	-2124
▁régime	-2125
onel	-2126
▁autorité	-2127
▁Lorsque	-2128
hérap	-2129
UR	-2130
après	-2131
hésion	-2132
habit	-2133
isc	-2134
▁Nig	-2135
instance	-2136
70	-2137
sy	-2138
abri	-2139
▁Mont	-2140
orient	-2141
ing	-2142
ône	-2143
▁nouvelle	-2144
25	-2145
ommun	-2146
▁Jac	-2147
▁titres	-2148
▁comptable	-2149
▁sens	-2150
▁Nigend	-2151
▁outre	-2152
▁Ier	-2153
aceuti	-2154
▁inféri	-2155
regis	-2156
TRE	-2157
nov	-2158
Il	-2159
▁tari	-2160
▁scol	-2161
▁quat	-2162
45	-2163
79	-2164
CE	-2165
ist	-2166
III	-2167
15	-2168
ites	-2169
▁vie	-2170
▁gé	-2171
alimentation	-2172
aude	-2173
▁75	-2174
titude	-2175
▁accep	-2176
▁prévus	-2177
ème	-2178
▁solidar	-2179
DE	-2180
▁domaine	-2181
▁rep	-2182
vers	-2183
ulaire	-2184
ulation	-2185
ouvernement	-2186
▁Lyon	-2187
▁consid	-2188
▁inc	-2189
▁aut	-2190
lier	-2191
▁charges	-2192
ourg	-2193
serv	-2194
▁cert	-2195
▁prépar	-2196
vention	-2197
élè	-2198
▁déro	-2199
exception	-2200
truc	-2201
▁préal	-2202
la	-2203
éch	-2204
▁document	-2205
achet	-2206
▁sociales	-2207
75	-2208
dex	-2209
▁"3°	-2210
▁inscriptions	-2211
▁siège	-2212
38	-2213
▁dossiers	-2214
utilisation	-2215
cien	-2216
▁pharmaci	-2217
▁éch	-2218
ataire	-2219
▁mon	-2220
/2019-08	-2221
amp	-2222
▁confi	-2223
asc	-2224
ordonnance	-2225
tements	-2226
▁médecin	-2227
abili	-2228
oration	-2229
40	-2230
▁pass	-2231
▁soumis	-2232
▁rendu	-2233
▁externe	-2234
dite	-2235
▁dispositif	-2236
▁march	-2237
▁6°	-2238
truct	-2239
▁temps	-2240
ologne	-2241
▁euros	-2242
olution	-2243
▁demand	-2244
icolas	-2245
▁pharmaceuti	-2246
aute	-2247
▁mer	-2248
▁régional	-2249
enses	-2250
▁réd	-2251
▁applicable	-2252
▁jeunesse	-2253
▁terr	-2254
▁celle	-2255
▁territoriale	-2256
▁interrégion	-2257
Hôpitaux	-2258
▁contrac	-2259
veillance	-2260
▁afin	-2261
▁fisc	-2262
▁risques	-2263
46	-2264
▁rue	-2265
▁académ	-2266
▁Char	-2267
▁Etat	-2268
76	-2269
avis	-2270
Th	-2271
▁systèmes	-2272
▁Michel	-2273
▁esp	-2274
▁prévention	-2275
inique	-2276
▁emplois	-2277
▁figurant	-2278
▁VI	-2279
▁tax	-2280
clusion	-2281
▁médicale	-2282
1-3	-2283
1,	-2284
oul	-2285
écuti	-2286
cad	-2287
▁sau	-2288
26	-2289
▁forme	-2290
Pologne	-2291
▁fonctionnement	-2292
▁proposition	-2293
▁définis	-2294
▁financement	-2295
Dans	-2296
▁titulaires	-2297
inspec	-2298
16	-2299
▁moyen	-2300
aménagement	-2301
inet	-2302
▁exam	-2303
▁"8	-2304
livier	-2305
▁douanes	-2306
onib	-2307
▁4.	-2308
ôts	-2309
▁Cour	-2310
▁conserv	-2311
ines	-2312
novation	-2313
▁étrangères	-2314
dité	-2315
▁Président	-2316
▁Des	-2317
▁rang	-2318
cap	-2319
Rh	-2320
autre	-2321
ression	-2322
entiels	-2323
tophe	-2324
▁financier	-2325
édération	-2326
▁prom	-2327
direction	-2328
médi	-2329
▁politique	-2330
▁candidature	-2331
▁consommation	-2332
ouvel	-2333
▁class	-2334
▁production	-2335
▁détach	-2336
Sont	-2337
▁parties	-2338
élégation	-2339
▁gaz	-2340
▁concernant	-2341
Ecole	-2342
ustri	-2343
▁Cité	-2344
▁retrait	-2345
▁bâ	-2346
▁And	-2347
▁civil	-2348
/2019-09	-2349
▁réparti	-2350
2,	-2351
▁«,	-2352
▁Cor	-2353
▁construction	-2354
ommand	-2355
▁préalable	-2356
▁requ	-2357
▁2020,	-2358
▁exig	-2359
▁circul	-2360
▁biens	-2361
ffe	-2362
▁détermin	-2363
▁scientifi	-2364
▁coopération	-2365
▁cli	-2366
▁foi	-2367
▁adap	-2368
érateur	-2369
▁huissi	-2370
▁dérou	-2371
www	-2372
▁particulier	-2373
▁Q	-2374
▁conseiller	-2375
▁spécialis	-2376
ani	-2377
▁cyc	-2378
▁administratif	-2379
▁Anne	-2380
▁disponib	-2381
▁identifi	-2382
lexand	-2383
▁communication	-2384
▁rédaction	-2385
urr	-2386
isse	-2387
▁avoir	-2388
▁am	-2389
gouv	-2390
▁propri	-2391
accueil	-2392
4.	-2393
▁économiques	-2394
▁crédits	-2395
▁dernière	-2396
▁commissaire	-2397
jud	-2398
▁bes	-2399
▁réalisation	-2400
▁obligations	-2401
agré	-2402
▁mesure	-2403
ATION	-2404
▁Ass	-2405
▁perman	-2406
usage	-2407
▁sais	-2408
▁industri	-2409
▁eaux	-2410
ologiques	-2411
▁Gouvernement	-2412
▁Car	-2413
ettes	-2414
abinet	-2415
téris	-2416
48	-2417
▁étudi	-2418
▁installations	-2419
AE	-2420
▁indemn	-2421
lan	-2422
CI	-2423
Chris	-2424
issue	-2425
▁dém	-2426
emp	-2427
▁dépenses	-2428
ains	-2429
▁occ	-2430
49	-2431
ber	-2432
▁2015	-2433
réd	-2434
▁ent	-2435
▁str	-2436
▁cent	-2437
install	-2438
▁33	-2439
▁».	-2440
▁cri	-2441
ceptib	-2442
toine	-2443
die	-2444
▁ET	-2445
aviation	-2446
▁recommand	-2447
▁type	-2448
▁recours	-2449
avenant	-2450
▁comprend	-2451
▁conventions	-2452
atrième	-2453
▁statu	-2454
▁surveillance	-2455
quer	-2456
▁susceptib	-2457
▁bâti	-2458
LI	-2459
équ	-2460
▁Br	-2461
▁post	-2462
▁Che	-2463
▁moyens	-2464
▁consécuti	-2465
▁lab	-2466
tein	-2467
▁2014	-2468
agrément	-2469
▁correspondant	-2470
▁patients	-2471
rédéri	-2472
nements	-2473
▁DÉ	-2474
▁enf	-2475
▁européen	-2476
sibles	-2477
rer	-2478
▁acquis	-2479
uclé	-2480
▁ministres	-2481
AD	-2482
▁appr	-2483
judant	-2484
▁cabinet	-2485
▁militaire	-2486
art	-2487
▁fois	-2488
▁équ	-2489
acité	-2490
▁ceux	-2491
▁fonds	-2492
fession	-2493
▁défaut	-2494
▁tel	-2495
orig	-2496
▁cohésion	-2497
accomp	-2498
AND	-2499
sych	-2500
▁ingénieur	-2501
▁secteur	-2502
rig	-2503
ARM	-2504
tendu	-2505
exclusion	-2506
▁tant	-2507
▁concernés	-2508
▁59	-2509
agent	-2510
▁prises	-2511
▁Di	-2512
▁pharmaceutiques	-2513
▁propos	-2514
fiée	-2515
▁division	-2516
aptitude	-2517
endarm	-2518
▁quatrième	-2519
▁total	-2520
▁som	-2521
▁ouvr	-2522
▁Val	-2523
▁appro	-2524
▁commerci	-2525
▁sciences	-2526
▁administratifs	-2527
▁supprimé	-2528
▁délib	-2529
FF	-2530
tt	-2531
rement	-2532
▁exception	-2533
Agence	-2534
▁délivr	-2535
▁seront	-2536
▁caractéris	-2537
çant	-2538
▁major	-2539
▁valeur	-2540
endarmerie	-2541
▁quatre	-2542
▁fa	-2543
▁professe	-2544
▁prescri	-2545
OS	-2546
isl	-2547
41	-2548
▁marché	-2549
orti	-2550
▁cachet	-2551
cession	-2552
ouvements	-2553
▁méth	-2554
▁mêmes	-2555
▁nuclé	-2556
▁rémunération	-2557
▁réseau	-2558
Gu	-2559
▁conjoin	-2560
-10	-2561
▁1,	-2562
▁Ren	-2563
▁demandes	-2564
érie	-2565
▁terme	-2566
39	-2567
voir	-2568
études	-2569
anim	-2570
28	-2571
▁administrateur	-2572
▁employeurs	-2573
▁obligatoires	-2574
absence	-2575
mman	-2576
▁technici	-2577
ILL	-2578
▁cau	-2579
▁état	-2580
ope	-2581
▁nég	-2582
▁expéri	-2583
▁numérique	-2584
andicap	-2585
▁financiers	-2586
▁terrain	-2587
▁psych	-2588
▁conseill	-2589
▁transfert	-2590
indemn	-2591
AB	-2592
let	-2593
tructure	-2594
autres	-2595
intérêt	-2596
section	-2597
aî	-2598
▁th	-2599
▁territorial	-2600
MTR	-2601
4,	-2602
uni	-2603
▁sû	-2604
dessus	-2605
inscri	-2606
em	-2607
gne	-2608
tier	-2609
▁contractu	-2610
▁formations	-2611
mob	-2612
ouvellement	-2613
irur	-2614
▁administratives	-2615
af	-2616
tiv	-2617
▁Toute	-2618
ival	-2619
mblée	-2620
▁indiqu	-2621
▁contrats	-2622
▁gendarmerie	-2623
▁départemental	-2624
reté	-2625
▁déterm	-2626
▁initi	-2627
▁handicap	-2628
▁Paul	-2629
lection	-2630
▁objec	-2631
▁chambre	-2632
▁agricole	-2633
atrie	-2634
tariat	-2635
▁adjointe	-2636
origine	-2637
ositions	-2638
mande	-2639
ordeaux	-2640
47	-2641
▁dépôt	-2642
installation	-2643
▁médica	-2644
▁chacune	-2645
▁coord	-2646
Délégation	-2647
IG	-2648
▁7°	-2649
INT	-2650
illaume	-2651
▁Cedex	-2652
▁point	-2653
▁Parties	-2654
équi	-2655
▁aérienne	-2656
▁catégorie	-2657
▁syndic	-2658
▁contrô	-2659
▁connaissance	-2660
ubri	-2661
▁résultats	-2662
60	-2663
urb	-2664
▁sécher	-2665
▁Bordeaux	-2666
▁sécheresse	-2667
▁décéd	-2668
▁discip	-2669
▁ils	-2670
▁résultant	-2671
dessous	-2672
vet	-2673
seille	-2674
▁caractère	-2675
attach	-2676
▁proté	-2677
▁effets	-2678
▁lorsqu	-2679
▁transmission	-2680
vient	-2681
ong	-2682
▁2020.	-2683
▁offerts	-2684
▁solidarités	-2685
▁délivrance	-2686
vestis	-2687
68	-2688
▁simpli	-2689
▁autorisée	-2690
▁Comm	-2691
esp	-2692
alie	-2693
vement	-2694
tivement	-2695
AV	-2696
▁Ser	-2697
adémie	-2698
intéress	-2699
▁désigné	-2700
ME	-2701
▁spor	-2702
▁mor	-2703
▁pron	-2704
▁éval	-2705
▁Commission	-2706
▁let	-2707
ernard	-2708
▁mainten	-2709
▁navigation	-2710
ck	-2711
ophie	-2712
▁opération	-2713
enri	-2714
▁infr	-2715
innovation	-2716
▁renouvellement	-2717
▁certification	-2718
rovi	-2719
▁groupement	-2720
▁transmis	-2721
Cal	-2722
erine	-2723
▁aérone	-2724
▁évent	-2725
▁sem	-2726
▁précise	-2727
▁admission	-2728
ureur	-2729
▁sûreté	-2730
▁consécutifs	-2731
65	-2732
nels	-2733
ètre	-2734
▁chois	-2735
▁emploi	-2736
ycée	-2737
▁Jacques	-2738
▁élè	-2739
présidente	-2740
▁lesquelles	-2741
OP	-2742
▁tiers	-2743
▁contract	-2744
▁sanctions	-2745
▁2,	-2746
▁ferrovi	-2747
▁transmet	-2748
//	-2749
▁én	-2750
▁désignés	-2751
▁André	-2752
actions	-2753
▁"«-	-2754
▁Mouvements	-2755
lab	-2756
Juli	-2757
3,	-2758
quent	-2759
▁enfants	-2760
▁procédures	-2761
▁Si	-2762
oupe	-2763
▁début	-2764
▁32	-2765
édi	-2766
alyse	-2767
▁fixe	-2768
ami	-2769
anne	-2770
bation	-2771
▁autorités	-2772
▁militaires	-2773
anie	-2774
Cl	-2775
rées	-2776
engagement	-2777
▁pénitentiaires	-2778
▁htt	-2779
assure	-2780
▁coopér	-2781
://	-2782
entiel	-2783
▁dérogation	-2784
ug	-2785
▁cadres	-2786
▁étendu	-2787
▁signature	-2788
69	-2789
asi	-2790
▁consult	-2791
▁interdite	-2792
▁composition	-2793
▁considéré	-2794
▁dix	-2795
▁dépos	-2796
▁nouve	-2797
ote	-2798
▁pil	-2799
▁Lille	-2800
▁conduite	-2801
▁sols	-2802
▁chez	-2803
▁susp	-2804
▁comporte	-2805
▁compétente	-2806
urope	-2807
▁manière	-2808
association	-2809
▁académique	-2810
▁financière	-2811
▁secrétariat	-2812
atation	-2813
2-3	-2814
PAR	-2815
▁rubri	-2816
▁statuts	-2817
trie	-2818
▁fonctionnaires	-2819
▁Guy	-2820
▁reç	-2821
▁forê	-2822
rédéric	-2823
ominique	-2824
▁Commune	-2825
expérimentation	-2826
▁condition	-2827
abelle	-2828
▁épreuve	-2829
▁hom	-2830
huissi	-2831
omas	-2832
▁locaux	-2833
▁marchés	-2834
▁restant	-2835
▁parcours	-2836
pri	-2837
QUE	-2838
▁50	-2839
▁attest	-2840
▁mettre	-2841
▁pays	-2842
duction	-2843
téphane	-2844
/2019-05	-2845
▁AU	-2846
▁Juli	-2847
▁sociétés	-2848
▁équipe	-2849
▁rédigée	-2850
55	-2851
▁exploit	-2852
▁usagers	-2853
/2019-04	-2854
▁recettes	-2855
▁audi	-2856
François	-2857
▁projets	-2858
▁(2	-2859
▁Sont	-2860
▁suppléant	-2861
titulé	-2862
agements	-2863
▁vote	-2864
▁numéro	-2865
tructures	-2866
profession	-2867
▁port	-2868
▁Louis	-2869
▁physique	-2870
▁cah	-2871
▁MAR	-2872
▁exc	-2873
atifs	-2874
habitation	-2875
▁clas	-2876
▁maximum	-2877
EP	-2878
su	-2879
▁Tri	-2880
▁renouvel	-2881
▁compétence	-2882
▁scientifique	-2883
offre	-2884
incent	-2885
hydr	-2886
▁législ	-2887
▁appar	-2888
▁Marseille	-2889
▁gestionnaire	-2890
7,	-2891
ingénie	-2892
▁statis	-2893
▁normale	-2894
▁dès	-2895
AUD	-2896
▁écrite	-2897
29	-2898
▁rembour	-2899
▁cinqu	-2900
▁valoir	-2901
urrence	-2902
ju	-2903
▁examen	-2904
▁places	-2905
IRE	-2906
utions	-2907
urgence	-2908
▁reconnaissance	-2909
èse	-2910
▁2006	-2911
▁2008	-2912
▁appel	-2913
arb	-2914
hydratation	-2915
IV	-2916
oris	-2917
▁justific	-2918
erm	-2919
▁ref	-2920
Autorité	-2921
▁péd	-2922
▁lang	-2923
▁véhicules	-2924
itz	-2925
▁fac	-2926
43	-2927
2-0	-2928
▁Not	-2929
ta	-2930
aliné	-2931
▁enseign	-2932
alinéa	-2933
mandant	-2934
chw	-2935
-1,	-2936
registre	-2937
▁constat	-2938
▁réhydratation	-2939
fait	-2940
Char	-2941
▁centres	-2942
▁autorisation	-2943
lège	-2944
▁bord	-2945
sabelle	-2946
09	-2947
oise	-2948
▁font	-2949
extension	-2950
▁différentiels	-2951
enis	-2952
onie	-2953
ètres	-2954
▁budgétaire	-2955
effec	-2956
▁2018,	-2957
agog	-2958
▁pop	-2959
ôture	-2960
nes	-2961
77	-2962
con	-2963
▁cotis	-2964
▁sociaux	-2965
université	-2966
RM	-2967
ôte	-2968
▁clôture	-2969
▁association	-2970
▁position	-2971
▁5.	-2972
▁cahier	-2973
▁hy	-2974
▁ret	-2975
▁procureur	-2976
▁Aus	-2977
ection	-2978
rin	-2979
▁entr	-2980
▁égal	-2981
colonel	-2982
ERT	-2983
étrang	-2984
▁intérieur	-2985
▁patr	-2986
▁nécessi	-2987
▁périodes	-2988
▁environnement	-2989
▁adjudant	-2990
▁aéronefs	-2991
58	-2992
UN	-2993
admis	-2994
▁2010	-2995
nelles	-2996
▁orale	-2997
hérapeu	-2998
▁pédagog	-2999
▁postale	-3000
arch	-3001
trop	-3002
lor	-3003
▁vente	-3004
▁ai	-3005
▁cycle	-3006
▁rubrique	-3007
▁autorisant	-3008
▁délais	-3009
▁vérifi	-3010
▁mu	-3011
Paul	-3012
bert	-3013
▁Ils	-3014
lexandre	-3015
effici	-3016
▁exclu	-3017
admissibilité	-3018
▁complémentaire	-3019
TER	-3020
▁"4°	-3021
étranger	-3022
▁inscription	-3023
▁créé	-3024
▁équival	-3025
comp	-3026
▁Concours	-3027
instruction	-3028
▁hospitali	-3029
▁notification	-3030
▁Nouvelle	-3031
ières	-3032
▁annexé	-3033
▁chirur	-3034
orientation	-3035
Rhône	-3036
.00	-3037
ura	-3038
ault	-3039
▁impôts	-3040
INE	-3041
oment	-3042
▁objet	-3043
▁délégué	-3044
▁perform	-3045
▁512	-3046
▁remboursement	-3047
▁k	-3048
▁principale	-3049
▁obligatoire	-3050
cel	-3051
obli	-3052
allocation	-3053
fois	-3054
ertion	-3055
▁choix	-3056
▁définie	-3057
duc	-3058
▁séj	-3059
▁ajouté	-3060
ennent	-3061
▁participation	-3062
Philippe	-3063
▁1984	-3064
ustrie	-3065
▁attein	-3066
▁moment	-3067
▁38	-3068
▁Pol	-3069
chwitz	-3070
▁Auschwitz	-3071
66	-3072
▁rur	-3073
▁mobilité	-3074
▁pol	-3075
inspection	-3076
éb	-3077
mobili	-3078
atherine	-3079
arme	-3080
ascal	-3081
▁arrêtés	-3082
▁ouverts	-3083
▁médical	-3084
▁note	-3085
▁élèves	-3086
orsqu	-3087
▁points	-3088
▁examens	-3089
▁minimum	-3090
ome	-3091
▁vari	-3092
▁i	-3093
▁adresse	-3094
▁seconde	-3095
animation	-3096
▁fixés	-3097
▁rembours	-3098
17	-3099
use	-3100
épar	-3101
▁Etats	-3102
▁simplifiée	-3103
▁puis	-3104
▁thérapeu	-3105
Europe	-3106
▁attachée	-3107
ène	-3108
▁lien	-3109
astien	-3110
▁réseaux	-3111
▁démission	-3112
▁rendues	-3113
rage	-3114
▁change	-3115
directeur	-3116
▁validation	-3117
oth	-3118
▁40	-3119
▁Olivier	-3120
▁exerçant	-3121
ESS	-3122
▁répartition	-3123
▁Franç	-3124
▁courir	-3125
▁financières	-3126
istes	-3127
▁session	-3128
rie	-3129
chet	-3130
▁May	-3131
▁Trib	-3132
▁rend	-3133
▁pouvoir	-3134
eorg	-3135
▁Réunion	-3136
3-3	-3137
ffectation	-3138
▁pharmacie	-3139
QU	-3140
dice	-3141
▁dépl	-3142
AGR	-3143
▁objectifs	-3144
▁porte	-3145
▁travaille	-3146
▁nécessaire	-3147
▁risque	-3148
UM	-3149
intéressé	-3150
▁supplément	-3151
▁ouver	-3152
▁avenant	-3153
vés	-3154
▁pe	-3155
éder	-3156
industrie	-3157
▁tu	-3158
CF	-3159
▁Cons	-3160
▁critères	-3161
▁Tribunal	-3162
ANT	-3163
▁Or	-3164
▁nucléaire	-3165
Or	-3166
ierry	-3167
▁susceptibles	-3168
ieux	-3169
ville	-3170
▁2012	-3171
TEMENT	-3172
atrick	-3173
gré	-3174
isp	-3175
unité	-3176
▁1986	-3177
férence	-3178
▁lettre	-3179
▁coordonn	-3180
▁circulation	-3181
▁départements	-3182
▁distribution	-3183
▁cheffe	-3184
▁Ad	-3185
bourg	-3186
huissier	-3187
LA	-3188
toc	-3189
▁auc	-3190
▁agent	-3191
▁devant	-3192
▁divers	-3193
▁commande	-3194
▁politiques	-3195
▁3,	-3196
ILLE	-3197
dre	-3198
▁patrim	-3199
▁collège	-3200
▁lieutenant	-3201
aits	-3202
obligation	-3203
rets	-3204
▁Toul	-3205
▁tenu	-3206
▁années	-3207
▁universitaire	-3208
▁Henri	-3209
5,	-3210
-1.	-3211
▁dési	-3212
érés	-3213
▁indirec	-3214
▁programmes	-3215
▁fins	-3216
▁approuv	-3217
erc	-3218
▁sauf	-3219
▁tour	-3220
employ	-3221
rêts	-3222
▁anim	-3223
ologies	-3224
▁milieu	-3225
59	-3226
uri	-3227
yné	-3228
▁34	-3229
réci	-3230
ges	-3231
▁muni	-3232
agnement	-3233
ode	-3234
1-0	-3235
çon	-3236
▁Ben	-3237
zième	-3238
valier	-3239
▁rédigés	-3240
▁ouvert	-3241
37	-3242
ède	-3243
expérience	-3244
uels	-3245
▁diplô	-3246
ffis	-3247
oyer	-3248
▁qualifi	-3249
aces	-3250
▁présenter	-3251
qués	-3252
utes	-3253
oseph	-3254
gard	-3255
▁répond	-3256
▁conformité	-3257
▁juridiction	-3258
▁prix	-3259
▁taxe	-3260
SSAS	-3261
onau	-3262
▁prononc	-3263
▁satis	-3264
ble	-3265
▁lut	-3266
exploitant	-3267
89	-3268
▁pont	-3269
▁officiers	-3270
▁hospitalier	-3271
▁bou	-3272
▁extension	-3273
▁2021	-3274
▁raison	-3275
80	-3276
ia	-3277
▁É	-3278
...	-3279
▁2009	-3280
▁Martin	-3281
insertion	-3282
▁Toulouse	-3283
▁lesquels	-3284
telle	-3285
ones	-3286
agence	-3287
▁séjour	-3288
▁organisation	-3289
âge	-3290
▁reten	-3291
▁délivré	-3292
▁dispositifs	-3293
▁marine	-3294
▁gre	-3295
▁44	-3296
▁2020."	-3297
enf	-3298
▁Cha	-3299
▁Bernard	-3300
▁hon	-3301
ition	-3302
▁scolaire	-3303
vie	-3304
ève	-3305
▁ul	-3306
▁DÉPAR	-3307
▁reven	-3308
ha	-3309
tieux	-3310
applique	-3311
▁dét	-3312
▁suite	-3313
erg	-3314
▁logis	-3315
▁cop	-3316
▁permis	-3317
issant	-3318
▁géograph	-3319
▁cinquième	-3320
tro	-3321
▁1942	-3322
▁promo	-3323
▁Laurent	-3324
▁pénitentiaire	-3325
▁minutes	-3326
élène	-3327
▁concerné	-3328
▁métiers	-3329
▁généraux	-3330
ION	-3331
ynésie	-3332
ienne	-3333
▁sports	-3334
-2,	-3335
Val	-3336
tances	-3337
5.	-3338
per	-3339
▁lic	-3340
tip	-3341
▁CON	-3342
▁refus	-3343
registrement	-3344
avid	-3345
▁cont	-3346
Alpes	-3347
▁préparation	-3348
▁bénéficier	-3349
▁DÉPARTEMENT	-3350
▁directeurs	-3351
▁références	-3352
▁transformation	-3353
ly	-3354
▁stage	-3355
Anne	-3356
▁indép	-3357
▁pouvant	-3358
enseignements	-3359
Seine	-3360
tième	-3361
▁Claude	-3362
▁Parlement	-3363
▁spécifiques	-3364
▁36	-3365
▁mutu	-3366
▁heure	-3367
▁entreprise	-3368
▁autorisations	-3369
charg	-3370
▁anti	-3371
▁forêts	-3372
appliquent	-3373
▁Polynésie	-3374
▁ferroviaire	-3375
▁bon	-3376
▁quin	-3377
▁métrop	-3378
▁regard	-3379
▁informe	-3380
opérateur	-3381
▁organisme	-3382
mpli	-3383
▁exclusi	-3384
aissances	-3385
▁conseils	-3386
▁Aux	-3387
appro	-3388
▁devra	-3389
▁lutte	-3390
▁exigences	-3391
oline	-3392
tian	-3393
ataires	-3394
▁étudiants	-3395
▁2007	-3396
▁pilot	-3397
▁générales	-3398
AY	-3399
▁Lycée	-3400
▁égale	-3401
▁naturel	-3402
tablissement	-3403
06	-3404
erti	-3405
▁Rou	-3406
tienne	-3407
▁parten	-3408
▁produc	-3409
▁préci	-3410
▁331	-3411
amille	-3412
eorges	-3413
mmanuel	-3414
▁contentieux	-3415
ock	-3416
asile	-3417
▁comb	-3418
▁demandeur	-3419
térieurement	-3420
▁organisations	-3421
tel	-3422
val	-3423
▁chi	-3424
entité	-3425
▁besoins	-3426
avier	-3427
▁visées	-3428
▁annuelle	-3429
▁détachement	-3430
entin	-3431
▁habit	-3432
▁journ	-3433
▁décrets	-3434
assemblée	-3435
mètre	-3436
til	-3437
▁soutien	-3438
abilitation	-3439
▁enseignants	-3440
▁équipements	-3441
ingt	-3442
▁bre	-3443
▁Soci	-3444
ates	-3445
▁rece	-3446
▁durable	-3447
▁interven	-3448
▁complémentaires	-3449
▁unités	-3450
▁capitaine	-3451
EM	-3452
▁8°	-3453
▁gl	-3454
liation	-3455
▁fournit	-3456
onnes	-3457
▁capacité	-3458
assurer	-3459
lig	-3460
▁Dominique	-3461
▁universités	-3462
ile	-3463
▁diplômes	-3464
86	-3465
uration	-3466
▁maître	-3467
Université	-3468
▁comportant	-3469
cl	-3470
▁ancien	-3471
▁pénale	-3472
▁associée	-3473
▁précédent	-3474
▁autom	-3475
entretien	-3476
▁respectivement	-3477
ser	-3478
▁performance	-3479
ien	-3480
▁dispose	-3481
▁disciplin	-3482
▁ingénieurs	-3483
44	-3484
gées	-3485
▁voi	-3486
itaires	-3487
▁navires	-3488
▁inférieur	-3489
▁hau	-3490
uelles	-3491
▁sanitaire	-3492
del	-3493
école	-3494
▁221-1	-3495
▁différents	-3496
ête	-3497
▁Acc	-3498
tière	-3499
▁près	-3500
titution	-3501
▁Nicolas	-3502
▁versement	-3503
▁fav	-3504
ébastien	-3505
▁mul	-3506
versi	-3507
Con	-3508
armement	-3509
▁annexes	-3510
▁concurrence	-3511
▁bénéficiaires	-3512
▁http	-3513
▁Caisse	-3514
académie	-3515
▁coeffici	-3516
▁départementale	-3517
LO	-3518
ALE	-3519
▁aven	-3520
▁pourront	-3521
ds	-3522
▁Qu	-3523
▁IN	-3524
▁Mayotte	-3525
▁2013	-3526
▁maîtr	-3527
▁pilotage	-3528
cti	-3529
usion	-3530
▁rattach	-3531
▁interprofession	-3532
▁Rob	-3533
▁déten	-3534
iration	-3535
▁secours	-3536
▁immobili	-3537
qué	-3538
11-1	-3539
▁Syl	-3540
▁plaf	-3541
12-1	-3542
▁2005	-3543
▁rural	-3544
▁attaché	-3545
▁forfait	-3546
▁Christophe	-3547
▁coordination	-3548
voi	-3549
▁phase	-3550
▁individuelle	-3551
IM	-3552
Loire	-3553
▁préfec	-3554
71	-3555
99	-3556
outre	-3557
omination	-3558
▁accompagn	-3559
▁bénéficiaire	-3560
▁Lu	-3561
▁Est	-3562
atégie	-3563
gement	-3564
▁continu	-3565
▁devront	-3566
élec	-3567
▁ponts	-3568
▁2019-1	-3569
édonie	-3570
▁détail	-3571
▁pension	-3572
▁présentation	-3573
▁bil	-3574
Michel	-3575
istant	-3576
▁usage	-3577
▁zones	-3578
athalie	-3579
▁présidente	-3580
▁Str	-3581
▁spécifique	-3582
ulle	-3583
occ	-3584
▁PRO	-3585
▁famili	-3586
Calédonie	-3587
▁conseillère	-3588
▁responsables	-3589
lev	-3590
ISS	-3591
▁"1.	-3592
▁lequel	-3593
▁Bou	-3594
▁médicaments	-3595
▁GU	-3596
inform	-3597
▁Isabelle	-3598
▁courrier	-3599
▁figurent	-3600
▁sc	-3601
▁225	-3602
▁2011	-3603
▁dispens	-3604
▁nouveau	-3605
raî	-3606
▁circ	-3607
▁décédé	-3608
▁désignation	-3609
aître	-3610
▁bran	-3611
compos	-3612
ements	-3613
▁Chevalier	-3614
▁demander	-3615
effectu	-3616
▁conforme	-3617
lici	-3618
▁mises	-3619
illi	-3620
▁sport	-3621
▁réglementation	-3622
ID	-3623
Mariti	-3624
Lorsque	-3625
▁42	-3626
▁opér	-3627
▁prati	-3628
▁recouv	-3629
▁communau	-3630
aure	-3631
▁stock	-3632
▁garantie	-3633
amin	-3634
▁Sous	-3635
▁Joseph	-3636
72	-3637
employeur	-3638
▁périmètre	-3639
▁navire	-3640
▁remboursables	-3641
▁patient	-3642
identification	-3643
7."	-3644
ibles	-3645
▁Antoine	-3646
▁Société	-3647
rm	-3648
▁Alain	-3649
▁directement	-3650
▁réglementaires	-3651
▁rempli	-3652
▁moyenne	-3653
▁prescriptions	-3654
ony	-3655
▁maintien	-3656
▁connaissances	-3657
▁100	-3658
▁évalu	-3659
estions	-3660
▁observ	-3661
▁aéronau	-3662
▁promotion	-3663
face	-3664
▁ledit	-3665
▁comptables	-3666
MTRT	-3667
▁modifications	-3668
air	-3669
▁EN	-3670
▁jeux	-3671
ministéri	-3672
sp	-3673
▁"2.	-3674
▁interministéri	-3675
▁René	-3676
▁langue	-3677
08	-3678
▁62	-3679
▁copie	-3680
▁regis	-3681
Nicolas	-3682
▁écoles	-3683
unaux	-3684
▁Catherine	-3685
▁façon	-3686
/2019-03	-3687
▁technicien	-3688
ûts	-3689
.00”	-3690
infr	-3691
▁Marc	-3692
▁noms	-3693
investis	-3694
▁stratégie	-3695
▁limites	-3696
intégration	-3697
▁BOU	-3698
ellier	-3699
▁brevet	-3700
73	-3701
▁bâtiment	-3702
▁certains	-3703
74	-3704
CO	-3705
ox	-3706
▁ord	-3707
▁médi	-3708
▁grand	-3709
▁contrôleur	-3710
vali	-3711
▁permettre	-3712
▁questions	-3713
anche	-3714
nom	-3715
aient	-3716
avoir	-3717
▁travailleurs	-3718
6,	-3719
ignes	-3720
enregistrement	-3721
oute	-3722
▁aérien	-3723
▁remplacées	-3724
▁information	-3725
▁63	-3726
▁dénomm	-3727
▁totale	-3728
▁bénéfice	-3729
accompagnement	-3730
ASS	-3731
armée	-3732
▁long	-3733
▁reti	-3734
-4,	-3735
▁iss	-3736
érôme	-3737
▁repr	-3738
mont	-3739
▁éduc	-3740
▁proxim	-3741
inscrire	-3742
RAN	-3743
duit	-3744
▁préju	-3745
▁Tout	-3746
▁souh	-3747
▁trou	-3748
▁présence	-3749
puis	-3750
èces	-3751
▁org	-3752
▁tarifs	-3753
/2019-12-2	-3754
▁changement	-3755
▁victi	-3756
▁honoraire	-3757
if	-3758
▁VII	-3759
▁fili	-3760
▁reprise	-3761
▁NO	-3762
aniel	-3763
▁tarif	-3764
▁monétaire	-3765
▁structure	-3766
uno	-3767
▁chim	-3768
▁entrent	-3769
▁précité	-3770
▁validité	-3771
▁ministères	-3772
auré	-3773
▁Franc	-3774
▁capital	-3775
▁matériels	-3776
▁411	-3777
▁instru	-3778
orter	-3779
oraires	-3780
veloppe	-3781
▁pratique	-3782
▁nationalité	-3783
ÉS	-3784
▁Ber	-3785
▁méc	-3786
dement	-3787
▁local	-3788
▁indépend	-3789
▁propriété	-3790
▁constituée	-3791
▁proximité	-3792
▁RO	-3793
▁pôle	-3794
agi	-3795
▁depuis	-3796
▁affectés	-3797
▁autorisé	-3798
▁inspecteur	-3799
▁Col	-3800
▁acqu	-3801
UL	-3802
sim	-3803
▁dénomination	-3804
▁mais	-3805
asbourg	-3806
Marc	-3807
tocole	-3808
intervention	-3809
▁Strasbourg	-3810
appr	-3811
▁Lim	-3812
▁Sur	-3813
▁traite	-3814
▁bien	-3815
-25	-3816
▁annuel	-3817
▁parmi	-3818
▁rejet	-3819
▁plafond	-3820
▁numériques	-3821
8,	-3822
Mlle	-3823
▁profi	-3824
▁inscrits	-3825
61	-3826
préf	-3827
line	-3828
tient	-3829
▁option	-3830
▁inférieure	-3831
Ad	-3832
Martin	-3833
▁couver	-3834
indi	-3835
▁adressée	-3836
▁nationaux	-3837
gent	-3838
tiste	-3839
▁ajoutés	-3840
EAU	-3841
▁Me	-3842
Après	-3843
▁Gren	-3844
▁bate	-3845
▁vertu	-3846
avancement	-3847
expiration	-3848
▁anci	-3849
▁lignes	-3850
▁maîtrise	-3851
accal	-3852
▁nationales	-3853
emmes	-3854
ganis	-3855
accalauré	-3856
▁glob	-3857
▁coûts	-3858
▁agricoles	-3859
▁2004	-3860
▁chirurgie	-3861
▁Rennes	-3862
indemnité	-3863
▁certificats	-3864
ess	-3865
▁privé	-3866
ulletin	-3867
▁modèle	-3868
▁commandant	-3869
option	-3870
▁signé	-3871
versité	-3872
▁chargées	-3873
GE	-3874
pellier	-3875
▁satisf	-3876
attribution	-3877
▁Ca	-3878
▁Charles	-3879
▁associations	-3880
-30	-3881
arth	-3882
▁fabri	-3883
▁stagi	-3884
▁procéder	-3885
▁patrimoine	-3886
IA	-3887
onse	-3888
▁baccalauré	-3889
▁candidates	-3890
▁Ro	-3891
▁cess	-3892
analyse	-3893
▁obtenu	-3894
odes	-3895
▁cause	-3896
▁assurer	-3897
Christophe	-3898
▁engagements	-3899
intitulé	-3900
▁négociation	-3901
▁contractante	-3902
▁uti	-3903
ertise	-3904
▁actifs	-3905
7-1	-3906
quisition	-3907
▁Université	-3908
62	-3909
ICH	-3910
ancy	-3911
▁deme	-3912
▁indications	-3913
88	-3914
▁ve	-3915
▁ZIT	-3916
Marne	-3917
▁recueil	-3918
▁Wal	-3919
▁lieux	-3920
▁référentiel	-3921
SE	-3922
05	-3923
odi	-3924
audi	-3925
▁"5°	-3926
▁Notaires	-3927
▁maritimes	-3928
SC	-3929
endu	-3930
▁Montpellier	-3931
▁PAR	-3932
▁caisse	-3933
▁station	-3934
▁autorisés	-3935
▁Pr	-3936
asion	-3937
▁décri	-3938
▁préjudice	-3939
ses	-3940
▁Fédération	-3941
▁concession	-3942
▁situé	-3943
▁quanti	-3944
▁Georges	-3945
▁domaines	-3946
▁montants	-3947
▁catégories	-3948
oux	-3949
▁Ac	-3950
▁format	-3951
jon	-3952
▁indic	-3953
▁liber	-3954
▁accessibles	-3955
érodr	-3956
▁ouvrant	-3957
▁établie	-3958
▁physiques	-3959
▁statistique	-3960
7.	-3961
isme	-3962
oble	-3963
▁baccalauréat	-3964
▁Lorsqu	-3965
▁45	-3966
▁ple	-3967
arité	-3968
▁certaines	-3969
una	-3970
▁9°	-3971
IRES	-3972
Saint	-3973
▁prélè	-3974
Est	-3975
▁1985	-3976
▁telle	-3977
▁111	-3978
▁Sud	-3979
▁concour	-3980
▁support	-3981
▁SN	-3982
▁pratiques	-3983
méli	-3984
bergement	-3985
▁véhicule	-3986
Car	-3987
▁seul	-3988
▁ministériel	-3989
6.	-3990
▁212	-3991
venant	-3992
▁Nantes	-3993
-2.	-3994
▁Su	-3995
rimé	-3996
apprenti	-3997
Guillaume	-3998
eb	-3999
tra	-4000
Louis	-4001
oncours	-4002
▁réguli	-4003
▁continue	-4004
▁immédi	-4005
▁réunion	-4006
▁associées	-4007
▁concernées	-4008
▁cotisations	-4009
▁â	-4010
▁www	-4011
▁Stéphane	-4012
▁maximale	-4013
▁exerce	-4014
▁élector	-4015
lotte	-4016
▁perç	-4017
▁Jo	-4018
uses	-4019
▁simple	-4020
▁volont	-4021
/2019-11-2	-4022
utuna	-4023
▁opérateurs	-4024
omb	-4025
▁55	-4026
▁Nord	-4027
▁vingt	-4028
▁conjoint	-4029
▁label	-4030
-5,	-4031
MIC	-4032
▁minuit	-4033
▁termes	-4034
investissement	-4035
▁Eric	-4036
▁Haute	-4037
èrement	-4038
▁Guyane	-4039
▁professeur	-4040
▁conf	-4041
▁Civi	-4042
opération	-4043
Gar	-4044
Math	-4045
▁ali	-4046
othérap	-4047
▁Martinique	-4048
▁coefficient	-4049
▁Grenoble	-4050
▁prévision	-4051
▁subst	-4052
▁domici	-4053
0,	-4054
co	-4055
▁39	-4056
▁RE	-4057
▁tonnes	-4058
▁concernée	-4059
▁administratrice	-4060
▁neu	-4061
exerc	-4062
gations	-4063
▁Wallis	-4064
ète	-4065
▁vac	-4066
oient	-4067
▁elles	-4068
▁visée	-4069
▁supprimée	-4070
écile	-4071
▁diss	-4072
▁fonctionnaire	-4073
ger	-4074
ton	-4075
INTA	-4076
▁paritaire	-4077
▁judiciaires	-4078
▁men	-4079
Thomas	-4080
▁occup	-4081
veur	-4082
▁jeu	-4083
▁réaliser	-4084
▁211	-4085
▁morale	-4086
CHE	-4087
▁dû	-4088
endie	-4089
▁mines	-4090
▁femmes	-4091
tan	-4092
▁branche	-4093
▁Frédéric	-4094
affectation	-4095
my	-4096
dou	-4097
oup	-4098
ocon	-4099
▁radiation	-4100
err	-4101
▁terre	-4102
▁psychi	-4103
▁initiale	-4104
▁précitée	-4105
▁compétent	-4106
▁traitements	-4107
▁renseignements	-4108
▁52	-4109
▁règle	-4110
▁différentes	-4111
▁Tr	-4112
▁Ile	-4113
▁répu	-4114
chnique	-4115
ick	-4116
nées	-4117
▁sixième	-4118
▁sélection	-4119
▁Pascal	-4120
▁géographique	-4121
▁6.	-4122
erre	-4123
élab	-4124
▁offer	-4125
▁visi	-4126
▁civils	-4127
▁substitu	-4128
▁vérification	-4129
quid	-4130
▁ess	-4131
anterie	-4132
▁suivent	-4133
▁dérouler	-4134
simil	-4135
onneur	-4136
lation	-4137
▁devient	-4138
astructures	-4139
adap	-4140
▁faci	-4141
▁Section	-4142
▁permanente	-4143
▁suspension	-4144
▁chiffre	-4145
▁poly	-4146
aurice	-4147
▁Grand	-4148
▁consign	-4149
▁ensemble	-4150
/2019-12-1	-4151
▁justificatives	-4152
bles	-4153
sant	-4154
▁sommes	-4155
abilités	-4156
▁Patrick	-4157
né	-4158
omain	-4159
érard	-4160
▁1986."	-4161
▁indirects	-4162
▁régulation	-4163
▁personnalités	-4164
▁162-2	-4165
▁Vincent	-4166
▁intéress	-4167
▁matières	-4168
▁coopérative	-4169
pi	-4170
tern	-4171
▁stratég	-4172
▁régionales	-4173
▁contributions	-4174
mat	-4175
▁élab	-4176
cheurs	-4177
▁exercées	-4178
▁familles	-4179
/2019-03-0	-4180
▁réglementaire	-4181
-26	-4182
osé	-4183
▁Robert	-4184
ilis	-4185
▁labor	-4186
▁SNCF	-4187
▁motiv	-4188
ulations	-4189
▁Christian	-4190
▁Del	-4191
▁prior	-4192
▁PER	-4193
▁ville	-4194
urbanis	-4195
▁auxquel	-4196
lés	-4197
▁37	-4198
vice	-4199
mation	-4200
▁Nancy	-4201
Etablissement	-4202
idier	-4203
▁Comp	-4204
▁Yves	-4205
▁bilan	-4206
▁délivrée	-4207
▁tribunaux	-4208
VE	-4209
▁"(	-4210
▁voix	-4211
▁const	-4212
▁enregis	-4213
▁formulaire	-4214
bi	-4215
Denis	-4216
▁producteurs	-4217
inaire	-4218
▁plate	-4219
▁assimil	-4220
▁installation	-4221
Ben	-4222
▁4,	-4223
▁(1)	-4224
▁facul	-4225
▁séance	-4226
▁termin	-4227
▁voies	-4228
Antoine	-4229
▁homolog	-4230
▁liés	-4231
cident	-4232
UC	-4233
rédi	-4234
▁Roy	-4235
▁adop	-4236
▁élig	-4237
▁Accord	-4238
▁propre	-4239
▁Christine	-4240
▁écrit	-4241
▁consultation	-4242
-3,	-4243
▁Dé	-4244
▁agréé	-4245
activités	-4246
▁internes	-4247
▁réalisées	-4248
▁ri	-4249
adel	-4250
oger	-4251
avant	-4252
uréli	-4253
▁espèces	-4254
ingénieur	-4255
TH	-4256
▁Rh	-4257
imes	-4258
▁composé	-4259
▁juridique	-4260
▁classement	-4261
▁administrateurs	-4262
01	-4263
95	-4264
▁contenu	-4265
▁enregist	-4266
▁CO	-4267
▁interc	-4268
▁collectif	-4269
out	-4270
vée	-4271
aptiste	-4272
emplois	-4273
▁listes	-4274
▁infanterie	-4275
cie	-4276
auts	-4277
▁sim	-4278
▁Disp	-4279
▁Chaque	-4280
▁chasse	-4281
▁départ	-4282
▁définit	-4283
▁effectuée	-4284
▁hi	-4285
▁vu	-4286
ffic	-4287
▁den	-4288
estre	-4289
▁exempl	-4290
formément	-4291
▁all	-4292
▁presse	-4293
/2019-04-1	-4294
02	-4295
▁fi	-4296
▁65	-4297
▁matériel	-4298
▁tels	-4299
▁municip	-4300
alog	-4301
▁adul	-4302
urence	-4303
for	-4304
▁camp	-4305
▁prêt	-4306
▁Sophie	-4307
téphanie	-4308
▁écrites	-4309
▁possible	-4310
/2019-07-1	-4311
▁immédiate	-4312
acquisition	-4313
tlan	-4314
▁pap	-4315
avances	-4316
▁liquid	-4317
▁compens	-4318
▁offertes	-4319
▁identifiée	-4320
▁international	-4321
▁inspectrice	-4322
triques	-4323
▁précisant	-4324
▁prestataire	-4325
TAN	-4326
amb	-4327
lém	-4328
▁Se	-4329
lité	-4330
▁somme	-4331
oconférence	-4332
▁conservation	-4333
2-7	-4334
sté	-4335
▁cro	-4336
▁conséqu	-4337
▁surface	-4338
hébergement	-4339
▁disponibles	-4340
▁qualification	-4341
▁réun	-4342
▁exercice	-4343
▁contribution	-4344
ifi	-4345
sse	-4346
▁PR	-4347
▁COM	-4348
Alexandre	-4349
évolution	-4350
réanimation	-4351
▁définition	-4352
▁AR	-4353
meub	-4354
oser	-4355
osent	-4356
▁colonel	-4357
▁on	-4358
▁Rég	-4359
▁tra	-4360
▁démar	-4361
▁licence	-4362
▁Nathalie	-4363
▁évaluation	-4364
▁TH	-4365
▁VIII	-4366
▁seule	-4367
▁visés	-4368
identité	-4369
▁précisées	-4370
▁technologies	-4371
▁visioconférence	-4372
ule	-4373
▁fl	-4374
rière	-4375
▁accès	-4376
exercer	-4377
ortation	-4378
▁Thierry	-4379
axime	-4380
Laurent	-4381
étaires	-4382
▁besoin	-4383
jor	-4384
▁RÉ	-4385
JUSB	-4386
ager	-4387
ilde	-4388
RH	-4389
▁”,	-4390
▁Mich	-4391
▁liées	-4392
▁cessation	-4393
▁internationale	-4394
Luc	-4395
pplé	-4396
améli	-4397
Sophie	-4398
▁remise	-4399
▁habilité	-4400
▁entretien	-4401
▁intérieure	-4402
GU	-4403
hors	-4404
appui	-4405
▁rési	-4406
▁victimes	-4407
Az	-4408
▁83	-4409
▁dot	-4410
▁collectivité	-4411
lerie	-4412
▁pourra	-4413
missions	-4414
07	-4415
ssage	-4416
▁salaires	-4417
▁Françoise	-4418
▁interrégionale	-4419
▁ROU	-4420
alisée	-4421
▁convo	-4422
▁Marcel	-4423
▁réponse	-4424
▁utilisés	-4425
▁logements	-4426
-22	-4427
ELLE	-4428
▁Jus	-4429
▁enc	-4430
ascul	-4431
▁registre	-4432
▁psychiatrie	-4433
▁Flor	-4434
▁Daniel	-4435
▁quinze	-4436
Si	-4437
tures	-4438
/2019-03-2	-4439
▁protocole	-4440
▁No	-4441
espace	-4442
▁1987."	-4443
▁ordonn	-4444
▁indemnités	-4445
▁préalablement	-4446
ak	-4447
-29	-4448
esthé	-4449
▁affér	-4450
▁affecté	-4451
85	-4452
-24	-4453
égalité	-4454
▁trente	-4455
▁valeurs	-4456
▁constitué	-4457
▁directive	-4458
▁huissière	-4459
▁commissions	-4460
-04	-4461
acte	-4462
▁Elles	-4463
▁veille	-4464
▁résultat	-4465
mar	-4466
▁aus	-4467
objec	-4468
▁provis	-4469
obtention	-4470
▁fact	-4471
issement	-4472
▁ressort	-4473
IP	-4474
2-4	-4475
Acc	-4476
▁seules	-4477
▁attestation	-4478
AH	-4479
oî	-4480
▁Math	-4481
▁libel	-4482
▁propres	-4483
othérapie	-4484
▁1°,	-4485
▁limit	-4486
▁action	-4487
▁join	-4488
Office	-4489
▁ajoutée	-4490
▁circons	-4491
habilitation	-4492
▁compétentes	-4493
ervé	-4494
▁carte	-4495
ommunes	-4496
▁Guillaume	-4497
AF	-4498
TIN	-4499
éline	-4500
▁plein	-4501
▁recteur	-4502
élaboration	-4503
ssant	-4504
Julien	-4505
▁poursu	-4506
▁acceptée	-4507
▁médecins	-4508
épartement	-4509
▁expériment	-4510
▁hospitalière	-4511
OC	-4512
▁paris	-4513
▁pertin	-4514
▁SP	-4515
▁emp	-4516
Haute	-4517
▁enveloppe	-4518
▁particulières	-4519
▁î	-4520
▁congé	-4521
▁mineur	-4522
ellement	-4523
▁souscri	-4524
▁CN	-4525
▁déj	-4526
vence	-4527
▁lois	-4528
▁envis	-4529
▁spécial	-4530
▁derniers	-4531
▁Ou	-4532
cent	-4533
▁env	-4534
▁mét	-4535
▁1983	-4536
▁sché	-4537
▁agrément	-4538
▁Toutefois	-4539
▁thérapeutiques	-4540
▁Mé	-4541
▁224	-4542
▁Mon	-4543
uerre	-4544
adeloupe	-4545
/2019-11-0	-4546
▁MO	-4547
▁haut	-4548
tations	-4549
▁retour	-4550
érée	-4551
▁dés	-4552
▁chambres	-4553
odiversité	-4554
▁fournisse	-4555
▁métropole	-4556
▁recouvrement	-4557
EU	-4558
dev	-4559
ible	-4560
▁orient	-4561
testation	-4562
▁observations	-4563
ogne	-4564
▁vendre	-4565
Jac	-4566
mili	-4567
éronique	-4568
▁cession	-4569
tie	-4570
sions	-4571
cadrement	-4572
1920	-4573
▁présents	-4574
ume	-4575
▁Ep	-4576
▁Ex	-4577
/2019-02-1	-4578
▁justifiant	-4579
ner	-4580
▁fonci	-4581
▁parts	-4582
▁0,	-4583
▁actu	-4584
▁artis	-4585
▁radio	-4586
▁central	-4587
▁détention	-4588
▁ouverture	-4589
▁recommandé	-4590
▁biodiversité	-4591
lise	-4592
64	-4593
▁élus	-4594
aisons	-4595
▁guerre	-4596
validité	-4597
▁abrogés	-4598
▁constitution	-4599
▁administrations	-4600
oie	-4601
uge	-4602
lément	-4603
/2019-02-2	-4604
▁industries	-4605
ED	-4606
êtes	-4607
▁alors	-4608
Olivier	-4609
▁client	-4610
▁normes	-4611
Communes	-4612
▁accepté	-4613
▁comprenant	-4614
UB	-4615
-02	-4616
▁Du	-4617
rine	-4618
▁Hélène	-4619
AZ	-4620
aff	-4621
▁7.	-4622
▁AL	-4623
▁feu	-4624
achat	-4625
▁distin	-4626
▁figure	-4627
▁accords	-4628
ondations	-4629
▁pédagogique	-4630
03	-4631
▁organ	-4632
▁Royaume	-4633
▁excéder	-4634
▁locales	-4635
▁appropri	-4636
aval	-4637
trand	-4638
▁soient	-4639
▁magistrats	-4640
▁49	-4641
▁Lé	-4642
Azur	-4643
▁désigne	-4644
ovi	-4645
▁BR	-4646
mond	-4647
▁Loire	-4648
▁entraî	-4649
▁accordée	-4650
ros	-4651
▁10°	-4652
▁déjà	-4653
▁pédi	-4654
esthésie	-4655
▁liaison	-4656
▁infrastructures	-4657
lay	-4658
anges	-4659
▁5126	-4660
acités	-4661
▁réalisé	-4662
las	-4663
1900	-4664
heure	-4665
▁niveaux	-4666
▁aéronautique	-4667
63	-4668
▁Haut	-4669
▁pror	-4670
illeurs	-4671
ontologie	-4672
▁intercommun	-4673
-23	-4674
inf	-4675
date	-4676
ouise	-4677
▁agréés	-4678
concours	-4679
▁protégé	-4680
▁possibilité	-4681
▁juridictions	-4682
▁Jeanne	-4683
▁papier	-4684
érodrome	-4685
▁réf	-4686
audit	-4687
astructure	-4688
▁éventuelle	-4689
▁DEL	-4690
élève	-4691
▁îles	-4692
agerie	-4693
▁calend	-4694
▁Emmanuel	-4695
/2019-12-0	-4696
▁considérée	-4697
▁personnalité	-4698
Ou	-4699
▁allo	-4700
▁exéc	-4701
associ	-4702
▁organisé	-4703
▁exceptionnelle	-4704
-21	-4705
▁redev	-4706
▁synth	-4707
quement	-4708
▁constatant	-4709
▁université	-4710
IB	-4711
▁cohér	-4712
Etienne	-4713
▁intégr	-4714
▁domicile	-4715
▁CAR	-4716
▁poi	-4717
▁Conf	-4718
▁Nice	-4719
▁disponibilité	-4720
urée	-4721
▁"3.	-4722
att	-4723
ene	-4724
▁229	-4725
▁500	-4726
▁Ann	-4727
▁brig	-4728
▁déchet	-4729
érarch	-4730
▁formul	-4731
incendie	-4732
indemnisation	-4733
ATI	-4734
▁86	-4735
▁médico	-4736
▁adultes	-4737
NEL	-4738
log	-4739
▁situations	-4740
▁Dijon	-4741
rection	-4742
▁requises	-4743
ina	-4744
mettre	-4745
▁duquel	-4746
▁biologie	-4747
▁effectué	-4748
Ang	-4749
▁Arn	-4750
▁Rouen	-4751
▁maire	-4752
▁nomin	-4753
▁sites	-4754
tricité	-4755
▁Claire	-4756
▁acteurs	-4757
▁délivre	-4758
▁réalisée	-4759
67	-4760
ARMH	-4761
▁Maurice	-4762
▁Organis	-4763
▁hiérarch	-4764
ICE	-4765
nés	-4766
orer	-4767
Atlan	-4768
▁path	-4769
▁prob	-4770
▁analy	-4771
eth	-4772
CPAE	-4773
▁aur	-4774
étérin	-4775
▁avenue	-4776
▁courri	-4777
▁tourisme	-4778
▁Cet	-4779
▁engag	-4780
▁cm	-4781
soci	-4782
▁Mod	-4783
▁inclus	-4784
expertise	-4785
▁disciplines	-4786
▁affi	-4787
▁directions	-4788
▁"9	-4789
▁vétérin	-4790
▁48	-4791
▁mus	-4792
érées	-4793
écologie	-4794
▁forfaitaire	-4795
04	-4796
ll	-4797
AUL	-4798
ana	-4799
▁émis	-4800
▁facili	-4801
▁renfor	-4802
/2019-02-0	-4803
▁anciennement	-4804
to	-4805
équipe	-4806
▁dates	-4807
▁ouvri	-4808
▁établit	-4809
▁instances	-4810
-27	-4811
▁mens	-4812
▁fiscale	-4813
▁régisse	-4814
/2019-05-1	-4815
▁régionaux	-4816
▁BAR	-4817
▁visé	-4818
▁placé	-4819
▁classi	-4820
▁vendredi	-4821
▁électron	-4822
SP	-4823
ki	-4824
gri	-4825
omme	-4826
opro	-4827
ourt	-4828
▁"6°	-4829
▁avoc	-4830
Décret	-4831
▁plans	-4832
▁premiers	-4833
▁provisoire	-4834
SA	-4835
uy	-4836
Pro	-4837
port	-4838
▁cardi	-4839
chement	-4840
Frédéric	-4841
▁passagers	-4842
87	-4843
cess	-4844
envoi	-4845
inistère	-4846
équipement	-4847
▁72	-4848
▁réc	-4849
alisé	-4850
▁Gérard	-4851
arisation	-4852
▁principes	-4853
Rhin	-4854
ende	-4855
▁BER	-4856
trique	-4857
Garonne	-4858
▁visant	-4859
▁agréées	-4860
▁juridiques	-4861
▁intercommunale	-4862
affi	-4863
▁2003	-4864
▁Fond	-4865
ailles	-4866
ographie	-4867
/2019-01-2	-4868
▁anesthésie	-4869
193	-4870
ECO	-4871
emb	-4872
▁5,	-4873
▁bl	-4874
▁Sim	-4875
geant	-4876
▁vous	-4877
▁pluri	-4878
urbanisme	-4879
leur	-4880
▁Côte	-4881
magistr	-4882
▁mètres	-4883
orisation	-4884
▁contrôles	-4885
▁professeurs	-4886
▁magistrature	-4887
honneur	-4888
▁attachés	-4889
▁Concession	-4890
▁principaux	-4891
magistrature	-4892
LAN	-4893
enir	-4894
▁623	-4895
▁165-1	-4896
▁assis	-4897
▁repris	-4898
▁effectuées	-4899
▁candidatures	-4900
TIER	-4901
térim	-4902
▁taxes	-4903
ouvelles	-4904
▁population	-4905
▁techniciens	-4906
▁rémunérations	-4907
ims	-4908
▁quar	-4909
▁162-1	-4910
▁suffis	-4911
▁versées	-4912
▁ressorti	-4913
▁effectués	-4914
▁Co	-4915
▁voy	-4916
▁douze	-4917
▁unité	-4918
▁Sylvie	-4919
▁respecter	-4920
Bou	-4921
▁NOTA	-4922
Claude	-4923
▁maintenance	-4924
Is	-4925
érer	-4926
▁aucune	-4927
▁telles	-4928
▁salaire	-4929
ect	-4930
aill	-4931
atth	-4932
▁quel	-4933
▁bénéficiant	-4934
ENT	-4935
▁rédu	-4936
Vincent	-4937
▁nouvelles	-4938
▁préfecture	-4939
▁législation	-4940
▁Poi	-4941
Claire	-4942
préfet	-4943
▁Reims	-4944
▁types	-4945
acements	-4946
▁valable	-4947
/2019-01-1	-4948
▁présentant	-4949
▁divisionnaire	-4950
argne	-4951
ortie	-4952
enfant	-4953
▁manif	-4954
▁1985."	-4955
▁Julien	-4956
▁dûment	-4957
▁Auc	-4958
major	-4959
▁David	-4960
istants	-4961
▁sanction	-4962
Cor	-4963
assi	-4964
pare	-4965
▁direct	-4966
▁revenu	-4967
▁restaur	-4968
ingénieurs	-4969
oré	-4970
inte	-4971
▁param	-4972
be	-4973
▁durant	-4974
▁inscrites	-4975
composantes	-4976
▁appartenant	-4977
▁56	-4978
▁7,	-4979
▁milli	-4980
▁route	-4981
▁minimale	-4982
▁indicateurs	-4983
apprentissage	-4984
▁exclusivement	-4985
3°	-4986
▁assurés	-4987
▁sollici	-4988
-12	-4989
quet	-4990
jamin	-4991
▁délibération	-4992
-03	-4993
proc	-4994
▁Ray	-4995
▁arme	-4996
▁Roger	-4997
▁aucun	-4998
▁compar	-4999
▁marque	-5000
▁réalisés	-5001
▁Gar	-5002
▁tre	-5003
▁expl	-5004
▁Hôpitaux	-5005
▁structures	-5006
▁conseillers	-5007
-28	-5008
OIS	-5009
▁Ne	-5010
Accès	-5011
agnos	-5012
quées	-5013
▁Caen	-5014
▁dédi	-5015
▁décid	-5016
▁Futuna	-5017
▁relève	-5018
▁appréci	-5019
amélioration	-5020
▁Confédération	-5021
▁internationales	-5022
han	-5023
▁MON	-5024
▁esti	-5025
▁ordre	-5026
ignements	-5027
▁immédiatement	-5028
▁programmation	-5029
PE	-5030
ARI	-5031
once	-5032
▁Hos	-5033
▁Associ	-5034
▁placés	-5035
▁adressé	-5036
▁classes	-5037
▁conformes	-5038
▁garanties	-5039
▁substances	-5040
NÉ	-5041
Ile	-5042
LES	-5043
▁parc	-5044
indication	-5045
ossibilité	-5046
▁effectuer	-5047
▁supplémentaire	-5048
lées	-5049
denti	-5050
oselle	-5051
▁Thomas	-5052
▁crédit	-5053
▁déchets	-5054
▁précédant	-5055
encadrement	-5056
▁composantes	-5057
aph	-5058
léc	-5059
▁enj	-5060
issance	-5061
Baptiste	-5062
gi	-5063
▁Pe	-5064
iquelon	-5065
Stéphane	-5066
▁participer	-5067
1934	-5068
ades	-5069
▁mix	-5070
▁2022	-5071
▁prolon	-5072
▁aériens	-5073
▁autorisées	-5074
infrastructure	-5075
▁60	-5076
Eric	-5077
rien	-5078
venir	-5079
▁couv	-5080
ouvrage	-5081
1911	-5082
seau	-5083
étique	-5084
▁Bruno	-5085
▁loyer	-5086
▁recherches	-5087
IO	-5088
oît	-5089
▁lun	-5090
ainte	-5091
asculaire	-5092
▁capacités	-5093
tér	-5094
vres	-5095
▁conduire	-5096
mor	-5097
yri	-5098
éle	-5099
▁Lég	-5100
érant	-5101
▁peine	-5102
▁prénom	-5103
élection	-5104
▁matériaux	-5105
Lu	-5106
tils	-5107
▁donne	-5108
▁Arnaud	-5109
▁régions	-5110
▁destinés	-5111
▁huissiers	-5112
27	-5113
ras	-5114
aites	-5115
▁poids	-5116
▁Comité	-5117
▁déterminée	-5118
98	-5119
RS	-5120
phine	-5121
▁aliment	-5122
ross	-5123
alogue	-5124
▁troupes	-5125
▁distance	-5126
▁ordonnance	-5127
▁déroulement	-5128
RET	-5129
BERT	-5130
mage	-5131
▁312	-5132
érage	-5133
▁sujet	-5134
▁routière	-5135
▁solidarité	-5136
▁uniquement	-5137
▁Inondations	-5138
enc	-5139
1933	-5140
pices	-5141
servation	-5142
▁assurant	-5143
▁complétée	-5144
▁télécharg	-5145
▁prescription	-5146
AUX	-5147
▁ap	-5148
▁répert	-5149
▁régimes	-5150
LET	-5151
irg	-5152
milie	-5153
▁fich	-5154
ortion	-5155
▁aides	-5156
▁porter	-5157
aris	-5158
▁courriel	-5159
▁majorité	-5160
▁fourniture	-5161
ORM	-5162
lique	-5163
izième	-5164
▁portées	-5165
▁Hospices	-5166
▁Alexandre	-5167
▁détermine	-5168
▁magistrat	-5169
▁Bar	-5170
▁Bas	-5171
matri	-5172
ilités	-5173
▁active	-5174
Miquelon	-5175
matricul	-5176
▁hauteur	-5177
▁cohérence	-5178
Jus	-5179
PRM	-5180
▁ASS	-5181
uffis	-5182
cessus	-5183
▁schéma	-5184
▁mineurs	-5185
AGRT	-5186
▁2°,	-5187
▁étant	-5188
▁assurée	-5189
▁bâtiments	-5190
▁étrangers	-5191
▁antérieure	-5192
▁médicament	-5193
▁convocation	-5194
-6,	-5195
delà	-5196
itte	-5197
olet	-5198
quée	-5199
miens	-5200
▁Cler	-5201
▁conduc	-5202
▁contractuels	-5203
90	-5204
ip	-5205
3-4	-5206
doc	-5207
▁inclu	-5208
yré	-5209
▁Ab	-5210
Jacques	-5211
▁Civils	-5212
▁Associés	-5213
▁Poitiers	-5214
▁libertés	-5215
▁médicaux	-5216
▁éligibles	-5217
▁ir	-5218
yrénées	-5219
▁régies	-5220
▁demeure	-5221
▁informatique	-5222
▁Concessionnaire	-5223
IX	-5224
▁AP	-5225
mplant	-5226
▁multip	-5227
▁Valérie	-5228
▁expérience	-5229
▁individuel	-5230
▁statutaires	-5231
UT	-5232
▁chau	-5233
▁dépôts	-5234
▁profit	-5235
▁intérim	-5236
▁connaître	-5237
▁enseignements	-5238
4°	-5239
Nord	-5240
▁Bel	-5241
▁jou	-5242
▁viv	-5243
▁POUR	-5244
▁mécan	-5245
▁pièce	-5246
▁procès	-5247
▁investis	-5248
/2019-03-1	-5249
6-1	-5250
▁94	-5251
▁diplom	-5252
▁textes	-5253
viennent	-5254
▁espaces	-5255
▁méthodes	-5256
▁émissions	-5257
▁thérapeutique	-5258
▁LES	-5259
▁lundi	-5260
▁déconc	-5261
▁peines	-5262
▁fiscales	-5263
▁scolarité	-5264
▁prestation	-5265
▁suppression	-5266
▁contractantes	-5267
OCI	-5268
▁Es	-5269
▁TA	-5270
NIER	-5271
▁311	-5272
▁bar	-5273
osant	-5274
▁pensions	-5275
▁extérieur	-5276
▁processus	-5277
approbation	-5278
▁communauté	-5279
▁règlements	-5280
▁suppléants	-5281
Charles	-5282
▁soumises	-5283
Mer	-5284
▁Pl	-5285
verb	-5286
étudi	-5287
▁Xavier	-5288
▁jeunes	-5289
▁Laurence	-5290
▁marchand	-5291
▁assurances	-5292
▁obligatoirement	-5293
hospit	-5294
assistance	-5295
▁effectifs	-5296
▁plateforme	-5297
▁répertoire	-5298
▁laboratoire	-5299
▁Constitution	-5300
▁représentation	-5301
1935	-5302
dent	-5303
▁11°	-5304
abeth	-5305
quête	-5306
▁savoir	-5307
▁Véronique	-5308
▁déplacement	-5309
▁certifications	-5310
dée	-5311
▁Jérôme	-5312
▁constaté	-5313
réditation	-5314
attestation	-5315
81	-5316
-31	-5317
▁mode	-5318
issent	-5319
▁favor	-5320
Camille	-5321
▁auquel	-5322
▁ANNEXES	-5323
▁diffusion	-5324
▁spécialisé	-5325
▁bénéficient	-5326
▁Dispositions	-5327
▁54	-5328
1930	-5329
▁sex	-5330
▁Grou	-5331
tration	-5332
aérodrome	-5333
Uni	-5334
▁(3	-5335
rent	-5336
▁Ali	-5337
▁cum	-5338
égard	-5339
étude	-5340
▁coul	-5341
▁tenant	-5342
▁envisag	-5343
▁famille	-5344
▁logistique	-5345
rit	-5346
Elle	-5347
▁Man	-5348
▁versée	-5349
▁huissier	-5350
▁susceptible	-5351
ironde	-5352
▁degré	-5353
▁Clermont	-5354
▁intérêts	-5355
▁demandeurs	-5356
▁individuels	-5357
▁cou	-5358
▁Muse	-5359
▁enjeux	-5360
▁diagnos	-5361
▁recevoir	-5362
OUV	-5363
dern	-5364
▁1978	-5365
▁Mari	-5366
▁livr	-5367
douard	-5368
▁placée	-5369
▁rendus	-5370
Sébastien	-5371
informations	-5372
8."	-5373
▁Ma	-5374
pect	-5375
▁Brest	-5376
▁fournir	-5377
▁clinique	-5378
▁ouvrages	-5379
▁Stéphanie	-5380
▁proportion	-5381
3-5	-5382
OUL	-5383
▁82	-5384
▁peti	-5385
▁locale	-5386
▁dotation	-5387
-17	-5388
1-5	-5389
andes	-5390
▁2000	-5391
▁Beau	-5392
adaptation	-5393
▁chô	-5394
▁appor	-5395
▁Bureau	-5396
▁dépend	-5397
▁greffe	-5398
▁procédé	-5399
mmanuelle	-5400
électricité	-5401
▁équivalent	-5402
impossibilité	-5403
eté	-5404
itr	-5405
1912	-5406
▁ach	-5407
▁visa	-5408
errand	-5409
▁réduction	-5410
▁françaises	-5411
▁pédagogiques	-5412
▁technologique	-5413
gl	-5414
ERV	-5415
run	-5416
atér	-5417
appréci	-5418
istoire	-5419
▁décédée	-5420
▁répartis	-5421
▁approbation	-5422
▁groupements	-5423
-3.	-5424
ENS	-5425
GER	-5426
cia	-5427
apha	-5428
adjoin	-5429
▁fiche	-5430
▁Camille	-5431
▁renouvelable	-5432
▁électroniques	-5433
MAN	-5434
▁St	-5435
▁Per	-5436
▁tenue	-5437
▁présid	-5438
médiaire	-5439
▁accompli	-5440
1-4	-5441
▁53	-5442
▁SA	-5443
enci	-5444
▁huit	-5445
▁relè	-5446
▁privés	-5447
Maritime	-5448
▁chômage	-5449
▁déterminé	-5450
▁organisée	-5451
▁sportives	-5452
▁inspecteurs	-5453
▁ultérieurement	-5454
▁supplémentaires	-5455
MP	-5456
UP	-5457
Arn	-5458
▁CE	-5459
▁GR	-5460
itec	-5461
▁712	-5462
▁Bes	-5463
▁boue	-5464
Amiens	-5465
▁concl	-5466
▁confér	-5467
▁procède	-5468
▁affectée	-5469
▁prélèvement	-5470
OY	-5471
yr	-5472
-06	-5473
oyé	-5474
utin	-5475
vain	-5476
▁remis	-5477
ventions	-5478
technique	-5479
▁pourvoir	-5480
▁Sébastien	-5481
▁commissaires	-5482
5°	-5483
Qu	-5484
ARL	-5485
▁AC	-5486
Yves	-5487
euse	-5488
▁"4.	-5489
▁scr	-5490
▁régie	-5491
▁bateaux	-5492
▁coulées	-5493
▁inscrit	-5494
▁résident	-5495
▁indemnité	-5496
▁Déc	-5497
▁Met	-5498
▁prog	-5499
▁copro	-5500
Vil	-5501
tia	-5502
uré	-5503
inie	-5504
▁infi	-5505
▁Denis	-5506
▁faite	-5507
▁collab	-5508
▁donner	-5509
▁Caroline	-5510
▁justifier	-5511
▁naturelle	-5512
▁syndicales	-5513
▁90	-5514
▁120	-5515
▁due	-5516
David	-5517
antal	-5518
ançon	-5519
▁grat	-5520
▁agréée	-5521
▁fondement	-5522
Ce	-5523
dro	-5524
▁Seine	-5525
▁allocations	-5526
OUX	-5527
iène	-5528
égét	-5529
euros	-5530
▁évol	-5531
agents	-5532
gramme	-5533
▁cellu	-5534
amiante	-5535
cidents	-5536
▁échelon	-5537
▁constitue	-5538
▁destination	-5539
▁orientations	-5540
9,	-5541
reux	-5542
▁végét	-5543
enseign	-5544
▁conclus	-5545
▁homologu	-5546
EY	-5547
ow	-5548
usé	-5549
1-1,	-5550
▁enti	-5551
▁extra	-5552
▁portée	-5553
lisabeth	-5554
▁annuels	-5555
▁question	-5556
▁variétés	-5557
inspecteur	-5558
54	-5559
-16	-5560
cadre	-5561
▁dite	-5562
ibilité	-5563
▁groupes	-5564
▁utilisé	-5565
▁candidate	-5566
▁suppléante	-5567
Esp	-5568
oud	-5569
gnée	-5570
ictor	-5571
logie	-5572
▁jeudi	-5573
institu	-5574
▁desquel	-5575
▁repérage	-5576
83	-5577
TERB	-5578
▁Nom	-5579
▁Hauts	-5580
▁favoris	-5581
lissement	-5582
▁pluriann	-5583
▁sections	-5584
tal	-5585
acle	-5586
▁bois	-5587
irginie	-5588
56	-5589
57	-5590
ÉE	-5591
dam	-5592
▁Vers	-5593
▁Gabri	-5594
▁Ville	-5595
▁libre	-5596
▁notes	-5597
▁reste	-5598
matique	-5599
▁proposer	-5600
▁désignées	-5601
▁électriques	-5602
▁déclarations	-5603
51	-5604
giène	-5605
itaine	-5606
▁aussi	-5607
▁outils	-5608
▁modifier	-5609
▁retraits	-5610
ty	-5611
▁6,	-5612
▁8.	-5613
ules	-5614
ciens	-5615
Xavier	-5616
▁prépare	-5617
hospitalisation	-5618
EAE	-5619
▁70	-5620
TREK	-5621
nent	-5622
orth	-5623
▁"11	-5624
▁OFF	-5625
épargne	-5626
▁scrutin	-5627
▁concourir	-5628
▁détermination	-5629
▁ARM	-5630
▁gui	-5631
▁quot	-5632
▁Tours	-5633
▁tenir	-5634
▁greffi	-5635
▁orales	-5636
officier	-5637
▁marchandises	-5638
dé	-5639
▁exprim	-5640
▁présentée	-5641
▁croissance	-5642
VI	-5643
ame	-5644
▁acte	-5645
engage	-5646
▁veill	-5647
retagne	-5648
▁soumise	-5649
▁stockage	-5650
▁treizième	-5651
▁Guadeloupe	-5652
8.	-5653
ANS	-5654
oub	-5655
▁80	-5656
▁Cal	-5657
▁SEL	-5658
ranch	-5659
▁contrôlée	-5660
accréditation	-5661
▁MA	-5662
▁hui	-5663
mention	-5664
▁prévoy	-5665
▁distribu	-5666
▁familiales	-5667
▁indépendants	-5668
LER	-5669
auf	-5670
▁Var	-5671
aclay	-5672
▁faveur	-5673
▁externes	-5674
▁déconcent	-5675
▁territoriaux	-5676
UX	-5677
ancer	-5678
Vilaine	-5679
ditions	-5680
▁imprimé	-5681
▁adjoints	-5682
ato	-5683
AULT	-5684
▁doctor	-5685
▁hommes	-5686
▁discipline	-5687
Ren	-5688
▁43	-5689
▁Bi	-5690
ergé	-5691
▁asse	-5692
▁coût	-5693
▁Bourg	-5694
▁régul	-5695
▁constru	-5696
▁publiés	-5697
▁définissant	-5698
▁législatives	-5699
▁recrutements	-5700
DI	-5701
▁Mal	-5702
▁mardi	-5703
▁Cécile	-5704
▁relèvent	-5705
▁synthèse	-5706
96	-5707
-09	-5708
empê	-5709
site	-5710
▁Cas	-5711
▁cumul	-5712
▁prime	-5713
▁interd	-5714
▁Epreuve	-5715
CA	-5716
▁46	-5717
arah	-5718
llem	-5719
▁urb	-5720
▁diri	-5721
▁conte	-5722
▁franc	-5723
Ferrand	-5724
utilité	-5725
▁Didier	-5726
▁conduit	-5727
▁tutelle	-5728
▁bulletin	-5729
▁septième	-5730
▁Versailles	-5731
▁professions	-5732
▁Sp	-5733
▁314	-5734
▁Pau	-5735
▁opp	-5736
▁Sand	-5737
▁regr	-5738
▁tient	-5739
▁volume	-5740
occasion	-5741
▁clients	-5742
▁obtenir	-5743
▁NOTAIRES	-5744
▁secteurs	-5745
▁accompagné	-5746
▁conception	-5747
▁négoci	-5748
▁analyse	-5749
▁hospitaliers	-5750
isant	-5751
vices	-5752
▁611	-5753
▁féd	-5754
Angers	-5755
▁ladite	-5756
▁résulte	-5757
Maritimes	-5758
ynécologie	-5759
▁recommandée	-5760
▁statistiques	-5761
VA	-5762
arn	-5763
AGRS	-5764
▁allou	-5765
▁recon	-5766
▁colonne	-5767
ématiques	-5768
▁journali	-5769
▁jugement	-5770
52	-5771
SI	-5772
URE	-5773
Ille	-5774
▁flu	-5775
▁énergé	-5776
▁animaux	-5777
▁liquidation	-5778
▁restauration	-5779
-01	-5780
ITÉ	-5781
llon	-5782
quat	-5783
impôt	-5784
▁pénal	-5785
Thierry	-5786
▁connex	-5787
▁dénommé	-5788
▁garantir	-5789
▁description	-5790
▁valorisation	-5791
▁renseignement	-5792
97	-5793
opie	-5794
rages	-5795
résor	-5796
▁Vill	-5797
▁mess	-5798
▁dudit	-5799
▁rouge	-5800
▁examin	-5801
▁coordonne	-5802
▁garantissant	-5803
ART	-5804
JUSE	-5805
atthieu	-5806
habitat	-5807
llemagne	-5808
objectif	-5809
▁nécessite	-5810
▁Conditions	-5811
▁susmention	-5812
▁interrégional	-5813
oun	-5814
▁Luc	-5815
occup	-5816
▁Gilles	-5817
▁immeub	-5818
▁nouvel	-5819
▁atteint	-5820
chercheurs	-5821
▁Modalités	-5822
▁IX	-5823
lori	-5824
▁etc	-5825
initi	-5826
▁stip	-5827
urélie	-5828
▁1984."	-5829
effectue	-5830
▁brigade	-5831
▁Institut	-5832
▁propriétaire	-5833
oh	-5834
▁CM	-5835
▁br	-5836
▁améli	-5837
▁contac	-5838
▁quantité	-5839
▁Commandant	-5840
vin	-5841
erte	-5842
▁"7°	-5843
▁413	-5844
dernier	-5845
Caroline	-5846
▁détaché	-5847
▁transmise	-5848
▁exemplaires	-5849
▁scientifiques	-5850
▁représentatives	-5851
NI	-5852
And	-5853
exc	-5854
ême	-5855
▁AD	-5856
▁OU	-5857
▁blin	-5858
▁poss	-5859
▁impos	-5860
itulaire	-5861
▁insuffis	-5862
▁rapports	-5863
▁pédiatrie	-5864
▁éventuellement	-5865
ST	-5866
aér	-5867
cin	-5868
rant	-5869
Laure	-5870
indre	-5871
nation	-5872
▁permanent	-5873
▁handicapées	-5874
yne	-5875
▁Gil	-5876
▁pot	-5877
▁neur	-5878
▁donné	-5879
avalerie	-5880
lexandra	-5881
▁affranch	-5882
▁affectation	-5883
Lé	-5884
ys	-5885
VAL	-5886
agnée	-5887
▁congés	-5888
▁ordres	-5889
▁volontaire	-5890
TS	-5891
EPE	-5892
ara	-5893
gnès	-5894
▁plén	-5895
vergne	-5896
▁conser	-5897
▁gouver	-5898
▁prorog	-5899
▁morales	-5900
▁manifest	-5901
▁habilités	-5902
▁placement	-5903
Romain	-5904
aisiss	-5905
enneté	-5906
ulture	-5907
▁états	-5908
▁admise	-5909
▁réinté	-5910
▁prévoit	-5911
▁désignée	-5912
▁cavalerie	-5913
▁définitive	-5914
▁intervient	-5915
▁résolution	-5916
▁accompagnée	-5917
FR	-5918
sive	-5919
Hélène	-5920
▁offre	-5921
▁propose	-5922
▁maladies	-5923
▁semences	-5924
▁consignations	-5925
84	-5926
émi	-5927
Cette	-5928
▁appliquer	-5929
ONNE	-5930
iles	-5931
▁Châ	-5932
▁carb	-5933
▁fores	-5934
▁condam	-5935
▁2019-20	-5936
▁délivrés	-5937
-05	-5938
lodie	-5939
▁seuil	-5940
▁principe	-5941
▁conjointement	-5942
dg	-5943
-15	-5944
▁Fab	-5945
▁fré	-5946
▁(2),	-5947
▁rigueur	-5948
/2019-11-1	-5949
invalidité	-5950
▁compétents	-5951
▁stagiaires	-5952
▁exploitation	-5953
▁institutions	-5954
ast	-5955
▁super	-5956
▁délivrer	-5957
Atlantique	-5958
▁calendrier	-5959
Syl	-5960
agit	-5961
lexis	-5962
▁phot	-5963
▁déposé	-5964
▁employés	-5965
▁justifie	-5966
Br	-5967
SSE	-5968
rey	-5969
Arnaud	-5970
abrice	-5971
▁téléc	-5972
▁équip	-5973
▁blindée	-5974
▁Association	-5975
▁stationnement	-5976
vol	-5977
▁"12	-5978
▁Mlle	-5979
▁requis	-5980
▁Besançon	-5981
▁contribu	-5982
▁nouveaux	-5983
▁industrielle	-5984
ONT	-5985
ute	-5986
tific	-5987
▁2002	-5988
▁PROF	-5989
Maxime	-5990
ciences	-5991
▁revenus	-5992
▁gynécologie	-5993
/19	-5994
pomp	-5995
▁arch	-5996
érance	-5997
ôpital	-5998
entrepr	-5999
▁chanti	-6000
▁parent	-6001
▁souhait	-6002
ification	-6003
▁transpor	-6004
▁vérifier	-6005
▁contractuel	-6006
▁déplacements	-6007
93	-6008
BR	-6009
anger	-6010
▁Rhône	-6011
institut	-6012
▁déclarés	-6013
▁déterminer	-6014
▁transmettre	-6015
med	-6016
▁Bl	-6017
1931	-6018
édant	-6019
▁dues	-6020
▁modu	-6021
Saclay	-6022
▁double	-6023
▁horaires	-6024
▁routiers	-6025
/2019-01-0	-6026
ays	-6027
dom	-6028
▁61	-6029
▁Sec	-6030
▁publiée	-6031
▁susvisés	-6032
▁Représent	-6033
▁magistrate	-6034
Conformément	-6035
-13	-6036
eff	-6037
▁énum	-6038
Pascal	-6039
ascale	-6040
▁sépar	-6041
▁conven	-6042
▁forces	-6043
Provence	-6044
empêchement	-6045
▁particuliers	-6046
92	-6047
94	-6048
rh	-6049
ÉES	-6050
▁Ob	-6051
▁lis	-6052
▁sap	-6053
Barth	-6054
▁invi	-6055
▁Albert	-6056
▁saisie	-6057
▁commerciale	-6058
1°	-6059
2-6	-6060
duits	-6061
ESSION	-6062
ommuni	-6063
▁créée	-6064
▁issue	-6065
rigitte	-6066
▁Michèle	-6067
▁élément	-6068
▁assimilés	-6069
▁participe	-6070
▁infractions	-6071
▁conséquences	-6072
82	-6073
NON	-6074
the	-6075
oign	-6076
▁ray	-6077
aisses	-6078
▁exemp	-6079
▁mixte	-6080
échelon	-6081
▁contribue	-6082
▁populaire	-6083
-14	-6084
loé	-6085
off	-6086
▁décl	-6087
▁Hervé	-6088
diction	-6089
atologie	-6090
▁déléguée	-6091
▁extraord	-6092
▁semaines	-6093
▁stagiaire	-6094
▁subordonn	-6095
▁partenaires	-6096
▁spécialisés	-6097
ergy	-6098
▁fera	-6099
hygiène	-6100
▁Monique	-6101
▁Florence	-6102
▁répondre	-6103
▁Bé	-6104
lage	-6105
▁"10	-6106
quant	-6107
▁obtenus	-6108
▁campagne	-6109
arc	-6110
ave	-6111
▁Marg	-6112
ATIONS	-6113
▁Julie	-6114
▁détent	-6115
▁signifi	-6116
▁compensation	-6117
▁internationaux	-6118
1."	-6119
lie	-6120
▁sen	-6121
▁évé	-6122
▁preuve	-6123
▁comités	-6124
▁command	-6125
▁pourcent	-6126
▁relation	-6127
▁déconcentrés	-6128
SL	-6129
ide	-6130
▁Am	-6131
▁CS	-6132
▁Vi	-6133
▁Cap	-6134
▁mut	-6135
toral	-6136
▁génie	-6137
▁votre	-6138
▁Louise	-6139
▁propositions	-6140
EZ	-6141
Sa	-6142
▁64	-6143
▁85	-6144
1919	-6145
▁quo	-6146
▁thé	-6147
Ouest	-6148
▁FRAN	-6149
ichard	-6150
▁masse	-6151
▁navig	-6152
▁radié	-6153
▁Autres	-6154
▁signal	-6155
Emmanuel	-6156
▁retenue	-6157
▁diverses	-6158
▁intitulé	-6159
▁poursuiv	-6160
▁restruct	-6161
▁transmises	-6162
▁considération	-6163
accomplissement	-6164
-11	-6165
TIC	-6166
▁84	-6167
▁oc	-6168
▁204	-6169
▁Sal	-6170
▁bru	-6171
▁test	-6172
▁perte	-6173
▁consultative	-6174
▁prestataires	-6175
ka	-6176
▁...	-6177
▁lit	-6178
tesse	-6179
▁amén	-6180
▁aura	-6181
▁domm	-6182
▁altern	-6183
▁suivre	-6184
▁Martine	-6185
▁caution	-6186
▁transit	-6187
▁reconnue	-6188
▁bénéficie	-6189
▁renouvelé	-6190
ISTE	-6191
▁can	-6192
▁cit	-6193
hérèse	-6194
organe	-6195
▁téléph	-6196
assation	-6197
▁couverte	-6198
▁destinées	-6199
▁terminale	-6200
▁cotisation	-6201
▁/	-6202
▁47	-6203
Toute	-6204
rains	-6205
▁larg	-6206
matéri	-6207
▁bonne	-6208
▁achats	-6209
onnement	-6210
▁médicales	-6211
▁stratégique	-6212
son	-6213
▁Yv	-6214
▁reçu	-6215
Espace	-6216
▁https	-6217
Patrick	-6218
▁SELARL	-6219
▁modern	-6220
▁montagne	-6221
▁immobilier	-6222
administrateur	-6223
▁opérationnelle	-6224
ORD	-6225
▁œu	-6226
▁542	-6227
alise	-6228
▁addi	-6229
▁faits	-6230
Mathilde	-6231
émission	-6232
▁location	-6233
▁contacter	-6234
▁Convention	-6235
▁nucléaires	-6236
era	-6237
Flor	-6238
Julie	-6239
aintes	-6240
▁Trésor	-6241
▁Bertrand	-6242
▁consiste	-6243
▁imagerie	-6244
▁produire	-6245
▁précédente	-6246
▁réglementés	-6247
▁rup	-6248
▁proch	-6249
alisées	-6250
▁adaptée	-6251
▁naturels	-6252
▁admissibles	-6253
cf	-6254
▁Sa	-6255
cies	-6256
onci	-6257
troi	-6258
▁amb	-6259
▁éle	-6260
ubert	-6261
assade	-6262
exposition	-6263
Ali	-6264
érop	-6265
blioth	-6266
▁copropri	-6267
▁ouvriers	-6268
▁présenté	-6269
▁fabrications	-6270
-8,	-6271
▁78	-6272
inne	-6273
Franc	-6274
élemy	-6275
reuves	-6276
▁délibérations	-6277
ECOP	-6278
astr	-6279
ource	-6280
▁Corse	-6281
ailleur	-6282
▁résiliation	-6283
▁vérifications	-6284
INI	-6285
amm	-6286
vées	-6287
▁Ver	-6288
édric	-6289
fficul	-6290
▁tenus	-6291
▁incomp	-6292
▁stages	-6293
▁autonom	-6294
▁fraction	-6295
▁totalité	-6296
▁prononcée	-6297
000	-6298
▁of	-6299
▁Museum	-6300
▁correc	-6301
▁indiqué	-6302
▁Autorité	-6303
▁conducteur	-6304
▁automatique	-6305
▁administration	-6306
-07	-6307
jus	-6308
▁Te	-6309
ovic	-6310
activ	-6311
▁difficul	-6312
Barthélemy	-6313
▁praticien	-6314
▁individuelles	-6315
▁extraordinaire	-6316
Oise	-6317
leine	-6318
▁formes	-6319
fficacité	-6320
▁faciliter	-6321
▁coordonnées	-6322
cit	-6323
▁BEN	-6324
▁agr	-6325
▁1988."	-6326
▁complè	-6327
▁consta	-6328
▁restre	-6329
▁sortie	-6330
agissant	-6331
▁huitième	-6332
▁automatis	-6333
▁disposant	-6334
▁vétérinaire	-6335
ii	-6336
▁76	-6337
Juge	-6338
lieu	-6339
▁Mor	-6340
▁péné	-6341
▁trés	-6342
Jérôme	-6343
assuré	-6344
▁ASSOCI	-6345
▁exploi	-6346
▁civiles	-6347
▁donnant	-6348
▁motivée	-6349
▁gestionnaires	-6350
ÉR	-6351
ata	-6352
andie	-6353
areils	-6354
verbal	-6355
économ	-6356
▁Corps	-6357
▁disponible	-6358
▁versements	-6359
urg	-6360
uits	-6361
▁Alpes	-6362
▁gross	-6363
illesse	-6364
pompiers	-6365
▁mentions	-6366
▁révision	-6367
▁permettent	-6368
oz	-6369
Unis	-6370
▁ble	-6371
ssants	-6372
▁situés	-6373
▁anciens	-6374
▁nécessité	-6375
▁sanitaires	-6376
▁El	-6377
▁mg	-6378
oral	-6379
▁COL	-6380
▁Yann	-6381
tières	-6382
chéance	-6383
▁Réseau	-6384
▁pêches	-6385
▁version	-6386
▁spéciale	-6387
▁PROFESSION	-6388
1936	-6389
3-10	-6390
▁mén	-6391
▁aide	-6392
alisés	-6393
france	-6394
▁TABLE	-6395
▁intég	-6396
▁méthode	-6397
▁trésore	-6398
composante	-6399
▁attestant	-6400
▁attribuée	-6401
AIN	-6402
hes	-6403
Alain	-6404
▁(1).	-6405
▁Cergy	-6406
▁pharmacien	-6407
PL	-6408
AIS	-6409
▁BO	-6410
▁333	-6411
levage	-6412
Quentin	-6413
ormandie	-6414
▁auxquels	-6415
▁recueilli	-6416
▁polytechnique	-6417
De	-6418
Ces	-6419
oni	-6420
▁Son	-6421
asser	-6422
▁2019-7	-6423
▁sources	-6424
▁contraire	-6425
1-10	-6426
▁série	-6427
▁moteurs	-6428
▁rentrée	-6429
▁naissance	-6430
och	-6431
▁Be	-6432
CHER	-6433
CPAB	-6434
▁COUR	-6435
▁trad	-6436
Pauline	-6437
térieurs	-6438
▁nommées	-6439
▁effectif	-6440
▁entraîne	-6441
▁probation	-6442
oprotection	-6443
▁supérieurs	-6444
▁orientation	-6445
▁EC	-6446
▁vitesse	-6447
Christine	-6448
▁2019-2020	-6449
▁conférences	-6450
▁éventuelles	-6451
ALL	-6452
▁Sol	-6453
dique	-6454
▁musée	-6455
▁minima	-6456
▁caisses	-6457
▁classées	-6458
91	-6459
-7,	-6460
TES	-6461
▁9.	-6462
▁CY	-6463
▁SE	-6464
aque	-6465
▁bat	-6466
▁Spéci	-6467
▁Céline	-6468
▁Raymond	-6469
▁notifie	-6470
▁sportive	-6471
▁cassation	-6472
▁vieillesse	-6473
▁consulaires	-6474
▁réintégration	-6475
▁ressortissants	-6476
53	-6477
iz	-6478
EUR	-6479
hom	-6480
oges	-6481
▁PSL	-6482
▁rev	-6483
▁lycée	-6484
▁repos	-6485
queline	-6486
▁TABLEAU	-6487
▁Bulletin	-6488
▁approuvé	-6489
▁ferroviaires	-6490
▁recommandations	-6491
▁TE	-6492
▁”.	-6493
iver	-6494
escad	-6495
▁rati	-6496
enquête	-6497
ercices	-6498
▁dehors	-6499
interpré	-6500
onciation	-6501
▁exécution	-6502
▁communications	-6503
▁cô	-6504
nant	-6505
èmes	-6506
▁Cré	-6507
▁Gén	-6508
▁2.1.	-6509
▁armes	-6510
▁calculé	-6511
▁pouvoirs	-6512
▁auxquelles	-6513
-4.	-6514
Thib	-6515
tabli	-6516
érale	-6517
▁viol	-6518
▁avocat	-6519
▁ailleurs	-6520
▁atteints	-6521
▁collabor	-6522
▁déroulera	-6523
▁PROFESSIONNEL	-6524
ELL	-6525
QUES	-6526
auté	-6527
olit	-6528
▁615	-6529
▁Règ	-6530
▁(1)."	-6531
▁engins	-6532
étudiant	-6533
▁grossesse	-6534
▁intervention	-6535
▁07	-6536
mile	-6537
amien	-6538
udovic	-6539
▁passe	-6540
▁informé	-6541
▁attribué	-6542
▁souhaite	-6543
▁trésorerie	-6544
▁pourcentage	-6545
UD	-6546
▁74	-6547
opér	-6548
▁4°,	-6549
▁impl	-6550
▁était	-6551
Gironde	-6552
▁indique	-6553
▁prévoyance	-6554
▁destinataire	-6555
▁exceptionnels	-6556
▁restructuration	-6557
-(	-6558
-18	-6559
2-19	-6560
EAEA	-6561
arde	-6562
▁dit	-6563
▁BOUR	-6564
▁pros	-6565
Marion	-6566
teindre	-6567
adeleine	-6568
▁renforc	-6569
ieutenant	-6570
▁Académie	-6571
▁Charlotte	-6572
▁culturels	-6573
▁dernières	-6574
6°	-6575
cev	-6576
gue	-6577
▁633	-6578
TIONS	-6579
▁Vice	-6580
▁immun	-6581
Moselle	-6582
▁Franck	-6583
▁NATION	-6584
▁marins	-6585
▁Limites	-6586
▁séances	-6587
Charlotte	-6588
assistant	-6589
autonomie	-6590
▁dématéri	-6591
▁exercent	-6592
▁institué	-6593
▁universitaires	-6594
▁radioprotection	-6595
-5.	-6596
ouss	-6597
▁emb	-6598
vième	-6599
▁spect	-6600
Clément	-6601
▁sapeurs	-6602
▁Elisabeth	-6603
▁énergétique	-6604
Del	-6605
éti	-6606
▁PE	-6607
1932	-6608
TANT	-6609
▁319	-6610
▁Deux	-6611
▁annexée	-6612
▁routier	-6613
▁disposent	-6614
▁fédération	-6615
▁ingénieure	-6616
▁métropolit	-6617
▁européennes	-6618
▁stipulations	-6619
▁circonstances	-6620
réh	-6621
▁pours	-6622
atricia	-6623
implant	-6624
▁partag	-6625
▁sauvet	-6626
tillerie	-6627
▁cardiov	-6628
▁échanges	-6629
▁étrangère	-6630
affiliation	-6631
▁institution	-6632
FP	-6633
Ma	-6634
RÉ	-6635
ca	-6636
omé	-6637
▁eu	-6638
ITRE	-6639
▁632	-6640
▁eux	-6641
▁nau	-6642
▁orth	-6643
▁prim	-6644
▁émet	-6645
rières	-6646
▁chefs	-6647
▁rappor	-6648
▁distinc	-6649
▁globale	-6650
▁opérateur	-6651
▁conclusion	-6652
▁modernisation	-6653
OG	-6654
OND	-6655
éduc	-6656
éval	-6657
▁CHAR	-6658
▁chimi	-6659
expression	-6660
▁indiquant	-6661
appellation	-6662
▁participant	-6663
▁57	-6664
Vice	-6665
▁Can	-6666
▁cat	-6667
avoie	-6668
Lorsqu	-6669
▁motifs	-6670
Dominique	-6671
▁Services	-6672
▁fiscalité	-6673
▁qualifiées	-6674
▁fonctionnelle	-6675
aign	-6676
▁VER	-6677
ointe	-6678
▁norme	-6679
▁utile	-6680
▁retard	-6681
▁rupture	-6682
▁Brigitte	-6683
▁terrains	-6684
activation	-6685
▁livraison	-6686
▁engagement	-6687
▁habilitation	-6688
Ab	-6689
DD	-6690
-08	-6691
gus	-6692
groupe	-6693
▁partage	-6694
▁radiologie	-6695
▁fournisseur	-6696
▁secrétaires	-6697
▁personnelles	-6698
No	-6699
Ber	-6700
mon	-6701
▁CAS	-6702
fense	-6703
▁obst	-6704
quêtes	-6705
▁union	-6706
▁Vienne	-6707
▁Pascale	-6708
▁munitions	-6709
▁Jacqueline	-6710
▁intervenir	-6711
▁préinscription	-6712
""	-6713
va	-6714
èce	-6715
▁41	-6716
▁int	-6717
▁6211	-6718
▁reli	-6719
▁quoti	-6720
▁démarche	-6721
▁artillerie	-6722
INS	-6723
Man	-6724
▁SERV	-6725
aliser	-6726
trices	-6727
▁carrière	-6728
▁collecte	-6729
▁Direction	-6730
▁Titulaire	-6731
▁diagnostic	-6732
chi	-6733
▁SAS	-6734
ermain	-6735
▁Champ	-6736
Bernard	-6737
lémence	-6738
ulaires	-6739
▁agences	-6740
▁utilisées	-6741
▁communique	-6742
▁dérouleront	-6743
▁paragraphes	-6744
int	-6745
sel	-6746
itié	-6747
▁12°	-6748
▁aug	-6749
▁sév	-6750
èdent	-6751
▁Soit	-6752
▁clau	-6753
▁choisi	-6754
▁maximal	-6755
▁collectives	-6756
▁signalement	-6757
2."	-6758
lès	-6759
Yann	-6760
▁412	-6761
▁dég	-6762
ppléant	-6763
vements	-6764
▁vivant	-6765
▁compati	-6766
▁sportif	-6767
▁Delphine	-6768
▁favorable	-6769
exportation	-6770
▁pénétration	-6771
▁organisateur	-6772
1)	-6773
da	-6774
▁rh	-6775
teau	-6776
▁COR	-6777
▁Ter	-6778
accep	-6779
endus	-6780
▁frau	-6781
▁attes	-6782
▁codes	-6783
▁pourv	-6784
▁recev	-6785
▁reçoit	-6786
histoire	-6787
▁162-22-7	-6788
rond	-6789
▁mém	-6790
velines	-6791
▁réunions	-6792
▁électoral	-6793
▁paramètres	-6794
aqu	-6795
ini	-6796
clam	-6797
lant	-6798
▁Tro	-6799
▁sig	-6800
▁annul	-6801
▁index	-6802
▁remet	-6803
▁simul	-6804
▁théor	-6805
▁âgées	-6806
échelle	-6807
érative	-6808
▁notifiée	-6809
▁Emmanuelle	-6810
▁représente	-6811
▁concertation	-6812
OV	-6813
▁QU	-6814
ionel	-6815
tenir	-6816
▁infec	-6817
▁2019-4	-6818
▁espace	-6819
▁vaisse	-6820
▁réforme	-6821
▁bailleur	-6822
▁consulté	-6823
▁greffier	-6824
▁sauvetage	-6825
4)	-6826
NA	-6827
même	-6828
▁Kar	-6829
▁abs	-6830
anton	-6831
adhésion	-6832
ignement	-6833
▁Limoges	-6834
▁déclarées	-6835
▁affranchie	-6836
Com	-6837
ena	-6838
ujet	-6839
icole	-6840
▁ASSOCIES	-6841
▁élections	-6842
SF	-6843
neum	-6844
▁612	-6845
▁Bri	-6846
▁Cri	-6847
▁prêts	-6848
▁réclam	-6849
▁provision	-6850
▁spécialisées	-6851
▁lo	-6852
▁net	-6853
▁cher	-6854
établi	-6855
▁Service	-6856
▁classés	-6857
▁réservé	-6858
▁Bretagne	-6859
▁établies	-6860
▁Programme	-6861
▁signalisation	-6862
▁qualifications	-6863
anat	-6864
iser	-6865
èges	-6866
▁3°,	-6867
▁CAP	-6868
échal	-6869
▁Chef	-6870
▁rais	-6871
▁exécu	-6872
▁systé	-6873
▁fiscal	-6874
▁rendre	-6875
▁réserves	-6876
▁signific	-6877
▁obligation	-6878
8°	-6879
AMF	-6880
Côte	-6881
anny	-6882
less	-6883
tuelle	-6884
▁destiné	-6885
▁directe	-6886
▁maintenu	-6887
▁vaisseau	-6888
▁collectifs	-6889
ban	-6890
car	-6891
ÉRI	-6892
1915	-6893
▁fai	-6894
▁len	-6895
laire	-6896
▁1989	-6897
Marine	-6898
demain	-6899
ortent	-6900
▁Serge	-6901
échange	-6902
▁combin	-6903
▁Chapitre	-6904
▁définitif	-6905
▁réparation	-6906
▁pharmaciens	-6907
matriculation	-6908
Mo	-6909
PI	-6910
aie	-6911
aît	-6912
adul	-6913
artis	-6914
enevi	-6915
▁2001	-6916
entine	-6917
lorian	-6918
▁court	-6919
▁porté	-6920
Bouches	-6921
▁déroule	-6922
▁respecte	-6923
▁lendemain	-6924
▁budgétaires	-6925
Che	-6926
tim	-6927
▁do	-6928
isée	-6929
▁att	-6930
▁euro	-6931
▁décider	-6932
Association	-6933
visionnement	-6934
▁comptabilité	-6935
▁exceptionnel	-6936
igr	-6937
1905	-6938
ives	-6939
page	-6940
▁214	-6941
▁SCH	-6942
Pitre	-6943
▁2.2.	-6944
▁Barb	-6945
▁cris	-6946
▁implan	-6947
▁secret	-6948
▁anticip	-6949
▁critère	-6950
▁faculté	-6951
▁biblioth	-6952
▁classifi	-6953
▁délégués	-6954
▁interdit	-6955
▁millions	-6956
▁habitants	-6957
▁intéressés	-6958
ablissements	-6959
2-13	-6960
MTRD	-6961
TRAT	-6962
ovis	-6963
▁"20	-6964
ompte	-6965
▁musi	-6966
ission	-6967
▁issus	-6968
▁solde	-6969
architec	-6970
eneviève	-6971
tiennent	-6972
▁libellé	-6973
▁différend	-6974
▁commandants	-6975
▁intervenant	-6976
▁commandement	-6977
ino	-6978
▁XX	-6979
andard	-6980
impact	-6981
élanie	-6982
▁2017,	-6983
▁therm	-6984
cherche	-6985
▁moitié	-6986
Isabelle	-6987
▁accordé	-6988
▁fixation	-6989
▁important	-6990
▁éducative	-6991
informatique	-6992
▁pharmaceutique	-6993
▁Ph	-6994
1909	-6995
▁"8°	-6996
ernité	-6997
ologue	-6998
▁avanc	-6999
Pyrénées	-7000
▁chantier	-7001
▁prévenir	-7002
initiative	-7003
▁biologiques	-7004
Me	-7005
-9,	-7006
MAR	-7007
▁AB	-7008
▁cy	-7009
▁hé	-7010
yril	-7011
ènes	-7012
▁335	-7013
▁Den	-7014
André	-7015
endue	-7016
▁Pôle	-7017
▁école	-7018
▁accusé	-7019
▁humaine	-7020
▁protégée	-7021
▁auditrice	-7022
gny	-7023
2-1,	-7024
ENCE	-7025
ball	-7026
sons	-7027
▁"5.	-7028
▁614	-7029
amens	-7030
▁hydr	-7031
érante	-7032
▁citoy	-7033
▁marin	-7034
▁motif	-7035
▁Gabriel	-7036
▁déclarée	-7037
▁référent	-7038
▁instituts	-7039
▁spécialisation	-7040
9.	-7041
Es	-7042
▁,	-7043
3-6	-7044
Conseil	-7045
▁auront	-7046
quitaine	-7047
▁composée	-7048
▁dommages	-7049
▁officier	-7050
▁publicité	-7051
▁Affectation	-7052
AMP	-7053
Aix	-7054
▁CA	-7055
▁Mo	-7056
1835	-7057
IERS	-7058
allo	-7059
▁Rol	-7060
Cécile	-7061
auteur	-7062
▁forêt	-7063
▁trait	-7064
▁Aucune	-7065
▁agronom	-7066
▁Sandrine	-7067
▁dissoute	-7068
▁modifiées	-7069
▁infraction	-7070
▁présidents	-7071
▁spécialisée	-7072
▁hiérarchique	-7073
CN	-7074
3-7	-7075
isé	-7076
▁BP	-7077
▁mm	-7078
▁chr	-7079
▁mat	-7080
èques	-7081
▁indé	-7082
ageurs	-7083
▁fréqu	-7084
▁convois	-7085
ilisation	-7086
▁biologique	-7087
DR	-7088
2-5	-7089
ANC	-7090
Aud	-7091
VES	-7092
▁ME	-7093
2-2,	-7094
onnet	-7095
▁char	-7096
▁ciné	-7097
Calais	-7098
▁quater	-7099
▁réunit	-7100
▁visite	-7101
▁Justice	-7102
▁insérée	-7103
stétrique	-7104
▁indiquée	-7105
▁transvers	-7106
▁prélèvements	-7107
Une	-7108
dine	-7109
unis	-7110
▁rév	-7111
thony	-7112
partie	-7113
▁panne	-7114
▁ouverte	-7115
▁résidant	-7116
▁déontologie	-7117
▁justificatifs	-7118
éph	-7119
▁dan	-7120
▁hép	-7121
▁pie	-7122
appar	-7123
aster	-7124
vesti	-7125
▁vins	-7126
itions	-7127
▁Office	-7128
▁Patrice	-7129
▁horaire	-7130
▁équipes	-7131
onération	-7132
▁culturel	-7133
▁libellée	-7134
▁écologiques	-7135
▁préservation	-7136
IF	-7137
Sur	-7138
1-30	-7139
Bruno	-7140
lèges	-7141
▁Pays	-7142
amende	-7143
▁modes	-7144
▁puiss	-7145
inement	-7146
▁œuvres	-7147
▁prenant	-7148
▁rétabli	-7149
▁Virginie	-7150
▁avenants	-7151
directrice	-7152
▁antérieur	-7153
▁effective	-7154
▁répondant	-7155
ège	-7156
faci	-7157
▁2241	-7158
▁douan	-7159
demment	-7160
▁Benoît	-7161
Benjamin	-7162
affaires	-7163
▁Francis	-7164
▁catastr	-7165
▁retirer	-7166
▁élabore	-7167
▁foncière	-7168
▁demandées	-7169
▁organisés	-7170
implantation	-7171
sa	-7172
▁51	-7173
▁id	-7174
tric	-7175
icien	-7176
▁demi	-7177
▁intro	-7178
▁Gilbert	-7179
▁fraudes	-7180
▁maîtres	-7181
▁favoriser	-7182
▁supérieures	-7183
▁contractuelle	-7184
▁coordonnateur	-7185
AA	-7186
APP	-7187
1918	-7188
mann	-7189
▁00°	-7190
▁150	-7191
▁521	-7192
Isère	-7193
Jusqu	-7194
▁Metz	-7195
▁bloc	-7196
▁bons	-7197
▁LISTE	-7198
▁régis	-7199
▁bateau	-7200
▁Assesse	-7201
▁complet	-7202
▁déclaré	-7203
▁requise	-7204
▁travers	-7205
▁dénommée	-7206
▁inscrite	-7207
▁constituer	-7208
▁répression	-7209
▁culturelles	-7210
▁particulière	-7211
bo	-7212
RES	-7213
1906	-7214
QUET	-7215
fort	-7216
utri	-7217
érir	-7218
entraî	-7219
tative	-7220
▁Laure	-7221
▁précé	-7222
▁Romain	-7223
▁climat	-7224
▁rappel	-7225
▁supports	-7226
▁précédemment	-7227
ANI	-7228
TAL	-7229
cre	-7230
2-10	-7231
▁613	-7232
recev	-7233
▁MARTIN	-7234
▁langues	-7235
▁dialogue	-7236
▁Madeleine	-7237
▁exercices	-7238
▁manquement	-7239
▁instruments	-7240
▁cautionnement	-7241
fon	-7242
▁9,	-7243
▁XI	-7244
▁tâ	-7245
4-10	-7246
ENNE	-7247
omie	-7248
▁Sch	-7249
▁intr	-7250
contre	-7251
▁force	-7252
▁classé	-7253
▁Mathieu	-7254
▁Béatrice	-7255
▁occasion	-7256
▁coopérateurs	-7257
Gr	-7258
Fab	-7259
GUE	-7260
Rob	-7261
uls	-7262
▁Ag	-7263
ANCE	-7264
▁SCP	-7265
ament	-7266
arrêt	-7267
ayant	-7268
▁bass	-7269
adulte	-7270
ortance	-7271
imposition	-7272
▁industriel	-7273
▁instituant	-7274
▁journalière	-7275
▁référentiels	-7276
MICC	-7277
▁423	-7278
▁ami	-7279
Saône	-7280
zanne	-7281
▁1994	-7282
▁flot	-7283
▁prud	-7284
érault	-7285
▁saisi	-7286
▁221-15	-7287
érologie	-7288
▁municipal	-7289
▁automatisé	-7290
▁personnelle	-7291
▁consultations	-7292
Ga	-7293
rir	-7294
4-16	-7295
crip	-7296
▁Sab	-7297
▁»,"	-7298
▁banc	-7299
▁Etienne	-7300
▁requête	-7301
▁coopérateur	-7302
▁expérimental	-7303
▁fournisseurs	-7304
AEP	-7305
Ori	-7306
fic	-7307
▁8,	-7308
▁95	-7309
▁LO	-7310
1908	-7311
COUR	-7312
MICB	-7313
▁422	-7314
▁Dép	-7315
▁Agnès	-7316
adjoint	-7317
escadron	-7318
▁adaptées	-7319
▁transpar	-7320
▁constituent	-7321
▁fabrication	-7322
intermédiaire	-7323
▁aéronautiques	-7324
▁titularisation	-7325
Ser	-7326
▁719	-7327
▁San	-7328
▁TER	-7329
iteur	-7330
ument	-7331
▁amen	-7332
▁brut	-7333
Mathieu	-7334
▁hydrau	-7335
▁Français	-7336
occupation	-7337
▁homologué	-7338
▁évolution	-7339
▁annuellement	-7340
auc	-7341
INTC	-7342
limin	-7343
▁Pont	-7344
▁issues	-7345
▁offres	-7346
▁neuvième	-7347
▁proposées	-7348
▁indexation	-7349
▁indication	-7350
▁régulièrement	-7351
MA	-7352
émie	-7353
nance	-7354
▁Lucien	-7355
▁Nature	-7356
lisation	-7357
▁plantes	-7358
▁proposé	-7359
▁raisons	-7360
▁Patricia	-7361
▁couvertes	-7362
▁préparant	-7363
▁communiqués	-7364
▁déterminées	-7365
▁informatiques	-7366
▁antérieurement	-7367
▁expérimentation	-7368
com	-7369
▁pu	-7370
▁AUX	-7371
▁Sans	-7372
▁débit	-7373
▁impli	-7374
▁Sainte	-7375
▁validé	-7376
olérance	-7377
▁quotidi	-7378
▁atteinte	-7379
rag	-7380
▁"9°	-7381
▁Pal	-7382
avail	-7383
▁orig	-7384
ongueur	-7385
▁chance	-7386
▁experts	-7387
▁formule	-7388
▁Fondation	-7389
▁reçoivent	-7390
▁Délégation	-7391
▁conclusions	-7392
▁volontaires	-7393
▁opérationnel	-7394
▁prévisionnel	-7395
lli	-7396
1926	-7397
huit	-7398
légi	-7399
▁10.	-7400
▁sén	-7401
▁donc	-7402
ureaux	-7403
▁Simon	-7404
▁verte	-7405
▁veiller	-7406
▁apprenti	-7407
▁autonome	-7408
▁utiliser	-7409
efficacité	-7410
▁contenant	-7411
▁utilisation	-7412
TIF	-7413
2-31	-7414
abac	-7415
aune	-7416
igny	-7417
▁Mag	-7418
ariats	-7419
decine	-7420
meture	-7421
▁Emile	-7422
associé	-7423
▁liberté	-7424
▁solution	-7425
▁intermédi	-7426
▁professionn	-7427
eti	-7428
ory	-7429
tré	-7430
▁Je	-7431
""."	-7432
illy	-7433
mélie	-7434
▁anony	-7435
▁adapté	-7436
▁appelé	-7437
ordement	-7438
▁parents	-7439
▁saisine	-7440
▁connexes	-7441
▁multipli	-7442
▁quantités	-7443
1-6	-7444
▁73	-7445
SSAP	-7446
anch	-7447
▁"",	-7448
▁(2)	-7449
▁723	-7450
▁750	-7451
▁MOR	-7452
▁eff	-7453
vette	-7454
▁sept	-7455
▁vaut	-7456
Audrey	-7457
Gilles	-7458
respect	-7459
procédure	-7460
▁simultan	-7461
▁tableaux	-7462
▁Normandie	-7463
▁immeubles	-7464
▁régisseur	-7465
▁conduisant	-7466
Di	-7467
bri	-7468
▁SG	-7469
▁139	-7470
▁Dou	-7471
▁rap	-7472
▁CNIL	-7473
▁extr	-7474
▁phyt	-7475
▁contex	-7476
▁entend	-7477
▁détenus	-7478
tissement	-7479
▁modifiés	-7480
▁médiateur	-7481
▁limitation	-7482
▁principales	-7483
▁investissements	-7484
OD	-7485
AGE	-7486
ram	-7487
1929	-7488
TRER	-7489
▁Syn	-7490
▁COMM	-7491
▁dimin	-7492
▁pneum	-7493
▁repro	-7494
▁quotas	-7495
effectif	-7496
▁221-14,	-7497
▁portent	-7498
▁dispense	-7499
ographique	-7500
▁assemblée	-7501
▁scolaires	-7502
▁commercial	-7503
▁municipaux	-7504
▁occurrence	-7505
▁communiquer	-7506
▁localisation	-7507
zi	-7508
ATH	-7509
Var	-7510
▁Id	-7511
2-12	-7512
arti	-7513
exig	-7514
▁CMG	-7515
▁Rés	-7516
seurs	-7517
ifrance	-7518
▁demandé	-7519
▁comprise	-7520
présidents	-7521
▁ordinaire	-7522
▁Spécialité	-7523
EX	-7524
UNE	-7525
der	-7526
ost	-7527
anet	-7528
▁711	-7529
érite	-7530
▁7500	-7531
▁issu	-7532
luents	-7533
faciale	-7534
▁crises	-7535
▁signée	-7536
▁passage	-7537
▁hôpitaux	-7538
ancienneté	-7539
▁Geneviève	-7540
▁accidents	-7541
▁réintégré	-7542
▁desquelles	-7543
▁mandataire	-7544
BER	-7545
étr	-7546
ôles	-7547
▁Gas	-7548
▁RÉP	-7549
ILLET	-7550
▁frég	-7551
▁Fonds	-7552
▁221-16	-7553
▁combus	-7554
▁vertic	-7555
▁frégate	-7556
▁raisonn	-7557
▁apportées	-7558
▁Légifrance	-7559
▁Conformément	-7560
Ag	-7561
DT	-7562
Des	-7563
ota	-7564
▁Gh	-7565
1916	-7566
▁CER	-7567
▁hém	-7568
opath	-7569
▁2.3.	-7570
▁Mmes	-7571
Didier	-7572
NEMENT	-7573
onnier	-7574
▁adhér	-7575
▁inten	-7576
examens	-7577
▁intitu	-7578
Matthieu	-7579
▁contact	-7580
▁définir	-7581
▁filière	-7582
▁puissance	-7583
▁éventuels	-7584
▁enregistrées	-7585
BRE	-7586
orb	-7587
▁58	-7588
1-17	-7589
Tout	-7590
appu	-7591
èses	-7592
▁Méd	-7593
▁REN	-7594
▁SOU	-7595
▁Form	-7596
▁âgés	-7597
académ	-7598
▁seuls	-7599
▁Nicole	-7600
▁arrond	-7601
▁envoyé	-7602
▁serait	-7603
▁traité	-7604
ducation	-7605
▁entrant	-7606
▁gratuit	-7607
▁complète	-7608
▁prennent	-7609
▁prochain	-7610
▁premières	-7611
▁contribuer	-7612
▁respectives	-7613
▁utilisateurs	-7614
▁démissionnaire	-7615
2)	-7616
cy	-7617
▁Vu	-7618
land	-7619
rait	-7620
▁Mes	-7621
auche	-7622
Céline	-7623
classe	-7624
terran	-7625
▁final	-7626
▁Emilie	-7627
▁Victor	-7628
utrition	-7629
▁Edouard	-7630
▁partiel	-7631
▁longueur	-7632
▁Ministère	-7633
▁comporter	-7634
▁téléphone	-7635
▁praticiens	-7636
▁facturation	-7637
▁Organisation	-7638
▁commissariat	-7639
RY	-7640
ORT	-7641
▁UN	-7642
atur	-7643
▁337	-7644
▁lié	-7645
Henri	-7646
indic	-7647
▁Roch	-7648
▁conç	-7649
▁liée	-7650
mandes	-7651
resser	-7652
▁411-2	-7653
▁Avant	-7654
istence	-7655
étiques	-7656
▁quelle	-7657
▁bureaux	-7658
▁lettres	-7659
effectuer	-7660
▁locataire	-7661
▁électeurs	-7662
/2019-12-31	-7663
▁confidenti	-7664
▁exemplaire	-7665
▁dissolution	-7666
▁obstétrique	-7667
▁aménagements	-7668
Guy	-7669
▁(5	-7670
....	-7671
Eure	-7672
Marg	-7673
▁621	-7674
▁Lab	-7675
tudes	-7676
▁Tous	-7677
llerie	-7678
accords	-7679
▁située	-7680
▁choisie	-7681
▁communs	-7682
▁finance	-7683
Catherine	-7684
▁obtenues	-7685
▁organise	-7686
▁demeurent	-7687
▁couverture	-7688
tte	-7689
▁Ed	-7690
ôtes	-7691
▁14°	-7692
miers	-7693
▁cité	-7694
Hérault	-7695
▁2019-9	-7696
▁Maxime	-7697
▁occurr	-7698
▁prénoms	-7699
▁annuelles	-7700
▁comprennent	-7701
▁occurrences	-7702
▁Représentants	-7703
BE	-7704
CL	-7705
IGN	-7706
oxy	-7707
▁MM	-7708
▁Rec	-7709
▁succ	-7710
▁légal	-7711
▁réputé	-7712
▁réservés	-7713
tification	-7714
ographiques	-7715
mit	-7716
1907	-7717
endi	-7718
poth	-7719
▁Nad	-7720
▁REL	-7721
ierie	-7722
▁fusion	-7723
▁grands	-7724
aitement	-7725
▁Corinne	-7726
▁déposés	-7727
▁mutation	-7728
▁qualifié	-7729
▁renseign	-7730
allocations	-7731
▁extérieures	-7732
ÉD	-7733
RAND	-7734
rite	-7735
▁GAR	-7736
abric	-7737
athan	-7738
▁deven	-7739
venance	-7740
▁2018."	-7741
▁Huissi	-7742
▁Toulon	-7743
▁encour	-7744
▁complex	-7745
▁réalise	-7746
artisanat	-7747
▁cellules	-7748
▁détection	-7749
▁fermeture	-7750
▁médiation	-7751
▁déterminés	-7752
▁exploitants	-7753
1-9	-7754
REL	-7755
lot	-7756
omes	-7757
▁300	-7758
▁For	-7759
olesc	-7760
▁face	-7761
▁renv	-7762
▁voir	-7763
actifs	-7764
▁assuré	-7765
▁logici	-7766
▁utiles	-7767
génierie	-7768
▁Suzanne	-7769
▁appelée	-7770
▁préciser	-7771
organismes	-7772
▁adressées	-7773
▁employeur	-7774
▁intention	-7775
▁mutualité	-7776
▁directoire	-7777
▁pathologies	-7778
▁alimentaires	-7779
▁enseignement	-7780
▁diplomatiques	-7781
▁intermédiaires	-7782
GN	-7783
1-8	-7784
3-9	-7785
Hug	-7786
agri	-7787
rmier	-7788
▁Bour	-7789
▁blan	-7790
▁vise	-7791
levard	-7792
▁décès	-7793
▁simil	-7794
▁Offici	-7795
assadeur	-7796
▁initial	-7797
▁parvenir	-7798
▁maximales	-7799
▁voyageurs	-7800
▁gouvernance	-7801
▁géographiques	-7802
▁interventions	-7803
▁participations	-7804
CG	-7805
MI	-7806
CES	-7807
IEU	-7808
VEN	-7809
ano	-7810
3-1,	-7811
ITÉS	-7812
Mari	-7813
inal	-7814
▁14,	-7815
gérie	-7816
▁régi	-7817
▁chauff	-7818
Nathalie	-7819
▁notifié	-7820
▁orthopé	-7821
Allemagne	-7822
▁captures	-7823
▁maréchal	-7824
▁syndicat	-7825
▁toutefois	-7826
▁populations	-7827
interprétation	-7828
OUT	-7829
thur	-7830
▁706	-7831
▁FER	-7832
▁GIR	-7833
▁HER	-7834
▁Jos	-7835
anque	-7836
bihan	-7837
Savoie	-7838
mobilis	-7839
▁amende	-7840
▁confirm	-7841
▁descrip	-7842
▁dépasse	-7843
▁foncier	-7844
▁légales	-7845
▁étudiant	-7846
▁mentionne	-7847
▁étudiante	-7848
entreprises	-7849
▁contractant	-7850
▁correspondance	-7851
.)	-7852
uf	-7853
-3-	-7854
don	-7855
ira	-7856
1910	-7857
teil	-7858
urés	-7859
▁511	-7860
▁nul	-7861
Sarah	-7862
tinée	-7863
▁math	-7864
aillon	-7865
▁élevé	-7866
▁Hubert	-7867
▁sièges	-7868
▁trafic	-7869
ouvement	-7870
▁vivante	-7871
▁obstacle	-7872
▁quarante	-7873
▁troubles	-7874
▁satisfait	-7875
▁transféré	-7876
▁attribuées	-7877
▁académiques	-7878
▁catastrophe	-7879
▁interacadém	-7880
▁correspondantes	-7881
GA	-7882
Jo	-7883
RIA	-7884
Sub	-7885
▁77	-7886
▁kg	-7887
▁pi	-7888
1917	-7889
▁"49	-7890
▁12.	-7891
▁Hug	-7892
▁Mou	-7893
suite	-7894
▁1990	-7895
Orient	-7896
cevoir	-7897
uerite	-7898
▁Alice	-7899
▁Contr	-7900
▁pilote	-7901
▁tâches	-7902
▁Clément	-7903
▁Thérèse	-7904
▁confiées	-7905
▁instituée	-7906
▁continuité	-7907
immatriculation	-7908
BO	-7909
HF	-7910
1-7	-7911
4-2	-7912
Ann	-7913
Sim	-7914
ada	-7915
guy	-7916
▁BA	-7917
▁EX	-7918
1928	-7919
alle	-7920
arit	-7921
ARTIC	-7922
▁arts	-7923
Adrien	-7924
antill	-7925
aérone	-7926
euille	-7927
▁parce	-7928
▁loisir	-7929
▁Pauline	-7930
appliquer	-7931
▁destinée	-7932
▁boulevard	-7933
▁passation	-7934
▁poursuite	-7935
▁salariées	-7936
▁handicapés	-7937
▁satisfaire	-7938
▁substitute	-7939
▁chimiothérapie	-7940
KI	-7941
ONN	-7942
Pré	-7943
1-20	-7944
IERE	-7945
èche	-7946
▁mic	-7947
▁géri	-7948
euvent	-7949
▁énonc	-7950
▁access	-7951
▁estime	-7952
▁fabric	-7953
▁évalue	-7954
▁remplir	-7955
Aquitaine	-7956
▁plafonds	-7957
▁démarches	-7958
▁familiale	-7959
▁minimales	-7960
▁titularis	-7961
▁restreinte	-7962
LM	-7963
Re	-7964
aj	-7965
Art	-7966
vez	-7967
lène	-7968
▁Lucie	-7969
préfète	-7970
▁report	-7971
▁trouve	-7972
▁caporal	-7973
▁majeure	-7974
▁mandats	-7975
▁calculée	-7976
▁décrites	-7977
▁meilleurs	-7978
▁organique	-7979
▁prononcer	-7980
▁ultérieur	-7981
opérabilité	-7982
▁continuités	-7983
établissements	-7984
▁disciplinaire	-7985
VRE	-7986
ape	-7987
uil	-7988
▁lé	-7989
▁aqu	-7990
▁inv	-7991
ousse	-7992
▁vacc	-7993
Franck	-7994
dentis	-7995
ilibre	-7996
▁Groupe	-7997
▁consac	-7998
▁feront	-7999
▁légale	-8000
▁master	-8001
▁accueil	-8002
▁déposer	-8003
▁vocation	-8004
▁logistiques	-8005
ICA	-8006
Rou	-8007
▁él	-8008
1925	-8009
▁évi	-8010
dicité	-8011
▁aérop	-8012
régoire	-8013
▁1983."	-8014
▁identi	-8015
Christian	-8016
▁proposés	-8017
▁rénovation	-8018
▁.	-8019
LIN	-8020
2-20	-8021
▁tri	-8022
Rapha	-8023
èrent	-8024
▁331-1	-8025
▁Aucun	-8026
▁2018-1	-8027
▁statue	-8028
ppléante	-8029
▁recrutés	-8030
▁attribués	-8031
▁déduction	-8032
▁interacadémique	-8033
cdg	-8034
rop	-8035
vad	-8036
▁Oc	-8037
▁UE	-8038
▁13°	-8039
▁Sau	-8040
▁gab	-8041
▁racc	-8042
▁rhum	-8043
▁dange	-8044
culture	-8045
▁Syndic	-8046
Yvelines	-8047
rédérique	-8048
▁incluant	-8049
▁utilisant	-8050
▁exploitant	-8051
▁paritaires	-8052
▁partenariat	-8053
▁constatation	-8054
DC	-8055
PR	-8056
END	-8057
▁OR	-8058
▁gri	-8059
durée	-8060
recru	-8061
terie	-8062
▁réus	-8063
▁rôle	-8064
▁conver	-8065
▁compagn	-8066
▁Benjamin	-8067
▁disposer	-8068
▁poursuit	-8069
▁priorité	-8070
▁propriétés	-8071
▁électrique	-8072
▁documentation	-8073
GH	-8074
▁PH	-8075
▁Ri	-8076
MENE	-8077
SSAH	-8078
actu	-8079
dile	-8080
▁11.	-8081
actes	-8082
annes	-8083
rases	-8084
▁Font	-8085
▁gram	-8086
▁posi	-8087
otenti	-8088
tifici	-8089
▁tabac	-8090
▁thèmes	-8091
▁compréh	-8092
▁valider	-8093
▁développer	-8094
▁secondaire	-8095
▁supprimées	-8096
▁contrôleurs	-8097
▁difficultés	-8098
▁préfectoral	-8099
▁manifestation	-8100
erne	-8101
èque	-8102
rimer	-8103
▁déci	-8104
rmiers	-8105
élèves	-8106
▁anime	-8107
▁fixer	-8108
▁trouv	-8109
tenance	-8110
▁plénip	-8111
▁seuils	-8112
▁sujets	-8113
échéance	-8114
▁dépense	-8115
▁entités	-8116
▁phrases	-8117
▁Officier	-8118
▁rédigées	-8119
▁détenteur	-8120
▁organisées	-8121
▁dérogations	-8122
▁coopératives	-8123
▁plénipotenti	-8124
TP	-8125
éry	-8126
▁cr	-8127
drey	-8128
glom	-8129
sous	-8130
▁Date	-8131
▁RAEP	-8132
▁Agence	-8133
▁évaluer	-8134
existence	-8135
▁NATIONALE	-8136
▁précédents	-8137
▁électorales	-8138
▁évaluations	-8139
▁commerciales	-8140
ky	-8141
Mor	-8142
ize	-8143
ECOI	-8144
encl	-8145
▁Ang	-8146
▁Esp	-8147
▁MER	-8148
areil	-8149
urore	-8150
▁Bern	-8151
▁défi	-8152
▁Défin	-8153
▁aires	-8154
▁Sylvain	-8155
▁ensuite	-8156
▁exercée	-8157
▁acceptés	-8158
▁cultures	-8159
▁standard	-8160
▁Alexandra	-8161
▁améliorer	-8162
▁périodicité	-8163
),"	-8164
CAM	-8165
sif	-8166
SSAN	-8167
onté	-8168
domad	-8169
stèmes	-8170
▁Audrey	-8171
▁charte	-8172
▁existe	-8173
ocataire	-8174
terranée	-8175
▁Richard	-8176
▁dixième	-8177
▁prévoir	-8178
Toutefois	-8179
▁commandes	-8180
▁Profession	-8181
▁rapportant	-8182
▁évolutions	-8183
▁justification	-8184
UBLI	-8185
info	-8186
ortu	-8187
▁10,	-8188
▁but	-8189
Chloé	-8190
acles	-8191
amuel	-8192
faces	-8193
Alexis	-8194
avance	-8195
mologie	-8196
établir	-8197
▁relevé	-8198
▁sévère	-8199
▁taille	-8200
▁Chantal	-8201
▁doctorat	-8202
▁déléguer	-8203
▁exprimés	-8204
▁objectif	-8205
▁approuvée	-8206
acceptation	-8207
▁artistique	-8208
interopérabilité	-8209
DF	-8210
hyl	-8211
▁Ga	-8212
Aude	-8213
ajou	-8214
loie	-8215
▁716	-8216
▁Ern	-8217
▁Mob	-8218
▁heb	-8219
léans	-8220
rivée	-8221
▁revê	-8222
▁hyper	-8223
▁intel	-8224
▁monde	-8225
▁natur	-8226
▁assujet	-8227
▁consent	-8228
▁journée	-8229
▁filiales	-8230
▁hebdomad	-8231
▁Huissiers	-8232
▁contenues	-8233
éditerranée	-8234
▁identifiés	-8235
▁justifient	-8236
RU	-8237
-6.	-8238
Ana	-8239
Léa	-8240
TAT	-8241
més	-8242
ocr	-8243
red	-8244
▁EP	-8245
INTE	-8246
PRMX	-8247
▁cur	-8248
▁ponc	-8249
▁appui	-8250
évaluer	-8251
▁SERVICE	-8252
▁chirurg	-8253
▁progres	-8254
▁Provence	-8255
▁accident	-8256
▁afférents	-8257
▁insaisiss	-8258
▁retraites	-8259
internation	-8260
▁transférés	-8261
▁rattachement	-8262
MR	-8263
fe	-8264
AUT	-8265
RIP	-8266
oce	-8267
▁PL	-8268
ides	-8269
iens	-8270
▁bel	-8271
ortés	-8272
▁Sign	-8273
observ	-8274
▁Augus	-8275
▁audit	-8276
▁blanc	-8277
▁bleue	-8278
Algérie	-8279
Organis	-8280
irurgie	-8281
▁suivie	-8282
tructeur	-8283
▁augment	-8284
▁consolid	-8285
importance	-8286
ommunications	-8287
▁téléprocédure	-8288
▁confidentialité	-8289
za	-8290
MIN	-8291
émy	-8292
▁AG	-8293
carb	-8294
ores	-8295
▁12,	-8296
▁mél	-8297
▁élu	-8298
▁Conn	-8299
▁FORM	-8300
▁Léon	-8301
▁nuit	-8302
▁très	-8303
attein	-8304
▁socio	-8305
▁financ	-8306
▁ventes	-8307
mination	-8308
▁apporte	-8309
▁décharg	-8310
▁perçues	-8311
▁artifici	-8312
▁détaillé	-8313
▁prononcé	-8314
▁retenues	-8315
▁contraintes	-8316
▁temporaires	-8317
YN	-8318
VII	-8319
roy	-8320
ÉNÉ	-8321
édic	-8322
▁"6.	-8323
▁15°	-8324
astro	-8325
tiane	-8326
▁2.5.	-8327
audine	-8328
▁haute	-8329
pective	-8330
▁Carole	-8331
▁faible	-8332
▁source	-8333
▁univer	-8334
Adjudant	-8335
▁amiable	-8336
▁déclare	-8337
▁volonté	-8338
▁contexte	-8339
otechnique	-8340
importation	-8341
▁comportent	-8342
▁présentées	-8343
▁conséquence	-8344
▁effectivement	-8345
ERS	-8346
▁Lo	-8347
otre	-8348
▁114	-8349
▁Cro	-8350
▁dro	-8351
▁adju	-8352
▁trim	-8353
▁2017/	-8354
▁créer	-8355
▁latér	-8356
élevage	-8357
▁Annexe	-8358
▁adolesc	-8359
▁grandes	-8360
▁mémoire	-8361
▁remplit	-8362
▁Syndicat	-8363
▁chronique	-8364
▁trimestre	-8365
exonération	-8366
▁équivalente	-8367
▁postérieurement	-8368
CK	-8369
Du	-8370
CAR	-8371
Mich	-8372
temp	-8373
▁124	-8374
▁125	-8375
▁442	-8376
lette	-8377
raine	-8378
▁"44°	-8379
▁1.1.	-8380
Benoît	-8381
▁2016/	-8382
▁bases	-8383
▁expos	-8384
▁hydro	-8385
mandine	-8386
urélien	-8387
édition	-8388
▁2019-5	-8389
▁Légion	-8390
accident	-8391
▁réduite	-8392
entielles	-8393
versement	-8394
▁sportifs	-8395
▁compléter	-8396
▁gériatrie	-8397
▁extérieure	-8398
▁constituant	-8399
AI	-8400
pos	-8401
reau	-8402
▁Pas	-8403
Laura	-8404
dicte	-8405
▁Boul	-8406
▁Fern	-8407
▁envoi	-8408
ologues	-8409
▁fruits	-8410
▁recour	-8411
Bertrand	-8412
audition	-8413
▁Fabrice	-8414
▁accéder	-8415
▁fournis	-8416
▁analyses	-8417
institution	-8418
▁conservent	-8419
▁servitudes	-8420
▁consultatif	-8421
Bas	-8422
ESRH	-8423
▁Sub	-8424
▁The	-8425
ivers	-8426
▁trau	-8427
▁modéré	-8428
audience	-8429
▁majeurs	-8430
▁mobilis	-8431
▁nomencl	-8432
▁collèges	-8433
▁désigner	-8434
▁appareils	-8435
▁registres	-8436
▁consulaire	-8437
Organisation	-8438
▁adolescents	-8439
▁technologie	-8440
▁tarification	-8441
SO	-8442
Gau	-8443
Sous	-8444
▁kil	-8445
Indre	-8446
▁four	-8447
▁privi	-8448
travail	-8449
▁chauss	-8450
atteinte	-8451
igration	-8452
▁Identifi	-8453
▁syndicats	-8454
entérologie	-8455
▁chercheurs	-8456
▁producteur	-8457
▁transferts	-8458
▁Département	-8459
▁représenter	-8460
▁souscription	-8461
lit	-8462
pil	-8463
pir	-8464
▁AM	-8465
orus	-8466
▁123	-8467
▁Cat	-8468
▁Gau	-8469
▁feux	-8470
tibles	-8471
▁versé	-8472
UBLIQUE	-8473
▁franch	-8474
▁global	-8475
▁objets	-8476
▁journal	-8477
▁lieuten	-8478
▁vacants	-8479
▁Auvergne	-8480
▁avantages	-8481
▁intitulée	-8482
architecture	-8483
0-1	-8484
AUR	-8485
▁od	-8486
▁ur	-8487
1-2,	-8488
imie	-8489
▁15.	-8490
▁313	-8491
Hervé	-8492
credi	-8493
▁COMP	-8494
▁cela	-8495
▁gros	-8496
▁thon	-8497
ergies	-8498
▁2021,	-8499
▁dévol	-8500
▁lauré	-8501
atrices	-8502
▁cartes	-8503
▁méthod	-8504
aculture	-8505
équipage	-8506
▁Aurélie	-8507
▁adaptés	-8508
▁limiter	-8509
▁situées	-8510
arquement	-8511
▁Décision	-8512
▁Juliette	-8513
▁mercredi	-8514
▁accomplis	-8515
▁certificateur	-8516
▁mathématiques	-8517
RON	-8518
▁(6	-8519
▁At	-8520
ECOT	-8521
fond	-8522
umab	-8523
▁Puy	-8524
▁""."	-8525
▁Zone	-8526
▁coup	-8527
▁séri	-8528
▁imput	-8529
aliment	-8530
▁affili	-8531
▁Magistr	-8532
▁gabarit	-8533
▁irrecev	-8534
▁addition	-8535
▁audiovis	-8536
▁consenti	-8537
▁facteurs	-8538
▁convoqués	-8539
▁expertise	-8540
▁adaptations	-8541
▁communautés	-8542
▁suffisamment	-8543
TO	-8544
Bri	-8545
ker	-8546
ola	-8547
ELIN	-8548
ynam	-8549
▁CHE	-8550
▁Tra	-8551
▁arrê	-8552
▁mété	-8553
Futuna	-8554
arbitr	-8555
▁chiff	-8556
agraphe	-8557
▁exécut	-8558
énédicte	-8559
▁déploie	-8560
▁établir	-8561
▁créances	-8562
▁reliquat	-8563
▁traitant	-8564
▁statutaire	-8565
▁événements	-8566
interdiction	-8567
▁publications	-8568
▁stratégiques	-8569
Aux	-8570
▁CF	-8571
▁HU	-8572
dire	-8573
ties	-8574
▁end	-8575
▁2.4.	-8576
▁Cher	-8577
▁agro	-8578
vation	-8579
▁84-16	-8580
▁accré	-8581
▁héber	-8582
Germain	-8583
▁démocr	-8584
▁exercé	-8585
▁métier	-8586
assiette	-8587
▁assisté	-8588
arbitrage	-8589
▁partielle	-8590
▁assistants	-8591
▁concernent	-8592
▁formalités	-8593
▁consentement	-8594
▁laboratoires	-8595
▁transmissions	-8596
May	-8597
cor	-8598
...)	-8599
1927	-8600
issé	-8601
élig	-8602
▁"19	-8603
▁BAP	-8604
▁don	-8605
▁soc	-8606
autes	-8607
▁dose	-8608
▁plas	-8609
velyne	-8610
érique	-8611
▁autor	-8612
▁pages	-8613
▁pollu	-8614
oixante	-8615
▁Civile	-8616
▁RELATI	-8617
▁Simone	-8618
▁jointe	-8619
▁métall	-8620
▁météor	-8621
traitant	-8622
▁combatt	-8623
▁Sciences	-8624
▁adresser	-8625
▁fichiers	-8626
▁dispensés	-8627
▁diplomatique	-8628
▁exploitations	-8629
MO	-8630
TC	-8631
hi	-8632
zy	-8633
net	-8634
1834	-8635
isol	-8636
Lucie	-8637
chard	-8638
yriam	-8639
▁Peti	-8640
▁Rapha	-8641
▁libér	-8642
▁train	-8643
attaché	-8644
enfance	-8645
éverine	-8646
▁passer	-8647
▁adminis	-8648
talmologie	-8649
▁carrières	-8650
▁fondament	-8651
observation	-8652
▁deviennent	-8653
pt	-8654
nat	-8655
-3-1	-8656
Mont	-8657
▁(3)	-8658
▁NOT	-8659
▁SAL	-8660
Manon	-8661
▁Tour	-8662
▁flux	-8663
TATION	-8664
decies	-8665
entend	-8666
▁Trans	-8667
aisance	-8668
▁Commun	-8669
▁Ernest	-8670
▁essais	-8671
▁options	-8672
atteindre	-8673
▁négociations	-8674
▁correspondants	-8675
▁responsabilités	-8676
Col	-8677
▁DO	-8678
▁Hu	-8679
CHET	-8680
FORM	-8681
▁112	-8682
▁Cer	-8683
▁Fou	-8684
▁MAL	-8685
▁lire	-8686
Emilie	-8687
formes	-8688
▁243-1	-8689
▁cesse	-8690
▁défav	-8691
recteur	-8692
▁Denise	-8693
▁fourni	-8694
▁reconnu	-8695
▁prononce	-8696
▁accordées	-8697
▁affectées	-8698
▁transparence	-8699
▁départementales	-8700
HE	-8701
URS	-8702
aug	-8703
▁Mi	-8704
Sand	-8705
TREL	-8706
vage	-8707
Simon	-8708
tible	-8709
érémy	-8710
▁ROUSS	-8711
▁élève	-8712
▁Manche	-8713
▁meille	-8714
▁exemple	-8715
▁regroup	-8716
enveloppe	-8717
▁préventi	-8718
▁bulletins	-8719
glomération	-8720
▁combattants	-8721
▁conventionnel	-8722
3)	-8723
ye	-8724
-7.	-8725
▁Ev	-8726
ares	-8727
cinq	-8728
▁811	-8729
▁Sou	-8730
ugène	-8731
▁céré	-8732
▁sexe	-8733
LEMENT	-8734
ciaire	-8735
▁Adrien	-8736
▁profil	-8737
▁circuit	-8738
▁certifié	-8739
▁conjointe	-8740
▁substanti	-8741
▁agronomique	-8742
mobilisations	-8743
▁métropolitaine	-8744
▁régularisation	-8745
▁Professionnelle	-8746
ROU	-8747
▁66	-8748
▁tôt	-8749
Hauts	-8750
▁1979	-8751
▁exon	-8752
▁liti	-8753
indice	-8754
▁ARMÉE	-8755
▁diges	-8756
▁joint	-8757
▁récup	-8758
▁162-17	-8759
▁entité	-8760
▁primes	-8761
▁servir	-8762
ortement	-8763
▁courant	-8764
▁minimal	-8765
▁modules	-8766
▁étendue	-8767
accompagn	-8768
▁assister	-8769
▁statuant	-8770
▁chimiques	-8771
▁mensuelle	-8772
▁afférentes	-8773
▁majoration	-8774
▁présentent	-8775
ZE	-8776
-8.	-8777
IAN	-8778
Pas	-8779
aye	-8780
phe	-8781
isés	-8782
orés	-8783
osph	-8784
▁BEL	-8785
▁Nat	-8786
▁meu	-8787
hamed	-8788
Louise	-8789
octroi	-8790
tivées	-8791
▁Génér	-8792
citanie	-8793
▁Nombre	-8794
▁discri	-8795
▁hautes	-8796
▁déposée	-8797
▁quelque	-8798
▁étranger	-8799
▁accrédité	-8800
▁incomplet	-8801
▁nécessitant	-8802
administratif	-8803
▁vétérinaires	-8804
▁Im	-8805
▁po	-8806
▁20.	-8807
▁228	-8808
▁250	-8809
▁VAN	-8810
▁Voi	-8811
intro	-8812
édent	-8813
▁2023	-8814
▁Liste	-8815
▁bande	-8816
▁pieds	-8817
▁cancer	-8818
▁cortic	-8819
document	-8820
▁exprimé	-8821
▁sergent	-8822
▁vérifie	-8823
ournement	-8824
▁Mathilde	-8825
▁Rochelle	-8826
▁détenues	-8827
▁effectue	-8828
▁constatée	-8829
/2019-12-19	-8830
allocataire	-8831
▁Christiane	-8832
▁Marguerite	-8833
▁aménagement	-8834
▁fédérations	-8835
▁établissant	-8836
▁arrondissement	-8837
2°	-8838
Am	-8839
BA	-8840
Lo	-8841
ULA	-8842
lai	-8843
▁Is	-8844
sité	-8845
▁App	-8846
▁Bos	-8847
▁Cel	-8848
oyers	-8849
eurthe	-8850
reuses	-8851
▁Trois	-8852
▁belge	-8853
▁4111-2	-8854
▁carbone	-8855
onnements	-8856
infraction	-8857
▁conserver	-8858
▁légalement	-8859
▁justificatif	-8860
▁raccordement	-8861
▁transactions	-8862
▁départementaux	-8863
EAN	-8864
▁Et	-8865
▁631	-8866
▁Neu	-8867
capit	-8868
▁Juge	-8869
▁Rose	-8870
▁trop	-8871
Pointe	-8872
Vienne	-8873
▁214-1	-8874
▁grave	-8875
▁posté	-8876
inistre	-8877
▁Roland	-8878
Clémence	-8879
▁cellule	-8880
▁largeur	-8881
migration	-8882
objectifs	-8883
▁contient	-8884
▁soixante	-8885
▁terroris	-8886
▁bataillon	-8887
▁qualifiée	-8888
▁suspendre	-8889
▁management	-8890
▁présidence	-8891
▁progression	-8892
▁représentés	-8893
▁subordonnée	-8894
▁correspondante	-8895
PN	-8896
NOR	-8897
via	-8898
▁AT	-8899
VIER	-8900
lara	-8901
▁11,	-8902
▁421	-8903
▁Rom	-8904
▁oph	-8905
▁pal	-8906
▁suc	-8907
Gabri	-8908
rimin	-8909
▁prés	-8910
Centre	-8911
▁TITRE	-8912
▁fluvi	-8913
Aurélie	-8914
▁OFFICE	-8915
▁bassin	-8916
▁crimin	-8917
▁emprun	-8918
▁Créteil	-8919
▁semaine	-8920
▁occupant	-8921
▁invalidité	-8922
▁redevances	-8923
▁pluriannuel	-8924
USS	-8925
aus	-8926
arts	-8927
▁via	-8928
antie	-8929
duite	-8930
▁2024	-8931
▁Bois	-8932
▁empê	-8933
Chaque	-8934
apport	-8935
olette	-8936
▁conci	-8937
▁révis	-8938
Georges	-8939
mension	-8940
▁2019-2	-8941
▁Compét	-8942
▁entrée	-8943
▁mobile	-8944
▁réduire	-8945
▁verticales	-8946
▁prorogation	-8947
▁prolongation	-8948
PP	-8949
-1-	-8950
infi	-8951
éger	-8952
▁445	-8953
▁DIS	-8954
▁GRA	-8955
▁Lib	-8956
liers	-8957
▁4139	-8958
▁Chau	-8959
▁225-1	-8960
▁Ecole	-8961
▁Eugène	-8962
▁auxili	-8963
▁déposi	-8964
▁encore	-8965
▁longue	-8966
▁payeur	-8967
▁valide	-8968
▁choisir	-8969
▁réputée	-8970
titulaire	-8971
▁certaine	-8972
inscrivent	-8973
intéressée	-8974
▁navigables	-8975
▁réadaptation	-8976
▁susmentionné	-8977
-33	-8978
-37	-8979
AMB	-8980
IRA	-8981
dei	-8982
-5-1	-8983
ESRS	-8984
heim	-8985
▁DAR	-8986
ignan	-8987
▁dépu	-8988
▁élev	-8989
social	-8990
▁baign	-8991
▁flott	-8992
▁télés	-8993
eutique	-8994
ruption	-8995
équival	-8996
▁ARMÉES	-8997
▁fraude	-8998
immobili	-8999
▁télépil	-9000
issements	-9001
▁acquises	-9002
▁énumérées	-9003
odontologie	-9004
▁pertinence	-9005
▁compréhension	-9006
00”	-9007
TIT	-9008
alo	-9009
▁68	-9010
▁Fl	-9011
▁Ni	-9012
atie	-9013
mité	-9014
terr	-9015
type	-9016
▁Dom	-9017
istor	-9018
▁dosi	-9019
ureure	-9020
▁incid	-9021
▁serre	-9022
▁signe	-9023
istique	-9024
▁1982."	-9025
▁2017-1	-9026
▁grille	-9027
▁incomb	-9028
▁voyage	-9029
▁pénales	-9030
▁restent	-9031
▁retourn	-9032
▁assurent	-9033
▁informer	-9034
immobilier	-9035
aquaculture	-9036
▁comprendre	-9037
▁infirmiers	-9038
▁immobilière	-9039
▁subventions	-9040
▁coefficients	-9041
DU	-9042
yp	-9043
romp	-9044
▁13,	-9045
▁160	-9046
▁MEN	-9047
▁Pri	-9048
▁avi	-9049
itres	-9050
sante	-9051
quatre	-9052
▁612-1	-9053
▁Congé	-9054
▁portu	-9055
▁subir	-9056
▁venti	-9057
Edouard	-9058
▁Nation	-9059
▁danger	-9060
▁budgets	-9061
Stéphanie	-9062
éducateur	-9063
▁précisés	-9064
▁déclarant	-9065
▁Groupement	-9066
▁RÉPUBLIQUE	-9067
▁appliquées	-9068
▁poursuivre	-9069
▁terrorisme	-9070
▁déploiement	-9071
▁indirectement	-9072
/03	-9073
1-19	-9074
MENH	-9075
acqu	-9076
acts	-9077
▁Ins	-9078
▁pér	-9079
CTION	-9080
MENTS	-9081
eneur	-9082
gedei	-9083
ussie	-9084
▁Gall	-9085
Cédric	-9086
angers	-9087
urable	-9088
▁Annie	-9089
▁OFFIC	-9090
▁Secré	-9091
▁Union	-9092
▁dédié	-9093
èlement	-9094
▁Terres	-9095
▁capture	-9096
▁mécanis	-9097
apprécier	-9098
lassement	-9099
▁Pyrénées	-9100
▁semestre	-9101
▁indiciaire	-9102
appréciation	-9103
▁irrecevable	-9104
▁naturalisation	-9105
ga	-9106
GAR	-9107
MER	-9108
1924	-9109
Lors	-9110
NARD	-9111
ache	-9112
vaux	-9113
xate	-9114
▁red	-9115
APPEL	-9116
Alice	-9117
uxemb	-9118
vados	-9119
▁1991	-9120
▁Lire	-9121
immeub	-9122
▁Belle	-9123
▁déont	-9124
▁dépas	-9125
▁récip	-9126
▁Marion	-9127
▁assign	-9128
▁décomp	-9129
▁ouvrir	-9130
Juliette	-9131
otrexate	-9132
▁express	-9133
▁facture	-9134
▁investi	-9135
▁obtenue	-9136
▁portail	-9137
▁récapit	-9138
▁superfi	-9139
▁ancienne	-9140
▁européens	-9141
▁mécanique	-9142
▁souhaitent	-9143
Vu	-9144
317	-9145
CER	-9146
Sal	-9147
tec	-9148
méth	-9149
▁PRE	-9150
achem	-9151
contr	-9152
lande	-9153
▁"10°	-9154
▁Blan	-9155
▁Chap	-9156
▁Rhin	-9157
▁Thib	-9158
▁irré	-9159
▁suff	-9160
ffices	-9161
ssonne	-9162
▁631-1	-9163
▁ports	-9164
▁champs	-9165
▁décide	-9166
▁terres	-9167
adoption	-9168
missaire	-9169
▁Bouches	-9170
▁conclue	-9171
▁dangers	-9172
▁cabinets	-9173
▁anciennes	-9174
▁chauffage	-9175
▁cinquante	-9176
▁cultivées	-9177
▁différence	-9178
▁perception	-9179
▁équipement	-9180
▁participent	-9181
▁signataires	-9182
its	-9183
▁69	-9184
▁PO	-9185
aques	-9186
entyl	-9187
grité	-9188
▁moti	-9189
ILLARD	-9190
Victor	-9191
ctoire	-9192
termin	-9193
▁faites	-9194
▁puisse	-9195
▁restri	-9196
▁lesdits	-9197
▁concentr	-9198
▁intellec	-9199
▁utilisée	-9200
▁économie	-9201
▁latérales	-9202
▁permanence	-9203
épartemental	-9204
▁dénonciation	-9205
▁nomenclature	-9206
▁insaisissables	-9207
ery	-9208
Afin	-9209
icka	-9210
▁446	-9211
▁Dan	-9212
▁bov	-9213
chage	-9214
▁ment	-9215
heures	-9216
ilatér	-9217
yrille	-9218
▁gérer	-9219
▁repor	-9220
▁volet	-9221
▁Andrée	-9222
▁Chorus	-9223
Auvergne	-9224
acheteur	-9225
▁victime	-9226
▁Claudine	-9227
▁consultés	-9228
▁délivrées	-9229
▁motivation	-9230
▁préalables	-9231
▁Généralités	-9232
▁professeure	-9233
▁méthotrexate	-9234
▁simultanément	-9235
Loi	-9236
van	-9237
zon	-9238
▁Dr	-9239
▁22,	-9240
▁Bon	-9241
▁Van	-9242
▁div	-9243
▁fut	-9244
/2013	-9245
torat	-9246
uméro	-9247
▁gens	-9248
onnées	-9249
ARTICLE	-9250
Ludovic	-9251
titudes	-9252
▁acquit	-9253
▁module	-9254
▁postal	-9255
adresser	-9256
intérêts	-9257
ventaire	-9258
▁anonyme	-9259
▁attendu	-9260
▁préfets	-9261
▁réputés	-9262
▁choisies	-9263
▁ouvertes	-9264
▁renforce	-9265
▁unilatér	-9266
▁génétique	-9267
/2019-10-31	-9268
associations	-9269
▁immobiliers	-9270
▁homologation	-9271
administrateurs	-9272
▁technologiques	-9273
DJ	-9274
jac	-9275
oot	-9276
ÉRA	-9277
1-3,	-9278
4-1,	-9279
TRET	-9280
gnac	-9281
ourd	-9282
▁ant	-9283
tiens	-9284
uisse	-9285
▁"45°	-9286
▁1943	-9287
▁1992	-9288
Florian	-9289
Sylvain	-9290
▁privée	-9291
ulgation	-9292
▁exécuti	-9293
▁agissant	-9294
▁enquêtes	-9295
▁existant	-9296
▁signataire	-9297
▁dépositaire	-9298
▁applications	-9299
▁Etablissement	-9300
ONI	-9301
umé	-9302
▁LAB	-9303
▁dat	-9304
▁vin	-9305
range	-9306
uriel	-9307
ursus	-9308
▁"43°	-9309
▁1980	-9310
▁6323	-9311
▁mach	-9312
▁Ouest	-9313
▁austr	-9314
▁autour	-9315
▁barème	-9316
▁réduit	-9317
▁2018-20	-9318
▁Gestion	-9319
▁différé	-9320
▁recharg	-9321
▁urbaine	-9322
recherche	-9323
▁desquels	-9324
▁réussite	-9325
▁télépilo	-9326
▁maternité	-9327
▁présentés	-9328
▁solutions	-9329
/2019-05-02	-9330
risonnement	-9331
▁immatricul	-9332
▁comportement	-9333
▁rayonnements	-9334
▁w	-9335
SCT	-9336
lia	-9337
not	-9338
uss	-9339
éna	-9340
▁1/	-9341
▁Arc	-9342
▁DUP	-9343
▁LAM	-9344
▁pan	-9345
arthe	-9346
iscip	-9347
▁1993	-9348
▁traç	-9349
▁astre	-9350
▁conne	-9351
▁récép	-9352
attente	-9353
▁5126-6	-9354
▁exposé	-9355
▁Moselle	-9356
▁confiée	-9357
▁servant	-9358
▁engagées	-9359
authentifi	-9360
▁Règlement	-9361
▁appliquée	-9362
▁dimension	-9363
▁thermique	-9364
▁Organismes	-9365
▁pertinentes	-9366
▁intermédiaire	-9367
▁conventionnels	-9368
Su	-9369
Vi	-9370
ZIT	-9371
1904	-9372
Dôme	-9373
▁LEC	-9374
▁sis	-9375
dites	-9376
ister	-9377
quage	-9378
▁Luci	-9379
▁déri	-9380
▁neuf	-9381
Elodie	-9382
expert	-9383
▁absol	-9384
▁piste	-9385
▁reval	-9386
endigue	-9387
▁adopte	-9388
▁Défense	-9389
▁défaill	-9390
▁valoris	-9391
oncologie	-9392
équilibre	-9393
▁Médecine	-9394
▁présentes	-9395
endiguement	-9396
▁Assesseurs	-9397
▁enregistré	-9398
▁journalier	-9399
▁destruction	-9400
▁facultative	-9401
▁ophtalmologie	-9402
▁dématérialisée	-9403
ed	-9404
Cap	-9405
cal	-9406
ocu	-9407
éan	-9408
▁gî	-9409
ALLE	-9410
PRMG	-9411
TERL	-9412
usta	-9413
émet	-9414
▁Cou	-9415
▁REC	-9416
VILLE	-9417
oncer	-9418
Daniel	-9419
canton	-9420
▁Géral	-9421
ressent	-9422
▁soldat	-9423
▁teneur	-9424
Charente	-9425
▁Princip	-9426
▁retenus	-9427
▁douzième	-9428
▁paysages	-9429
▁préparer	-9430
▁requêtes	-9431
▁sessions	-9432
▁abrogeant	-9433
▁indiquées	-9434
▁provenant	-9435
▁rattachés	-9436
▁Communauté	-9437
▁appartient	-9438
▁réglementé	-9439
▁attribution	-9440
▁classifiées	-9441
▁communautaire	-9442
MS	-9443
io	-9444
igu	-9445
ski	-9446
▁67	-9447
▁92	-9448
▁DC	-9449
INTN	-9450
Loir	-9451
UPHF	-9452
ases	-9453
▁MIN	-9454
▁Thé	-9455
▁lum	-9456
azote	-9457
isées	-9458
outes	-9459
stème	-9460
table	-9461
▁1999	-9462
▁pond	-9463
argent	-9464
régory	-9465
▁Chamb	-9466
▁domes	-9467
durable	-9468
feuille	-9469
ériques	-9470
▁cursus	-9471
▁proche	-9472
Laurence	-9473
isciplin	-9474
▁accrédi	-9475
▁placées	-9476
▁maintenue	-9477
▁alimentaire	-9478
▁Méditerranée	-9479
▁attestations	-9480
▁classification	-9481
0.	-9482
UY	-9483
ey	-9484
zo	-9485
Kar	-9486
mod	-9487
▁km	-9488
deux	-9489
▁13.	-9490
▁TRA	-9491
▁has	-9492
▁ion	-9493
▁vir	-9494
ILLON	-9495
aillé	-9496
oines	-9497
▁FOUR	-9498
▁clos	-9499
examin	-9500
▁Durée	-9501
▁Trame	-9502
▁mener	-9503
▁2019-8	-9504
▁alerte	-9505
Valentin	-9506
▁artisan	-9507
▁imparti	-9508
▁motoris	-9509
▁préavis	-9510
insaisiss	-9511
▁appliqué	-9512
▁végétaux	-9513
/2019-03-3	-9514
opérations	-9515
▁récapitul	-9516
▁syndicale	-9517
immigration	-9518
▁constituées	-9519
▁raisonnable	-9520
▁performances	-9521
▁transporteur	-9522
insaisissabilité	-9523
Her	-9524
▁71	-9525
1914	-9526
enry	-9527
lymp	-9528
olle	-9529
▁15,	-9530
▁320	-9531
▁AND	-9532
▁DEN	-9533
▁Eli	-9534
▁Lor	-9535
▁Mel	-9536
▁cyt	-9537
▁"48°	-9538
▁puni	-9539
existe	-9540
otherm	-9541
▁2016,	-9542
▁spati	-9543
▁stric	-9544
session	-9545
▁clause	-9546
▁droite	-9547
▁saisir	-9548
▁acquise	-9549
▁grammes	-9550
▁musique	-9551
Alexandra	-9552
attention	-9553
▁dépasser	-9554
▁mutuelle	-9555
Guadeloupe	-9556
Lieutenant	-9557
opposition	-9558
▁discrimin	-9559
▁approuvées	-9560
acheminement	-9561
ere	-9562
▁NF	-9563
1-14	-9564
OTTE	-9565
▁266	-9566
▁COU	-9567
▁Fer	-9568
▁SUR	-9569
etitia	-9570
gastro	-9571
▁CHSCT	-9572
▁micro	-9573
Fabrice	-9574
▁Europe	-9575
▁autant	-9576
▁moteur	-9577
ssemblée	-9578
▁remettre	-9579
▁composant	-9580
▁diversité	-9581
▁Frédérique	-9582
▁intégration	-9583
▁communiquées	-9584
▁constitutive	-9585
▁ministérielle	-9586
▁ressortissant	-9587
-32	-9588
ÉCI	-9589
esti	-9590
▁GEM	-9591
▁LEF	-9592
▁SIM	-9593
armes	-9594
▁réel	-9595
Damien	-9596
▁Entre	-9597
▁PARIS	-9598
▁Voies	-9599
Essonne	-9600
▁Lionel	-9601
▁Marine	-9602
▁NOTARI	-9603
épreuves	-9604
▁Mission	-9605
▁théorique	-9606
▁changements	-9607
▁transmettent	-9608
emprisonnement	-9609
▁représentante	-9610
iff	-9611
rup	-9612
▁93	-9613
Agri	-9614
Cher	-9615
gues	-9616
▁227	-9617
▁431	-9618
▁lot	-9619
Elise	-9620
cheur	-9621
journ	-9622
▁1333	-9623
▁Fort	-9624
armées	-9625
ustave	-9626
▁2021.	-9627
▁guide	-9628
▁tests	-9629
▁commis	-9630
▁mensuel	-9631
▁milieux	-9632
▁onzième	-9633
érodromes	-9634
▁précités	-9635
effectuent	-9636
▁bénéficié	-9637
veloppement	-9638
▁extérieurs	-9639
▁Compétences	-9640
▁pneumologie	-9641
▁transaction	-9642
As	-9643
FS	-9644
PS	-9645
old	-9646
oui	-9647
ray	-9648
▁BI	-9649
▁ax	-9650
▁"29	-9651
▁14.	-9652
▁FIN	-9653
▁LER	-9654
▁Mus	-9655
▁céd	-9656
Comté	-9657
armon	-9658
▁1.2.	-9659
▁1977	-9660
▁GÉNÉ	-9661
/2019.	-9662
▁SAINT	-9663
▁SPÉCI	-9664
▁embar	-9665
istante	-9666
stitute	-9667
▁finale	-9668
▁fichier	-9669
▁géotherm	-9670
▁indiqués	-9671
▁remplies	-9672
▁éducatif	-9673
▁Protocole	-9674
▁transform	-9675
▁capitaines	-9676
▁correction	-9677
▁ratification	-9678
▁intellectuelle	-9679
br	-9680
2-9	-9681
▁Gw	-9682
1-1.	-9683
1-16	-9684
Nota	-9685
RIER	-9686
pour	-9687
ègre	-9688
▁226	-9689
▁425	-9690
▁Nor	-9691
▁83-6	-9692
▁bail	-9693
▁Dates	-9694
▁Odile	-9695
▁mètre	-9696
▁quart	-9697
arrivée	-9698
service	-9699
sociaux	-9700
écurité	-9701
éroport	-9702
▁hépato	-9703
▁soumet	-9704
▁annulés	-9705
▁entendu	-9706
▁invités	-9707
▁licenci	-9708
▁savoirs	-9709
▁centraux	-9710
▁rattaché	-9711
▁existants	-9712
▁réguliers	-9713
▁patrimoines	-9714
7°	-9715
FI	-9716
Tr	-9717
EST	-9718
VER	-9719
fié	-9720
▁81	-9721
athe	-9722
pore	-9723
▁334	-9724
▁Gui	-9725
▁ait	-9726
▁Code	-9727
▁MICH	-9728
▁clim	-9729
▁2018.	-9730
▁Sarah	-9731
▁passé	-9732
▁payés	-9733
Anthony	-9734
Justine	-9735
▁Cédric	-9736
▁légaux	-9737
▁stocks	-9738
▁struct	-9739
▁unions	-9740
▁compéti	-9741
▁mettant	-9742
▁traumat	-9743
▁bancaire	-9744
▁débiteur	-9745
▁expresse	-9746
▁Mobilités	-9747
▁appliqués	-9748
▁spectacle	-9749
▁considérés	-9750
▁contingent	-9751
▁similaires	-9752
▁restitution	-9753
▁actionnaires	-9754
▁systématique	-9755
▁bibliothèques	-9756
▁accompagnement	-9757
fa	-9758
hn	-9759
vir	-9760
▁cu	-9761
VIII	-9762
eneu	-9763
vine	-9764
èles	-9765
▁321	-9766
▁Fin	-9767
▁GAU	-9768
acces	-9769
antis	-9770
▁éman	-9771
Fabien	-9772
Manche	-9773
▁faune	-9774
atrique	-9775
hôpital	-9776
▁Benoit	-9777
▁Gustave	-9778
▁allouée	-9779
▁couleur	-9780
▁nullité	-9781
▁petites	-9782
▁périodi	-9783
▁retirés	-9784
▁demandée	-9785
▁reconnus	-9786
▁spéciaux	-9787
▁énumérés	-9788
indicateur	-9789
▁Bourgogne	-9790
▁Catalogue	-9791
▁récépissé	-9792
▁substitue	-9793
▁respectent	-9794
▁éducatives	-9795
▁hydraulique	-9796
▁interarmées	-9797
▁majorations	-9798
▁mentionnant	-9799
▁orthopédique	-9800
▁recevabilité	-9801
authentification	-9802
CC	-9803
ANG	-9804
oss	-9805
▁DI	-9806
▁Gi	-9807
▁On	-9808
▁ro	-9809
LOIS	-9810
MTRR	-9811
SIEC	-9812
TRES	-9813
aves	-9814
lets	-9815
▁"39	-9816
▁Bal	-9817
▁CAL	-9818
▁édi	-9819
▁1996	-9820
▁Proc	-9821
▁créés	-9822
Valérie	-9823
obtenir	-9824
riculum	-9825
▁Alexis	-9826
▁Elodie	-9827
▁dirige	-9828
▁exclus	-9829
▁quinqu	-9830
▁rejeté	-9831
▁montagn	-9832
▁numéros	-9833
▁organes	-9834
▁exclusif	-9835
▁pression	-9836
▁Allemagne	-9837
▁Française	-9838
▁approprié	-9839
▁substitut	-9840
Atlantiques	-9841
▁dépendantes	-9842
▁renforcement	-9843
▁sécurisation	-9844
009	-9845
UTC	-9846
tae	-9847
▁CL	-9848
▁PA	-9849
ardi	-9850
ével	-9851
▁223	-9852
▁BON	-9853
▁PRÉ	-9854
▁art	-9855
▁faç	-9856
▁"11°	-9857
▁hect	-9858
▁hôte	-9859
Robert	-9860
isants	-9861
▁Outre	-9862
▁chron	-9863
▁repas	-9864
assesse	-9865
▁joueur	-9866
quements	-9867
▁donnent	-9868
▁joueurs	-9869
huissière	-9870
▁approuvés	-9871
▁australes	-9872
/2019-05-30	-9873
/2019-07-26	-9874
▁vasculaire	-9875
agglomération	-9876
▁bonification	-9877
Ain	-9878
Per	-9879
TEN	-9880
mma	-9881
osc	-9882
▁GH	-9883
▁Sy	-9884
REAU	-9885
aver	-9886
trer	-9887
▁635	-9888
▁JAC	-9889
▁sil	-9890
Armor	-9891
▁1995	-9892
▁2261	-9893
▁cart	-9894
mètres	-9895
▁331-5	-9896
▁593-1	-9897
▁dynam	-9898
▁hasard	-9899
▁mobili	-9900
▁problè	-9901
▁hôpital	-9902
▁pourvus	-9903
▁restitu	-9904
▁	-9905
e	-9906
i	-9907
s	-9908
t	-9909
a	-9910
r	-9911
n	-9912
o	-9913
l	-9914
d	-9915
u	-9916
c	-9917
é	-9918
p	-9919
m	-9920
'	-9921
,	-9922
f	-9923
v	-9924
g	-9925
1	-9926
.	-9927
"	-9928
b	-9929
2	-9930
h	-9931
-	-9932
0	-9933
L	-9934
q	-9935
A	-9936
x	-9937
à	-9938
E	-9939
9	-9940
M	-9941
I	-9942
)	-9943
3	-9944
C	-9945
R	-9946
(	-9947
è	-9948
S	-9949
P	-9950
:	-9951
/	-9952
4	-9953
j	-9954
ê	-9955
«	-9956
5	-9957
N	-9958
T	-9959
D	-9960
6	-9961
y	-9962
;	-9963
8	-9964
7	-9965
°	-9966
U	-9967
O	-9968
»	-9969
—	-9970
B	-9971
J	-9972
G	-9973
F	-9974
V	-9975
H	-9976
z	-9977
ç	-9978
ô	-9979
X	-9980
Y	-9981
É	-9982
k	-9983
û	-9984
w	-9985
<	-9986
>	-9987
K	-9988
Z	-9989
î	-9990
”	-9991
œ	-9992
â	-9993
Q	-9994
W	-9995
“	-9996
