<unk>	0
<s>	0
</s>	0
▁de	-3.06809
,	-3.17548
▁	-3.22432
'	-3.35796
s	-3.49581
.	-3.50748
▁du	-4.00533
▁l	-4.00814
▁la	-4.04889
▁d	-4.13199
▁et	-4.30142
e	-4.45084
)	-4.55414
▁M	-4.58215
à	-4.61198
▁(	-4.61389
▁;	-4.63527
▁des	-4.67509
-	-4.78896
▁services	-4.8891
▁«	-4.92682
▁ans	-4.92965
▁au	-4.93225
▁les	-4.94152
▁le	-5.05723
article	-5.10428
me	-5.25347
▁par	-5.28264
une	-5.31641
▁:	-5.34644
▁en	-5.41238
▁est	-5.45813
t	-5.48143
▁L	-5.51242
es	-5.57537
r	-5.64088
un	-5.66412
▁dans	-5.68191
▁R	-5.68234
▁»	-5.88085
er	-5.9186
▁Le	-5.92729
eur	-5.93593
ant	-5.95816
▁son	-5.98957
l	-5.99117
▁décret	-5.99775
—	-6.0148
▁code	-6.01566
/	-6.03245
nt	-6.04105
▁un	-6.06742
▁ministre	-6.07887
embre	-6.07938
▁ou	-6.1384
▁Au	-6.15476
▁pour	-6.17023
▁aux	-6.23165
▁général	-6.23205
▁président	-6.25453
▁c	-6.26439
née	-6.2788
▁s	-6.28695
té	-6.30493
nsi	-6.30513
°	-6.3103
é	-6.3153
▁ai	-6.32184
▁mentionné	-6.33949
▁A	-6.34028
▁présent	-6.36447
▁déc	-6.36745
▁D	-6.37577
ment	-6.38655
A	-6.4629
▁grade	-6.47595
re	-6.48526
tion	-6.49249
ont	-6.50525
i	-6.51587
▁que	-6.51632
ion	-6.51788
le	-6.53296
▁alinéa	-6.54472
▁mot	-6.56661
▁2023	-6.57454
▁directrice	-6.58548
▁La	-6.60351
▁I	-6.64808
▁se	-6.66693
▁n	-6.66709
▁ancien	-6.67336
▁sur	-6.67723
▁qui	-6.68454
▁direct	-6.72171
▁sécuri	-6.7342
a	-6.75221
▁Les	-6.76083
▁Chevalier	-6.77754
▁Marie	-6.77779
▁a	-6.77956
▁même	-6.80133
▁prévue	-6.82158
▁II	-6.82247
1	-6.82947
▁générale	-6.84562
▁présidente	-6.85448
▁conseil	-6.86738
▁titre	-6.87024
▁Ar	-6.89552
prè	-6.90505
▁sociale	-6.92379
29	-6.92451
▁national	-6.9254
ation	-6.9478
▁recherche	-6.97054
▁commission	-6.97055
▁1°	-6.9732
o	-6.97972
▁rédigé	-6.99753
de	-7.01514
▁nationale	-7.01714
▁secrétaire	-7.02545
▁ce	-7.02576
▁compte	-7.03399
▁remplacé	-7.03808
▁chargé	-7.04592
▁fr	-7.05365
▁association	-7.05892
▁so	-7.06636
▁leur	-7.08233
▁2°	-7.086
▁fonction	-7.08954
on	-7.09092
▁publique	-7.09296
▁1	-7.09963
▁disposition	-7.11391
▁service	-7.12066
il	-7.12317
n	-7.12464
/2023-1	-7.14121
▁relatif	-7.14464
▁déclaration	-7.15365
▁C	-7.16868
ité	-7.17192
▁République	-7.17689
▁condition	-7.1769
inistère	-7.17846
▁il	-7.19237
▁déclarations	-7.20085
▁6	-7.20979
▁premier	-7.21045
ux	-7.23775
B	-7.24263
mer	-7.24601
▁outre	-7.24725
26	-7.25734
ier	-7.26311
u	-7.26807
▁délai	-7.28042
T	-7.28215
▁concours	-7.28276
▁25	-7.28408
▁porta	-7.29949
d	-7.30389
▁3	-7.30526
▁III	-7.31865
ée	-7.32468
intérieur	-7.33099
▁donné	-7.33548
▁28	-7.34294
cation	-7.34369
rice	-7.34587
▁Jean	-7.34896
▁modifié	-7.35207
▁professeur	-7.35592
honneur	-7.35592
▁recouvre	-7.35593
emploi	-7.36003
▁chef	-7.37302
ème	-7.37526
E	-7.37637
▁pa	-7.3842
▁arrêté	-7.38863
▁mair	-7.39009
▁sociales	-7.393
vice	-7.39983
▁contribution	-7.40218
que	-7.40325
▁P	-7.40343
ancienne	-7.40385
▁mentionnée	-7.40505
▁qu	-7.42581
y	-7.42899
▁chargés	-7.42952
▁sa	-7.43602
Marie	-7.43689
▁b	-7.43704
▁française	-7.43758
▁groupe	-7.43758
▁contrôle	-7.43763
▁ministère	-7.43798
▁3°	-7.44163
▁organismes	-7.44189
2	-7.44548
vier	-7.4461
30	-7.44912
▁p	-7.46744
et	-7.47477
▁2	-7.47934
▁“	-7.48106
▁gestion	-7.48107
▁numérique	-7.48107
▁santé	-7.48123
▁201	-7.48528
▁V	-7.48722
▁Il	-7.49096
▁dé	-7.49571
▁hospitalier	-7.50204
▁4	-7.50216
ur	-7.50594
date	-7.51155
alité	-7.51597
▁budgétaire	-7.52652
▁comparant	-7.52652
▁ligne	-7.52655
▁centre	-7.53006
hevalier	-7.5315
LE	-7.53428
▁Par	-7.53478
tions	-7.53609
▁être	-7.53669
ère	-7.54322
▁article	-7.54889
jan	-7.55557
▁mission	-7.55702
ent	-7.56096
▁fonctions	-7.56331
énergie	-7.57414
▁vigueur	-7.57414
▁Lorsqu	-7.57421
▁mairie	-7.57452
▁20	-7.57457
▁peut	-7.57552
ord	-7.57794
▁personne	-7.57845
8	-7.57908
ement	-7.58044
▁Pou	-7.58287
ne	-7.59123
▁7	-7.59171
section	-7.59755
te	-7.60678
▁publi	-7.61032
▁cha	-7.6118
administration	-7.61405
▁articles	-7.62072
<	-7.62414
>	-7.62414
▁discipline	-7.62414
▁procédure	-7.62621
▁responsable	-7.6264
en	-7.62654
Jean	-7.62803
5	-7.62833
▁ne	-7.63212
officier	-7.63387
▁cas	-7.63669
▁deux	-7.63695
it	-7.63755
p	-7.64217
cret	-7.64938
▁O	-7.65023
ette	-7.66367
ées	-7.66535
▁demande	-7.67063
▁officie	-7.67478
▁défense	-7.67669
▁inséré	-7.67677
▁programme	-7.67677
égion	-7.67685
▁chacun	-7.67685
▁2024	-7.67787
▁prévu	-7.67845
▁organisation	-7.68368
arrêté	-7.68884
▁mai	-7.70006
aire	-7.70289
▁133-5-3	-7.70348
▁trans	-7.73104
▁susvisé	-7.73232
▁promotion	-7.73254
▁IV	-7.73283
▁2013	-7.73311
▁industriel	-7.73374
▁sous	-7.73495
▁adjoint	-7.73705
affaire	-7.73857
3	-7.74898
au	-7.75199
appel	-7.75241
2-3	-7.75707
▁polic	-7.76456
27	-7.77021
sera	-7.77291
▁jui	-7.78138
▁supérieur	-7.78146
▁délégué	-7.79115
▁rapport	-7.79115
▁comptable	-7.79121
▁financ	-7.79128
▁comité	-7.79129
Etat	-7.79137
▁applicable	-7.79209
président	-7.79332
▁policier	-7.79382
in	-7.80216
c	-7.80558
écret	-7.80603
4	-7.81122
▁mise	-7.81336
▁ch	-7.82702
ière	-7.84546
▁public	-7.84601
▁cotisa	-7.85156
▁ministres	-7.85314
▁réception	-7.85365
▁complété	-7.85369
enseignement	-7.85451
▁5°	-7.85559
▁38	-7.85643
▁agent	-7.85649
▁4°	-7.85655
▁somme	-7.85846
▁mod	-7.86069
▁con	-7.86537
▁entreprise	-7.87361
aine	-7.87379
és	-7.87441
année	-7.87543
6	-7.88049
▁36	-7.88079
▁J	-7.88926
▁”	-7.89628
▁ces	-7.89826
▁22	-7.90057
-31	-7.90076
ce	-7.902
m	-7.91331
▁né	-7.91476
▁universitaire	-7.92031
▁haut	-7.92033
▁vérification	-7.92033
▁rendu	-7.92045
tte	-7.9205
▁mois	-7.92216
▁trois	-7.92264
▁plus	-7.92341
▁universités	-7.92505
▁interne	-7.92507
nov	-7.92742
▁5	-7.92806
▁applica	-7.93008
ès	-7.94881
organisme	-7.94971
aires	-7.95386
▁21	-7.95568
▁remplacée	-7.96502
rès	-7.97119
ay	-7.97225
▁nom	-7.98108
bre	-7.98201
▁ministériel	-7.98769
▁co	-7.99118
commissaire	-7.99174
▁peuvent	-7.99174
▁externe	-7.99174
▁avril	-7.99175
▁décision	-7.99175
▁référence	-7.99392
▁partie	-7.99948
▁celles	-8.00379
▁Louis	-8.00451
▁12	-8.00525
ition	-8.00947
arret	-8.01075
ommandeur	-8.01262
D	-8.01799
▁ap	-8.01948
▁B	-8.02246
ouver	-8.02615
▁formation	-8.02654
37	-8.02716
32	-8.03246
oir	-8.03821
ance	-8.03913
▁loi	-8.04283
ournal	-8.04404
▁droit	-8.04446
▁200	-8.04489
iè	-8.04699
quelle	-8.04846
tre	-8.05021
applica	-8.05256
39	-8.05959
fficier	-8.06741
▁document	-8.06866
▁notamment	-8.06867
▁relev	-8.06889
▁cadre	-8.07119
économie	-8.07206
▁Est	-8.07404
▁direction	-8.07414
▁mar	-8.08394
▁France	-8.08431
7	-8.08471
▁période	-8.08549
▁avocat	-8.08609
▁membres	-8.08737
▁André	-8.09553
▁entre	-8.09883
gation	-8.10066
▁port	-8.10162
f	-8.10243
Pierre	-8.10651
9	-8.10775
age	-8.10872
0	-8.1092
ard	-8.11207
▁Pierre	-8.11342
▁av	-8.11489
▁société	-8.12693
elle	-8.12969
ch	-8.14816
▁candidat	-8.152
Institut	-8.152
Sophie	-8.152
û	-8.152
▁grand	-8.152
▁correction	-8.152
▁échéant	-8.15201
▁conform	-8.15201
▁domaine	-8.15202
▁sept	-8.15206
▁dédié	-8.15212
▁pris	-8.1525
▁moyen	-8.15266
▁intérieure	-8.15404
édu	-8.15435
▁départemental	-8.15477
▁travail	-8.15521
▁132-	-8.15604
▁fé	-8.15888
moins	-8.16112
▁Saint	-8.16298
ix	-8.1659
▁13	-8.1726
ice	-8.17529
rrêté	-8.19172
direct	-8.19528
S	-8.19695
Anne	-8.19891
▁autre	-8.2011
exerc	-8.20371
ments	-8.20907
tique	-8.21534
▁nucléaire	-8.2176
▁Jo	-8.21858
is	-8.22712
▁33	-8.22895
▁S	-8.23176
▁tout	-8.23936
▁emploi	-8.2414
Dominique	-8.24291
▁scientifique	-8.24291
▁émérite	-8.24291
praticien	-8.24291
▁revenu	-8.24292
riat	-8.243
▁nomination	-8.24327
▁financière	-8.24351
▁jour	-8.24358
▁fédérat	-8.24486
rt	-8.25134
ec	-8.25278
▁19	-8.25658
h	-8.25984
▁régionale	-8.26475
▁Un	-8.26555
▁suivantes	-8.26783
▁G	-8.26909
▁15	-8.27447
O	-8.27755
▁24	-8.2833
▁2008	-8.28756
che	-8.28885
▁suivant	-8.29664
Michel	-8.29763
▁El	-8.30954
ir	-8.31137
▁23	-8.31584
M	-8.31612
▁réserviste	-8.31845
▁membre	-8.32255
ra	-8.32992
▁9	-8.33009
▁modifi	-8.33631
31	-8.33769
▁règle	-8.34008
se	-8.34172
▁secréta	-8.34248
▁dérogation	-8.34291
▁observations	-8.34291
▁opérationnelle	-8.34291
octo	-8.34292
▁traitement	-8.34333
▁chambre	-8.34339
▁Paris	-8.34416
▁F	-8.34565
▁bis	-8.34678
▁professionnelle	-8.34823
▁personnel	-8.34867
▁45	-8.34955
ot	-8.35125
▁non	-8.35213
ci	-8.354
▁établi	-8.35591
▁ré	-8.36287
informations	-8.36378
ex	-8.37112
▁présente	-8.37951
▁publics	-8.38281
000	-8.38306
▁poste	-8.38331
▁établissement	-8.38571
▁administration	-8.38646
▁vers	-8.38817
oit	-8.39333
▁poli	-8.3958
▁informe	-8.40422
autorité	-8.40537
an	-8.40744
Isabelle	-8.40751
Claude	-8.40829
établissement	-8.40843
présidente	-8.43121
ri	-8.43212
6.	-8.43642
ique	-8.43923
▁fait	-8.43977
w	-8.44098
▁11	-8.44352
▁f	-8.44368
vant	-8.44426
▁suivante	-8.44518
▁professionnel	-8.44814
▁Co	-8.45334
-1	-8.45355
exonération	-8.45402
▁atomique	-8.45402
▁communication	-8.45402
▁disciplinaire	-8.45402
▁développement	-8.45402
▁hospitalière	-8.45402
▁concerne	-8.45402
▁électronique	-8.45402
▁montant	-8.45405
▁17	-8.45408
▁chancel	-8.45411
▁défenseurs	-8.45418
ER	-8.45433
▁visé	-8.45497
uvre	-8.45553
▁34	-8.4556
vri	-8.45561
▁conseiller	-8.45573
▁règlements	-8.45618
▁spécialisé	-8.45727
▁communes	-8.45852
▁cotisant	-8.45953
▁territoires	-8.46153
▁lui	-8.46253
▁destinat	-8.46341
▁pouv	-8.46969
46	-8.47136
▁faites	-8.47252
ques	-8.47274
▁Jacques	-8.47338
bli	-8.48282
ence	-8.49193
▁fixé	-8.49333
été	-8.49883
35	-8.50113
▁Claude	-8.50304
▁spécial	-8.50879
▁chargée	-8.51124
▁E	-8.51297
ène	-8.51331
▁Anne	-8.51426
atég	-8.52421
information	-8.53318
▁ca	-8.53482
▁ter	-8.53586
directrice	-8.53794
eux	-8.54129
▁mis	-8.54222
hier	-8.54384
▁2010	-8.54504
▁No	-8.54625
or	-8.54832
▁5553-1	-8.55442
mi	-8.55698
ôle	-8.56472
▁médecin	-8.56486
▁De	-8.57506
itre	-8.57792
▁figur	-8.57902
▁judiciaire	-8.57902
▁major	-8.57902
▁procura	-8.57902
▁électoral	-8.57902
▁matière	-8.57902
Euro	-8.57902
▁circulaire	-8.57902
▁relève	-8.57903
▁tableau	-8.57904
▁nominative	-8.57905
▁rédact	-8.57907
▁écologique	-8.57907
Christine	-8.57916
▁prend	-8.57918
lle	-8.57947
▁député	-8.57994
▁humaines	-8.58006
ie	-8.58033
elon	-8.58061
▁inter	-8.58092
ine	-8.5818
▁greffe	-8.58194
▁Dans	-8.58265
orie	-8.58328
▁protection	-8.58337
▁vu	-8.58499
▁désigné	-8.58869
▁budget	-8.58949
llet	-8.59036
▁Ca	-8.59064
▁re	-8.59184
▁René	-8.5965
b	-8.59694
▁fa	-8.59716
▁fin	-8.59831
▁pla	-8.59871
▁lorsqu	-8.60347
▁liste	-8.60721
iste	-8.60738
▁issue	-8.60792
ag	-8.60958
▁cours	-8.60986
réserve	-8.61226
▁N	-8.61724
▁droits	-8.62071
I	-8.62276
élect	-8.62606
onseil	-8.62784
▁nommé	-8.63119
4.	-8.63222
ob	-8.63381
▁Michel	-8.63708
ations	-8.64011
pe	-8.64478
acc	-8.64969
▁Ce	-8.65309
▁Ga	-8.65897
▁contr	-8.66221
Marc	-8.66412
ale	-8.67157
al	-8.67251
Philippe	-8.67292
C	-8.67398
ministériel	-8.67507
entreprise	-8.67601
icité	-8.677
nommé	-8.68461
▁défini	-8.68472
if	-8.68606
▁régional	-8.6879
▁constitu	-8.68857
ê	-8.69549
▁abrogé	-8.69552
qu	-8.69575
▁cet	-8.69658
arac	-8.70417
▁celle	-8.70467
/2023-138	-8.70899
▁42	-8.71011
▁Si	-8.71601
ti	-8.71795
ble	-8.72013
▁2017	-8.72133
PR	-8.72149
cadémi	-8.72188
graphe	-8.72188
▁613-18	-8.72188
▁civile	-8.72188
▁collectivité	-8.72188
▁motivée	-8.72188
▁phrase	-8.72188
▁réglementaire	-8.72188
▁rémunération	-8.72188
▁sciences	-8.72188
inscription	-8.72188
ordinaire	-8.72188
▁préalable	-8.72188
▁téléservice	-8.72188
insertion	-8.72188
▁dossier	-8.72188
▁sportive	-8.72189
▁physique	-8.72197
▁élé	-8.72199
▁relative	-8.72205
▁système	-8.7221
Olivier	-8.72218
▁production	-8.72221
▁jugement	-8.72234
▁situ	-8.72253
▁entend	-8.72265
plénipotentiaire	-8.72306
étude	-8.72331
▁14	-8.72375
▁lieu	-8.72387
▁représentant	-8.72423
pit	-8.72534
entre	-8.72546
chet	-8.72718
fondat	-8.72737
tude	-8.72943
▁16	-8.72989
▁2015	-8.7317
▁avant	-8.73357
résident	-8.73708
▁versé	-8.73798
V	-8.73965
▁conclu	-8.74116
hés	-8.74591
exécuti	-8.74665
sion	-8.74854
▁Pre	-8.75223
▁2012	-8.75581
▁réservistes	-8.75888
mps	-8.75896
ve	-8.75899
▁derni	-8.76369
gard	-8.7646
exécut	-8.76584
ains	-8.76652
sein	-8.7675
fic	-8.77045
43	-8.77369
▁effectuée	-8.77418
▁avis	-8.77468
les	-8.77662
L	-8.78678
▁10	-8.7882
vre	-8.78901
ans	-8.79028
cteur	-8.79261
ure	-8.79817
▁précis	-8.79891
▁réalis	-8.79972
1.	-8.80197
ab	-8.80284
at	-8.80667
▁En	-8.81127
▁Des	-8.81348
▁8	-8.81601
▁50	-8.81694
▁institu	-8.82385
isse	-8.8272
eau	-8.82824
tère	-8.8297
fr	-8.83265
effe	-8.83367
sse	-8.83585
▁90	-8.83789
▁assure	-8.83959
avis	-8.83983
université	-8.84271
▁comptes	-8.84468
▁publiques	-8.84515
ient	-8.85262
ub	-8.85688
employeur	-8.86002
▁133-13	-8.86124
▁transmis	-8.86623
▁li	-8.8719
ac	-8.87858
rang	-8.88615
▁européen	-8.88768
232640	-8.88854
Bruno	-8.88854
▁613-19	-8.88854
▁maritime	-8.88854
▁énergétique	-8.88854
Éric	-8.88854
exploita	-8.88855
▁étrangères	-8.88855
▁création	-8.88855
▁133-5	-8.88855
▁constat	-8.88856
▁prestations	-8.88857
agricult	-8.88861
Patrick	-8.88861
▁Robert	-8.88861
activité	-8.88867
ww	-8.88871
voie	-8.88871
▁jeunesse	-8.88891
▁rural	-8.88994
▁dispositif	-8.89064
intimé	-8.89108
▁fonctionn	-8.89119
▁nécessaires	-8.89129
▁transports	-8.8913
ève	-8.89199
▁local	-8.89333
▁épreuves	-8.89437
▁41	-8.89533
▁institut	-8.89774
ite	-8.89979
▁Jeanne	-8.90133
art	-8.90559
▁trava	-8.90969
change	-8.912
line	-8.91798
▁an	-8.91909
▁Sa	-8.92375
44	-8.92671
▁T	-8.92791
ète	-8.93713
ECO	-8.93855
▁quatr	-8.94064
▁ex	-8.94277
▁t	-8.94422
livr	-8.94459
lement	-8.95687
ente	-8.95792
▁ser	-8.95954
jet	-8.96282
▁maître	-8.96626
N	-8.97022
18	-8.97526
z	-8.97733
▁te	-8.9809
▁missions	-8.98123
▁Du	-8.99383
▁visa	-8.99908
9.	-9.00091
▁no	-9.00605
la	-9.00992
▁administrat	-9.01207
val	-9.0162
iers	-9.01755
fe	-9.02029
▁acte	-9.02194
François	-9.02552
cole	-9.02674
▁fixée	-9.02857
:	-9.02978
hé	-9.03193
ien	-9.03256
▁réserv	-9.03399
ces	-9.03715
▁fi	-9.03758
▁Cha	-9.03865
▁déclaré	-9.0396
Alain	-9.03994
avocat	-9.04183
être	-9.04219
ire	-9.04274
issue	-9.04523
rie	-9.04762
▁lors	-9.05023
association	-9.05026
▁département	-9.05168
▁Para	-9.05207
est	-9.05393
Françoise	-9.05447
g	-9.05625
source	-9.05636
naut	-9.05649
▁officier	-9.06486
▁répond	-9.06744
▁social	-9.06878
▁mo	-9.07244
▁Grand	-9.07331
lon	-9.08047
▁nature	-9.08342
k	-9.08459
▁régi	-9.0874
▁procéd	-9.08835
joint	-9.08846
Valérie	-9.08854
intitulé	-9.08854
▁Madeleine	-9.08854
▁calcul	-9.08854
▁concernés	-9.08854
▁corps	-9.08854
▁législati	-9.08854
▁offert	-9.08854
▁patronale	-9.08854
▁redevable	-9.08854
▁écrit	-9.08854
environnement	-9.08854
▁communaut	-9.08854
▁militaire	-9.08854
▁navire	-9.08854
▁alimentaire	-9.08854
▁femmes	-9.08854
▁fourni	-9.08854
▁justice	-9.08854
Élisabeth	-9.08856
gouv	-9.08856
Gérard	-9.08857
▁bref	-9.08859
▁honoraire	-9.08861
▁411-1	-9.08863
▁produits	-9.08866
▁travailleur	-9.08867
▁comprend	-9.08868
Nicolas	-9.08869
▁prévention	-9.0887
▁notification	-9.08877
▁exerce	-9.0888
ologie	-9.08882
▁créé	-9.08886
▁133-8	-9.08888
▁tribunal	-9.08893
▁handicapées	-9.08907
▁celui	-9.08908
▁taux	-9.08912
▁133-6	-9.08917
▁métier	-9.0893
Pascal	-9.08934
▁légale	-9.08947
▁état	-9.08987
▁faite	-9.0899
▁automati	-9.08992
▁198	-9.09002
▁modification	-9.09002
▁saisie	-9.09044
▁préfet	-9.09055
eurs	-9.09203
▁agence	-9.09253
▁2007.	-9.09275
▁Cour	-9.09276
▁ambassad	-9.09346
▁territoriales	-9.09509
▁technique	-9.09553
▁préfète	-9.09558
▁habitants	-9.0956
▁pré	-9.09589
ça	-9.09622
▁Sous	-9.09626
mbre	-9.09641
ct	-9.09724
▁toute	-9.0977
▁annexe	-9.09924
ture	-9.09957
▁exer	-9.09994
▁versées	-9.1
Loire	-9.10251
office	-9.10539
appelant	-9.10567
▁pein	-9.10658
▁Bou	-9.10765
▁cour	-9.10799
ou	-9.10851
▁déclarants	-9.10867
▁constitué	-9.1088
▁compl	-9.10981
èle	-9.11069
▁répon	-9.11106
omp	-9.11175
▁médecine	-9.11253
▁prot	-9.11316
▁conseill	-9.11424
▁norme	-9.1146
ctif	-9.11552
Dav	-9.11594
▁internationale	-9.11633
▁196	-9.11812
▁compt	-9.11977
▁supérieure	-9.12475
▁pr	-9.12476
▁propos	-9.13344
oph	-9.13763
rée	-9.13811
▁précédente	-9.14208
▁exécut	-9.14355
▁Françoise	-9.14729
▁243-2	-9.14855
toire	-9.14948
ue	-9.1591
lyn	-9.16192
ocol	-9.16451
ts	-9.16658
▁bénéficie	-9.16755
▁part	-9.1752
▁Ba	-9.17769
▁Isabelle	-9.18245
ate	-9.18569
▁Bar	-9.18822
▁ma	-9.19451
▁signifi	-9.19806
yp	-9.19879
telle	-9.19926
No	-9.20211
▁ext	-9.20289
el	-9.20632
2.	-9.20784
engagement	-9.21597
▁fond	-9.21708
▁r	-9.21774
ste	-9.21819
▁2008-	-9.21949
▁jus	-9.22054
▁égale	-9.22179
▁cin	-9.22713
lot	-9.22748
ilité	-9.22876
▁transmise	-9.22981
▁Martin	-9.23115
▁2022	-9.23179
R	-9.23235
▁ret	-9.23737
lisation	-9.23946
urnal	-9.24129
ise	-9.24857
▁dit	-9.25324
ais	-9.25944
▁2020	-9.25963
berge	-9.26127
▁soumis	-9.26682
culté	-9.27003
id	-9.27039
André	-9.27134
▁52	-9.27245
▁précédent	-9.27381
▁vi	-9.28053
▁périod	-9.28099
▁man	-9.28357
Yves	-9.28448
partie	-9.28745
examen	-9.28754
Frédéri	-9.28775
impôts	-9.28909
Laurence	-9.28918
orientation	-9.28933
annexe	-9.29008
formation	-9.29022
Louis	-9.29108
ologue	-9.29181
France	-9.29236
▁contribu	-9.29604
veill	-9.2976
G	-9.2984
ry	-9.30252
▁133-14-1	-9.30389
▁définie	-9.30448
▁So	-9.30506
▁Char	-9.30757
47	-9.30953
▁économique	-9.31274
um	-9.31385
▁déclarant	-9.31604
ap	-9.31845
nce	-9.32131
▁fix	-9.32266
ini	-9.32562
233	-9.3281
▁133-14	-9.32844
ja	-9.33337
▁m	-9.33381
▁cons	-9.3341
ns	-9.33414
férence	-9.33448
industrie	-9.33524
▁handicap	-9.33707
scale	-9.33773
▁725-	-9.33819
IOM	-9.33854
▁régularis	-9.33854
▁http	-9.33854
Calédonie	-9.33854
Catherine	-9.33854
Rhin	-9.33854
Virginie	-9.33854
aménagement	-9.33854
intérêt	-9.33854
▁Fernand	-9.33854
▁Raymond	-9.33854
▁Strasbourg	-9.33854
▁agricole	-9.33854
▁convention	-9.33854
▁journaliste	-9.33854
▁niveau	-9.33854
▁recommandé	-9.33854
▁recrutement	-9.33854
▁solidarité	-9.33854
▁susceptible	-9.33854
▁dépôt	-9.33854
▁Mérite	-9.33854
▁ajouté	-9.33854
▁imprimé	-9.33855
▁particulier	-9.33855
▁maladie	-9.33855
dessus	-9.33855
oivent	-9.33855
▁pénal	-9.33855
▁inspect	-9.33856
▁plein	-9.33856
▁dignité	-9.33857
▁soutien	-9.33858
urgence	-9.33859
▁244-1	-9.33859
▁locaux	-9.3386
▁familles	-9.33862
▁médico	-9.33863
▁euros	-9.33864
fort	-9.33866
▁sanction	-9.33871
utilisation	-9.33871
▁témoins	-9.33875
exception	-9.33878
▁Lambert	-9.33878
▁2122-19-1	-9.33879
▁clini	-9.33882
▁afin	-9.33889
opérateur	-9.33894
▁proposition	-9.33895
▁Henriette	-9.33901
Céline	-9.33902
▁sénat	-9.33915
▁marins	-9.33919
▁ressort	-9.33922
▁ambassadrice	-9.33925
▁administrative	-9.33926
▁handicapés	-9.33933
▁affecté	-9.33951
▁Mich	-9.33963
▁gérant	-9.33965
▁133-14-2	-9.33966
▁dernière	-9.33967
accord	-9.33979
▁européenne	-9.33989
avanc	-9.3399
▁gardien	-9.34
▁Marcelle	-9.34013
▁133-9-3	-9.34014
CI	-9.34066
▁Simone	-9.34101
ôme	-9.34181
▁Léon	-9.34266
▁collecte	-9.34277
▁tous	-9.34278
▁remet	-9.34301
▁enfan	-9.34329
emboursement	-9.34348
▁bénéficiaire	-9.34381
entrée	-9.34396
utre	-9.34439
ensem	-9.34539
▁informé	-9.34563
apti	-9.34603
▁fondation	-9.34629
▁Henri	-9.34695
▁Marguerite	-9.34764
▁Guillaume	-9.35005
▁ouverts	-9.35019
▁213-	-9.35116
▁compéten	-9.35471
cité	-9.3548
▁supprimés	-9.35789
▁6146-1-	-9.35831
▁Ver	-9.35921
▁assuré	-9.36014
▁paie	-9.36092
ign	-9.36113
vi	-9.36154
forme	-9.36239
▁économiques	-9.36559
▁anomalies	-9.36678
▁243-1	-9.36703
die	-9.36786
▁autorisation	-9.36871
usin	-9.36898
▁2018	-9.36978
iane	-9.37073
mploi	-9.37358
▁Antoine	-9.37604
bilité	-9.38207
▁133-13.	-9.38352
▁resso	-9.38373
▁perm	-9.38552
nier	-9.38783
40	-9.38849
▁participe	-9.38995
▁orientation	-9.3903
▁Laurence	-9.39045
able	-9.39666
▁202	-9.39881
ver	-9.39916
▁Hé	-9.4
▁Charl	-9.40214
▁Alain	-9.40466
▁log	-9.4065
av	-9.40887
ON	-9.41391
▁consulta	-9.41627
▁ci	-9.41785
▁nucléaires	-9.41805
oire	-9.41903
▁respect	-9.41983
Fab	-9.42279
son	-9.42315
▁seul	-9.42482
▁sociétés	-9.42558
ales	-9.42575
cent	-9.43
éma	-9.43256
▁comporte	-9.43447
2023-1389	-9.43907
aux	-9.44485
▁simplifi	-9.44568
▁mer	-9.44718
▁Del	-9.45209
ille	-9.45358
▁comme	-9.45391
ia	-9.45483
ez	-9.45567
iss	-9.45582
▁indique	-9.45596
port	-9.45872
ienne	-9.4592
▁ju	-9.45951
v	-9.45985
▁g	-9.46565
▁autorité	-9.46692
faire	-9.47011
cès	-9.47304
he	-9.47429
naires	-9.48102
li	-9.48112
▁égal	-9.48406
ités	-9.4845
ma	-9.48537
▁organisme	-9.48613
▁”.	-9.49208
▁conten	-9.4935
fond	-9.49593
▁133-5-3.	-9.49601
▁dat	-9.4984
aud	-9.50057
▁engage	-9.50196
5.	-9.50518
all	-9.50956
égr	-9.51116
atrice	-9.51144
▁tr	-9.51389
▁val	-9.51461
▁résulta	-9.51524
bert	-9.51684
▁confi	-9.52012
▁res	-9.52134
lo	-9.52139
ai	-9.52222
▁Dé	-9.52243
▁met	-9.52624
x	-9.52677
▁523-	-9.5301
vement	-9.53747
ré	-9.54431
yc	-9.54492
▁sign	-9.548
▁mani	-9.55407
3.	-9.56158
▁para	-9.56216
68	-9.56275
assuran	-9.56493
par	-9.56991
urce	-9.57064
our	-9.57586
Uni	-9.58295
▁Po	-9.58345
▁Ch	-9.58547
▁fili	-9.59762
▁tar	-9.60019
ny	-9.60085
Un	-9.60301
Haute	-9.60965
ouvelle	-9.61149
do	-9.6142
▁Bri	-9.61656
usage	-9.61849
Bernard	-9.62039
Antoine	-9.62196
Saint	-9.62356
Jacques	-9.62388
▁fondat	-9.62389
organisation	-9.62411
ui	-9.62442
▁san	-9.62704
indi	-9.6275
▁Jou	-9.62818
Hé	-9.6304
im	-9.63527
uel	-9.63693
raine	-9.6414
Jos	-9.64158
▁indépendant	-9.64214
▁dépense	-9.64216
▁VI	-9.64241
▁332-	-9.64259
▁supprimé	-9.64556
▁territorial	-9.64557
▁anomalie	-9.64571
▁fac	-9.64623
▁territoire	-9.64709
▁concour	-9.64716
▁2021	-9.64922
▁corrig	-9.64925
du	-9.65011
▁nomm	-9.65065
▁Ja	-9.65131
▁ingénieur	-9.65512
▁Lucien	-9.65969
▁Ro	-9.66006
▁attribu	-9.66015
action	-9.66131
plac	-9.66463
onne	-9.66495
ropol	-9.66569
▁généra	-9.66616
ey	-9.66629
▁informati	-9.66763
▁individuel	-9.66765
-2	-9.66804
▁central	-9.66861
▁charg	-9.66901
▁premi	-9.67073
bel	-9.67104
▁jeunes	-9.67108
éclair	-9.67187
Maryvonne	-9.67188
Miquelon	-9.67188
Stéphane	-9.67188
investissement	-9.67188
Édouard	-9.67188
▁422-34-1	-9.67188
▁Alfred	-9.67188
▁Gabriel	-9.67188
▁circonstanc	-9.67188
▁combattant	-9.67188
▁interrégional	-9.67188
▁mémorielle	-9.67188
▁redressement	-9.67188
▁reprochés	-9.67188
▁régulière	-9.67188
▁synthèse	-9.67188
▁séjour	-9.67188
▁éligibles	-9.67188
▁gouvernemental	-9.67188
▁juridi	-9.67188
Auguste	-9.67188
Yvelines	-9.67188
▁fabrica	-9.67188
▁requise	-9.67188
▁Arnault	-9.67188
▁coordinat	-9.67188
accueil	-9.67188
▁choix	-9.67188
▁mutation	-9.67188
▁salari	-9.67188
▁statistique	-9.67188
▁texte	-9.67188
▁patrimo	-9.67188
▁chercheu	-9.67188
INSP	-9.67188
▁dipl	-9.67188
invalid	-9.67189
▁243-43-	-9.67189
▁préjuge	-9.6719
▁Roger	-9.6719
Guyane	-9.67191
▁agréé	-9.67191
▁douan	-9.67191
▁télé	-9.67192
Arnaud	-9.67193
▁séance	-9.67193
▁popula	-9.67193
Atlantique	-9.67194
▁Lyon	-9.67194
▁Richar	-9.67194
▁Rennes	-9.67196
▁prévisi	-9.67197
▁convocation	-9.67198
▁assiste	-9.67199
▁durable	-9.672
▁béné	-9.67202
▁reç	-9.67203
▁PROT	-9.67204
▁mines	-9.67207
▁réunion	-9.67213
▁133-10	-9.67223
ouverture	-9.67226
instruction	-9.67228
psychiatrie	-9.6723
▁condui	-9.67236
▁conna	-9.6724
▁préparant	-9.67242
ési	-9.67249
Seine	-9.67255
▁commerc	-9.67256
▁remboursement	-9.67257
▁243-7	-9.67262
233526	-9.67268
▁marine	-9.67287
Gilles	-9.67301
▁133-7	-9.67344
▁bio	-9.6735
imput	-9.6736
space	-9.67371
▁133-14-3	-9.67389
Patric	-9.67418
▁artist	-9.67419
suit	-9.67434
▁mond	-9.67464
▁57	-9.6747
insp	-9.6747
▁placée	-9.67484
▁132-6	-9.67484
▁classé	-9.67519
▁viol	-9.67555
ski	-9.67576
▁2019	-9.67602
▁région	-9.67631
▁structur	-9.67635
▁Rég	-9.6779
▁utilisé	-9.67805
applique	-9.67852
▁adressé	-9.67955
▁compétence	-9.68016
Roche	-9.68062
▁écrivaine	-9.68137
▁adapté	-9.68159
olle	-9.68178
vision	-9.68295
allo	-9.68302
intéressé	-9.68318
▁Marcel	-9.6833
ze	-9.6835
otte	-9.68385
▁promus	-9.68432
▁formul	-9.68433
▁délivré	-9.68446
▁heure	-9.68458
▁Laurent	-9.68468
▁Joseph	-9.68474
▁ordonnance	-9.68486
▁nationalité	-9.68517
▁Christian	-9.68532
▁associé	-9.68574
▁cofondat	-9.68631
▁Nord	-9.6864
▁médicale	-9.68821
2335	-9.68843
assembl	-9.69059
▁décide	-9.69122
autre	-9.69154
▁tenu	-9.69184
▁interven	-9.69198
▁906	-9.69266
ave	-9.69289
▁Lor	-9.69489
▁attribuée	-9.69504
▁product	-9.69538
▁représent	-9.69561
▁Grande	-9.69965
iège	-9.69977
uscri	-9.69999
▁fois	-9.70003
2-1	-9.7021
adaptation	-9.70444
▁Sylvie	-9.70515
▁Paul	-9.70539
dre	-9.70542
▁zo	-9.70591
Ben	-9.70674
▁aéro	-9.70691
Ét	-9.71127
▁Georges	-9.7115
sé	-9.71224
▁2004	-9.71238
▁Fau	-9.71253
tiers	-9.71714
▁sou	-9.72039
autonom	-9.72125
▁Val	-9.72241
▁annexes	-9.72326
ences	-9.72337
▁H	-9.72443
lô	-9.72482
laborat	-9.72542
▁Bernard	-9.72614
ulation	-9.72791
▁départements	-9.72795
▁TR	-9.72801
▁dispose	-9.72807
▁format	-9.72867
▁institué	-9.73157
auf	-9.73635
▁préserv	-9.73644
trice	-9.73713
ian	-9.73744
employeurs	-9.73775
▁soi	-9.73777
▁consult	-9.73948
▁133-9-	-9.74366
ég	-9.74399
▁Frédéri	-9.74709
ilit	-9.74737
▁examen	-9.74743
▁pro	-9.75
▁François	-9.75096
▁université	-9.75436
▁199	-9.756
voy	-9.7564
ul	-9.7575
▁porte	-9.75881
▁pi	-9.76154
ult	-9.76162
toli	-9.7621
arre	-9.76229
▁Ros	-9.76547
▁psychologi	-9.76552
▁annuel	-9.76763
Denise	-9.76797
as	-9.76814
▁Br	-9.76886
am	-9.76912
iversité	-9.77237
▁2023.	-9.77437
▁Monn	-9.77643
rrière	-9.78062
▁suivants	-9.78483
rique	-9.78894
ck	-9.79086
audit	-9.79263
iées	-9.79665
oppos	-9.79958
vr	-9.8029
oth	-9.80331
▁auxquel	-9.80343
▁exécuti	-9.80525
▁présents	-9.80704
▁Philippe	-9.80992
aéro	-9.81217
ins	-9.81311
▁imp	-9.81497
8.	-9.81681
rem	-9.82287
▁3,	-9.82674
11	-9.82739
▁définit	-9.82906
admissi	-9.83332
électr	-9.83591
Martine	-9.8369
Fran	-9.83716
▁Émil	-9.83722
inter	-9.83738
abilité	-9.8376
▁consul	-9.83772
▁br	-9.83891
judic	-9.849
no	-9.8492
▁Alber	-9.84957
-3	-9.85047
mett	-9.85097
ner	-9.85257
▁cit	-9.85367
▁su	-9.85444
ond	-9.85945
enne	-9.86112
qui	-9.86208
lois	-9.86248
▁Go	-9.86371
▁Bas	-9.86429
ial	-9.86896
io	-9.87133
hi	-9.87434
nick	-9.87637
▁bl	-9.87676
▁eux	-9.87827
▁coordonne	-9.88682
▁cl	-9.89603
di	-9.89615
▁cinq	-9.89626
bali	-9.89895
ta	-9.90571
ll	-9.90595
▁parti	-9.9076
ick	-9.9115
▁133-1	-9.9216
él	-9.92243
▁précisé	-9.92383
▁détermin	-9.92386
dic	-9.92737
wi	-9.92963
▁lu	-9.93233
▁197	-9.93454
ad	-9.93913
ud	-9.93951
aute	-9.94246
site	-9.94341
rojet	-9.9449
▁préside	-9.94575
).	-9.94809
▁prononce	-9.95013
tive	-9.95263
▁242-	-9.957
ing	-9.9575
▁permet	-9.95923
soins	-9.96124
remi	-9.9616
ow	-9.9628
▁exp	-9.96758
Etats	-9.96767
ig	-9.97475
hor	-9.97642
▁contra	-9.9772
▁déroule	-9.98141
▁comport	-9.98276
▁effectué	-9.98471
obl	-9.98504
ba	-9.98931
gu	-9.99197
▁bénéfic	-9.99904
ong	-9.99966
tent	-10.002
▁seule	-10.003
▁donn	-10.0061
▁Haut	-10.0078
Yann	-10.0105
aille	-10.012
ecture	-10.0133
usé	-10.0168
inet	-10.0213
ois	-10.0217
assi	-10.0229
▁respecti	-10.0267
vol	-10.027
admissib	-10.0304
▁débit	-10.0319
Au	-10.0325
lli	-10.0331
▁Bi	-10.0349
▁quat	-10.036
annuelle	-10.0382
▁bai	-10.0389
ar	-10.0417
col	-10.0418
▁autorise	-10.0456
enir	-10.0475
6-1	-10.0488
éd	-10.0529
▁relat	-10.0545
ative	-10.0552
onnement	-10.061
ton	-10.0612
nement	-10.062
56	-10.0622
atives	-10.0625
icul	-10.0626
▁j	-10.063
▁renouvel	-10.0636
▁Chap	-10.0653
mmandeur	-10.0663
▁ru	-10.0664
édi	-10.0679
▁Ha	-10.0702
2-12	-10.0707
évalua	-10.0739
ann	-10.0743
▁comp	-10.0773
▁autoris	-10.0777
▁Mo	-10.0789
▁75	-10.0797
cienne	-10.0801
▁propo	-10.0802
Luc	-10.0803
per	-10.083
▁personn	-10.0836
”	-10.0861
aut	-10.0915
▁Denis	-10.0917
▁occup	-10.0924
ô	-10.0928
▁suspen	-10.0938
clusion	-10.0947
▁international	-10.095
28	-10.0951
▁Ju	-10.0955
établir	-10.0957
▁Bo	-10.0964
▁norm	-10.1
tres	-10.1003
Cé	-10.1016
Christ	-10.103
Ch	-10.1032
alinéa	-10.1052
▁administra	-10.1065
équipe	-10.1071
Denis	-10.1078
-6	-10.1082
acti	-10.1104
▁aff	-10.1105
ploi	-10.1106
ident	-10.1109
même	-10.1113
expert	-10.116
enquête	-10.1161
autorisation	-10.1179
▁Bel	-10.1196
Paul	-10.1198
Georges	-10.1199
Sylvie	-10.1199
▁Sch	-10.1201
adjoint	-10.1202
budget	-10.1226
itte	-10.1226
▁effe	-10.1233
zo	-10.126
▁désign	-10.1265
6-	-10.1282
acte	-10.1302
Sa	-10.1315
trait	-10.1338
ège	-10.1339
cours	-10.134
▁5553-	-10.135
▁di	-10.1352
ori	-10.1388
▁pay	-10.1404
J	-10.1405
009	-10.141
tier	-10.1414
nel	-10.1416
▁concernée	-10.1425
Do	-10.1426
engage	-10.1426
▁économi	-10.1437
▁mention	-10.1462
▁tel	-10.1464
esti	-10.1469
ection	-10.1476
▁Jacque	-10.1477
ni	-10.1486
▁foi	-10.1496
▁plu	-10.1512
▁commune	-10.1528
▁intéress	-10.1537
aide	-10.154
▁notifi	-10.1548
Cha	-10.1549
▁référen	-10.1551
ambassade	-10.1561
▁ouvert	-10.1564
ngage	-10.1566
▁écrivain	-10.1569
▁promu	-10.1573
▁greff	-10.1579
▁adress	-10.1596
▁Bor	-10.1598
▁complément	-10.1599
▁o	-10.1612
ît	-10.1628
des	-10.1639
0-3	-10.164
matéri	-10.1644
▁Cou	-10.1646
”.	-10.1653
euse	-10.1656
uellement	-10.1665
▁humain	-10.1668
▁équi	-10.1691
affect	-10.1697
▁Daniel	-10.1697
mb	-10.1699
incen	-10.1709
tablissement	-10.1709
Brig	-10.171
▁opér	-10.1714
▁prestat	-10.1718
ologiste	-10.1718
olontaire	-10.1719
Provence	-10.1719
▁Grenet	-10.1719
▁Peraro	-10.1719
▁cuisini	-10.1719
Barthélemy	-10.1719
Crosnier	-10.1719
Edmond	-10.1719
Edwige	-10.1719
Futuna	-10.1719
Ghislain	-10.1719
Guadeloupe	-10.1719
Interpol	-10.1719
Maritime	-10.1719
Nathalie	-10.1719
Stéphanie	-10.1719
architecture	-10.1719
croix	-10.1719
nfrastructures	-10.1719
▁5555-1	-10.1719
▁5755-1-1	-10.1719
▁Auclair	-10.1719
▁Beylot	-10.1719
▁Bongiovanni	-10.1719
▁Français	-10.1719
▁Granville	-10.1719
▁Grenoble	-10.1719
▁Hidair	-10.1719
▁Hueber	-10.1719
▁Montlaur	-10.1719
▁Puymorin	-10.1719
▁Sairigné	-10.1719
▁Suzanne	-10.1719
▁Thérèse	-10.1719
▁alternative	-10.1719
▁approuvée	-10.1719
▁automobile	-10.1719
▁bancaire	-10.1719
▁bulletin	-10.1719
▁chorégraphe	-10.1719
▁climat	-10.1719
▁concernant	-10.1719
▁dirigeant	-10.1719
▁domicile	-10.1719
▁dénomination	-10.1719
▁ferroviaire	-10.1719
▁football	-10.1719
▁global	-10.1719
▁identifiant	-10.1719
▁immobilière	-10.1719
▁intercommunal	-10.1719
▁libéral	-10.1719
▁mutuelle	-10.1719
▁mécène	-10.1719
▁principa	-10.1719
▁proviseur	-10.1719
▁préparatoires	-10.1719
▁pédopsychiatre	-10.1719
▁rattaché	-10.1719
▁rétabli	-10.1719
▁sollicité	-10.1719
▁spectacles	-10.1719
▁tabac	-10.1719
▁télécharge	-10.1719
▁vétérinaire	-10.1719
▁éventuelle	-10.1719
▁titulaire	-10.1719
Régis	-10.1719
audiovisuel	-10.1719
▁entraîneu	-10.1719
▁implique	-10.1719
▁pharmacien	-10.1719
▁tutelle	-10.1719
▁certifi	-10.1719
▁disponib	-10.1719
▁recueil	-10.1719
infirm	-10.1719
▁915-	-10.1719
▁Bariol	-10.1719
▁Hervé	-10.1719
▁Ropert	-10.1719
▁attaché	-10.1719
▁examin	-10.1719
▁vingt	-10.1719
Alpes	-10.1719
▁Castel	-10.1719
▁commercialis	-10.1719
intégral	-10.1719
▁humani	-10.1719
▁interprofession	-10.1719
▁petite	-10.1719
▁éditeur	-10.1719
▁Bourg	-10.1719
▁Réunion	-10.1719
▁nullité	-10.1719
▁touché	-10.1719
▁élévation	-10.1719
▁confidenti	-10.1719
accélér	-10.1719
▁Cataix	-10.1719
▁Moulin	-10.1719
ogne	-10.1719
opération	-10.1719
▁morale	-10.1719
▁pourvus	-10.1719
Grenier	-10.1719
Saône	-10.1719
▁Hyber	-10.1719
▁envisag	-10.1719
▁convoqu	-10.1719
▁qualifi	-10.1719
Marseille	-10.1719
▁Marthe	-10.1719
▁biologiste	-10.1719
▁postérieure	-10.1719
fessionnelle	-10.1719
▁Vetter	-10.1719
▁poursuiv	-10.1719
▁rejeté	-10.1719
Gilbert	-10.1719
▁second	-10.1719
Éliane	-10.1719
▁recens	-10.1719
sistant	-10.1719
Carine	-10.172
▁armées	-10.172
▁distribuée	-10.172
identification	-10.172
▁invit	-10.172
▁Dolores	-10.172
▁accompagnée	-10.172
▁cause	-10.172
▁211-	-10.172
▁laitière	-10.172
▁manquante	-10.172
▁724-	-10.172
▁associative	-10.172
▁Pignon	-10.172
colonel	-10.172
▁volontaire	-10.172
▁certain	-10.1721
▁Presle	-10.1721
urgie	-10.1721
▁Basile	-10.1721
résid	-10.1721
▁route	-10.1721
▁accessible	-10.1721
▁Gaudi	-10.1721
Math	-10.1722
▁James	-10.1722
Ramel	-10.1722
▁entités	-10.1722
▁Corne	-10.1722
▁Boyer	-10.1722
▁Peill	-10.1723
ouvernement	-10.1723
▁Grés	-10.1723
▁habit	-10.1723
Marne	-10.1723
iciel	-10.1723
▁assistant	-10.1724
recevable	-10.1724
Salina	-10.1724
but	-10.1724
Didier	-10.1725
▁inf	-10.1725
▁77-	-10.1726
▁filles	-10.1727
TU	-10.1727
▁332-12	-10.1729
obten	-10.1729
▁752-4	-10.1729
olf	-10.173
imée	-10.173
▁champ	-10.173
▁modèle	-10.1731
ouz	-10.1731
▁Lemand	-10.1731
▁Girau	-10.1732
▁exécutif	-10.1733
▁Patur	-10.1734
▁Reb	-10.1734
▁juge	-10.1734
suite	-10.1734
▁72-1	-10.1735
PRM	-10.1735
▁Duch	-10.1735
▁communiquer	-10.1736
▁entrepr	-10.1736
▁prof	-10.1736
▁Four	-10.1737
▁Barb	-10.1737
▁naturelle	-10.1738
Yvette	-10.1739
▁5785-6	-10.1739
▁interventions	-10.1739
▁proche	-10.1739
▁Beau	-10.1739
▁thé	-10.1741
▁Deb	-10.1741
▁Berr	-10.1742
▁minim	-10.1743
80	-10.1743
▁Côte	-10.1744
hèque	-10.1744
▁appro	-10.1744
▁725-4-1	-10.1745
pose	-10.1745
culaire	-10.1747
▁Caron	-10.1748
23354	-10.1749
Mexi	-10.1749
illot	-10.175
Alex	-10.1751
issu	-10.1755
▁déclarative	-10.1756
allis	-10.1756
▁délibération	-10.1757
tiel	-10.1757
nelles	-10.1759
go	-10.1765
em	-10.1766
▁Gaul	-10.1769
▁statut	-10.177
anc	-10.1776
▁partielle	-10.1779
Vinc	-10.1783
▁55	-10.1783
roche	-10.1784
▁Germaine	-10.1784
onia	-10.1785
▁disc	-10.1785
▁Toute	-10.1787
▁Ho	-10.1788
▁syndicale	-10.1788
individuellement	-10.1788
▁stati	-10.1789
▁poursuit	-10.179
tra	-10.1791
immunolog	-10.1791
▁10°	-10.1798
▁8-1	-10.1799
▁fixa	-10.1799
▁16-1	-10.1801
ération	-10.1803
ivers	-10.1804
ues	-10.1804
ko	-10.1804
endra	-10.1806
gées	-10.1812
Martinique	-10.1812
▁17-1	-10.1814
▁courant	-10.1815
▁Mous	-10.1815
éné	-10.182
▁Riv	-10.1825
▁écoles	-10.1826
▁péd	-10.1827
▁prénoms	-10.183
Chaz	-10.1832
▁huit	-10.1835
▁Bert	-10.1836
Verg	-10.1836
▁Marielle	-10.1838
▁ve	-10.184
Ro	-10.184
ack	-10.184
▁Michelle	-10.1841
▁complémentaire	-10.1842
▁gér	-10.1843
▁Caro	-10.1845
culture	-10.1846
▁Cler	-10.1849
ronique	-10.1851
chim	-10.1853
▁spatiales	-10.1856
▁133-14-4.	-10.1861
▁133-14-	-10.1871
médi	-10.1876
▁notifie	-10.1886
appu	-10.1899
pie	-10.1901
hn	-10.1902
▁Cava	-10.1904
▁vé	-10.1904
tien	-10.1914
Sé	-10.1917
▁mét	-10.1917
▁sub	-10.1925
▁éch	-10.193
Lucienne	-10.194
▁Camille	-10.1946
▁Bertrand	-10.1946
▁Geneviève	-10.1946
1-17-	-10.1948
issant	-10.195
▁Guy	-10.1953
▁Danielle	-10.1968
orgi	-10.1968
hame	-10.1971
▁unique	-10.1979
▁initiale	-10.198
▁Her	-10.198
▁Duri	-10.1983
▁différent	-10.1992
cède	-10.1994
▁67	-10.1995
▁neu	-10.1996
ification	-10.1998
▁ingénieure	-10.1999
▁prop	-10.2002
cz	-10.2008
▁Mesni	-10.2012
▁accus	-10.2015
dite	-10.2016
laire	-10.2019
jo	-10.2021
▁concernées	-10.2022
▁Bord	-10.2024
tend	-10.2027
Marter	-10.2029
iliale	-10.2042
uvelle	-10.2052
▁informée	-10.2053
▁Leve	-10.2061
▁éta	-10.2061
▁partiel	-10.2062
▁acteur	-10.2068
▁ouvr	-10.2069
▁autorisé	-10.2075
ge	-10.2097
▁Baill	-10.2099
quel	-10.21
omb	-10.2106
eyr	-10.2107
▁appart	-10.2127
onique	-10.2131
his	-10.2133
▁procè	-10.214
tisation	-10.2153
▁80	-10.2154
▁Dub	-10.2157
aly	-10.216
▁vir	-10.216
▁Brun	-10.2162
Fa	-10.2176
arc	-10.2179
stance	-10.2198
étranger	-10.2201
nte	-10.2218
ouve	-10.2219
▁Boiss	-10.2223
▁dépenses	-10.2223
▁indépendants	-10.2224
▁Car	-10.2231
mont	-10.2232
let	-10.2241
▁pays	-10.2253
accompagne	-10.2256
rou	-10.2257
▁Jan	-10.2265
ntal	-10.2287
-4	-10.229
▁Schw	-10.2295
▁enquête	-10.2308
▁expert	-10.231
▁Pic	-10.2321
▁Belli	-10.2326
▁po	-10.234
▁évalu	-10.24
▁physicien	-10.2404
▁Hu	-10.2416
acha	-10.2426
▁suiv	-10.2433
elui	-10.2439
▁hémato	-10.2446
▁act	-10.2449
rois	-10.2451
2-	-10.2451
▁Géra	-10.2463
▁Bich	-10.2484
gères	-10.2502
▁place	-10.2513
iber	-10.2513
cile	-10.2514
ément	-10.2526
lympiques	-10.2528
oute	-10.2528
ca	-10.2534
▁ren	-10.2535
▁soins	-10.2551
▁Robine	-10.2563
▁suspend	-10.2564
▁coordonnat	-10.2575
ut	-10.2577
▁133-14-1.	-10.2577
▁occupe	-10.258
▁pri	-10.2582
deau	-10.2609
contr	-10.2612
▁Con	-10.2639
▁simplifié	-10.264
▁sus	-10.2651
ixi	-10.2651
▁Pla	-10.2653
ris	-10.2659
▁usage	-10.2679
▁cont	-10.2682
P	-10.2736
ilde	-10.2751
▁neurolog	-10.2755
Cor	-10.2764
▁équip	-10.2766
▁modifiée	-10.2775
bois	-10.2787
▁média	-10.2791
ici	-10.2793
2023-1390	-10.2803
▁Vi	-10.281
▁752-	-10.2883
▁pat	-10.2952
▁men	-10.2956
20	-10.2969
git	-10.2971
▁Chapel	-10.2988
▁voi	-10.2997
▁abrogés	-10.3001
53	-10.3005
▁Vill	-10.301
ubs	-10.3018
emb	-10.3033
▁information	-10.3033
▁prévo	-10.3037
▁impôts	-10.3056
umé	-10.3071
▁origina	-10.3072
▁Yves	-10.3089
hologie	-10.3102
▁déclar	-10.3145
Maria	-10.3151
ieur	-10.3161
▁Do	-10.3183
Anton	-10.3186
65	-10.3189
▁Syst	-10.3195
ran	-10.3207
▁collecti	-10.3212
dict	-10.326
arti	-10.326
U	-10.327
▁corrigée	-10.3276
-12	-10.3302
▁v	-10.3326
homa	-10.3342
yer	-10.3344
ha	-10.3344
gnon	-10.3349
nant	-10.3366
glo	-10.3374
▁composit	-10.3381
▁Ad	-10.3387
elly	-10.3393
▁San	-10.3427
▁joueu	-10.3432
▁5553-1.	-10.3435
▁institution	-10.3465
ly	-10.3488
Hu	-10.3497
▁administrati	-10.35
ié	-10.3506
anie	-10.359
▁332-1	-10.3618
cture	-10.3637
▁représentati	-10.3646
Yan	-10.3676
si	-10.3725
▁fai	-10.3736
▁Thi	-10.374
rs	-10.3757
▁appel	-10.3796
▁Blo	-10.3802
▁2020-	-10.3809
▁appell	-10.382
valoris	-10.3828
3-1	-10.3839
socia	-10.3853
Floren	-10.3863
ath	-10.3871
▁Gas	-10.388
▁ba	-10.3898
22-1	-10.3985
▁or	-10.3996
éno	-10.4015
▁fiab	-10.4023
▁att	-10.4024
▁Jul	-10.4031
ç	-10.4033
porté	-10.4035
▁Al	-10.4043
my	-10.4054
▁déroul	-10.4058
▁Es	-10.4108
assure	-10.411
envo	-10.413
▁fra	-10.4144
2334	-10.4156
ubert	-10.4166
▁Cas	-10.4166
▁Clémen	-10.4182
ume	-10.4184
anger	-10.42
▁Der	-10.4202
▁circu	-10.4205
▁sp	-10.4219
ront	-10.4229
▁Etat	-10.4248
pér	-10.4256
▁Poi	-10.426
rées	-10.4271
act	-10.4325
sur	-10.4344
2023-1391	-10.4349
▁simple	-10.4362
11.	-10.4377
▁Chas	-10.4391
Agen	-10.4394
illi	-10.4403
▁ministériels	-10.4405
▁permett	-10.442
ebau	-10.4428
its	-10.4433
3-7	-10.4444
court	-10.4455
apit	-10.4472
hydrog	-10.4482
▁Marc	-10.4484
▁Duran	-10.4506
tti	-10.4543
▁prononc	-10.4548
▁conc	-10.4578
ction	-10.4605
▁assur	-10.4669
ville	-10.4683
ain	-10.4725
▁conf	-10.4738
ensé	-10.4739
7.	-10.4741
gr	-10.4758
labor	-10.4773
▁Mon	-10.4776
th	-10.4892
▁résult	-10.4938
▁détermine	-10.4991
▁simpl	-10.5001
cab	-10.5001
86-1	-10.5027
interm	-10.5063
ach	-10.5093
13	-10.51
nne	-10.5111
ara	-10.5136
▁animat	-10.5171
▁prévoi	-10.5174
▁Dut	-10.5188
amat	-10.5188
▁2-1	-10.5261
69	-10.5274
ims	-10.5279
▁Ne	-10.5292
▁exerc	-10.53
ka	-10.5334
Mur	-10.537
aler	-10.5372
▁préf	-10.5395
ffi	-10.5408
▁Haute	-10.5421
▁ad	-10.543
ssion	-10.5452
▁Mont	-10.5535
iel	-10.5536
lé	-10.5578
▁Ra	-10.5586
▁Be	-10.5602
03.	-10.5656
rêté	-10.5707
Lab	-10.5709
péri	-10.5712
▁préfe	-10.5721
▁réalisat	-10.5723
1-2	-10.5725
▁Dar	-10.5737
voi	-10.5782
▁133-12	-10.5797
▁Fe	-10.5846
▁hospitaliers	-10.5894
del	-10.5935
arbi	-10.5937
ill	-10.5944
isme	-10.5958
sel	-10.596
aye	-10.5979
ng	-10.6063
▁May	-10.6088
▁constituti	-10.6101
sant	-10.6103
mus	-10.6117
onet	-10.6183
Su	-10.6188
▁sect	-10.6205
62	-10.6249
▁soci	-10.6253
95	-10.6265
▁lié	-10.6281
COL	-10.6284
mission	-10.6332
ter	-10.6347
▁Perr	-10.6373
▁car	-10.6376
ements	-10.6382
▁i	-10.6393
logue	-10.6425
▁Lan	-10.6438
▁mett	-10.6467
nière	-10.6473
lane	-10.6485
isant	-10.655
riel	-10.6557
▁tra	-10.6572
▁constitue	-10.6609
Ma	-10.6624
squ	-10.6649
▁indiqu	-10.6659
vé	-10.6669
Mari	-10.6678
▁consultati	-10.6697
▁Émilie	-10.6702
sen	-10.6725
▁post	-10.6739
az	-10.6743
▁coll	-10.6747
aér	-10.6769
uve	-10.6777
▁Bu	-10.6789
▁maîtr	-10.6807
51	-10.6807
aeg	-10.6817
ulte	-10.6921
co	-10.6971
Gar	-10.702
▁hydro	-10.7087
ses	-10.7096
▁représenta	-10.7121
net	-10.7198
uits	-10.7202
mentionnée	-10.7254
▁2022-	-10.7301
érieure	-10.731
▁Clém	-10.7319
rnal	-10.7322
78	-10.738
2023-1387	-10.7414
ajo	-10.745
Mauri	-10.7507
▁anima	-10.753
▁VII	-10.7556
ogue	-10.7561
os	-10.7578
▁To	-10.7581
Flor	-10.7635
▁Cet	-10.7651
ubr	-10.7693
los	-10.7707
uisse	-10.7719
▁année	-10.772
Thie	-10.7756
66-	-10.7765
mp	-10.7772
02	-10.7773
ontan	-10.7776
2023-1380	-10.7792
rtion	-10.7795
mé	-10.7815
riv	-10.7825
2023-1386	-10.7829
bi	-10.7846
▁impa	-10.7852
2023-1384	-10.7859
▁4-1	-10.7888
emp	-10.7926
Ve	-10.794
05	-10.7968
ole	-10.797
2023-1388	-10.802
ession	-10.8055
stin	-10.8247
▁Jos	-10.8251
▁mal	-10.8256
anima	-10.8297
▁ab	-10.8303
▁Dur	-10.8321
▁Mor	-10.8353
▁Pi	-10.8387
Ann	-10.8399
ante	-10.84
égal	-10.841
arr	-10.841
oli	-10.8413
assur	-10.844
▁collect	-10.8491
▁psycholog	-10.8507
ardi	-10.851
ty	-10.8526
quin	-10.8528
2-7	-10.8535
con	-10.8582
2023-1385	-10.8604
Vi	-10.8676
abia	-10.8694
▁bi	-10.8696
ué	-10.8718
phe	-10.872
▁si	-10.8757
ola	-10.8767
origin	-10.888
atée	-10.891
ber	-10.8918
▁5,	-10.893
▁Mar	-10.8935
ntoni	-10.895
teur	-10.8981
▁72	-10.8982
dier	-10.8986
Bri	-10.9084
2-4	-10.9091
bal	-10.9108
estion	-10.9128
▁particip	-10.9138
▁133-9	-10.9157
2023-1383	-10.9165
and	-10.9167
ode	-10.917
▁Mari	-10.918
-1.	-10.9207
mét	-10.9209
▁Fon	-10.925
▁Jus	-10.9256
▁corrigé	-10.9275
▁prés	-10.9286
oyen	-10.931
tr	-10.9361
SO	-10.9377
Terre	-10.9402
uver	-10.9415
lib	-10.9419
▁sit	-10.9422
arm	-10.945
▁Pol	-10.949
Cole	-10.9493
illia	-10.9582
us	-10.9656
▁Fa	-10.9663
vo	-10.9691
▁Clau	-10.9709
issement	-10.9717
▁Bru	-10.9764
térieur	-10.9787
arine	-10.9789
ér	-10.9841
▁acc	-10.9845
▁Robin	-10.988
ho	-10.9884
▁Olymp	-10.9892
ret	-10.991
2023-1382	-10.9914
illes	-10.9948
vaux	-10.9961
féré	-10.9983
éc	-10.9988
lette	-11.0031
matologie	-11.0062
▁vie	-11.0097
issa	-11.0107
Dam	-11.011
385	-11.0167
na	-11.0207
Die	-11.022
▁compos	-11.022
ang	-11.0254
▁forma	-11.0258
▁mentionn	-11.027
ancien	-11.0309
2023-1381	-11.0312
ateur	-11.0326
▁gé	-11.033
Jo	-11.0353
è	-11.0353
laine	-11.0362
loi	-11.0362
4-1	-11.0375
Andrée	-11.0377
sy	-11.0399
▁remplac	-11.0404
liard	-11.0425
uth	-11.0443
wart	-11.0445
ort	-11.0452
▁Cla	-11.0457
tenant	-11.053
▁neuro	-11.0532
ault	-11.0541
▁dix	-11.0551
10	-11.0566
mat	-11.057
▁Bois	-11.0598
bas	-11.0601
composit	-11.0618
troi	-11.0624
▁bénéfici	-11.0628
evalier	-11.0631
▁6146-1	-11.0638
eller	-11.0642
▁Pas	-11.0645
chie	-11.0655
publique	-11.0673
position	-11.0697
aqu	-11.0701
ède	-11.0703
▁Dela	-11.0729
▁physi	-11.0735
lles	-11.0749
▁ord	-11.0766
j	-11.0774
14	-11.0777
67	-11.0783
omm	-11.0801
éli	-11.0806
▁destin	-11.0832
hl	-11.0846
oy	-11.0865
▁spéci	-11.088
▁centr	-11.0909
sociale	-11.0922
conseil	-11.0926
ncienne	-11.0943
Nicol	-11.0954
Rabi	-11.0955
ao	-11.0968
min	-11.0968
recev	-11.0996
institution	-11.1003
▁U	-11.1017
Haut	-11.1025
Germain	-11.1037
mmi	-11.1063
ssembl	-11.1063
physicien	-11.1066
responsable	-11.1081
tenue	-11.1082
procédure	-11.1088
▁codirect	-11.1096
eille	-11.1099
chef	-11.1107
numér	-11.1125
va	-11.1136
maître	-11.1141
Guy	-11.1153
Geneviève	-11.1159
Bertrand	-11.116
Camille	-11.116
Danielle	-11.116
interven	-11.1161
travail	-11.1175
▁initia	-11.1186
outre	-11.1192
institut	-11.1195
ordonnance	-11.1196
Christian	-11.1198
onome	-11.1198
oyer	-11.1198
Joseph	-11.1199
protection	-11.1199
tation	-11.1201
Laurent	-11.1202
médicale	-11.1203
respect	-11.1203
René	-11.1203
effectu	-11.1205
Marguerite	-11.1206
cofondat	-11.1207
bat	-11.1208
habitants	-11.121
Guillaume	-11.121
préfète	-11.1211
technique	-11.1213
1-17	-11.1214
Henri	-11.1218
anomalies	-11.122
bles	-11.1235
heure	-11.124
196	-11.124
Marcel	-11.1244
Ed	-11.1248
▁délivr	-11.1251
cadre	-11.1251
Nord	-11.1258
fois	-11.1265
attribu	-11.1265
21	-11.1283
▁différen	-11.1288
gré	-11.1296
hydro	-11.1298
Guill	-11.1311
illard	-11.1315
▁vert	-11.1322
Est	-11.1327
man	-11.1357
compt	-11.136
▁Mét	-11.1363
titre	-11.1369
nie	-11.1375
hom	-11.1383
▁Je	-11.1384
épreuve	-11.1388
▁Cit	-11.1396
24	-11.1398
▁133-14-4	-11.1398
venu	-11.1411
Carol	-11.1413
aîn	-11.1424
ith	-11.1437
amment	-11.1439
▁prénom	-11.1441
▁spatial	-11.1447
Cou	-11.1459
impôt	-11.146
▁George	-11.1464
stitution	-11.1465
▁Sou	-11.1472
▁nécessaire	-11.1472
▁école	-11.1475
igné	-11.1495
peut	-11.1503
▁abrog	-11.1506
industri	-11.1506
▁transport	-11.1512
Ra	-11.1512
▁for	-11.1528
épreuves	-11.1529
compte	-11.1532
structure	-11.1534
▁2007	-11.1538
▁syndica	-11.1544
ispositif	-11.1546
▁appar	-11.155
Pa	-11.1552
Gen	-11.1557
Léon	-11.1561
fait	-11.1571
putée	-11.1574
▁médical	-11.1576
▁Guillaum	-11.1577
▁Simon	-11.1581
fédérat	-11.1583
▁statu	-11.1589
▁organis	-11.1591
▁assu	-11.1595
▁class	-11.1596
î	-11.1597
Ha	-11.1601
▁placé	-11.1604
endr	-11.1604
èg	-11.1615
utomatis	-11.1619
▁saisi	-11.162
adapt	-11.1621
▁Y	-11.1623
▁Yv	-11.1623
▁délibér	-11.1623
Mo	-11.1626
▁Tout	-11.1626
523	-11.1638
ider	-11.164
▁spatiale	-11.1646
▁arrêt	-11.1649
▁responsab	-11.1649
▁Robi	-11.1657
agi	-11.1658
Côt	-11.1661
mand	-11.1662
▁5785-	-11.1669
ogno	-11.167
rvoy	-11.1672
▁725-4-	-11.1674
▁communique	-11.1675
ssible	-11.1687
ccessi	-11.169
▁tribuna	-11.169
Lo	-11.1692
▁employ	-11.1695
▁Lucie	-11.1696
Ré	-11.1696
Po	-11.1697
▁2023-13	-11.1698
▁hui	-11.1699
initi	-11.17
Arm	-11.1702
ju	-11.1702
▁instru	-11.1702
▁sociét	-11.1703
gné	-11.1704
▁2122-19	-11.1704
Jeanne	-11.1705
▁rura	-11.1705
rganisation	-11.1707
affa	-11.1708
produit	-11.171
▁écriva	-11.1711
▁rembours	-11.1713
▁vérifi	-11.1714
▁honor	-11.1714
▁PRO	-11.1714
Sylv	-11.1715
▁départ	-11.1715
▁distribu	-11.1716
ecouvre	-11.1716
péd	-11.1717
tivité	-11.1717
▁profession	-11.1717
ogramme	-11.1717
lisabeth	-11.1718
ingénie	-11.1718
INS	-11.1718
Berna	-11.1718
asile	-11.1719
ologique	-11.1719
veloppe	-11.1719
cq	-11.1719
mpagne	-11.1719
ommissa	-11.1719
ticien	-11.1719
inscri	-11.1719
ufo	-11.172
rogé	-11.172
5-1-1.	-11.172
toria	-11.172
Atlan	-11.172
▁formula	-11.172
Dolor	-11.1721
bservat	-11.1721
Cata	-11.1721
matric	-11.1721
▁ordonn	-11.1721
▁prév	-11.1722
▁prépar	-11.1722
stitue	-11.1722
Ava	-11.1723
émie	-11.1724
organ	-11.1724
▁util	-11.1725
▁médic	-11.1726
itiqu	-11.1727
▁rempl	-11.1727
▁rapp	-11.1728
11-1	-11.1729
Com	-11.1729
▁délib	-11.1729
just	-11.1729
▁écologi	-11.173
off	-11.1731
▁rend	-11.1732
uiv	-11.1733
intervention	-11.1733
▁compren	-11.1734
échéan	-11.1736
2326	-11.1739
accessib	-11.1742
omain	-11.1745
veline	-11.1748
Sali	-11.1748
EC	-11.1749
mbert	-11.1749
▁disp	-11.175
armé	-11.1751
igueur	-11.1751
5-4	-11.1753
▁Franc	-11.1753
vocation	-11.1754
iatrie	-11.1755
iva	-11.1757
allin	-11.1758
▁famil	-11.1761
ône	-11.1761
Vio	-11.1764
▁Tou	-11.1765
fia	-11.1765
emette	-11.1765
exer	-11.1766
ouche	-11.1766
erritoire	-11.1766
▁corre	-11.1767
ucat	-11.1769
gali	-11.1769
ailleur	-11.1769
▁comb	-11.1772
ception	-11.1772
dric	-11.1772
néra	-11.1772
énat	-11.1773
imon	-11.1773
▁traite	-11.1774
mman	-11.1776
Gil	-11.1776
anisme	-11.1776
agent	-11.1777
anuel	-11.1779
fique	-11.178
ogat	-11.1782
ladi	-11.1785
ifique	-11.1786
▁Cl	-11.1788
Ou	-11.179
Bas	-11.179
alimenta	-11.1794
iatre	-11.1802
lten	-11.1806
Barr	-11.1809
ressé	-11.1809
aît	-11.1811
▁ten	-11.1811
Nat	-11.1814
éden	-11.1816
▁nationa	-11.182
5-1	-11.1822
hac	-11.1827
nisation	-11.1829
onneur	-11.1831
xan	-11.1837
▁imm	-11.1837
▁Jac	-11.1842
▁réuni	-11.1848
ande	-11.1849
rati	-11.185
ule	-11.1851
sée	-11.1852
▁posté	-11.1856
Ly	-11.1856
▁fou	-11.1858
▁règlement	-11.186
niel	-11.1862
ronne	-11.1864
199	-11.1864
nologie	-11.1877
ilisation	-11.189
OT	-11.1897
▁Ti	-11.1897
pital	-11.1899
anni	-11.1908
oc	-11.1917
tériels	-11.1918
54	-11.1918
avant	-11.1924
▁sim	-11.1927
▁agr	-11.1928
belle	-11.193
ître	-11.193
han	-11.1931
livier	-11.1933
▁inst	-11.1933
érati	-11.1938
146	-11.1944
ffra	-11.1945
▁nul	-11.1948
▁diff	-11.1956
▁133	-11.1962
▁rec	-11.1968
sign	-11.1976
car	-11.1977
▁manqu	-11.1978
▁Cél	-11.1981
ssan	-11.199
Cal	-11.1994
itaire	-11.2003
rom	-11.2008
Ins	-11.2009
▁per	-11.202
▁entr	-11.2038
bet	-11.2042
onnel	-11.2044
tamment	-11.2051
▁naturel	-11.2059
▁2017-	-11.206
▁pol	-11.2064
uvr	-11.2072
ticul	-11.2075
aîne	-11.2076
anitaire	-11.2089
cat	-11.2099
camp	-11.2101
ulta	-11.2104
istrat	-11.2107
Pr	-11.2107
Él	-11.2107
lina	-11.2122
oisi	-11.2122
rti	-11.2134
▁Guill	-11.2143
▁sui	-11.2154
▁Gu	-11.2157
hild	-11.2164
mm	-11.218
vers	-11.2183
▁conco	-11.2199
assistan	-11.2199
El	-11.2202
dan	-11.2215
▁resp	-11.2219
ric	-11.222
ula	-11.2229
neté	-11.2229
dien	-11.2232
▁référ	-11.2234
mpl	-11.2237
outr	-11.2245
milia	-11.2251
▁ban	-11.2261
▁Germain	-11.2267
bé	-11.2277
▁mini	-11.2293
oti	-11.2301
rit	-11.2313
Didi	-11.2314
vertu	-11.2318
itori	-11.2323
mandeur	-11.2326
▁Per	-11.2344
▁numér	-11.2357
▁territoriale	-11.2362
vel	-11.2373
▁É	-11.2394
▁effectu	-11.2396
▁Lo	-11.2419
dette	-11.2436
Re	-11.2465
▁effecti	-11.2465
▁recev	-11.2477
alisée	-11.2491
ons	-11.2504
▁61	-11.2508
Jeann	-11.2516
▁Gen	-11.2517
▁inte	-11.2518
erg	-11.2522
▁Nor	-11.2528
agence	-11.2533
interpr	-11.2534
uy	-11.2545
uelle	-11.2551
mental	-11.2557
éch	-11.2572
trois	-11.2591
nch	-11.26
geant	-11.2614
ratoire	-11.2615
fin	-11.2615
esse	-11.2623
▁red	-11.2633
étaire	-11.2651
hau	-11.2672
rtho	-11.2677
iga	-11.2677
utilisat	-11.2682
▁Nicol	-11.2695
pier	-11.2695
▁vol	-11.2698
évalu	-11.27
▁assi	-11.2704
chel	-11.2707
tification	-11.2721
mel	-11.2739
ali	-11.2743
lt	-11.2761
tal	-11.2772
tin	-11.278
Or	-11.2787
25	-11.2787
▁2021-	-11.279
▁soin	-11.2795
alie	-11.2809
éra	-11.2814
sette	-11.2824
28.	-11.2828
épar	-11.2835
rch	-11.284
ak	-11.2855
tienne	-11.2858
éta	-11.2876
▁Marte	-11.2881
mination	-11.2903
uil	-11.2913
▁Gi	-11.2926
prise	-11.2941
▁rép	-11.2947
▁cr	-11.2969
14-1	-11.2989
ger	-11.3008
iales	-11.3012
rise	-11.3037
▁Ber	-11.3045
Ar	-11.305
▁Pu	-11.3059
▁transf	-11.3073
▁interpr	-11.308
gés	-11.3091
▁Marce	-11.3111
ionne	-11.3112
sset	-11.3131
▁Ger	-11.3152
cher	-11.3157
har	-11.3165
▁Mi	-11.3175
▁promo	-11.3178
▁jo	-11.318
sonne	-11.3191
106	-11.3209
logie	-11.3212
nis	-11.3214
rien	-11.3223
▁Ol	-11.3242
omme	-11.3246
eng	-11.3254
équ	-11.326
reno	-11.3302
▁Da	-11.3342
iale	-11.3379
ibles	-11.338
érée	-11.3423
Ir	-11.3436
apport	-11.3441
▁Ann	-11.347
ager	-11.352
égi	-11.3531
▁versée	-11.3545
▁Ni	-11.3558
ym	-11.3587
accus	-11.3589
▁Ge	-11.3593
▁list	-11.3594
▁identi	-11.3605
▁sup	-11.3607
▁Christ	-11.3651
ust	-11.3679
iques	-11.3683
exis	-11.3694
▁é	-11.3698
rôle	-11.3701
▁im	-11.3762
ser	-11.3765
▁Ré	-11.3794
ourn	-11.3801
▁Duc	-11.3838
stres	-11.3861
▁atta	-11.3863
100	-11.3878
▁Che	-11.3896
▁gén	-11.3901
▁Ed	-11.3903
ros	-11.3904
▁Te	-11.3931
pré	-11.3969
ompa	-11.397
▁associati	-11.397
sto	-11.404
rad	-11.4049
▁Claud	-11.4073
taires	-11.408
▁sporti	-11.4162
appart	-11.4204
▁cond	-11.4258
▁Pasc	-11.4273
cil	-11.4283
nouvelle	-11.4305
dent	-11.4347
79	-11.4354
sk	-11.436
64	-11.4398
ind	-11.4399
erv	-11.4403
89	-11.4409
▁éle	-11.4412
ication	-11.4419
▁do	-11.4425
Vil	-11.4427
mil	-11.4452
taine	-11.4465
use	-11.4499
activ	-11.4507
ives	-11.4537
tissement	-11.4548
empl	-11.455
suel	-11.4575
▁Terr	-11.4587
oul	-11.4599
ars	-11.4637
▁cal	-11.4719
oyenne	-11.4812
▁rése	-11.4899
▁conce	-11.4919
êt	-11.4944
ension	-11.4962
▁Luc	-11.4963
lan	-11.4965
mité	-11.4971
rés	-11.5025
term	-11.5046
abo	-11.505
voc	-11.5099
▁renouvela	-11.5117
ary	-11.515
enti	-11.5209
om	-11.5223
▁Min	-11.524
rat	-11.5256
ieu	-11.5287
▁Gl	-11.5312
-9	-11.5366
▁cent	-11.5381
▁Arn	-11.542
sa	-11.5442
étente	-11.5464
niversité	-11.5498
lau	-11.5517
enn	-11.5518
tence	-11.5539
psychiatre	-11.5578
ral	-11.5587
jou	-11.5597
stra	-11.5599
82	-11.5653
serv	-11.5665
4,	-11.5677
elles	-11.5721
din	-11.5735
oly	-11.5778
ssier	-11.5782
lie	-11.5794
nz	-11.5794
métr	-11.5809
aze	-11.5846
ents	-11.5932
▁jug	-11.5959
légu	-11.597
▁Cat	-11.5979
ntat	-11.6007
ati	-11.6042
ari	-11.6052
mentionné	-11.6064
ewi	-11.6094
animat	-11.6171
ible	-11.6171
▁Jol	-11.6306
▁Dom	-11.634
avo	-11.6358
bitants	-11.6367
An	-11.6459
▁e	-11.6464
00	-11.6558
lè	-11.6686
posé	-11.6857
▁préven	-11.694
▁électr	-11.6972
mier	-11.6993
rib	-11.7025
éda	-11.7053
77	-11.7109
oins	-11.7166
sports	-11.7178
tif	-11.7225
▁Fo	-11.7348
lière	-11.7465
76	-11.7473
▁Bra	-11.7493
Mary	-11.7553
▁not	-11.7555
odi	-11.7562
form	-11.758
ili	-11.7592
▁ac	-11.7649
gin	-11.7698
ères	-11.7712
lus	-11.7742
▁présen	-11.775
assie	-11.7816
op	-11.7846
▁2010-	-11.786
yan	-11.7868
rme	-11.7897
eaux	-11.8
▁autorisa	-11.8015
Al	-11.8049
Es	-11.8153
▁associa	-11.816
las	-11.8236
▁tou	-11.8309
pita	-11.8487
to	-11.8617
lant	-11.8642
▁effect	-11.8687
gar	-11.871
cier	-11.8712
gé	-11.8889
pi	-11.9144
▁nu	-11.9202
emande	-11.9247
▁Cé	-11.9272
▁inform	-11.9275
▁pu	-11.9454
▁Gh	-11.9497
anto	-11.9545
hu	-11.9613
▁Dr	-11.9674
ropo	-11.9685
ell	-11.9697
abin	-11.9709
enant	-11.9824
gn	-11.9889
97	-11.9933
alli	-12.0008
▁préci	-12.0078
tes	-12.0168
III	-12.0178
Na	-12.0229
ga	-12.0238
dis	-12.0239
aul	-12.0391
▁(1	-12.0532
don	-12.0538
▁appli	-12.0585
dé	-12.059
cha	-12.0624
▁coordonn	-12.0721
▁présiden	-12.0753
▁Ir	-12.0942
aix	-12.0997
sier	-12.1049
▁ho	-12.1062
ires	-12.1141
4-1.	-12.1148
ert	-12.1267
▁Mil	-12.1312
13-1	-12.136
nes	-12.1427
électri	-12.1434
pa	-12.159
imés	-12.1683
lly	-12.17
▁dev	-12.1744
alis	-12.1772
▁An	-12.1818
gue	-12.1851
▁recou	-12.1911
▁in	-12.2063
▁Re	-12.2365
▁dépo	-12.2631
▁Pa	-12.2693
cili	-12.2701
mise	-12.2749
alin	-12.282
stre	-12.2918
nd	-12.2922
7-	-12.2952
▁soc	-12.2953
articles	-12.3057
▁Ren	-12.3289
ef	-12.3525
oma	-12.3547
errette	-12.3692
ntérieur	-12.3692
Mar	-12.3734
rente	-12.3763
▁Ma	-12.3783
arbie	-12.3824
▁anim	-12.392
Y	-12.557
“	-12.5571
É	-12.5572
H	-12.5573
F	-12.5574
»	-12.5575
«	-12.5576
;	-12.5577
(	-12.5578
q	-12.5579
