<unk>	0
<s>	0
</s>	0
▁de	-3.1006
'	-3.34325
s	-3.44832
▁	-3.47292
,	-3.50591
.	-3.79215
▁l	-3.93417
▁la	-3.94605
▁du	-3.99698
▁et	-4.19066
▁des	-4.2864
▁d	-4.34339
▁à	-4.3624
▁les	-4.70883
▁le	-4.72805
-	-4.76875
▁au	-4.8528
▁en	-4.86997
▁(	-4.89547
e	-4.94223
▁:	-4.97597
▁;	-5.10457
▁par	-5.17503
▁est	-5.18295
▁«	-5.1885
—	-5.35283
/	-5.36457
▁ou	-5.43304
)	-5.44223
▁L	-5.47861
▁dans	-5.54869
article	-5.55851
▁pour	-5.62234
▁M	-5.65182
▁aux	-5.78472
A	-5.83875
▁sont	-5.85679
▁Le	-5.89092
es	-5.9039
▁»	-5.92028
er	-5.93087
r	-5.93101
▁Mme	-5.95957
▁un	-5.99889
▁2023	-6.05646
).	-6.09568
▁sur	-6.09635
),	-6.15647
▁1	-6.18133
▁une	-6.19698
▁Les	-6.2198
un	-6.23437
▁présent	-6.2591
▁arrêté	-6.26095
▁ministre	-6.28992
▁qui	-6.31322
é	-6.31558
▁A	-6.3226
▁R	-6.40607
▁La	-6.42266
▁n	-6.4308
▁code	-6.44194
une	-6.45681
▁date	-6.5071
ment	-6.5101
S	-6.5515
▁fr	-6.56934
▁que	-6.58083
▁C	-6.58512
°	-6.60002
▁ainsi	-6.63348
▁B	-6.6521
t	-6.66483
lr	-6.67342
a	-6.67724
▁D	-6.69023
▁a	-6.74234
▁S	-6.75203
l	-6.75324
ant	-6.78396
▁portant	-6.81475
▁titre	-6.83737
▁services	-6.85996
▁P	-6.86557
▁être	-6.86582
▁2	-6.87466
▁mots	-6.87756
▁Arrêté	-6.87929
arrete	-6.89822
▁décret	-6.901
▁alinéa	-6.908
C	-6.91843
▁I	-6.92032
▁dispositions	-6.92758
de	-6.96227
n	-6.97449
▁sécurité	-6.9967
▁conditions	-7.01031
T	-7.01045
le	-7.01305
▁cas	-7.01819
y	-7.01941
il	-7.03249
u	-7.03304
▁leur	-7.03341
▁son	-7.03531
Etat	-7.0355
▁République	-7.03815
▁ne	-7.03955
▁française	-7.03986
▁ce	-7.045
▁avec	-7.05022
o	-7.06493
▁sera	-7.0684
▁Par	-7.07158
▁nationale	-7.07613
▁pas	-7.07981
▁sous	-7.0814
nt	-7.08489
▁général	-7.08979
▁3	-7.10247
▁ans	-7.12745
D	-7.13764
▁1°	-7.14239
▁2023,	-7.14256
▁générale	-7.14315
▁formation	-7.15364
▁officiel	-7.1635
▁directeur	-7.17004
d	-7.17505
▁compter	-7.17512
▁Au	-7.17766
ation	-7.18186
près	-7.18247
i	-7.1881
ur	-7.19764
▁chargé	-7.19836
c	-7.20241
administration	-7.20565
▁décembre	-7.20937
▁2°	-7.2139
2	-7.21846
g	-7.22343
▁qu	-7.22519
▁II	-7.22823
▁peut	-7.22927
it	-7.23174
▁santé	-7.23272
▁Journal	-7.23344
in	-7.23589
on	-7.23882
▁c	-7.23965
ou	-7.24234
E	-7.25397
H	-7.26157
▁Il	-7.26606
1	-7.27198
I	-7.27453
▁19	-7.28198
▁service	-7.28884
▁4	-7.29353
arrêté	-7.29418
P	-7.29552
▁5	-7.30238
▁publié	-7.31761
▁F	-7.31774
▁b	-7.31928
re	-7.32141
▁6	-7.32216
▁dont	-7.32384
N	-7.3359
▁professionnelle	-7.34042
M	-7.34288
▁<	-7.34628
>	-7.3464
TABLE	-7.34714
▁travail	-7.35569
▁V	-7.35635
▁sa	-7.36694
ent	-7.36833
▁G	-7.37129
▁même	-7.3745
p	-7.39911
▁demande	-7.40104
▁7	-7.4074
▁durée	-7.41096
▁se	-7.42928
▁ses	-7.44586
▁concours	-7.44619
en	-7.4484
cette	-7.44946
▁Pour	-7.45026
▁relatif	-7.45346
al	-7.45445
3	-7.45686
G	-7.48371
▁janvier	-7.4868
6	-7.48722
B	-7.4908
▁il	-7.49081
▁T	-7.4927
▁sociale	-7.49393
5	-7.49922
ci	-7.50268
an	-7.50343
b	-7.50365
▁plus	-7.50715
▁En	-7.50987
or	-7.51095
au	-7.51366
▁ministère	-7.51797
▁premier	-7.52512
▁-	-7.52712
ne	-7.53042
▁candidats	-7.53587
▁articles	-7.54791
▁application	-7.55078
▁professionnel	-7.55383
és	-7.55458
▁entre	-7.56543
4	-7.56777
▁société	-7.57125
▁21	-7.57309
▁susvisé	-7.57385
L	-7.57882
▁classe	-7.58105
▁modifié	-7.58569
▁juillet	-7.58595
▁liste	-7.589
▁ces	-7.59044
F	-7.59791
▁mise	-7.60268
▁mai	-7.60687
▁national	-7.61227
▁re	-7.61539
▁prévues	-7.61865
▁chef	-7.62254
▁CHU	-7.63336
▁qualité	-7.63966
age	-7.64066
R	-7.64458
ra	-7.65985
exécution	-7.66213
ée	-7.66468
▁finances	-7.66561
▁Paris	-7.66623
▁12	-7.67411
▁compte	-7.67558
ch	-7.68312
▁personnes	-7.68587
▁III	-7.68719
▁après	-7.68806
▁ré	-7.68828
▁31	-7.68869
▁N	-7.69079
▁montant	-7.69087
▁publique	-7.69141
8	-7.69314
▁DE	-7.69822
▁contrôle	-7.70029
7	-7.70077
▁direction	-7.70233
▁H	-7.70492
m	-7.7052
la	-7.70605
▁septembre	-7.70721
is	-7.70791
9	-7.71004
di	-7.72569
▁cadre	-7.72593
▁3°	-7.72628
▁Marie	-7.73081
▁juin	-7.73279
v	-7.73402
▁publics	-7.73513
f	-7.73848
ar	-7.73861
▁non	-7.73907
▁8	-7.74008
▁novembre	-7.74106
application	-7.74225
▁justice	-7.74459
▁avril	-7.74773
▁public	-7.74794
▁dossier	-7.74946
▁mars	-7.75032
▁2022	-7.75133
O	-7.75471
▁nomination	-7.7569
▁candidat	-7.75705
▁p	-7.75932
V	-7.7601
el	-7.7633
et	-7.76614
▁suivantes	-7.76688
▁fin	-7.77014
▁deux	-7.77298
▁peuvent	-7.77329
0	-7.77547
at	-7.7771
▁tous	-7.78255
▁médecine	-7.79003
▁recherche	-7.79181
im	-7.79192
▁octobre	-7.79665
▁Art	-7.80233
exercice	-7.80934
▁con	-7.81269
▁mois	-7.8182
année	-7.81907
IN	-7.81964
▁modalités	-7.82482
▁convention	-7.82756
▁9	-7.83243
▁20	-7.83369
▁février	-7.83489
▁conseil	-7.83815
▁»,	-7.84407
▁30	-7.84569
▁fonctions	-7.84776
te	-7.85032
▁fonction	-7.85847
mer	-7.85961
▁gestion	-7.86203
▁E	-7.86402
h	-7.86702
▁13	-7.87177
▁moins	-7.87241
▁civile	-7.87622
ées	-7.88645
▁10	-7.89251
est	-7.89466
▁numérique	-7.89505
▁titulaire	-7.89556
EN	-7.89663
▁dé	-7.89949
▁22	-7.90261
▁11	-7.91249
▁août	-7.9127
aux	-7.91517
▁œuvre	-7.91533
▁charge	-7.91701
▁supérieur	-7.91775
ine	-7.91925
▁notaire	-7.91942
▁15	-7.92444
ol	-7.92544
▁remplacés	-7.92915
▁situation	-7.9322
▁France	-7.93674
232	-7.94319
▁doit	-7.94381
231	-7.94714
▁16	-7.94844
▁chaque	-7.95036
ri	-7.95363
▁règlement	-7.95638
enseignement	-7.95964
▁mentionnées	-7.96168
▁section	-7.96196
▁in	-7.96495
▁conformé	-7.9725
▁nom	-7.97359
230	-7.98094
intérieur	-7.98471
▁comptes	-7.9852
évaluation	-7.98667
▁président	-7.98769
Y	-7.99292
▁leurs	-7.99738
▁limite	-7.99775
ON	-7.99878
information	-7.9998
▁loi	-7.9999
us	-8.00704
▁compétences	-8.00947
objet	-8.01231
▁m	-8.01298
▁notamment	-8.01368
▁23	-8.01754
▁Conseil	-8.01843
▁selon	-8.0204
ER	-8.02244
▁rédigé	-8.02353
▁cours	-8.02482
▁nombre	-8.02887
▁voie	-8.03076
ette	-8.03224
▁annexe	-8.03416
économie	-8.03453
▁mentionnés	-8.03588
▁corps	-8.03696
▁comme	-8.044
▁IV	-8.04478
emploi	-8.04634
OU	-8.04772
▁personne	-8.049
É	-8.05132
▁2024	-8.05233
▁14	-8.0565
▁».	-8.05817
▁tout	-8.06318
▁données	-8.06395
▁avant	-8.06401
▁remplacé	-8.06635
▁17	-8.06736
k	-8.06788
▁sein	-8.06886
▁certificat	-8.07102
mi	-8.0712
▁si	-8.07341
inscription	-8.07451
▁membres	-8.07767
U	-8.07854
épreuve	-8.0793
▁judiciaire	-8.08265
▁grade	-8.08458
ensemble	-8.08777
▁Jean	-8.09173
▁outre	-8.0936
annexe	-8.09889
▁f	-8.09899
▁référence	-8.09915
me	-8.1015
ct	-8.10394
ES	-8.10516
accès	-8.10631
▁droit	-8.10709
▁délai	-8.114
▁ci	-8.11971
▁contrat	-8.12166
eur	-8.12361
ie	-8.12481
aire	-8.12533
▁concerne	-8.12542
▁souveraineté	-8.12764
▁traitement	-8.12898
▁bureau	-8.12944
▁prise	-8.13471
▁24	-8.13505
ul	-8.13515
ité	-8.13521
▁Ce	-8.13778
que	-8.1411
▁techniques	-8.14204
▁Dans	-8.14205
▁respect	-8.14342
ac	-8.14465
établissement	-8.14565
▁trois	-8.146
▁prévue	-8.14764
organisation	-8.1487
ir	-8.15088
▁site	-8.15165
▁fait	-8.15226
▁commission	-8.15241
li	-8.15566
▁commissaire	-8.15605
▁mentionnée	-8.15963
▁4°	-8.17021
▁J	-8.17041
eau	-8.17245
▁épreuves	-8.17328
▁Saint	-8.17634
▁2023.	-8.1771
z	-8.17813
min	-8.18068
cret	-8.18256
▁échéant	-8.18294
▁fixant	-8.18388
ro	-8.18624
▁25	-8.18644
▁mentionné	-8.18704
les	-8.18786
am	-8.19263
▁période	-8.19337
▁mot	-8.19401
▁deuxième	-8.19463
▁été	-8.19963
aide	-8.2007
▁représentant	-8.20286
ré	-8.2034
▁activités	-8.20625
énergie	-8.20792
ance	-8.20807
fr	-8.21032
▁Un	-8.21255
▁niveau	-8.21276
ab	-8.21654
▁pro	-8.21974
id	-8.21995
activité	-8.22032
▁soit	-8.22125
▁ayant	-8.22274
▁collective	-8.2237
AN	-8.22511
▁article	-8.22519
▁28	-8.22999
▁vigueur	-8.23033
▁ANNEXE	-8.23358
accord	-8.24324
▁réserve	-8.24672
▁rapport	-8.249
▁affaires	-8.24982
▁département	-8.25047
▁travaux	-8.25174
▁18	-8.25528
▁27	-8.25921
vi	-8.2649
▁membre	-8.26657
organisme	-8.26722
▁partie	-8.26785
▁chargés	-8.26857
ement	-8.2686
w	-8.269
▁%	-8.26908
th	-8.27139
▁sans	-8.27247
tra	-8.2754
▁chacun	-8.27719
▁26	-8.27872
▁agents	-8.27894
▁présente	-8.27921
▁pré	-8.28581
action	-8.28784
K	-8.28822
▁électronique	-8.29022
▁Décret	-8.29346
▁lieu	-8.29738
▁établissements	-8.29796
nd	-8.29826
▁industrielle	-8.30033
environnement	-8.30061
▁informations	-8.30099
▁centre	-8.30183
▁opérations	-8.30268
▁relatives	-8.3037
▁mission	-8.30416
▁recrutement	-8.30551
du	-8.30584
AL	-8.30785
▁plan	-8.30867
▁produits	-8.31181
▁résidence	-8.3127
ti	-8.31482
▁nature	-8.31534
autorité	-8.31871
▁inter	-8.32084
▁police	-8.32103
qu	-8.32207
▁2021	-8.3231
▁applicables	-8.32377
▁é	-8.32769
▁première	-8.33024
▁projet	-8.33326
▁h	-8.33559
à	-8.34114
um	-8.34362
1-1	-8.34531
▁autres	-8.34666
▁droits	-8.35184
▁publiques	-8.35814
▁Elle	-8.35887
elle	-8.36385
▁protection	-8.36514
éducation	-8.36938
ot	-8.37034
isation	-8.37227
x	-8.37305
ge	-8.37426
▁tableau	-8.37451
lo	-8.37511
▁«-	-8.37578
▁chapitre	-8.37797
ion	-8.37882
▁dernier	-8.38076
▁hors	-8.38295
▁g	-8.38341
ence	-8.38365
▁actes	-8.38374
▁heures	-8.38376
RE	-8.384
▁directrice	-8.38401
ique	-8.38416
▁ligne	-8.38761
▁responsabilité	-8.38766
▁ex	-8.38979
ard	-8.39163
▁partir	-8.39224
▁suivi	-8.39374
éri	-8.3952
-5	-8.40734
▁place	-8.40785
▁garde	-8.40894
▁nommé	-8.40911
▁défense	-8.40923
▁région	-8.40971
▁accord	-8.41019
▁v	-8.41222
▁jusqu	-8.41336
▁délégué	-8.41524
tre	-8.41837
▁29	-8.42299
▁doivent	-8.42437
▁prévention	-8.42437
▁médecin	-8.42692
▁K	-8.42875
▁tard	-8.42906
▁€	-8.43065
22	-8.43304
ia	-8.43358
▁compris	-8.43611
▁zone	-8.43705
ite	-8.43912
▁technique	-8.44211
▁faire	-8.44261
▁ressources	-8.4428
▁retraite	-8.44534
RI	-8.44543
examen	-8.44568
té	-8.44795
▁prévu	-8.44908
▁production	-8.45012
▁également	-8.4508
as	-8.45746
CH	-8.46058
ad	-8.46134
lle	-8.46387
exploitation	-8.46558
▁gaz	-8.46566
2-1	-8.46873
▁“	-8.46883
▁toute	-8.47539
▁matière	-8.47916
▁suivant	-8.47917
▁programme	-8.48038
our	-8.48197
EL	-8.48475
▁mis	-8.4849
▁2.	-8.48524
▁personnel	-8.48679
▁type	-8.48874
▁décision	-8.49291
00	-8.49494
UE	-8.49548
▁adjoint	-8.49729
ill	-8.49784
om	-8.49997
appel	-8.50362
▁publication	-8.50467
-4	-8.50478
▁o	-8.51134
20	-8.5125
mé	-8.51329
art	-8.51337
13	-8.5142
▁relevant	-8.51477
▁effet	-8.51598
▁nommée	-8.51661
tri	-8.51805
▁sceaux	-8.52266
lé	-8.52412
▁jour	-8.52552
▁2019	-8.5278
dit	-8.53371
▁suivante	-8.53933
▁lorsque	-8.53981
eurs	-8.5425
ier	-8.54326
▁règles	-8.54361
▁tribunal	-8.54468
Z	-8.5456
▁entreprises	-8.54693
op	-8.55213
▁modifiant	-8.55519
ateur	-8.5555
▁transition	-8.55624
ve	-8.55894
ouverture	-8.56253
▁ont	-8.56437
▁territoires	-8.56732
adresse	-8.57012
▁réalisation	-8.57203
11	-8.57574
ET	-8.57858
▁culture	-8.57984
▁lors	-8.58167
▁complété	-8.5828
▁mention	-8.58436
agriculture	-8.58459
▁prend	-8.58462
▁interne	-8.58477
▁autre	-8.5849
▁épouse	-8.5853
sion	-8.5856
ction	-8.58643
ale	-8.58885
J	-8.58963
▁chargée	-8.59073
na	-8.59099
▁spécialité	-8.59858
▁fixé	-8.60072
cl	-8.60102
▁diplôme	-8.60732
▁université	-8.60903
▁transport	-8.6091
▁remplacée	-8.6102
▁collectivités	-8.61202
che	-8.61439
▁certification	-8.61782
▁pris	-8.61856
installation	-8.62009
▁De	-8.62097
▁5°	-8.62158
▁suivants	-8.62246
▁fixée	-8.62262
▁Sont	-8.62297
▁professionnels	-8.62343
▁définies	-8.62396
▁maritime	-8.62434
IER	-8.6249
▁mesures	-8.62741
▁défaut	-8.62947
▁permettant	-8.6299
▁actions	-8.63051
ille	-8.63082
▁développement	-8.63287
▁poste	-8.63778
ut	-8.63964
eu	-8.6401
po	-8.64015
▁DU	-8.64092
▁physique	-8.64203
▁préfet	-8.6422
▁ingénieur	-8.64237
01	-8.64291
▁port	-8.64427
▁elle	-8.64505
▁secrétaire	-8.648
▁suit	-8.64949
▁nécessaires	-8.65303
▁contre	-8.65375
▁comité	-8.65551
ag	-8.65584
▁phrase	-8.65739
ont	-8.65941
▁jours	-8.65947
ible	-8.65966
to	-8.66222
23	-8.66759
ic	-8.67158
ce	-8.67171
▁documents	-8.67283
▁armées	-8.67485
-1	-8.68126
▁disposition	-8.68146
▁valeur	-8.68151
ère	-8.6816
utilisation	-8.68224
able	-8.68225
▁système	-8.68289
ils	-8.68292
▁toutes	-8.68323
▁pièces	-8.68585
▁DES	-8.68704
▁éléments	-8.68874
▁livre	-8.69093
▁afin	-8.69185
▁financement	-8.69236
▁domaine	-8.69314
▁profession	-8.69417
233	-8.69433
ay	-8.69461
assurance	-8.70042
▁responsable	-8.70139
ordre	-8.70196
▁jury	-8.70297
▁co	-8.7033
aviation	-8.70355
▁2020	-8.70402
▁régionale	-8.70512
OR	-8.70785
lu	-8.70842
AT	-8.7097
▁part	-8.70984
con	-8.71038
▁000	-8.71057
▁forme	-8.71094
▁LA	-8.71127
AM	-8.71219
▁structure	-8.7133
ta	-8.71369
▁remplacement	-8.71388
▁plusieurs	-8.7153
▁modification	-8.71745
état	-8.71799
▁document	-8.71803
▁groupe	-8.71892
tte	-8.72193
AR	-8.72304
▁six	-8.72391
▁établi	-8.72437
▁conclu	-8.72481
ca	-8.72543
▁territoire	-8.72601
▁administrateur	-8.72861
25	-8.72871
Institut	-8.7298
▁médicale	-8.72996
(	-8.73031
21	-8.73082
▁modifiée	-8.73143
3-1	-8.73324
mo	-8.73368
-3	-8.73505
▁humaines	-8.73512
▁médical	-8.73534
▁procédure	-8.73695
mp	-8.73861
TE	-8.73952
ôpitaux	-8.74205
▁1.	-8.74214
▁admis	-8.74227
eux	-8.7432
▁charges	-8.74523
▁dispositif	-8.74636
▁base	-8.74902
-2	-8.74911
aires	-8.74945
▁temps	-8.74948
effet	-8.75272
▁Ces	-8.7531
▁cet	-8.75335
▁logement	-8.75655
▁Lorsque	-8.75737
iste	-8.75817
oc	-8.75853
▁écologique	-8.75947
▁champ	-8.76115
▁réception	-8.76156
12	-8.7625
▁postes	-8.76464
▁y	-8.76781
▁troisième	-8.76842
▁O	-8.76896
tion	-8.76899
▁avis	-8.7691
AC	-8.77028
▁communication	-8.77178
AS	-8.77377
▁paragraphe	-8.77426
int	-8.77531
▁donnée	-8.77626
▁celles	-8.77745
▁taux	-8.77849
ph	-8.78046
ure	-8.78093
▁relative	-8.78179
ssistance	-8.7855
1-2	-8.78595
rie	-8.78631
▁pêche	-8.78745
ARD	-8.7915
▁soins	-8.79186
CE	-8.79244
▁personnels	-8.79277
▁gendarmerie	-8.7935
▁fixées	-8.79393
▁Pierre	-8.79505
▁inséré	-8.79563
▁défini	-8.79607
▁lui	-8.79725
30	-8.79849
▁sens	-8.79897
▁maladie	-8.80087
entité	-8.80451
and	-8.80526
opération	-8.80773
▁0	-8.80992
▁budget	-8.81007
▁supérieure	-8.81475
50	-8.81485
▁t	-8.81652
▁emploi	-8.81827
▁européen	-8.82413
▁accessible	-8.82424
▁point	-8.82532
gé	-8.82665
TRE	-8.82724
gi	-8.82772
Pierre	-8.828
▁pendant	-8.8293
tique	-8.83096
remière	-8.83186
52	-8.83346
▁cohésion	-8.8341
unité	-8.83895
▁agréé	-8.83929
53	-8.83994
▁organismes	-8.84131
ma	-8.84469
ni	-8.84472
▁an	-8.84544
éli	-8.8481
▁prendre	-8.84951
▁soumis	-8.85
IS	-8.85017
agrément	-8.85184
ise	-8.85325
ric	-8.85548
LE	-8.86001
▁LE	-8.86143
▁suppléant	-8.86173
iv	-8.86319
▁principal	-8.86321
Agence	-8.86384
▁handicap	-8.86622
av	-8.86648
▁exercer	-8.87122
entreprise	-8.87332
▁salariés	-8.87368
▁adjointe	-8.8737
accueil	-8.87503
ign	-8.87794
▁précise	-8.8788
SPR	-8.87987
▁déclaration	-8.88021
▁prestations	-8.88149
rant	-8.88299
gouv	-8.88307
▁laquelle	-8.884
ha	-8.88473
▁social	-8.88595
10	-8.88669
officiers	-8.88701
▁gestionnaire	-8.88757
▁bis	-8.88811
▁tenu	-8.89128
▁régime	-8.89138
▁étrangères	-8.89291
▁spécialités	-8.89436
15	-8.89553
▁limitée	-8.8959
75	-8.89633
▁missions	-8.89671
▁associés	-8.89706
31	-8.89734
▁Publique	-8.8983
intérêt	-8.89926
▁centrale	-8.90064
▁texte	-8.90167
▁complémentaire	-8.90268
fi	-8.90353
office	-8.90532
OT	-8.90662
▁navire	-8.90827
ens	-8.91006
▁In	-8.91438
▁VI	-8.91476
▁décisions	-8.9155
▁correspondant	-8.92019
autorisation	-8.9213
aptitude	-8.92461
▁état	-8.92636
▁cheffe	-8.92825
▁celle	-8.92861
▁vol	-8.92878
NE	-8.92887
ME	-8.92933
▁douanes	-8.93449
▁statut	-8.93578
60	-8.93587
▁susvisée	-8.93605
▁systèmes	-8.93842
▁Si	-8.94068
tif	-8.94181
co	-8.94339
▁32	-8.94417
▁moyens	-8.94489
ologie	-8.94503
voir	-8.94593
▁applicable	-8.94595
▁vue	-8.94687
▁cabinet	-8.94753
▁comporte	-8.94957
▁européenne	-8.95069
▁délégation	-8.95158
▁Ma	-8.952
▁administrative	-8.9528
OL	-8.95307
▁6°	-8.95317
RO	-8.95351
▁63	-8.95368
▁W	-8.95399
▁second	-8.95646
▁née	-8.95728
▁cahier	-8.95819
▁transports	-8.95913
▁aérienne	-8.95953
▁libéral	-8.96023
▁activité	-8.96093
JUSC	-8.96123
▁vice	-8.96126
▁réseau	-8.96157
▁commerce	-8.96177
▁temporaire	-8.96227
▁utilisé	-8.96227
▁procédures	-8.9625
70	-8.96317
no	-8.96546
ter	-8.96619
32	-8.96628
▁3.	-8.9677
▁cinq	-8.96827
71	-8.96884
▁ministériels	-8.97008
▁inscriptions	-8.97144
27	-8.97218
▁ET	-8.9723
après	-8.97347
▁compétente	-8.97386
78	-8.9755
▁scientifique	-8.97672
▁catégorie	-8.97726
if	-8.97729
14	-8.97775
▁désigné	-8.97829
▁attributions	-8.97984
avenant	-8.9819
ex	-8.98333
▁moyen	-8.98411
admission	-8.98422
▁internet	-8.9855
▁risques	-8.9856
▁externe	-8.98612
ue	-8.9868
▁abrogé	-8.98979
EC	-8.99045
▁faisant	-8.99296
usage	-8.99599
46	-8.99822
▁économique	-8.99863
▁celui	-8.99932
ap	-9.00036
55	-9.00199
▁proposition	-9.00377
.1.	-9.0044
CI	-9.00442
ili	-9.00572
▁nouvelle	-9.0058
ui	-9.00807
▁signer	-9.00932
ten	-9.01031
80	-9.01147
▁né	-9.01151
espace	-9.01172
ins	-9.01307
ative	-9.01471
▁situé	-9.01539
mar	-9.01558
▁emplois	-9.01562
▁bâtiment	-9.01713
dé	-9.01768
▁constaté	-9.01814
▁secteur	-9.01918
47	-9.02004
ATION	-9.0202
▁produit	-9.02099
▁communes	-9.02226
24	-9.02281
42	-9.02497
4-1	-9.02663
▁référentiel	-9.02736
▁dérogation	-9.02789
▁61	-9.02804
▁chambre	-9.02898
▁principale	-9.02971
▁transmis	-9.02989
▁2024.	-9.0304
▁Ch	-9.03082
85	-9.03104
▁relatifs	-9.03141
▁patients	-9.03205
entrée	-9.03235
▁capacité	-9.03282
2-2	-9.03479
▁orale	-9.03505
TI	-9.0364
France	-9.03804
man	-9.03859
▁insérés	-9.03894
os	-9.03916
▁4.	-9.03965
▁juge	-9.04
▁Président	-9.04055
▁figurant	-9.04055
▁cour	-9.04193
▁41	-9.04405
jo	-9.04466
▁comptable	-9.04494
▁ajouté	-9.04679
pr	-9.04768
33	-9.04875
▁Nige	-9.05078
▁avoir	-9.05191
end	-9.05279
▁équipements	-9.05291
17	-9.05381
▁Centre	-9.05435
://	-9.05552
41	-9.05803
AP	-9.05814
alité	-9.05923
▁mesure	-9.06046
▁parcours	-9.06137
val	-9.06254
▁dernière	-9.06409
▁études	-9.06478
▁dépenses	-9.06532
IT	-9.06581
teur	-9.06583
ive	-9.06645
▁français	-9.06674
bi	-9.06797
absence	-9.06865
▁professeur	-9.06977
▁siège	-9.06977
▁représentants	-9.06979
▁seront	-9.07139
▁raison	-9.07149
▁conforme	-9.07153
▁Ro	-9.07267
Une	-9.07418
▁année	-9.07631
▁82	-9.07655
81	-9.07664
▁eaux	-9.07677
▁installations	-9.07702
▁Con	-9.07975
ho	-9.08038
all	-9.0823
-10	-9.08296
▁paiement	-9.08471
▁33	-9.08507
ist	-9.08771
▁rémunération	-9.0878
elles	-9.08783
▁concernant	-9.0894
ces	-9.08977
expérience	-9.08993
gra	-9.09084
IR	-9.09088
out	-9.09104
▁télé	-9.09286
Ecole	-9.09346
va	-9.09481
he	-9.09691
insertion	-9.09811
▁rang	-9.09823
49	-9.09834
mb	-9.09986
59	-9.10063
▁exigences	-9.10064
▁création	-9.10094
▁particulier	-9.10105
aud	-9.10113
▁Commission	-9.10164
inspection	-9.10577
▁comprend	-9.1058
ations	-9.1068
▁quatre	-9.10764
56	-9.10873
aménagement	-9.10954
ANT	-9.10966
▁recours	-9.11052
éco	-9.11067
hu	-9.11119
Marie	-9.11152
▁patient	-9.11194
07	-9.11208
▁surface	-9.11351
issue	-9.11365
DE	-9.11504
▁Est	-9.11517
2-3	-9.11705
ain	-9.1194
▁autorisation	-9.11985
▁construction	-9.12006
▁militaire	-9.12307
/20	-9.12326
64	-9.12338
ière	-9.12488
gue	-9.12597
16	-9.12844
équipe	-9.12845
gn	-9.12846
W	-9.12924
res	-9.12947
cha	-9.13347
ub	-9.13373
▁normale	-9.13543
▁examens	-9.13596
accompagnement	-9.13613
87	-9.13741
Jean	-9.13881
agent	-9.13927
cu	-9.14099
58	-9.14246
▁maîtrise	-9.1425
▁jeunesse	-9.14255
▁sport	-9.14357
72	-9.14387
onne	-9.14473
▁Mar	-9.14497
ori	-9.14497
▁groupement	-9.14543
ales	-9.14636
ord	-9.14702
▁2016	-9.14723
port	-9.1478
cr	-9.14839
▁nommés	-9.14919
▁Des	-9.14953
form	-9.14981
▁Partie	-9.15084
▁2018	-9.15152
▁vie	-9.15223
▁fixe	-9.15242
48	-9.1525
▁régional	-9.15275
ais	-9.15348
▁frais	-9.15444
51	-9.15498
▁numéro	-9.15546
colonel	-9.15549
▁militaires	-9.15608
RA	-9.15669
▁technicien	-9.15676
od	-9.1579
▁énergétique	-9.1592
ib	-9.15933
▁précédent	-9.15982
ien	-9.16041
▁renouvellement	-9.16107
chef	-9.16182
▁comp	-9.16186
ver	-9.1636
▁établissement	-9.16372
▁matières	-9.16404
▁conseiller	-9.16521
ig	-9.16644
X	-9.16786
.2.	-9.16899
▁Délégation	-9.16986
93	-9.17033
opérateur	-9.17078
▁calcul	-9.17107
▁35	-9.17119
▁2017	-9.17158
instruction	-9.17365
▁égal	-9.17381
Union	-9.17466
étranger	-9.17554
▁fonctionnement	-9.17555
UR	-9.17895
▁caractère	-9.17935
ix	-9.17971
▁dépôt	-9.18127
urgence	-9.18127
▁unique	-9.18184
▁sanitaire	-9.1819
ire	-9.18215
pi	-9.18323
ort	-9.18414
▁adresse	-9.18425
▁tant	-9.18509
abilité	-9.18568
ron	-9.18637
▁Lyon	-9.18769
18	-9.18969
▁note	-9.18972
vers	-9.19038
▁bord	-9.19097
▁obligatoires	-9.19135
▁total	-9.19238
exception	-9.1928
intéressé	-9.19281
ari	-9.19366
▁milieu	-9.19611
aut	-9.19649
hi	-9.19712
▁civil	-9.1973
▁maître	-9.19733
extension	-9.19774
agence	-9.19776
▁client	-9.19798
▁dispose	-9.19928
ois	-9.20037
▁candidature	-9.20067
26	-9.20093
▁Michel	-9.20101
▁alimentaire	-9.20383
▁pédagogique	-9.20514
28	-9.20537
exploitant	-9.20579
lement	-9.20616
▁ma	-9.20657
AU	-9.20726
▁lorsqu	-9.20773
91	-9.20786
▁acquis	-9.20811
expérimentation	-9.20841
▁Cha	-9.20869
ST	-9.20878
02	-9.20903
40	-9.2092
▁politique	-9.20933
▁sol	-9.21032
▁choix	-9.21037
▁annuel	-9.21095
identification	-9.21366
ang	-9.21385
ger	-9.21444
2023	-9.21541
94	-9.21547
▁Re	-9.21584
▁propre	-9.21698
67	-9.21711
▁maximum	-9.21828
air	-9.2183
▁bas	-9.21843
applique	-9.21876
vé	-9.2188
tes	-9.22048
▁transmission	-9.22051
05	-9.22124
▁plein	-9.22161
▁tarif	-9.22167
tant	-9.22221
06	-9.22305
ob	-9.22354
engagement	-9.22363
SE	-9.22762
▁page	-9.22797
▁Anne	-9.22818
pli	-9.22888
88	-9.22956
ables	-9.2315
ww	-9.2333
▁mettre	-9.23392
▁associé	-9.23561
dessous	-9.23848
▁euros	-9.23852
up	-9.23908
par	-9.2398
09	-9.24001
03	-9.24119
▁ter	-9.24202
▁sanctions	-9.24234
▁support	-9.24239
▁ceux	-9.24281
▁trans	-9.24289
▁Ier	-9.24406
ba	-9.24412
74	-9.24477
▁définie	-9.24479
▁seule	-9.24481
▁résultats	-9.24517
cé	-9.24612
▁navigation	-9.24714
▁rubrique	-9.24714
▁administratif	-9.24806
04	-9.2481
SS	-9.24818
▁fonds	-9.24919
77	-9.25003
TH	-9.2508
▁permettre	-9.25214
66	-9.25368
▁fonctionnaires	-9.25588
▁François	-9.2559
▁ski	-9.25612
▁Parlement	-9.25694
éro	-9.25694
origine	-9.25741
offre	-9.25743
▁aides	-9.25746
35	-9.25854
pa	-9.25892
▁avenant	-9.26052
▁performance	-9.26086
▁années	-9.26131
96	-9.26159
intervention	-9.26265
▁rue	-9.26279
▁Article	-9.26293
▁permet	-9.2633
ali	-9.26396
be	-9.2641
57	-9.26482
MTR	-9.26494
▁écrite	-9.26501
inscrit	-9.26543
▁salariée	-9.26707
▁financier	-9.26712
▁transformation	-9.26713
1-3	-9.26771
▁risque	-9.26777
95	-9.26783
appui	-9.26856
mm	-9.26881
▁étendu	-9.26921
audit	-9.26961
3-2	-9.2705
68	-9.27062
89	-9.27149
▁créé	-9.27175
extrait	-9.272
OUR	-9.27213
▁porte	-9.27239
ran	-9.27239
▁U	-9.27388
▁commune	-9.27427
▁surveillance	-9.27546
▁pension	-9.27616
▁prévus	-9.27658
naire	-9.27745
▁fois	-9.27757
oire	-9.27798
▁po	-9.27858
▁obligations	-9.27922
▁garantie	-9.28011
▁début	-9.28038
▁vis	-9.28053
▁conformité	-9.28144
▁stage	-9.28329
▁employeurs	-9.28381
éré	-9.28416
5-1	-9.28451
▁minutes	-9.28461
08	-9.28737
▁projets	-9.2875
▁objectifs	-9.28962
oul	-9.29104
▁consommation	-9.29341
obligation	-9.29359
34	-9.29484
▁administratives	-9.29497
▁marché	-9.29619
90	-9.29709
▁critères	-9.29747
▁titulaires	-9.29759
36	-9.2981
▁supprimés	-9.29855
fin	-9.30138
▁rural	-9.3032
92	-9.30345
▁pôle	-9.30388
▁nécessaire	-9.30429
▁pharmaceutiques	-9.30481
43	-9.30488
acte	-9.30509
▁ouvert	-9.30575
EAU	-9.30817
OM	-9.30889
▁2006	-9.30926
▁telle	-9.31047
ry	-9.31165
▁7°	-9.31179
▁Ré	-9.31241
▁concernés	-9.31264
▁destiné	-9.31269
▁unités	-9.31293
direction	-9.31318
▁Pro	-9.31337
atrice	-9.31361
▁délivré	-9.31386
▁annexé	-9.31548
▁manière	-9.31549
exclusion	-9.31635
pro	-9.31673
▁recettes	-9.31704
▁Ca	-9.31755
▁attaché	-9.31844
pt	-9.31977
▁Louis	-9.32014
▁Gouvernement	-9.3206
▁Cour	-9.32174
▁secrétariat	-9.32206
86	-9.32207
ert	-9.32348
ront	-9.32387
▁crédits	-9.32446
att	-9.32478
enne	-9.32486
▁session	-9.3256
▁associée	-9.32619
19	-9.32916
ly	-9.32947
▁administratifs	-9.33026
▁Philippe	-9.33044
▁34	-9.33227
ec	-9.33264
AD	-9.33295
électricité	-9.33536
▁méthode	-9.33536
qui	-9.33655
▁zones	-9.33825
intégralité	-9.33839
▁agent	-9.33908
▁régi	-9.33926
asse	-9.33943
▁délivrance	-9.33984
▁déchets	-9.33984
▁consulter	-9.34283
▁contenu	-9.34283
62	-9.34513
▁Val	-9.34604
45	-9.34688
79	-9.34695
▁fond	-9.34776
44	-9.34779
76	-9.34833
▁foi	-9.34851
da	-9.34854
anc	-9.3491
LA	-9.34966
▁office	-9.34993
▁modèle	-9.35111
section	-9.35121
▁Co	-9.35133
▁commun	-9.3523
29	-9.35283
▁clôture	-9.35337
▁présentation	-9.35415
▁Z	-9.35417
com	-9.35444
▁concession	-9.35489
mont	-9.35527
▁lesquelles	-9.35582
▁fourni	-9.35595
▁naturel	-9.35602
être	-9.3572
ud	-9.3575
▁mon	-9.35771
▁restant	-9.35795
▁Dé	-9.3591
position	-9.35931
si	-9.35973
chez	-9.36082
▁minimum	-9.36098
pér	-9.36284
IE	-9.36374
▁j	-9.36406
▁territoriale	-9.36476
▁connaissance	-9.36497
▁parties	-9.36573
▁tiers	-9.36624
ing	-9.3687
▁mandat	-9.36872
▁major	-9.36907
IC	-9.37185
assurer	-9.37206
▁Ga	-9.37243
▁bilan	-9.3725
▁devra	-9.37252
▁taxe	-9.37254
vo	-9.3728
▁privé	-9.37408
lic	-9.37476
▁annuelle	-9.3749
autres	-9.375
dessus	-9.37568
▁42	-9.37627
69	-9.3766
▁sociaux	-9.37775
CHE	-9.3783
▁définis	-9.379
ILL	-9.37994
avis	-9.38053
▁séance	-9.38102
▁condition	-9.38254
▁soutien	-9.38336
▁rempli	-9.38336
▁tr	-9.38782
▁Nouvelle	-9.38805
vre	-9.38955
GE	-9.38957
▁épreuve	-9.3905
▁association	-9.39345
IOM	-9.39391
61	-9.39536
▁réaliser	-9.39644
▁financière	-9.3971
▁2007	-9.39831
LI	-9.39946
▁effectué	-9.39999
▁local	-9.40027
iques	-9.40152
97	-9.40196
▁départementale	-9.40241
▁offerts	-9.40306
caractéristiques	-9.40469
▁inférieur	-9.40553
gag	-9.40787
37	-9.40821
▁véhicules	-9.40859
▁lequel	-9.40869
84	-9.41091
BO	-9.41282
▁territoriales	-9.41301
▁lien	-9.41384
▁50	-9.41386
AB	-9.41529
▁5.	-9.41539
ienne	-9.41567
▁signé	-9.4163
▁2015	-9.41656
▁mer	-9.41865
em	-9.41903
logique	-9.4201
▁nucléaire	-9.42021
39	-9.4205
▁effets	-9.42111
▁SI	-9.42208
Europe	-9.42234
évolution	-9.42234
▁Vou	-9.42432
ECO	-9.42508
▁retrait	-9.4253
▁images	-9.42722
▁attachée	-9.42725
âge	-9.42745
▁position	-9.42781
65	-9.42859
▁obtenu	-9.43131
AG	-9.43271
▁2014	-9.43281
▁Pr	-9.43295
équipement	-9.434
▁division	-9.43531
▁inspecteur	-9.43616
▁sûreté	-9.43623
Chris	-9.43656
▁lutte	-9.43728
mat	-9.43768
▁rend	-9.43787
▁déroule	-9.43803
99	-9.43887
98	-9.4395
vis	-9.43951
▁sociales	-9.4399
▁métiers	-9.44019
▁juridique	-9.44035
▁EN	-9.44051
▁préalable	-9.44051
aine	-9.44067
▁égale	-9.44069
lon	-9.44153
Loire	-9.44187
bu	-9.44336
▁fiche	-9.44368
▁matériel	-9.4439
fa	-9.44435
▁prime	-9.4447
▁font	-9.44519
▁participation	-9.44615
▁spécial	-9.4462
vient	-9.44639
▁territorial	-9.44665
▁demandes	-9.44807
▁pouvez	-9.44865
ssent	-9.44868
▁https	-9.45201
63	-9.45263
indemnité	-9.45269
▁divers	-9.45323
tin	-9.45335
▁locaux	-9.45451
-11	-9.45481
î	-9.45616
ordonnance	-9.45785
▁alinéas	-9.45815
▁exerçant	-9.45869
▁met	-9.45888
acc	-9.45908
tro	-9.45999
do	-9.46089
▁inférieure	-9.46114
▁disponible	-9.46122
▁assure	-9.46257
▁besoins	-9.46266
▁40	-9.46273
83	-9.46274
heure	-9.46325
▁Al	-9.4639
▁inscription	-9.4643
▁contractuel	-9.46619
autre	-9.46698
▁individuelle	-9.46713
TA	-9.46725
▁désignés	-9.46799
▁habilité	-9.46834
tér	-9.46881
▁qualification	-9.46884
président	-9.46998
▁extension	-9.47001
ép	-9.47116
▁navires	-9.47168
▁résultant	-9.47225
ément	-9.47287
RÉ	-9.47432
▁déc	-9.47437
▁Tout	-9.47443
▁morale	-9.47486
tour	-9.47566
▁Réunion	-9.47567
apport	-9.47586
EM	-9.47656
▁adjudant	-9.47738
uc	-9.47749
▁autorités	-9.47789
â	-9.47807
▁reconnaissance	-9.47824
▁stipulations	-9.47824
▁valoir	-9.47824
▁choisi	-9.47825
▁délais	-9.47829
▁autorisée	-9.47836
spect	-9.4791
▁bénéficier	-9.48
cal	-9.48036
▁36	-9.48046
▁protégé	-9.48081
ru	-9.48137
▁hospitalière	-9.48253
▁préparation	-9.4834
▁rejet	-9.48452
▁moyenne	-9.48605
73	-9.48678
ô	-9.48682
▁compétent	-9.48729
▁locale	-9.48755
▁44	-9.48806
▁rendues	-9.4896
▁admission	-9.4904
▁CO	-9.49084
▁courir	-9.49166
lan	-9.49223
▁internationale	-9.49298
ification	-9.49367
▁réglementation	-9.4938
▁biens	-9.49504
54	-9.49535
bo	-9.49578
tage	-9.49633
ani	-9.49665
uy	-9.49708
ingénieur	-9.49738
-12	-9.49745
TION	-9.49806
go	-9.49832
▁promotion	-9.49904
▁élèves	-9.49906
ième	-9.50079
▁compétence	-9.50106
▁prêt	-9.5017
▁vente	-9.50225
▁Bordeaux	-9.50255
AUD	-9.50264
▁précité	-9.50362
▁coopération	-9.50378
Autorité	-9.50431
cour	-9.5044
ifi	-9.50473
▁signature	-9.50519
▁postale	-9.50537
▁pratique	-9.50568
▁51	-9.506
▁budgétaire	-9.50607
groupe	-9.50713
▁initiale	-9.50789
ID	-9.50807
UN	-9.50872
DI	-9.5089
enregistrement	-9.5105
▁périodes	-9.51125
ici	-9.51157
LO	-9.51263
▁Bloc	-9.51318
.4.	-9.51361
▁affecté	-9.51382
▁heure	-9.51408
EP	-9.51423
▁Di	-9.5146
▁bénéfice	-9.51494
▁salarié	-9.51573
aéronef	-9.51575
non	-9.51581
adaptation	-9.51625
gré	-9.51644
▁pa	-9.51659
Guillaume	-9.51672
▁aérien	-9.51702
né	-9.51906
▁capitaine	-9.5194
▁départemental	-9.52013
▁authentifié	-9.52029
▁dénommé	-9.52208
▁somme	-9.52208
▁Jo	-9.52226
IL	-9.52279
▁marchés	-9.52362
▁El	-9.52479
82	-9.52498
▁dix	-9.5263
▁cachet	-9.52658
▁demandeur	-9.52738
▁liées	-9.5286
▁Haute	-9.52952
▁classé	-9.53018
▁transfert	-9.53018
MA	-9.53155
▁terme	-9.53193
Martin	-9.53194
vant	-9.53242
cher	-9.53317
38	-9.53375
AY	-9.53387
▁Qu	-9.53579
▁chacune	-9.53665
▁Lille	-9.53708
objectif	-9.53738
▁vers	-9.5374
▁quatrième	-9.53744
▁pénitentiaires	-9.53776
ez	-9.538
tal	-9.53804
▁prises	-9.53815
▁rédaction	-9.54018
née	-9.54084
▁nucléaires	-9.54166
▁hospitalier	-9.542
▁simplifiée	-9.542
▁André	-9.54292
▁registre	-9.54383
▁visioconférence	-9.54383
▁dispositifs	-9.54526
▁composition	-9.54567
▁2012	-9.5458
IV	-9.54708
▁Du	-9.54812
▁placé	-9.5483
orientation	-9.54843
▁versement	-9.54963
▁stagiaire	-9.55119
ives	-9.55185
nel	-9.55197
▁83	-9.55201
▁vérification	-9.55396
UL	-9.55578
▁dès	-9.55581
▁usage	-9.55667
▁commandant	-9.5586
lot	-9.56017
▁contrôleur	-9.56135
▁phase	-9.56139
oyer	-9.56199
Calédonie	-9.56233
j	-9.56269
▁établie	-9.56458
▁Po	-9.56524
cy	-9.56571
Alexandre	-9.56607
▁déroulement	-9.56683
▁Toulouse	-9.567
▁rendu	-9.56766
▁administratrice	-9.56794
▁agricole	-9.56958
▁car	-9.57168
▁masse	-9.57171
igne	-9.57208
▁mêmes	-9.57223
▁procureur	-9.57252
▁minimale	-9.57253
▁distribution	-9.57265
▁Mayotte	-9.57453
io	-9.57532
▁points	-9.57628
▁Cedex	-9.57642
iff	-9.5775
▁fiscal	-9.57927
▁question	-9.57938
yn	-9.5795
▁chirurgie	-9.58022
Luc	-9.58046
▁cadres	-9.58118
▁Marseille	-9.58147
vin	-9.58191
élève	-9.5821
appliquent	-9.58239
▁périmètre	-9.58307
▁rédigée	-9.58362
▁38	-9.58433
▁65	-9.58482
▁Sous	-9.58487
lin	-9.58496
Camille	-9.585
Pascal	-9.58506
enquête	-9.58596
▁45	-9.58607
▁déclaré	-9.58785
ières	-9.58792
▁mode	-9.58802
▁prix	-9.58894
▁Mont	-9.58921
▁Pa	-9.58943
▁Gu	-9.58983
▁An	-9.59064
indication	-9.59168
encadrement	-9.59169
nelle	-9.59327
▁validation	-9.59361
investissement	-9.59457
▁équivalent	-9.59457
inc	-9.59471
▁effectuée	-9.59485
▁8°	-9.59594
6-1	-9.5969
thé	-9.59692
▁per	-9.59695
▁lieutenant	-9.59755
▁sociétés	-9.59896
aérodrome	-9.60134
▁universitaire	-9.60231
▁individuel	-9.60353
▁réseaux	-9.60372
hy	-9.604
attribution	-9.60426
▁concerné	-9.60512
▁constitue	-9.60523
▁cycle	-9.60718
▁enfants	-9.60899
rait	-9.60903
Rhône	-9.61011
▁examen	-9.6103
▁véhicule	-9.61116
▁définition	-9.61157
▁conduite	-9.61188
Alpes	-9.61212
Q	-9.61235
▁(1	-9.61292
▁consultation	-9.61305
▁veille	-9.61308
▁relations	-9.61311
▁ni	-9.61344
▁Paul	-9.61388
stru	-9.6139
.3.	-9.61418
▁Y	-9.6144
ren	-9.61479
▁Sur	-9.61484
François	-9.61577
UC	-9.61594
isé	-9.61626
euse	-9.61667
▁langue	-9.61902
habitation	-9.62008
engage	-9.62067
▁continue	-9.62069
▁notaires	-9.62131
▁coefficient	-9.62188
▁dossiers	-9.62354
▁économiques	-9.62383
▁mobilité	-9.62392
venu	-9.62395
ç	-9.62526
▁réalisé	-9.62569
▁entreprise	-9.62586
▁bénéficiaires	-9.62643
▁assurer	-9.6266
▁tel	-9.62725
cur	-9.62878
▁indiqué	-9.62889
▁différents	-9.62938
TR	-9.62977
▁électrique	-9.62989
▁37	-9.63095
▁autorisant	-9.63189
ng	-9.63257
vent	-9.63281
Thomas	-9.63289
▁devront	-9.63291
amb	-9.63302
▁sauf	-9.6339
sta	-9.63442
Julien	-9.63567
▁Lorsqu	-9.63591
mor	-9.63633
▁moment	-9.63702
▁Sa	-9.6372
▁prescriptions	-9.63738
▁thérapeutique	-9.63791
▁Toute	-9.63838
anne	-9.63848
Denis	-9.63897
analyse	-9.63944
▁atteint	-9.63986
ina	-9.64138
▁places	-9.6418
▁réalisée	-9.64181
▁papier	-9.64194
▁présenter	-9.64319
▁autorisées	-9.64631
▁porté	-9.64717
▁Polynésie	-9.64904
acquisition	-9.6495
▁commande	-9.64958
▁pays	-9.65115
▁attestation	-9.65196
▁nouveau	-9.65289
▁maximale	-9.65292
AND	-9.65375
▁maintenance	-9.65414
▁possible	-9.65414
per	-9.65431
▁renseignement	-9.65459
▁option	-9.65467
-17	-9.65525
▁bénéficiaire	-9.65564
▁Ar	-9.65598
▁depuis	-9.65619
▁composé	-9.6562
▁discipline	-9.65722
aff	-9.65771
▁VII	-9.65799
mand	-9.6589
entretien	-9.6594
▁Bou	-9.65982
▁CON	-9.66
▁bien	-9.66114
▁autorisé	-9.66158
▁pouvant	-9.66236
pe	-9.66272
Frédéric	-9.66339
▁magistrats	-9.6634
▁femmes	-9.66387
han	-9.6641
ton	-9.66414
alimentation	-9.66443
▁évaluation	-9.66445
▁académique	-9.66585
professionnel	-9.66675
erie	-9.66759
iers	-9.67095
magistrature	-9.67137
fé	-9.67155
GU	-9.67167
LES	-9.67167
▁figurent	-9.6723
▁2013	-9.67231
▁spécifiques	-9.67248
Vincent	-9.67275
▁magistrat	-9.67303
Charles	-9.6742
▁fer	-9.67524
étude	-9.67538
▁54	-9.676
az	-9.6779
▁interdite	-9.67816
line	-9.67965
▁radié	-9.68005
JUS	-9.68009
▁correspond	-9.68075
▁pilotage	-9.6811
▁notification	-9.68216
▁aéronefs	-9.68225
▁particulière	-9.68296
▁lettre	-9.68334
▁cré	-9.68338
▁conventions	-9.68368
▁analyse	-9.68371
▁exceptionnelle	-9.68401
▁pourront	-9.68422
habilitation	-9.68426
-14	-9.6849
▁matériels	-9.68501
▁2025	-9.68531
▁géographique	-9.68533
imp	-9.68588
▁É	-9.68607
▁maintien	-9.68638
ade	-9.68807
expert	-9.68822
▁juridiction	-9.68829
▁contribution	-9.68849
▁généraux	-9.69061
▁durable	-9.69244
nés	-9.69247
isée	-9.69297
▁seconde	-9.69528
▁Cor	-9.69575
incendie	-9.69699
▁totale	-9.69721
▁pouvoir	-9.69806
▁X	-9.69811
mètre	-9.69816
ition	-9.69921
▁100	-9.69962
AIRE	-9.69972
CO	-9.7006
▁subvention	-9.70127
▁détachement	-9.70234
▁direct	-9.70258
ux	-9.70364
ache	-9.70402
ret	-9.70512
▁remboursables	-9.70557
▁désigne	-9.70668
expertise	-9.70697
inscrire	-9.70773
▁réglementaires	-9.70789
▁visées	-9.70879
▁organisme	-9.70989
IOMA	-9.71064
▁grand	-9.71114
▁_	-9.71134
▁bio	-9.71204
▁pénale	-9.71256
▁regard	-9.71314
pression	-9.71452
▁spécifique	-9.71574
▁Ba	-9.71575
EX	-9.71599
études	-9.71727
intitulé	-9.71858
▁73	-9.71935
▁comportant	-9.71967
▁Aux	-9.72019
▁visite	-9.72027
TER	-9.72058
▁scolaire	-9.72076
▁2008	-9.72108
log	-9.72134
iel	-9.72142
▁requise	-9.72183
▁coordination	-9.72186
école	-9.72264
isse	-9.72415
Ma	-9.72427
éra	-9.72456
AUX	-9.72465
sse	-9.72479
/2023-12-2	-9.72515
je	-9.72528
▁familles	-9.7268
alinéa	-9.72733
▁façon	-9.72735
▁intérieure	-9.72754
avancement	-9.72869
▁délibération	-9.72955
▁financières	-9.7301
NO	-9.73027
présidente	-9.7304
▁Cité	-9.73109
autonomie	-9.73176
▁usagers	-9.73186
▁bon	-9.7326
Stéphane	-9.73286
▁conseillère	-9.73287
▁centres	-9.7332
▁changement	-9.73619
▁financiers	-9.73726
▁faveur	-9.7373
▁fixés	-9.73745
▁puissance	-9.73842
▁concernées	-9.73892
▁Parties	-9.73896
▁recommandé	-9.73953
▁certificats	-9.73988
PA	-9.73993
▁exerce	-9.74166
▁remboursement	-9.74176
▁courrier	-9.74176
▁normes	-9.74179
VE	-9.74183
Claire	-9.74194
▁sélection	-9.74252
▁Rennes	-9.74296
▁lesquels	-9.744
ies	-9.74456
Louis	-9.74511
activités	-9.74563
▁solidarités	-9.74593
▁domicile	-9.74623
effectue	-9.74653
▁impôts	-9.7471
▁versée	-9.74717
employeur	-9.74751
IM	-9.74873
▁réparti	-9.74945
ff	-9.75022
▁sports	-9.75061
▁collectif	-9.75073
▁version	-9.75104
▁suite	-9.75189
▁AU	-9.75192
arm	-9.75283
▁No	-9.75444
▁certains	-9.75525
▁Guyane	-9.7555
ILLE	-9.75587
bilité	-9.75628
▁réalisées	-9.7563
▁congé	-9.75633
▁pratiques	-9.75689
gro	-9.75737
UT	-9.7585
▁informe	-9.76078
▁ressort	-9.76206
▁connaissances	-9.7641
▁secours	-9.76437
enfant	-9.76507
association	-9.76563
app	-9.76597
iser	-9.76617
▁pénitentiaire	-9.76623
TS	-9.76689
US	-9.76704
▁réduction	-9.76778
▁conjoint	-9.76981
▁formulaire	-9.77008
▁Jacques	-9.77288
inter	-9.77322
▁plafond	-9.77353
ich	-9.77389
▁considérée	-9.77396
▁suivent	-9.77583
▁comptables	-9.77592
PE	-9.77594
▁accepté	-9.77699
▁dotation	-9.77708
ouvrage	-9.77834
▁opération	-9.77878
▁Bar	-9.78021
PL	-9.78021
▁calculé	-9.78056
▁bloc	-9.78163
active	-9.78262
FR	-9.78338
ler	-9.78351
▁Tribuna	-9.78395
▁90	-9.78603
▁43	-9.78776
▁MAR	-9.78807
ARM	-9.78845
iane	-9.78858
▁souhait	-9.78862
▁branche	-9.78979
outre	-9.7905
▁approuvé	-9.79086
▁demandé	-9.79094
ED	-9.79103
vol	-9.79178
MI	-9.7919
▁moteur	-9.7919
ner	-9.79236
ana	-9.79247
cent	-9.7926
QUE	-9.79418
▁conception	-9.79449
▁supprimé	-9.79505
tel	-9.79507
▁circulation	-9.79567
▁liés	-9.79592
ck	-9.79613
▁donne	-9.79643
▁2011	-9.79678
oir	-9.79733
▁seul	-9.79823
▁entretien	-9.79911
Futuna	-9.79921
approbation	-9.79921
▁répartition	-9.79938
nage	-9.79968
immobilier	-9.8004
▁distance	-9.8004
▁62	-9.80047
OP	-9.80072
institut	-9.80135
admissibilité	-9.80158
SI	-9.80213
armée	-9.80326
cité	-9.80359
▁Concours	-9.80396
▁conseillers	-9.80486
▁pièce	-9.80596
▁participant	-9.80633
▁forêts	-9.807
▁Wallis	-9.80753
▁aériens	-9.80877
▁marine	-9.80962
▁CHA	-9.81039
▁(1)	-9.81134
NA	-9.8118
▁sportive	-9.81197
▁informatique	-9.81263
▁aménagements	-9.81307
▁stratégie	-9.81351
▁ministériel	-9.81385
▁9°	-9.81419
▁directement	-9.815
mon	-9.81514
▁légal	-9.81894
▁démarche	-9.81952
▁vingt	-9.81952
IX	-9.82249
pose	-9.8226
▁susceptibles	-9.82282
▁Société	-9.82315
▁présence	-9.82318
▁collecte	-9.82558
▁format	-9.8256
Yves	-9.82582
issement	-9.82609
Or	-9.82619
directeur	-9.82767
▁présidente	-9.82776
Université	-9.82801
▁ville	-9.82833
men	-9.82849
▁catégories	-9.82919
▁exclu	-9.83023
avance	-9.83092
FF	-9.83127
ulaire	-9.83289
▁certaines	-9.83341
▁force	-9.83412
▁carte	-9.83467
▁refus	-9.83534
▁vote	-9.83553
MON	-9.83645
avocat	-9.83657
▁réponse	-9.83657
▁officiers	-9.83812
cul	-9.83876
▁précisant	-9.83902
rage	-9.84065
▁modifications	-9.84101
▁différentes	-9.84113
▁nécessite	-9.84149
▁patrimoine	-9.84149
NI	-9.84224
RES	-9.84289
ai	-9.84337
▁termes	-9.8434
Seine	-9.84356
▁demander	-9.84363
▁brevet	-9.8452
ond	-9.84672
1-6	-9.84715
ALL	-9.8478
▁Ha	-9.84854
▁renouvelable	-9.84892
▁candidates	-9.84964
Thierry	-9.85016
▁quantité	-9.85141
▁permis	-9.85267
▁volume	-9.85392
▁principe	-9.85515
▁déten	-9.85625
arrêt	-9.85693
impôt	-9.85794
Hélène	-9.85891
ki	-9.8594
dia	-9.85954
▁dû	-9.86016
▁collège	-9.86017
▁minima	-9.86163
not	-9.86173
▁Montpellier	-9.86269
évaluer	-9.86347
académie	-9.86395
▁Chevalier	-9.86395
▁mètres	-9.86509
▁déterminée	-9.86538
▁Car	-9.86554
▁Bernard	-9.86658
▁Toutefois	-9.86774
appareil	-9.86782
▁Guadeloupe	-9.8681
éta	-9.86832
▁exercées	-9.8694
▁politiques	-9.87104
Sébastien	-9.87155
fe	-9.87164
▁39	-9.87221
▁soient	-9.87282
ture	-9.87382
ah	-9.87398
▁statistique	-9.87409
▁Claude	-9.87421
▁Conform	-9.87433
égalité	-9.87485
net	-9.87578
▁Isabelle	-9.87687
▁délivrée	-9.87693
▁agricoles	-9.87697
▁technologie	-9.87793
▁organisations	-9.87827
▁déposé	-9.87921
23-1	-9.88015
gan	-9.88025
▁respectivement	-9.88049
ust	-9.8806
CP	-9.88221
▁candidate	-9.88542
▁Christian	-9.88563
achat	-9.88609
réanimation	-9.88654
▁assurés	-9.88656
▁déterminé	-9.88804
▁validité	-9.88822
▁copie	-9.88953
élément	-9.88988
▁forfaitaire	-9.89017
envoi	-9.89237
ROU	-9.89288
▁Olivier	-9.8931
▁résultat	-9.89327
▁BOU	-9.89373
iz	-9.89464
▁personnalité	-9.896
instance	-9.90123
uff	-9.90154
graphique	-9.90252
amende	-9.90264
OIS	-9.90292
▁communique	-9.90294
pol	-9.90306
omb	-9.90315
▁adaptée	-9.90329
plo	-9.90414
▁régulation	-9.90516
apprentissage	-9.90648
▁multi	-9.90652
▁baccalauréat	-9.90656
assistant	-9.90739
▁préfecture	-9.9078
▁simple	-9.90781
▁Ex	-9.90837
▁prestation	-9.90948
▁justificatif	-9.91044
▁contact	-9.91045
▁devant	-9.91055
Julie	-9.91068
▁cause	-9.91178
▁pharmacie	-9.91216
▁Laurent	-9.91301
télésurveillance	-9.91308
▁Nantes	-9.91312
▁sportif	-9.91335
▁indépendant	-9.91441
▁susmentionné	-9.91441
▁licence	-9.91444
▁actifs	-9.91512
intégration	-9.91574
▁probatoire	-9.91574
▁savoir	-9.91606
œuvre	-9.91714
▁Sud	-9.9179
amélioration	-9.9184
obtention	-9.9184
▁justificatives	-9.9184
industrie	-9.91872
existe	-9.91914
nom	-9.9194
équipage	-9.91973
▁pourra	-9.92005
▁ouverts	-9.92016
▁réalisés	-9.92028
▁constituée	-9.92088
David	-9.92111
use	-9.92157
▁sciences	-9.92241
ze	-9.92244
▁aéronautique	-9.92249
plénipotentiaire	-9.92375
▁ponts	-9.92385
▁133	-9.92454
écart	-9.92521
▁majoration	-9.92763
▁propriété	-9.92777
▁ouvrant	-9.92778
EZ	-9.92804
ug	-9.92889
NF	-9.9291
assuré	-9.93011
▁vendredi	-9.93047
ult	-9.93048
EUR	-9.93142
emballage	-9.93182
MENT	-9.93239
▁Nicolas	-9.93247
4-2	-9.93313
préfète	-9.93317
BERT	-9.93342
▁vertu	-9.93454
▁tribunaux	-9.93458
cept	-9.93485
INE	-9.9355
pré	-9.93552
▁existant	-9.93588
▁cessation	-9.93615
▁tels	-9.93645
aj	-9.93838
oral	-9.93843
▁norme	-9.93858
pon	-9.9389
▁Henri	-9.93959
▁coûts	-9.93971
assemblée	-9.93978
▁Service	-9.93995
oy	-9.94066
dre	-9.94083
▁directive	-9.94088
▁Strasbourg	-9.94131
▁déléguée	-9.94223
▁terre	-9.94248
obtenir	-9.94268
▁plateforme	-9.94268
▁adressée	-9.94285
...)	-9.94318
▁désignation	-9.94404
▁troupe	-9.94405
Xavier	-9.94405
▁matériaux	-9.94541
préfet	-9.94617
▁préjudice	-9.94678
▁inspectrice	-9.9509
EMENT	-9.95091
▁écrit	-9.95102
indice	-9.95234
▁fil	-9.95246
PRM	-9.95266
▁revenu	-9.953
▁considéré	-9.95302
▁Emmanuel	-9.95317
▁propriétaire	-9.95366
▁Martinique	-9.95367
▁nationalité	-9.95399
▁reconnu	-9.95504
Patrick	-9.95504
OC	-9.95607
ison	-9.95681
▁spécialisé	-9.95684
▁long	-9.95736
officier	-9.95832
▁enseignants	-9.95848
▁traité	-9.95928
▁route	-9.96199
▁indirects	-9.96476
IGN	-9.9661
ait	-9.96614
▁déplacement	-9.96616
Miquelon	-9.96616
▁Grand	-9.96619
▁inclus	-9.96724
▁2010	-9.96737
▁VIII	-9.96744
oi	-9.96763
don	-9.96861
▁âgé	-9.96897
▁semaines	-9.96911
▁Christophe	-9.9698
innovation	-9.97177
▁éligibles	-9.97177
attestation	-9.97195
taire	-9.97196
.1.1.	-9.97236
▁précisées	-9.9724
▁forfait	-9.97245
▁opérationnelle	-9.97247
▁acheminé	-9.97317
▁notifié	-9.97317
▁COUR	-9.97337
▁lieux	-9.97374
▁composant	-9.97382
AGR	-9.97447
▁population	-9.97458
▁haut	-9.97517
▁contexte	-9.97599
▁diagnostic	-9.97599
venir	-9.97723
État	-9.97742
Côte	-9.97745
VI	-9.97777
2-6	-9.97777
tan	-9.97826
▁consulté	-9.97882
▁final	-9.97896
▁couvert	-9.97945
▁échelon	-9.97983
VER	-9.98002
RET	-9.98137
▁évalué	-9.98165
0-1	-9.98296
▁enregistré	-9.9845
▁prestataire	-9.9845
▁fabrication	-9.98592
▁substance	-9.98592
▁organisée	-9.98645
identité	-9.98679
▁autorisés	-9.98778
élection	-9.98782
▁suffisa	-9.98881
▁procéder	-9.98886
▁constitué	-9.98897
GER	-9.98924
Nicolas	-9.98952
Clément	-9.99038
▁figure	-9.99079
▁contribue	-9.99164
▁BAR	-9.9921
▁coût	-9.99214
▁visant	-9.99279
▁prélèvement	-9.99307
▁substitut	-9.99307
▁préalablement	-9.99424
amp	-9.99449
événement	-9.99595
cor	-9.99734
▁besoin	-9.99781
▁comprenant	-9.99883
▁vérifier	-9.99883
▁René	-10.0002
▁Marc	-10.001
▁Haut	-10.0017
Nathalie	-10.0017
▁saisi	-10.0019
EU	-10.0031
▁constitutive	-10.0032
ven	-10.0044
▁négociation	-10.0046
endant	-10.0058
ION	-10.0064
▁DÉ	-10.0068
▁brut	-10.0076
▁laboratoire	-10.009
▁liberté	-10.009
coup	-10.0096
▁prévisionnel	-10.0102
▁meilleur	-10.0105
▁transmet	-10.0109
▁producteurs	-10.0109
essai	-10.011
▁concernée	-10.0113
DR	-10.0126
▁2005	-10.0143
inspecteur	-10.0164
▁définitive	-10.0166
▁caisse	-10.0178
tier	-10.018
ELLE	-10.0184
resse	-10.0185
▁Aucun	-10.0186
▁crédit	-10.0192
achèvement	-10.0193
▁permanente	-10.0196
▁PAR	-10.0198
Pauline	-10.0198
▁puis	-10.0207
▁urbain	-10.0207
▁solution	-10.0222
▁naturelle	-10.0232
▁réglementaire	-10.0235
Cécile	-10.0237
▁biologique	-10.0238
▁Antoine	-10.0249
land	-10.0254
OS	-10.0259
▁organisé	-10.0261
▁Com	-10.0265
▁conc	-10.027
▁supplémentaire	-10.0276
Etienne	-10.0296
▁Daniel	-10.0298
▁central	-10.0298
▁respecter	-10.0299
▁peine	-10.0312
▁décrit	-10.0312
PO	-10.0312
▁aucun	-10.0323
ville	-10.0323
hébergement	-10.0326
▁Réalis	-10.0328
Paul	-10.0331
▁Cet	-10.0338
zo	-10.0345
▁Alain	-10.0358
▁médicaments	-10.0385
Anne	-10.0389
▁COM	-10.039
col	-10.0391
▁réunion	-10.0393
▁inscrits	-10.0407
ath	-10.0411
issant	-10.042
▁adapté	-10.0423
assistance	-10.0424
ifié	-10.0446
▁visée	-10.0447
▁reste	-10.0454
endre	-10.0461
▁antérieure	-10.0462
▁commerciale	-10.0464
échange	-10.0467
▁affectation	-10.0476
▁cumul	-10.0477
▁indications	-10.0477
euros	-10.0485
allocation	-10.0492
▁2006-164	-10.0492
ip	-10.0495
agit	-10.0506
/2023-07-2	-10.0507
occasion	-10.0507
21-1	-10.0511
▁accompagnée	-10.0518
ati	-10.052
▁2241-	-10.0521
▁victime	-10.0522
▁courriel	-10.0522
▁visés	-10.0531
▁supprimée	-10.0537
▁effectuer	-10.0546
/2023-07-1	-10.0553
▁prescription	-10.0561
nier	-10.0561
agne	-10.0563
organisateur	-10.0568
▁Dominique	-10.0568
▁confié	-10.0569
▁Sophie	-10.0581
administrateur	-10.0582
▁procédé	-10.0583
▁transitoire	-10.0583
▁remise	-10.059
▁étudiants	-10.0591
▁spécialisée	-10.0597
dire	-10.0603
EY	-10.0605
RU	-10.0612
▁écoles	-10.0612
▁approprié	-10.0614
▁grossesse	-10.0614
infirmier	-10.0614
organe	-10.0614
▁Joseph	-10.0617
ancé	-10.0629
_	-10.0629
▁outils	-10.063
-19	-10.0638
oub	-10.0646
▁international	-10.065
▁durabilité	-10.0662
▁vétérinaire	-10.0676
▁afférent	-10.0691
▁chiffre	-10.0691
▁honoraire	-10.0691
▁reçu	-10.0691
▁seuil	-10.0692
5-2	-10.0693
▁industries	-10.0702
▁Char	-10.0709
AZ	-10.072
▁engagements	-10.0729
accident	-10.0738
▁psychiatrie	-10.0738
chi	-10.0752
▁îles	-10.0753
▁collectivité	-10.0768
▁issus	-10.0769
IG	-10.0771
IQUE	-10.0777
▁post	-10.0797
EG	-10.0797
Etablissement	-10.08
armement	-10.0809
▁ancien	-10.081
MO	-10.0813
Algérie	-10.0816
Bruno	-10.0816
▁Ou	-10.0824
▁conserve	-10.0832
institution	-10.0835
▁agréées	-10.084
SSI	-10.0841
hors	-10.0843
▁sujet	-10.0847
▁débit	-10.085
▁Catherine	-10.0852
concours	-10.0855
ICH	-10.0859
Mathilde	-10.0863
Tunisie	-10.0863
invalidité	-10.0863
▁standard	-10.0863
exécut	-10.0877
car	-10.0884
▁salaires	-10.0885
/2023-04-2	-10.091
▁installé	-10.091
Arnaud	-10.091
gissant	-10.0911
▁bonne	-10.0914
▁important	-10.0926
ov	-10.0929
▁appelé	-10.0929
▁obligatoire	-10.0931
Philippe	-10.0936
▁valorisation	-10.0942
▁voix	-10.0942
▁détention	-10.0944
isant	-10.0945
▁Caisse	-10.0959
usse	-10.0967
▁Jeanne	-10.0972
▁via	-10.0973
▁cotisations	-10.1007
▁commandement	-10.1013
▁qualifié	-10.1033
arch	-10.1037
▁dédié	-10.104
Mar	-10.1043
ouche	-10.1044
▁lycée	-10.1054
▁Fonds	-10.1054
▁vu	-10.1056
nat	-10.1062
cro	-10.1063
▁anti	-10.1065
▁223	-10.1065
8-1	-10.1069
EV	-10.1069
▁Grenoble	-10.107
▁validé	-10.107
▁suspension	-10.1086
▁divisionnaire	-10.1088
extérieur	-10.1091
duc	-10.1095
Accè	-10.1102
EF	-10.1114
chet	-10.1118
▁certifié	-10.1118
ération	-10.1133
▁réservé	-10.1135
▁accompli	-10.1151
▁convocation	-10.1151
charge	-10.1154
BR	-10.1159
▁test	-10.1175
PR	-10.1176
orm	-10.1177
▁fournisseur	-10.1183
Baptiste	-10.12
▁praticien	-10.1206
▁vivant	-10.1216
▁réuni	-10.1219
vert	-10.1224
formation	-10.1232
Laure	-10.1232
▁effective	-10.1232
▁Vi	-10.1233
▁possibilité	-10.1249
▁travailleurs	-10.1249
ini	-10.1287
établir	-10.1287
▁communiqué	-10.1298
▁globale	-10.1301
Saint	-10.1304
▁exprimé	-10.1304
aient	-10.131
▁conversion	-10.1314
▁justifie	-10.1323
▁adressé	-10.1329
GI	-10.1329
urbanisme	-10.1331
Charlotte	-10.1331
▁Civil	-10.1331
ox	-10.1335
QU	-10.1336
▁réalise	-10.1337
Christophe	-10.1337
Marne	-10.1356
▁partenaires	-10.1364
▁tenir	-10.1381
▁PRO	-10.1385
▁motif	-10.1389
▁conservation	-10.1397
▁dépasse	-10.1397
▁Th	-10.1402
▁acteurs	-10.1405
▁espaces	-10.141
▁alors	-10.1414
▁métier	-10.1417
ART	-10.1428
▁technologique	-10.143
▁Nancy	-10.143
▁uniquement	-10.1436
venant	-10.145
▁162-1	-10.1457
▁accordée	-10.146
▁cinquième	-10.1464
▁valable	-10.1464
▁fournir	-10.1473
Jérôme	-10.1481
▁employé	-10.1481
avi	-10.1481
Annexe	-10.1482
▁opérateurs	-10.149
/2023-06-2	-10.1497
Caroline	-10.1497
exercer	-10.1502
▁retour	-10.1508
▁ajoutée	-10.151
fort	-10.1511
▁journal	-10.1513
▁Fédération	-10.1514
▁réparation	-10.1514
▁complet	-10.1514
Aurélie	-10.1515
▁qualifiée	-10.1519
▁enveloppe	-10.1528
▁2004	-10.1531
Maxime	-10.1548
animaux	-10.1548
▁départ	-10.1562
BI	-10.1563
FI	-10.1573
▁filière	-10.1574
▁contentieux	-10.1582
êt	-10.1589
avant	-10.1589
▁cession	-10.1592
/2023-02-1	-10.1599
▁appartenant	-10.1599
▁preuve	-10.1599
/2023-01-	-10.1604
▁pri	-10.1609
▁législation	-10.1616
▁médicaux	-10.1616
honneur	-10.165
▁biologie	-10.165
▁PER	-10.1652
▁tarifaire	-10.1665
ju	-10.1665
▁médico	-10.1667
▁Georges	-10.167
1-7	-10.1684
▁tient	-10.1685
LIN	-10.1686
▁déjà	-10.1701
▁fichier	-10.1701
▁radio	-10.1708
▁permettent	-10.1718
entend	-10.1726
environnementale	-10.1732
▁formule	-10.1735
▁placée	-10.1738
▁spéciale	-10.1742
▁opérationnel	-10.1746
habitat	-10.175
▁programmation	-10.1753
major	-10.1755
Antoine	-10.1755
court	-10.1764
TO	-10.1764
▁dispensé	-10.177
▁redevance	-10.177
▁aussi	-10.1774
▁détenteur	-10.1789
station	-10.1793
▁hommes	-10.1804
▁clinique	-10.1804
▁élevé	-10.1804
▁valide	-10.1804
▁affectée	-10.1809
▁longue	-10.181
▁complément	-10.182
MIC	-10.1821
Organisation	-10.1822
▁transmettre	-10.1824
impossibilité	-10.1839
▁auquel	-10.184
Est	-10.1844
▁proposé	-10.1848
▁10°	-10.1854
▁anesthésie	-10.1856
▁interrégionale	-10.1859
▁prénom	-10.186
▁procède	-10.1874
Marc	-10.1878
/2023-09-2	-10.1891
▁informé	-10.1892
Gabriel	-10.1909
ja	-10.1914
▁saisie	-10.1917
▁offertes	-10.1926
▁intervenant	-10.1929
▁citernes	-10.1932
▁éventuel	-10.194
génér	-10.1945
za	-10.1954
▁trouve	-10.1962
script	-10.1965
▁conservé	-10.1979
▁mécanique	-10.1979
APPEL	-10.1979
7-1	-10.198
▁détermine	-10.1993
▁fonctionnaire	-10.1993
Val	-10.1999
atifs	-10.2001
expiration	-10.2014
▁restauration	-10.2014
▁trente	-10.2014
▁renouvelé	-10.2015
asso	-10.2024
▁visé	-10.2025
▁tir	-10.2027
GUE	-10.2028
▁libre	-10.2033
oud	-10.2049
/2023-02-0	-10.205
▁réputé	-10.205
▁Rouen	-10.205
▁haute	-10.2052
▁liaison	-10.2068
▁détail	-10.2072
gar	-10.2075
éné	-10.2076
AUT	-10.2078
ITÉ	-10.2081
▁campagne	-10.2085
gui	-10.2086
3-7	-10.2091
assi	-10.2093
▁Nord	-10.2099
/2023-03-0	-10.2103
▁précédant	-10.2139
impact	-10.2139
Romain	-10.2139
▁participer	-10.2152
off	-10.2153
isme	-10.216
LAN	-10.2173
ara	-10.2173
appar	-10.2188
quelles	-10.2192
▁définit	-10.2201
▁compatible	-10.2211
Lucie	-10.2213
▁producteur	-10.2223
/2023-08-0	-10.2225
▁stratégique	-10.2229
▁trimestre	-10.2229
jet	-10.2245
▁utile	-10.2247
architecture	-10.2265
affectation	-10.2266
▁excéder	-10.2266
▁2009	-10.2268
▁relève	-10.2275
Simon	-10.2278
INI	-10.2281
▁mandataire	-10.2281
animation	-10.2289
▁recev	-10.2301
Victor	-10.2301
▁Robert	-10.2302
▁tenant	-10.2303
▁1984	-10.2317
▁disponibilité	-10.232
▁greffier	-10.232
▁justifiant	-10.232
▁Françoise	-10.2328
▁dénomination	-10.2338
▁proximité	-10.2338
▁attribuée	-10.234
Marine	-10.2342
Corse	-10.235
ext	-10.2351
▁chauffage	-10.2356
▁minuit	-10.2356
▁tâches	-10.2356
Provence	-10.2356
▁photo	-10.2356
actif	-10.236
mment	-10.2361
interministériel	-10.2367
▁614	-10.2376
étudiant	-10.2383
▁conséquence	-10.2393
bert	-10.2396
▁émissions	-10.2402
▁bar	-10.2406
ministérielle	-10.241
▁quinze	-10.2411
▁crise	-10.2411
▁Epreuve	-10.243
▁mobile	-10.243
▁démission	-10.243
▁aucune	-10.2437
▁stockage	-10.2453
▁greffe	-10.2466
ENS	-10.2467
▁sanction	-10.2468
▁transporteur	-10.2473
▁diverses	-10.2477
bli	-10.2482
▁chaleur	-10.2485
▁conventionnel	-10.2488
▁pénal	-10.2495
▁entrent	-10.2499
▁report	-10.25
▁handicapées	-10.2501
RY	-10.2503
hydrocarbures	-10.2504
2-7	-10.2513
émission	-10.2516
▁perte	-10.2517
actuel	-10.2517
▁Modalités	-10.2522
option	-10.2538
1.1	-10.2539
ê	-10.2559
élaboration	-10.2559
▁répondre	-10.2566
ong	-10.2566
▁contrôlée	-10.2567
▁justifier	-10.2568
été	-10.2576
▁Dijon	-10.2597
alerte	-10.2604
▁mal	-10.2613
▁conduire	-10.2616
▁signal	-10.2618
ty	-10.2624
BE	-10.2638
ÉS	-10.2641
ND	-10.2651
▁équipé	-10.2653
artisanat	-10.2675
/2023-12-0	-10.2691
▁jeux	-10.2695
bou	-10.2706
ieux	-10.2715
▁famille	-10.2719
▁extérieure	-10.2723
▁attendu	-10.2729
immeuble	-10.2748
▁contribuant	-10.2748
▁consommateurs	-10.2748
1-8	-10.2749
/2023-10-2	-10.2757
Ouest	-10.2758
3.1.	-10.2763
/2023-05-2	-10.2767
▁établit	-10.277
▁poly	-10.277
can	-10.2772
▁spécifi	-10.2802
entre	-10.2808
▁participe	-10.2811
JUSB	-10.2815
▁pertinent	-10.2824
▁grille	-10.2824
▁rattaché	-10.2825
q	-10.2851
▁remet	-10.2862
▁métropole	-10.2863
cadre	-10.2865
aille	-10.2874
ONNE	-10.2879
▁produire	-10.2882
haque	-10.2882
▁duquel	-10.2884
/2023-11-2	-10.2892
raient	-10.2896
/2023-06-1	-10.2901
▁complét	-10.2906
▁séjour	-10.2921
▁prévoit	-10.2921
▁indemnités	-10.2924
ettre	-10.2926
▁200	-10.2934
/2023-12-1	-10.294
▁flux	-10.294
▁fourniture	-10.2941
▁stock	-10.2955
auteur	-10.2957
▁adultes	-10.2966
hospitalisation	-10.2979
OUL	-10.2989
▁attribué	-10.2996
▁relation	-10.2997
▁identifiée	-10.3008
▁capital	-10.3018
▁spectacle	-10.3018
échelon	-10.3023
▁assurée	-10.3029
▁représente	-10.3038
▁espèces	-10.3042
▁appliquée	-10.3049
▁donné	-10.3058
Jo	-10.3067
hab	-10.3074
▁indique	-10.3084
▁POUR	-10.3087
Léa	-10.3089
Atlantique	-10.3096
▁processus	-10.3096
.1.2.	-10.3097
▁Bri	-10.3104
▁sortie	-10.3116
▁répond	-10.3118
université	-10.3121
Uni	-10.3123
6-2	-10.3124
▁schéma	-10.3156
Céline	-10.3157
AIS	-10.3173
éna	-10.3179
lais	-10.3179
▁métropolitain	-10.3195
▁facteur	-10.3198
000	-10.3226
Yann	-10.3231
ESR	-10.3232
▁Marcel	-10.3233
▁bénéficiant	-10.3235
NIER	-10.325
gramme	-10.3253
igu	-10.3256
VAL	-10.3278
delà	-10.3283
▁grande	-10.3293
▁facilit	-10.3295
▁volontaire	-10.3295
enseignant	-10.3306
/2023-03-2	-10.3316
accréditation	-10.3316
apprécie	-10.3316
thérapie	-10.3316
▁solde	-10.3325
intermédiaire	-10.3326
▁hauteur	-10.3335
▁procès	-10.3336
PORT	-10.3338
▁majeure	-10.3351
/2023-06-0	-10.3356
Maritime	-10.3356
▁institué	-10.3356
▁garantir	-10.337
viennent	-10.3376
▁2026	-10.3389
Mathieu	-10.3396
▁NOTAIRES	-10.3396
▁calendrier	-10.3417
▁proportion	-10.342
▁étant	-10.3427
▁maire	-10.3429
apprenti	-10.3437
▁potentiel	-10.3437
PI	-10.344
▁Comité	-10.3441
isson	-10.3446
▁précisé	-10.3448
technique	-10.3456
/2023-07-0	-10.3458
▁thermique	-10.3458
▁maison	-10.3463
▁indicateurs	-10.3466
▁proposée	-10.3468
▁destinataire	-10.3478
▁nationaux	-10.3478
▁bateau	-10.3479
PP	-10.3496
OSS	-10.3513
▁Hospi	-10.3519
▁présentée	-10.3532
UF	-10.3539
▁cargaison	-10.354
▁contenant	-10.354
▁familial	-10.356
▁réduit	-10.3561
▁dépend	-10.3568
▁cohérence	-10.3581
Sarah	-10.3581
▁Unité	-10.3586
BRE	-10.3591
▁conclusion	-10.3591
▁retenue	-10.3596
▁Constitution	-10.3602
RAND	-10.3605
▁ancienne	-10.3617
▁complète	-10.3622
▁confirm	-10.3622
/2023-10-1	-10.3623
▁requis	-10.3623
▁immédiatement	-10.3623
▁maximal	-10.3627
▁obligatoirement	-10.3642
▁imprimé	-10.3643
▁détaillé	-10.3646
Olivier	-10.3648
▁Date	-10.3649
▁11°	-10.3659
▁intégré	-10.3664
▁automatique	-10.3664
▁musée	-10.3664
.2.1.	-10.3674
AGRT	-10.3677
▁ANNEXES	-10.3681
▁profit	-10.3685
▁BER	-10.3696
efficacité	-10.3706
▁Convention	-10.3706
Juliette	-10.3708
CL	-10.371
▁accompagné	-10.3711
▁Caen	-10.3723
Florence	-10.3727
femme	-10.3738
/2023-03-1	-10.3769
▁circulaire	-10.3769
▁protocole	-10.3769
/2023-08-	-10.3777
égu	-10.3782
expression	-10.3788
▁référent	-10.3789
▁distinct	-10.379
▁Pays	-10.3792
ECOE	-10.3798
▁mines	-10.38
▁décide	-10.3817
▁logiciel	-10.3832
▁recommandation	-10.3832
▁demeure	-10.3834
assure	-10.3839
▁pilote	-10.3853
OB	-10.3861
oux	-10.3867
Benoît	-10.3875
▁assurant	-10.3875
matique	-10.3883
obst	-10.3885
▁comptabilité	-10.3896
▁manquement	-10.3896
▁organise	-10.3896
acteur	-10.392
3-4	-10.3921
▁Clermont	-10.3939
▁facultative	-10.3939
▁enjeux	-10.3939
▁personnelle	-10.394
/2023-11-1	-10.3956
/2023-04-0	-10.396
anomalie	-10.396
432-13	-10.396
▁recteur	-10.396
effectif	-10.3972
▁climat	-10.3972
▁permanent	-10.3977
atteindre	-10.3982
▁raccordement	-10.3982
▁synthèse	-10.3982
▁carrière	-10.3982
social	-10.3997
▁ouvrages	-10.4
▁favoris	-10.4003
▁contractuelle	-10.4006
▁observations	-10.4008
▁montagne	-10.4021
UM	-10.4022
▁guerre	-10.4025
▁libellé	-10.4025
▁notarial	-10.4025
Benjamin	-10.4025
▁relevé	-10.4025
sante	-10.4047
Franck	-10.4049
entraîne	-10.4053
▁500	-10.4062
▁CAR	-10.4064
utiliser	-10.4067
▁Vice	-10.4067
▁reprise	-10.4068
▁garantissant	-10.4068
41-1	-10.4069
4-3	-10.4074
Marion	-10.4079
▁Commandant	-10.409
▁brigade	-10.409
▁Chef	-10.409
▁décrites	-10.4112
▁sub	-10.4112
▁difficulté	-10.4112
▁Notaires	-10.4112
▁821-1	-10.4129
▁Poitiers	-10.4134
verbal	-10.4134
psycho	-10.4141
▁effectifs	-10.4143
URE	-10.4144
▁combustible	-10.4156
▁principaux	-10.4156
▁pédiatrie	-10.4156
Alice	-10.4164
▁partiel	-10.4164
entraînement	-10.4171
infanterie	-10.4177
▁préparant	-10.4177
▁ménage	-10.4178
▁exigé	-10.4178
ographie	-10.4191
▁commercial	-10.4193
Emilie	-10.4195
Barthélemy	-10.4199
Office	-10.4199
▁facture	-10.4199
▁série	-10.4219
igné	-10.4229
▁marchandises	-10.4244
▁prenant	-10.4244
Amiens	-10.4244
▁réglementé	-10.4266
▁voyage	-10.4266
▁Titulaire	-10.4266
▁description	-10.4266
▁Reims	-10.4266
▁ZIT	-10.4269
▁donner	-10.4284
Accord	-10.4288
▁déploiement	-10.4288
Sophie	-10.4291
▁bénéficie	-10.43
▁douze	-10.431
ologue	-10.4312
▁sixième	-10.4314
9-1	-10.4317
quet	-10.4325
▁consiste	-10.4333
▁danger	-10.4334
▁imposé	-10.4346
▁alpin	-10.4377
▁Conditions	-10.4377
▁postérieur	-10.4377
effectuer	-10.4379
▁donc	-10.438
▁Règlement	-10.4383
▁fonctionnelle	-10.4394
▁médicament	-10.4401
▁propose	-10.4403
▁nouveaux	-10.4404
▁exceptionnel	-10.4405
même	-10.4405
▁prescrit	-10.4422
▁collabor	-10.4422
▁conduit	-10.4426
▁majeur	-10.4427
▁fera	-10.4427
▁Nota	-10.4428
▁1986	-10.4443
▁impliqu	-10.4444
▁partielle	-10.4449
Chloé	-10.4467
▁intervient	-10.4474
Michel	-10.4476
▁exercé	-10.4483
▁consultative	-10.449
▁régulière	-10.449
fond	-10.4491
▁déterminer	-10.4495
▁TRA	-10.4497
▁règle	-10.4501
▁DEL	-10.4503
▁Guy	-10.4505
identifier	-10.4512
Comp	-10.4535
ouvrir	-10.4535
▁radiation	-10.4535
▁Santé	-10.4536
Valentin	-10.454
▁étrangère	-10.454
LET	-10.4559
▁solidarité	-10.4564
▁susceptible	-10.4564
▁prononcée	-10.4566
RIS	-10.4571
ECOP	-10.458
échantillon	-10.4581
▁maintenu	-10.4581
▁ailleurs	-10.4581
▁compagnie	-10.4582
▁courant	-10.4583
▁passer	-10.4584
culture	-10.4595
▁assistante	-10.4611
/2023-11-0	-10.4613
PH	-10.462
▁Contrôle	-10.4626
▁logistique	-10.4626
▁monétaire	-10.4626
chimique	-10.4627
Elisa	-10.4632
Quentin	-10.465
voi	-10.4668
/2023-05-1	-10.4672
▁Cyclades	-10.4672
▁Roger	-10.4677
directrice	-10.4688
▁contraire	-10.4696
▁détaché	-10.4696
▁Heure	-10.47
▁concurrence	-10.4719
égard	-10.4719
▁Code	-10.4727
▁artistique	-10.4742
▁relèvent	-10.4753
▁ponctuelle	-10.4765
histoire	-10.4765
▁constitution	-10.4765
▁définissant	-10.4766
ANI	-10.4768
implantation	-10.477
▁repose	-10.4775
ico	-10.4783
▁réelle	-10.479
Fabien	-10.4803
RMH	-10.4805
▁fréquence	-10.4812
▁chantier	-10.4812
▁significative	-10.4812
LER	-10.4813
▁bénéficient	-10.4821
▁salaire	-10.4827
/2023-02-2	-10.4835
▁location	-10.4836
▁destination	-10.4859
▁constat	-10.4861
EAE	-10.4864
indicateur	-10.4873
très	-10.4882
▁ouvriers	-10.4882
nalisation	-10.4892
Espace	-10.493
ANCE	-10.4936
articul	-10.4941
hygiène	-10.4953
▁Olympiques	-10.4953
▁classification	-10.4953
▁terrain	-10.4953
Adrien	-10.4954
▁recueil	-10.4974
▁face	-10.4981
▁fraude	-10.4981
Laurent	-10.4991
ORD	-10.4994
11-2	-10.5
▁poids	-10.5001
▁continu	-10.5004
NOR	-10.501
▁résolution	-10.5025
▁module	-10.5025
Angers	-10.5025
▁Brest	-10.5025
▁Section	-10.5025
engin	-10.5026
▁marin	-10.5036
▁cotisation	-10.5047
▁catastrophe	-10.5049
▁compensation	-10.5049
▁coordonnateur	-10.5049
▁interventions	-10.5058
▁2020-5	-10.5063
▁liquide	-10.5073
▁Gérard	-10.5073
▁lundi	-10.5079
▁Nice	-10.5097
▁passagers	-10.5097
▁connaître	-10.5098
▁soute	-10.5106
ARR	-10.5107
▁nécessité	-10.5121
▁162-22	-10.5131
▁millions	-10.5145
▁mentionne	-10.5151
▁provisoire	-10.5169
AMP	-10.5183
2-8	-10.5185
▁versé	-10.5187
5-3	-10.5188
▁hiérarchique	-10.5193
▁vaccin	-10.5193
▁retenu	-10.5199
Emmanuel	-10.5202
immatriculation	-10.5218
▁recouvrement	-10.5219
.2.2.	-10.522
▁identifié	-10.523
▁165-1	-10.5231
▁2.2.	-10.5233
▁2002	-10.524
▁proposer	-10.5243
auditeur	-10.5249
fac	-10.5257
RON	-10.5264
Virginie	-10.5266
échéance	-10.5266
▁livraison	-10.5266
▁tabac	-10.5266
Hervé	-10.5268
▁gynécologie	-10.5291
▁rouge	-10.5291
▁double	-10.5292
▁dématérialisée	-10.5314
▁considér	-10.5318
étend	-10.5332
/2023-04-1	-10.534
Association	-10.534
▁Paralympiques	-10.534
▁rénovation	-10.534
▁4111-2	-10.5341
▁cassation	-10.5348
▁signe	-10.5357
▁facturation	-10.5365
▁coordonnées	-10.5384
▁dimension	-10.539
▁homologu	-10.539
▁manifestation	-10.539
▁fonctionnel	-10.5391
▁contrôlé	-10.5404
▁pharmacien	-10.5407
œ	-10.5414
▁Nom	-10.5422
▁(2)	-10.5429
▁routière	-10.5439
▁thème	-10.5439
▁arme	-10.5445
▁certificateur	-10.5456
▁dispense	-10.5464
▁stationnement	-10.5464
▁prépare	-10.5469
Franc	-10.548
▁exclusivement	-10.5489
▁représentative	-10.5489
Rhin	-10.5492
exposition	-10.5497
AULT	-10.5497
2.1	-10.55
ENCE	-10.5501
infrastructure	-10.5505
▁servi	-10.5512
▁modifier	-10.5514
▁Juge	-10.5515
▁travers	-10.5515
▁Tableau	-10.5515
▁évalue	-10.5524
▁croissance	-10.5539
▁ultérieur	-10.5562
▁théorique	-10.5565
Emma	-10.5568
▁assurances	-10.5576
▁2.3.	-10.5581
onfédération	-10.559
▁variétés	-10.559
▁fixation	-10.559
3.2	-10.5599
▁pluriannuel	-10.5615
▁conférences	-10.5615
particulièrement	-10.5621
▁saison	-10.5627
ASSE	-10.5629
UGA	-10.5638
▁décès	-10.5641
▁locataire	-10.5641
attaché	-10.5663
importance	-10.5666
▁mixte	-10.5666
Ferrand	-10.5692
▁assimilé	-10.5692
▁fédération	-10.5692
III	-10.5703
▁niveaux	-10.5716
çon	-10.5733
▁recueilli	-10.5746
Bertrand	-10.5768
indemnisation	-10.5768
▁Besançon	-10.5768
▁Suppléant	-10.5768
/2023-10-0	-10.5778
EUX	-10.5783
▁adopté	-10.5794
▁Stéphanie	-10.5794
__	-10.5803
▁infrastructures	-10.5804
réf	-10.5808
▁quartier	-10.582
QUI	-10.582
▁liée	-10.5822
▁passage	-10.5824
accompagne	-10.5831
OUSS	-10.5835
▁of	-10.5845
titude	-10.5847
▁presse	-10.5854
▁interdit	-10.586
4-4	-10.5868
▁Affectation	-10.5872
▁petite	-10.5872
▁éventuellement	-10.5873
Ann	-10.5887
▁formateur	-10.5894
Sandrine	-10.5898
▁Maurice	-10.5898
▁souscrit	-10.5899
▁commercialis	-10.5902
service	-10.5903
Hugo	-10.592
GEN	-10.5922
Matthieu	-10.5924
▁disposant	-10.5924
▁habituel	-10.5924
ost	-10.5932
▁sollicite	-10.595
▁régionaux	-10.5956
▁notifie	-10.5977
▁unitaire	-10.5978
▁interrégional	-10.6005
▁postal	-10.6011
animal	-10.6015
▁détermination	-10.6029
▁prioritaire	-10.6029
▁votre	-10.603
NOT	-10.6044
▁2000	-10.6048
▁résidant	-10.6056
▁suivre	-10.6056
▁neuf	-10.6056
initiative	-10.6082
▁conducteur	-10.6082
▁Adresse	-10.6082
atteinte	-10.6084
▁menée	-10.6088
3-8	-10.6105
homologation	-10.6109
▁mentionnant	-10.6109
asile	-10.611
accomplissement	-10.6136
▁situe	-10.6136
▁source	-10.6136
échelle	-10.6136
▁jeunes	-10.616
▁rigueur	-10.6162
▁poursuite	-10.6162
21-4	-10.6165
▁exemplaires	-10.6168
améliorer	-10.6189
▁imagerie	-10.6189
▁périodique	-10.6189
▁transféré	-10.6189
▁Groupe	-10.6189
▁vous	-10.6192
▁CHAR	-10.6196
▁composer	-10.6199
▁émis	-10.6212
adolescent	-10.6216
▁attestant	-10.6216
▁continuité	-10.6219
▁grave	-10.622
▁FRAN	-10.6228
▁2003	-10.6248
▁développer	-10.6249
▁décor	-10.6251
▁subi	-10.626
▁garanti	-10.6262
affaires	-10.6264
▁délivrer	-10.627
▁avenue	-10.627
▁législative	-10.6297
▁horaires	-10.6297
▁nordique	-10.6297
appellation	-10.6297
▁intervenir	-10.6302
/2023-01-1	-10.631
adjoint	-10.6315
▁XI	-10.6322
▁populaire	-10.6324
▁soixante	-10.6324
Sylvain	-10.6324
▁envisagé	-10.6324
Rapha	-10.6324
▁confér	-10.6325
ancienneté	-10.6342
Laura	-10.6345
accessibilité	-10.6351
élevage	-10.6351
▁diffusion	-10.6351
▁rappel	-10.6358
▁équipes	-10.6368
citerne	-10.6369
▁automobile	-10.6379
Bouches	-10.6395
Auvergne	-10.6406
▁pourvu	-10.6411
▁issues	-10.6423
▁signataire	-10.6434
▁répondant	-10.6449
▁constatation	-10.6457
▁capitalisable	-10.6461
▁occupant	-10.6461
▁Sans	-10.6471
ARTI	-10.648
compte	-10.6485
▁déconcentré	-10.6489
▁téléphone	-10.6489
Florian	-10.6489
▁App	-10.6506
Claude	-10.6514
▁génétique	-10.6516
▁fondement	-10.6526
▁capt	-10.6533
▁351-1	-10.6556
▁global	-10.6567
Théo	-10.6577
▁muni	-10.6593
▁circuit	-10.66
▁liquidation	-10.66
▁naissance	-10.66
▁répertoire	-10.66
▁dépense	-10.6623
/2023-09-0	-10.6628
▁nomenclature	-10.6628
CHER	-10.6639
▁réadaptation	-10.6643
/2023-12-3	-10.6656
Delphine	-10.6656
▁Versailles	-10.6656
▁restructuration	-10.6656
▁satisfait	-10.6656
▁Contrat	-10.6656
▁marque	-10.6657
▁industriel	-10.6672
▁immatriculé	-10.6684
intention	-10.6684
▁auxquel	-10.6685
▁bois	-10.6694
▁priorité	-10.6713
▁bonification	-10.6715
▁concourir	-10.6715
Azur	-10.6742
▁appliqué	-10.6752
▁prononce	-10.6769
interdiction	-10.6769
Cédric	-10.6798
hér	-10.6816
▁512	-10.6825
▁carbone	-10.6826
▁routier	-10.6826
▁conjointement	-10.6833
▁lourd	-10.6848
▁satisfaire	-10.6855
▁température	-10.6855
▁éventuelles	-10.686
▁biodiversité	-10.6884
cinq	-10.6907
▁usées	-10.6915
▁Bourg	-10.6918
RAT	-10.6927
ILI	-10.6934
électeur	-10.6941
▁Premier	-10.6941
▁intermédiaires	-10.6955
▁remis	-10.696
▁ferroviaire	-10.697
▁subordonné	-10.697
Garonne	-10.697
▁serre	-10.6972
▁Référentiel	-10.7
▁perçue	-10.7
Alexis	-10.7
▁Soit	-10.7
▁Autres	-10.7002
▁passé	-10.7013
Manon	-10.7023
▁immobilière	-10.7029
▁intercommunale	-10.7029
▁Raymond	-10.7029
▁charte	-10.7029
▁mouvement	-10.7058
▁représenté	-10.7058
▁tutelle	-10.7058
régisseur	-10.706
▁infractions	-10.7067
▁taille	-10.7091
▁climatique	-10.71
terie	-10.7103
▁consomm	-10.7105
▁proche	-10.7112
▁diplomatique	-10.7117
▁rôle	-10.7117
octroi	-10.7117
utilité	-10.7117
BEL	-10.7131
enseigne	-10.7132
adulte	-10.7137
▁nettoyage	-10.7146
▁Pointe	-10.7146
▁faible	-10.7146
Audrey	-10.7146
llier	-10.7155
▁échanges	-10.7165
▁quater	-10.7176
▁étapes	-10.7184
▁PROFESSIONNEL	-10.7184
▁statutaires	-10.7186
historique	-10.7205
augmentation	-10.7205
▁accéder	-10.7205
▁alloué	-10.7205
Haute	-10.7219
▁achats	-10.7228
connexion	-10.7235
Cyril	-10.7238
▁totalité	-10.7249
▁conventionnelle	-10.7256
Fabrice	-10.7265
▁génie	-10.7265
▁incluant	-10.7265
▁occurrence	-10.7265
exerce	-10.7272
infraction	-10.7285
communication	-10.7287
▁citoyen	-10.7295
▁couleur	-10.7295
▁parcelle	-10.7299
▁effectu	-10.7315
▁justification	-10.7325
▁LISTE	-10.7325
anglais	-10.7327
▁Gilles	-10.7327
▁Objectif	-10.7355
▁partenariat	-10.7355
▁recevoir	-10.7356
▁téléversement	-10.7385
▁fusion	-10.7385
▁tuteur	-10.7385
▁ultérieurement	-10.7388
▁SAINT	-10.7416
atelier	-10.7417
trice	-10.7425
▁Limoges	-10.7446
▁dirigeant	-10.7446
▁préparatoire	-10.7446
▁redevable	-10.7446
impos	-10.7463
recrute	-10.7476
appréciation	-10.7477
▁extraordinaire	-10.7477
▁indiquant	-10.7477
▁radiologie	-10.7477
Pologne	-10.7477
axe	-10.7478
.1.3.	-10.7492
▁sévère	-10.7507
▁apportées	-10.7508
/2014	-10.7514
▁MOD	-10.7538
cardiovasculaire	-10.7538
▁Ministère	-10.7538
▁navigabilité	-10.7538
▁pollution	-10.7538
▁décédé	-10.7538
chimie	-10.7538
▁doté	-10.7559
Alexandra	-10.7569
▁Coefficient	-10.7569
▁moitié	-10.7569
attente	-10.757
artisan	-10.7596
▁caractéris	-10.7598
arrivée	-10.7599
électro	-10.7599
argument	-10.763
métrique	-10.763
▁résulte	-10.763
tivité	-10.7651
ault	-10.766
/2023-08-1	-10.7661
▁électoral	-10.7661
/2023-09-1	-10.7661
attention	-10.7661
adoption	-10.7665
▁ballast	-10.7693
▁machine	-10.7693
▁pourcentage	-10.7693
▁résident	-10.7723
▁occupé	-10.7724
▁organique	-10.7724
RAEP	-10.7731
▁Garantie	-10.7755
contractant	-10.7755
▁TABLEAU	-10.778
▁batterie	-10.7787
/2023-01-2	-10.7794
▁fermeture	-10.7818
▁éducative	-10.7818
optimis	-10.7818
▁ouvré	-10.7818
informer	-10.7825
audition	-10.7843
▁Assesseur	-10.785
▁suspendu	-10.785
▁CNIL	-10.785
instrument	-10.785
Arthur	-10.7851
▁utilisateurs	-10.7859
▁différence	-10.7882
▁pénétration	-10.7882
Amélie	-10.7882
▁contrepartie	-10.7883
utilisateur	-10.7904
▁daté	-10.7911
excède	-10.7913
▁comprennent	-10.7913
Pyrénées	-10.7913
▁mensuelle	-10.7915
▁correspondance	-10.7922
composante	-10.7931
▁initial	-10.7943
▁Définition	-10.7945
▁majorité	-10.7958
FORM	-10.7962
1.2	-10.7966
▁nouvel	-10.7972
▁barème	-10.7977
▁encore	-10.7979
▁envoyé	-10.801
▁détection	-10.801
▁indexation	-10.801
▁utilise	-10.8012
empêchement	-10.8015
▁implanté	-10.8019
occupation	-10.8042
▁convoqué	-10.8042
▁justifié	-10.8042
▁violences	-10.8042
conformité	-10.8058
▁Sécurité	-10.8074
▁déontologie	-10.8074
▁fabricant	-10.8074
▁réintégré	-10.8074
épargne	-10.8074
▁puisse	-10.8078
Thérèse	-10.8107
perfectionnement	-10.8107
▁statu	-10.811
Jacques	-10.8125
▁élaboré	-10.8139
▁consolidé	-10.8139
▁internationaux	-10.8139
▁sollicité	-10.8139
▁Martine	-10.8153
hapitre	-10.8165
escadron	-10.8172
▁concour	-10.8173
▁dose	-10.8178
ditrice	-10.8179
▁forêt	-10.8186
académique	-10.8192
exigence	-10.8195
Clémence	-10.8205
▁représentation	-10.8205
▁GUIL	-10.8215
équilibre	-10.8238
▁favorable	-10.8238
Moselle	-10.8239
▁forte	-10.8249
▁délégataire	-10.8271
▁renforcé	-10.8271
exonération	-10.8271
▁Limite	-10.8271
assiette	-10.8277
▁remplace	-10.8289
▁recyclage	-10.8304
▁syndicat	-10.8304
▁treizième	-10.8304
ommissariat	-10.8304
▁retiré	-10.8304
▁plaque	-10.8304
▁chronique	-10.8337
▁trafic	-10.8337
▁menace	-10.8337
▁Banque	-10.8337
Clara	-10.8339
OST	-10.8355
Edouard	-10.837
▁Associés	-10.837
▁Bulletin	-10.8404
▁sécurisé	-10.8404
▁solidaire	-10.8404
pompiers	-10.8437
▁cinquante	-10.8437
▁concertation	-10.8437
▁journée	-10.8445
▁vieillesse	-10.8471
▁planning	-10.8471
▁toutefois	-10.8471
▁ARMÉE	-10.8471
adj	-10.8471
5.1	-10.8483
▁Français	-10.8505
▁Officier	-10.8505
▁jeudi	-10.8505
▁séparé	-10.8505
▁tranche	-10.8505
▁géo	-10.8512
▁environnemental	-10.8527
acceptation	-10.8539
▁impositions	-10.8539
emprunt	-10.8573
▁préfectoral	-10.8573
▁chien	-10.8576
pharmaceutique	-10.8597
▁limitation	-10.8607
▁pétrolier	-10.8607
▁ventilation	-10.8607
▁réforme	-10.8608
▁utilisant	-10.8641
▁éducatif	-10.8641
existence	-10.8641
▁atteste	-10.8641
▁Bureau	-10.8646
Léo	-10.865
partie	-10.8663
étape	-10.8668
221-16	-10.8668
examinateur	-10.8675
kinésithérapeute	-10.8675
▁périodicité	-10.8675
▁renseigné	-10.8675
▁révision	-10.8675
▁colonne	-10.8675
inventaire	-10.8676
▁221-15	-10.8676
Damien	-10.8679
/2023-08-2	-10.8704
Normandie	-10.871
Elodie	-10.871
Justine	-10.871
▁Corps	-10.871
▁prévenir	-10.8716
▁normal	-10.873
▁coordonne	-10.8744
▁frontières	-10.8744
▁message	-10.8744
▁manuel	-10.8745
dernier	-10.8749
▁Jacqueline	-10.8779
▁dialogue	-10.8779
▁221-14	-10.8779
Légifrance	-10.8814
▁renforcer	-10.8814
Margaux	-10.8814
▁Durée	-10.8814
tude	-10.8844
identifiant	-10.8849
▁Monique	-10.8849
▁tonnes	-10.8849
▁résidentiel	-10.885
équivalence	-10.8884
▁formulée	-10.8884
aéroport	-10.8884
affilié	-10.8884
▁Tous	-10.8891
acheminement	-10.8919
▁Direction	-10.8919
élargi	-10.8932
▁scrutin	-10.8955
▁suppression	-10.8955
▁stricte	-10.8955
▁passation	-10.8965
▁Nombre	-10.899
traitant	-10.899
▁signalement	-10.8995
▁quotidien	-10.9026
Florent	-10.9026
ingénierie	-10.9026
insaisissab	-10.9026
assemblage	-10.9061
▁Trésor	-10.9061
▁cyber	-10.9061
▁capable	-10.9061
▁déclare	-10.9061
▁pompe	-10.9062
départementale	-10.9083
▁combat	-10.9097
▁locatif	-10.9098
autorise	-10.91
éligibilité	-10.9133
▁automatisé	-10.9133
▁vaisseau	-10.9133
▁établissant	-10.9133
▁parental	-10.9143
effluent	-10.9169
▁entrant	-10.9173
▁intégral	-10.9203
▁exploité	-10.9206
▁reçoivent	-10.9206
ARTICLE	-10.9206
▁partagé	-10.9206
type	-10.9228
▁profil	-10.9242
▁connexes	-10.9278
▁navigant	-10.9278
▁résiliation	-10.9278
▁reçoit	-10.9315
▁MARTIN	-10.9316
approche	-10.9348
▁distribué	-10.9352
▁volailles	-10.9352
Germain	-10.9352
▁terrestre	-10.9352
sapeurs	-10.9354
▁renvoi	-10.9354
emplacement	-10.9388
autoconsommation	-10.9389
▁SERVICE	-10.9389
▁vertical	-10.9389
▁déclarant	-10.9389
▁dangereuses	-10.9389
▁positionnement	-10.9389
éviter	-10.9389
Rémi	-10.9406
/2023-05-0	-10.9426
agriculteur	-10.9426
▁bail	-10.9429
informatique	-10.9453
▁constituant	-10.9463
▁forestier	-10.9463
▁territoriaux	-10.9463
Fanny	-10.9463
▁Nicole	-10.9463
▁fuite	-10.9463
▁chasse	-10.9468
faciale	-10.95
▁cellule	-10.95
▁réussite	-10.95
▁réduire	-10.95
▁audiovisuelle	-10.9501
▁révisé	-10.9501
▁rencontr	-10.9521
▁bataillon	-10.9538
▁pied	-10.9538
▁capture	-10.9541
▁requête	-10.9575
▁scolarité	-10.9575
enfance	-10.9578
▁donnant	-10.9613
info	-10.9636
Gironde	-10.9651
▁modernisation	-10.9651
▁541-10	-10.9653
▁septième	-10.9689
▁management	-10.9689
Savoie	-10.9689
▁micro	-10.9689
▁accusé	-10.9727
▁pulvérisation	-10.9727
▁bailleur	-10.9727
▁Voie	-10.9729
Terre	-10.9729
▁coll	-10.9733
Aquitaine	-10.9765
▁affranchie	-10.9765
▁efficace	-10.9765
▁retirer	-10.9765
▁invité	-10.9804
▁Sauf	-10.9804
espèce	-10.9833
▁semaine	-10.9838
▁évaluateurs	-10.9842
▁communauté	-10.9842
environ	-10.9845
▁vitesse	-10.9881
▁végétal	-10.9881
▁Albert	-10.9883
▁connu	-10.9884
▁bande	-10.9886
▁coordonné	-10.989
▁trace	-10.99
▁2023-2024	-10.992
▁confidentialité	-10.992
▁cultivées	-10.992
▁gratuit	-10.992
▁mesuré	-10.992
Manche	-10.9924
▁formé	-10.9954
infection	-10.9956
▁coopérative	-10.9959
▁satisfaisant	-10.9959
▁conduis	-10.9961
adapter	-10.9998
▁Peuvent	-10.9998
▁mutualis	-10.9998
▁commis	-11.0035
▁accrédité	-11.0038
▁identique	-11.0038
▁pertinence	-11.0038
▁confiance	-11.0038
Orient	-11.0038
RCS	-11.007
▁Substitut	-11.0077
▁quarante	-11.0077
▁restriction	-11.0077
▁rupture	-11.0077
Ludovic	-11.0117
▁alternative	-11.0117
▁régularisation	-11.0117
▁semestre	-11.0117
incident	-11.0117
▁Général	-11.0117
▁insuffisante	-11.0117
▁plage	-11.0117
Académie	-11.0157
▁appartient	-11.0157
▁autonome	-11.0157
▁primaire	-11.0157
▁rapide	-11.0157
▁certifie	-11.0157
▁UNITÉ	-11.0157
▁paritaire	-11.0161
ÉPREUVE	-11.0197
▁consultable	-11.0197
▁dommages	-11.0197
▁prévoyance	-11.0197
▁restreint	-11.0197
gastro	-11.0197
▁indiciaire	-11.0237
▁titularisation	-11.0237
▁traçabilité	-11.0237
▁concevoir	-11.0237
▁probation	-11.0237
fenêtre	-11.0237
▁permanence	-11.0277
▁prennent	-11.0277
▁préventive	-11.0277
Elise	-11.0279
bourg	-11.0285
▁Lucien	-11.0304
intolérance	-11.0318
▁forestière	-11.0318
▁renforcement	-11.0318
▁sexuel	-11.0318
▁Donnée	-11.0318
▁Royaume	-11.0358
▁facturé	-11.0358
▁samedi	-11.0358
alpinisme	-11.0359
ISSE	-11.0359
Jules	-11.0363
Mohamed	-11.0399
▁plastique	-11.0399
Carole	-11.0402
▁Dispositif	-11.044
▁clientèle	-11.044
▁consentement	-11.044
▁Serge	-11.0441
▁337-	-11.045
▁revaloris	-11.0481
▁régulier	-11.0481
▁Museum	-11.0481
JEAN	-11.05
administratif	-11.0504
.2.3.	-11.0505
▁abroge	-11.0523
▁accessoires	-11.0523
exemplaire	-11.0555
▁mensuel	-11.0562
▁modéré	-11.0564
▁mélange	-11.0564
▁revêt	-11.0564
▁futur	-11.0565
Mélanie	-11.0606
▁Lieutenant	-11.0606
▁anticipé	-11.0606
▁mutation	-11.0606
▁ISO	-11.0616
▁différent	-11.0617
▁antérieur	-11.0645
Occitanie	-11.0648
pprovisionnement	-11.0648
▁consignations	-11.0648
▁tôt	-11.0648
▁conçu	-11.0648
▁tension	-11.0648
mettant	-11.0653
document	-11.0673
justice	-11.0676
index	-11.069
▁prévision	-11.0698
▁2261-	-11.07
/2023-11	-11.0701
▁Légion	-11.0732
▁radioélectrique	-11.0732
▁Traitement	-11.0732
intranet	-11.0732
▁Francis	-11.0732
▁CSP	-11.0733
accepte	-11.0739
portions	-11.0752
exprim	-11.076
aquaculture	-11.0774
incidence	-11.0774
▁délimité	-11.0774
▁précédemment	-11.0774
▁thématique	-11.0774
▁construit	-11.0774
▁formalis	-11.0774
▁entendu	-11.0779
▁Forme	-11.0781
ASSO	-11.0793
Anthony	-11.0817
intégrité	-11.0817
▁RÉFÉRENTIEL	-11.0817
▁assorti	-11.0817
▁Toulon	-11.0817
▁bancaire	-11.0817
▁plate	-11.0817
Charente	-11.0821
▁blanc	-11.0839
observation	-11.085
▁bulletin	-11.086
▁poursuivre	-11.086
▁Seuls	-11.086
écriture	-11.0899
Agathe	-11.0903
Thibault	-11.0903
▁GRDF	-11.0903
▁Magistrat	-11.0903
▁dérivées	-11.0903
▁personnalisé	-11.0903
▁déduction	-11.0903
▁conflit	-11.0946
▁apparaît	-11.0946
▁démonstration	-11.0989
▁Option	-11.0989
▁motivation	-11.0989
INRIA	-11.0989
oût	-11.1014
aéronautique	-11.103
û	-11.1031
▁gériatrie	-11.1032
▁lendemain	-11.1032
▁progression	-11.1032
▁récapitulatif	-11.1032
Saône	-11.1032
▁Metz	-11.1033
exportation	-11.1033
▁stade	-11.1034
juridictionnelle	-11.104
kWh	-11.1076
▁incomplet	-11.1076
Hubert	-11.1076
▁recouvr	-11.1118
▁dissolution	-11.112
▁cursus	-11.112
▁cuve	-11.112
▁bassin	-11.1125
Inès	-11.1164
interprétation	-11.1164
▁sauvegarde	-11.1164
▁humaine	-11.1205
céder	-11.1206
▁Signature	-11.1208
▁Sociale	-11.1208
éducateur	-11.1208
▁servant	-11.1208
▁raccordé	-11.1209
▁tracé	-11.1209
▁siége	-11.1215
▁additionnel	-11.1253
▁sensibilisation	-11.1253
▁Numéro	-11.1253
▁volonté	-11.1253
▁était	-11.1253
Grégoire	-11.1297
▁cavalerie	-11.1297
▁copropriété	-11.1297
effort	-11.1297
exige	-11.1299
procureur	-11.1303
▁imparti	-11.1326
vasculaire	-11.1342
▁superficie	-11.1342
▁surveillant	-11.1342
aspirant	-11.1342
▁blindé	-11.1342
▁Emile	-11.1342
▁quelque	-11.1343
aucun	-11.1345
▁supplément	-11.1358
▁nécessitant	-11.1387
▁requérant	-11.1387
▁correcte	-11.1387
▁côté	-11.1387
hôtel	-11.1387
Château	-11.1387
▁Gestion	-11.1387
▁sexe	-11.1389
▁162-22-6	-11.1389
Muriel	-11.1395
▁milliard	-11.1432
▁Gilbert	-11.1432
Benoit	-11.1432
Manuel	-11.1433
▁rémunér	-11.1463
Arcueil	-11.1478
atalogue	-11.1478
horizon	-11.1478
▁restitution	-11.1478
▁contient	-11.1478
▁déposer	-11.1478
LLIER	-11.1494
encontre	-11.1499
▁SELARL	-11.1524
▁pathologie	-11.1524
▁prescripteur	-11.1524
▁corrective	-11.1569
▁délivre	-11.157
▁élabore	-11.1574
▁543-	-11.1612
Finistère	-11.1615
▁plaisance	-11.1615
▁résidus	-11.1615
▁boissons	-11.1616
▁variable	-11.1616
▁Nature	-11.1616
▁Pôle	-11.1616
hôpital	-11.1662
▁DIPL	-11.1662
Ukraine	-11.1708
▁compréhension	-11.1708
▁mobilise	-11.1708
▁semences	-11.1708
▁vocation	-11.1708
▁Suzanne	-11.1755
▁constructeur	-11.1755
▁correction	-11.1755
▁dérogatoire	-11.1755
▁mathématiques	-11.1755
▁naturalisation	-11.1755
▁orthopédique	-11.1755
▁CERTIFICAT	-11.1755
▁diagnostique	-11.1755
▁optique	-11.1756
▁Fiche	-11.1756
inscrivent	-11.1802
▁Ernest	-11.1802
échec	-11.1803
▁ASSOCIES	-11.1849
▁apprécié	-11.1849
▁hydraulique	-11.1849
▁instituant	-11.1849
▁pneumatiques	-11.1849
isolation	-11.1849
Yvelines	-11.1897
indépendance	-11.1897
ophtalmologie	-11.1897
▁complexe	-11.1897
▁remontée	-11.1897
▁soumet	-11.1898
▁consécutive	-11.1944
▁indemnitaire	-11.1944
▁progressive	-11.1944
▁vidéo	-11.1944
▁retard	-11.1945
/2023-10	-11.195
international	-11.1972
ACTIVITÉ	-11.1992
▁anonyme	-11.1992
▁spatial	-11.1992
▁gouvernement	-11.2025
Blanc	-11.203
▁immédiat	-11.2037
▁bouillie	-11.204
▁foncière	-11.204
▁enneigé	-11.204
éditeur	-11.2042
▁connect	-11.2044
Lionel	-11.2085
▁salariale	-11.2088
Hugues	-11.2088
Karine	-11.2089
durable	-11.2121
developpement	-11.2137
Samuel	-11.2137
▁psychologue	-11.2137
▁pulvérisateur	-11.2137
injection	-11.2137
▁certaine	-11.2165
▁2241-1	-11.2171
▁gouvernance	-11.2186
▁maternité	-11.2186
▁méthotrexate	-11.2186
▁récupération	-11.2186
▁visuel	-11.2196
individuellement	-11.2223
▁Geneviève	-11.2235
▁Michèle	-11.2235
▁municipal	-11.2235
▁ensuite	-11.2235
▁FORMATION	-11.2235
interromp	-11.2235
Myriam	-11.2284
▁maintenir	-11.2284
▁tourisme	-11.2284
▁Petit	-11.2285
Bénédicte	-11.2334
nutrition	-11.2334
▁comptabilis	-11.2334
▁fluvial	-11.2334
▁trésorerie	-11.2334
▁assisté	-11.2334
▁récolte	-11.2334
pdf	-11.2335
département	-11.2363
Isabelle	-11.2375
▁irrecevable	-11.2383
▁simultané	-11.2383
▁CMG	-11.2384
▁amené	-11.2384
interface	-11.2388
place	-11.2413
adhésion	-11.2433
▁foncier	-11.2433
▁habitants	-11.2433
▁inclut	-11.2433
▁présidé	-11.2433
▁moniteur	-11.2433
Micha	-11.2463
▁soin	-11.2472
▁navigables	-11.2484
▁clause	-11.2484
▁cardiaque	-11.2534
▁sauvetage	-11.2534
▁substitue	-11.2534
▁hépato	-11.2538
tribunaux	-11.2582
▁intègre	-11.2585
▁dynamique	-11.2585
entérologie	-11.2585
▁Activité	-11.2585
▁rampe	-11.2585
Amandine	-11.2585
▁Certificat	-11.259
Dominique	-11.2635
«	-11.2635
rectorat	-11.2636
▁exploite	-11.2636
▁problème	-11.2636
▁toiture	-11.2636
▁Fondation	-11.2636
▁variation	-11.2636
▁162-22-7	-11.2636
▁lecture	-11.2636
Calais	-11.2646
▁mobilisé	-11.2687
▁impérativement	-11.2687
▁mercredi	-11.2687
▁mécanisme	-11.2687
Vilaine	-11.2687
▁master	-11.2687
Margot	-11.2688
▁critère	-11.2735
interruption	-11.2739
▁Fernand	-11.2739
▁combiné	-11.2739
▁pondéré	-11.2739
assister	-11.2739
€	-11.2741
▁suspendre	-11.279
▁cortico	-11.279
▁précision	-11.279
▁Stade	-11.2791
▁nominal	-11.2795
▁oncologie	-11.2843
▁traiter	-11.2843
▁archives	-11.2843
uschw	-11.2844
DANS	-11.2855
▁compose	-11.2878
argent	-11.2886
▁PFMP	-11.2895
▁lauréats	-11.2895
▁réclamation	-11.2895
▁transmettent	-11.2895
▁civique	-11.2895
▁téléversé	-11.2895
commun	-11.2903
alternance	-11.2948
évacuation	-11.2948
▁développé	-11.2948
▁expérimental	-11.2948
▁réservation	-11.2948
▁similaire	-11.2948
▁affiché	-11.2948
travail	-11.2957
inclusion	-11.2959
déquation	-11.2976
▁préservation	-11.3
▁prothèse	-11.3
▁réserviste	-11.3
▁Cayenne	-11.3
sociaux	-11.3011
Axel	-11.3021
▁6221-	-11.3034
hypothèse	-11.3054
▁Spécialité	-11.3054
▁bénéficié	-11.3054
▁indispensable	-11.3054
▁critique	-11.3054
▁détient	-11.3054
education	-11.3054
▁détenues	-11.3054
Emploi	-11.3054
Lisa	-11.3066
▁empêch	-11.3098
Laboratoire	-11.3107
William	-11.3107
▁collectés	-11.3107
▁dépistage	-11.3107
▁Creuses	-11.3107
▁vacance	-11.3107
▁gérer	-11.3107
▁couvre	-11.3107
assesseur	-11.3107
Comté	-11.3118
Henri	-11.3122
▁modulation	-11.3161
▁Ainsi	-11.3161
▁corrigé	-11.3215
discrimination	-11.3215
▁boulevard	-11.3215
▁transparence	-11.3215
▁mettent	-11.3215
soriasi	-11.3215
▁prochain	-11.3216
Aurore	-11.3217
activation	-11.3269
▁déléguer	-11.3269
▁gamètes	-11.3269
Frédérique	-11.3269
exactitude	-11.3269
▁augmenté	-11.3269
▁adéquat	-11.3294
▁Candidat	-11.3324
▁consultatif	-11.3324
▁sergent	-11.3324
élimination	-11.3324
▁virus	-11.3324
Indre	-11.3337
sécurité	-11.3346
hélicoptère	-11.3379
▁Assurer	-11.3379
▁frégate	-11.3379
▁mémoire	-11.3379
azote	-11.3379
▁créancier	-11.3434
▁domestique	-11.3434
▁réflexion	-11.3434
écoulement	-11.3434
▁réalisant	-11.3434
extinction	-11.3434
▁Trois	-11.3434
système	-11.3459
adhérent	-11.349
instructeur	-11.349
▁pavillon	-11.349
▁pluridisciplina	-11.349
▁résistance	-11.349
▁titularisé	-11.349
▁rectification	-11.349
attractivité	-11.349
▁Créteil	-11.3546
▁doctorat	-11.3546
▁grâce	-11.3546
▁reversement	-11.3546
▁neurologie	-11.3546
insuffisance	-11.3546
implant	-11.3575
investigation	-11.3602
opératoire	-11.3602
édaillé	-11.3602
▁Directeur	-11.3602
▁Présentation	-11.3602
▁construire	-11.3602
▁spécifications	-11.3602
▁décidé	-11.3603
▁montagn	-11.3611
▁médiation	-11.3658
▁Personne	-11.3658
Liban	-11.3659
▁BRUN	-11.366
▁concentration	-11.3715
▁fondamentaux	-11.3715
▁métaux	-11.3715
▁perception	-11.3715
▁pneumologie	-11.3715
▁souscription	-11.3715
▁fruits	-11.3715
▁attesté	-11.3715
▁213-0	-11.3715
JORF	-11.3715
▁Communication	-11.3772
▁fourragère	-11.3772
▁méthodologie	-11.3772
importation	-11.3772
Essonne	-11.3772
affecte	-11.3772
▁approuv	-11.3777
▁rétabli	-11.38
▁classifié	-11.383
Orléans	-11.383
▁faculté	-11.383
▁plongée	-11.383
Noémie	-11.383
▁musique	-11.383
▁raisonnable	-11.383
▁golf	-11.383
Rémy	-11.383
Catherine	-11.3869
Marseille	-11.3869
▁interrégion	-11.3877
George	-11.3878
▁consistant	-11.3887
▁perspective	-11.3887
▁petits	-11.3887
▁traumatologique	-11.3887
▁uniforme	-11.3887
Guadeloupe	-11.3929
évènement	-11.3946
▁COMPÉTENCE	-11.3946
▁Critères	-11.3946
▁Description	-11.3946
▁octroyé	-11.3946
▁téléchargement	-11.3946
Robin	-11.3955
▁Bourgogne	-11.4004
▁Département	-11.4004
▁Justice	-11.4004
▁contingent	-11.4004
▁hebdomadaire	-11.4004
▁séquence	-11.4004
Jonathan	-11.4004
▁notice	-11.4004
▁interfère	-11.4004
Marianne	-11.4005
Julia	-11.4015
Guyane	-11.405
INSCRIPTION	-11.4063
▁consacré	-11.4063
▁hybride	-11.4063
▁téléprocédure	-11.4063
▁communautaire	-11.4063
▁servitudes	-11.4063
▁Type	-11.4063
▁mondial	-11.4064
▁Règle	-11.4107
▁insuffisa	-11.4122
▁Recueil	-11.4122
▁acquitté	-11.4122
▁Chorus	-11.4122
▁diligence	-11.4122
▁obstacle	-11.4122
▁diffuse	-11.4123
quatre	-11.4172
audiovisuel	-11.4181
▁Transport	-11.4182
▁décollage	-11.4182
▁démontrer	-11.4182
▁trajectoire	-11.4182
Gérald	-11.4182
▁socio	-11.4236
incapacité	-11.4241
œufs	-11.4241
▁Situation	-11.4241
▁déficit	-11.4241
▁énumérées	-11.4241
Drôme	-11.4241
▁ballon	-11.4242
Régis	-11.425
▁prononcé	-11.4281
titulaire	-11.4295
▁Travail	-11.4302
▁dimanche	-11.4302
▁distributeur	-11.4302
uranium	-11.4302
▁mutuelle	-11.4302
▁DEMANDE	-11.4362
▁déterminant	-11.4362
▁spéciaux	-11.4362
▁manipul	-11.4362
▁tarification	-11.4362
▁adopte	-11.4362
▁mémento	-11.4362
Corentin	-11.4363
▁Niveau	-11.4366
▁préside	-11.438
▁développe	-11.4393
▁aéroportuaire	-11.4423
exemption	-11.4423
▁Bpifrance	-11.4423
▁défaillance	-11.4423
Alban	-11.4426
▁Défense	-11.4485
▁circonscription	-11.4485
▁démocratique	-11.4485
▁promulgation	-11.4485
Micka	-11.4485
▁hydro	-11.4511
régional	-11.4546
huissier	-11.4546
▁patrimonial	-11.4546
▁Développe	-11.4546
▁postulant	-11.4546
Saclay	-11.4546
commissaire	-11.4546
hât	-11.4603
architecte	-11.4608
intégrer	-11.4608
▁Syndicat	-11.4608
▁jauge	-11.4608
▁rayon	-11.4609
annonce	-11.4609
écrire	-11.4611
médecin	-11.4612
▁tissu	-11.4653
Méditerranée	-11.4671
acquérir	-11.4671
▁biométhane	-11.4671
▁cohérent	-11.4671
▁comparaison	-11.4671
▁intellectuelle	-11.4671
▁longitude	-11.4671
▁prorata	-11.4671
Conseil	-11.4677
diabétologie	-11.4734
assujetti	-11.4734
▁dermatologie	-11.4734
épisode	-11.4734
▁publie	-11.4734
▁consenti	-11.4734
▁2022-172	-11.4739
▁intensive	-11.4797
▁kilomètre	-11.4797
▁marquage	-11.4797
▁dirigé	-11.4797
▁Commune	-11.4797
Hérault	-11.4861
▁immunologie	-11.4861
▁problématique	-11.4861
▁rattachement	-11.4861
▁synthétique	-11.4861
▁urgent	-11.4861
▁kVA	-11.4861
▁légaux	-11.4861
enveloppe	-11.4873
émetteur	-11.4925
▁chaîne	-11.4925
▁manutention	-11.4925
▁mobilisation	-11.4925
▁valorisé	-11.4925
▁litige	-11.4925
Magali	-11.4926
▁centraux	-11.4989
▁quelconque	-11.4989
▁légère	-11.4989
:	-11.9178
;	-11.9593
»	-11.9699
%	-12.2243
“	-12.7124
<	-13.3091
è	-13.3091
