<unk>	0
<s>	0
</s>	0
▁de	-3.08998
'	-3.31836
,	-3.48119
s	-3.68612
▁	-3.70497
.	-3.76784
▁l	-3.90045
▁du	-3.94406
▁la	-3.94759
▁et	-4.22302
▁des	-4.28798
▁à	-4.32628
▁d	-4.33796
-	-4.65853
▁le	-4.68253
▁les	-4.68883
▁(	-4.8341
▁au	-4.86233
▁en	-4.87591
▁:	-4.95634
▁est	-5.09513
▁«	-5.09733
▁;	-5.1297
▁par	-5.1565
e	-5.18646
/	-5.23629
)	-5.37168
▁L	-5.4296
▁ou	-5.44863
article	-5.47151
—	-5.47304
▁dans	-5.57509
▁M	-5.68255
▁pour	-5.68976
▁»	-5.72292
▁sont	-5.77707
▁Le	-5.82499
▁aux	-5.83878
),	-5.90351
er	-5.97871
▁un	-6.03193
A	-6.03601
es	-6.05545
▁Mme	-6.06242
r	-6.09134
▁sur	-6.09769
▁1	-6.1522
▁Les	-6.16685
▁arrêté	-6.16814
un	-6.20505
▁présent	-6.23883
).	-6.24768
▁ministre	-6.2673
▁une	-6.30784
▁qui	-6.32128
▁R	-6.34343
▁La	-6.37256
une	-6.43249
▁code	-6.43682
▁date	-6.44117
▁A	-6.46033
▁fr	-6.46478
▁n	-6.47309
°	-6.48425
▁ainsi	-6.53434
lr	-6.53469
▁mots	-6.5826
▁que	-6.58967
é	-6.64026
▁B	-6.69221
▁portant	-6.71325
▁Arrêté	-6.72836
S	-6.73831
arrete	-6.74365
▁alinéa	-6.75272
▁a	-6.76742
▁D	-6.77244
▁dispositions	-6.78505
▁décret	-6.79573
▁2	-6.79697
▁services	-6.82997
▁officiel	-6.83413
▁titre	-6.83631
▁I	-6.85196
c	-6.87027
▁être	-6.88262
▁Journal	-6.88509
d	-6.90562
▁avec	-6.91597
▁française	-6.93582
▁République	-6.9414
▁Par	-6.95166
de	-6.96644
D	-6.99863
il	-7.00421
a	-7.00468
▁conditions	-7.00675
▁S	-7.00853
▁C	-7.01827
▁général	-7.03607
▁sera	-7.04067
▁décembre	-7.0437
t	-7.04589
▁ne	-7.04956
▁cas	-7.05472
▁Au	-7.05738
▁leur	-7.06247
▁ce	-7.066
▁2020	-7.06827
▁3	-7.07214
▁1°	-7.08311
▁s	-7.08726
▁son	-7.08963
▁nationale	-7.09395
▁sous	-7.10212
▁directeur	-7.10656
ment	-7.10696
n	-7.11041
▁2019	-7.11257
▁II	-7.118
▁santé	-7.13045
▁P	-7.13057
▁2°	-7.13296
▁pas	-7.13425
administration	-7.14642
▁générale	-7.14937
▁ses	-7.15243
▁2018	-7.1549
▁ans	-7.15495
▁sécurité	-7.15656
l	-7.18322
arrêté	-7.18537
▁professionnelle	-7.1862
▁qu	-7.19117
▁publié	-7.19736
▁service	-7.19759
▁travail	-7.198
▁peut	-7.19992
▁compter	-7.20189
ant	-7.2041
▁2021	-7.2044
le	-7.21379
C	-7.22002
2	-7.22335
▁dont	-7.22339
Etat	-7.22883
▁janvier	-7.23027
▁concours	-7.23986
▁chargé	-7.24026
nt	-7.24634
▁4	-7.2512
▁société	-7.26225
y	-7.27167
en	-7.27516
on	-7.28551
▁5	-7.29634
B	-7.30794
▁même	-7.31381
E	-7.31808
▁6	-7.31917
i	-7.32057
▁formation	-7.32287
▁19	-7.32349
1	-7.33908
▁juillet	-7.34844
▁G	-7.3499
▁sa	-7.35184
▁c	-7.36476
ou	-7.36874
▁b	-7.37387
▁notaire	-7.37428
M	-7.37909
▁susvisé	-7.38199
3	-7.3889
▁2022	-7.3901
al	-7.3914
▁articles	-7.40562
▁relatif	-7.40956
in	-7.41281
▁N	-7.41374
▁demande	-7.41389
▁modifié	-7.41894
▁mai	-7.42814
▁F	-7.43461
P	-7.44475
▁7	-7.44619
▁publics	-7.45289
▁mars	-7.45341
▁premier	-7.45533
ation	-7.45675
▁-	-7.46146
▁titulaire	-7.46447
au	-7.47038
▁T	-7.48475
▁liste	-7.48548
u	-7.48663
▁<	-7.48829
▁cette	-7.48867
TABLE	-7.48893
>	-7.48976
▁justice	-7.49142
▁publique	-7.49148
▁Il	-7.49892
▁juin	-7.49971
▁gestion	-7.51368
▁sociale	-7.51976
▁En	-7.52759
▁durée	-7.53342
▁ministère	-7.53491
▁12	-7.53556
T	-7.53579
▁novembre	-7.54025
G	-7.5428
▁septembre	-7.55014
▁ces	-7.55479
▁octobre	-7.55655
▁31	-7.56081
o	-7.56189
▁Pour	-7.56218
▁9	-7.56318
or	-7.56749
f	-7.57379
▁avril	-7.57688
7	-7.57751
4	-7.57868
et	-7.57961
▁application	-7.58089
▁prévues	-7.58237
▁se	-7.58279
exécution	-7.58333
▁8	-7.58651
▁après	-7.58675
▁civile	-7.58707
6	-7.58894
▁candidats	-7.58932
▁qualité	-7.58941
▁Paris	-7.59438
▁plus	-7.59448
▁électronique	-7.59548
▁classe	-7.59793
5	-7.60057
▁conseil	-7.60118
an	-7.60683
▁février	-7.60927
re	-7.61027
▁V	-7.61115
▁entre	-7.61686
▁p	-7.62565
▁direction	-7.62729
▁national	-7.63062
▁il	-7.63773
g	-7.64143
▁remplacés	-7.64243
L	-7.64382
▁3°	-7.64555
▁nomination	-7.64623
F	-7.64649
ent	-7.65083
p	-7.65247
ci	-7.65309
8	-7.65499
R	-7.657
▁30	-7.66508
▁13	-7.66714
▁DE	-7.66744
▁chef	-7.67326
▁Art	-7.67428
▁III	-7.6776
ur	-7.68631
H	-7.68876
▁CHU	-7.68961
▁suivantes	-7.69166
▁22	-7.69459
▁compte	-7.70084
▁16	-7.70906
▁Marie	-7.71646
▁public	-7.71855
▁auprès	-7.72109
▁15	-7.72261
▁10	-7.7229
▁août	-7.7247
▁personnes	-7.72863
▁23	-7.72899
it	-7.72936
▁née	-7.73468
▁mise	-7.73911
0	-7.74226
▁21	-7.74927
▁partir	-7.75068
▁20	-7.75167
▁peuvent	-7.75787
▁montant	-7.75894
▁cadre	-7.76031
▁»,	-7.76073
▁convention	-7.76381
▁fonctions	-7.76521
▁ré	-7.76559
année	-7.76569
▁14	-7.76571
application	-7.76589
ra	-7.76987
▁17	-7.7819
▁11	-7.78191
exercice	-7.79012
▁candidat	-7.79043
▁dossier	-7.79151
9	-7.79341
▁président	-7.7952
▁finances	-7.79575
▁deux	-7.79694
▁Saint	-7.79943
▁recherche	-7.80631
la	-7.80802
▁H	-7.80937
▁fonction	-7.80996
N	-7.81667
▁non	-7.82118
▁résidence	-7.82274
▁professionnel	-7.83487
▁modalités	-7.84638
▁».	-7.84769
▁médecine	-7.85839
▁mentionnés	-7.85892
▁membres	-7.86002
▁contrôle	-7.87007
IN	-7.87055
▁tous	-7.87182
▁18	-7.87362
▁loi	-7.87703
▁sein	-7.89175
▁Décret	-7.89195
h	-7.89289
▁délai	-7.90203
▁mois	-7.90561
ine	-7.90966
m	-7.91559
▁24	-7.92014
▁accessible	-7.92427
▁fixant	-7.9262
és	-7.92643
▁moins	-7.92726
▁Dans	-7.92737
I	-7.93147
is	-7.93184
▁charge	-7.93595
▁remplacé	-7.9368
▁fin	-7.93907
▁nombre	-7.94018
▁droit	-7.9431
▁con	-7.94362
▁applicables	-7.94792
▁supérieur	-7.95418
▁Jean	-7.95474
ne	-7.96213
1-1	-7.9664
▁re	-7.96646
est	-7.96879
▁E	-7.97002
di	-7.97057
▁texte	-7.97234
▁dé	-7.97296
▁leurs	-7.97489
▁in	-7.97503
▁né	-7.97851
établissement	-7.99117
▁25	-7.99549
inscription	-7.99652
enseignement	-7.99753
▁centre	-8.00425
us	-8.00934
▁mentionnées	-8.01062
▁comme	-8.01684
▁voie	-8.02098
information	-8.02724
▁Conseil	-8.03059
▁chaque	-8.03574
▁garde	-8.03722
▁bas	-8.03963
▁soit	-8.03963
b	-8.04088
▁France	-8.04194
▁rédigé	-8.04628
▁tout	-8.04944
▁conformément	-8.05823
▁page	-8.06519
▁f	-8.06711
▁œuvre	-8.06812
▁épreuves	-8.07072
el	-8.0814
▁26	-8.08254
▁établissements	-8.08264
annexe	-8.08277
▁concerne	-8.08279
emploi	-8.08365
extrait	-8.08625
▁28	-8.09336
▁limite	-8.09512
▁corps	-8.09606
▁consulter	-8.099
▁réserve	-8.10028
▁mot	-8.10049
▁4°	-8.10059
▁avant	-8.10149
▁27	-8.10165
age	-8.10345
▁données	-8.10375
▁nom	-8.10721
20	-8.11087
▁règlement	-8.11218
▁ci	-8.11247
▁sceaux	-8.11442
▁deuxième	-8.11983
intégralité	-8.12075
▁commission	-8.12399
ac	-8.12759
ar	-8.12967
▁notamment	-8.1303
ée	-8.13316
▁doit	-8.13329
▁cours	-8.1357
▁m	-8.13759
▁section	-8.13876
▁prévue	-8.1388
▁selon	-8.14233
▁images	-8.1435
z	-8.14371
▁Vous	-8.14702
▁pouvez	-8.14846
▁référence	-8.14847
ie	-8.14847
te	-8.15067
▁membre	-8.15087
▁authentifié	-8.15158
▁IV	-8.15532
▁vigueur	-8.15619
▁bureau	-8.15716
▁mentionné	-8.15845
▁29	-8.16229
économie	-8.16264
▁personne	-8.16343
▁site	-8.16451
action	-8.1666
▁représentant	-8.1687
k	-8.1687
▁contre	-8.16894
aux	-8.17546
▁tableau	-8.17796
at	-8.1789
activité	-8.18068
▁prise	-8.18416
2-1	-8.19257
▁mentionnée	-8.19279
ro	-8.19371
▁période	-8.19479
Y	-8.19745
▁“	-8.20063
ité	-8.20279
▁droits	-8.20384
▁partie	-8.20444
objet	-8.2047
cret	-8.20493
É	-8.20541
▁traitement	-8.21062
▁chargés	-8.21262
▁été	-8.21669
▁article	-8.2188
ot	-8.22004
▁personnel	-8.22068
-2	-8.22287
▁lieu	-8.22342
▁protection	-8.22787
▁collective	-8.22904
▁situation	-8.2313
me	-8.23199
▁chacun	-8.23685
▁ayant	-8.23705
▁décision	-8.2372
▁échéant	-8.23748
▁grade	-8.23764
éducation	-8.23851
▁trois	-8.23935
21	-8.244
ON	-8.24569
▁judiciaire	-8.24645
ol	-8.24743
▁fait	-8.25079
ul	-8.25118
fr	-8.256
elle	-8.25741
▁2017	-8.25925
▁""	-8.26152
lo	-8.26161
V	-8.2674
les	-8.27013
ées	-8.27322
im	-8.2733
▁hors	-8.27421
▁recrutement	-8.27821
environnement	-8.28227
▁sans	-8.29023
OU	-8.29048
à	-8.29126
ensemble	-8.29519
▁respect	-8.29585
▁agents	-8.29709
▁dernier	-8.29792
▁directrice	-8.2986
accès	-8.29904
v	-8.29979
▁contrat	-8.30815
accord	-8.30941
▁comptes	-8.31173
▁tribunal	-8.31179
autorité	-8.31271
▁affaires	-8.31329
office	-8.31611
▁comité	-8.31849
▁relatives	-8.3187
▁si	-8.32026
RE	-8.32371
▁produits	-8.32705
▁nommée	-8.32809
▁accord	-8.32829
▁annexe	-8.3288
eau	-8.3299
O	-8.33077
▁responsabilité	-8.33321
am	-8.33567
▁première	-8.33708
▁chapitre	-8.33931
▁nommé	-8.34085
▁0	-8.34889
▁J	-8.35234
officiers	-8.35243
épreuve	-8.35565
ER	-8.35966
▁région	-8.36592
organisation	-8.36909
▁faire	-8.36976
and	-8.36989
▁K	-8.3744
▁associés	-8.37589
▁g	-8.37802
▁entreprises	-8.38013
▁Après	-8.38439
▁publiques	-8.38581
▁ministériels	-8.39109
▁jusqu	-8.39183
ri	-8.39567
JUSC	-8.40237
aide	-8.40326
▁autres	-8.40364
▁niveau	-8.40567
▁”	-8.41278
té	-8.41297
▁heures	-8.41691
▁défense	-8.41759
ré	-8.41808
▁rapport	-8.41902
U	-8.41945
▁zone	-8.42331
du	-8.42409
eur	-8.42547
▁relevant	-8.42559
▁collectivités	-8.4258
ement	-8.42781
ouverture	-8.42948
▁toute	-8.43005
um	-8.43072
▁publication	-8.43232
▁Un	-8.43574
AL	-8.43607
▁ANNEXE	-8.43667
ir	-8.43733
▁tard	-8.43742
▁matière	-8.43839
▁suivant	-8.43925
▁interne	-8.44177
examen	-8.44328
▁présente	-8.44594
01	-8.44648
00	-8.44773
▁épouse	-8.4502
-3	-8.45071
▁technique	-8.45364
▁actes	-8.45513
▁2019,	-8.45555
▁suit	-8.45996
▁2020,	-8.4606
▁autre	-8.46062
1-2	-8.46124
▁activités	-8.46534
EL	-8.46803
ES	-8.46953
▁chargée	-8.46956
ti	-8.47099
▁ressources	-8.47655
▁département	-8.47684
▁techniques	-8.47734
▁modifiant	-8.47838
vi	-8.47855
▁ligne	-8.48191
▁mission	-8.48538
▁jours	-8.48644
ch	-8.4896
évaluation	-8.49359
▁2021,	-8.4943
▁retraite	-8.4974
▁troisième	-8.49842
▁certificat	-8.49854
2-2	-8.49865
▁travaux	-8.49949
▁prévu	-8.50026
▁également	-8.50378
▁compétences	-8.50445
▁inter	-8.50543
▁armées	-8.50668
ard	-8.50785
▁culture	-8.50812
appel	-8.51085
▁mesures	-8.51319
tre	-8.51472
▁2022,	-8.51537
▁5°	-8.51706
▁fixé	-8.51861
intérieur	-8.51959
▁jour	-8.52212
▁Sont	-8.52515
▁doivent	-8.52546
▁«-	-8.52592
lé	-8.52657
▁plan	-8.52671
▁pré	-8.53142
▁pris	-8.53406
ordre	-8.53846
▁Cette	-8.53885
admission	-8.53934
▁effet	-8.5396
ion	-8.53973
▁secrétaire	-8.54185
30	-8.54203
▁procédure	-8.5431
▁informations	-8.54424
AN	-8.54498
aire	-8.54562
▁lorsque	-8.54924
▁opérations	-8.55184
ia	-8.55223
▁mis	-8.55305
▁lors	-8.55486
▁suivante	-8.55534
mer	-8.55638
▁poste	-8.56058
ance	-8.56207
ique	-8.56453
ge	-8.56499
▁part	-8.56719
▁jury	-8.56888
que	-8.56911
▁fixée	-8.57065
▁adjoint	-8.57079
tra	-8.57228
agriculture	-8.57234
▁LA	-8.5736
lle	-8.57468
oc	-8.57494
▁transport	-8.57808
22	-8.57978
exploitation	-8.58046
▁livre	-8.58088
3-1	-8.58305
▁2018,	-8.58717
▁postes	-8.58798
▁ont	-8.58827
état	-8.5888
J	-8.58908
ub	-8.5891
▁compris	-8.58964
▁Elle	-8.59265
▁avis	-8.59914
▁office	-8.59952
ma	-8.60156
▁DU	-8.6018
▁nature	-8.6033
▁pro	-8.60576
ex	-8.60631
▁phrase	-8.61037
CH	-8.61404
▁projet	-8.61512
▁salariée	-8.61989
▁remplacement	-8.62405
ence	-8.62461
▁2.	-8.62721
▁préfet	-8.62752
▁mention	-8.6316
▁territoire	-8.63292
▁administrative	-8.63367
▁De	-8.63832
adresse	-8.63857
▁y	-8.63909
ut	-8.64324
▁Article	-8.64546
31	-8.64563
Institut	-8.64974
▁DES	-8.65049
▁développement	-8.65078
K	-8.65108
▁Ce	-8.65273
▁Lorsque	-8.65292
▁suivants	-8.6547
▁o	-8.65471
OR	-8.65808
li	-8.65831
ab	-8.66249
assurance	-8.66543
ont	-8.66618
▁actions	-8.66757
▁social	-8.66881
▁prend	-8.67035
▁abrogé	-8.67166
▁représentants	-8.67198
▁définies	-8.67238
onne	-8.67322
▁t	-8.67417
▁spécialité	-8.67424
mi	-8.6745
▁suivi	-8.67469
ag	-8.67544
organisme	-8.67799
▁médecin	-8.68083
min	-8.68283
▁conclu	-8.68334
▁transition	-8.6849
rie	-8.68496
énergie	-8.68919
10	-8.69111
▁police	-8.69309
▁pêche	-8.6957
12	-8.69582
▁Pierre	-8.69862
as	-8.7035
▁maladie	-8.7039
▁européenne	-8.70453
▁médicale	-8.70837
ite	-8.70857
ET	-8.70926
▁relative	-8.71518
11	-8.7159
25	-8.7173
09	-8.71883
24	-8.7189
▁inséré	-8.71895
LE	-8.71939
▁disposition	-8.72231
Pierre	-8.72246
sur	-8.72247
▁complété	-8.72253
UE	-8.72388
▁place	-8.7241
▁33	-8.72521
x	-8.72549
▁supérieure	-8.72558
▁fixées	-8.72637
▁documents	-8.72643
▁base	-8.73027
▁O	-8.7306
iste	-8.73096
os	-8.73234
ad	-8.73511
▁remplacée	-8.73618
▁écologique	-8.73747
▁cet	-8.7378
entreprise	-8.74136
ère	-8.74487
▁permettant	-8.74608
na	-8.74642
tion	-8.74698
▁organismes	-8.74828
▁modifiée	-8.74857
14	-8.74921
▁budget	-8.75006
▁personnels	-8.75244
▁susvisée	-8.75246
▁système	-8.75317
-1	-8.7549
▁réception	-8.75525
▁pièces	-8.75527
po	-8.75807
gé	-8.7629
▁limitée	-8.76435
▁insérés	-8.76657
▁externe	-8.76851
▁régionale	-8.76956
▁salariés	-8.77012
id	-8.77292
07	-8.77361
▁déclaration	-8.77494
▁Centre	-8.77542
ier	-8.77588
▁h	-8.77602
▁plusieurs	-8.77644
Z	-8.77659
▁nécessaires	-8.77851
▁1.	-8.77957
▁humaines	-8.78256
▁2016	-8.78263
200	-8.78332
RI	-8.7836
ay	-8.78402
▁sanitaire	-8.78551
▁internet	-8.78573
op	-8.78598
▁admis	-8.78824
19	-8.79103
▁Ces	-8.79262
▁vice	-8.79741
▁prestations	-8.79835
RA	-8.79953
▁faisant	-8.80036
installation	-8.80045
▁000	-8.8008
▁règles	-8.80137
Jean	-8.80167
▁Une	-8.80215
che	-8.80421
▁supprimés	-8.80796
▁lui	-8.80894
▁production	-8.80928
▁32	-8.81133
05	-8.81219
▁ex	-8.81512
AT	-8.81539
CE	-8.81562
effet	-8.8185
▁établi	-8.81927
co	-8.81945
▁libéral	-8.81986
▁numérique	-8.82004
▁Si	-8.82045
AR	-8.82097
▁pendant	-8.82468
▁principal	-8.82474
EN	-8.82554
▁territoriale	-8.82853
to	-8.82885
ni	-8.8317
▁champ	-8.8318
ter	-8.83418
ale	-8.83582
▁communication	-8.83678
ign	-8.83681
mé	-8.83682
utilisation	-8.83683
Assistance	-8.83777
▁bis	-8.83796
ce	-8.84016
▁prendre	-8.84225
EC	-8.84235
▁notaires	-8.84438
▁délégué	-8.8449
▁zones	-8.84511
▁type	-8.84521
▁marché	-8.84542
▁médical	-8.84787
▁donnée	-8.84834
ils	-8.84841
-10	-8.84877
iv	-8.8551
▁responsable	-8.85539
▁6°	-8.85737
w	-8.85742
▁soins	-8.85946
33	-8.86235
Union	-8.86417
▁temporaire	-8.86495
▁transports	-8.86644
end	-8.87057
▁désigné	-8.87116
▁conseiller	-8.87216
23	-8.87265
▁missions	-8.87398
art	-8.87406
▁attributions	-8.87428
▁professionnels	-8.87437
eurs	-8.87495
entrée	-8.87554
ph	-8.87976
▁Nigen	-8.87983
▁centrale	-8.88015
ure	-8.88043
autorisation	-8.88052
▁décisions	-8.88117
▁éléments	-8.88181
26	-8.88234
▁diplôme	-8.88273
▁Partie	-8.88327
int	-8.88378
▁particulier	-8.88518
▁délégation	-8.88587
▁forme	-8.88625
02	-8.88708
▁candidature	-8.88731
06	-8.88745
▁an	-8.88816
bi	-8.88905
▁financement	-8.89042
▁régime	-8.89051
▁comptable	-8.89078
▁LE	-8.89104
ologie	-8.89284
▁paragraphe	-8.8931
▁spécialités	-8.89332
om	-8.89379
qu	-8.8944
▁économique	-8.89462
▁celles	-8.8953
▁laquelle	-8.8956
▁dépôt	-8.89579
04	-8.9
08	-8.90062
IL	-8.90138
▁3.	-8.90569
▁VI	-8.90762
▁outre	-8.90834
▁correspondant	-8.90897
▁programme	-8.91074
▁territoriales	-8.91132
▁Cha	-8.91612
▁Ch	-8.91748
▁toutes	-8.91809
▁logement	-8.91829
tte	-8.91831
15	-8.91896
après	-8.92101
50	-8.92108
▁groupe	-8.92145
▁co	-8.92205
isation	-8.92298
▁siège	-8.92325
è	-8.92689
▁sens	-8.92703
oy	-8.92907
▁français	-8.93036
Ecole	-8.93145
▁modification	-8.93174
1-3	-8.93591
▁euros	-8.93646
ive	-8.93678
▁vue	-8.93736
▁maritime	-8.93936
th	-8.94004
eux	-8.94171
▁études	-8.94304
▁42	-8.94306
▁création	-8.94454
Agence	-8.94601
▁inscriptions	-8.94714
▁dispositif	-8.94755
j	-8.94782
▁régional	-8.94863
ob	-8.94905
▁groupement	-8.95084
34	-8.95134
▁dérogation	-8.95221
▁commune	-8.95309
▁ma	-8.95681
▁frais	-8.95751
▁paiement	-8.95962
▁secteur	-8.95968
étendue	-8.96022
▁gaz	-8.96073
▁afin	-8.96244
▁W	-8.96293
▁point	-8.96346
03	-8.96401
▁commissaire	-8.96443
18	-8.96604
AC	-8.96667
▁celui	-8.96956
our	-8.97108
▁associé	-8.97119
DE	-8.97198
up	-8.97611
▁document	-8.97665
ise	-8.97686
▁charges	-8.97773
▁Premier	-8.97829
▁signer	-8.98135
▁mesure	-8.9819
TE	-8.98426
ens	-8.98484
alimentation	-8.98512
▁risques	-8.98518
ois	-8.9866
▁Ma	-8.98792
▁établissement	-8.98803
▁domaine	-8.99076
▁exercer	-8.99152
▁cour	-8.99155
elles	-8.99246
▁douanes	-8.99247
IS	-8.99317
aptitude	-8.99401
▁prévention	-8.99511
▁temps	-8.9961
▁commerce	-8.99622
▁communes	-8.99778
Marie	-8.99831
espace	-8.99971
▁instance	-9.00006
▁Re	-9.00266
able	-9.00333
ron	-9.004
▁jeunesse	-9.00489
▁nouvelle	-9.00547
if	-9.00585
▁territoires	-9.0067
▁relance	-9.00686
ARD	-9.00792
France	-9.00837
▁européen	-9.01091
ca	-9.01127
▁moyen	-9.0126
4-1	-9.01365
▁taux	-9.01422
▁six	-9.0165
▁figurant	-9.01728
▁transmis	-9.01773
▁ingénieur	-9.01826
76	-9.01842
chef	-9.01869
32	-9.01891
▁In	-9.01909
tant	-9.01914
▁cabinet	-9.0227
▁précise	-9.02293
gu	-9.02501
▁44	-9.02502
43	-9.02593
val	-9.02759
▁comporte	-9.02783
AM	-9.02784
▁(1),	-9.02832
agent	-9.03333
▁celle	-9.03386
▁installations	-9.03575
▁vote	-9.03578
exception	-9.03615
77	-9.03671
▁ET	-9.03858
▁créé	-9.03987
ix	-9.03991
▁elle	-9.04095
▁proposition	-9.04299
gouv	-9.0449
aménagement	-9.04501
▁dernière	-9.04549
▁certification	-9.0478
▁retrait	-9.04829
ga	-9.04991
▁grande	-9.05077
60	-9.05105
▁année	-9.0515
absence	-9.05154
accueil	-9.05198
▁activité	-9.05361
▁fonctionnement	-9.05363
35	-9.05476
▁relatifs	-9.05488
ME	-9.05562
▁réalisation	-9.05577
40	-9.05583
▁cinq	-9.05644
aires	-9.0627
dé	-9.06318
ig	-9.0635
▁profession	-9.06419
iss	-9.06452
▁note	-9.06489
usage	-9.06503
13	-9.06597
ic	-9.06717
ry	-9.06741
ction	-9.06766
53	-9.06789
▁nommés	-9.06912
▁servitudes	-9.06929
▁scientifique	-9.07035
▁applicable	-9.07058
▁salarié	-9.07085
▁foi	-9.07181
(	-9.0731
aviation	-9.07376
opération	-9.07479
▁alinéas	-9.07533
mo	-9.07714
ible	-9.07776
insertion	-9.07786
▁rémunération	-9.07906
▁juge	-9.08547
▁systèmes	-9.0861
57	-9.08617
▁situé	-9.08652
▁Con	-9.08675
▁avoir	-9.0874
aud	-9.08836
ette	-9.08881
▁hospitalier	-9.08942
▁Co	-9.09114
16	-9.09173
NE	-9.092
67	-9.09203
unité	-9.09488
▁titulaires	-9.09509
66	-9.09602
▁dépenses	-9.0961
AS	-9.09777
▁catégorie	-9.09904
▁emplois	-9.09915
▁orale	-9.10159
▁concernant	-9.10385
▁Mar	-9.1039
58	-9.10421
ten	-9.10434
▁2015	-9.10457
▁second	-9.10682
tri	-9.10836
con	-9.10868
▁Michel	-9.11145
▁prévus	-9.11279
▁2014	-9.11357
pé	-9.11423
41	-9.11431
intérêt	-9.11569
gue	-9.11827
uc	-9.11912
▁construction	-9.12197
45	-9.12325
▁seront	-9.12343
CI	-9.12515
▁unique	-9.12538
vre	-9.12685
42	-9.12692
▁tant	-9.1271
▁étrangères	-9.12814
75	-9.12955
2-3	-9.12975
▁rue	-9.13009
▁solidarités	-9.13073
▁34	-9.13083
88	-9.13083
▁Président	-9.13132
▁station	-9.13199
28	-9.13278
▁Des	-9.13304
68	-9.13472
▁Ier	-9.13487
▁vi	-9.13594
69	-9.13737
avenant	-9.13899
27	-9.14192
▁normale	-9.14247
ins	-9.14349
par	-9.14422
urgence	-9.1444
▁comprend	-9.14519
▁caractère	-9.14555
-19	-9.14574
eu	-9.14709
▁état	-9.14797
▁adresse	-9.14818
autre	-9.14834
▁parcours	-9.14886
no	-9.14984
offre	-9.15008
17	-9.15079
▁gendarmerie	-9.15082
▁Lyon	-9.15238
▁surveillance	-9.15249
▁35	-9.15285
ist	-9.15296
ille	-9.15465
▁moyens	-9.15527
44	-9.15575
▁tenu	-9.15711
▁recours	-9.15728
▁total	-9.15757
▁fixe	-9.15838
▁consommation	-9.16039
ais	-9.16179
étranger	-9.16292
▁administratif	-9.16312
61	-9.16371
-5	-9.16373
▁relations	-9.16383
▁chambre	-9.1639
tique	-9.16415
OT	-9.16613
46	-9.16806
▁quatre	-9.16815
-4	-9.16833
▁patients	-9.1684
51	-9.16855
pl	-9.16915
▁Cour	-9.17051
pa	-9.17142
▁Commission	-9.1719
▁dossiers	-9.17201
▁défaut	-9.17347
▁défini	-9.17356
47	-9.17403
origine	-9.17426
sion	-9.17449
exploitant	-9.17465
87	-9.17505
avis	-9.17541
70	-9.17625
▁raison	-9.18007
expérimentation	-9.18047
ANT	-9.18067
▁adjointe	-9.18121
79	-9.18201
▁parties	-9.18252
▁François	-9.18326
▁coopération	-9.18381
hi	-9.18474
▁déc	-9.18543
LA	-9.18825
▁fonds	-9.19021
▁obligations	-9.19046
AU	-9.19137
▁commun	-9.19275
▁7°	-9.19419
W	-9.19582
▁Délégation	-9.19583
▁rédaction	-9.19651
exclusion	-9.19739
▁maître	-9.19759
IT	-9.19762
▁2022.	-9.19823
84	-9.19923
29	-9.20046
▁compétente	-9.20328
85	-9.20442
▁acquis	-9.20502
▁réseau	-9.20583
engagement	-9.206
ables	-9.20603
ations	-9.20657
ième	-9.20938
▁transmission	-9.21186
▁valeur	-9.2136
▁handicap	-9.21363
ang	-9.21409
▁mandat	-9.21423
▁résultats	-9.21426
nement	-9.21433
▁principale	-9.21436
▁terrain	-9.2157
▁41	-9.21702
▁Philippe	-9.21824
SE	-9.21961
▁obtenu	-9.22106
▁eaux	-9.22312
inspection	-9.22521
sse	-9.227
ly	-9.22727
▁Est	-9.22739
▁2021.	-9.22902
▁rang	-9.23029
▁comp	-9.23051
▁colonne	-9.23169
ière	-9.23226
71	-9.23382
▁vol	-9.23398
▁territorial	-9.2348
▁lorsqu	-9.23528
▁administratives	-9.23536
▁ceux	-9.2364
va	-9.23643
52	-9.23707
94	-9.23743
▁cahier	-9.24086
62	-9.24145
iers	-9.24157
▁numéro	-9.24255
▁aérienne	-9.24265
oul	-9.2428
▁gestionnaire	-9.24326
38	-9.24411
80	-9.24529
/2021-	-9.24634
▁statut	-9.24679
▁militaire	-9.24745
89	-9.24792
▁physique	-9.24824
▁examens	-9.25029
-11	-9.25039
202	-9.25304
ba	-9.2546
▁Nouvelle	-9.25561
▁administrateur	-9.25805
ve	-9.25854
mar	-9.2592
TRE	-9.25931
▁2020.	-9.25949
36	-9.26032
▁vie	-9.26118
ATION	-9.26148
▁civil	-9.2617
▁renouvellement	-9.26267
49	-9.26298
IER	-9.263
213	-9.26327
99	-9.26396
72	-9.26458
▁financier	-9.26551
▁conforme	-9.26567
55	-9.26618
ing	-9.26626
▁transfert	-9.26668
://	-9.2672
acc	-9.26836
▁cachet	-9.27045
direction	-9.27172
▁obligatoires	-9.27357
autres	-9.27487
do	-9.27893
AP	-9.27904
tes	-9.27923
▁privé	-9.28007
▁procédures	-9.28156
▁produit	-9.28179
dessous	-9.28219
▁Mont	-9.28228
ateur	-9.28239
▁début	-9.28242
▁attaché	-9.28346
98	-9.2837
▁concernés	-9.28621
180	-9.28725
39	-9.28907
ordonnance	-9.28938
▁mer	-9.29026
RO	-9.29084
▁délivré	-9.29111
▁Gouvernement	-9.29155
211	-9.29169
▁Anne	-9.29273
av	-9.29359
mp	-9.29508
▁cheffe	-9.29603
▁sociales	-9.29632
222	-9.29676
▁Louis	-9.29715
lu	-9.29724
▁biens	-9.29733
ta	-9.29765
▁recettes	-9.29884
▁organisations	-9.29968
ari	-9.30147
▁secrétariat	-9.30173
93	-9.30226
applique	-9.30277
man	-9.30283
ru	-9.3029
▁emploi	-9.30307
▁cohésion	-9.30348
obligation	-9.30394
Autorité	-9.30468
IR	-9.30523
▁session	-9.30673
all	-9.30794
port	-9.3087
▁Commune	-9.30896
▁administratifs	-9.30981
dessus	-9.31065
63	-9.31066
▁50	-9.31074
instruction	-9.31282
65	-9.31389
▁suppléant	-9.31426
95	-9.31427
▁fonctionnaires	-9.31469
▁4.	-9.31699
74	-9.31731
210	-9.31812
admissibilité	-9.31966
97	-9.31997
▁ch	-9.32003
▁avenant	-9.32082
▁maximum	-9.32255
▁politique	-9.32321
91	-9.32341
▁position	-9.32429
▁congé	-9.32456
▁Du	-9.3246
▁soumis	-9.32479
▁équipements	-9.32479
▁agréé	-9.32493
air	-9.32535
ap	-9.32539
190	-9.32551
-12	-9.32585
▁employeurs	-9.32691
▁quatrième	-9.32776
▁2023	-9.32811
agrément	-9.32892
président	-9.32969
▁prises	-9.3299
181	-9.33041
▁54	-9.33162
73	-9.3321
37	-9.3325
si	-9.33781
▁crédits	-9.33843
cu	-9.33874
▁sanctions	-9.33891
OL	-9.33892
IC	-9.34093
▁points	-9.34215
1-4	-9.34289
extension	-9.34428
▁universitaire	-9.34431
▁délivrance	-9.34449
▁36	-9.34526
-13	-9.34558
▁rubrique	-9.34558
▁examen	-9.34654
▁locaux	-9.34685
CO	-9.34797
▁naturel	-9.34821
▁minutes	-9.34872
▁Sa	-9.34885
DI	-9.34927
fi	-9.35016
acte	-9.3503
éli	-9.35097
▁Tout	-9.35175
Hôpitaux	-9.35202
▁épreuve	-9.35592
▁2019.	-9.35703
▁obstacles	-9.35719
enne	-9.3573
▁annuel	-9.35731
▁terme	-9.35741
▁prêt	-9.35834
ran	-9.35908
Rhône	-9.35976
▁manière	-9.35976
indemnité	-9.3606
▁restant	-9.36073
ié	-9.36098
▁voisinage	-9.36294
io	-9.36372
5-1	-9.36437
US	-9.36622
res	-9.3673
▁départemental	-9.3677
▁risque	-9.36799
▁2012	-9.36808
▁pharmaceutiques	-9.36885
tu	-9.36913
ire	-9.36919
▁économiques	-9.3697
intéressé	-9.36985
TR	-9.37006
▁pénitentiaire	-9.37066
59	-9.37134
cé	-9.37167
▁vente	-9.374
▁Publique	-9.3751
▁paritaire	-9.37628
EAU	-9.37637
ST	-9.37693
▁écrite	-9.37704
▁inscription	-9.37778
être	-9.37781
section	-9.37947
▁v	-9.38008
UN	-9.38022
pe	-9.3809
▁Cedex	-9.38108
app	-9.38182
att	-9.38183
▁demandes	-9.38291
▁sports	-9.38315
arch	-9.3838
182	-9.38626
▁notarial	-9.38628
tr	-9.38715
48	-9.3885
alinéa	-9.38894
ville	-9.38927
go	-9.3894
▁égal	-9.38972
▁fois	-9.38986
▁effets	-9.39002
▁chez	-9.39062
▁départementale	-9.3907
ain	-9.39082
AD	-9.39111
▁stage	-9.39133
SS	-9.39183
▁composition	-9.392
/2020-1	-9.39222
54	-9.39228
▁sociaux	-9.39451
Europe	-9.39495
▁43	-9.39519
▁offerts	-9.39676
▁militaires	-9.39715
▁André	-9.39858
▁supprimé	-9.39928
▁ANFR	-9.3994
CHE	-9.39987
▁régi	-9.40105
▁compétence	-9.40111
innovation	-9.40154
▁autorités	-9.40198
▁marchés	-9.40403
▁dispose	-9.40414
rou	-9.40415
▁Etat	-9.40655
sta	-9.40703
▁centres	-9.40715
▁désignés	-9.40753
▁Cité	-9.40772
ifi	-9.40858
192	-9.40911
▁navigation	-9.40935
iques	-9.40975
▁support	-9.41185
intervention	-9.4131
▁autorisée	-9.41329
▁Dé	-9.41422
▁dix	-9.41436
56	-9.41456
▁résultant	-9.41503
études	-9.41547
90	-9.41681
▁clôture	-9.41772
vo	-9.41901
▁40	-9.41921
220	-9.42038
agence	-9.42189
eff	-9.42202
▁adjudant	-9.42277
▁tiers	-9.4228
issue	-9.42282
▁nécessaire	-9.42322
▁postale	-9.42405
▁financière	-9.42417
64	-9.4254
▁étendu	-9.42591
ud	-9.42645
▁cadres	-9.42665
▁lesquelles	-9.42853
▁font	-9.42872
uy	-9.43109
form	-9.43256
▁séance	-9.43262
▁75	-9.43333
▁préalable	-9.43351
▁condition	-9.43379
▁inspecteur	-9.43415
▁patient	-9.43545
▁délais	-9.43625
employeur	-9.43853
▁signature	-9.43946
Calédonie	-9.44032
▁assure	-9.44325
▁performance	-9.44342
▁budgétaire	-9.4448
▁Z	-9.44501
Martin	-9.44505
Seine	-9.44536
▁participation	-9.44671
caractéristiques	-9.44785
▁précédent	-9.4479
▁solidaire	-9.44809
▁lieutenant	-9.44991
▁Bordeaux	-9.45017
ux	-9.45144
▁Mouvement	-9.45295
▁Al	-9.45582
ger	-9.45663
IE	-9.45684
association	-9.45793
▁connaissance	-9.45822
Pologne	-9.46029
▁agent	-9.46099
ès	-9.46112
▁versement	-9.46209
▁Car	-9.46223
▁admission	-9.46248
86	-9.46339
78	-9.46411
ll	-9.4645
lement	-9.46506
▁intitulée	-9.46516
▁autorisation	-9.4652
▁minimum	-9.46539
▁compétent	-9.46546
1-5	-9.46566
▁agricole	-9.46598
.2.	-9.46626
▁sécheresse	-9.46627
UR	-9.4665
▁Ar	-9.46711
▁mettre	-9.46748
▁pédagogique	-9.46751
▁notification	-9.46751
colonel	-9.46856
▁complémentaire	-9.46876
gr	-9.46961
▁mêmes	-9.4698
▁calcul	-9.4707
mm	-9.47179
92	-9.47234
▁reconnaissance	-9.47265
▁demandeur	-9.47288
▁71	-9.4734
▁langue	-9.47411
ani	-9.47457
▁valoir	-9.47478
ct	-9.47556
▁tel	-9.47621
TI	-9.47766
lin	-9.47789
▁conduite	-9.478
▁45	-9.47825
François	-9.47828
ver	-9.4783
191	-9.47836
be	-9.47875
mand	-9.47986
▁2011	-9.48009
▁Toute	-9.48037
Alpes	-9.48105
-14	-9.48162
entretien	-9.48202
▁trans	-9.48208
▁autorisant	-9.48497
▁Lille	-9.48559
▁spécial	-9.48644
▁collège	-9.48697
▁ils	-9.48718
▁véhicules	-9.48727
▁Polynésie	-9.48822
▁annexé	-9.48846
▁61	-9.48862
gi	-9.48876
▁Paul	-9.48885
od	-9.48984
▁télé	-9.49036
▁Ro	-9.49086
mb	-9.49095
▁vérification	-9.49292
▁devra	-9.49356
î	-9.49363
▁structure	-9.49405
223	-9.49556
▁choix	-9.49691
▁permettre	-9.49876
▁ouvert	-9.49953
ord	-9.50132
ez	-9.50195
em	-9.50202
-17	-9.50255
ey	-9.50316
▁pôle	-9.5033
▁8°	-9.50429
▁qualification	-9.50458
▁Parties	-9.50669
je	-9.50732
ert	-9.50809
▁Lorsqu	-9.50822
arme	-9.50886
lant	-9.50891
az	-9.50928
▁capacité	-9.51001
AUD	-9.51038
▁pouvoir	-9.51102
équipe	-9.5115
▁Sous	-9.51223
ton	-9.51253
▁port	-9.5127
▁attachée	-9.51325
indication	-9.51339
OUR	-9.51404
▁rendu	-9.51543
TION	-9.51598
96	-9.5161
▁sauf	-9.51639
ib	-9.51795
ture	-9.51835
fér	-9.5184
né	-9.51932
Luc	-9.51933
MI	-9.52047
cl	-9.52094
▁sûreté	-9.52103
appliquent	-9.52174
▁moment	-9.52181
▁objectifs	-9.52242
▁pénitentiaires	-9.52246
évolution	-9.52278
▁porte	-9.52416
▁enfants	-9.52478
ières	-9.52482
▁vers	-9.52588
▁années	-9.52602
▁37	-9.52662
tro	-9.52664
▁51	-9.52684
pi	-9.52736
/2018	-9.52886
ide	-9.52962
ori	-9.52989
▁Pa	-9.53106
▁rédigée	-9.53114
▁courir	-9.53115
▁déchets	-9.53115
▁sport	-9.5313
▁permet	-9.53172
▁38	-9.53183
ret	-9.53184
cour	-9.53188
ax	-9.53209
pro	-9.53239
▁cycle	-9.53324
▁promotion	-9.5336
▁scolaire	-9.5336
▁inférieure	-9.53378
▁chacune	-9.53422
▁consécutifs	-9.53511
▁heure	-9.53565
affectation	-9.53606
▁égale	-9.53611
▁séjour	-9.53624
▁fond	-9.53714
atif	-9.53793
rant	-9.53853
▁contrats	-9.53864
identification	-9.5389
▁simplifiée	-9.5389
▁consultation	-9.53909
▁2007	-9.53913
▁spéciale	-9.53922
▁bâtiment	-9.53982
enregistrement	-9.54061
▁copie	-9.5408
▁2008	-9.54187
▁X	-9.54256
ative	-9.5427
▁réseaux	-9.54276
AG	-9.54276
-16	-9.54303
▁exerçant	-9.5448
▁informe	-9.54499
▁lettre	-9.54523
▁CA	-9.54604
ort	-9.54716
LI	-9.54777
▁lutte	-9.54778
EM	-9.5486
habitation	-9.54892
▁56	-9.54913
▁rendues	-9.54924
▁exigences	-9.54992
▁définie	-9.55001
▁géographique	-9.55035
hôpitaux	-9.55073
enfant	-9.55092
▁annuelle	-9.55121
▁projets	-9.55125
▁dès	-9.55136
ha	-9.55137
mont	-9.55142
▁procureur	-9.55247
envoi	-9.55319
▁2013	-9.55375
RÉ	-9.55444
▁impôts	-9.55448
▁carte	-9.55521
▁Mo	-9.55568
▁Marseille	-9.55651
▁Bou	-9.55655
uv	-9.557
▁contenu	-9.55709
▁lien	-9.55748
▁prix	-9.55767
EP	-9.55775
ue	-9.55819
▁62	-9.55916
▁Toulouse	-9.56018
Alexandre	-9.56115
nel	-9.56408
▁courrier	-9.56492
193	-9.5679
cul	-9.56812
▁No	-9.56817
▁critères	-9.56875
éro	-9.5688
tiques	-9.56901
/2022-	-9.56902
▁remboursement	-9.5692
euse	-9.56977
▁coefficient	-9.56992
▁extension	-9.56999
▁académique	-9.57031
vé	-9.5706
▁ressort	-9.5707
▁conventions	-9.57221
▁nucléaire	-9.57286
▁inférieur	-9.57405
▁regard	-9.57424
▁72	-9.57431
tour	-9.57502
Julien	-9.5753
▁sols	-9.57574
▁suite	-9.57605
▁références	-9.57637
▁contractante	-9.57707
AY	-9.57845
éré	-9.57903
▁définis	-9.5797
▁individuelle	-9.58012
▁places	-9.5803
▁juridique	-9.58173
Thomas	-9.58312
ales	-9.58394
▁2010	-9.58461
attribution	-9.58503
accompagnement	-9.58555
▁garantie	-9.58631
▁objet	-9.58698
assemblée	-9.587
ole	-9.58715
expertise	-9.5872
▁bord	-9.58884
▁Po	-9.58927
▁établie	-9.58936
▁matériel	-9.59094
▁dispositifs	-9.59113
▁concerné	-9.59123
assistant	-9.59189
X	-9.59205
▁Réunion	-9.59211
▁Ré	-9.59266
MTRT	-9.59269
▁Parlement	-9.59277
▁Pr	-9.59448
ach	-9.59505
/2022-1	-9.59533
men	-9.59566
▁chiffre	-9.59569
▁détail	-9.59636
▁association	-9.59645
▁ajouté	-9.59668
▁pouvant	-9.5967
▁1984	-9.59703
imp	-9.59724
▁major	-9.59775
PE	-9.59844
▁Qu	-9.59859
2020	-9.59885
appui	-9.59931
▁fins	-9.59938
allocation	-9.59972
▁Chapitre	-9.59972
▁Ga	-9.60095
bu	-9.60161
▁Ils	-9.60202
▁individuel	-9.60216
▁modèle	-9.60255
▁Jacques	-9.60406
▁Aux	-9.60408
▁capitaine	-9.60518
▁Confédération	-9.60614
81	-9.60673
▁conformité	-9.6068
opérateur	-9.60688
des	-9.60833
▁généraux	-9.60924
igne	-9.60982
▁devront	-9.61231
.1.	-9.61243
directeur	-9.61261
▁validation	-9.61291
▁divers	-9.61313
cept	-9.61428
▁SA	-9.61468
expérience	-9.61567
ien	-9.61621
alité	-9.61644
Ar	-9.61661
nu	-9.61666
▁soutien	-9.61742
/2019-1	-9.61748
▁2006	-9.61975
assurer	-9.61983
▁répartition	-9.62043
▁pourront	-9.62064
▁VII	-9.62114
▁réglementation	-9.62132
2-4	-9.62174
▁morale	-9.62197
▁titres	-9.622
▁Jo	-9.62232
▁EN	-9.62304
▁63	-9.62353
lon	-9.6243
ENT	-9.62451
▁sciences	-9.62504
▁référentiel	-9.62526
▁moyenne	-9.62546
▁U	-9.62569
▁circulation	-9.62587
lan	-9.62652
▁présentation	-9.62739
▁ouverts	-9.62766
▁contrôleur	-9.62826
présidente	-9.6301
▁bénéficier	-9.63036
▁exceptionnelle	-9.63039
huissier	-9.63129
ho	-9.63139
▁patrimoine	-9.63147
6-1	-9.63202
▁Pro	-9.63236
▁rural	-9.63439
▁adressée	-9.63638
▁statistique	-9.63648
-15	-9.63714
▁option	-9.63722
▁décédé	-9.63794
ath	-9.63811
▁53	-9.63821
▁local	-9.63891
com	-9.63927
▁utilisé	-9.63961
▁fourni	-9.64073
▁Bar	-9.64075
én	-9.64197
▁5.	-9.64221
▁aérien	-9.64273
▁Concours	-9.64404
▁bien	-9.64508
▁différentiels	-9.6453
avancement	-9.64709
▁industrielle	-9.64748
203	-9.64798
▁pratique	-9.64824
▁caisse	-9.64848
asse	-9.64936
▁transformation	-9.6508
adaptation	-9.65106
ze	-9.65128
intitulé	-9.65173
UL	-9.65333
▁financières	-9.65351
▁mobilité	-9.65357
▁conjoint	-9.65504
OM	-9.65622
LO	-9.65872
▁maximale	-9.66187
▁honoraire	-9.6619
MA	-9.66206
▁aides	-9.66424
▁organisé	-9.66442
▁ter	-9.66494
▁bénéfice	-9.66599
qui	-9.66619
out	-9.6662
▁programmes	-9.66654
tier	-9.66678
▁registre	-9.66749
▁durable	-9.66754
▁usage	-9.66789
INE	-9.67046
▁dénommé	-9.67139
lic	-9.67194
▁désignation	-9.67247
Loire	-9.67288
▁Section	-9.67303
▁déroulement	-9.6733
ck	-9.67362
▁phase	-9.67421
▁préparation	-9.67442
TA	-9.67474
▁composé	-9.67508
▁distribution	-9.67554
▁élèves	-9.67583
▁73	-9.67614
▁1993	-9.67724
net	-9.6776
▁initiale	-9.67795
ient	-9.67801
83	-9.67802
▁volume	-9.67857
▁Val	-9.67943
pt	-9.67965
▁commandant	-9.68009
▁visées	-9.68022
ces	-9.68046
▁financiers	-9.68076
▁sol	-9.68106
”	-9.68139
isée	-9.68147
ification	-9.68149
▁permis	-9.68469
investissement	-9.68541
▁met	-9.68577
▁2009	-9.68614
▁CON	-9.68637
▁rempli	-9.6868
ren	-9.68713
▁marine	-9.68724
▁présenter	-9.68759
▁Etats	-9.68776
▁ni	-9.68834
www	-9.68848
▁va	-9.68973
▁Mayotte	-9.68997
▁Caisse	-9.69025
▁professeur	-9.6908
analyse	-9.69081
▁plein	-9.69111
mon	-9.69129
▁An	-9.69147
▁formulaire	-9.69152
▁fixés	-9.69292
▁besoins	-9.69381
▁hospitalière	-9.69395
Claire	-9.69639
▁Th	-9.69664
▁susceptibles	-9.69741
▁branche	-9.69773
heure	-9.69861
▁destiné	-9.69886
▁CHA	-9.69899
ront	-9.69954
rm	-9.70004
▁Se	-9.7004
armée	-9.70072
▁milieu	-9.70099
▁métiers	-9.70131
équipement	-9.70146
▁spécifique	-9.70192
▁59	-9.70272
▁technicien	-9.70311
éco	-9.7036
▁versée	-9.70362
serv	-9.70414
industrie	-9.70492
venu	-9.70518
▁Bo	-9.70567
▁détachement	-9.70688
NO	-9.70689
▁Sur	-9.70691
non	-9.70764
▁près	-9.70778
nant	-9.70873
rat	-9.7088
uit	-9.70943
cr	-9.70998
▁collectif	-9.71026
▁ledit	-9.71152
AND	-9.71217
.3.	-9.71252
ind	-9.71494
rin	-9.71635
▁55	-9.71689
hé	-9.717
AUX	-9.717
▁qualifié	-9.71817
▁certains	-9.7184
uis	-9.71884
▁atteint	-9.71947
▁Wallis	-9.72226
vers	-9.7223
▁maintien	-9.7223
▁réglementaires	-9.72263
line	-9.72354
▁réhydratation	-9.72409
CA	-9.72514
▁Haute	-9.72647
Emmanuel	-9.72659
UC	-9.72706
▁complémentaires	-9.72725
▁changement	-9.72821
▁cinquième	-9.72821
▁lesquels	-9.72821
académie	-9.72889
▁conseillère	-9.72935
èle	-9.73003
rec	-9.73052
▁Claude	-9.73062
▁comportant	-9.73142
▁supprimée	-9.73193
▁inv	-9.73314
▁informatique	-9.73333
▁DÉPARTEMENT	-9.73349
▁formations	-9.7342
▁possible	-9.73488
aut	-9.73517
▁juridiction	-9.73551
mor	-9.7362
ies	-9.73631
emp	-9.73827
née	-9.73837
isse	-9.73849
ven	-9.73917
téri	-9.73976
▁art	-9.74053
fa	-9.74183
▁organisme	-9.74193
▁Ca	-9.74197
▁Bernard	-9.74215
urs	-9.74321
élé	-9.74361
▁coûts	-9.744
Philippe	-9.74471
▁organisation	-9.74651
outre	-9.74713
magistrature	-9.7476
CP	-9.7477
▁figurent	-9.74844
▁2005	-9.74846
habilitation	-9.74882
183	-9.74975
▁départements	-9.74995
▁femmes	-9.74995
inscrire	-9.75117
isé	-9.7512
AIRE	-9.75145
ancien	-9.75206
tent	-9.75212
▁façon	-9.75281
▁autorisé	-9.75298
SA	-9.75306
OP	-9.75381
4-2	-9.75397
▁Pascal	-9.75398
âge	-9.7548
▁bon	-9.75494
▁Vi	-9.75599
engage	-9.75614
▁réparti	-9.75736
Louis	-9.75752
▁pénale	-9.75805
▁statuts	-9.75826
jo	-9.7616
▁peine	-9.76229
▁39	-9.76284
0-1	-9.7631
ris	-9.76324
▁division	-9.76388
éra	-9.76474
nondations	-9.76487
▁précité	-9.76489
▁périmètre	-9.76534
teur	-9.76541
▁Henri	-9.76568
82	-9.76579
iz	-9.7672
▁9°	-9.7676
▁refus	-9.76764
▁client	-9.76892
Anne	-9.76991
▁seul	-9.77189
voir	-9.77191
▁réalisé	-9.7721
école	-9.7723
▁concurrence	-9.77251
ich	-9.77303
atrice	-9.77323
▁attestation	-9.77334
▁64	-9.77405
erie	-9.77473
▁maîtrise	-9.77491
▁respectivement	-9.77491
don	-9.77502
▁Haut	-9.77602
▁512	-9.77618
▁Gr	-9.77626
Camille	-9.7766
▁commande	-9.77722
▁nouveau	-9.77762
▁AU	-9.77783
▁car	-9.77789
▁Olivier	-9.77811
▁transmet	-9.77872
LES	-9.77914
▁politiques	-9.77916
▁lequel	-9.77927
▁pays	-9.77941
▁bénéficiaires	-9.77958
▁devant	-9.77994
ect	-9.77995
▁CO	-9.78022
▁navire	-9.78043
▁prescriptions	-9.78156
élève	-9.78163
▁seconde	-9.78212
▁boue	-9.7826
▁électoral	-9.78287
da	-9.78311
ène	-9.78387
▁per	-9.78502
AV	-9.78503
▁négociation	-9.78505
▁directement	-9.78506
UT	-9.78514
▁réunion	-9.78547
▁secours	-9.78555
tor	-9.78597
▁Ha	-9.78619
anche	-9.78651
▁propriété	-9.78699
ateurs	-9.78747
▁catégories	-9.78794
▁proposé	-9.78797
▁ingénieurs	-9.7884
▁simple	-9.7887
▁détenu	-9.78894
David	-9.78897
nelle	-9.78921
ASS	-9.78938
▁1992	-9.78962
bo	-9.78967
▁mode	-9.7898
▁totale	-9.78983
▁médicaments	-9.79015
▁radio	-9.79053
▁1994	-9.79053
▁pourra	-9.79066
agne	-9.79094
mét	-9.79197
▁spécifiques	-9.7924
▁entretien	-9.79349
▁entreprise	-9.7935
▁navires	-9.79359
aine	-9.79406
▁questions	-9.79456
▁cause	-9.79457
▁inscrits	-9.7949
objectif	-9.79519
▁associée	-9.79565
▁http	-9.79595
▁seule	-9.79608
▁méthode	-9.79628
▁liaison	-9.79628
effectue	-9.79693
▁officiers	-9.79709
▁délivrée	-9.79799
amp	-9.79854
▁signé	-9.79855
court	-9.79862
▁coordination	-9.79873
▁justificatives	-9.79922
ana	-9.79942
tage	-9.79963
▁délibération	-9.80021
▁Rennes	-9.80126
▁1989	-9.80137
La	-9.80271
Ma	-9.80445
▁Sud	-9.80449
IX	-9.8047
ai	-9.80482
NA	-9.80518
▁inscrit	-9.80529
▁Chevalier	-9.8054
▁forêts	-9.80585
▁surface	-9.80614
aff	-9.80664
▁prélèvement	-9.80713
cri	-9.80732
éné	-9.80829
▁propre	-9.80868
▁depuis	-9.80914
▁présence	-9.80988
▁Nicolas	-9.81034
▁constaté	-9.8104
Marne	-9.81073
BO	-9.81122
dic	-9.81164
▁usagers	-9.81167
▁civils	-9.81218
▁demander	-9.81288
EUR	-9.81382
▁réponse	-9.81385
inter	-9.81446
▁rédigés	-9.81477
gra	-9.81493
▁stipulations	-9.8156
approbation	-9.81761
ki	-9.8178
▁pharmacie	-9.81781
▁52	-9.818
▁annexes	-9.81842
cha	-9.81909
ner	-9.8191
▁pratiques	-9.82014
▁(1)	-9.82016
ane	-9.8204
▁régie	-9.82132
▁interdite	-9.82157
thé	-9.82254
▁100	-9.82303
▁Toutefois	-9.82314
yl	-9.82402
pose	-9.82446
issement	-9.82455
▁anti	-9.82485
tive	-9.82503
han	-9.82665
▁taxe	-9.82814
▁bénéficiaire	-9.82835
SSAS	-9.82845
ler	-9.82852
▁haut	-9.8293
bel	-9.82999
▁antérieure	-9.83118
NI	-9.83226
Mar	-9.83259
▁Marc	-9.83342
ienne	-9.8337
▁universités	-9.83378
scription	-9.83388
▁choisi	-9.83401
▁connaissances	-9.83552
oir	-9.8358
▁désigne	-9.83713
▁unités	-9.83763
▁Mlle	-9.83779
▁Société	-9.83787
▁brevet	-9.83864
▁évaluation	-9.83897
lier	-9.83915
▁comptables	-9.8398
Sébastien	-9.84017
▁spécialisé	-9.8406
▁continue	-9.8407
▁communiqué	-9.8412
▁mineur	-9.8417
hors	-9.842
▁praticien	-9.84371
▁MAR	-9.84394
étude	-9.84398
▁vingt	-9.84418
▁remplacées	-9.84442
lot	-9.84448
▁analyse	-9.84459
▁bio	-9.84462
▁crise	-9.84502
coulées	-9.84508
▁matériels	-9.84526
égard	-9.84558
▁écrit	-9.84568
use	-9.84571
▁diplômes	-9.84578
ouvrage	-9.84628
TER	-9.84638
▁Per	-9.84701
▁déclaré	-9.84708
eaux	-9.84711
2-6	-9.84726
Office	-9.84738
ip	-9.84784
▁format	-9.8482
▁procéder	-9.84919
ROU	-9.84951
Xavier	-9.84997
ah	-9.84999
▁René	-9.85188
ina	-9.85207
VI	-9.85366
br	-9.85367
▁sept	-9.85376
▁physiques	-9.85405
▁bilan	-9.85413
▁visée	-9.85422
▁Laurent	-9.85509
▁46	-9.85518
titu	-9.85567
vis	-9.8558
ssent	-9.85699
▁supplémentaire	-9.85707
▁concernée	-9.85822
▁papier	-9.85829
▁prestataire	-9.85829
lage	-9.85838
▁remboursables	-9.85855
▁représentatives	-9.85868
▁visioconférence	-9.85881
▁maritimes	-9.8592
▁licence	-9.86039
▁Montpellier	-9.8609
▁sélection	-9.86115
the	-9.86304
▁ministériel	-9.86305
asile	-9.86323
MEN	-9.86382
ques	-9.86416
Al	-9.86582
▁travailleurs	-9.86617
▁magistrat	-9.86736
▁Tribunal	-9.86747
Saint	-9.86755
PR	-9.86835
7-1	-9.86899
▁Grand	-9.87014
▁responsables	-9.87075
▁déplacement	-9.87117
▁ponts	-9.87121
▁Martinique	-9.87144
▁60	-9.87159
pon	-9.87167
ici	-9.8728
▁administratrice	-9.87328
icien	-9.87336
▁Y	-9.87364
isant	-9.87368
▁Comité	-9.87426
▁chirurgie	-9.87434
▁stratégie	-9.87461
▁collectivité	-9.87478
bert	-9.87518
▁parmi	-9.87674
dépendant	-9.87739
▁47	-9.87765
Etablissement	-9.8778
▁validité	-9.87807
▁limites	-9.87813
▁assurer	-9.87894
▁université	-9.87986
▁intérieur	-9.88046
tin	-9.88374
▁approuvé	-9.88582
▁syndicales	-9.88661
▁autorisés	-9.88706
Paul	-9.88733
incendie	-9.88743
▁Guyane	-9.88747
EX	-9.88801
▁constituée	-9.88817
not	-9.88931
ui	-9.88961
identité	-9.88969
égalité	-9.88977
▁autorisations	-9.89022
▁réaliser	-9.89023
université	-9.89236
Côte	-9.89288
▁prime	-9.89297
2-5	-9.89317
▁périodes	-9.8946
armement	-9.89563
▁1990	-9.89581
▁fonctionnaire	-9.89583
▁Nord	-9.89608
▁accès	-9.89615
▁rend	-9.89737
inc	-9.89799
▁énergétique	-9.89825
Q	-9.89874
▁familial	-9.89906
nal	-9.89973
▁liées	-9.89985
▁entrent	-9.90018
▁É	-9.90038
▁Alain	-9.90088
réanimation	-9.90122
▁noms	-9.90148
TS	-9.9018
nes	-9.90188
▁accordée	-9.9019
log	-9.9035
▁étudiants	-9.90398
za	-9.9044
gie	-9.90454
oux	-9.90513
▁www	-9.90553
▁domicile	-9.90588
▁81	-9.90603
▁Dominique	-9.90681
orientation	-9.90694
Marc	-9.9072
▁minimale	-9.90788
▁fiche	-9.90837
Nicolas	-9.90838
RES	-9.90895
IQUE	-9.9096
▁préjudice	-9.91
▁distance	-9.91001
encadrement	-9.91001
▁ét	-9.91034
naire	-9.91053
vert	-9.91161
▁véhicule	-9.91309
▁certaines	-9.91348
▁Joseph	-9.91354
▁Strasbourg	-9.91413
emplois	-9.91554
▁réalisée	-9.91594
ARM	-9.91606
SI	-9.9162
▁Nantes	-9.91637
▁revenu	-9.91652
lais	-9.91716
▁sociétés	-9.91768
▁Christian	-9.91844
▁aéronautique	-9.91888
institut	-9.9192
▁somme	-9.91948
▁route	-9.91974
▁présidente	-9.91983
ILLE	-9.92079
alis	-9.92101
▁motif	-9.92238
▁grand	-9.92261
assi	-9.92263
▁portée	-9.92329
vin	-9.92366
laire	-9.92371
tif	-9.92432
▁48	-9.92439
▁Conformément	-9.92552
▁2004	-9.92731
▁Christophe	-9.92782
▁central	-9.92783
apprentissage	-9.92804
acquisition	-9.92833
▁mon	-9.92865
illa	-9.92879
▁aéronefs	-9.93012
str	-9.93091
Or	-9.9313
▁Antoine	-9.93133
professionnel	-9.93255
▁indirects	-9.93281
ôt	-9.93296
▁effectuée	-9.93368
abilité	-9.93377
▁îles	-9.93394
▁différents	-9.93456
▁74	-9.93643
▁population	-9.9376
enquête	-9.93846
▁remise	-9.93853
▁El	-9.93894
Christophe	-9.93895
▁Fédération	-9.93902
▁réservé	-9.93903
expiration	-9.93987
Etienne	-9.93987
ox	-9.94009
1-6	-9.94027
chi	-9.94065
▁constitue	-9.94085
mètre	-9.94102
▁agricoles	-9.94119
▁1985	-9.94292
EU	-9.94316
▁PAR	-9.94319
venir	-9.94323
1-7	-9.94355
▁Isabelle	-9.94444
▁inclus	-9.94461
▁consul	-9.94578
obtention	-9.94612
Arnaud	-9.94669
▁enveloppe	-9.94673
▁transféré	-9.94698
nés	-9.9471
GE	-9.94713
▁considérée	-9.94739
▁RO	-9.94745
▁réalisées	-9.948
▁convocation	-9.94812
BERT	-9.94835
▁Auschwitz	-9.94869
dre	-9.94945
intermédiaire	-9.94955
▁telle	-9.94965
1-8	-9.95003
▁modifications	-9.95012
uff	-9.95034
▁Autres	-9.95222
▁engagements	-9.9528
cur	-9.95293
ingénieur	-9.95313
▁renseignements	-9.95318
▁BOU	-9.95368
rique	-9.95377
pri	-9.95473
instance	-9.95505
▁possibilité	-9.95528
Maritime	-9.95586
cy	-9.95834
▁vétérinaire	-9.95874
VA	-9.95955
ELLE	-9.95994
Uni	-9.96019
▁équivalent	-9.96115
▁Epreuve	-9.96163
▁sollicit	-9.96193
▁enseignants	-9.96484
VE	-9.96555
eille	-9.96572
ff	-9.96648
▁70	-9.96673
avances	-9.96699
ancé	-9.96802
▁90	-9.96859
étudiant	-9.97064
gl	-9.97082
▁covid	-9.97095
har	-9.97119
▁libre	-9.97128
▁déléguée	-9.97136
bor	-9.97167
▁ouvrant	-9.97182
anne	-9.97203
▁tarifs	-9.97269
yn	-9.9727
ade	-9.97294
issant	-9.9734
ALL	-9.97357
iane	-9.97435
GU	-9.97458
▁clinique	-9.97475
▁intérieure	-9.9758
RET	-9.97593
▁besoin	-9.97611
▁ajoutés	-9.97675
▁indications	-9.97716
▁Char	-9.97749
▁cent	-9.97814
▁Loire	-9.97826
chet	-9.97954
▁organisée	-9.97954
concours	-9.97974
▁fiscale	-9.98043
▁internationale	-9.98156
tions	-9.98167
▁suivent	-9.98182
▁1983	-9.98213
Julie	-9.9823
▁Elles	-9.98245
idé	-9.98247
▁concernées	-9.98263
▁consulté	-9.98355
▁adressé	-9.98432
▁souveraineté	-9.98507
▁Di	-9.98545
▁Tour	-9.98546
▁dotation	-9.98551
OS	-9.98551
hy	-9.98555
OIS	-9.98566
▁lieux	-9.98621
▁nationalité	-9.98647
▁écoles	-9.987
Rhin	-9.9874
▁valeurs	-9.9876
▁spécialisée	-9.98864
▁terre	-9.98952
électricité	-9.98953
OI	-9.99027
3-4	-9.99061
▁Gu	-9.99083
▁(1	-9.99161
▁candidates	-9.99178
▁tonnes	-9.99193
ange	-9.99198
tan	-9.99249
▁pilotage	-9.99251
Caroline	-9.99252
ison	-9.99328
hébergement	-9.99371
IGN	-9.99391
▁(2),	-9.99461
Michel	-9.99469
iel	-9.99492
▁familles	-9.99523
▁protocole	-9.9955
▁reçu	-9.9958
▁retour	-9.99606
▁producteurs	-9.99683
▁conservation	-9.997
▁dénomination	-9.997
▁VIII	-9.99773
▁scrutin	-9.9979
▁interrégionale	-9.99793
▁82	-9.99825
oi	-9.99855
ev	-9.99891
▁résultat	-9.99892
▁cessation	-9.99988
▁visite	-10.0006
▁liés	-10.0008
per	-10.0016
land	-10.0026
▁traitements	-10.0036
▁vendredi	-10.0042
affaires	-10.0047
▁concession	-10.0048
▁classé	-10.0051
▁associations	-10.0053
assuré	-10.0067
INTA	-10.0068
achat	-10.0073
expert	-10.0077
PA	-10.008
élection	-10.0088
▁vu	-10.0101
imi	-10.0102
▁demeure	-10.0104
▁radié	-10.0106
▁voix	-10.0109
▁confié	-10.0123
▁ad	-10.0124
aille	-10.0125
▁conf	-10.0126
▁placée	-10.0126
▁reste	-10.013
▁mises	-10.0132
IM	-10.0133
ât	-10.0134
▁médecins	-10.0141
▁opérateurs	-10.0142
▁mètres	-10.0146
▁vertu	-10.0149
Bruno	-10.0152
▁précisant	-10.0158
▁contribution	-10.0158
▁affectés	-10.0158
▁commissions	-10.0162
▁soient	-10.0164
occasion	-10.0173
▁tarif	-10.0173
▁Pré	-10.0175
ami	-10.019
▁Fa	-10.0191
▁minima	-10.0194
ja	-10.0196
▁fournisseur	-10.0201
▁quinze	-10.0201
▁certificats	-10.0202
▁déterminé	-10.0208
▁plafond	-10.021
▁lignes	-10.0213
vent	-10.0218
TH	-10.0218
exercer	-10.0224
Clément	-10.0229
▁figure	-10.0236
EY	-10.024
PI	-10.024
▁laboratoire	-10.0241
▁obligatoire	-10.0249
ANS	-10.0263
ali	-10.0275
essai	-10.0292
tur	-10.0296
▁accepté	-10.0296
▁maintenance	-10.0309
▁test	-10.0311
IP	-10.0311
nage	-10.0314
▁régionales	-10.0321
▁elles	-10.0323
▁protégé	-10.0329
oire	-10.033
BE	-10.0333
▁minuit	-10.0334
rice	-10.0337
▁1993.	-10.0338
▁Georges	-10.0338
▁utilisés	-10.034
▁Do	-10.0344
▁international	-10.0345
▁83	-10.0356
ION	-10.0359
▁exceptionnel	-10.0365
zo	-10.0365
▁1991	-10.0367
▁ferroviaire	-10.0371
▁report	-10.0372
êt	-10.0372
administrateur	-10.0375
▁appelé	-10.0376
oli	-10.0379
▁déterminée	-10.0379
▁133	-10.0385
▁Daniel	-10.0399
▁domaines	-10.0401
▁contact	-10.0402
▁réduction	-10.0415
▁Catherine	-10.0419
▁renommée	-10.0421
▁particulières	-10.0426
rage	-10.0429
Antoine	-10.0441
▁78	-10.0441
▁réalisés	-10.0442
▁pharmacien	-10.0459
Jérôme	-10.0462
▁indiquée	-10.0466
leur	-10.0467
▁10°	-10.0473
▁biologie	-10.0475
▁préfecture	-10.0478
▁réputé	-10.0478
▁Université	-10.0479
éta	-10.0493
▁définition	-10.0498
▁termes	-10.05
▁habilité	-10.0504
▁biologique	-10.0507
▁vivant	-10.051
▁échelon	-10.0515
▁communique	-10.052
ART	-10.0522
▁déposé	-10.0529
▁trente	-10.0535
▁perte	-10.0537
extérieur	-10.0539
Provence	-10.0541
VER	-10.0546
▁Charles	-10.0549
▁appliqué	-10.055
▁1994.	-10.0551
▁80	-10.0555
▁crédit	-10.0564
▁force	-10.057
▁médicament	-10.057
▁correspond	-10.0583
▁faveur	-10.0589
▁veille	-10.0596
agissant	-10.0597
▁plateforme	-10.0598
col	-10.0604
attestation	-10.0613
▁sixième	-10.0614
ica	-10.0618
0-2	-10.0619
rait	-10.0619
omb	-10.0623
▁valable	-10.0628
Est	-10.0628
▁stockage	-10.0632
▁issu	-10.0635
▁alimentaire	-10.0637
▁routier	-10.064
▁agrément	-10.0651
Cécile	-10.0653
▁nationaux	-10.0653
▁Futuna	-10.0653
MONT	-10.0656
ait	-10.0656
intégration	-10.0657
▁quantité	-10.0659
atoire	-10.066
▁industries	-10.0661
taire	-10.0662
▁Robert	-10.067
nat	-10.0674
▁professeurs	-10.0679
Guillaume	-10.0685
▁permanente	-10.0693
▁reprise	-10.0714
Ro	-10.0715
▁écrites	-10.0719
opt	-10.0723
▁placé	-10.0726
▁régulation	-10.0727
▁audit	-10.0733
▁médico	-10.0737
vision	-10.0739
tal	-10.0743
échange	-10.0747
▁associées	-10.075
▁SI	-10.0751
ID	-10.0752
▁devient	-10.0761
▁durant	-10.0768
emb	-10.0771
▁adaptée	-10.0781
PL	-10.0783
▁49	-10.0783
IG	-10.0784
rée	-10.0786
▁inspectrice	-10.0792
▁fabrication	-10.0798
▁proximité	-10.0805
▁détaché	-10.0821
▁224	-10.0829
▁exclu	-10.0829
▁petit	-10.0835
▁recommandé	-10.0835
▁requises	-10.085
▁PER	-10.0855
▁alors	-10.0857
▁612	-10.0859
▁Communes	-10.0859
▁suspension	-10.086
▁composant	-10.0866
GUE	-10.0866
GI	-10.0867
▁65	-10.0881
rier	-10.0881
▁sportif	-10.0882
▁contentieux	-10.0887
▁Cet	-10.0888
hum	-10.0908
Simon	-10.0914
obtenir	-10.0916
▁radiation	-10.0916
▁traité	-10.0926
▁commerciale	-10.0932
EZ	-10.0937
▁consultative	-10.0953
▁Ver	-10.0959
officier	-10.0961
▁approprié	-10.0963
alisation	-10.0981
uel	-10.0987
▁comprenant	-10.0996
mod	-10.1
▁directive	-10.1004
▁prénom	-10.1018
▁perçu	-10.1019
▁subvention	-10.1022
▁maire	-10.1023
▁tels	-10.103
▁saisi	-10.1031
▁aménagements	-10.1039
ûment	-10.104
phy	-10.1041
Miquelon	-10.1042
▁discipline	-10.1045
▁informé	-10.1046
comp	-10.1047
▁classement	-10.1049
▁offertes	-10.1049
exposé	-10.1049
▁afférent	-10.1056
▁mines	-10.1059
▁psychiatrie	-10.1059
▁précisées	-10.106
▁musée	-10.1093
▁Nancy	-10.1096
SSA	-10.1098
▁1942	-10.11
▁définitive	-10.1102
▁exprimé	-10.1113
lie	-10.1126
AF	-10.1129
▁susmentionné	-10.1133
bar	-10.1135
▁seules	-10.1141
SP	-10.1145
▁visés	-10.1147
FI	-10.1147
▁Marcel	-10.1153
▁considéré	-10.1159
▁poids	-10.1163
assistance	-10.1167
▁Ou	-10.1168
FR	-10.117
▁Cor	-10.1174
▁86	-10.1176
Charlotte	-10.1177
▁cotisations	-10.1179
▁structures	-10.1179
▁espèces	-10.118
let	-10.1193
▁constitué	-10.1195
▁procédé	-10.1197
▁affecté	-10.1199
▁volontaire	-10.1201
▁couvert	-10.121
▁thérapeutique	-10.121
avi	-10.1224
3-6	-10.1233
ech	-10.125
isme	-10.1252
▁collecte	-10.1252
cteur	-10.1252
▁seuil	-10.1262
▁relève	-10.1265
▁propres	-10.1266
arrêt	-10.1273
▁sus	-10.1273
▁disponibles	-10.1273
▁colonel	-10.1279
▁trésorerie	-10.1289
RU	-10.1297
▁justifie	-10.1299
.4.	-10.1303
▁puis	-10.1307
▁médicaux	-10.131
logique	-10.1317
▁Ville	-10.1326
car	-10.1326
▁ordonnance	-10.1329
Atlantique	-10.1341
▁conserve	-10.1341
▁post	-10.1347
▁tribunaux	-10.1349
▁fournir	-10.1349
QUE	-10.135
▁préalablement	-10.1354
OC	-10.1357
▁commercial	-10.1361
2-7	-10.1377
▁Stéphane	-10.1377
▁renouvelé	-10.1379
▁Notaires	-10.1382
▁issue	-10.1387
can	-10.1388
▁courriel	-10.1392
▁réglementé	-10.1406
cal	-10.141
▁500	-10.1411
bat	-10.1413
Romain	-10.1428
▁exercées	-10.1428
▁capital	-10.1431
▁1987.	-10.1441
CT	-10.1442
Haute	-10.1443
▁réglementaire	-10.1449
gen	-10.1454
ève	-10.1455
char	-10.1465
organe	-10.1467
ente	-10.1472
▁Eric	-10.1479
▁fédération	-10.1479
▁détention	-10.1483
▁Frédéric	-10.149
...)	-10.1493
▁active	-10.1493
fort	-10.1496
▁exerce	-10.1499
▁justifiant	-10.1504
FF	-10.1504
amende	-10.1516
▁autorisées	-10.1518
▁bâtiments	-10.1521
avocat	-10.1528
HI	-10.1532
▁agréés	-10.1544
▁différentes	-10.1553
Maxime	-10.157
rg	-10.1576
major	-10.1576
▁procès	-10.1588
igné	-10.1588
mbre	-10.159
▁Ex	-10.1591
Aurélie	-10.1592
▁immédiatement	-10.1592
▁recteur	-10.1595
acheteur	-10.1603
▁respecter	-10.161
▁long	-10.1614
▁majeur	-10.162
▁dispensé	-10.1627
▁visant	-10.1655
EMENT	-10.1655
▁administrateurs	-10.1658
▁procède	-10.1659
▁effectué	-10.166
CR	-10.1663
▁présentant	-10.1663
Laure	-10.1669
avant	-10.1672
▁(2)	-10.1673
▁justificatif	-10.1677
qué	-10.1679
▁techniciens	-10.168
▁Ile	-10.1682
▁fourniture	-10.1682
QU	-10.1682
▁aériens	-10.1689
cher	-10.1693
▁départ	-10.1696
Gilles	-10.1697
Baptiste	-10.1705
AZ	-10.1707
▁propriétaire	-10.1712
▁baccalauréat	-10.1716
ult	-10.1717
▁PRO	-10.1717
▁Ja	-10.1722
▁Vincent	-10.1726
▁naturelle	-10.1726
MO	-10.1729
▁jeux	-10.173
▁complément	-10.1731
▁Sophie	-10.1735
nom	-10.1738
interministériel	-10.1739
ata	-10.1746
▁matériaux	-10.1752
▁dépasse	-10.1752
Université	-10.1758
▁représente	-10.1759
▁exemplaire	-10.1762
▁horaire	-10.1767
cadre	-10.1774
gro	-10.1776
▁telles	-10.1805
hab	-10.1807
act	-10.1809
▁Cas	-10.1812
▁rattaché	-10.1817
▁https	-10.1821
▁Col	-10.1828
▁contribue	-10.1831
ju	-10.1832
▁assurée	-10.1837
UM	-10.1839
émission	-10.1843
▁forfaitaire	-10.1845
▁contractuel	-10.185
tic	-10.185
▁212	-10.1853
▁Pi	-10.1856
Laurent	-10.1861
▁(1).	-10.1874
▁solution	-10.1874
▁excéder	-10.1885
tel	-10.1886
▁prescription	-10.189
▁taxes	-10.1897
▁Patrick	-10.191
▁indique	-10.1911
▁établit	-10.1917
▁divisionnaire	-10.1922
GER	-10.1929
▁légale	-10.1932
▁SAINT	-10.1933
▁appartenant	-10.194
urbanisme	-10.1943
▁observations	-10.1946
▁conséquence	-10.1947
audit	-10.1951
interdiction	-10.1951
▁Yves	-10.1957
Denis	-10.1959
▁multi	-10.1959
▁démission	-10.1968
▁élus	-10.197
haque	-10.1981
▁Cl	-10.1983
▁attribué	-10.1986
▁insérée	-10.1986
honneur	-10.1987
▁Lo	-10.1991
Co	-10.1992
liqu	-10.1995
préfet	-10.1995
Pauline	-10.1996
TO	-10.1996
invalidité	-10.1998
bre	-10.2
aient	-10.2
▁disponibilité	-10.2002
▁bonne	-10.2007
▁mandataire	-10.2008
▁Rou	-10.201
▁Guillaume	-10.2013
habitat	-10.2015
AIS	-10.2019
environnementale	-10.202
▁affectée	-10.2033
ARMH	-10.2034
Association	-10.2043
autonomie	-10.205
ny	-10.2056
Olivier	-10.206
ouche	-10.206
▁transporteur	-10.206
SC	-10.2061
▁présentée	-10.2064
▁adultes	-10.2073
▁nécessite	-10.2076
ric	-10.2084
▁déjà	-10.2087
▁sujet	-10.2087
ieux	-10.209
▁attribuée	-10.2093
▁recouvrement	-10.2094
▁participer	-10.2106
inspecteur	-10.2109
▁suppléants	-10.2112
▁utile	-10.2113
▁cession	-10.2122
▁compétentes	-10.2126
acteur	-10.2126
▁indiqué	-10.2127
▁ajoutée	-10.2129
▁validé	-10.2132
impact	-10.2138
▁lundi	-10.2139
▁préinscription	-10.215
tom	-10.2167
vant	-10.2169
▁uniquement	-10.2175
▁accompagnée	-10.2178
▁existant	-10.218
og	-10.2185
▁ville	-10.2186
ym	-10.2187
▁Grenoble	-10.2188
▁aucune	-10.2188
▁filière	-10.2203
mat	-10.2207
▁normes	-10.2207
ITÉ	-10.2209
▁monétaire	-10.221
infrastructure	-10.2212
aérodrome	-10.2214
▁garanties	-10.2224
▁maintenu	-10.2225
effectif	-10.2227
hor	-10.2228
▁aucun	-10.2229
ka	-10.2232
▁renouvelable	-10.224
Didier	-10.2241
▁Françoise	-10.2241
hospitalisation	-10.2244
ico	-10.2253
▁opérationnelle	-10.2255
aye	-10.2256
péri	-10.2259
▁visé	-10.2264
▁sanction	-10.227
JUSB	-10.2274
▁duquel	-10.2275
▁partenaire	-10.2279
VAL	-10.2294
▁DÉ	-10.2299
AUT	-10.2301
▁danger	-10.2306
TU	-10.2309
▁étrangers	-10.2318
▁métropole	-10.2323
▁Guadeloupe	-10.2326
igny	-10.2329
Val	-10.2335
▁11°	-10.2336
▁1988.	-10.2343
RON	-10.2346
égi	-10.2346
▁effectuer	-10.2347
Stéphanie	-10.2354
viennent	-10.2358
▁acceptée	-10.2358
▁locales	-10.2376
▁anesthésie	-10.2377
▁stagiaires	-10.238
▁Thierry	-10.2385
▁2003	-10.2386
PH	-10.239
▁solidarité	-10.2398
▁disciplines	-10.2401
venant	-10.2403
▁reconnues	-10.2406
▁élevé	-10.2411
▁Nathalie	-10.2417
▁rejet	-10.2422
entre	-10.2423
préfète	-10.2426
▁sommes	-10.2426
▁infanterie	-10.243
▁Rouen	-10.2442
▁cap	-10.2444
▁législation	-10.2445
▁participe	-10.2449
amélioration	-10.2472
▁contributions	-10.248
▁expérience	-10.2482
▁conception	-10.2488
▁adapté	-10.2489
▁tenant	-10.2492
▁2023.	-10.2496
BR	-10.2499
Corse	-10.25
flu	-10.2502
Victor	-10.2503
▁justifier	-10.2504
▁1986.	-10.2507
▁urbain	-10.2507
Sophie	-10.251
▁indemnités	-10.2514
▁faite	-10.2519
intégr	-10.253
▁Or	-10.2539
nier	-10.2542
▁précitée	-10.2542
vel	-10.2546
Accès	-10.2554
▁masse	-10.2557
▁direct	-10.2559
▁locale	-10.2561
Gabriel	-10.2562
ak	-10.2568
▁accompagné	-10.2579
▁pièce	-10.2588
tru	-10.2594
▁bénéficiant	-10.2596
▁détermine	-10.2603
▁Hu	-10.2618
▁Ra	-10.2624
▁éventuelle	-10.2624
impossibilité	-10.2628
▁conduire	-10.2628
pré	-10.2632
▁Jeanne	-10.2637
▁administrations	-10.2643
▁Bel	-10.2646
oud	-10.2647
Mathilde	-10.2667
▁Commandant	-10.2667
LON	-10.2686
CN	-10.2689
▁logistique	-10.2702
▁1986	-10.2702
▁jeudi	-10.271
▁substitut	-10.271
voi	-10.2718
▁identifiée	-10.2718
▁LES	-10.2725
▁tir	-10.2727
▁dédié	-10.2731
LIN	-10.2734
gar	-10.2734
pol	-10.2737
▁contraire	-10.2738
ê	-10.2742
▁précisé	-10.2745
EF	-10.2746
▁SO	-10.2746
▁extérieure	-10.2757
▁régionaux	-10.2757
der	-10.2757
▁Hélène	-10.2763
▁saisie	-10.2767
▁éligibles	-10.2768
euil	-10.2768
▁courant	-10.2769
▁effectués	-10.2769
FO	-10.2777
/2019	-10.278
uz	-10.2784
▁degré	-10.2797
appellation	-10.2801
▁avenue	-10.2806
Ouest	-10.2809
AGRT	-10.2809
2-8	-10.2814
▁infrastructures	-10.2816
▁magistrats	-10.282
impôt	-10.2828
▁conservé	-10.283
▁inscrites	-10.2833
▁agréées	-10.2833
▁effectuées	-10.2836
PP	-10.2836
euro	-10.2838
▁assurés	-10.2845
IF	-10.2848
EV	-10.2871
lor	-10.2883
In	-10.2884
CL	-10.2886
agit	-10.2887
▁Sal	-10.2889
▁victimes	-10.2899
élaboration	-10.2901
▁capacités	-10.2903
▁123	-10.2908
▁SP	-10.2918
▁Denis	-10.292
UI	-10.293
2-9	-10.2944
▁longue	-10.2945
INS	-10.2948
▁stratégique	-10.295
▁disciplinaire	-10.2952
▁2000	-10.2954
animaux	-10.2962
▁fonctionnelle	-10.2966
▁suppléante	-10.2969
▁sort	-10.2977
ÉS	-10.298
▁principes	-10.2986
▁résolution	-10.2994
▁BAR	-10.3003
Mathieu	-10.3008
▁tenue	-10.3011
euros	-10.3028
q	-10.3031
▁Mor	-10.3043
Céline	-10.3044
▁COUR	-10.306
▁consulaire	-10.3064
LAN	-10.3065
ingénieurs	-10.3072
▁naissance	-10.308
OY	-10.308
▁profit	-10.3084
▁retenue	-10.3084
▁étant	-10.3129
▁imprimé	-10.3133
Jo	-10.3134
exposition	-10.3135
▁brut	-10.3142
IV	-10.3144
Moselle	-10.3144
ération	-10.3146
▁savoir	-10.315
▁définit	-10.315
▁Christine	-10.3151
▁salaires	-10.3151
Laurence	-10.3155
hygiène	-10.3158
▁prévisionnel	-10.3158
▁représenté	-10.3162
ieu	-10.3162
bilis	-10.3163
OUL	-10.3165
▁Dijon	-10.317
▁bénéficient	-10.3176
▁complétée	-10.3178
3-5	-10.3183
Lo	-10.3184
▁accompli	-10.3187
▁déconcentré	-10.3191
Florence	-10.3191
▁source	-10.3191
rac	-10.3192
accident	-10.3194
▁internationales	-10.3194
▁connaître	-10.3195
▁Com	-10.32
départemental	-10.3201
aéronef	-10.3202
classe	-10.3205
▁automatique	-10.3208
▁Beau	-10.3208
▁contractuels	-10.3219
évaluer	-10.3222
gène	-10.3224
▁participant	-10.3224
▁thérapeutiques	-10.3225
ssant	-10.3225
▁destinés	-10.3234
▁certifié	-10.3237
▁POUR	-10.3238
entité	-10.3244
▁permanent	-10.3248
▁démarche	-10.3253
œuvre	-10.3254
▁représentation	-10.3258
NIER	-10.3259
apport	-10.326
▁entraîne	-10.3261
▁assimilé	-10.3262
▁habilités	-10.3271
▁312	-10.3274
▁placés	-10.3276
▁requis	-10.3276
▁1982	-10.3282
Garonne	-10.3289
▁hauteur	-10.3291
▁tient	-10.3295
ENS	-10.3299
▁sportive	-10.3299
ati	-10.3299
omi	-10.331
▁coopérative	-10.3312
▁diagnostic	-10.3312
▁acteurs	-10.3315
RY	-10.3322
▁Vice	-10.3324
▁prestation	-10.3325
▁sécurisé	-10.3329
â	-10.333
institution	-10.3334
▁puissance	-10.3337
Véronique	-10.3341
▁passagers	-10.3346
Le	-10.3351
▁électriques	-10.3359
▁of	-10.3371
▁prononcée	-10.3374
Organisation	-10.3385
▁pourvoir	-10.3388
▁Maurice	-10.3392
▁coût	-10.3397
▁destination	-10.34
▁Guy	-10.3409
cent	-10.341
RAND	-10.3412
ano	-10.342
▁Clermont	-10.3426
▁concourir	-10.343
▁rouge	-10.3434
▁actifs	-10.3444
ini	-10.3445
▁apporte	-10.3446
▁principaux	-10.3451
EG	-10.3454
▁proportion	-10.3455
▁Ben	-10.3458
▁For	-10.3462
Marion	-10.3469
▁Sch	-10.3474
Franck	-10.3477
ty	-10.348
Benoît	-10.3481
▁technologique	-10.3485
▁campagne	-10.349
▁recommandation	-10.3494
ège	-10.3502
▁CAR	-10.3505
indice	-10.3506
verbal	-10.3507
uve	-10.3513
▁tenir	-10.3515
▁répond	-10.352
1-9	-10.3522
▁susceptible	-10.3525
ong	-10.3527
▁Services	-10.3532
ost	-10.3536
▁sportives	-10.354
▁Gérard	-10.3542
culaire	-10.3544
▁semaines	-10.3545
▁111	-10.3553
Bertrand	-10.3554
ôme	-10.3569
▁compatible	-10.3571
échéance	-10.3575
▁transmettre	-10.3584
▁destinataire	-10.3584
▁constitution	-10.3588
▁Civil	-10.3597
▁Service	-10.361
▁Bas	-10.3612
▁DEL	-10.362
▁substances	-10.3631
Vincent	-10.3632
▁émis	-10.3633
ICH	-10.3634
delà	-10.3636
SUR	-10.3645
traitant	-10.3652
elli	-10.3662
▁obligatoirement	-10.3669
▁huit	-10.3671
▁conclusion	-10.3689
▁jeunes	-10.3691
▁Plan	-10.3697
Fabien	-10.3699
Hervé	-10.3728
trait	-10.374
▁cellule	-10.3749
000	-10.3753
▁populaire	-10.3762
▁pensions	-10.3769
▁libertés	-10.3779
▁Chef	-10.3788
▁famille	-10.3788
▁carrière	-10.3791
endre	-10.3796
▁chasse	-10.3799
pp	-10.3802
▁ouvrages	-10.3803
▁immobilier	-10.3806
gna	-10.381
prim	-10.3816
▁fraude	-10.3819
▁effectifs	-10.3822
▁(3)	-10.3824
Var	-10.383
▁garantir	-10.3843
iser	-10.3865
▁Juge	-10.3868
▁renseignement	-10.387
TT	-10.3874
▁présenté	-10.3878
▁admise	-10.3886
▁libellé	-10.389
▁partielle	-10.3895
▁technologies	-10.3895
ave	-10.3908
▁Fonction	-10.3912
▁disponible	-10.3915
▁émissions	-10.3915
▁question	-10.3928
▁statutaires	-10.3929
▁personnalités	-10.393
▁contrôlée	-10.3933
événement	-10.3943
▁nécessité	-10.3943
▁douze	-10.3943
AI	-10.3945
▁législative	-10.3952
▁protégée	-10.3954
Emilie	-10.3955
▁déroule	-10.3957
▁1978	-10.3965
▁Del	-10.3977
assure	-10.3979
▁organisateur	-10.3981
rop	-10.3982
▁NOTAIRES	-10.3988
▁précédant	-10.3988
▁routière	-10.3988
▁mixte	-10.3988
▁dégagement	-10.3992
▁Tous	-10.3996
infraction	-10.4005
Ile	-10.401
▁2002	-10.4014
▁biodiversité	-10.4015
RM	-10.402
▁opérationnel	-10.402
lia	-10.4023
cré	-10.4037
actif	-10.404
9-1	-10.4051
▁série	-10.4051
▁complet	-10.4057
Marine	-10.4061
▁continu	-10.4061
▁Nice	-10.4065
ographie	-10.4067
Benjamin	-10.4069
ssa	-10.4074
▁hommes	-10.4075
▁Convention	-10.4083
Lucie	-10.4085
attaché	-10.4099
▁interrégional	-10.4104
▁Roger	-10.4107
▁compensation	-10.4114
ché	-10.4115
pin	-10.4116
pect	-10.4118
COM	-10.4118
Frédéric	-10.4118
TTE	-10.4134
huissière	-10.4137
▁soumises	-10.4141
▁important	-10.4142
▁guerre	-10.4146
▁ANNEXES	-10.4148
▁Dispositions	-10.4151
▁provisoire	-10.4151
▁répertoire	-10.4155
▁750	-10.4159
ESS	-10.4163
▁cm	-10.4166
chercheurs	-10.4167
Pyrénées	-10.4169
▁fondement	-10.417
PO	-10.4174
animation	-10.4174
▁632	-10.4183
▁aussi	-10.4203
▁compose	-10.4205
gère	-10.4224
lat	-10.4224
▁Poitiers	-10.4228
▁résulte	-10.4233
▁615	-10.4236
▁haute	-10.4237
▁donné	-10.424
▁intercommunale	-10.4241
Claude	-10.4249
▁Accord	-10.4255
ault	-10.4257
ERRE	-10.4263
▁Constitution	-10.4265
ONNE	-10.4277
auteur	-10.4277
▁diverses	-10.4284
▁Valérie	-10.4289
▁intégré	-10.429
▁schéma	-10.4302
8-1	-10.4304
éch	-10.4305
▁handicapées	-10.4307
OUX	-10.4308
▁cumul	-10.4311
HO	-10.4316
homme	-10.4321
▁intervenant	-10.4323
▁Sylvie	-10.4325
Barthélemy	-10.4325
van	-10.4331
▁souhaite	-10.4338
ov	-10.4342
▁évalué	-10.4344
▁notifie	-10.4344
▁2001	-10.4349
composante	-10.435
▁placement	-10.4352
▁constat	-10.4358
▁diffusion	-10.4364
▁vérifier	-10.437
▁exercé	-10.4371
▁modifier	-10.4383
INI	-10.4385
4-4	-10.4388
échelon	-10.4392
ava	-10.4403
omme	-10.4407
architecture	-10.4414
01300	-10.4414
▁mal	-10.4416
▁livraison	-10.4419
▁forfait	-10.4419
▁exclusivement	-10.4433
▁auquel	-10.4433
▁versé	-10.4433
▁Gar	-10.4434
gramme	-10.444
▁produire	-10.4442
▁feu	-10.4445
Amiens	-10.4451
▁trouve	-10.4456
▁Caen	-10.4457
▁Bi	-10.4461
Ang	-10.448
▁Bureau	-10.4482
ographique	-10.4483
LIER	-10.4488
▁subi	-10.4489
BRE	-10.449
▁calculé	-10.4501
▁presse	-10.4508
social	-10.4511
fond	-10.4512
▁Reims	-10.4527
▁coll	-10.4529
jou	-10.4529
ian	-10.4542
▁613	-10.4557
▁conducteur	-10.456
▁contractuelle	-10.456
▁1995	-10.4562
OB	-10.4565
▁distinct	-10.4569
▁fil	-10.4572
▁requise	-10.4587
▁niveaux	-10.4588
Bouches	-10.4589
État	-10.4598
▁ouverte	-10.4601
my	-10.4607
ANI	-10.4608
▁globale	-10.4623
▁calendrier	-10.4631
▁fera	-10.4633
▁recueilli	-10.4636
▁artistique	-10.4636
▁répondre	-10.4647
zi	-10.4655
▁fichier	-10.4655
▁déclarée	-10.4661
chimique	-10.4666
▁Su	-10.4667
▁perturbations	-10.467
▁formule	-10.467
indemnisation	-10.4675
▁greffe	-10.4675
▁annexée	-10.4697
▁interdit	-10.4698
abri	-10.4699
▁demandée	-10.4701
▁ultérieurement	-10.4706
RN	-10.4709
Vilaine	-10.4718
▁Bri	-10.4722
ban	-10.4722
▁métropolitain	-10.4723
ENCE	-10.4723
IO	-10.474
illi	-10.4748
échantillon	-10.4752
▁constatant	-10.4764
▁territoriaux	-10.4766
▁Aucune	-10.4772
4-6	-10.4775
Sarah	-10.4776
▁conventionnel	-10.4781
▁anciennement	-10.4781
▁troupes	-10.4786
Charles	-10.4792
▁porté	-10.4792
initiative	-10.4795
▁165-1	-10.4796
position	-10.4812
Stéphane	-10.4817
adulte	-10.4828
▁hiérarchique	-10.4829
▁donner	-10.4831
▁pension	-10.4831
▁diplomatique	-10.4834
▁relèvent	-10.4835
Adrien	-10.4839
▁intérêts	-10.4843
▁preuve	-10.4849
écu	-10.4864
▁secret	-10.4866
▁prescrit	-10.4868
▁décrit	-10.4879
thèse	-10.4883
▁norme	-10.4897
▁éventuellement	-10.4898
bon	-10.4901
Ferrand	-10.4908
▁214	-10.4909
▁industriel	-10.4912
▁lycée	-10.4915
▁circonstance	-10.4932
▁Cap	-10.4933
off	-10.4934
illon	-10.4935
▁âgé	-10.4937
▁processus	-10.4942
ara	-10.4948
pprovisionnement	-10.4962
▁stagiaire	-10.4967
▁porter	-10.4968
bli	-10.4969
▁manquement	-10.4972
▁consiste	-10.4977
fin	-10.4979
3-8	-10.4984
▁garantissant	-10.4987
ast	-10.5009
▁soumise	-10.501
▁réduit	-10.5012
Eric	-10.5013
▁synthèse	-10.5016
▁capture	-10.5017
bilité	-10.5018
▁cotisation	-10.5018
▁Méd	-10.5023
▁bulletin	-10.5026
▁grossesse	-10.5026
▁vaccin	-10.5026
▁ép	-10.5036
accréditation	-10.5036
Angers	-10.5047
pha	-10.505
MENT	-10.5053
▁ultérieur	-10.5069
▁conduit	-10.5071
▁consommateur	-10.5071
▁dispense	-10.5071
quet	-10.5073
▁fréquence	-10.5076
▁relation	-10.5084
▁enseignements	-10.5084
▁prononce	-10.5091
Espace	-10.5096
Ille	-10.5097
▁retiré	-10.5101
çon	-10.5109
▁disposant	-10.5116
▁Comp	-10.5118
▁Première	-10.5131
▁marque	-10.5132
▁recommandée	-10.5135
▁exigé	-10.5147
▁dépistage	-10.5157
▁pédiatrie	-10.5157
▁reconnu	-10.516
thérapie	-10.5162
Gironde	-10.5167
▁postérieur	-10.5187
▁reconnue	-10.519
▁sortie	-10.5199
▁pluriannuel	-10.5207
▁demandé	-10.521
groupe	-10.5212
▁mardi	-10.5223
▁stock	-10.5224
efficacité	-10.5232
ouvrir	-10.5238
Quentin	-10.5243
Jacques	-10.5255
Cha	-10.5257
Rapha	-10.5277
option	-10.5281
▁mécanique	-10.5294
▁envoyé	-10.5304
MER	-10.5308
5-3	-10.5313
▁prévoit	-10.5319
▁coordonnées	-10.5331
dire	-10.5335
▁salaire	-10.534
Sylvain	-10.5345
Audrey	-10.5345
nch	-10.5348
▁liquidation	-10.5355
fect	-10.536
DU	-10.5363
RIS	-10.5364
▁envisagé	-10.5365
▁programmation	-10.5365
▁résident	-10.5365
UV	-10.5368
▁331	-10.5371
▁repos	-10.5385
ow	-10.5385
ALI	-10.5404
MON	-10.5413
▁recueil	-10.5423
▁Français	-10.5427
▁voté	-10.5428
▁valorisation	-10.5432
▁version	-10.5433
▁521	-10.5437
▁définissant	-10.5439
PORT	-10.5443
lès	-10.5449
ANCE	-10.5452
▁Brest	-10.5454
ZE	-10.5455
▁poly	-10.546
utilité	-10.5464
▁probatoire	-10.5469
▁suppression	-10.5474
▁mobile	-10.5505
▁partenariat	-10.551
CGT	-10.5511
expression	-10.5521
rom	-10.5532
▁face	-10.5548
▁Sol	-10.5554
▁élections	-10.5557
▁Affectation	-10.5563
▁comprise	-10.5572
▁constatation	-10.5576
▁syndicat	-10.5578
établir	-10.558
ECOP	-10.5582
▁propose	-10.5586
▁outils	-10.56
▁notifiée	-10.5602
▁assurant	-10.5605
STE	-10.5612
FP	-10.5616
▁Groupement	-10.562
utiliser	-10.5623
▁Can	-10.5623
▁terminal	-10.5631
Juliette	-10.5639
▁314	-10.5641
JUSE	-10.5642
▁accordé	-10.5646
Auvergne	-10.5647
▁via	-10.5649
once	-10.5652
SON	-10.5653
Alice	-10.5658
ND	-10.5662
AGRS	-10.5663
ida	-10.5664
▁Versailles	-10.5668
▁Associés	-10.5674
▁détermination	-10.5679
▁créance	-10.5679
▁effective	-10.5681
pre	-10.5688
▁bénéficie	-10.5689
TREK	-10.5707
▁détenteur	-10.5711
Pascal	-10.5711
MAR	-10.5714
▁dudit	-10.5727
▁fraction	-10.573
LER	-10.5733
VEN	-10.5736
▁institué	-10.5742
élevage	-10.5743
▁maximal	-10.5743
LET	-10.5745
▁précédente	-10.5754
▁mg	-10.5757
rev	-10.5771
épidémie	-10.578
▁intervient	-10.578
▁XI	-10.5781
Valentin	-10.579
▁personnalité	-10.5791
▁majorité	-10.5809
iti	-10.5812
▁brigade	-10.5823
▁quater	-10.5829
▁complète	-10.5839
▁consignations	-10.585
▁automatisé	-10.5856
apprécier	-10.5859
▁indicateurs	-10.5859
Cyril	-10.5862
▁Trésor	-10.5866
▁Besançon	-10.5872
hal	-10.5876
▁Raymond	-10.5877
▁souhait	-10.5884
▁hertzienne	-10.5894
▁recevoir	-10.5894
▁liquide	-10.5904
Azur	-10.5905
▁convoqué	-10.5915
ssé	-10.5916
▁déterminer	-10.5917
APPEL	-10.5926
▁génie	-10.5932
▁employés	-10.5934
imposition	-10.594
▁totalité	-10.5949
▁requête	-10.5953
▁poursuite	-10.5954
illy	-10.5968
▁proposer	-10.5971
▁Date	-10.598
oin	-10.599
▁réparation	-10.5992
▁huissiers	-10.6002
▁affranchi	-10.6003
▁majoration	-10.6007
just	-10.6015
2013	-10.6019
▁Vu	-10.6026
▁ladite	-10.6027
▁thème	-10.603
aria	-10.604
▁signalement	-10.6043
▁gynécologie	-10.6047
▁cohérence	-10.6052
atteinte	-10.6054
▁rigueur	-10.6058
adjoint	-10.6074
Matthieu	-10.6074
▁prenant	-10.608
ministérielle	-10.6082
culture	-10.6099
▁Pôle	-10.6107
Léa	-10.6122
▁cassation	-10.6123
quota	-10.613
AULT	-10.613
mission	-10.6136
▁signal	-10.6138
▁jugement	-10.6139
▁Seul	-10.6144
AGE	-10.6145
ayant	-10.6163
▁producteur	-10.6172
▁pertinent	-10.6174
avance	-10.6176
cyc	-10.6181
éducatif	-10.6185
▁nouveaux	-10.6189
▁thermique	-10.6191
▁sapeurs	-10.6196
ourd	-10.6199
▁servi	-10.6206
▁2024	-10.621
▁infractions	-10.6221
empêchement	-10.6222
infirmier	-10.6224
▁priorité	-10.6224
TÉ	-10.623
Alexis	-10.623
▁633	-10.6238
immeuble	-10.6241
▁conférences	-10.6241
ç	-10.6242
ham	-10.6246
ARS	-10.6248
ANC	-10.6252
▁directe	-10.6254
▁croissance	-10.6264
coup	-10.6275
▁Royaume	-10.6281
Yves	-10.6282
▁classées	-10.6287
accomplissement	-10.6292
▁relevé	-10.6292
EUX	-10.6306
▁auxquels	-10.6309
Savoie	-10.6315
GO	-10.6321
▁CHAR	-10.6324
igue	-10.6326
▁message	-10.6332
▁rayon	-10.6332
▁signataire	-10.6332
▁sévère	-10.6337
Oise	-10.6343
▁pilote	-10.6349
▁déposée	-10.6358
▁difficulté	-10.636
▁contenant	-10.636
▁communauté	-10.636
ada	-10.6363
▁électeurs	-10.6365
▁attestant	-10.6366
nay	-10.6373
VILLE	-10.6385
▁commandement	-10.6385
enseignant	-10.6394
▁motivée	-10.6399
suffisamment	-10.64
▁référent	-10.6405
▁coordonnateur	-10.6406
▁décrites	-10.6411
▁FRAN	-10.6412
▁réintégré	-10.6428
ô	-10.6437
▁réalise	-10.6439
▁Bulletin	-10.644
▁grave	-10.644
▁adopté	-10.6451
▁chantier	-10.6451
ARR	-10.6455
articul	-10.6462
RIN	-10.6462
œu	-10.6468
▁remis	-10.6473
Virginie	-10.6474
▁rappel	-10.6479
▁périodique	-10.6492
▁PTTT	-10.6492
Laura	-10.6504
forme	-10.651
audition	-10.6512
▁prépare	-10.6513
RAEP	-10.6517
▁variétés	-10.652
NOR	-10.653
▁enregistré	-10.653
▁équivalente	-10.6542
▁visa	-10.6547
ENNE	-10.6552
▁téléphone	-10.6555
û	-10.6556
▁municipal	-10.6561
▁occurrence	-10.6567
Delphine	-10.6567
▁partiel	-10.6569
TIER	-10.6571
Elisabeth	-10.6578
SO	-10.6581
▁nouvel	-10.6588
▁suivre	-10.659
échelle	-10.659
cdg	-10.6591
Terre	-10.6593
▁retenu	-10.6601
▁installé	-10.661
Fabrice	-10.6613
▁concessionnaire	-10.6632
▁vise	-10.6632
▁Avant	-10.6639
même	-10.6639
▁pénal	-10.6644
▁définitif	-10.6658
approche	-10.6666
▁correct	-10.667
RIE	-10.6673
Thierry	-10.6677
infection	-10.6678
▁permettent	-10.668
écart	-10.6682
▁imagerie	-10.6695
▁assiste	-10.6696
ologiques	-10.67
bourg	-10.6705
▁repris	-10.6707
▁bois	-10.6708
▁suspendu	-10.6713
▁remet	-10.6722
▁intérim	-10.6736
▁réuni	-10.6742
▁âgées	-10.6742
SSI	-10.6753
▁tourisme	-10.6766
173	-10.6768
Chloé	-10.6772
mettre	-10.6782
▁comptabilité	-10.6784
Germain	-10.6784
NOT	-10.6784
éducateur	-10.6796
▁logiciel	-10.6796
huit	-10.6801
particulièrement	-10.6806
▁COMP	-10.6808
opposition	-10.6809
▁Conditions	-10.6813
CCP	-10.6819
Edouard	-10.6819
▁solde	-10.6822
▁rejeté	-10.6826
asso	-10.6826
LOT	-10.6827
▁signe	-10.6828
▁interrégion	-10.6833
CAM	-10.6842
▁Afin	-10.6845
▁signée	-10.6849
▁511	-10.685
rig	-10.6853
adolescent	-10.6867
Ana	-10.6875
▁déroulera	-10.6879
CHER	-10.6885
tivité	-10.6895
▁Deux	-10.6897
▁location	-10.6898
900	-10.6906
Florian	-10.6909
communication	-10.6912
journée	-10.6918
▁favorable	-10.6927
▁alloué	-10.6933
▁passé	-10.6938
▁décès	-10.6949
▁scolarité	-10.6957
▁débit	-10.6959
Allemagne	-10.6963
▁millions	-10.6963
DO	-10.6965
▁donc	-10.6992
▁suffisant	-10.6999
▁Roche	-10.7
très	-10.7015
histoire	-10.703
▁ouvriers	-10.7036
rain	-10.7041
atteindre	-10.7042
▁finalité	-10.7046
EST	-10.7053
▁correspondance	-10.7058
▁facturation	-10.706
resse	-10.7064
▁calculée	-10.7075
▁Modalités	-10.7091
▁LISTE	-10.7097
▁double	-10.7103
HER	-10.7107
▁611	-10.7108
▁choisie	-10.711
▁géo	-10.7112
Vienne	-10.7113
hydro	-10.7113
No	-10.7117
▁enregistrées	-10.7117
▁auxquelles	-10.7121
▁Albert	-10.7129
▁redevance	-10.714
Yann	-10.7146
▁coordonne	-10.7148
Hélène	-10.7163
▁orientations	-10.7172
Agnès	-10.7195
▁passage	-10.7198
▁tutelle	-10.7208
▁contexte	-10.722
vol	-10.723
▁Règle	-10.7232
▁subordonné	-10.7232
▁agences	-10.7236
▁développe	-10.7237
▁bassin	-10.7239
▁1981	-10.7241
clar	-10.7242
▁mutation	-10.7251
▁internationaux	-10.7257
▁instituée	-10.7271
service	-10.7278
bou	-10.7294
▁cavalerie	-10.7295
QUI	-10.7295
▁manifestation	-10.7301
▁investissements	-10.7305
ancienneté	-10.7306
▁dématérialisée	-10.7306
appareil	-10.7311
▁Port	-10.7314
▁étrangère	-10.7315
▁Coll	-10.7321
▁combustible	-10.7332
▁dialogue	-10.7338
▁vins	-10.7345
CK	-10.7348
▁413	-10.7361
▁facture	-10.7363
▁Serge	-10.737
▁localement	-10.7371
▁bloc	-10.7376
immatriculation	-10.7382
▁assurances	-10.7385
avoir	-10.7392
EI	-10.7396
▁tome	-10.7407
▁théorique	-10.7414
Francis	-10.742
▁Titulaire	-10.7426
▁greffier	-10.7426
▁Sta	-10.7428
▁identifié	-10.7439
▁chronique	-10.7439
▁respectives	-10.744
Académie	-10.7445
▁électrique	-10.7457
Cédric	-10.7458
adoption	-10.7459
▁conjointement	-10.7465
olle	-10.7465
▁dérouleront	-10.7472
▁Annexe	-10.7477
équivalence	-10.7484
▁ménage	-10.7484
▁délivrer	-10.7485
▁principe	-10.749
▁standard	-10.749
▁pharmaceutique	-10.7502
▁Lycée	-10.7503
▁cité	-10.7504
▁extraordinaire	-10.7509
espèce	-10.7522
▁disposent	-10.7524
▁circonscription	-10.7528
▁412	-10.7537
▁Pays	-10.7543
▁probation	-10.756
▁accueilli	-10.7561
votre	-10.7562
▁révision	-10.7569
▁Bpifrance	-10.7573
▁Direction	-10.7573
▁fixation	-10.7592
Saône	-10.7592
▁gratuit	-10.7599
.00”	-10.7599
implantation	-10.7605
▁restauration	-10.7618
usqu	-10.7619
▁Durée	-10.762
▁blindée	-10.7637
Orient	-10.7639
▁compagnie	-10.7644
▁mentionne	-10.7648
illet	-10.765
emprunt	-10.765
▁autonome	-10.765
oth	-10.7652
▁formateur	-10.7654
▁adaptations	-10.7655
▁Ministère	-10.7657
alerte	-10.7657
▁institutions	-10.7659
équipage	-10.7663
informatique	-10.7668
▁ARMÉE	-10.7674
▁mouvement	-10.7676
▁ailleurs	-10.7676
directrice	-10.7687
▁requérant	-10.7689
EAEA	-10.7689
accéder	-10.7709
▁catastrophe	-10.7709
ZI	-10.7709
▁répondant	-10.7713
▁Corps	-10.7715
▁échanges	-10.7727
▁conventionnelle	-10.7728
▁Martine	-10.7728
Alexandra	-10.7735
▁maison	-10.7736
escadron	-10.7741
Algérie	-10.7748
Château	-10.7748
Pointe	-10.775
marin	-10.7753
effectuer	-10.7756
▁refusé	-10.7763
berg	-10.7763
Charente	-10.7764
agri	-10.777
▁considération	-10.7774
▁vous	-10.7775
▁garanti	-10.7779
▁réforme	-10.778
▁potentiel	-10.7794
▁vacant	-10.7794
▁vitesse	-10.78
▁organise	-10.7818
▁large	-10.783
▁passer	-10.7831
identifiant	-10.784
▁Bourg	-10.784
instrument	-10.7847
ella	-10.7855
▁experts	-10.7859
▁achats	-10.7866
apprenti	-10.7866
LY	-10.7876
▁valider	-10.7883
Aude	-10.7883
▁ZIT	-10.7883
▁restructuration	-10.7892
adhérent	-10.7899
Manon	-10.7909
ARTICLE	-10.7912
▁Suppléant	-10.7919
▁SAS	-10.793
octroi	-10.7932
▁pourvu	-10.7942
▁COR	-10.7943
inventaire	-10.7953
▁Limoges	-10.7966
▁raccordement	-10.7966
▁promu	-10.7966
▁Financement	-10.7972
▁reçoit	-10.7972
▁BEN	-10.7978
▁treizième	-10.7979
accompagne	-10.7984
1.1	-10.7985
ERT	-10.7988
▁liée	-10.7991
▁abroge	-10.7992
▁moitié	-10.7999
Damien	-10.8001
▁Lucien	-10.8001
▁limitation	-10.8012
▁Museum	-10.8019
▁513	-10.8026
III	-10.8036
cinq	-10.8041
▁Monique	-10.8046
▁réintégration	-10.8048
GES	-10.8052
▁veiller	-10.8054
▁consultable	-10.8059
technique	-10.8066
6-3	-10.8069
ISE	-10.8073
occupation	-10.8073
▁cancer	-10.8073
▁Aucun	-10.8081
▁App	-10.8089
▁particulière	-10.809
▁confidentialité	-10.8093
▁préparatoire	-10.8093
6-5	-10.8095
Nord	-10.8103
▁exercent	-10.8114
▁élément	-10.8115
ète	-10.8125
▁clause	-10.8141
exportation	-10.8161
3-9	-10.8165
▁Lors	-10.8166
▁légal	-10.817
▁puisse	-10.8185
▁Formation	-10.8188
identifier	-10.8191
▁notifié	-10.8193
dernier	-10.8206
long	-10.8212
▁équipé	-10.8216
mou	-10.8222
respect	-10.8228
adhésion	-10.8229
▁socio	-10.8232
Richard	-10.8236
chimie	-10.8237
7-2	-10.8241
▁but	-10.8248
▁chaleur	-10.8257
▁secondaire	-10.8268
▁organique	-10.8277
▁organisatrice	-10.8284
▁entend	-10.8289
aliment	-10.8292
cardiovasculaire	-10.8298
çant	-10.83
▁satisfait	-10.8305
▁modéré	-10.8305
Clémence	-10.8319
incident	-10.8326
▁pourcentage	-10.8326
▁remplace	-10.8331
▁rôle	-10.8333
▁documentation	-10.8336
mettent	-10.8342
▁passation	-10.8345
Béatrice	-10.8348
Elodie	-10.8353
IEN	-10.8357
MICC	-10.8361
▁enjeux	-10.8367
dits	-10.8377
▁continuité	-10.8379
6-4	-10.8381
▁forêt	-10.8382
Patricia	-10.8388
▁1996	-10.8392
▁expérimental	-10.8395
▁posté	-10.8412
▁faciliter	-10.8416
exerce	-10.8421
TRAT	-10.8423
colonne	-10.8437
recrute	-10.8437
▁immobilière	-10.8437
▁pied	-10.8444
éno	-10.8448
▁Soit	-10.8458
▁SNCF	-10.8465
▁pression	-10.8465
▁prioritaire	-10.8465
NU	-10.8497
améliorer	-10.8507
▁homologué	-10.8521
électeur	-10.8522
▁donnant	-10.8536
▁SELARL	-10.8542
▁Fonds	-10.8542
▁MARTIN	-10.855
▁travers	-10.8557
▁1979	-10.8557
▁Titre	-10.8564
▁justifié	-10.8571
Calais	-10.8572
▁essentiel	-10.8578
▁préfectoral	-10.8578
▁Hospice	-10.8585
▁porteur	-10.8594
illard	-10.8595
bra	-10.8596
▁faible	-10.8599
Elise	-10.8609
▁train	-10.8612
▁appareils	-10.862
▁exemple	-10.8621
Hubert	-10.8621
▁concertation	-10.8635
▁fiscalité	-10.8638
▁intéressés	-10.864
▁portail	-10.8642
blanc	-10.8643
▁bancaire	-10.8649
Brigitte	-10.8656
▁humaine	-10.8657
femme	-10.8658
ommissariat	-10.8663
▁Jacqueline	-10.8663
▁régularisation	-10.8671
▁éducative	-10.8671
▁global	-10.8675
argent	-10.8686
▁prochain	-10.8692
Thérèse	-10.8699
▁rétention	-10.8699
CPAE	-10.8699
NET	-10.8701
union	-10.8705
ajout	-10.8706
▁indiquant	-10.8706
excède	-10.8714
▁rupture	-10.8728
▁parental	-10.8737
▁marins	-10.8749
▁instituant	-10.875
ÉES	-10.8758
▁ancienne	-10.8758
ophi	-10.8759
hôpital	-10.8764
2.1	-10.8794
▁Nota	-10.88
▁SERVICE	-10.88
43-2	-10.8803
▁démocratique	-10.8808
▁mercredi	-10.8822
▁régulièrement	-10.8827
DON	-10.8829
▁Spécialité	-10.8829
▁détection	-10.883
▁existe	-10.8837
▁contribuant	-10.8844
▁flux	-10.8844
▁formé	-10.8845
▁fonctionnel	-10.8849
▁répression	-10.8851
professionnelle	-10.8854
▁résiliation	-10.8858
obstacle	-10.886
▁implanté	-10.8866
5-6	-10.8866
▁psychologue	-10.8873
▁prévenir	-10.8878
VIER	-10.8878
▁mensuel	-10.8883
23-3	-10.8887
▁résidant	-10.8895
▁Guil	-10.8896
appréciation	-10.8902
Patrick	-10.891
▁retard	-10.8917
attente	-10.8919
osse	-10.892
▁Four	-10.8921
▁mensuelle	-10.8922
▁arrête	-10.8937
▁modernisation	-10.8946
▁glace	-10.8946
▁kilo	-10.8947
▁était	-10.8948
▁intervenir	-10.8952
▁reçoivent	-10.8954
▁fiscal	-10.8956
umab	-10.8959
▁instruments	-10.8968
▁Traitement	-10.8976
Sciences	-10.8983
info	-10.8986
faciale	-10.8991
▁apportées	-10.8991
▁connexes	-10.9005
Mélanie	-10.9013
existence	-10.9013
▁TABLEAU	-10.9019
acceptation	-10.902
▁pluri	-10.902
TERB	-10.902
▁décider	-10.9021
▁température	-10.9028
5-4	-10.9038
▁proche	-10.9051
▁éligible	-10.9069
▁diffus	-10.907
Florent	-10.9072
▁chirurgien	-10.9072
▁162-17	-10.908
▁Emmanuelle	-10.908
2.2	-10.9085
▁chauffage	-10.9087
▁rendre	-10.9088
loi	-10.9091
André	-10.9115
5-5	-10.9119
itude	-10.9119
électro	-10.9125
Futuna	-10.913
▁élu	-10.9131
▁statue	-10.9132
IOM	-10.9133
▁constituent	-10.9136
dentaire	-10.9143
▁climat	-10.9144
▁satisfaire	-10.9155
enseigne	-10.9155
▁partagé	-10.9155
▁tableaux	-10.9167
▁trimestre	-10.917
▁initial	-10.9176
▁fournit	-10.9183
ball	-10.9187
▁utilisateurs	-10.919
oub	-10.9193
▁bonification	-10.9194
Rémi	-10.9202
psycho	-10.9202
aj	-10.9207
▁lendemain	-10.9207
▁motivation	-10.9207
▁Champ	-10.9214
▁attendu	-10.9223
▁auditrice	-10.9224
aquaculture	-10.923
▁bureaux	-10.9235
durée	-10.9236
▁classification	-10.9238
▁infirmiers	-10.9238
gan	-10.9242
▁parents	-10.9245
▁module	-10.9245
cart	-10.9247
▁capitalisable	-10.9253
▁raisonnable	-10.9253
Pitre	-10.927
SPR	-10.9271
SSAN	-10.9276
▁occupé	-10.9276
▁Gui	-10.9284
▁musique	-10.9314
heim	-10.9317
crise	-10.9318
▁voyage	-10.9321
gui	-10.9322
▁engins	-10.9326
image	-10.9327
IVE	-10.9331
▁Nom	-10.9332
type	-10.9341
Ludovic	-10.9344
Amélie	-10.9344
exigence	-10.9361
▁neuf	-10.9375
Hugo	-10.938
▁exécuté	-10.9383
Dominique	-10.9395
▁prévoir	-10.9405
▁quarante	-10.9406
OLI	-10.9411
▁ASSOCIES	-10.9414
exonération	-10.9437
▁dépend	-10.9447
▁coopérateur	-10.945
▁journalière	-10.946
GEN	-10.9464
Yvelines	-10.9468
▁habitant	-10.9468
homologation	-10.9475
éviter	-10.9475
3.1	-10.9481
▁paysage	-10.9486
▁prennent	-10.9491
ambassade	-10.9499
▁162-22-7	-10.9499
▁dissoute	-10.9514
▁spectacle	-10.9514
RIER	-10.9515
▁titularisation	-10.9522
▁Général	-10.953
▁terrestre	-10.953
▁dépense	-10.9545
▁plantes	-10.955
dentiste	-10.9559
▁comprennent	-10.9561
▁Droit	-10.9569
▁immeubles	-10.9569
Aquitaine	-10.9577
▁imposé	-10.9577
5-9	-10.9579
▁entités	-10.958
épargne	-10.9585
atelier	-10.9592
Anna	-10.9609
utilisateur	-10.961
assujetti	-10.9624
▁entendu	-10.963
▁dirigeant	-10.9652
▁différend	-10.9656
▁Metz	-10.9656
▁assorti	-10.9671
▁pénalité	-10.9675
▁2.1.	-10.9681
audience	-10.9683
▁Zone	-10.9688
▁interventions	-10.9691
▁utilisant	-10.9695
▁virus	-10.9695
▁atteste	-10.9695
▁Michèle	-10.9711
▁transaction	-10.9724
▁Officier	-10.9727
▁consentement	-10.9727
▁dissolution	-10.9735
MICB	-10.9735
Justine	-10.9737
2017	-10.974
▁huitième	-10.9745
▁signalisation	-10.9745
THE	-10.9747
▁Réseau	-10.975
assesseur	-10.9751
▁semences	-10.9759
▁compléter	-10.9767
importance	-10.9775
▁fabricant	-10.9775
▁favoriser	-10.9783
artisanat	-10.9783
▁soumet	-10.9793
Alain	-10.9801
▁indiciaire	-10.9815
▁dimension	-10.9823
arthrite	-10.9823
▁artillerie	-10.9823
échec	-10.9831
▁localisation	-10.9844
▁prolongation	-10.9855
▁imparti	-10.9855
▁mémoire	-10.9871
▁tâches	-10.9871
attention	-10.9871
▁mille	-10.9892
Cher	-10.9895
▁vaisseau	-10.9896
▁formulée	-10.9904
▁charte	-10.9905
1.2	-10.9909
amiante	-10.9912
▁quartier	-10.9912
▁syndicale	-10.9922
▁lauréat	-10.9928
observation	-10.9955
▁éventuels	-10.9958
▁entrant	-10.9962
connect	-10.997
▁foncière	-10.9977
▁toutefois	-10.9985
Fanny	-10.9993
▁tarifaire	-11.0001
▁audiovisuelle	-11.0002
▁caractéris	-11.0005
▁Hospitalier	-11.0009
▁différence	-11.0009
Arthur	-11.0018
▁émet	-11.0025
▁exploité	-11.0026
enfance	-11.0038
▁gauche	-11.0042
▁ensuite	-11.0042
▁déposer	-11.005
▁réunit	-11.0054
▁semestre	-11.0059
SSAH	-11.0061
assiette	-11.0079
Hérault	-11.0083
▁Peuvent	-11.0092
bout	-11.0095
▁valide	-11.0112
▁tabac	-11.0116
session	-11.0119
bonne	-11.013
▁Gilbert	-11.0133
▁actuellement	-11.0134
▁différent	-11.014
▁prolongé	-11.0141
▁distributeur	-11.015
▁effectivement	-11.0154
QUET	-11.0181
▁barème	-11.0183
Corinne	-11.0183
informer	-11.0191
▁filiale	-11.0191
▁profil	-11.0191
▁consenti	-11.0208
▁élabore	-11.0221
▁satisfaisant	-11.0233
▁micro	-11.0241
▁normal	-11.0243
▁Sauf	-11.0244
importation	-11.025
aéroport	-11.025
▁vaut	-11.026
▁saisine	-11.0263
▁périodicité	-11.0266
▁établissant	-11.027
▁trouble	-11.0275
VO	-11.0275
organiser	-11.0294
▁incluant	-11.03
▁retirer	-11.03
▁utilise	-11.0314
étend	-11.0316
▁Groupe	-11.0317
▁déclare	-11.032
▁Justice	-11.0334
▁quelque	-11.0334
CFDT	-11.0342
▁visuel	-11.0343
impose	-11.0347
▁revers	-11.0348
▁indexation	-11.0351
▁cortico	-11.0351
OST	-11.0357
▁stationnement	-11.0358
▁quotidien	-11.0359
▁bateaux	-11.0361
▁anticipé	-11.0368
▁jointe	-11.0368
▁221-15	-11.038
▁restriction	-11.0385
▁traite	-11.0387
Lionel	-11.0388
▁meilleurs	-11.0402
▁Trans	-11.0403
examinateur	-11.041
▁Substitut	-11.041
▁constitutive	-11.041
▁CNIL	-11.0428
▁animale	-11.0434
▁voyageurs	-11.0437
Thibault	-11.0444
▁précédemment	-11.0462
Christine	-11.0462
▁accidents	-11.0465
▁souscrit	-11.048
Occitanie	-11.0496
Isabelle	-11.0504
arrivée	-11.0504
▁payé	-11.0507
Christelle	-11.0523
▁ponctuelle	-11.0539
eutique	-11.0539
▁paramètres	-11.0548
administratif	-11.0555
mettant	-11.0573
▁justification	-11.0574
▁221-14	-11.0583
Anthony	-11.0591
▁trafic	-11.06
document	-11.0617
Théo	-11.0619
▁limité	-11.0622
Isère	-11.0624
▁actuel	-11.0625
▁polytechnique	-11.0626
OLLE	-11.0633
▁climatique	-11.0638
▁prévoyance	-11.0643
▁Petit	-11.0644
Alban	-11.0649
▁JU	-11.0667
▁incomplet	-11.0669
▁déontologie	-11.0669
▁Information	-11.0687
▁autorise	-11.0698
▁élaboré	-11.0704
▁facultative	-11.0713
▁Magistrat	-11.0722
▁méthotrexate	-11.0731
Micha	-11.0735
▁réclamation	-11.0739
▁Nombre	-11.0742
équilibre	-11.0748
augmentation	-11.0748
INRIA	-11.0748
▁Nicole	-11.0757
▁encore	-11.0775
▁Légifrance	-11.0784
▁conduisant	-11.0784
▁221-16	-11.0784
▁rétabli	-11.0788
AGNE	-11.079
▁mutuelle	-11.0792
Benoit	-11.0802
intolérance	-11.081
▁constituant	-11.081
exige	-11.0813
métrique	-11.0821
▁technologie	-11.0825
▁taille	-11.0833
▁évolu	-11.0834
▁anonyme	-11.0837
▁Directeur	-11.0846
▁Toulon	-11.0846
▁provision	-11.086
▁convois	-11.0864
onnier	-11.087
/2018-12-2	-11.0872
entraînement	-11.0879
procureur	-11.0881
éligibilité	-11.089
▁forte	-11.0894
ingénierie	-11.0899
▁appartient	-11.0899
Indre	-11.0901
▁PROFESSIONNEL	-11.0902
▁tirage	-11.0906
▁Représentant	-11.0908
▁grille	-11.0908
▁apprécié	-11.0917
product	-11.092
▁simultanément	-11.0956
▁feront	-11.0962
▁foncier	-11.098
Léo	-11.0985
▁interacadémique	-11.0989
▁Protocole	-11.0998
▁mutualité	-11.1007
▁plastique	-11.1007
▁parisien	-11.1009
▁canal	-11.1011
▁Gestion	-11.1016
▁prononcé	-11.1018
▁Adjudant	-11.1025
▁4111-2	-11.1025
disciplinaire	-11.1028
▁additionnel	-11.1053
▁réduire	-11.108
date	-11.1085
interprétation	-11.1089
élimination	-11.1089
▁portabilité	-11.1101
▁assisté	-11.1116
▁soixante	-11.1116
ILLA	-11.1123
▁séquence	-11.1126
Bernard	-11.1131
▁correction	-11.1147
▁commis	-11.1152
éventuel	-11.1154
Anton	-11.1155
▁consultatif	-11.1162
▁fusion	-11.1171
▁thon	-11.1173
praticien	-11.1174
▁machine	-11.1181
▁titularisé	-11.119
▁Lieutenant	-11.119
indicateur	-11.1193
▁séparé	-11.1199
▁multiple	-11.1218
Assemblée	-11.1236
▁redevable	-11.1236
▁Transports	-11.1245
intégrité	-11.1261
▁Compte	-11.1261
▁Léon	-11.1262
▁desquelles	-11.1264
incidence	-11.1282
▁téléprocédure	-11.1282
intranet	-11.1292
▁unitaire	-11.1293
▁futur	-11.1301
▁2006-164	-11.1302
▁Contrôle	-11.131
▁frégate	-11.131
▁liberté	-11.131
▁Santé	-11.1311
▁contrôlé	-11.1314
JEAN	-11.1319
▁Adresse	-11.132
Meurthe	-11.132
plénipotentiaire	-11.1348
▁CONCOURS	-11.1366
▁Présentation	-11.1366
▁rémunéré	-11.1366
▁Emile	-11.1366
▁GUIL	-11.1371
ordonnateur	-11.1384
▁doté	-11.1387
▁Maison	-11.1389
OFF	-11.1409
▁similaire	-11.1423
auxiliaire	-11.1432
▁antarctique	-11.1442
Tunisie	-11.1451
▁sexe	-11.1455
Christian	-11.1459
posant	-11.1459
▁immédiat	-11.1468
▁Organi	-11.1469
▁rapide	-11.147
▁vacance	-11.147
nutrition	-11.148
Catherine	-11.1504
▁permanence	-11.1508
Karine	-11.1509
Clara	-11.1512
▁National	-11.1515
ESRH	-11.1537
place	-11.1537
éditeur	-11.1543
Tarn	-11.1545
▁gériatrie	-11.1556
▁terrorisme	-11.1556
▁rénovation	-11.1575
▁cinquante	-11.1584
▁contingent	-11.1584
▁exclusif	-11.1585
▁CMG	-11.1594
▁conversion	-11.1604
enveloppe	-11.1622
▁troupeau	-11.1623
▁cautionnement	-11.1642
▁classifié	-11.1652
acheminement	-11.1652
▁guide	-11.1653
▁règle	-11.1662
▁rencontr	-11.1666
▁semaine	-11.167
affilié	-11.1671
encontre	-11.1697
télésurveillance	-11.17
▁vocation	-11.17
▁notée	-11.1703
hypothèse	-11.171
▁nécessitant	-11.171
Force	-11.1725
▁ouvré	-11.1729
▁débiteur	-11.1737
alternative	-11.1739
▁formalités	-11.1749
▁MOD	-11.1755
▁déploiement	-11.1758
▁loisirs	-11.1758
▁mécanisme	-11.1768
emplacement	-11.1787
▁citoyen	-11.1788
▁apparaît	-11.1788
INTC	-11.1792
▁condamné	-11.1798
▁forestière	-11.1807
▁communautaire	-11.1807
Morbihan	-11.1827
Méditerranée	-11.1837
▁concentration	-11.1847
ogne	-11.1854
/2021-12-1	-11.1858
▁Roland	-11.1859
▁gabarit	-11.1866
▁plate	-11.1868
Gérald	-11.1876
▁Pendan	-11.1877
▁primaire	-11.1887
▁Programme	-11.1887
▁antérieur	-11.1898
Grégoire	-11.1906
▁Syndicat	-11.1906
▁daté	-11.1913
▁strictement	-11.1916
MTRD	-11.1916
officine	-11.1926
▁bénéficié	-11.1936
▁régulier	-11.1936
Jules	-11.1949
▁fermeture	-11.1965
investigation	-11.1975
adapter	-11.1975
▁CAPL	-11.1978
▁décide	-11.1982
▁TITRE	-11.1986
ANGE	-11.1986
▁revêt	-11.1995
gastro	-11.1995
022000	-11.2001
Yannick	-11.2005
▁déclarant	-11.2005
5-8	-11.2011
▁vieillesse	-11.2015
immobilier	-11.2024
▁présidé	-11.2035
▁capable	-11.2039
▁propagation	-11.2055
▁vidéo	-11.2055
comptable	-11.2064
▁accrédité	-11.2065
▁métier	-11.2085
▁rectification	-11.2096
audiovisuel	-11.2105
▁volonté	-11.2116
individuellement	-11.2136
hyper	-11.2138
priseur	-11.2147
œ	-11.2185
Samuel	-11.2197
vigilance	-11.2207
▁carburant	-11.2207
insaisissabilité	-11.2228
▁hebdomadaire	-11.2228
juridictionnelle	-11.223
▁renseigné	-11.2238
Régis	-11.2241
Nathalie	-11.2273
Mohamed	-11.2279
▁gouvernance	-11.2279
Rémy	-11.2289
joindre	-11.2299
▁problème	-11.2299
▁combustion	-11.231
sibilité	-11.2318
▁appar	-11.233
Emma	-11.233
▁Sécurité	-11.233
▁faculté	-11.233
«	-11.2358
BOURG	-11.2371
achèvement	-11.2372
▁magasin	-11.2372
▁prorogé	-11.2403
▁Fernand	-11.2413
incapacité	-11.2413
▁remplissent	-11.2416
▁Médaillé	-11.2424
▁affiché	-11.2424
▁démissionnaire	-11.2425
▁vérifie	-11.2438
4-8	-11.2454
▁rattachement	-11.2455
▁puni	-11.2463
▁révisé	-11.2466
Orléans	-11.2476
▁management	-11.2476
▁collaborateur	-11.2479
Frédérique	-11.2486
▁Suzanne	-11.2486
▁Bourgogne	-11.2487
▁évalue	-11.2503
accessibilité	-11.2507
▁doctorat	-11.2507
▁renforcé	-11.2507
▁spéciaux	-11.2507
▁systémique	-11.2507
MTRR	-11.2507
Finistère	-11.2518
▁significative	-11.2518
conformité	-11.2518
Muriel	-11.2534
▁collabor	-11.2536
commissaire	-11.2538
interruption	-11.2539
▁sauvetage	-11.2539
▁maternité	-11.255
Essonne	-11.256
Hugues	-11.2562
▁mesuré	-11.2581
Bénédicte	-11.2592
▁délivre	-11.26
▁créer	-11.2615
Franche	-11.2626
▁ouvrière	-11.2634
▁énumérées	-11.2634
▁Banque	-11.2634
inscrivent	-11.2645
▁recevant	-11.2656
▁faune	-11.2658
aspirant	-11.2666
immigration	-11.2666
▁vérifié	-11.2666
▁tranche	-11.2666
▁tuteur	-11.2666
▁délibérant	-11.2688
▁radioprotection	-11.2688
durable	-11.2692
engin	-11.2696
PRMX	-11.2698
▁certaine	-11.2702
rectorat	-11.2709
▁Légion	-11.2709
affichage	-11.272
▁intéressant	-11.2731
▁variation	-11.2731
▁circuit	-11.2741
▁polluant	-11.2741
▁repérage	-11.2741
▁superficie	-11.2741
▁énoncées	-11.2742
quatre	-11.2747
Myriam	-11.2752
▁immatriculé	-11.2752
Henri	-11.277
▁DISPOSITION	-11.2774
▁locataire	-11.2774
▁exécutoire	-11.2784
▁pollution	-11.2784
international	-11.2791
sociaux	-11.2802
arrière	-11.2806
▁Nature	-11.2817
CGC	-11.2819
▁chemin	-11.2828
▁repren	-11.2829
autoroute	-11.2839
écran	-11.2839
▁introduit	-11.2849
▁bibliothèques	-11.2871
Calvados	-11.2882
▁contient	-11.2882
▁préparant	-11.2893
▁fermé	-11.2893
▁photo	-11.2894
▁estimé	-11.294
▁Département	-11.2959
ESRS	-11.297
developpement	-11.2981
▁agrégé	-11.2981
▁effluents	-11.2981
▁panneau	-11.2985
▁télétravail	-11.2992
Margaux	-11.2992
▁marquage	-11.3003
4-9	-11.3014
▁remplissant	-11.3016
affecte	-11.3027
Robin	-11.303
▁hépato	-11.3036
▁mondial	-11.3037
Manuel	-11.3043
▁boulevard	-11.3047
▁chômage	-11.3058
▁transitoire	-11.3058
▁Cyclades	-11.3069
▁munitions	-11.307
Conseil	-11.3072
▁empêch	-11.3073
▁OFFICE	-11.3081
Comté	-11.3087
▁bailleur	-11.3092
▁réussite	-11.3103
▁dépendantes	-11.3116
▁pertinence	-11.3125
Julia	-11.3136
/2021-12-2	-11.3136
▁Réaliser	-11.3136
▁circulaire	-11.3136
▁examiné	-11.3136
perfectionnement	-11.3148
▁végétal	-11.3159
▁accessoires	-11.3159
▁traçabilité	-11.3159
éclairage	-11.317
▁député	-11.3181
▁forestier	-11.3204
▁intellectuelle	-11.3204
▁sergent	-11.3204
Magali	-11.3205
▁conflit	-11.3215
▁conçu	-11.3226
▁régulière	-11.3229
recherche	-11.3233
alcool	-11.3233
▁impérativement	-11.3238
Odile	-11.3239
excédent	-11.324
entérologie	-11.326
▁efficace	-11.326
émetteur	-11.3263
▁débarquement	-11.3294
▁recharge	-11.3294
▁logis	-11.3298
Russie	-11.3306
Aurore	-11.3308
▁ordinaire	-11.3317
▁poursuivre	-11.3317
Saclay	-11.3317
▁déduction	-11.3317
▁dangereuses	-11.3317
hospice	-11.3328
▁verticale	-11.3328
▁locatif	-11.334
▁situe	-11.3346
▁présidence	-11.3351
▁tension	-11.3352
▁Yvon	-11.3378
dynamique	-11.3386
▁combattants	-11.3386
▁dévolues	-11.3409
▁salariale	-11.3409
▁sauvage	-11.3409
alternance	-11.342
▁indemnitaire	-11.342
▁personnalisé	-11.342
▁Détail	-11.342
▁bande	-11.3429
associé	-11.3442
▁syndic	-11.3465
▁GÉNÉRAL	-11.3466
▁progression	-11.3466
temps	-11.3482
▁Ernest	-11.3489
▁faute	-11.3494
▁déléguer	-11.3513
▁couleur	-11.3513
▁manuel	-11.3514
▁ophtalmologie	-11.3524
▁variable	-11.3524
introduction	-11.3548
▁prudentiel	-11.3548
▁destruction	-11.3548
▁notice	-11.3559
▁provenance	-11.3559
▁consacré	-11.3559
Alsace	-11.3559
Amandine	-11.3572
armateur	-11.3572
ÉTAT	-11.3574
▁Culture	-11.3577
▁bataillon	-11.3583
▁renforcer	-11.3594
▁Trois	-11.3606
vingt	-11.3611
▁Assesseur	-11.3618
▁Maître	-11.3618
▁rectificative	-11.363
▁manifeste	-11.363
▁bovin	-11.363
PRMG	-11.3641
Georges	-11.3647
▁dirigé	-11.3665
▁bâti	-11.3669
▁maintenir	-11.3677
système	-11.3682
José	-11.3703
▁sauvegarde	-11.3712
assainissement	-11.3724
▁compréhension	-11.3724
▁victime	-11.3731
▁orthopédique	-11.3736
▁adopte	-11.3737
acompte	-11.3751
emballage	-11.376
immobilisation	-11.376
▁montagne	-11.376
Agathe	-11.376
▁géotechnique	-11.376
▁distribu	-11.3769
▁Chorus	-11.3772
▁civique	-11.3772
/2021-02-1	-11.3773
expédition	-11.3784
TRAA	-11.3784
inscrit	-11.381
acquérir	-11.3831
/2022-04-2	-11.3843
▁milliard	-11.3843
▁Décision	-11.3855
cadastr	-11.3856
▁servant	-11.3857
opératoire	-11.3868
▁Données	-11.3868
Landes	-11.3871
agglomération	-11.388
▁éliminatoire	-11.388
▁muni	-11.3893
oût	-11.3903
▁commence	-11.3905
▁joueur	-11.3918
hôtel	-11.3925
▁apporté	-11.3926
▁541-10	-11.3931
▁complexe	-11.394
▁médiateur	-11.394
▁cursus	-11.3952
▁Définition	-11.3964
▁menace	-11.3964
▁consécutive	-11.3976
Jérémy	-11.3976
Grégory	-11.4001
▁restitution	-11.4001
▁transparence	-11.4013
extinction	-11.4025
astreinte	-11.4029
▁substitue	-11.4038
▁centraux	-11.4038
▁récépissé	-11.405
▁douanier	-11.405
▁latérale	-11.405
▁Créteil	-11.4062
▁spécifications	-11.4074
▁médiation	-11.4074
énoncé	-11.4086
Doubs	-11.4103
▁Professionnelle	-11.4111
▁énumérés	-11.4111
▁côté	-11.4111
▁Considérant	-11.4124
▁oncologie	-11.4136
022001	-11.4142
▁dérogatoire	-11.4148
COURT	-11.415
▁associative	-11.4161
▁opéré	-11.4161
▁cultivées	-11.4173
▁reconduit	-11.4173
Axel	-11.4177
▁préventive	-11.4186
▁banque	-11.4199
Emploi	-11.421
▁intervenue	-11.4211
estimation	-11.4217
tribunaux	-11.4218
▁Fondation	-11.4235
▁pénétration	-11.4235
▁Mission	-11.4236
▁master	-11.4236
▁récapitulatif	-11.4248
insuffisance	-11.426
▁agronomique	-11.426
ILLARD	-11.4268
▁jugé	-11.4273
▁copropriétaire	-11.4286
▁Antarctic	-11.4298
▁construire	-11.4298
▁prévisible	-11.4298
▁carbone	-11.4298
▁navigant	-11.4311
▁récolte	-11.4311
▁teneur	-11.4313
▁conservateur	-11.4323
JUST	-11.4324
activation	-11.4336
▁exploite	-11.4336
▁nominative	-11.4336
▁neurologie	-11.4336
▁dimanche	-11.4349
arbitrage	-11.4361
▁thématique	-11.4374
▁portuaire	-11.4374
▁regroupement	-11.4386
▁transversale	-11.4386
architecte	-11.4399
▁confirmation	-11.4412
▁observé	-11.4412
arrondissement	-11.4412
injection	-11.4412
▁renforcement	-11.4437
▁bateau	-11.4449
impression	-11.445
original	-11.4476
▁amiable	-11.4476
▁prescripteur	-11.4488
Sarthe	-11.4502
odontologie	-11.4514
▁pédiatrique	-11.4514
▁effectuant	-11.454
▁fédéral	-11.454
▁reproduction	-11.454
justice	-11.4543
Daniel	-11.4558
▁Paragraphe	-11.4566
▁indispensable	-11.4566
▁Objet	-11.4579
▁Critère	-11.4591
/2021-01-2	-11.4592
▁contractant	-11.4599
▁navigables	-11.4604
▁litige	-11.4605
▁grâce	-11.4617
▁irrecevable	-11.4617
▁naturalisation	-11.4617
▁précision	-11.4617
▁couple	-11.462
▁collégiale	-11.463
▁littoral	-11.463
▁desquels	-11.4643
/2020-12-0	-11.4644
▁capitaux	-11.4669
/2022-07-2	-11.4682
▁élargi	-11.4683
▁indéterminée	-11.4722
▁tarification	-11.4722
▁pneumologie	-11.4748
▁positif	-11.4748
région	-11.4782
▁Communauté	-11.4788
▁souscription	-11.4788
▁2020-523	-11.4814
Valérie	-11.4824
▁Italie	-11.4827
▁spécifié	-11.484
/2019-07-1	-11.484
Administration	-11.484
▁domestique	-11.484
Morgan	-11.4849
▁téléversement	-11.4854
anomalie	-11.4854
Vaucluse	-11.4867
▁suspendre	-11.4867
▁unilatérale	-11.488
▁photocopie	-11.4894
▁mélange	-11.4907
▁ventilation	-11.4907
▁Evaluation	-11.492
▁docteur	-11.4934
/2020-08-0	-11.4947
▁critique	-11.4949
▁graphique	-11.4961
▁boissons	-11.4961
actualisation	-11.4974
/2020-02-2	-11.4974
Laetitia	-11.4974
▁Objectif	-11.4974
Micka	-11.4974
affiliation	-11.4988
▁attestée	-11.4988
▁hydraulique	-11.4988
conseil	-11.4989
▁amené	-11.4989
Thibaut	-11.5028
▁Natura	-11.5028
hospital	-11.504
▁Défense	-11.5055
▁FORMATION	-11.5055
/2021-12-0	-11.5069
▁descriptif	-11.5082
▁suffrages	-11.5082
écologie	-11.5082
▁Aménagement	-11.5096
▁réservation	-11.5096
▁traumatologique	-11.511
Gwen	-11.5114
▁métallurgiques	-11.5123
▁remplaçant	-11.515
▁BONN	-11.5153
▁Signature	-11.5164
▁fluvial	-11.5164
▁gérer	-11.5178
BLANC	-11.5188
Sandra	-11.519
William	-11.5192
/2018-07-2	-11.5205
Antarctique	-11.5205
▁administré	-11.5205
▁Catalogue	-11.5219
▁défaillance	-11.5219
▁préservation	-11.5219
▁frontière	-11.522
▁Musée	-11.5222
▁alphabétique	-11.5233
huile	-11.5235
gouvernementale	-11.5235
▁envisage	-11.5239
▁récupération	-11.5247
interface	-11.5247
▁adéquat	-11.5256
occuper	-11.5261
▁recourir	-11.5261
employé	-11.5269
▁chimiothérapie	-11.5274
édition	-11.5275
Vendée	-11.5275
▁immunologie	-11.5288
apprécie	-11.5293
▁contestation	-11.5302
Lorraine	-11.5302
▁2020-2021	-11.5316
▁RÉPUBLIQUE	-11.5316
▁maternel	-11.5317
Bastien	-11.5319
▁illicite	-11.5344
▁indirectement	-11.5344
▁réserviste	-11.5344
▁hémato	-11.535
▁Produits	-11.5372
▁raccordé	-11.5372
▁condamnation	-11.5386
▁intensive	-11.5386
▁maréchal	-11.5386
/2022-02-1	-11.5388
▁Système	-11.5428
▁curriculum	-11.5428
▁australes	-11.5428
inclusion	-11.5432
▁absolue	-11.5442
▁aspects	-11.5442
aéronautique	-11.5454
Ghislain	-11.5456
▁diagnostique	-11.5456
▁motivé	-11.5458
▁Andr	-11.5462
Marianne	-11.5471
TOIRE	-11.548
▁gouvernement	-11.5482
éthique	-11.5485
▁octroyé	-11.5499
▁vitae	-11.5513
▁Tableau	-11.5518
indépendance	-11.557
▁construit	-11.557
install	-11.5573
/2019-06-2	-11.5584
Vallée	-11.5596
▁copropriété	-11.5598
▁télécopie	-11.5598
▁Numéro	-11.5613
Joseph	-11.5615
▁consolidé	-11.5627
▁créancier	-11.5627
▁spécificité	-11.5627
▁6232-1	-11.5628
finances	-11.5659
exprime	-11.5663
▁prorogation	-11.567
CPAB	-11.567
▁froid	-11.5673
Confédération	-11.5674
▁NOTARIAL	-11.5685
▁concourant	-11.5685
▁augmenté	-11.5699
▁facturé	-11.5714
▁légumes	-11.5728
▁aigu	-11.5731
▁Nadine	-11.5743
/2019-04-1	-11.5757
▁publie	-11.5758
territorialement	-11.5761
▁Certificat	-11.5762
▁aéroportuaire	-11.5772
soignant	-11.5786
▁Opérations	-11.5786
emprisonnement	-11.5801
▁photographie	-11.5801
▁confiance	-11.5801
▁violation	-11.5801
▁chaude	-11.5801
▁détect	-11.5815
Jonathan	-11.5816
▁examine	-11.5823
océan	-11.5831
▁concédant	-11.5845
▁commerciaux	-11.5859
▁expresse	-11.5859
▁arrondi	-11.5889
/2018-08-0	-11.5889
▁plaisance	-11.5889
▁libération	-11.5889
/2021-03-1	-11.5891
évènement	-11.5904
▁journalier	-11.5904
▁délimité	-11.5918
▁CENTRE	-11.5919
acquitte	-11.5933
▁calendaire	-11.5933
/2022-06-1	-11.5935
▁annulés	-11.5948
▁modificative	-11.5948
Jacq	-11.596
/2019-03-2	-11.5963
Noémie	-11.5963
/2022-03-1	-11.5979
Champagne	-11.5987
▁aquatique	-11.6008
corps	-11.602
excédant	-11.6022
▁nominale	-11.6023
▁Domaine	-11.6037
▁BRUN	-11.6041
animal	-11.6042
/2020-03-1	-11.6052
FranceAgriMer	-11.6052
▁déficit	-11.6052
▁monnaie	-11.6052
Sonia	-11.6055
▁dirige	-11.6061
discrimination	-11.6067
▁surveillant	-11.6067
▁téléchargement	-11.6067
aoui	-11.6069
évacuation	-11.6082
▁bruit	-11.6083
INFORMATION	-11.6097
▁Blessé	-11.6097
▁manœuvre	-11.6128
▁flore	-11.6128
▁2016/679	-11.6143
▁constitutif	-11.6143
JUSK	-11.6143
/2022-03-0	-11.6158
Augustin	-11.6158
▁Claudine	-11.6158
▁acquitté	-11.6158
Drôme	-11.616
verbaux	-11.6173
▁douzième	-11.6173
/2018-01-1	-11.6173
▁précoce	-11.6173
isolement	-11.6173
Exp	-11.6185
suppléant	-11.6188
▁siéger	-11.6188
▁médaille	-11.6203
▁touristique	-11.6203
▁prorata	-11.6203
▁patrimonial	-11.6219
Voies	-11.6222
▁Eugène	-11.6234
▁réalisant	-11.6234
Guadeloupe	-11.6252
▁recyclage	-11.6264
/2018-04-2	-11.628
022002	-11.6283
▁renvoyé	-11.6295
/2020-08-1	-11.631
▁apatrides	-11.631
▁digestive	-11.631
▁progressive	-11.631
▁dépouillement	-11.6326
/2021-10-2	-11.6326
/2020-06-1	-11.6341
▁corvette	-11.6341
▁déterminant	-11.6372
▁monothérapie	-11.6372
/2018-06-0	-11.6372
Hôpital	-11.6372
INTN	-11.6372
»	-11.6378
▁téléchargeable	-11.6388
allemand	-11.6389
▁posé	-11.64
▁sécurisation	-11.6403
/2022-05-1	-11.6405
/2018-03-2	-11.6419
▁préparé	-11.6419
▁contribuable	-11.6434
▁recouvré	-11.6434
▁détenir	-11.645
▁prélevé	-11.645
/2018-11-2	-11.6465
▁mécanicien	-11.6465
INSCRIPTION	-11.6481
▁mérite	-11.6497
▁représentative	-11.6505
/2019-07-2	-11.6512
▁dérivé	-11.6512
entrepreneur	-11.6528
▁Cergy	-11.6528
archéologie	-11.6528
Just	-11.6542
amortissement	-11.6544
▁consolidation	-11.6544
▁pouss	-11.6546
▁instruit	-11.6559
▁dermatologie	-11.6575
ordonner	-11.6587
Installation	-11.6591
▁municipaux	-11.6591
Christ	-11.6616
▁causé	-11.6623
▁délibérative	-11.6639
▁ionisants	-11.6639
▁Celui	-11.6639
▁percevoir	-11.6654
/2020-01-1	-11.667
▁imputable	-11.6686
▁recevabilité	-11.6686
▁psychologique	-11.6686
▁expressément	-11.6702
jonction	-11.6702
instructeur	-11.6718
▁balisage	-11.6718
▁2241-17	-11.6718
/2020-10-0	-11.6718
/2018-06-2	-11.6734
/2020-09-1	-11.6734
▁délégataire	-11.6734
▁perspective	-11.6734
▁Villeneuve	-11.675
▁fragilisée	-11.675
▁possède	-11.675
▁privilège	-11.675
▁résistance	-11.675
▁souterrain	-11.675
/2019-03-0	-11.6766
▁développé	-11.6766
▁pratiqué	-11.6766
▁remboursé	-11.6766
▁portefeuille	-11.6783
hélicoptère	-11.6799
▁programmé	-11.6799
▁médias	-11.6815
▁prospective	-11.6831
▁téléphonique	-11.6831
/2018-07-1	-11.6831
/2019-02-2	-11.6847
Gauthier	-11.6863
authentification	-11.6863
Solène	-11.6879
exactitude	-11.688
▁complétant	-11.688
▁Nîmes	-11.6896
▁licenciement	-11.6896
▁onzième	-11.6896
▁pathologique	-11.6896
▁SIREN	-11.6896
/2018-04-1	-11.6912
▁Séverine	-11.6912
▁compatibilité	-11.6912
emprise	-11.6912
/2020-05-2	-11.6929
▁différé	-11.6929
INSEE	-11.6929
ndra	-11.6941
▁collectées	-11.6945
▁contemporain	-11.6945
▁hybride	-11.6945
▁possession	-11.6945
▁récipient	-11.6945
/2021-04-2	-11.6945
▁tendant	-11.6945
▁Prévention	-11.6961
Nathan	-11.6977
assignation	-11.6994
chirurgical	-11.6994
▁interrompu	-11.6994
▁ventilé	-11.6994
▁cardiaque	-11.7011
Yvette	-11.7011
/2018-03-0	-11.7027
/2020-02-0	-11.7027
▁innovant	-11.706
Ardèche	-11.7077
▁démontre	-11.7077
CPTP	-11.7094
▁Gustave	-11.711
▁inutile	-11.711
▁légaux	-11.7127
animateur	-11.7128
examiner	-11.7135
▁spatial	-11.7144
Dordogne	-11.7144
/2018-12-1	-11.7145
▁CERTIFICAT	-11.7145
▁approuvant	-11.716
▁siégeant	-11.716
ECOE	-11.7161
▁blanchiment	-11.7177
▁réquisition	-11.7177
/2022-12-0	-11.7177
Corentin	-11.7178
ÉTABLISSEMENT	-11.7194
▁Dépenses	-11.7194
▁Procédure	-11.7194
▁pavillon	-11.7194
adéquation	-11.72
▁chancelier	-11.7227
▁gravité	-11.7227
▁promouvoir	-11.7227
▁hébergé	-11.7244
▁réflexion	-11.7244
▁universel	-11.7244
exécuter	-11.7244
▁bénévole	-11.7278
▁prévoient	-11.7278
/2021-06-0	-11.7278
/2022-06-2	-11.7295
embarquement	-11.7295
▁républicaine	-11.7295
LOIRE	-11.7306
▁conférant	-11.7312
écrivant	-11.7312
Mayenne	-11.7314
ÉPREUVE	-11.7346
▁pondéré	-11.7346
▁trajet	-11.7346
/2019-02-1	-11.738
▁confirmé	-11.738
▁ruraux	-11.738
abandon	-11.7381
▁corporel	-11.7397
▁RELATIVE	-11.7397
▁chaîne	-11.7397
Félix	-11.7398
/2021-11-1	-11.74
▁Garantie	-11.7415
SPOV	-11.7415
▁constructeur	-11.7432
▁incompatible	-11.7432
▁incorpor	-11.7432
Pontoise	-11.7432
▁incombe	-11.7449
inématographique	-11.7461
▁cinéma	-11.75
Sylvie	-11.7501
education	-11.7518
▁millième	-11.7518
▁végétaux	-11.7518
accomplir	-11.7535
▁comparaison	-11.7535
▁inadéquate	-11.7535
▁identifie	-11.7563
:	-11.7789
;	-12.0101
“	-12.9514
"	-13.8146
<	-13.8146
