<unk>	0
<s>	0
</s>	0
▁de	-3.03475
'	-3.26028
,	-3.4244
.	-3.72173
▁l	-3.85849
▁la	-3.88169
▁du	-3.89076
▁	-3.96016
s	-4.13188
▁et	-4.15015
▁des	-4.18212
▁à	-4.27676
▁d	-4.29781
-	-4.63067
▁les	-4.63474
▁le	-4.63763
▁(	-4.77131
▁en	-4.811
▁au	-4.83753
▁:	-4.89371
▁;	-5.04268
▁est	-5.04956
▁«	-5.06908
▁par	-5.11995
/	-5.22077
)	-5.33886
—	-5.35358
▁ou	-5.39067
▁L	-5.43062
article	-5.45066
▁dans	-5.51094
▁pour	-5.61929
▁M	-5.67426
▁»	-5.72696
▁sont	-5.73011
▁aux	-5.76725
▁Le	-5.78516
e	-5.79555
),	-5.87016
▁Mme	-5.94909
▁un	-5.96317
▁sur	-6.05716
▁Les	-6.1015
▁arrêté	-6.13201
).	-6.13374
▁1	-6.14284
un	-6.17999
er	-6.18505
A	-6.19235
▁une	-6.21136
▁présent	-6.21394
▁ministre	-6.22481
▁qui	-6.23787
▁La	-6.31616
▁code	-6.37837
▁R	-6.38095
▁date	-6.38259
une	-6.38927
▁fr	-6.44264
▁n	-6.46102
lr	-6.48021
▁ainsi	-6.49666
▁A	-6.53486
▁que	-6.55204
°	-6.56261
▁mots	-6.59655
es	-6.63052
▁portant	-6.64956
▁Arrêté	-6.67236
arrete	-6.69156
▁alinéa	-6.74931
▁dispositions	-6.75307
▁services	-6.77508
r	-6.78426
▁titre	-6.7926
▁a	-6.80653
▁décret	-6.81405
▁I	-6.83218
▁D	-6.83466
▁être	-6.83598
▁2	-6.83609
▁officiel	-6.84139
▁avec	-6.89636
▁Journal	-6.89662
▁Par	-6.89843
▁République	-6.9045
▁française	-6.90831
▁général	-6.9229
▁conditions	-6.95664
▁cas	-6.98102
▁sécurité	-6.9816
▁Au	-6.99961
▁2018	-7.00337
▁sera	-7.00498
▁leur	-7.00566
▁son	-7.01242
▁ce	-7.02903
S	-7.0293
▁ne	-7.02993
▁décembre	-7.03583
de	-7.04041
▁nationale	-7.04815
▁directeur	-7.05372
administration	-7.054
▁sous	-7.05786
▁2022	-7.05955
▁1°	-7.06269
▁2019	-7.06571
Etat	-7.08659
▁II	-7.09383
▁s	-7.09701
▁santé	-7.10789
▁ans	-7.11002
▁professionnelle	-7.11158
▁pas	-7.11313
▁2°	-7.11562
▁compter	-7.11692
▁3	-7.12213
▁générale	-7.12799
▁ses	-7.13039
▁service	-7.14691
▁chargé	-7.15372
▁peut	-7.15717
arrêté	-7.17876
▁dont	-7.17911
▁C	-7.18203
▁publié	-7.19984
▁janvier	-7.21497
▁2023	-7.21559
▁travail	-7.22063
▁formation	-7.22394
▁société	-7.23539
il	-7.23658
▁4	-7.24508
a	-7.24956
▁qu	-7.25245
d	-7.27413
▁concours	-7.27962
▁même	-7.27966
é	-7.28137
▁5	-7.33545
▁juillet	-7.33626
▁B	-7.34954
2	-7.35988
▁relatif	-7.36266
D	-7.36444
▁sa	-7.36699
▁demande	-7.36847
▁articles	-7.38159
▁<	-7.38338
>	-7.38483
TABLE	-7.38611
1	-7.38901
▁notaire	-7.38979
▁susvisé	-7.39257
▁publics	-7.39926
▁Il	-7.40221
▁modifié	-7.40783
▁sociale	-7.41217
▁cette	-7.42309
▁justice	-7.42576
▁-	-7.43142
3	-7.4315
c	-7.43787
▁b	-7.44089
▁premier	-7.45037
▁6	-7.45722
▁durée	-7.46121
▁mars	-7.46643
exécution	-7.47132
▁juin	-7.47272
▁titulaire	-7.48022
▁Pour	-7.48088
▁publique	-7.49107
le	-7.49397
▁ministère	-7.49587
▁Paris	-7.49902
▁qualité	-7.50279
l	-7.50321
▁mai	-7.50352
▁application	-7.50551
▁civile	-7.5056
▁ces	-7.50987
▁avril	-7.51473
▁national	-7.51824
▁liste	-7.52013
▁En	-7.52286
▁septembre	-7.52652
▁gestion	-7.5284
▁candidats	-7.53348
▁novembre	-7.53592
▁plus	-7.5401
▁octobre	-7.54229
▁prévues	-7.5486
6	-7.55326
C	-7.55476
▁S	-7.55805
ment	-7.55843
▁se	-7.56104
▁entre	-7.56645
▁7	-7.57031
▁il	-7.57098
▁direction	-7.5728
▁nomination	-7.57979
▁classe	-7.58247
▁CHU	-7.58645
▁février	-7.59927
▁après	-7.60052
▁chef	-7.60126
4	-7.60616
▁8	-7.607
8	-7.61604
y	-7.61878
▁Art	-7.62052
5	-7.62119
nt	-7.62489
▁3°	-7.62852
▁III	-7.62853
▁compte	-7.63104
▁remplacés	-7.63191
▁Marie	-7.63285
B	-7.6332
en	-7.63445
▁conseil	-7.63679
▁DE	-7.63766
▁auprès	-7.64192
▁personnes	-7.6423
▁suivantes	-7.65829
▁12	-7.66301
et	-7.67341
▁mise	-7.67546
7	-7.67699
▁9	-7.68099
▁19	-7.68183
▁21	-7.68745
▁née	-7.69011
▁30	-7.69826
▁fonctions	-7.70057
▁31	-7.705
▁professionnel	-7.7056
▁août	-7.70637
▁deux	-7.70639
▁finances	-7.71411
▁V	-7.71457
▁peuvent	-7.71696
▁non	-7.71836
▁cadre	-7.71876
▁c	-7.71913
année	-7.72317
▁public	-7.72356
▁dossier	-7.72381
application	-7.72665
▁13	-7.72799
▁électronique	-7.73041
au	-7.7369
0	-7.73792
▁10	-7.73943
▁P	-7.74933
▁convention	-7.7512
▁»,	-7.75223
9	-7.75519
▁président	-7.75893
▁médecine	-7.75953
▁fonction	-7.76311
n	-7.76395
▁tous	-7.77308
▁recherche	-7.77326
▁20	-7.77372
▁17	-7.77457
▁modalités	-7.77671
▁15	-7.78278
▁montant	-7.7997
▁candidat	-7.80592
in	-7.80696
▁11	-7.80879
▁loi	-7.81249
t	-7.81286
E	-7.81495
▁partir	-7.82016
▁sein	-7.82145
▁Saint	-7.82215
M	-7.8233
▁23	-7.82614
▁résidence	-7.83009
▁membres	-7.83018
ant	-7.83438
▁16	-7.83498
▁».	-7.83965
▁mentionnés	-7.84511
exercice	-7.85507
▁22	-7.85522
▁leurs	-7.85639
▁14	-7.85783
re	-7.86014
▁mois	-7.86096
▁18	-7.87072
▁moins	-7.8716
▁Jean	-7.87736
▁nombre	-7.87986
▁charge	-7.88166
P	-7.8896
▁T	-7.89703
▁contrôle	-7.89945
i	-7.90276
▁F	-7.91129
▁délai	-7.9133
▁remplacé	-7.9184
▁G	-7.9228
▁France	-7.92741
▁chaque	-7.93184
enseignement	-7.93825
ci	-7.94631
▁mentionnées	-7.94683
▁supérieur	-7.95146
établissement	-7.95297
▁œuvre	-7.95385
▁conformément	-7.95847
T	-7.9588
▁24	-7.96087
inscription	-7.96894
▁droit	-7.97113
▁comme	-7.97325
▁corps	-7.97625
ou	-7.98772
▁né	-7.98992
▁commission	-7.99642
est	-7.99735
▁garde	-7.99757
▁25	-7.99845
▁Conseil	-8.00528
F	-8.00959
▁concerne	-8.01161
L	-8.0131
▁rédigé	-8.01406
▁tout	-8.02557
▁données	-8.02564
▁28	-8.02695
▁26	-8.03148
▁notamment	-8.03184
o	-8.0338
▁cours	-8.03823
N	-8.03828
▁centre	-8.04234
annexe	-8.04922
▁Dans	-8.05015
▁27	-8.0513
▁selon	-8.05313
▁doit	-8.05923
▁soit	-8.06022
▁IV	-8.06104
▁N	-8.063
▁bureau	-8.06342
▁voie	-8.06446
▁section	-8.0649
▁chargés	-8.0661
▁ci	-8.0774
▁sceaux	-8.07987
▁deuxième	-8.08052
▁4°	-8.08151
▁représentant	-8.08197
▁comptes	-8.08354
▁personne	-8.08547
▁fin	-8.08609
emploi	-8.08976
▁établissements	-8.09382
▁E	-8.09532
ur	-8.0983
▁réserve	-8.10047
▁avant	-8.1008
▁vigueur	-8.10108
▁prévue	-8.10397
▁limite	-8.1044
▁prise	-8.1098
information	-8.10995
▁ré	-8.11012
▁article	-8.11366
▁membre	-8.11388
▁nom	-8.11404
économie	-8.11876
▁épreuves	-8.12002
▁grade	-8.12226
▁traitement	-8.12602
ation	-8.13466
▁chacun	-8.13506
cret	-8.13627
▁référence	-8.14153
▁mentionné	-8.14227
f	-8.1434
▁trois	-8.14697
▁ayant	-8.14983
objet	-8.15161
R	-8.15333
▁Décret	-8.15535
▁bas	-8.15634
▁droits	-8.15805
▁échéant	-8.16143
▁règlement	-8.16384
▁texte	-8.16565
G	-8.1689
▁29	-8.17197
▁affaires	-8.17202
▁directrice	-8.17281
m	-8.17314
▁accessible	-8.1741
▁mentionnée	-8.17677
I	-8.17938
▁page	-8.18079
▁tribunal	-8.18101
▁lieu	-8.18143
▁période	-8.18435
▁2017	-8.18444
la	-8.19454
▁fixant	-8.19567
▁été	-8.20692
on	-8.2076
▁agents	-8.20889
1-1	-8.20979
H	-8.21021
▁si	-8.21222
▁annexe	-8.21846
éducation	-8.22041
▁2019,	-8.22241
▁sans	-8.2228
extrait	-8.22313
▁partie	-8.22322
▁hors	-8.22474
▁“	-8.22731
or	-8.23126
▁mot	-8.23269
▁collective	-8.23706
▁compétences	-8.23833
▁consulter	-8.2384
accord	-8.24223
mer	-8.24532
▁site	-8.24742
▁relatives	-8.24889
▁décision	-8.25172
▁applicables	-8.25473
intégralité	-8.25485
al	-8.25581
▁première	-8.2562
u	-8.25668
à	-8.25674
▁contrat	-8.26134
▁nommé	-8.26324
▁nommée	-8.26356
fr	-8.26524
activité	-8.26582
évaluation	-8.26663
▁niveau	-8.26813
és	-8.26837
accès	-8.26842
▁Elle	-8.27214
▁2023,	-8.27338
▁publiques	-8.27484
▁produits	-8.27723
▁personnel	-8.28127
▁images	-8.28319
▁ANNEXE	-8.28452
ensemble	-8.28523
▁responsabilité	-8.28551
ent	-8.28703
▁Vous	-8.28729
▁2018,	-8.28834
organisation	-8.28925
▁pouvez	-8.28926
▁techniques	-8.29035
▁protection	-8.29266
▁tableau	-8.29362
▁présente	-8.29362
▁authentifié	-8.30023
▁chapitre	-8.30352
▁fait	-8.30399
intérieur	-8.30619
▁%	-8.30704
▁2022,	-8.30723
ra	-8.30828
▁recrutement	-8.30833
▁autres	-8.31095
▁situation	-8.31218
▁défense	-8.3153
▁2021	-8.32083
p	-8.32538
▁mission	-8.33537
office	-8.33604
▁H	-8.33781
action	-8.34205
▁activités	-8.34215
20	-8.34293
▁associés	-8.34424
eau	-8.34459
officiers	-8.34513
it	-8.34826
▁actes	-8.35593
▁ressources	-8.35659
▁faire	-8.35701
▁technique	-8.35881
▁judiciaire	-8.36045
▁Après	-8.3625
▁comité	-8.36327
V	-8.36879
▁jusqu	-8.36982
épreuve	-8.37222
▁travaux	-8.37342
▁opérations	-8.37572
▁entreprises	-8.38126
▁retraite	-8.38188
▁heures	-8.3826
▁ministériels	-8.38372
▁publication	-8.38746
▁relevant	-8.38763
▁suit	-8.39354
environnement	-8.39539
examen	-8.39562
JUSC	-8.39867
▁tard	-8.40375
▁informations	-8.40743
▁épouse	-8.40992
▁Un	-8.41003
▁toute	-8.41188
▁dernier	-8.4135
▁«-	-8.41387
▁suivant	-8.41495
▁p	-8.42213
▁également	-8.43005
ar	-8.43195
aux	-8.43554
▁région	-8.43808
g	-8.4417
▁modifiant	-8.44668
▁Cette	-8.4501
▁projet	-8.45052
▁armées	-8.45152
▁collectivités	-8.45202
▁prévu	-8.45225
▁pris	-8.45329
agriculture	-8.45475
▁certificat	-8.45538
▁fixé	-8.45718
▁Ce	-8.46538
▁autre	-8.46542
▁département	-8.46615
aide	-8.46709
▁Sont	-8.46821
les	-8.47029
▁ligne	-8.47049
▁effet	-8.47826
IN	-8.47827
▁nature	-8.47943
▁accord	-8.48299
▁respect	-8.48325
▁doivent	-8.48404
▁numérique	-8.48483
▁procédure	-8.49025
▁outre	-8.49302
▁suivante	-8.49494
▁jours	-8.49654
▁mis	-8.49924
▁lorsque	-8.49941
ne	-8.49963
▁police	-8.50257
▁5°	-8.50292
▁chargée	-8.51024
▁re	-8.51068
▁postes	-8.51108
▁jour	-8.51253
z	-8.513
▁lors	-8.51391
lle	-8.51665
▁matière	-8.51682
É	-8.51712
autorité	-8.51733
▁remplacement	-8.52167
▁fixée	-8.523
▁troisième	-8.52485
▁mesures	-8.52527
▁phrase	-8.52835
▁zone	-8.53939
▁compris	-8.53958
assurance	-8.54506
b	-8.5459
▁poste	-8.5461
▁o	-8.54668
Y	-8.54692
▁transport	-8.54829
▁transition	-8.54879
el	-8.54893
▁ont	-8.55326
énergie	-8.55501
▁office	-8.55684
ée	-8.55687
ine	-8.55831
▁rapport	-8.56079
▁développement	-8.56152
▁suivants	-8.56366
▁définies	-8.56455
▁avis	-8.56939
▁secrétaire	-8.56964
▁LA	-8.57378
appel	-8.57531
▁y	-8.57952
▁social	-8.57977
▁préfet	-8.58099
▁2.	-8.58332
▁place	-8.58414
organisme	-8.59312
▁DES	-8.59487
▁représentants	-8.59793
an	-8.59965
▁spécialité	-8.60044
état	-8.60046
▁K	-8.60154
RE	-8.6022
ir	-8.60742
▁f	-8.60791
▁2020	-8.61075
▁personnels	-8.61199
▁”	-8.61283
▁Pierre	-8.61464
▁salariée	-8.61855
▁adjoint	-8.6196
adresse	-8.6198
▁inter	-8.61992
▁écologique	-8.62191
▁actions	-8.62206
h	-8.62485
at	-8.62589
ot	-8.63019
▁Lorsque	-8.63267
us	-8.63379
▁dé	-8.63386
▁prend	-8.63512
▁modifiée	-8.63869
▁livre	-8.63902
▁base	-8.64059
▁territoire	-8.64087
▁interne	-8.64109
▁contre	-8.64114
▁jury	-8.64122
▁suivi	-8.64327
ré	-8.64361
▁médecin	-8.64758
▁administrative	-8.64837
O	-8.64839
ouverture	-8.64931
▁système	-8.65193
▁budget	-8.65196
▁pièces	-8.65364
▁fixées	-8.65539
▁documents	-8.65693
▁organismes	-8.65884
Pierre	-8.65909
is	-8.66018
30	-8.66141
▁DU	-8.66261
11	-8.66744
▁cet	-8.66764
22	-8.66912
▁relative	-8.67131
▁humaines	-8.67189
▁complété	-8.67342
▁délégué	-8.67618
UE	-8.67693
▁Article	-8.67995
▁Une	-8.68019
2-1	-8.68243
▁prévention	-8.68328
▁permettant	-8.68516
▁règles	-8.6899
▁production	-8.6903
▁Ces	-8.6922
ol	-8.69324
10	-8.6944
▁réception	-8.69526
admission	-8.69793
▁1.	-8.69999
▁De	-8.7009
▁2016	-8.70226
te	-8.70389
-5	-8.7059
ées	-8.70766
▁disposition	-8.70953
effet	-8.7096
▁remplacée	-8.71073
1-2	-8.71145
exploitation	-8.71309
▁plusieurs	-8.71425
▁soins	-8.71673
▁comptable	-8.71735
▁plan	-8.71876
▁nécessaires	-8.71935
▁salariés	-8.72238
elle	-8.72577
▁mention	-8.72627
▁professionnels	-8.72647
▁m	-8.72718
▁inséré	-8.72757
▁vice	-8.72871
▁donnée	-8.73569
Assistance	-8.7359
entreprise	-8.73613
▁éléments	-8.73704
▁limitée	-8.73707
▁régionale	-8.73852
▁pêche	-8.73878
▁toutes	-8.74284
▁territoires	-8.74439
▁supérieure	-8.74676
▁LE	-8.74687
▁in	-8.74795
▁missions	-8.75102
age	-8.75247
ont	-8.75257
▁part	-8.75342
v	-8.75475
▁Si	-8.75819
▁000	-8.76016
▁prendre	-8.76024
▁champ	-8.76107
▁paragraphe	-8.76175
-2	-8.76375
00	-8.76418
ils	-8.76434
▁financement	-8.76468
Institut	-8.7654
▁lui	-8.76569
▁susvisée	-8.76602
▁internet	-8.7686
▁notaires	-8.77084
▁gaz	-8.7716
▁transports	-8.77344
▁libéral	-8.77503
ie	-8.77525
-3	-8.77742
▁faisant	-8.77742
▁attributions	-8.78989
▁prestations	-8.79317
▁bis	-8.79326
ti	-8.79389
▁programme	-8.79432
▁délégation	-8.79475
▁décisions	-8.79512
▁responsable	-8.79535
▁celles	-8.79634
▁pendant	-8.79683
▁commissaire	-8.79698
▁insérés	-8.79819
▁centrale	-8.79948
▁médicale	-8.8005
3-1	-8.80062
▁spécialités	-8.80166
J	-8.80312
▁Centre	-8.80535
▁principal	-8.80674
▁maladie	-8.80724
du	-8.80967
autorisation	-8.81172
▁modification	-8.81217
▁charges	-8.8135
▁commune	-8.81746
13	-8.81842
ac	-8.82136
▁diplôme	-8.82198
▁maritime	-8.8222
▁réalisation	-8.82441
▁communes	-8.82762
▁création	-8.8288
aviation	-8.8305
Jean	-8.83114
après	-8.83278
k	-8.83319
▁afin	-8.83351
▁culture	-8.83578
▁européenne	-8.83841
▁laquelle	-8.84153
Agence	-8.84243
▁6°	-8.84345
▁""	-8.84372
▁taux	-8.84496
sur	-8.84566
▁médical	-8.84623
▁grande	-8.84879
li	-8.84907
▁sens	-8.84996
▁vue	-8.85875
▁abrogé	-8.85877
▁études	-8.8605
▁exercer	-8.86059
▁VI	-8.86434
▁économique	-8.86446
▁paiement	-8.86605
▁souveraineté	-8.86997
01	-8.87402
que	-8.87454
▁Partie	-8.87723
ul	-8.87768
▁inscriptions	-8.8826
▁elle	-8.88271
▁Nigen	-8.88365
▁temps	-8.88549
▁signer	-8.88564
ard	-8.88567
▁industrielle	-8.88601
▁dispositif	-8.88971
▁relatifs	-8.89036
12	-8.89849
▁point	-8.89862
ro	-8.89888
Union	-8.90167
▁3.	-8.90218
ordre	-8.90221
▁douanes	-8.90253
▁33	-8.90392
▁supprimés	-8.90463
25	-8.90677
▁européen	-8.90867
▁W	-8.9092
ES	-8.91187
▁domaine	-8.91252
19	-8.91337
▁type	-8.91479
▁déclaration	-8.9168
▁O	-8.91807
▁0	-8.91818
Marie	-8.91827
▁commerce	-8.91856
▁français	-8.92082
▁six	-8.92154
▁gendarmerie	-8.92198
gouv	-8.92208
▁risques	-8.92322
▁ET	-8.92361
di	-8.92487
▁frais	-8.92549
▁systèmes	-8.92561
lo	-8.92649
24	-8.92914
▁celui	-8.92927
France	-8.93077
▁an	-8.9336
me	-8.9359
▁cabinet	-8.93698
▁cinq	-8.94042
▁régime	-8.94176
chef	-8.94554
▁associé	-8.94747
▁étrangères	-8.94774
K	-8.94832
23	-8.94874
im	-8.94924
▁défaut	-8.95303
▁h	-8.95531
▁établissement	-8.95649
▁celle	-8.95751
35	-8.95894
▁conclu	-8.96031
▁forme	-8.96034
▁certification	-8.96077
▁J	-8.96169
▁emplois	-8.96312
2-2	-8.96369
▁siège	-8.96415
▁régional	-8.96498
Z	-8.96548
entrée	-8.9665
▁titulaires	-8.96651
▁figurant	-8.96847
▁32	-8.96918
▁communication	-8.96971
18	-8.97267
▁temporaire	-8.97627
▁activité	-8.97638
▁moyen	-8.97897
absence	-8.98031
▁territoriale	-8.98107
▁installations	-8.98108
installation	-8.9831
▁nommés	-8.98583
▁dépenses	-8.98621
▁territoriales	-8.98676
▁année	-8.98802
02	-8.99002
▁adjointe	-8.99138
ance	-8.99734
um	-8.99844
(	-8.99911
▁juge	-9.00046
▁emploi	-9.00126
▁cohésion	-9.00172
31	-9.00175
-1	-9.00184
utilisation	-9.00215
▁Président	-9.007
▁applicable	-9.00756
U	-9.00823
▁mesure	-9.00957
mi	-9.0109
▁catégorie	-9.0112
▁groupe	-9.01212
▁pré	-9.01235
05	-9.01551
▁patients	-9.01561
▁Commission	-9.01611
té	-9.01626
1-3	-9.01757
▁jeunesse	-9.02135
▁fonctionnement	-9.02299
▁vote	-9.02318
15	-9.02373
exception	-9.02422
▁document	-9.02464
▁marché	-9.02509
intérêt	-9.02516
▁concernant	-9.02748
▁2023.	-9.02966
222	-9.0301
▁con	-9.03118
AL	-9.03152
▁instance	-9.03489
▁alinéas	-9.03526
180	-9.03683
232	-9.03709
avenant	-9.03729
▁externe	-9.03892
▁Ier	-9.03903
▁moyens	-9.03957
▁rue	-9.04218
▁avoir	-9.04239
aptitude	-9.04505
06	-9.04718
▁Michel	-9.04738
▁second	-9.04852
▁admis	-9.04868
ET	-9.05019
▁foi	-9.05088
▁conseiller	-9.05294
231	-9.05308
ement	-9.05319
▁correspondant	-9.0538
▁euros	-9.05639
▁Des	-9.05701
▁tant	-9.05728
▁Lyon	-9.05799
ia	-9.06082
▁logement	-9.06127
am	-9.06138
17	-9.06147
07	-9.06188
▁réseau	-9.06267
181	-9.06299
ologie	-9.06452
usage	-9.06589
03	-9.06622
▁seront	-9.06642
▁Délégation	-9.06773
190	-9.06965
inspection	-9.06998
221	-9.07278
▁prévus	-9.07281
▁administrateur	-9.07441
alimentation	-9.07519
art	-9.07541
▁caractère	-9.07563
▁François	-9.07756
▁eaux	-9.07778
id	-9.07875
▁pro	-9.07963
▁44	-9.07999
▁2015	-9.08001
▁profession	-9.08021
40	-9.08157
▁salarié	-9.08194
▁2019.	-9.0857
50	-9.08578
230	-9.08674
▁Publique	-9.08719
▁unique	-9.08764
▁g	-9.08844
▁aérienne	-9.09207
▁recours	-9.09211
to	-9.09538
▁précise	-9.09663
accueil	-9.09686
▁rang	-9.09704
26	-9.09749
▁surveillance	-9.09912
insertion	-9.09971
04	-9.10036
ab	-9.10072
▁35	-9.10191
▁administratif	-9.10289
▁valeur	-9.10327
▁cahier	-9.10336
4-1	-9.10403
41	-9.10447
op	-9.10553
182	-9.1067
ité	-9.10837
▁militaire	-9.10916
▁2014	-9.10962
▁consommation	-9.11071
52	-9.11163
aire	-9.1127
▁particulier	-9.11454
▁renouvellement	-9.11526
▁Cour	-9.11718
▁candidature	-9.11753
na	-9.11975
aménagement	-9.12105
▁cour	-9.12275
▁physique	-9.12306
▁cheffe	-9.12603
08	-9.12698
▁fonds	-9.12988
://	-9.13031
EL	-9.13129
min	-9.13204
▁construction	-9.13326
▁dossiers	-9.13339
Ecole	-9.13513
ER	-9.13685
▁Philippe	-9.13825
45	-9.14021
▁dépôt	-9.14103
origine	-9.14134
32	-9.14146
▁procédures	-9.14151
42	-9.14256
▁secteur	-9.14351
▁total	-9.14591
▁quatre	-9.14662
192	-9.14897
▁administratives	-9.14898
▁34	-9.14948
28	-9.15021
▁compétente	-9.15165
exclusion	-9.15339
▁sociales	-9.1544
opération	-9.15453
220	-9.15688
▁parties	-9.1587
16	-9.15885
▁établi	-9.15903
▁numéro	-9.15974
agrément	-9.16046
34	-9.16052
27	-9.16155
51	-9.16217
ch	-9.1628
▁ingénieur	-9.163
ma	-9.16417
eur	-9.16537
▁résultats	-9.1657
▁créé	-9.16692
36	-9.168
▁proposition	-9.16882
▁rédaction	-9.16938
▁mandat	-9.17039
▁financier	-9.17068
and	-9.17139
▁relations	-9.17178
▁Anne	-9.17222
▁(1),	-9.17228
▁7°	-9.17421
▁Gouvernement	-9.17616
▁nouvelle	-9.1762
▁comprend	-9.17666
RI	-9.17678
mo	-9.17783
ta	-9.17847
▁coopération	-9.17895
direction	-9.17903
▁transmission	-9.1807
▁politique	-9.18141
OR	-9.18169
dessous	-9.18273
▁Re	-9.1829
▁groupement	-9.18319
60	-9.18353
▁obligatoires	-9.18356
lé	-9.18386
-10	-9.18453
▁secrétariat	-9.18494
CE	-9.18532
autre	-9.18537
▁crédits	-9.18546
▁dernière	-9.18556
▁ceux	-9.18621
EN	-9.18647
33	-9.1875
▁concernés	-9.18818
▁administratifs	-9.19168
▁é	-9.19647
▁co	-9.19654
▁Est	-9.19729
ON	-9.19842
▁produit	-9.19926
▁obligations	-9.19979
▁examens	-9.20121
14	-9.20304
ique	-9.20552
ier	-9.20649
53	-9.20912
▁défini	-9.20942
191	-9.20997
▁transfert	-9.21075
44	-9.21176
ut	-9.2122
▁vie	-9.21296
▁Premier	-9.21539
▁état	-9.21736
43	-9.22012
▁début	-9.2208
▁lorsqu	-9.22171
expérimentation	-9.22292
ph	-9.22518
61	-9.22562
AT	-9.2262
va	-9.2264
OU	-9.22655
x	-9.22739
55	-9.2276
▁fonctionnaires	-9.23139
avis	-9.23175
09	-9.23202
▁cachet	-9.23298
▁chez	-9.23478
w	-9.23502
▁fixe	-9.2373
▁maximum	-9.23778
▁2022.	-9.23877
▁commun	-9.23978
exploitant	-9.24016
▁recettes	-9.24159
▁rémunération	-9.24173
ARD	-9.24297
▁territorial	-9.24298
▁retrait	-9.24414
▁équipements	-9.24477
▁employeurs	-9.2464
21	-9.24709
▁marchés	-9.24817
▁demandes	-9.25074
▁suppléant	-9.25114
section	-9.25174
29	-9.25179
président	-9.25202
39	-9.25303
▁sanctions	-9.25324
▁militaires	-9.25433
▁patient	-9.25453
▁structure	-9.25496
autres	-9.25625
IS	-9.2602
3-2	-9.26064
▁fois	-9.2607
▁parcours	-9.26074
▁pharmaceutiques	-9.26123
dessus	-9.2629
▁Nouvelle	-9.26347
▁solidarités	-9.26405
▁mer	-9.26467
▁gestionnaire	-9.26567
47	-9.26789
▁chambre	-9.27164
th	-9.27209
▁handicap	-9.2724
▁50	-9.27251
38	-9.27523
65	-9.27689
▁acquis	-9.27701
▁rubrique	-9.27758
aud	-9.2794
▁pénitentiaire	-9.2798
ce	-9.28204
▁biens	-9.283
▁scientifique	-9.28314
ME	-9.28368
ron	-9.28387
▁offerts	-9.28403
opérateur	-9.28524
elles	-9.28929
ry	-9.29022
▁égal	-9.29026
▁statut	-9.29569
▁4.	-9.29792
▁calcul	-9.29807
▁manière	-9.29859
OT	-9.2988
val	-9.29909
46	-9.29995
▁restant	-9.30001
▁économiques	-9.30119
Europe	-9.30143
urgence	-9.30154
ence	-9.30179
agent	-9.304
▁Ma	-9.3041
▁Cedex	-9.30468
▁désignés	-9.30514
▁normale	-9.30683
extension	-9.30691
58	-9.30737
▁financière	-9.30906
▁principale	-9.31008
étranger	-9.3101
rie	-9.3105
▁performance	-9.3106
mé	-9.31201
▁dérogation	-9.31205
▁locaux	-9.31244
AU	-9.31277
▁Con	-9.31329
37	-9.31337
Hôpitaux	-9.3149
▁minutes	-9.31511
oc	-9.31546
▁Etat	-9.31709
▁clôture	-9.31737
▁adresse	-9.31784
▁Cité	-9.31915
▁notarial	-9.31985
▁délivrance	-9.32006
▁Cha	-9.32052
▁autorisée	-9.32059
▁soumis	-9.32079
ad	-9.32145
▁risque	-9.32241
intervention	-9.32348
être	-9.32359
▁mettre	-9.32443
▁position	-9.32556
▁navigation	-9.32627
70	-9.32635
▁lesquelles	-9.32648
▁orale	-9.32701
instruction	-9.32765
▁agent	-9.32823
▁effets	-9.32827
▁composition	-9.32898
unité	-9.32914
air	-9.3293
▁civil	-9.3303
67	-9.33299
▁André	-9.33348
88	-9.33502
75	-9.33509
▁quatrième	-9.3359
ay	-9.33651
se	-9.3372
ville	-9.33788
▁désigné	-9.33914
▁sûreté	-9.33946
▁complémentaire	-9.33947
ic	-9.33962
▁départemental	-9.34248
▁ils	-9.34262
62	-9.34286
▁connaissance	-9.34328
RA	-9.34344
AR	-9.34369
89	-9.34437
identification	-9.34559
tre	-9.34608
▁mêmes	-9.34719
▁points	-9.34829
engagement	-9.34834
▁signature	-9.34877
▁sociaux	-9.34901
▁vente	-9.34917
▁prises	-9.34952
▁années	-9.34952
tte	-9.3497
▁tiers	-9.35001
57	-9.35004
▁choix	-9.35005
▁minimum	-9.3509
▁projets	-9.35105
▁postale	-9.3512
LE	-9.35136
▁adjudant	-9.35154
▁autorités	-9.35187
-11	-9.35267
56	-9.35285
▁solidaire	-9.35303
▁Bordeaux	-9.35325
59	-9.35343
études	-9.35486
W	-9.35555
66	-9.35674
dé	-9.35783
▁compétence	-9.35794
issue	-9.36115
54	-9.36123
▁épreuve	-9.36342
▁admission	-9.36345
ri	-9.36354
▁note	-9.3638
▁exigences	-9.36383
▁36	-9.36473
69	-9.3648
fi	-9.36655
▁Tout	-9.36708
▁délais	-9.36807
pa	-9.36828
agence	-9.37072
▁nécessaire	-9.37111
▁agricole	-9.37116
▁sanitaire	-9.37345
ANT	-9.37433
▁sport	-9.37443
▁font	-9.37459
▁capacité	-9.37494
che	-9.37717
48	-9.37806
▁annexé	-9.37944
▁terme	-9.37967
▁écrite	-9.38033
▁inscription	-9.38104
74	-9.38118
87	-9.38167
▁tenu	-9.38183
▁examen	-9.38251
5-1	-9.38539
▁valoir	-9.38559
▁résultant	-9.38736
2-3	-9.38739
colonel	-9.38753
ion	-9.38915
▁reconnaissance	-9.38935
applique	-9.39071
AS	-9.39126
▁centres	-9.39164
▁conduite	-9.39364
▁41	-9.39419
ag	-9.39581
▁attachée	-9.39749
▁chacune	-9.39756
ère	-9.39802
▁Sous	-9.39934
▁titres	-9.40048
93	-9.40077
▁lieutenant	-9.40475
▁40	-9.40495
▁Du	-9.4055
caractéristiques	-9.40613
▁contrats	-9.40637
▁2012	-9.40663
64	-9.40754
96	-9.40812
68	-9.4083
90	-9.40844
▁pénitentiaires	-9.40898
▁2011	-9.40942
▁raison	-9.41021
▁définie	-9.41024
▁devra	-9.4105
▁avenant	-9.41101
do	-9.41147
99	-9.41251
▁Lille	-9.41332
François	-9.41481
▁2006	-9.41495
72	-9.41525
71	-9.41641
▁permettre	-9.41751
▁cadres	-9.41764
association	-9.41923
▁session	-9.4208
97	-9.42105
▁Paul	-9.42175
▁Toulouse	-9.42268
▁définis	-9.42394
▁objectifs	-9.42457
80	-9.42513
gi	-9.42563
▁2007	-9.42626
▁critères	-9.42778
▁lien	-9.42825
ex	-9.42882
con	-9.42977
om	-9.43218
▁université	-9.43292
▁conventions	-9.43319
▁45	-9.43321
▁61	-9.4336
▁v	-9.43549
▁supprimé	-9.43559
lin	-9.43649
▁conformité	-9.43808
bi	-9.43862
▁Parlement	-9.44079
▁rédigée	-9.44081
▁ex	-9.44131
▁comporte	-9.44348
iv	-9.44439
▁Sa	-9.4455
▁Marseille	-9.44559
gu	-9.44569
tique	-9.44578
ire	-9.44831
ables	-9.45084
▁tel	-9.45195
admissibilité	-9.45455
49	-9.45508
AN	-9.45623
▁75	-9.45712
▁Co	-9.46062
IL	-9.46138
innovation	-9.46166
offre	-9.46186
▁autorisant	-9.4619
▁promotion	-9.4619
▁54	-9.46316
▁38	-9.46337
▁Ils	-9.46389
Calédonie	-9.46405
alinéa	-9.46429
▁Toute	-9.46505
▁maîtrise	-9.46692
▁lettre	-9.46758
▁Mont	-9.46801
▁exerçant	-9.46835
tion	-9.46935
des	-9.46984
▁modèle	-9.47003
▁Réunion	-9.47004
95	-9.47058
▁Mar	-9.47103
▁vol	-9.47194
▁transformation	-9.47268
86	-9.47314
▁financiers	-9.47718
▁Parties	-9.47729
ter	-9.47739
enregistrement	-9.47774
▁impôts	-9.47961
▁transmis	-9.4797
▁ma	-9.48159
co	-9.48236
▁naturel	-9.48239
▁heure	-9.48259
▁courir	-9.48285
63	-9.48337
▁dès	-9.48353
▁pôle	-9.48438
▁collège	-9.48454
ordonnance	-9.48473
78	-9.48573
▁rural	-9.48601
éri	-9.48645
▁rendues	-9.48759
▁notification	-9.48771
▁plein	-9.48772
isation	-9.48868
▁validation	-9.48893
ly	-9.48897
EC	-9.48902
▁autorisation	-9.49086
94	-9.49133
ière	-9.49411
▁réseaux	-9.49425
▁réglementation	-9.49507
▁agréé	-9.49534
attribution	-9.49584
▁division	-9.49718
▁Z	-9.4973
▁moment	-9.49779
▁inférieur	-9.49781
▁1993	-9.49823
appliquent	-9.49857
présidente	-9.49865
▁ajouté	-9.49908
76	-9.49917
77	-9.50001
▁8°	-9.50091
▁37	-9.50168
▁navire	-9.50192
bo	-9.50227
▁présentation	-9.50351
▁déchets	-9.50372
▁véhicules	-9.50386
▁Lorsqu	-9.504
▁extension	-9.50448
▁nucléaire	-9.50472
▁zones	-9.50587
▁assure	-9.5061
▁Louis	-9.50733
obligation	-9.50738
▁maître	-9.50768
▁ministres	-9.50778
▁hospitalier	-9.50779
▁procureur	-9.50791
▁2013	-9.50801
▁support	-9.50915
assurer	-9.51029
si	-9.51069
▁cycle	-9.51071
▁Polynésie	-9.51151
▁égale	-9.51215
▁places	-9.51335
expérience	-9.51401
▁prix	-9.51423
98	-9.51516
j	-9.5157
habitation	-9.51571
▁soutien	-9.51596
OL	-9.51747
▁étendu	-9.51801
85	-9.51883
▁enfants	-9.52027
▁bord	-9.5206
▁2008	-9.5207
183	-9.52081
ari	-9.52143
1-4	-9.52274
▁moyenne	-9.52328
▁Première	-9.52581
▁simplifiée	-9.52582
▁délivré	-9.52611
▁condition	-9.52619
▁concerné	-9.52642
▁métiers	-9.52656
▁Jacques	-9.52865
▁permet	-9.52882
ba	-9.52887
vi	-9.52937
aires	-9.53032
▁inférieure	-9.53037
ois	-9.53063
▁capitaine	-9.53116
▁sports	-9.5329
▁organisations	-9.53302
TE	-9.53402
▁2018.	-9.53431
▁préparation	-9.53499
espace	-9.53596
man	-9.53663
▁aides	-9.53736
▁commandant	-9.53756
▁remboursement	-9.5391
▁option	-9.53927
▁phase	-9.5409
▁académique	-9.54116
analyse	-9.54169
▁suite	-9.54319
▁courrier	-9.54559
directeur	-9.54587
▁dispositifs	-9.54658
▁2024	-9.54694
▁départementale	-9.54752
▁pratique	-9.54776
ha	-9.54828
po	-9.54851
able	-9.54869
▁besoins	-9.54898
ale	-9.54985
▁pourront	-9.5512
▁fins	-9.55143
84	-9.55161
entretien	-9.55257
▁71	-9.5553
ge	-9.55562
▁sciences	-9.55578
▁participation	-9.55583
▁milieu	-9.55638
▁objet	-9.55679
2-4	-9.55713
▁bénéficier	-9.55721
▁lutte	-9.55738
IER	-9.55784
âge	-9.55865
ing	-9.55892
▁bâtiment	-9.5598
enfant	-9.56002
▁patrimoine	-9.56042
73	-9.56058
ens	-9.56192
▁ni	-9.56358
79	-9.56372
▁dispose	-9.56544
www	-9.56564
▁budgétaire	-9.56623
▁répartition	-9.56704
1-5	-9.56718
▁sauf	-9.56728
▁références	-9.5675
▁conforme	-9.5676
▁élèves	-9.56833
▁femmes	-9.56843
ca	-9.5685
▁attaché	-9.56907
▁dix	-9.57024
-12	-9.57089
▁Ca	-9.57093
▁matériel	-9.57131
▁formations	-9.57165
▁bénéfice	-9.57285
ey	-9.57295
▁Mayotte	-9.57372
▁regard	-9.57394
ix	-9.57501
▁stage	-9.57503
▁durable	-9.57585
193	-9.57611
Rhône	-9.57681
ure	-9.57786
▁82	-9.57809
▁devront	-9.58301
▁ouvert	-9.58303
▁mobilité	-9.58597
▁Ga	-9.58696
▁technicien	-9.58698
os	-9.58715
▁circulation	-9.58759
employeur	-9.58784
accompagnement	-9.58813
ins	-9.58872
▁financières	-9.58988
▁initiale	-9.58997
évolution	-9.59108
▁visées	-9.59255
avancement	-9.59267
▁Haute	-9.59286
▁formulaire	-9.593
▁unités	-9.5933
▁préalable	-9.59342
intéressé	-9.59404
ect	-9.59431
▁bilan	-9.59438
▁paritaire	-9.59503
▁informe	-9.59516
91	-9.59599
▁VII	-9.59683
pi	-9.59717
▁distribution	-9.599
▁Aux	-9.59924
ru	-9.60009
▁lequel	-9.6001
Autorité	-9.60163
CO	-9.60303
rou	-9.60351
ais	-9.60402
▁Sur	-9.60428
appui	-9.60476
sion	-9.60491
▁1994	-9.60548
92	-9.60569
▁périmètre	-9.60585
▁fixés	-9.60722
mar	-9.60779
NE	-9.60785
▁association	-9.60906
heure	-9.60925
▁met	-9.61022
UN	-9.61046
▁demandeur	-9.61095
ise	-9.61124
▁local	-9.61245
6-1	-9.61361
▁spécifiques	-9.61361
▁copie	-9.61403
ger	-9.61477
▁organisme	-9.61517
▁marine	-9.61562
▁référentiel	-9.61573
▁hospitalière	-9.61666
AC	-9.61708
▁usage	-9.61731
▁ouverts	-9.61871
▁pénale	-9.61897
▁42	-9.61962
▁changement	-9.62032
▁coefficient	-9.62063
▁généraux	-9.6231
81	-9.62403
▁registre	-9.62444
▁programmes	-9.62567
83	-9.62597
▁concession	-9.62694
▁bénéficiaires	-9.62699
mb	-9.62741
▁lesquels	-9.62837
ez	-9.62839
▁porte	-9.62937
▁5.	-9.62981
▁43	-9.63013
▁pouvant	-9.63034
▁présenter	-9.6305
▁comportant	-9.63119
▁figurent	-9.63231
outre	-9.63308
▁susceptibles	-9.63316
▁vers	-9.6343
▁près	-9.63724
▁énergétique	-9.64025
▁comptables	-9.64087
▁précédent	-9.64257
▁bien	-9.64279
▁56	-9.64329
▁maximale	-9.64337
▁sociétés	-9.64467
▁conseillère	-9.64511
MTRT	-9.64596
▁Dé	-9.64653
IE	-9.64827
▁détachement	-9.64854
▁périodes	-9.64874
cu	-9.64989
Loire	-9.65038
tra	-9.65136
▁2010	-9.65154
▁exceptionnelle	-9.65243
▁Concours	-9.65427
▁ledit	-9.65448
UR	-9.65485
▁départements	-9.65533
ve	-9.6554
▁Rennes	-9.65542
▁réglementaires	-9.65617
3-3	-9.65644
eurs	-9.65789
▁annuel	-9.65809
▁spécifique	-9.65921
▁maintien	-9.66098
inscrire	-9.66125
▁garantie	-9.66141
▁séance	-9.66186
per	-9.662
▁totale	-9.66212
qu	-9.66222
dit	-9.66243
▁Val	-9.66281
ver	-9.663
▁honoraire	-9.663
▁AU	-9.66341
▁Bernard	-9.66616
▁universitaire	-9.66688
▁navires	-9.66716
av	-9.66972
▁certains	-9.6703
▁contenu	-9.671
▁désignation	-9.67177
Alpes	-9.67244
▁Claude	-9.67399
▁nouveau	-9.67638
▁73	-9.67645
▁réaliser	-9.67703
▁interdite	-9.67883
lu	-9.67959
▁seconde	-9.68025
▁EN	-9.68028
▁coordination	-9.68062
EAU	-9.68074
▁aérien	-9.68099
”	-9.6811
▁coûts	-9.68153
▁matières	-9.68207
▁signé	-9.68322
pé	-9.68423
▁U	-9.68484
Philippe	-9.68534
▁politiques	-9.68618
▁attestation	-9.68715
▁55	-9.68748
as	-9.68764
élève	-9.68936
SPR	-9.68997
▁t	-9.69047
ga	-9.69068
▁Olivier	-9.69073
▁ingénieurs	-9.69074
▁noms	-9.69199
pe	-9.69234
▁volume	-9.69255
▁permis	-9.69338
▁fiche	-9.69409
tu	-9.69525
▁façon	-9.69615
ig	-9.69649
industrie	-9.69675
if	-9.69696
DE	-9.69742
▁précité	-9.69749
▁déroulement	-9.69767
-14	-9.69793
▁officiers	-9.69831
▁pédagogique	-9.69885
ét	-9.69902
▁commande	-9.69917
▁matériels	-9.69971
▁51	-9.70002
82	-9.70063
▁divers	-9.70073
▁possible	-9.70219
▁colonne	-9.70281
▁versement	-9.70489
▁Henri	-9.70527
acquisition	-9.70553
res	-9.70866
▁devant	-9.70873
▁cause	-9.71057
▁différents	-9.71062
▁Comité	-9.71349
▁(1)	-9.71364
assemblée	-9.71449
our	-9.71452
▁entreprise	-9.71455
indemnité	-9.71458
▁Caisse	-9.71563
▁branche	-9.71683
▁inspecteur	-9.71693
▁Wallis	-9.71806
▁prescriptions	-9.71848
▁Commune	-9.71897
▁2005	-9.71925
LI	-9.71926
▁usagers	-9.71967
ateur	-9.71999
▁9°	-9.72017
▁administratrice	-9.72046
▁bénéficiaire	-9.7205
né	-9.72099
▁59	-9.72201
▁compétent	-9.72283
▁port	-9.72327
▁respectivement	-9.72485
Pologne	-9.72702
mm	-9.72712
▁remboursables	-9.72766
▁In	-9.72774
▁directement	-9.72794
▁forêts	-9.72839
▁72	-9.72969
▁assurer	-9.73044
électricité	-9.73055
▁83	-9.73059
▁réponse	-9.7308
▁pratiques	-9.7309
▁médicaments	-9.7317
▁parmi	-9.73175
▁Tribunal	-9.732
▁limites	-9.7321
▁complémentaires	-9.73336
▁39	-9.7338
Martin	-9.7346
▁Nicolas	-9.73526
ières	-9.73558
▁liées	-9.73602
▁secours	-9.73607
ni	-9.73661
▁depuis	-9.7367
US	-9.73722
▁simple	-9.73732
cé	-9.73755
▁arrêtés	-9.7386
▁continue	-9.73865
▁catégories	-9.74125
▁chirurgie	-9.74129
▁100	-9.74134
▁1993.	-9.74146
▁propre	-9.74177
▁statuts	-9.74249
Marne	-9.74332
▁Etats	-9.74356
▁Laurent	-9.74376
▁langue	-9.74469
▁annexes	-9.74521
▁brevet	-9.7474
▁présence	-9.74741
▁Marc	-9.74762
hé	-9.74816
▁associée	-9.74863
▁Car	-9.74865
investissement	-9.7487
▁justificatives	-9.74976
égard	-9.75146
▁questions	-9.75198
▁professeur	-9.75355
▁autorisé	-9.75383
▁propriété	-9.75535
gé	-9.75545
▁format	-9.75559
▁major	-9.75577
▁aéronefs	-9.75589
da	-9.75648
▁2009	-9.75656
hi	-9.75741
▁ca	-9.75755
▁pilotage	-9.75887
instance	-9.75992
▁Société	-9.76016
▁connaissances	-9.76077
▁qualification	-9.76147
▁taxe	-9.76211
▁Toutefois	-9.76337
▁visioconférence	-9.76369
MA	-9.76379
▁Jo	-9.76407
▁stratégie	-9.76434
▁entretien	-9.76437
UC	-9.76441
▁licence	-9.76531
AM	-9.76615
▁Sud	-9.76634
▁délivrée	-9.76699
▁consultation	-9.76772
CA	-9.76775
▁ministériel	-9.76863
armée	-9.76871
Anne	-9.76895
eux	-9.76909
▁négociation	-9.76951
▁demander	-9.76991
▁concernées	-9.77007
▁http	-9.77066
▁certificats	-9.77118
▁vingt	-9.7739
▁Po	-9.7741
allocation	-9.77441
▁rédigés	-9.77452
▁pharmacie	-9.7746
▁prime	-9.77473
▁Ro	-9.77522
ff	-9.77594
▁Grand	-9.77768
▁réalisé	-9.77853
▁Chevalier	-9.77862
X	-9.77865
▁Pr	-9.77997
TRE	-9.7802
▁Bo	-9.78133
▁65	-9.78199
oul	-9.78225
▁papier	-9.78386
end	-9.78396
▁autorisations	-9.78532
▁intérieure	-9.78587
armement	-9.78594
▁établie	-9.78714
▁organisation	-9.78719
▁universités	-9.78734
Saint	-9.78817
▁Vi	-9.78935
▁présidente	-9.78953
▁rend	-9.79087
▁constaté	-9.79103
▁validité	-9.79144
par	-9.79178
▁domicile	-9.79377
▁64	-9.79384
▁constituée	-9.79406
▁sélection	-9.79574
em	-9.79616
▁refus	-9.7969
1-6	-9.79699
be	-9.79713
▁modifications	-9.7973
ton	-9.79833
PE	-9.79883
▁René	-9.7989
IT	-9.80228
▁accès	-9.80271
▁contrôleur	-9.80312
▁inscrits	-9.80332
INE	-9.80337
▁situé	-9.80628
▁responsables	-9.80739
urs	-9.80877
▁déc	-9.80896
▁Strasbourg	-9.80915
vé	-9.80918
▁télé	-9.80958
▁réalisée	-9.81055
ette	-9.81126
▁Montpellier	-9.81151
Seine	-9.81168
▁surface	-9.81168
go	-9.81186
EM	-9.81207
encadrement	-9.81253
lon	-9.81257
▁60	-9.81337
▁Guyane	-9.81339
▁géographique	-9.81445
▁scolaire	-9.81479
▁46	-9.81568
AG	-9.8159
son	-9.81638
▁enveloppe	-9.8165
huissier	-9.81732
▁définition	-9.8177
▁ponts	-9.81771
académie	-9.818
▁52	-9.81859
réanimation	-9.81861
▁Isabelle	-9.81864
professionnel	-9.81923
▁1994.	-9.81972
▁Ré	-9.8204
ative	-9.82053
ina	-9.82068
sch	-9.82112
▁mises	-9.82112
sse	-9.82139
▁certaines	-9.82185
▁Bou	-9.82208
orientation	-9.82311
▁remplacées	-9.8234
▁considérée	-9.82371
▁concurrence	-9.82409
équipe	-9.82444
▁(2)	-9.82464
▁suivent	-9.82545
▁No	-9.82662
▁réalisées	-9.82817
▁Se	-9.82832
▁terrain	-9.82833
▁fond	-9.82848
▁Christophe	-9.82909
st	-9.82928
Paul	-9.82988
Nicolas	-9.83287
▁pays	-9.83292
▁Martinique	-9.8341
▁contrôles	-9.83443
▁traitements	-9.83468
mont	-9.83478
▁cinquième	-9.83504
▁écrit	-9.83684
▁X	-9.83712
-4	-9.83714
▁véhicule	-9.83802
▁physiques	-9.83847
égalité	-9.83866
ux	-9.83867
com	-9.83874
▁Alain	-9.83907
▁Antoine	-9.84018
▁concernée	-9.84031
▁Dominique	-9.84052
▁Joseph	-9.8407
indication	-9.84169
▁liés	-9.84235
ouvrage	-9.84279
vis	-9.84316
▁familles	-9.84322
4-2	-9.84332
▁sol	-9.84363
Marc	-9.84383
CI	-9.84434
▁2,	-9.84458
▁ouvrant	-9.84517
▁maritimes	-9.846
up	-9.84617
▁intérieur	-9.84735
MI	-9.84885
▁individuelle	-9.84937
ub	-9.85085
▁travailleurs	-9.85086
▁procéder	-9.85113
ner	-9.85225
▁entrent	-9.85312
▁agricoles	-9.8532
identité	-9.85437
▁lignes	-9.85445
GE	-9.85633
▁Conformément	-9.85641
▁Y	-9.85738
▁maintenance	-9.85783
cour	-9.85804
ite	-9.85826
▁70	-9.85843
▁62	-9.85972
▁engagements	-9.86068
eu	-9.86091
LA	-9.86093
université	-9.86136
-19	-9.86277
▁générales	-9.8645
▁autorisées	-9.86521
▁stipulations	-9.86529
▁SA	-9.86549
ien	-9.86611
▁étudiants	-9.86695
▁visée	-9.86715
incendie	-9.86814
▁haut	-9.86836
▁producteurs	-9.86895
▁anti	-9.8698
▁commissions	-9.86989
▁spécial	-9.87014
▁seule	-9.87027
▁ch	-9.87059
▁route	-9.87139
▁congé	-9.87152
▁pouvoir	-9.87322
▁Nord	-9.87324
▁"	-9.87347
233	-9.87414
AP	-9.87455
▁nationalité	-9.87501
obtention	-9.8764
▁indirects	-9.87772
ler	-9.87826
▁Nantes	-9.87893
CHE	-9.87925
▁termes	-9.88015
tro	-9.88084
▁telle	-9.8816
▁enseignants	-9.88163
za	-9.88258
▁préjudice	-9.88291
▁prêt	-9.88293
AY	-9.883
▁vérification	-9.88531
▁alimentaire	-9.88574
Christophe	-9.88632
TI	-9.88649
▁valeurs	-9.8871
▁précisant	-9.88768
▁47	-9.88821
▁ajoutés	-9.88923
haque	-9.88971
VA	-9.89093
▁autorisés	-9.89106
▁besoin	-9.89194
▁comp	-9.89245
▁É	-9.89463
▁candidates	-9.895
ris	-9.89501
▁tarif	-9.89607
▁affectés	-9.89627
apprentissage	-9.89826
▁civils	-9.89855
▁montants	-9.89892
▁carte	-9.89897
▁séjour	-9.89937
▁MA	-9.90042
▁tarifs	-9.90271
▁per	-9.90285
▁décrets	-9.90295
▁placée	-9.9037
▁protégé	-9.90384
tin	-9.90394
expiration	-9.90417
▁consultative	-9.90417
▁terre	-9.90435
▁transmet	-9.9056
tri	-9.90576
▁pourra	-9.90579
▁CO	-9.90587
▁Section	-9.90608
ap	-9.90613
école	-9.9065
▁collectivité	-9.90652
gra	-9.90656
tes	-9.90669
▁e	-9.90776
▁indications	-9.9081
SE	-9.9092
▁remise	-9.90953
▁caisse	-9.90967
onne	-9.90968
▁Loire	-9.90996
▁adressée	-9.91103
▁chiffre	-9.91385
expertise	-9.91387
igne	-9.91455
▁inclus	-9.91462
La	-9.91499
no	-9.91535
▁réduction	-9.91535
-15	-9.91538
az	-9.9166
▁(1	-9.91674
▁préfecture	-9.91723
née	-9.91751
▁Bar	-9.91821
autonomie	-9.91873
▁accordée	-9.91886
▁74	-9.91888
od	-9.91909
oli	-9.91982
â	-9.92013
▁conjoint	-9.9205
int	-9.9213
ations	-9.92245
ran	-9.92303
audit	-9.92312
tr	-9.9233
-17	-9.92395
Michel	-9.92409
-16	-9.92417
▁annuelle	-9.9251
cul	-9.9255
line	-9.92574
▁devient	-9.92583
aut	-9.92621
▁interrégionale	-9.92709
▁internationale	-9.9272
ign	-9.92728
Q	-9.92733
NA	-9.92757
ible	-9.92789
▁situations	-9.9288
▁https	-9.92918
chi	-9.93029
▁ferroviaire	-9.93045
▁Catherine	-9.93081
activités	-9.93089
▁dénomination	-9.93122
▁distance	-9.93122
ions	-9.9314
ain	-9.93178
▁voix	-9.93312
ah	-9.93356
▁2004	-9.93428
pt	-9.93659
▁écoles	-9.93688
▁composé	-9.93734
envoi	-9.93755
▁r	-9.93768
gissant	-9.93776
▁cessation	-9.93777
▁renseignements	-9.93807
▁permanente	-9.93823
AD	-9.9388
▁inspectrice	-9.93924
let	-9.93987
▁résultat	-9.94069
mat	-9.94151
7-1	-9.94201
▁effectuée	-9.94249
vers	-9.94275
Louis	-9.94298
▁rendu	-9.94315
▁équivalent	-9.94328
tt	-9.94346
tur	-9.94485
▁adressé	-9.945
▁53	-9.94522
▁lieux	-9.94604
ai	-9.94689
Office	-9.94695
▁vi	-9.94718
vo	-9.94736
▁différentes	-9.94745
▁ter	-9.9477
ue	-9.9485
▁possibilité	-9.94888
▁central	-9.95021
ob	-9.95088
▁professeurs	-9.95098
concours	-9.95144
▁Pro	-9.95178
don	-9.95184
▁elles	-9.95254
▁www	-9.95286
MO	-9.95429
▁îles	-9.95472
▁VIII	-9.9557
form	-9.95586
▁cotisations	-9.9575
ingénieur	-9.95751
▁MAR	-9.95755
OM	-9.9578
▁réalisés	-9.9587
▁vendredi	-9.95901
▁Charles	-9.95903
▁listes	-9.95934
CPA	-9.96006
▁clinique	-9.96097
ès	-9.96117
▁comprenant	-9.96175
▁vertu	-9.96341
▁information	-9.96429
▁plateforme	-9.96451
▁obligatoire	-9.96586
adaptation	-9.96599
▁fer	-9.96653
▁supprimée	-9.96674
teur	-9.96732
ines	-9.96758
▁BOU	-9.96774
▁tribunaux	-9.96782
RO	-9.97008
▁diplômes	-9.97016
▁juridique	-9.97125
▁Al	-9.97147
▁Mouvement	-9.97162
▁déléguée	-9.97169
ATION	-9.9717
▁soient	-9.97241
▁scrutin	-9.9736
exercer	-9.97367
élection	-9.97375
▁obtenu	-9.9738
IC	-9.97425
▁visés	-9.97442
▁contentieux	-9.97519
▁minuit	-9.97519
▁veille	-9.9762
▁faveur	-9.97639
▁Fédération	-9.97678
▁ancienne	-9.9778
▁psychiatrie	-9.97796
hébergement	-9.97798
▁exercées	-9.97883
▁CA	-9.97955
Guillaume	-9.97999
dre	-9.9802
▁1984	-9.98042
vin	-9.98051
nondations	-9.98079
▁81	-9.98089
so	-9.98101
▁naturelle	-9.9816
▁opérateurs	-9.98256
ze	-9.98262
iste	-9.98269
graphique	-9.98276
▁morale	-9.98295
▁dénommé	-9.98422
▁tels	-9.98436
▁convocation	-9.98438
▁agrément	-9.98536
assistance	-9.98639
Antoine	-9.98693
▁médecins	-9.98696
▁Georges	-9.9875
ori	-9.98754
▁ville	-9.98838
tant	-9.98883
▁sportif	-9.98906
▁consécutifs	-9.98921
attestation	-9.98923
▁domaines	-9.98993
io	-9.99037
▁sécheresse	-9.99083
mon	-9.99206
enquête	-9.99216
EP	-9.99275
▁133	-9.99375
ction	-9.99411
▁Nancy	-9.99447
ies	-9.99458
▁somme	-9.99582
▁utilisés	-9.99633
port	-9.99706
▁80	-9.99866
2-6	-9.999
▁contribution	-10.0006
ang	-10.0015
▁échelon	-10.0019
▁directeurs	-10.0027
▁bon	-10.0028
ath	-10.0032
▁pièce	-10.0035
▁constitué	-10.0039
▁désigne	-10.0041
▁Ar	-10.006
▁classement	-10.0064
Ma	-10.0086
▁Robert	-10.0088
▁opération	-10.0091
qui	-10.0101
▁mais	-10.0102
▁fabrication	-10.0104
affectation	-10.0106
▁2020.	-10.012
▁directive	-10.0123
NI	-10.0137
0-1	-10.0139
nés	-10.0144
▁exerce	-10.0151
▁Ver	-10.0153
emplois	-10.0156
▁agréés	-10.016
▁statistique	-10.0161
▁accessibles	-10.0162
OP	-10.0162
▁associées	-10.0179
▁normes	-10.0189
ord	-10.0189
▁discipline	-10.0191
▁autorité	-10.0195
▁mines	-10.0195
UT	-10.0198
▁6.	-10.02
▁Ch	-10.0209
impôt	-10.0209
▁régionales	-10.021
▁Mo	-10.0213
AND	-10.0217
▁installation	-10.0225
▁boue	-10.023
▁Frédéric	-10.0232
▁biologie	-10.0233
▁considéré	-10.0237
▁collectif	-10.0238
dûment	-10.0239
▁Futuna	-10.024
▁préalablement	-10.0241
invalidité	-10.0241
nes	-10.0241
émission	-10.0244
▁particulières	-10.0247
habilitation	-10.0247
▁86	-10.025
▁90	-10.0251
▁Per	-10.0254
objectif	-10.0256
▁privé	-10.0262
▁seules	-10.0266
▁détention	-10.0266
▁nationaux	-10.0266
▁recommandé	-10.0268
interministériel	-10.027
▁placé	-10.0276
▁alors	-10.0279
▁po	-10.0279
▁informatique	-10.0281
▁baccalauréat	-10.0283
yn	-10.0296
▁magistrats	-10.0302
▁crédit	-10.0314
lier	-10.0316
ille	-10.0318
uc	-10.032
eaux	-10.0326
▁Sophie	-10.0329
▁mètres	-10.0331
iques	-10.0334
asile	-10.0341
▁forfaitaire	-10.036
▁10°	-10.0361
▁vu	-10.0363
▁49	-10.0376
▁i	-10.0377
▁précisées	-10.0379
▁réglementaire	-10.0386
▁Cet	-10.0387
iss	-10.0388
IR	-10.0392
▁client	-10.0395
intitulé	-10.0396
ration	-10.0415
▁accepté	-10.0415
▁international	-10.0417
.3.	-10.043
▁conservation	-10.0431
▁collecte	-10.0435
ib	-10.0443
▁nécessite	-10.0444
▁76	-10.0444
/2023-	-10.045
▁assurés	-10.0458
lement	-10.0459
▁reprise	-10.0466
lan	-10.0466
▁associations	-10.0475
INT	-10.0481
ten	-10.0486
▁offertes	-10.0489
▁Grenoble	-10.0491
▁Institut	-10.0494
▁régulation	-10.0495
VE	-10.0495
Thomas	-10.0496
▁ajoutée	-10.051
▁Fa	-10.0525
dite	-10.0528
▁Ile	-10.0529
▁propriétaire	-10.0529
étudiant	-10.0533
engage	-10.0541
urbanisme	-10.0551
préfet	-10.0557
oir	-10.056
je	-10.0561
▁disponibles	-10.0565
nement	-10.0569
▁Marcel	-10.0571
amélioration	-10.0573
lar	-10.0574
▁compétentes	-10.0574
Ar	-10.0576
▁Me	-10.0579
avances	-10.0579
▁fédération	-10.0594
ren	-10.0595
▁conception	-10.0603
▁internes	-10.0606
▁ressort	-10.0611
▁Vincent	-10.0617
▁Stéphane	-10.0619
▁quinze	-10.062
▁cession	-10.0621
▁assurée	-10.0622
▁juridiction	-10.0625
nant	-10.0632
▁Pascal	-10.0646
▁aériens	-10.0651
▁participant	-10.0659
▁radiation	-10.0659
ssent	-10.0673
bert	-10.0679
▁proximité	-10.0681
▁requises	-10.0684
amp	-10.0685
ki	-10.0685
EZ	-10.0687
inc	-10.0699
▁logements	-10.07
▁judiciaires	-10.0702
▁protocole	-10.0707
Miquelon	-10.0707
▁PA	-10.0713
intégration	-10.0717
Baptiste	-10.0725
▁suspension	-10.0725
▁trésorerie	-10.0725
3-4	-10.0725
▁fonctionnaire	-10.0726
▁aménagements	-10.0726
▁colonel	-10.0728
cy	-10.0731
▁Ba	-10.0732
acc	-10.0741
oy	-10.0744
PP	-10.0745
étude	-10.0752
▁Université	-10.0758
habitat	-10.076
ive	-10.0767
▁48	-10.0767
assistant	-10.0769
▁aéronautique	-10.077
▁CHA	-10.0776
▁Christian	-10.0787
lot	-10.0787
▁courriel	-10.0791
▁évaluation	-10.0793
...)	-10.0793
Denis	-10.0793
▁respecter	-10.0793
▁Patrick	-10.0794
tier	-10.0797
nel	-10.0798
▁visant	-10.0804
▁structures	-10.0806
▁divisionnaire	-10.0809
▁recouvrement	-10.0809
▁informé	-10.0813
▁suppléants	-10.0821
▁DÉPARTEMENT	-10.0822
▁voies	-10.0822
Alexandre	-10.0829
GER	-10.0833
▁renouvelable	-10.0839
▁RO	-10.0848
▁appartenant	-10.085
oux	-10.0851
▁puis	-10.0854
non	-10.0858
▁capital	-10.0862
▁médico	-10.088
▁organisé	-10.0883
▁détaché	-10.0884
▁musée	-10.0889
▁individuel	-10.0891
▁Eric	-10.0893
▁opérationnelle	-10.0893
▁telles	-10.0897
▁al	-10.09
major	-10.0906
Atlantique	-10.092
▁bonne	-10.0926
▁procédé	-10.0928
▁actifs	-10.0935
▁effectué	-10.0938
▁512	-10.0941
/2018-	-10.0944
▁sols	-10.095
issement	-10.095
▁justifiant	-10.0955
▁médicaux	-10.0955
.1.	-10.0957
coulées	-10.0959
iers	-10.0962
▁2024.	-10.0967
▁nationales	-10.0977
▁CH	-10.0983
ert	-10.0983
Rhin	-10.0983
▁procède	-10.0987
Haute	-10.0999
PR	-10.1001
▁complément	-10.1012
Accès	-10.1019
men	-10.1021
▁contractuels	-10.1023
▁retour	-10.1028
AUD	-10.1029
▁Yves	-10.1041
act	-10.1044
▁trente	-10.1046
▁active	-10.1048
achat	-10.1049
tan	-10.1053
lie	-10.1055
ec	-10.1055
ts	-10.1055
IM	-10.1059
▁sixième	-10.106
▁filière	-10.1068
ud	-10.1069
Julien	-10.1069
rant	-10.1083
▁commissaires	-10.1088
1-7	-10.1089
▁Guadeloupe	-10.1094
▁techniciens	-10.1096
▁thérapeutique	-10.11
▁car	-10.1102
ana	-10.1102
▁disponibilité	-10.1105
▁contractuel	-10.1106
▁An	-10.1106
▁ministères	-10.113
▁capacités	-10.1139
▁3,	-10.1144
▁identifiée	-10.1144
▁puissance	-10.1146
▁administrateurs	-10.1146
▁déjà	-10.115
▁salaires	-10.1152
▁correspond	-10.1162
inspecteur	-10.1163
groupe	-10.1164
BERT	-10.1164
▁Epreuve	-10.1169
ort	-10.1172
▁écrites	-10.1173
▁procès	-10.1178
▁effectués	-10.1194
▁Pi	-10.1202
SSAS	-10.1203
éro	-10.1204
▁locale	-10.1205
▁accompagnée	-10.1217
VI	-10.1223
▁minimale	-10.1233
Ouest	-10.1235
▁pension	-10.124
▁expérience	-10.1246
▁conduire	-10.1247
▁présentant	-10.1249
▁Nathalie	-10.1254
ILLE	-10.1256
sta	-10.126
▁effectuer	-10.1264
▁durant	-10.1266
.2.	-10.1275
DI	-10.1276
▁prescription	-10.1278
SI	-10.1285
onfédération	-10.1288
ène	-10.129
▁masse	-10.129
ani	-10.1291
▁relève	-10.1293
▁industries	-10.1293
▁unité	-10.1303
tal	-10.1303
▁63	-10.1304
▁1983	-10.1305
▁garanties	-10.1308
▁fournir	-10.1317
RY	-10.1325
▁78	-10.1328
PA	-10.1329
▁aucun	-10.1333
▁Rouen	-10.1334
▁indique	-10.1335
▁Thierry	-10.1338
▁Guillaume	-10.1339
EU	-10.1345
pri	-10.1352
ait	-10.1356
▁médicament	-10.1372
▁anesthésie	-10.1372
indice	-10.1373
ret	-10.1375
▁prestation	-10.1381
▁coût	-10.1385
▁départ	-10.1386
▁propres	-10.1386
UL	-10.1397
▁Françoise	-10.1403
▁législation	-10.1405
SC	-10.1408
nu	-10.1409
▁espèces	-10.1416
▁adultes	-10.1417
Mathilde	-10.1419
▁BAR	-10.1419
équipement	-10.1421
Laurent	-10.1432
▁éligibles	-10.1435
▁stockage	-10.1436
▁tonnes	-10.1438
▁Bi	-10.1439
acte	-10.1445
▁antérieure	-10.1447
▁nucléaires	-10.1447
▁sites	-10.145
fa	-10.1451
▁métropole	-10.1452
▁Notaires	-10.1457
▁établit	-10.1459
▁perte	-10.1463
CH	-10.1468
▁maire	-10.1472
▁visé	-10.1477
▁Di	-10.1477
▁Daniel	-10.1483
▁bâtiments	-10.1484
▁Jeanne	-10.1484
der	-10.1487
arrêt	-10.1491
▁sanction	-10.1492
▁matériaux	-10.1495
▁affecté	-10.1497
▁SE	-10.1513
▁reçu	-10.1514
court	-10.1521
▁77	-10.1522
JUSB	-10.1523
aérodrome	-10.153
TION	-10.1545
mp	-10.1546
▁participer	-10.1552
institut	-10.1557
anne	-10.1559
ho	-10.1562
▁contractante	-10.1565
▁victimes	-10.1572
honneur	-10.158
emp	-10.1581
ARMH	-10.159
▁logistique	-10.1592
▁Commandant	-10.1595
SS	-10.1603
▁Qu	-10.1604
▁choisi	-10.1605
▁conseils	-10.1607
ç	-10.1627
IOM	-10.1637
▁version	-10.1639
ASS	-10.1645
impossibilité	-10.1647
alité	-10.1648
RES	-10.1666
élaboration	-10.1671
▁Char	-10.1672
hospitalisation	-10.1672
▁uniquement	-10.1672
ole	-10.1674
Olivier	-10.1676
▁consul	-10.1687
-1.	-10.1691
▁conseillers	-10.1691
▁mode	-10.1705
Sophie	-10.1706
▁saisie	-10.1713
▁COUR	-10.1715
▁infanterie	-10.1717
▁derniers	-10.1721
▁500	-10.1738
▁disciplines	-10.174
AB	-10.1741
cha	-10.1742
▁long	-10.1742
▁Vice	-10.1762
ENT	-10.1763
yl	-10.1763
▁acteurs	-10.1772
euse	-10.1775
▁démission	-10.1776
▁forfait	-10.1777
▁Chef	-10.1778
▁excéder	-10.1778
▁accompagné	-10.178
▁précitée	-10.1781
▁j	-10.1796
ans	-10.1799
vent	-10.1803
app	-10.1812
▁grand	-10.1813
▁ensemble	-10.1816
ja	-10.1822
▁Christine	-10.1827
all	-10.1832
venir	-10.184
▁seul	-10.1844
▁agréées	-10.1845
▁Dijon	-10.1847
▁57	-10.185
▁substances	-10.1856
▁aucune	-10.1857
▁dotation	-10.186
▁taxes	-10.1861
ateurs	-10.1862
▁affectation	-10.1864
▁technologies	-10.1881
▁syndicales	-10.1884
▁déroule	-10.1886
▁observations	-10.1887
▁semaines	-10.1891
ienne	-10.1893
Camille	-10.1895
Val	-10.1901
▁recteur	-10.1906
▁définit	-10.1908
GUE	-10.1908
ingénieurs	-10.1909
witz	-10.1916
▁El	-10.1918
▁contributions	-10.1924
éra	-10.1925
▁élus	-10.1929
è	-10.1936
▁lycée	-10.1936
br	-10.1936
▁liaison	-10.194
▁figure	-10.1941
ka	-10.1944
▁types	-10.1948
ric	-10.196
▁Ha	-10.1963
▁détermine	-10.1966
infrastructure	-10.1987
Est	-10.1991
▁fourniture	-10.2003
▁audit	-10.2015
▁Hélène	-10.2019
▁duquel	-10.203
▁diagnostic	-10.205
OC	-10.2058
TH	-10.2062
▁spéciale	-10.2062
occasion	-10.2063
▁définitive	-10.2068
▁analyse	-10.2072
▁placés	-10.208
apport	-10.2083
agit	-10.2086
▁commercial	-10.2087
tour	-10.2092
ane	-10.2097
▁guerre	-10.21
ants	-10.21
▁bénéficiant	-10.2105
▁RE	-10.2116
ques	-10.2118
TA	-10.2123
/2022-	-10.2129
LIN	-10.2163
▁Ra	-10.2164
▁7.	-10.2164
animation	-10.2166
RON	-10.2171
EX	-10.2173
ll	-10.2181
▁11°	-10.2182
▁méthode	-10.2184
▁principes	-10.2185
▁locales	-10.2198
▁dite	-10.2202
entité	-10.2208
Or	-10.2217
isme	-10.2217
architecture	-10.2221
▁PER	-10.2224
▁Convention	-10.2226
EY	-10.2227
arm	-10.2234
▁administrations	-10.224
▁sommes	-10.2242
ed	-10.2249
▁opérationnel	-10.2253
▁suppléante	-10.2271
▁routière	-10.2278
▁différentiels	-10.2283
environnementale	-10.2292
AGRT	-10.2293
▁tenant	-10.2298
rin	-10.2304
▁lundi	-10.2305
▁connaître	-10.2309
▁internationales	-10.231
Université	-10.2311
Etienne	-10.2311
▁décédé	-10.232
ons	-10.2335
▁faite	-10.2337
BO	-10.2357
▁principaux	-10.2365
TO	-10.237
erie	-10.237
▁effectuées	-10.2381
▁délibération	-10.2387
▁technologique	-10.2391
ond	-10.2391
▁66	-10.2395
▁acceptée	-10.24
▁relance	-10.2406
▁disciplinaire	-10.241
rat	-10.2411
hôpitaux	-10.2421
▁avenue	-10.2422
▁art	-10.2423
2-8	-10.2425
ales	-10.2426
▁hommes	-10.2437
▁imprimé	-10.244
ste	-10.2447
▁Julien	-10.2448
▁effectifs	-10.2451
iel	-10.2453
▁monétaire	-10.2453
▁nouvelles	-10.2454
▁212	-10.2458
▁reste	-10.2467
▁campagne	-10.2469
▁contrôlée	-10.247
▁Guy	-10.2471
▁Mor	-10.2471
SA	-10.2474
ng	-10.2496
▁tenir	-10.25
▁vérifier	-10.2508
▁2003	-10.2513
Lo	-10.2515
▁mandataire	-10.2518
▁Chapitre	-10.2521
OIS	-10.2522
▁magistrat	-10.2523
▁Ber	-10.2529
▁versée	-10.2529
▁complétée	-10.253
avant	-10.2533
▁indemnités	-10.2535
▁prestataire	-10.2535
▁pensions	-10.2539
hygiène	-10.2542
▁numériques	-10.2543
▁minima	-10.2544
▁libertés	-10.2544
▁tenue	-10.2545
▁plafond	-10.2562
sp	-10.2571
▁espace	-10.2573
▁radié	-10.2573
▁radio	-10.2574
▁habilités	-10.258
tif	-10.2588
▁laboratoire	-10.2589
Marion	-10.2595
▁immédiatement	-10.2602
▁solidarité	-10.2604
▁destinés	-10.2604
▁thérapeutiques	-10.2605
nier	-10.2606
▁poids	-10.2611
-1,	-10.2615
▁612	-10.2619
▁libre	-10.2622
▁infrastructures	-10.2625
▁Claire	-10.2626
▁POUR	-10.2628
mes	-10.2628
▁inscrites	-10.2633
QUE	-10.2637
▁tient	-10.2638
▁obligatoirement	-10.2639
ong	-10.2656
▁jeux	-10.2665
Luc	-10.2672
QU	-10.2675
euros	-10.2685
ÉS	-10.2687
▁stagiaires	-10.2692
▁majoration	-10.27
ART	-10.2706
▁méthodes	-10.2709
▁312	-10.2709
▁Pa	-10.2711
▁conformes	-10.2712
▁1986	-10.2715
▁fonctionnelle	-10.2716
ELLE	-10.2716
▁transmettre	-10.2719
AV	-10.2738
▁intervenant	-10.274
9-1	-10.2743
▁organisée	-10.2743
▁handicapées	-10.2743
▁Maurice	-10.2745
▁tir	-10.2747
▁chargées	-10.2752
▁justifier	-10.2753
ist	-10.2755
▁01	-10.2759
approbation	-10.2766
▁Clermont	-10.2787
▁destinataire	-10.2787
UM	-10.2788
▁permanent	-10.2791
▁accompli	-10.2797
▁visite	-10.2801
▁Nice	-10.2804
CN	-10.2807
î	-10.2809
▁individuels	-10.2812
▁aussi	-10.2814
▁précédant	-10.2814
▁régionaux	-10.2822
▁Ecole	-10.2825
▁Juge	-10.2827
Le	-10.2828
▁schéma	-10.283
▁complet	-10.2831
▁décrit	-10.2836
AZ	-10.2849
▁auquel	-10.2852
▁donné	-10.2853
appellation	-10.2858
▁inscrit	-10.2865
▁LES	-10.2873
▁instances	-10.2878
élé	-10.2879
▁norme	-10.2882
▁ouverture	-10.2883
▁94	-10.2886
▁famille	-10.2888
cher	-10.2893
▁candidate	-10.2893
assure	-10.2906
▁Li	-10.291
▁personnalités	-10.2921
▁exclu	-10.2921
enne	-10.2926
Vincent	-10.2926
vel	-10.2928
▁Alexandre	-10.293
▁preuve	-10.2934
ind	-10.2941
GA	-10.2943
verbal	-10.2945
tent	-10.2948
8-1	-10.2953
▁Gérard	-10.2955
▁programmation	-10.2956
▁interrégional	-10.2959
thé	-10.2963
4-3	-10.2966
▁compensation	-10.2969
TR	-10.2971
▁admise	-10.2974
actions	-10.2979
ième	-10.298
▁soumises	-10.2981
▁huit	-10.2982
▁plans	-10.2982
▁Valérie	-10.2984
▁hauteur	-10.299
AF	-10.2995
▁profit	-10.3
rait	-10.3
lic	-10.3004
delà	-10.3005
OS	-10.3009
▁ordre	-10.3014
▁émis	-10.3015
GU	-10.302
▁ANNEXES	-10.3024
adulte	-10.303
▁sportive	-10.3051
▁renseignement	-10.3059
ali	-10.3062
he	-10.3069
▁Caen	-10.307
Ile	-10.3073
cadre	-10.3075
▁trans	-10.308
éné	-10.3082
000	-10.3091
▁chambres	-10.3098
EUR	-10.3115
Claire	-10.3118
▁85	-10.3118
▁PAR	-10.3118
▁Ne	-10.3126
▁Poitiers	-10.3133
▁valorisation	-10.3138
nelle	-10.3138
▁David	-10.314
▁outils	-10.3146
éco	-10.3148
TER	-10.3149
▁règlements	-10.315
▁aide	-10.315
net	-10.3152
pro	-10.3154
▁Reims	-10.3155
mbre	-10.3156
▁étant	-10.3162
▁CAR	-10.3166
assi	-10.3166
cri	-10.3167
▁Thomas	-10.3171
▁utilisé	-10.3176
rée	-10.318
LO	-10.3182
▁processus	-10.3183
▁groupements	-10.3185
▁Or	-10.3191
bu	-10.3192
▁Ville	-10.3192
▁Lo	-10.3193
▁DEL	-10.3196
Garonne	-10.32
▁Emmanuel	-10.3202
▁rouge	-10.3206
▁Roger	-10.3207
▁acte	-10.3209
asse	-10.321
3-6	-10.3213
▁approuvé	-10.3215
▁espaces	-10.3219
magistrature	-10.322
▁indiquée	-10.3221
gue	-10.3223
▁prononcée	-10.3228
accréditation	-10.3228
ata	-10.323
ces	-10.3232
▁répertoire	-10.3239
▁pourvoir	-10.3248
cr	-10.3249
▁population	-10.3254
exposition	-10.3255
213	-10.3261
▁jeudi	-10.3262
hu	-10.3263
▁Ja	-10.3264
▁ouvrages	-10.3266
ult	-10.327
▁BO	-10.3273
hor	-10.3275
▁peines	-10.3275
▁magistrature	-10.3282
-2,	-10.3282
▁Accord	-10.3288
▁contraire	-10.3305
▁2024,	-10.3308
▁disponible	-10.3312
▁(1).	-10.3312
éré	-10.3314
▁prélèvement	-10.3317
▁réunion	-10.3321
▁grossesse	-10.333
▁issus	-10.3331
▁commandement	-10.334
▁globale	-10.334
▁bénéficient	-10.3345
▁obtenir	-10.3352
▁Bruno	-10.3362
gen	-10.3367
hy	-10.3368
▁sort	-10.3381
Frédéric	-10.3382
lis	-10.3384
nage	-10.3387
han	-10.3399
▁adjoints	-10.3401
▁cent	-10.3401
▁susceptible	-10.3404
.4.	-10.342
▁sus	-10.3421
IV	-10.3421
▁greffe	-10.3427
▁passagers	-10.3427
▁Autres	-10.3439
▁établis	-10.3446
▁200	-10.345
▁accords	-10.3454
▁classes	-10.3454
Amiens	-10.3462
▁donne	-10.3466
▁série	-10.3467
▁concourir	-10.3467
ENS	-10.348
Claude	-10.3482
▁diverses	-10.3482
▁candidatures	-10.3483
Mar	-10.3489
RU	-10.3491
option	-10.3497
▁exploitation	-10.3502
▁Communes	-10.3502
▁niveaux	-10.3504
▁organisateur	-10.3511
▁jeunes	-10.3511
▁conducteur	-10.3514
▁PI	-10.3514
Moselle	-10.352
ification	-10.3521
▁Service	-10.3522
ax	-10.3522
▁Che	-10.353
▁attachés	-10.3535
ères	-10.354
▁Tours	-10.3542
pp	-10.3546
▁CS	-10.3554
DA	-10.3556
▁forces	-10.3561
▁DÉ	-10.3568
▁détenteur	-10.3572
▁entraîne	-10.3573
CP	-10.3574
▁partenaires	-10.3575
ologique	-10.3576
▁Sal	-10.3592
ach	-10.3593
Pyrénées	-10.3595
AUX	-10.3596
2-9	-10.3598
▁garantir	-10.36
▁synthèse	-10.3601
▁Sylvie	-10.3603
rg	-10.3607
▁bio	-10.3614
IG	-10.3615
▁1942	-10.3617
▁loyer	-10.362
3-5	-10.3629
tive	-10.3636
FI	-10.3637
▁91	-10.365
▁Ben	-10.3661
▁répondre	-10.3662
▁émissions	-10.3664
aff	-10.3666
not	-10.3669
▁BA	-10.3669
ID	-10.367
▁juridiques	-10.3671
▁degré	-10.3674
▁stagiaire	-10.3676
▁ski	-10.3681
▁2000	-10.3682
▁secret	-10.3685
▁contractuelle	-10.3688
indemnisation	-10.3689
▁régie	-10.3691
▁Cor	-10.3693
▁58	-10.3697
use	-10.37
agents	-10.3702
2-7	-10.3703
land	-10.371
▁CON	-10.3716
▁statutaires	-10.3719
▁valable	-10.372
3-7	-10.3723
▁troupes	-10.373
Stéphane	-10.3735
INTA	-10.3737
▁indicateurs	-10.3738
▁représentation	-10.3748
▁électriques	-10.3755
▁Sch	-10.3757
▁subvention	-10.376
▁étrangers	-10.3762
▁abrogés	-10.3763
▁SI	-10.3769
1-9	-10.377
entre	-10.3777
RM	-10.3777
▁partenariat	-10.3778
▁douze	-10.3778
▁trouve	-10.3784
rac	-10.3789
▁réalise	-10.3797
ente	-10.3799
▁CE	-10.3804
▁existant	-10.3806
▁garantissant	-10.3814
▁contexte	-10.3814
tel	-10.3822
mand	-10.3822
4-4	-10.3834
▁rejet	-10.3834
▁praticien	-10.3842
▁avocat	-10.3856
▁84	-10.386
▁223	-10.3861
▁seuil	-10.3862
▁provisoire	-10.3867
Côte	-10.3872
attaché	-10.3872
▁déterminé	-10.3875
ami	-10.3876
▁parts	-10.3879
▁nécessité	-10.3879
▁produire	-10.3879
▁destination	-10.388
▁qualifié	-10.3885
▁NOTAIRES	-10.3893
▁67	-10.3898
▁particuliers	-10.3905
▁constitue	-10.3911
▁marque	-10.3916
▁69	-10.3918
▁calculé	-10.3918
AIS	-10.3924
INS	-10.3925
échéance	-10.3928
▁1978	-10.3933
mètre	-10.3936
bre	-10.3936
dic	-10.3945
▁orales	-10.3945
▁manquement	-10.3946
▁Brest	-10.3946
PORT	-10.3948
RET	-10.3949
TS	-10.3949
van	-10.3956
tor	-10.3956
ulaire	-10.3956
Angers	-10.3959
administrateur	-10.3964
Ferrand	-10.3971
▁atteint	-10.3979
ck	-10.3985
▁Luc	-10.3994
État	-10.3994
ven	-10.4003
▁vétérinaire	-10.4005
▁Na	-10.4006
▁pédiatrie	-10.4006
▁présentée	-10.4013
▁salaire	-10.4016
hydratation	-10.4025
ures	-10.403
▁requis	-10.4031
anc	-10.4032
Sébastien	-10.4032
▁relèvent	-10.4043
▁extérieur	-10.4048
Sarah	-10.4049
▁mal	-10.4052
VAL	-10.4052
uis	-10.4053
IF	-10.4054
▁sortie	-10.4056
▁”,	-10.4056
▁Haut	-10.4066
effectue	-10.4071
▁dépôts	-10.4072
▁assurant	-10.4074
An	-10.4077
ade	-10.4078
▁conduit	-10.4078
Azur	-10.408
▁placement	-10.4081
chercheurs	-10.4082
rage	-10.4083
▁spécialisé	-10.4086
▁2020,	-10.4092
▁populaire	-10.4098
Algérie	-10.4098
Charles	-10.4101
▁déconcentrés	-10.4103
▁dés	-10.4103
▁1995	-10.4104
ip	-10.4107
▁cotisation	-10.411
▁intercommunale	-10.411
▁Ex	-10.4111
institution	-10.4115
▁dispense	-10.4117
▁exigé	-10.4117
▁traité	-10.4118
AI	-10.4128
▁cm	-10.413
ty	-10.413
can	-10.4132
▁exclusivement	-10.4137
▁consiste	-10.4141
EG	-10.415
▁prévoit	-10.4154
▁111	-10.4154
▁soumise	-10.4154
▁68	-10.4161
▁environnement	-10.4162
lat	-10.4166
SP	-10.4166
▁revenu	-10.4168
▁adaptée	-10.4169
euil	-10.4176
▁industriel	-10.418
▁transféré	-10.4188
▁615	-10.4189
uv	-10.4189
▁Dispositions	-10.4191
▁Constitution	-10.4191
ault	-10.4192
échange	-10.4195
▁165-1	-10.4197
actif	-10.4198
Maritime	-10.4198
▁diffusion	-10.4199
social	-10.4202
▁pédagogiques	-10.4203
▁démarche	-10.4204
▁Modalités	-10.4216
▁pharmacien	-10.4219
▁enseignements	-10.4219
▁Vu	-10.4224
▁2025	-10.4229
ny	-10.4233
▁sportives	-10.4235
▁précédente	-10.4236
▁donner	-10.4238
▁recueil	-10.424
fort	-10.4246
▁2002	-10.4247
▁publiée	-10.4253
▁signalement	-10.4254
▁Corse	-10.4256
▁préinscription	-10.4267
ST	-10.4268
▁biodiversité	-10.4272
▁notifie	-10.4279
▁porter	-10.4287
▁modifier	-10.4287
ju	-10.4294
ante	-10.4309
Quentin	-10.4309
▁Gar	-10.4312
▁professions	-10.4318
▁fera	-10.4318
▁probatoire	-10.4322
ages	-10.4325
▁Xavier	-10.4328
uel	-10.433
efficacité	-10.4334
▁prescrit	-10.4341
▁annuels	-10.4342
▁ordonnance	-10.4344
▁cohérence	-10.4347
▁sécurisé	-10.4353
isse	-10.4354
NET	-10.4358
assuré	-10.4361
▁comités	-10.4368
/2019-	-10.4372
▁relation	-10.4376
▁permettent	-10.4386
▁521	-10.4389
▁relevé	-10.4391
▁mineurs	-10.4391
DC	-10.4392
amende	-10.4394
▁demandé	-10.4408
▁calendrier	-10.4409
APPEL	-10.4414
▁exercice	-10.4414
oire	-10.4419
▁Je	-10.4421
▁protégée	-10.4422
èle	-10.4423
Etablissement	-10.4426
▁stock	-10.4426
▁Bureau	-10.4427
▁livraison	-10.4436
▁clients	-10.4444
Espace	-10.4448
▁1986.	-10.4451
ECOP	-10.4451
▁portée	-10.4452
ront	-10.4453
JUSE	-10.4455
▁certifications	-10.4459
zo	-10.4461
▁revenus	-10.4467
aéronef	-10.4468
▁états	-10.447
my	-10.4477
▁NO	-10.4479
▁versées	-10.448
▁via	-10.4485
▁description	-10.4489
▁brigade	-10.4493
▁PO	-10.4497
▁rendus	-10.4501
▁recommandée	-10.4503
su	-10.4503
▁inspecteurs	-10.4504
▁Ta	-10.4505
AGRS	-10.4506
uve	-10.4507
▁représentatives	-10.4514
▁PRO	-10.4514
pol	-10.4517
Juliette	-10.4532
▁presse	-10.4534
▁régimes	-10.4537
initiative	-10.4538
▁hiérarchique	-10.4538
▁pu	-10.4541
utilité	-10.4544
▁Beau	-10.4548
▁détermination	-10.4564
TREK	-10.4566
▁Rou	-10.457
Audrey	-10.4577
▁coordonnées	-10.4582
Ro	-10.4582
▁fondement	-10.4585
▁Arnaud	-10.4589
venu	-10.4599
▁continu	-10.46
▁externes	-10.4604
voir	-10.4608
▁FA	-10.4616
DR	-10.4617
▁tri	-10.4621
Co	-10.4622
▁Besançon	-10.4622
▁morales	-10.4623
▁vérifications	-10.4624
▁IX	-10.4625
▁propose	-10.4629
▁renouvelé	-10.4631
pli	-10.4633
expression	-10.4637
▁632	-10.464
PH	-10.4645
▁situés	-10.4646
▁groupes	-10.4647
EF	-10.4655
auteur	-10.4658
▁référent	-10.4661
▁Aucune	-10.4662
▁privés	-10.4666
▁textes	-10.4667
acheteur	-10.4668
▁intérêts	-10.4673
▁institué	-10.4673
Léa	-10.4674
Rapha	-10.4678
œuvre	-10.4681
FF	-10.4682
▁tour	-10.4683
lia	-10.4685
▁exposé	-10.4688
▁Affectation	-10.4693
▁Versailles	-10.4693
adjoint	-10.4702
Eric	-10.4706
▁demeure	-10.4708
▁COM	-10.4715
▁indemnité	-10.4717
▁appel	-10.4719
MP	-10.4721
-2.	-10.4723
viennent	-10.4725
ak	-10.4728
▁Seine	-10.4733
aine	-10.4737
173	-10.4737
▁croissance	-10.4739
▁Tous	-10.4742
▁réparation	-10.4752
▁approbation	-10.4758
▁ultérieurement	-10.4761
▁solde	-10.4762
hou	-10.4765
▁employés	-10.4766
▁mobile	-10.4772
▁coordonnateur	-10.4772
▁requise	-10.4774
▁déterminée	-10.4774
▁éventuellement	-10.4774
expert	-10.4776
serv	-10.4779
▁ingénieure	-10.4779
Al	-10.478
êt	-10.4782
one	-10.4783
nat	-10.4788
▁pression	-10.4788
▁pilote	-10.4791
avi	-10.4793
▁ordres	-10.4793
Valentin	-10.4794
ache	-10.4799
▁So	-10.4801
▁1987.	-10.4808
ives	-10.4811
▁déclarés	-10.4812
▁spécialisée	-10.4814
▁transporteur	-10.4815
▁Côte	-10.482
▁animaux	-10.482
▁direct	-10.4823
▁marchandises	-10.4824
▁peine	-10.4829
▁Cécile	-10.483
ati	-10.4833
péri	-10.4835
ieux	-10.4841
▁k	-10.4845
▁liquidation	-10.4848
▁Jérôme	-10.4851
▁633	-10.4854
▁Stéphanie	-10.4863
▁gynécologie	-10.4864
▁envoyé	-10.4865
▁12°	-10.4865
isson	-10.4866
échelon	-10.4867
▁quantité	-10.4869
▁supplémentaire	-10.4869
chet	-10.4872
▁Gra	-10.4878
▁Véronique	-10.4882
▁contact	-10.4883
▁recevoir	-10.4891
▁thermique	-10.4891
▁poursuite	-10.4895
▁Sébastien	-10.4896
▁naissance	-10.4897
▁disposant	-10.4897
Jacques	-10.4923
▁suivie	-10.4927
▁déterminer	-10.493
Matthieu	-10.4931
▁rigueur	-10.4931
tiques	-10.4933
BE	-10.4937
▁définissant	-10.4938
inter	-10.4939
Cyril	-10.4939
▁Do	-10.4941
▁sections	-10.4953
▁détail	-10.4964
ayant	-10.4966
▁MOR	-10.4968
Xavier	-10.4971
▁commerciale	-10.4973
▁mixte	-10.4978
col	-10.4984
çon	-10.4985
Barthélemy	-10.4998
pré	-10.5005
▁affectée	-10.5006
▁faits	-10.5008
▁danger	-10.5011
▁annexée	-10.5018
Gironde	-10.5025
Ana	-10.5025
▁stratégique	-10.5026
car	-10.5029
informations	-10.5035
▁greffier	-10.5038
▁nouveaux	-10.504
▁constatation	-10.5041
▁désignées	-10.5041
fac	-10.5045
▁Conditions	-10.5052
alerte	-10.506
las	-10.5063
OUR	-10.5065
▁conférences	-10.5066
gie	-10.5068
appareil	-10.507
▁contribue	-10.5077
▁déclarations	-10.5077
ZE	-10.5077
▁Civil	-10.5079
▁directe	-10.5082
▁sévère	-10.5085
tage	-10.5087
▁déplacement	-10.5094
▁susmentionné	-10.5097
▁présenté	-10.5097
▁dérogations	-10.5098
▁versé	-10.5115
▁validé	-10.5118
pompiers	-10.5143
▁complète	-10.5154
▁personnalité	-10.5156
▁225	-10.5159
▁621	-10.516
abilité	-10.5167
▁maximal	-10.5168
▁Cou	-10.5172
▁proposer	-10.5174
avance	-10.5175
▁régies	-10.5178
uz	-10.5178
▁maladies	-10.5184
iz	-10.5186
▁bénéficie	-10.5191
▁Be	-10.5196
Ga	-10.52
▁partielle	-10.52
▁infractions	-10.5201
▁action	-10.5203
▁suppression	-10.5208
échelle	-10.5208
▁transmises	-10.5215
TT	-10.5217
▁XI	-10.5222
David	-10.5227
▁débit	-10.5227
▁restauration	-10.5236
Vilaine	-10.5236
the	-10.5236
▁vous	-10.5239
▁porté	-10.5242
LET	-10.5242
▁Camille	-10.5243
▁effective	-10.5244
▁jugement	-10.5246
▁moteurs	-10.5246
▁électroniques	-10.5247
cou	-10.5248
▁prenant	-10.525
▁Date	-10.525
▁Raymond	-10.5256
▁comptabilité	-10.5256
Provence	-10.5262
éni	-10.5265
▁rémunérations	-10.5265
igny	-10.5267
DO	-10.5275
▁secteurs	-10.5275
▁ad	-10.5275
▁classé	-10.5277
▁issue	-10.5288
▁artistique	-10.5291
▁Bri	-10.5293
▁Ri	-10.5303
uy	-10.5308
out	-10.5308
▁déposé	-10.5309
officier	-10.5312
quet	-10.5321
▁AL	-10.5326
▁notifiée	-10.5328
ROU	-10.5331
▁brut	-10.5334
▁Sans	-10.5335
▁San	-10.5335
▁Da	-10.5337
▁dehors	-10.5337
nalisation	-10.5339
NIER	-10.5339
▁choisie	-10.5343
▁eu	-10.5343
▁Go	-10.5355
Yves	-10.5355
FR	-10.5359
▁Caroline	-10.5364
naire	-10.5364
▁hospitaliers	-10.5365
RÉ	-10.538
▁Laurence	-10.538
▁report	-10.5387
lès	-10.5389
▁interrégion	-10.5391
▁Mon	-10.5395
▁séances	-10.5395
▁enjeux	-10.5395
▁imagerie	-10.5395
▁2001	-10.5399
▁DI	-10.5401
▁réparti	-10.5405
▁paritaires	-10.5406
▁fiscale	-10.5407
▁résolution	-10.5409
▁fréquence	-10.5416
▁assurances	-10.5417
▁intervient	-10.5417
▁remis	-10.5418
▁priorité	-10.5423
▁Pays	-10.5424
▁exemplaires	-10.5424
▁label	-10.5426
▁BER	-10.5427
▁désignée	-10.5429
BI	-10.5431
▁catastrophe	-10.5445
▁Gu	-10.5448
ano	-10.546
3-8	-10.5462
AH	-10.5464
▁classées	-10.5472
▁BEN	-10.5478
bli	-10.5478
IGN	-10.5488
▁Del	-10.5493
Laure	-10.5495
MENT	-10.5499
▁occurrence	-10.5501
▁location	-10.5501
TIER	-10.5502
▁etc	-10.5506
▁rappel	-10.5506
▁cassation	-10.5517
euro	-10.5518
Pascal	-10.5518
▁régisseur	-10.5519
▁composant	-10.5521
▁Royaume	-10.5522
▁ouvriers	-10.5523
▁07	-10.5524
▁2006-164	-10.553
zi	-10.553
rom	-10.5531
ANI	-10.5533
lou	-10.5536
▁fraction	-10.5537
▁appelé	-10.5538
▁juridictions	-10.554
▁enregistré	-10.5544
▁interdit	-10.5545
ara	-10.5545
Maxime	-10.5547
▁portées	-10.5549
Pauline	-10.5552
implantation	-10.5553
empêchement	-10.5553
même	-10.5554
▁1982	-10.5555
▁variétés	-10.5559
▁donc	-10.5566
accomplissement	-10.5572
▁recherches	-10.5573
plénipotentiaire	-10.5579
Ille	-10.558
▁majorité	-10.5581
quota	-10.5585
▁suivre	-10.5586
cyc	-10.5594
ich	-10.5596
▁admissibles	-10.5597
▁habilité	-10.5606
▁412	-10.5607
▁facturation	-10.5608
leur	-10.5609
effectuer	-10.5613
▁qualifications	-10.5621
approche	-10.5622
▁calculée	-10.5623
Chloé	-10.5629
▁aura	-10.563
▁ancien	-10.5631
▁formes	-10.5634
▁1992.	-10.5635
▁Gilles	-10.5636
▁rapports	-10.5637
LES	-10.564
BRE	-10.5642
Romain	-10.5642
affaires	-10.5643
▁statistiques	-10.5645
illy	-10.5647
vol	-10.5649
CR	-10.5654
▁Associés	-10.5658
▁Titulaire	-10.5658
▁arme	-10.5664
▁quater	-10.5665
▁grave	-10.5665
▁Ou	-10.5669
ourd	-10.5677
RH	-10.568
fe	-10.5685
▁indiqué	-10.5685
▁ailleurs	-10.5686
lus	-10.569
▁transmise	-10.5691
ann	-10.57
▁partage	-10.57
Julie	-10.5703
▁recommandations	-10.5704
ange	-10.5704
▁OU	-10.5705
▁certifié	-10.5708
GI	-10.5708
intéressée	-10.5709
▁signe	-10.5713
aille	-10.5715
Alexis	-10.5716
▁ZIT	-10.5717
▁sapeurs	-10.5723
▁station	-10.5723
BR	-10.5731
IOMA	-10.5733
▁destinées	-10.5733
ège	-10.5734
▁passé	-10.5736
▁facture	-10.5737
culture	-10.5738
▁médicales	-10.5747
▁réuni	-10.575
▁législatives	-10.5753
pprovisionnement	-10.5754
▁décrites	-10.5755
▁intitulé	-10.5756
▁maîtres	-10.5766
iser	-10.5775
Laura	-10.5776
▁périodique	-10.578
▁tutelle	-10.578
▁totalité	-10.5785
▁Pe	-10.579
lig	-10.579
▁Avant	-10.5795
SSE	-10.5795
Académie	-10.5795
histoire	-10.5795
▁attribuée	-10.5815
▁tourisme	-10.5817
▁Fonds	-10.5824
▁justificatifs	-10.5826
▁post	-10.583
AULT	-10.5831
bou	-10.5844
illi	-10.5846
▁communauté	-10.5846
Germain	-10.5846
IO	-10.5854
Oise	-10.5861
▁savoir	-10.5864
▁750	-10.5865
ture	-10.5867
▁chaleur	-10.5868
▁double	-10.5869
ttes	-10.5869
apprenti	-10.5875
▁propositions	-10.5877
atteindre	-10.5883
▁1991	-10.5888
▁Didier	-10.5889
identifier	-10.589
▁réintégré	-10.589
Yann	-10.589
▁CHAR	-10.5892
RIS	-10.5893
▁régions	-10.5894
▁répartis	-10.5895
▁composée	-10.5897
▁gr	-10.5912
▁approuvée	-10.5914
▁dénommée	-10.5915
pon	-10.5917
▁élections	-10.5918
très	-10.5921
▁00	-10.5921
▁constatant	-10.5922
▁notes	-10.5928
▁justifie	-10.5932
▁génie	-10.5934
Savoie	-10.5934
▁Julie	-10.5937
ifié	-10.5937
▁Annexe	-10.5939
DG	-10.5939
▁Hospice	-10.5942
▁étrangère	-10.5942
▁supplémentaires	-10.5944
▁partiel	-10.5946
directrice	-10.5946
cept	-10.5954
RIE	-10.5955
▁créée	-10.5955
ym	-10.5956
▁votre	-10.5957
rit	-10.5963
FO	-10.5963
▁Français	-10.5964
▁prélèvements	-10.5965
ient	-10.5968
▁chantier	-10.5971
Florian	-10.5972
II	-10.5976
▁Coll	-10.5978
▁Hauts	-10.5983
▁automatisé	-10.5986
▁fixation	-10.5986
ini	-10.5989
▁détenues	-10.5991
ouche	-10.5992
▁territoriaux	-10.5994
▁reconnue	-10.6001
▁congés	-10.6008
▁magistrate	-10.6009
▁représente	-10.6012
▁Pôle	-10.6016
▁logiciel	-10.6016
▁Afin	-10.602
▁vise	-10.602
▁Pré	-10.6023
▁élevé	-10.6024
▁correspondance	-10.6025
iane	-10.6027
▁(2	-10.6028
rand	-10.6029
raient	-10.6034
▁Denis	-10.6035
ges	-10.6037
▁tarifaire	-10.6038
▁constitutive	-10.6038
▁mardi	-10.6038
▁électeurs	-10.6041
▁fiscales	-10.6042
▁nouvel	-10.6043
▁attestant	-10.6046
gues	-10.6047
▁participe	-10.6048
HO	-10.6052
thérapie	-10.6053
▁flux	-10.6053
LER	-10.6067
AUT	-10.6073
▁contenant	-10.6076
▁court	-10.6083
▁obtenus	-10.6089
▁horaires	-10.6091
aient	-10.6099
▁pr	-10.6104
▁Direction	-10.6106
Aix	-10.6107
Cédric	-10.6113
▁culturels	-10.6117
fu	-10.6117
FE	-10.612
▁Bourg	-10.6124
particulièrement	-10.614
hors	-10.6143
▁Florence	-10.6152
▁pénal	-10.6155
▁Ministère	-10.6158
▁scientifiques	-10.6158
▁Hôpitaux	-10.6159
ché	-10.6162
▁réglementé	-10.6165
▁trimestre	-10.6166
▁Rhône	-10.6174
oud	-10.6175
▁auxquels	-10.6181
▁accordé	-10.6182
bon	-10.6185
▁mené	-10.6187
▁Gi	-10.6187
-21	-10.6187
ê	-10.6196
▁614	-10.62
▁téléphone	-10.6204
▁multi	-10.6212
apprécier	-10.6215
▁comprise	-10.6219
immatriculation	-10.6227
Fabien	-10.6227
▁majeure	-10.624
▁Etablissement	-10.6246
▁Louise	-10.6254
AIRE	-10.6259
▁formule	-10.6263
▁producteur	-10.627
▁éventuelles	-10.6271
pin	-10.6271
agne	-10.6275
▁314	-10.6276
▁LISTE	-10.628
Thierry	-10.6283
▁(3)	-10.6285
▁Trésor	-10.6288
▁millions	-10.6288
▁scolarité	-10.6288
▁Gui	-10.6296
▁urbain	-10.6298
▁orientations	-10.6302
▁prévisionnel	-10.6305
gon	-10.6307
▁Deux	-10.631
ED	-10.631
ore	-10.6317
▁dialogue	-10.6318
▁motivée	-10.6319
dy	-10.632
nal	-10.6323
▁of	-10.6324
TRA	-10.6325
▁compétents	-10.6331
ici	-10.6332
▁théorique	-10.6334
▁directions	-10.6339
venant	-10.634
▁électrique	-10.634
▁équipé	-10.6349
▁reconnu	-10.6352
OI	-10.6354
▁conjointement	-10.6362
▁investissements	-10.6364
▁rôle	-10.6364
▁attribué	-10.6371
▁mentionne	-10.6371
▁Mé	-10.6375
arch	-10.6375
▁Pas	-10.6382
CK	-10.6384
nie	-10.6399
aye	-10.6401
▁120	-10.6402
▁dépistage	-10.6418
lant	-10.6419
ssa	-10.6429
cf	-10.6437
▁entités	-10.6438
▁passer	-10.6438
▁attendu	-10.6449
NG	-10.6453
usqu	-10.6455
▁finalité	-10.6455
▁classification	-10.6457
▁signée	-10.646
cal	-10.6464
▁internationaux	-10.6465
exportation	-10.6468
▁79	-10.6479
EMENT	-10.648
rier	-10.6482
▁sanitaires	-10.6484
▁Sou	-10.6488
▁délivrer	-10.6488
MAR	-10.649
▁immobilier	-10.6492
▁Th	-10.6503
MER	-10.6509
▁Port	-10.6512
IX	-10.6512
▁331	-10.6513
▁consignations	-10.6514
Arnaud	-10.652
EV	-10.6527
▁restructuration	-10.6527
vant	-10.6528
▁décès	-10.6536
▁transférée	-10.6543
immeuble	-10.6548
▁équivalente	-10.655
infirmier	-10.6556
▁proportion	-10.6561
essai	-10.6566
▁radiologie	-10.6567
▁inv	-10.6567
opposition	-10.6567
Clément	-10.6575
▁continuité	-10.6576
isée	-10.6582
▁Bulletin	-10.6582
▁maison	-10.6584
▁Suppléant	-10.659
articul	-10.6592
▁fournisseur	-10.6594
▁exceptionnel	-10.6598
titu	-10.6602
▁exemple	-10.6603
▁GI	-10.6605
lée	-10.6606
éducateur	-10.6606
▁spécialisés	-10.6608
▁prioritaire	-10.6614
ov	-10.6614
PI	-10.6616
▁biologique	-10.6618
▁répondant	-10.6618
gnac	-10.6623
Hélène	-10.6624
▁tâches	-10.663
dia	-10.663
préfète	-10.6632
▁communications	-10.6634
▁chronique	-10.6638
CT	-10.6638
att	-10.6646
SSA	-10.6648
espèce	-10.6651
▁1985.	-10.6651
▁RÉ	-10.6658
Uni	-10.6659
▁âgées	-10.6659
achèvement	-10.6662
▁conversion	-10.6662
▁évalué	-10.6664
ium	-10.6668
ARTICLE	-10.6669
▁classés	-10.667
ev	-10.6671
ico	-10.6671
informatique	-10.668
▁habilitation	-10.6682
▁précisé	-10.6682
▁favorable	-10.6685
▁définitif	-10.669
Alexandra	-10.6693
▁1992,	-10.6694
▁1988.	-10.6695
Charlotte	-10.6697
▁utilisées	-10.6699
▁Corps	-10.6701
▁passation	-10.6703
▁Bu	-10.6706
▁souhaite	-10.6707
▁dédié	-10.6721
▁auront	-10.6722
▁répond	-10.6723
▁Tra	-10.6723
▁institutions	-10.6737
trait	-10.6739
▁214	-10.6739
▁Limoges	-10.6741
▁probation	-10.6741
Caroline	-10.6746
NO	-10.6746
Charente	-10.6748
▁enregistrées	-10.6749
▁Ka	-10.6751
▁réservé	-10.6753
▁biologiques	-10.6754
emb	-10.6755
▁maintenu	-10.6762
atif	-10.6765
▁Martin	-10.6779
Emmanuel	-10.6781
atoire	-10.6781
▁consulté	-10.6782
▁appareils	-10.6785
RIN	-10.6789
ches	-10.679
▁échanges	-10.6792
avoir	-10.6797
homologation	-10.6797
Saône	-10.6797
VER	-10.6798
▁Hervé	-10.6802
gan	-10.6803
SSI	-10.6806
ITÉ	-10.6819
▁Albert	-10.6822
▁référentiels	-10.6824
istes	-10.6824
rc	-10.6826
▁auxquelles	-10.683
▁prénom	-10.6838
HI	-10.6843
Manon	-10.6846
▁instituée	-10.6846
▁équipe	-10.6848
▁mouvement	-10.6854
ber	-10.6855
▁respectives	-10.6857
ssé	-10.6859
oss	-10.686
▁sujet	-10.6862
▁chasse	-10.6865
▁huissiers	-10.6869
▁Hu	-10.687
eille	-10.6871
ancienneté	-10.6873
▁Soit	-10.6873
gré	-10.6874
▁module	-10.6878
▁Bretagne	-10.6879
▁conséquences	-10.688
Tunisie	-10.688
▁mg	-10.6886
▁pourcentage	-10.6886
▁réforme	-10.689
▁224	-10.6892
EAEA	-10.6894
▁Bloc	-10.6895
▁GA	-10.6896
épreuves	-10.6897
écart	-10.6898
▁233	-10.69
▁manifestation	-10.6903
forme	-10.6911
incident	-10.6911
▁capitalisable	-10.6911
▁individuelles	-10.6912
▁retenue	-10.6919
▁hôpitaux	-10.692
▁Son	-10.692
▁HA	-10.6922
▁BP	-10.6924
femme	-10.6924
▁déroulera	-10.6926
▁Bertrand	-10.693
dra	-10.6931
▁atteinte	-10.6933
▁remet	-10.6934
Ch	-10.6934
▁extraordinaire	-10.6935
▁passage	-10.6937
nay	-10.6941
▁compagnie	-10.6943
▁reçoit	-10.6943
▁treizième	-10.6943
IP	-10.6943
▁vins	-10.6952
CS	-10.6955
LL	-10.6955
▁organique	-10.696
▁promu	-10.6969
▁métier	-10.697
▁bassin	-10.6971
▁réunions	-10.6978
▁principe	-10.6994
▁circonstances	-10.7
▁immobilière	-10.7009
dernier	-10.701
▁dématérialisée	-10.7013
▁assuré	-10.7017
cardiovasculaire	-10.7018
▁premiers	-10.7023
▁occupant	-10.7025
NOR	-10.7027
▁Serge	-10.7033
évaluer	-10.7035
▁utile	-10.7036
▁constatée	-10.7038
▁raisons	-10.7041
▁vivant	-10.7046
▁achats	-10.7047
▁cité	-10.705
▁utilisation	-10.7051
▁septième	-10.7059
▁considération	-10.7067
▁tabac	-10.7067
audition	-10.7067
og	-10.7071
élevage	-10.7072
URE	-10.7074
tz	-10.7076
▁éducative	-10.7083
eb	-10.7089
▁inscrite	-10.7089
RS	-10.7099
▁prochain	-10.71
vier	-10.711
▁mentions	-10.7111
événement	-10.7113
die	-10.7117
ALL	-10.7118
▁face	-10.7118
▁moitié	-10.7125
▁légale	-10.7132
▁cavalerie	-10.7133
▁pourvu	-10.7135
respect	-10.7136
▁délibérations	-10.7139
resse	-10.7141
▁mutation	-10.7141
▁Can	-10.7144
gno	-10.7148
▁actuellement	-10.7152
▁auto	-10.7153
artisanat	-10.7159
▁gestionnaires	-10.716
▁motifs	-10.7163
▁concertation	-10.7167
vre	-10.7168
▁grille	-10.7169
▁valider	-10.7174
rh	-10.7188
▁déplacements	-10.7189
FP	-10.7191
dits	-10.7195
▁familiales	-10.7197
▁1990	-10.7201
uff	-10.7202
▁disposent	-10.7207
ARR	-10.7209
quant	-10.7211
tré	-10.7215
▁supports	-10.7218
▁forêt	-10.7222
pose	-10.7224
▁question	-10.723
▁Monique	-10.7234
▁bi	-10.724
▁particulière	-10.7243
▁TABLEAU	-10.7244
indicateur	-10.7247
▁satisfait	-10.725
▁motif	-10.7255
ôt	-10.7259
lage	-10.7262
▁veiller	-10.7263
télésurveillance	-10.7264
▁compatibles	-10.7269
▁qualifiées	-10.7272
▁constitution	-10.7273
▁travers	-10.7275
▁normales	-10.7276
▁Cas	-10.7284
rig	-10.7291
▁pluri	-10.7292
▁indépendants	-10.7293
▁liée	-10.7301
escadron	-10.7301
alis	-10.7303
vet	-10.7307
illon	-10.7308
ham	-10.7313
▁haute	-10.7314
▁1985	-10.732
▁saisi	-10.732
▁Sta	-10.7328
▁dommages	-10.7329
▁agréée	-10.7331
▁St	-10.7332
Elodie	-10.7335
éno	-10.7337
▁Van	-10.7338
En	-10.7341
▁cap	-10.7342
ANCE	-10.7345
▁conclus	-10.7348
adoption	-10.7349
▁chauffage	-10.7352
▁modernisation	-10.7352
▁kilo	-10.7352
ZI	-10.7354
octroi	-10.736
mission	-10.7362
▁raccordement	-10.7369
▁résident	-10.7369
PO	-10.737
▁adapté	-10.7385
Clémence	-10.7386
▁volontaires	-10.7386
▁expérimentation	-10.74
▁contribuant	-10.7403
▁réintégration	-10.7409
mod	-10.7409
▁équipes	-10.7411
ajout	-10.7414
▁armes	-10.7416
LON	-10.7421
▁Martine	-10.7422
Sa	-10.7422
▁Code	-10.7425
▁Charlotte	-10.7425
▁volontaire	-10.7428
▁transitoire	-10.7429
▁Mou	-10.7432
▁AR	-10.7433
ves	-10.7435
▁Sol	-10.7436
STE	-10.7437
Damien	-10.744
har	-10.7443
▁officier	-10.7452
▁repris	-10.7452
dis	-10.7454
▁supérieurs	-10.7457
▁dépense	-10.7463
▁solution	-10.7463
voi	-10.7465
TIN	-10.7467
▁95	-10.7467
▁Am	-10.7469
▁dernières	-10.7469
organe	-10.7473
sante	-10.7474
▁entité	-10.7476
▁implanté	-10.7484
sous	-10.7485
▁habituel	-10.7489
▁Sainte	-10.7494
▁1989.	-10.7499
▁consommateurs	-10.7501
huit	-10.7502
auditeur	-10.7503
▁mét	-10.7505
HE	-10.7507
▁résulte	-10.751
▁courant	-10.7511
▁Lors	-10.7512
▁global	-10.7516
phy	-10.7522
▁révision	-10.7523
usse	-10.7528
▁électoral	-10.7542
tés	-10.7542
▁délivrés	-10.7546
▁régis	-10.7549
acceptation	-10.7549
▁notifié	-10.7555
▁crise	-10.756
▁150	-10.756
▁but	-10.7561
▁SP	-10.7573
▁préparatoire	-10.7575
▁imposé	-10.7575
▁nomenclature	-10.7577
▁communique	-10.7577
rain	-10.7578
▁organise	-10.7589
gène	-10.7591
HA	-10.7598
▁accusé	-10.7598
entraînement	-10.76
▁résidant	-10.7602
INI	-10.7602
▁appliqué	-10.7602
▁sept	-10.7604
▁naturels	-10.7604
▁blindée	-10.761
PL	-10.7612
▁agences	-10.7613
AGE	-10.762
ANS	-10.7621
▁test	-10.7623
▁prénoms	-10.7629
▁indication	-10.7631
▁étendue	-10.7632
▁conservé	-10.7632
▁préalables	-10.7632
isé	-10.7633
▁longue	-10.7643
gro	-10.7645
▁Bé	-10.7647
▁entend	-10.7648
Nord	-10.7648
▁experts	-10.7648
adhésion	-10.7654
aquaculture	-10.7654
Jo	-10.7656
▁quartier	-10.7661
▁GR	-10.7662
▁existe	-10.7667
▁vivante	-10.7667
intermédiaire	-10.7668
▁spécialisées	-10.7668
.00”	-10.7672
▁Céline	-10.7675
Aude	-10.7676
""	-10.7679
écu	-10.768
Elise	-10.7686
uses	-10.7689
▁Nom	-10.7692
▁interventions	-10.7693
4)	-10.7697
▁indiquant	-10.7707
▁publicité	-10.7712
impact	-10.7713
image	-10.7718
TU	-10.7719
▁conventionnelle	-10.772
▁déterminées	-10.7722
▁métropolitaine	-10.7723
▁13°	-10.7724
bin	-10.773
épargne	-10.7733
▁autonome	-10.7733
Marine	-10.7735
▁aménagement	-10.7736
▁couverture	-10.7737
▁faciliter	-10.7738
dou	-10.7744
pre	-10.7745
▁intitulée	-10.7747
MS	-10.775
▁cancer	-10.7751
▁approprié	-10.7753
▁dose	-10.7756
▁circonscription	-10.776
▁Sé	-10.7761
▁automatique	-10.7764
▁instituant	-10.7769
▁porteur	-10.777
IA	-10.7777
▁développer	-10.7777
occupation	-10.7778
▁consultable	-10.7778
Hugo	-10.7779
▁contractantes	-10.778
▁tenus	-10.7784
▁électorales	-10.7785
off	-10.7792
▁retraits	-10.7794
din	-10.7795
lais	-10.7796
▁stationnement	-10.7796
ida	-10.7798
jou	-10.7798
▁pouvoirs	-10.7803
ize	-10.7803
▁praticiens	-10.7804
▁Traitement	-10.7804
▁intention	-10.7805
▁cor	-10.7806
▁AUX	-10.7806
▁main	-10.7808
gramme	-10.7809
rop	-10.7816
▁portail	-10.7816
▁SAS	-10.7817
▁Su	-10.7821
cent	-10.7825
▁intervenir	-10.7825
LAN	-10.7829
/2018-12-2	-10.7831
▁recrutements	-10.7835
▁proposé	-10.7839
▁dérouleront	-10.784
12-1	-10.7843
▁coup	-10.7848
▁Museum	-10.7849
▁répression	-10.785
▁BI	-10.785
▁BE	-10.7853
Maritimes	-10.7857
▁homologué	-10.7858
CL	-10.786
▁extérieure	-10.7862
qué	-10.7864
tron	-10.7865
▁VER	-10.7865
▁ST	-10.7866
▁charte	-10.7867
▁expertise	-10.787
▁atteints	-10.787
▁effectif	-10.7874
▁92	-10.7874
▁exercent	-10.7876
▁paramètres	-10.7879
▁2.2.	-10.7881
stre	-10.7884
IQUE	-10.7884
enc	-10.7888
mou	-10.7889
▁force	-10.7893
▁Bre	-10.7898
▁fiscal	-10.7899
appréciation	-10.7903
▁facultative	-10.7903
▁Jacqueline	-10.7903
importance	-10.7903
ya	-10.7904
nard	-10.7906
▁affranchie	-10.7906
CES	-10.7907
LY	-10.7908
▁anciens	-10.7909
▁apportées	-10.7911
▁bonification	-10.7912
▁secondaire	-10.7921
omme	-10.7931
ira	-10.7935
▁carrière	-10.7941
illa	-10.7944
▁assimilés	-10.7946
emballage	-10.7948
▁Franck	-10.7948
▁offre	-10.7952
▁documentation	-10.7952
▁vis	-10.7955
▁proche	-10.7963
ica	-10.7971
▁122	-10.7972
▁puisse	-10.7982
cho	-10.7983
▁socio	-10.7984
NON	-10.7984
nis	-10.7985
▁important	-10.799
wa	-10.799
téri	-10.7992
▁Bas	-10.7995
chimie	-10.8011
SION	-10.8014
▁localement	-10.8016
▁obstacle	-10.8017
▁respecte	-10.8018
fl	-10.802
Allemagne	-10.802
▁donnant	-10.802
▁visa	-10.8023
rec	-10.803
▁Laure	-10.8031
▁couverte	-10.804
▁comportement	-10.804
hon	-10.8052
▁issues	-10.8054
▁Contrôle	-10.8057
▁SELARL	-10.8057
▁fonctionnel	-10.8057
hal	-10.8058
matique	-10.806
ESS	-10.8062
gar	-10.8063
▁Sandrine	-10.8064
gère	-10.8065
▁communiquée	-10.8067
FA	-10.8068
▁Tour	-10.8069
▁fournisseurs	-10.8071
CHER	-10.8072
▁542	-10.808
▁cumul	-10.808
▁montagne	-10.8084
OUL	-10.8088
2)	-10.809
▁universitaires	-10.809
▁SNCF	-10.8093
iti	-10.8094
▁caisses	-10.8096
TON	-10.8106
▁réelle	-10.8106
uit	-10.811
excède	-10.8111
▁neuf	-10.8113
oni	-10.8119
faciale	-10.8121
▁Emmanuelle	-10.8124
▁bois	-10.8128
▁final	-10.8134
▁limitation	-10.8139
DON	-10.8141
▁acheminé	-10.8148
▁déontologie	-10.8148
▁MARTIN	-10.8149
gal	-10.815
▁eux	-10.815
MEN	-10.815
ieu	-10.8151
illet	-10.8152
▁destiné	-10.8154
▁faible	-10.8158
▁chirurgien	-10.8161
CAM	-10.8163
ome	-10.8173
mis	-10.8176
▁composantes	-10.8181
▁expert	-10.8182
▁2.1.	-10.8183
▁situées	-10.8187
▁réel	-10.8191
▁Simon	-10.8195
▁BOUR	-10.8195
▁fiscalité	-10.8196
▁Alpes	-10.8196
lay	-10.8197
DS	-10.8197
lor	-10.8204
▁SERVICE	-10.8204
fond	-10.8207
▁Officier	-10.8213
▁occupé	-10.8213
▁populations	-10.8216
▁terminale	-10.8219
▁Aucun	-10.8221
▁Zone	-10.8224
▁constituent	-10.823
▁Autorité	-10.8235
▁posté	-10.8238
▁Com	-10.8238
▁313	-10.824
éna	-10.824
hydro	-10.8241
illes	-10.8241
ell	-10.8242
5-4	-10.8242
▁utiliser	-10.8248
ech	-10.8249
▁prévenir	-10.8252
ifi	-10.8253
6-4	-10.8257
▁élu	-10.8257
▁paysage	-10.8262
stru	-10.8265
professionnelle	-10.8266
ZA	-10.8267
▁parcelle	-10.8267
▁dimension	-10.8269
▁CNIL	-10.8269
attente	-10.8269
▁engagement	-10.827
Florent	-10.8272
existence	-10.8278
q	-10.8279
▁quantités	-10.828
▁assistante	-10.8281
ssant	-10.8283
OD	-10.8292
ray	-10.8293
▁meilleurs	-10.8298
▁favoriser	-10.8305
▁422	-10.8305
▁indexation	-10.8306
▁secrétaires	-10.8306
▁NF	-10.831
▁routiers	-10.8314
Calais	-10.8315
▁Metz	-10.8316
Cha	-10.8317
eff	-10.8321
▁évaluer	-10.8323
Mo	-10.8325
Justine	-10.8326
Unis	-10.8327
ouvre	-10.8328
▁quelle	-10.8342
▁reçoivent	-10.8344
Rémi	-10.8347
▁sub	-10.8352
ADE	-10.8354
▁Provence	-10.8355
PT	-10.8362
▁Lucien	-10.8362
▁adaptées	-10.8367
▁utilisant	-10.8372
▁lié	-10.8372
Jérôme	-10.8372
▁bons	-10.8377
▁tableaux	-10.8377
PS	-10.838
attention	-10.8381
▁éligible	-10.8387
▁Normandie	-10.839
▁auditrice	-10.8391
▁insérée	-10.8395
▁1990.	-10.84
site	-10.84
▁voté	-10.84
▁objectif	-10.8402
QUI	-10.8407
EUX	-10.8408
Ludovic	-10.841
▁préciser	-10.8415
▁contraintes	-10.8416
▁distinct	-10.8419
Patrick	-10.842
▁dépend	-10.8421
▁BON	-10.8422
▁4111-2	-10.8429
EI	-10.8429
▁radiée	-10.8429
▁423	-10.8434
▁préfectoral	-10.8438
▁psychologue	-10.8438
ONNE	-10.8439
▁Lycée	-10.8447
▁300	-10.8449
▁libellée	-10.8453
info	-10.8453
GNE	-10.8456
Amélie	-10.8457
▁fournit	-10.8464
▁adaptations	-10.8464
▁locataire	-10.8466
bé	-10.8467
▁régi	-10.8473
▁sollicité	-10.8476
▁profil	-10.8476
▁quel	-10.8485
nom	-10.8485
▁SO	-10.8485
mettre	-10.8496
▁SAINT	-10.8503
▁bancaire	-10.8505
MICC	-10.8505
▁appelée	-10.8506
▁Bour	-10.8506
VO	-10.8507
Benjamin	-10.8508
▁personnelles	-10.8516
▁mensuelle	-10.8516
▁établies	-10.8516
▁située	-10.8519
ino	-10.852
assiette	-10.8525
▁initial	-10.8525
▁surfaces	-10.8529
▁413	-10.853
▁bateaux	-10.8534
▁221-15	-10.8534
▁contrôlé	-10.8541
▁He	-10.8541
▁fabricant	-10.8543
▁ponctuelle	-10.8546
▁bureaux	-10.855
▁Ab	-10.8553
▁géré	-10.8555
▁décider	-10.8558
André	-10.8566
▁col	-10.8569
hommes	-10.8578
▁personnelle	-10.8584
istant	-10.8584
GES	-10.859
▁prestataires	-10.8594
SER	-10.8595
▁huissière	-10.8597
▁expérimental	-10.8601
pu	-10.8603
électeur	-10.8608
ennes	-10.8609
hôpital	-10.861
▁confidentialité	-10.861
▁partagé	-10.861
ENNE	-10.8611
bel	-10.8614
▁mineur	-10.8619
▁Nota	-10.862
▁Benoît	-10.8621
7-2	-10.8625
▁mon	-10.8625
BER	-10.8627
dentiste	-10.8641
▁éco	-10.8643
▁1991.	-10.8649
TEN	-10.865
▁déploiement	-10.8659
EST	-10.8659
▁Durée	-10.866
Yvelines	-10.8668
▁intéressés	-10.8669
▁Association	-10.8671
▁réunit	-10.8674
▁Champ	-10.8674
organismes	-10.8675
▁sources	-10.868
Arthur	-10.8688
▁confiées	-10.8693
▁stages	-10.8693
▁formé	-10.8694
▁conclusion	-10.8694
Association	-10.8694
100	-10.8699
MAN	-10.87
▁SU	-10.8701
▁installé	-10.8706
illard	-10.8712
▁départementales	-10.8718
▁réadaptation	-10.8724
▁constituer	-10.8726
Aquitaine	-10.8727
▁intérim	-10.8727
▁valide	-10.8727
▁Mi	-10.8727
▁162-17	-10.8733
oral	-10.8735
▁incluant	-10.8736
▁221-14	-10.8737
▁Elisabeth	-10.8737
▁Gou	-10.8737
LOU	-10.8741
▁transaction	-10.8743
▁spectacle	-10.8746
Mélanie	-10.8746
ria	-10.8747
▁comprennent	-10.8756
▁gauche	-10.8756
▁vaisseau	-10.8756
-2-1	-10.8759
outil	-10.8764
▁vitesse	-10.8766
utilisateur	-10.8773
▁semestre	-10.8776
RD	-10.8776
atrice	-10.8783
▁droite	-10.8784
OUX	-10.8786
▁rendre	-10.8787
ian	-10.8788
▁voir	-10.8788
▁formulée	-10.8793
▁légal	-10.8798
atifs	-10.88
▁ultérieur	-10.8805
berg	-10.881
établir	-10.8814
▁613	-10.8817
▁fraudes	-10.8819
▁Légifrance	-10.8825
▁Pascale	-10.8831
▁détection	-10.8835
▁barème	-10.8835
▁bloc	-10.8838
ATI	-10.8846
▁pharmaceutique	-10.885
▁GUI	-10.8851
▁majoré	-10.8851
▁communiquer	-10.8852
▁Réaliser	-10.8854
▁Nombre	-10.8856
▁portent	-10.886
▁Te	-10.8862
▁221-16	-10.8864
oub	-10.8867
▁consulaire	-10.887
▁justification	-10.8874
/2022-12-2	-10.8875
enfance	-10.8876
▁établir	-10.8877
▁Chi	-10.888
▁potentiel	-10.8882
1.1	-10.8883
▁fournis	-10.8884
▁satisfaire	-10.8884
Fanny	-10.8884
Lucie	-10.8884
▁utilisateurs	-10.8887
▁211	-10.8888
▁diffus	-10.8893
▁était	-10.8894
omi	-10.8897
▁toutefois	-10.8904
Mathieu	-10.8905
plo	-10.891
▁confér	-10.8912
▁résiliation	-10.8914
▁impact	-10.8918
Eure	-10.8923
▁lendemain	-10.8924
▁habilitée	-10.8926
▁dirigeant	-10.8934
▁entrant	-10.8934
HOU	-10.8936
▁parents	-10.8936
▁14°	-10.8941
▁for	-10.8942
LU	-10.8943
▁Spécialité	-10.8944
▁consentement	-10.8944
▁statue	-10.8944
▁obstétrique	-10.8949
rine	-10.8951
igue	-10.8952
▁vieillesse	-10.8954
Cécile	-10.8956
▁seuls	-10.8958
▁recrutés	-10.8959
▁photo	-10.8967
.5.	-10.8968
▁exploitants	-10.8969
bout	-10.8973
nou	-10.8974
▁Adresse	-10.8974
Bois	-10.8975
No	-10.8976
isant	-10.8978
RC	-10.8979
▁dissolution	-10.8984
▁précédemment	-10.8984
▁polytechnique	-10.8984
▁invité	-10.8986
ola	-10.8987
ERT	-10.8988
▁Mal	-10.8988
▁climatique	-10.9006
rois	-10.9006
cinq	-10.9014
▁2.3.	-10.9014
organiser	-10.9029
▁1984.	-10.9031
▁exercé	-10.9031
▁compens	-10.9031
▁journée	-10.9032
axe	-10.9034
▁foncière	-10.9034
illage	-10.9038
2-10	-10.904
▁ouverte	-10.9044
▁sièges	-10.9045
Dominique	-10.9047
trice	-10.9048
adi	-10.905
Manche	-10.9051
▁règle	-10.9055
▁régulièrement	-10.9058
▁CAPL	-10.9058
four	-10.9059
▁pertinent	-10.9061
équilibre	-10.9064
roy	-10.9065
▁localisation	-10.9067
gui	-10.9069
▁consultations	-10.9069
OLI	-10.9071
▁voyage	-10.9074
▁satisfaisant	-10.9074
▁conventionnel	-10.9074
▁GO	-10.9075
▁coopérative	-10.9082
▁substitute	-10.9086
▁contacter	-10.9086
ose	-10.9097
logique	-10.9101
▁langues	-10.9101
▁obligation	-10.9102
▁exercices	-10.9102
▁supérieures	-10.9103
▁différence	-10.9105
▁112	-10.9113
▁Mathieu	-10.9114
psycho	-10.9115
▁retard	-10.9115
mine	-10.9117
▁fourni	-10.9128
4-5	-10.9131
▁ii	-10.9134
RIER	-10.9137
fin	-10.9139
▁Cal	-10.9145
▁Toulon	-10.9145
▁préparant	-10.9145
▁Francis	-10.9146
ié	-10.915
0-2	-10.9152
▁doté	-10.9155
bar	-10.9161
oz	-10.9166
▁JA	-10.9171
▁Château	-10.9172
bilité	-10.9174
▁quarante	-10.9176
▁Lieutenant	-10.9176
▁postal	-10.9177
▁Services	-10.9182
RIC	-10.9185
Emma	-10.9195
▁horaire	-10.9195
▁culturelles	-10.9198
▁RI	-10.92
Alain	-10.9204
▁ménage	-10.9206
▁Emilie	-10.9212
bilis	-10.9217
intolérance	-10.9217
▁titularisation	-10.9217
▁réglementés	-10.9217
▁cela	-10.9219
chimique	-10.9224
▁déclaré	-10.9225
▁humaine	-10.9229
PN	-10.9229
▁123	-10.923
blanc	-10.9232
▁entendu	-10.9234
ION	-10.9235
type	-10.9236
auto	-10.9236
gh	-10.9237
▁Madeleine	-10.9238
▁contrôleurs	-10.9238
quer	-10.924
NT	-10.9242
▁diplomatique	-10.9247
augmentation	-10.9248
▁concessionnaire	-10.9249
▁détenue	-10.925
▁climat	-10.9255
ève	-10.9256
▁modes	-10.9256
▁ASSOCIES	-10.9258
▁éducatif	-10.9259
▁technologie	-10.9268
▁évalue	-10.9268
▁unitaire	-10.9269
ALE	-10.9277
▁Gilbert	-10.9278
▁rapporteur	-10.9278
▁taille	-10.928
▁âgés	-10.9281
traitant	-10.9281
▁infirmiers	-10.9282
▁1987	-10.9284
▁joint	-10.9289
▁géographiques	-10.9292
CHI	-10.9296
▁forte	-10.9298
bra	-10.93
4-6	-10.9301
▁Barb	-10.9303
ita	-10.9303
▁ROU	-10.931
▁114	-10.9312
▁ressortissants	-10.9314
▁utiles	-10.9317
▁redevable	-10.933
inventaire	-10.933
▁immeubles	-10.9334
▁différent	-10.9336
imposition	-10.9339
▁arrête	-10.934
▁162-1	-10.934
▁régularisation	-10.9341
▁Guil	-10.9344
▁Pla	-10.9345
métrique	-10.9347
▁Ho	-10.935
▁élabore	-10.935
▁compléter	-10.9351
▁élaboré	-10.9351
anche	-10.9357
KI	-10.9367
▁513	-10.9369
▁prévoyance	-10.9372
▁mentionnant	-10.9376
▁tome	-10.9378
▁marins	-10.9381
▁Michèle	-10.9382
▁dissoute	-10.9382
CU	-10.9383
terie	-10.9391
▁BRU	-10.9393
▁accéder	-10.9404
▁routier	-10.9405
DU	-10.9406
▁présentent	-10.9406
▁SCH	-10.9406
▁indiciaire	-10.9413
▁musique	-10.9413
▁pêches	-10.9414
▁déclarées	-10.9418
Bas	-10.9419
UV	-10.9421
▁Gabriel	-10.9421
▁constituant	-10.9424
▁méthotrexate	-10.9424
▁fusion	-10.9424
VILLE	-10.9425
▁annuellement	-10.9429
▁intégré	-10.943
▁refusé	-10.943
part	-10.9434
éligibilité	-10.9434
▁retirer	-10.9434
▁semences	-10.9434
elli	-10.9436
électro	-10.9436
▁622	-10.9437
▁communiqués	-10.9438
.1.1.	-10.9439
▁éventuels	-10.9444
▁circulaire	-10.9445
▁informatiques	-10.9446
▁école	-10.9452
▁circuit	-10.9455
▁1988	-10.9456
▁principales	-10.946
ingénierie	-10.9466
▁rénovation	-10.9466
5-9	-10.9467
af	-10.9471
▁fichier	-10.948
loi	-10.9481
étend	-10.9481
observation	-10.9484
▁remplir	-10.9485
▁Nicole	-10.9487
▁Titre	-10.9488
▁équipage	-10.9488
▁organisés	-10.9492
dan	-10.9494
UF	-10.9496
TREL	-10.9496
Mer	-10.9498
Thibault	-10.9508
▁engins	-10.951
isés	-10.9512
▁AN	-10.9514
▁BAP	-10.9515
accident	-10.952
GN	-10.9521
mus	-10.9521
▁Her	-10.9527
▁MONT	-10.9529
once	-10.9531
▁plantes	-10.9534
▁génér	-10.9535
▁COR	-10.9536
mant	-10.9538
▁rupture	-10.954
▁accidents	-10.9544
▁retiré	-10.9548
Pitre	-10.9551
▁Santé	-10.9552
Lionel	-10.9553
▁rempli	-10.9555
▁collectifs	-10.9559
▁syndicale	-10.9566
▁périodicité	-10.9571
▁Organisation	-10.9576
▁journalière	-10.9577
▁accompagnement	-10.9585
ule	-10.9587
▁Patricia	-10.959
Anton	-10.9591
▁Magistrat	-10.9593
▁motivation	-10.9593
lam	-10.9596
▁dédiée	-10.9599
▁européennes	-10.9605
▁utilise	-10.9607
ssin	-10.961
▁mémoire	-10.9614
▁significative	-10.9614
▁dispensés	-10.9614
▁CAP	-10.9624
▁foncier	-10.9625
▁interacadémique	-10.9625
assesseur	-10.9625
▁Delphine	-10.9626
▁Virginie	-10.9632
▁connexes	-10.9646
ox	-10.9647
▁intermédiaires	-10.9647
▁élément	-10.9648
disciplinaire	-10.9649
▁intervenu	-10.9649
▁grands	-10.9652
▁composer	-10.9655
QUET	-10.9655
▁minimales	-10.9655
▁culturel	-10.9656
▁commis	-10.9656
NOT	-10.9657
▁clause	-10.9668
▁ministérielle	-10.9671
▁moteur	-10.9678
▁prennent	-10.9678
IEN	-10.9682
▁saisine	-10.9684
Anthony	-10.9689
Occitanie	-10.9689
▁forestière	-10.9689
échec	-10.9689
▁huitième	-10.969
BLE	-10.9696
ÉE	-10.97
MICB	-10.97
▁exploité	-10.97
▁soixante	-10.97
▁pied	-10.97
▁bailleur	-10.97
▁déclare	-10.9701
▁instruments	-10.9702
▁combustion	-10.9711
▁contribuer	-10.9714
igné	-10.9715
▁utilisée	-10.972
▁162-22-7	-10.9722
Mont	-10.9727
▁Brigitte	-10.9729
▁Tar	-10.9733
amiante	-10.9733
▁For	-10.9734
immobilier	-10.9738
▁333	-10.9739
▁GAR	-10.9741
▁tuteur	-10.9743
▁enseignant	-10.9753
perfectionnement	-10.9754
éviter	-10.9754
▁envisagée	-10.9756
rot	-10.9757
▁définir	-10.9757
▁Unité	-10.9757
▁détaillé	-10.9758
▁qualifiée	-10.976
AMB	-10.9764
▁Directeur	-10.9765
ESRH	-10.9766
▁JU	-10.9768
▁estime	-10.9768
aison	-10.9769
▁acquises	-10.9774
▁température	-10.9775
▁ouvré	-10.9775
LLIER	-10.978
▁dépasse	-10.9781
▁neuro	-10.9781
équipements	-10.9783
▁micro	-10.9786
▁feu	-10.9786
ate	-10.9793
▁futur	-10.9798
▁démontr	-10.9798
▁vaut	-10.9799
▁situe	-10.98
ô	-10.9802
▁commerciales	-10.9804
▁artillerie	-10.9808
INRIA	-10.9808
▁511	-10.9809
▁limiter	-10.9812
effectif	-10.9815
log	-10.9818
▁Représentant	-10.9819
ifs	-10.9819
ost	-10.9825
▁référ	-10.9828
interprétation	-10.983
▁prévoir	-10.9832
▁HU	-10.9837
▁Fi	-10.9838
▁Agnès	-10.984
Léo	-10.9841
▁établissant	-10.9842
▁certificateur	-10.9845
▁rejeté	-10.985
▁déclarée	-10.9859
▁1989	-10.9862
▁accident	-10.9867
▁mercredi	-10.9873
▁BU	-10.9878
mettant	-10.9879
▁fondation	-10.988
▁étude	-10.988
VEN	-10.9881
Au	-10.9887
Inter	-10.989
▁App	-10.9893
Bruno	-10.9894
▁indépendant	-10.9897
heim	-10.9903
▁mensuel	-10.9904
ada	-10.9904
/2023-12-2	-10.9906
aéroport	-10.9906
▁disposer	-10.9908
▁sessions	-10.9909
MON	-10.9911
▁Etienne	-10.9912
▁constat	-10.9915
▁signalisation	-10.9918
ama	-10.9921
▁mutuelle	-10.9923
▁légales	-10.9925
▁réclamation	-10.9928
▁Petit	-10.9929
hab	-10.9933
exigence	-10.9936
▁jointe	-10.9939
agri	-10.9939
gastro	-10.9939
▁portabilité	-10.994
dire	-10.9944
cité	-10.9954
▁envoi	-10.9957
▁déterminés	-10.9957
▁Ju	-10.9959
Isabelle	-10.9961
▁Plan	-10.9964
tran	-10.9964
▁631	-10.9965
▁familiale	-10.9967
/2019-1	-10.9975
▁132	-10.9979
▁analyses	-10.9982
▁Peuvent	-10.9983
Cher	-10.9984
ENCE	-10.9985
▁effectue	-10.9987
▁...	-10.9988
effectuent	-10.999
charge	-10.9993
▁permanence	-10.9995
▁encore	-10.9995
appuie	-10.9996
▁destinée	-10.9997
▁crises	-11.0003
▁Pointe	-11.0006
▁trafic	-11.0017
▁déposer	-11.0017
Christine	-11.0018
Adrien	-11.0018
▁thèmes	-11.0018
ÉES	-11.0019
▁Lucie	-11.0026
▁ensuite	-11.0028
▁train	-11.003
▁Bel	-11.0033
vir	-11.0039
arrivée	-11.0039
▁évolutions	-11.004
document	-11.004
bus	-11.0041
▁Sylvain	-11.0042
▁prépare	-11.0049
▁NATIONALE	-11.0057
▁difficultés	-11.0059
▁renforcé	-11.0062
▁311	-11.0062
▁coordonne	-11.0065
Benoit	-11.0073
▁Pauline	-11.0076
▁finale	-11.0076
taire	-11.0077
communications	-11.0077
LÉ	-11.0078
▁consulaires	-11.0081
gli	-11.0082
mul	-11.0085
▁budgétaires	-11.0094
▁conventionnels	-11.0098
▁FER	-11.0099
▁assistants	-11.0102
▁Ass	-11.0104
▁SUR	-11.0105
ancien	-11.0108
conformité	-11.0108
Futuna	-11.0109
Isère	-11.0109
aj	-11.0109
position	-11.0114
▁Var	-11.0117
▁accrédité	-11.0117
▁FRAN	-11.0117
TES	-11.0118
▁pan	-11.0119
ARS	-11.012
Bouches	-11.012
▁Maxime	-11.0122
▁exceptionnels	-11.0123
▁serait	-11.0124
▁Ph	-11.0125
▁échange	-11.0129
▁accueilli	-11.0131
▁plafonds	-11.0131
û	-11.0138
▁prêts	-11.0144
▁géo	-11.0144
▁Cla	-11.0147
ANC	-11.0148
Clara	-11.0159
▁Tableau	-11.0163
▁exprimée	-11.0165
▁scolaires	-11.0166
classe	-11.0169
▁préfète	-11.017
flu	-11.0171
▁génétique	-11.0173
▁guide	-11.0174
ko	-11.0179
bonne	-11.0183
GH	-11.0183
duc	-11.0188
In	-11.0191
cor	-11.0193
Hérault	-11.0196
▁appartient	-11.0196
▁Sauf	-11.0196
mel	-11.0196
▁confié	-11.0198
UG	-11.0202
▁couleur	-11.0207
▁suffisamment	-11.0209
▁dispensée	-11.0211
▁identifiés	-11.0211
GO	-11.0214
▁113	-11.0218
acheminement	-11.0219
▁desquelles	-11.0219
rent	-11.022
▁Romain	-11.0221
hen	-11.0222
ast	-11.0222
▁Pont	-11.0223
▁conservées	-11.0225
formation	-11.0226
▁Auvergne	-11.0227
intranet	-11.0227
▁décédée	-11.0228
▁infraction	-11.0238
▁organisées	-11.0238
▁Réseau	-11.0238
ETTE	-11.0239
▁solutions	-11.0241
▁mécanisme	-11.0241
infraction	-11.0246
▁Victor	-11.0247
ban	-11.0248
▁Patrice	-11.0249
▁Roche	-11.0251
mann	-11.0252
/2013	-11.0253
▁adaptés	-11.0254
▁pénalité	-11.0254
composante	-11.0257
interdiction	-11.0258
.6.	-11.0261
tern	-11.0261
▁cinquante	-11.0264
▁fermeture	-11.0264
▁prononcé	-11.0264
UNE	-11.0268
▁sexe	-11.0276
gre	-11.0278
▁Fou	-11.0284
▁garanti	-11.0286
▁Information	-11.0287
▁repos	-11.0288
THE	-11.0289
▁exploitations	-11.0291
▁offres	-11.0291
▁afférentes	-11.0296
▁Ni	-11.0298
▁sujets	-11.0299
▁Règlement	-11.0301
aliment	-11.0304
▁daté	-11.0304
▁avenants	-11.0304
▁capable	-11.0306
UD	-11.0307
met	-11.0308
▁gratuit	-11.0309
▁connu	-11.0313
▁aéronautiques	-11.0323
CIP	-11.0323
▁réservée	-11.0325
Organisation	-11.0328
▁Emile	-11.0333
pour	-11.0335
▁équipement	-11.0337
▁sang	-11.0337
▁demandeurs	-11.0339
rap	-11.034
▁rayonnement	-11.0344
ECOE	-11.0347
Anna	-11.035
rel	-11.0359
▁CMG	-11.0367
▁Béatrice	-11.0369
▁Bra	-11.0372
▁1981	-11.0375
▁incomplet	-11.0379
▁réussite	-11.0379
▁forestier	-11.0379
▁thon	-11.038
▁facteurs	-11.0381
▁susmentionnée	-11.0382
▁raisonnable	-11.039
▁321	-11.0394
▁handicapés	-11.0394
Indre	-11.0396
▁extérieures	-11.0407
▁versements	-11.0408
▁Gre	-11.0411
SO	-11.0415
PC	-11.0415
administratif	-11.0422
▁livret	-11.0425
Jules	-11.0437
▁Liste	-11.0441
▁conclue	-11.0441
▁1.1.	-11.0444
▁reconnues	-11.0465
départementale	-11.0466
▁distributeur	-11.0471
ALI	-11.0476
ral	-11.0477
▁Trans	-11.0483
▁réduire	-11.0483
▁plate	-11.0484
oyer	-11.0485
▁Cap	-11.0492
▁limité	-11.0493
▁justificatif	-11.0503
Maria	-11.0505
▁Pou	-11.0511
▁événements	-11.0522
aval	-11.0524
Benoît	-11.0528
▁réputé	-11.0536
▁conclusions	-11.054
▁standard	-11.0541
▁libellé	-11.0555
▁prévisionnelle	-11.0561
nalité	-11.0562
▁conséquence	-11.0562
▁nécessitant	-11.0564
Alban	-11.0567
exige	-11.0567
▁essais	-11.0569
▁déclarant	-11.0576
issant	-11.0583
▁précédents	-11.0584
DJ	-11.0585
exonération	-11.0585
▁comporter	-11.0585
▁évaluations	-11.0589
MR	-11.0591
▁531	-11.0596
▁semaine	-11.0598
▁mesuré	-11.06
ena	-11.0601
rique	-11.0605
vert	-11.061
▁15°	-11.0613
Micha	-11.0616
jo	-11.0622
▁repose	-11.0623
▁renseigné	-11.0623
▁exemplaire	-11.0624
oth	-11.0627
posant	-11.0632
▁effectivement	-11.0632
▁identique	-11.0635
▁vérifié	-11.0635
▁radioprotection	-11.0635
▁125	-11.0637
▁contenues	-11.0642
▁proposées	-11.0643
▁vert	-11.0646
Grégoire	-11.0647
▁consultatif	-11.0647
Christian	-11.0648
importation	-11.0653
abi	-11.0653
adapter	-11.0667
NY	-11.0668
TÉ	-11.0668
incidence	-11.0671
▁séparé	-11.0671
▁aéronef	-11.0674
durée	-11.0676
▁liquid	-11.0682
▁afférents	-11.0688
▁redevances	-11.069
▁pharmaciens	-11.0692
▁insuffisante	-11.0695
▁demandées	-11.0705
encontre	-11.0706
Bernard	-11.0709
tic	-11.071
BEL	-11.0712
▁participations	-11.0712
▁Action	-11.0714
▁RAEP	-11.0715
Laboratoire	-11.0718
▁CONCOURS	-11.0718
▁restriction	-11.0718
bat	-11.0719
▁habitants	-11.0719
PIN	-11.0721
ulation	-11.0723
▁1996	-11.0731
NU	-11.0735
▁Clément	-11.0739
ordonnateur	-11.0741
▁pollution	-11.0742
▁pénétration	-11.0742
abri	-11.0743
JEAN	-11.0743
▁dentaire	-11.0747
bri	-11.0749
▁tests	-11.075
▁gériatrie	-11.0754
▁Gall	-11.0756
▁indiquées	-11.0757
▁PL	-11.076
▁conjointe	-11.0761
individuellement	-11.0761
/2022-1	-11.0764
ICH	-11.0765
▁frégate	-11.0766
Théo	-11.0769
départemental	-11.0775
▁cartes	-11.0776
ND	-11.0776
▁correspondantes	-11.0778
▁Bon	-11.0786
ACC	-11.0789
▁conduisant	-11.079
▁comprendre	-11.0792
/2022-04-2	-11.0802
▁détenus	-11.0809
actes	-11.081
cq	-11.081
▁arts	-11.0813
▁petites	-11.0817
▁Vienne	-11.0818
▁terrains	-11.0822
GOU	-11.0824
PRMG	-11.0826
Aurélien	-11.0826
▁Roland	-11.0827
▁imp	-11.0837
▁assisté	-11.0838
▁vols	-11.0838
Margaux	-11.0838
▁exclusif	-11.0838
▁Cyclades	-11.0839
▁proposés	-11.0841
mu	-11.0845
▁piste	-11.0846
▁primaire	-11.085
▁Cu	-11.0852
▁rétabli	-11.0859
▁comportent	-11.0863
bourg	-11.0865
▁salle	-11.0866
▁Thérèse	-11.0875
len	-11.0878
▁Ob	-11.0884
▁régulier	-11.0886
▁munitions	-11.0886
▁Bal	-11.0888
▁intermédiaire	-11.089
▁déposée	-11.0892
▁fichiers	-11.0895
code	-11.0895
ARI	-11.0898
▁mathématiques	-11.0898
▁monde	-11.0899
RAT	-11.091
▁téléprocédure	-11.0911
▁Richard	-11.0911
▁fixer	-11.0917
▁provision	-11.0923
▁volonté	-11.0923
AK	-11.0924
▁mécanique	-11.0926
▁longueur	-11.0928
ECOT	-11.0929
▁Christ	-11.0938
ANO	-11.0943
▁contingent	-11.0947
▁pertinence	-11.0947
▁Médaillé	-11.095
▁réservés	-11.095
gel	-11.0955
▁kg	-11.0958
PRMX	-11.0959
▁Voie	-11.096
▁bar	-11.096
▁animale	-11.0965
DEC	-11.0966
Céline	-11.0967
▁appliquer	-11.0968
ball	-11.0969
argent	-11.0969
OFF	-11.0972
▁Alice	-11.0972
▁vacants	-11.0978
▁justifient	-11.098
▁The	-11.0985
▁conservent	-11.0988
quin	-11.0989
▁FR	-11.0992
icien	-11.0993
▁machine	-11.0996
▁Léon	-11.0998
▁vérifie	-11.1003
▁Ci	-11.1004
▁détaillée	-11.1006
str	-11.1006
▁locatif	-11.1009
▁LO	-11.1013
Lucas	-11.1014
ima	-11.1019
▁vocation	-11.102
/2019-12-2	-11.1022
ow	-11.1024
service	-11.1028
Bénédicte	-11.1033
adapt	-11.1035
ella	-11.1037
▁seuils	-11.1042
Limites	-11.1045
▁1.2.	-11.1047
ILLA	-11.1048
▁déposés	-11.1048
▁imparti	-11.1049
▁quelque	-11.1053
▁spécialiste	-11.1056
den	-11.1056
olf	-11.1058
▁payé	-11.1058
scription	-11.1058
SSAN	-11.1059
▁connexion	-11.1059
GEN	-11.106
▁vétérinaires	-11.1061
adolescent	-11.1067
Karine	-11.1069
▁titularisé	-11.107
▁consenti	-11.107
cdg	-11.107
audience	-11.1071
▁Corinne	-11.1074
impose	-11.1079
RAN	-11.108
▁Adjudant	-11.1082
▁tôt	-11.1083
ek	-11.1086
Louise	-11.1087
▁Banque	-11.1094
▁émet	-11.1095
Mohamed	-11.1107
▁Formation	-11.1107
▁faculté	-11.1119
▁personnalisé	-11.1119
▁alimentaires	-11.1122
AMP	-11.1122
▁compose	-11.1123
/2019-12-1	-11.113
Estelle	-11.1131
▁présidé	-11.1132
▁renforcer	-11.1132
ALLE	-11.1133
mier	-11.1134
▁combustible	-11.1139
▁593	-11.1143
▁déduction	-11.1144
SY	-11.1145
▁apporte	-11.1153
▁subventions	-11.1155
▁Fort	-11.1156
ik	-11.1156
▁Gestion	-11.1156
▁Outre	-11.1158
▁réduite	-11.1159
▁Comp	-11.1162
ifier	-11.1163
oin	-11.1166
MTRR	-11.1169
▁Justice	-11.1181
▁312-1	-11.1182
ige	-11.1187
▁départementaux	-11.1187
▁présentées	-11.1187
▁certificative	-11.1187
œ	-11.1189
élimination	-11.1194
LOT	-11.1196
▁GUILL	-11.12
ACT	-11.1201
▁anonyme	-11.1206
▁confiée	-11.1209
Franche	-11.1211
▁net	-11.1212
▁antérieur	-11.1217
▁MOU	-11.1217
▁message	-11.1218
▁Définition	-11.1219
▁plastique	-11.1219
Saclay	-11.1219
▁1999	-11.122
▁attribués	-11.122
▁contrepartie	-11.1221
environ	-11.1221
incapacité	-11.1231
▁Légion	-11.1231
▁différend	-11.1231
▁annuelles	-11.1236
▁poly	-11.1237
▁Belle	-11.1239
▁réduit	-11.1241
MTRD	-11.1244
accessibilité	-11.1244
▁progression	-11.1244
▁créer	-11.1244
▁instructions	-11.1249
▁instituts	-11.1252
▁retenues	-11.1254
▁correction	-11.1257
▁navigant	-11.1257
▁revêt	-11.1257
▁hautes	-11.1257
▁gros	-11.126
▁humain	-11.1264
ora	-11.1264
ministérielle	-11.1265
Frédérique	-11.1269
▁menace	-11.1269
Catherine	-11.127
▁Chau	-11.1273
CM	-11.1276
▁Hubert	-11.1278
équivalence	-11.1279
cell	-11.128
▁dangereuses	-11.1282
▁Seuls	-11.1282
▁250	-11.1282
Hugues	-11.1283
▁allouée	-11.1288
▁tranche	-11.1295
▁durabilité	-11.1295
▁appliquée	-11.1295
Franck	-11.1296
▁provenant	-11.1296
▁Non	-11.1297
été	-11.1297
Loir	-11.13
▁source	-11.1304
▁rapportant	-11.1308
VEL	-11.1309
MES	-11.1311
▁visites	-11.1314
▁gouvernance	-11.132
idi	-11.1324
▁Groupe	-11.1327
▁Four	-11.1328
4.1	-11.1332
▁laboratoires	-11.1334
▁étapes	-11.1335
▁Aurélie	-11.1338
▁JO	-11.1341
▁travailleur	-11.1342
▁superficie	-11.1345
Samuel	-11.1345
lli	-11.1346
oxy	-11.1347
▁Bouches	-11.1349
▁manuel	-11.1349
▁informer	-11.136
▁consignes	-11.1364
▁affiché	-11.137
▁spécialisation	-11.1373
▁adressées	-11.1378
▁appar	-11.138
▁conflit	-11.1383
▁management	-11.1383
▁réputée	-11.1386
▁représentés	-11.1388
▁similaire	-11.1396
▁atteste	-11.1399
▁adresser	-11.1399
▁subi	-11.14
▁LI	-11.1403
OY	-11.1406
joindre	-11.1409
▁Fer	-11.1417
▁HER	-11.1417
instrument	-11.1418
▁minimal	-11.142
inscrivent	-11.1421
▁vacance	-11.1421
▁autant	-11.1422
▁rattachée	-11.1425
▁participent	-11.143
▁nuit	-11.143
▁environnemental	-11.1431
assujetti	-11.1434
▁évaluateurs	-11.1435
▁Acc	-11.1435
zy	-11.1437
▁Marine	-11.144
▁Sécurité	-11.1447
▁délivre	-11.1447
▁Olympiques	-11.1448
date	-11.1448
enveloppe	-11.145
Gérald	-11.146
▁prolongation	-11.146
▁traçabilité	-11.146
atteinte	-11.1464
▁améliorer	-11.1466
▁bateau	-11.1472
▁boulevard	-11.1473
▁Bourgogne	-11.1473
▁prononce	-11.1474
▁chimiques	-11.1476
▁Taux	-11.1477
▁Benjamin	-11.1481
chon	-11.1483
.1.2.	-11.1494
▁ép	-11.1497
EB	-11.1499
▁Bru	-11.15
3.2	-11.1501
▁fermé	-11.1502
▁rattachés	-11.1506
▁aérodromes	-11.1506
▁rapide	-11.1511
▁Suzanne	-11.1511
▁mutualité	-11.1511
Victor	-11.1516
▁Ham	-11.1519
hydrocarbures	-11.1524
Yannick	-11.1524
▁effluents	-11.1525
▁débat	-11.1526
Régis	-11.1529
orm	-11.1529
Nathalie	-11.153
▁Mise	-11.1531
infection	-11.1534
▁bataillon	-11.1537
COM	-11.1537
▁Nature	-11.1538
▁signal	-11.1538
▁Sciences	-11.1543
Gilles	-11.1547
Finistère	-11.155
▁député	-11.1563
▁rattachement	-11.1563
▁431	-11.1565
uch	-11.1567
OSS	-11.1575
▁tirage	-11.1582
administrateurs	-11.1582
▁143	-11.1588
page	-11.1588
▁captures	-11.1589
▁bulletin	-11.159
ède	-11.1592
▁subordonnée	-11.1592
Comté	-11.1594
Emilie	-11.1596
GR	-11.1597
▁supprimées	-11.1598
▁attribuées	-11.1601
▁doctorat	-11.1602
▁intéressant	-11.1602
glo	-11.1602
▁Tri	-11.1603
ii	-11.1604
▁Blan	-11.1606
▁2026	-11.161
onnet	-11.1613
▁végétal	-11.1615
.7.	-11.1617
▁représenter	-11.1621
LLI	-11.1624
▁valablement	-11.1626
▁assurent	-11.1628
▁Fernand	-11.1628
▁traitant	-11.1631
Rémy	-11.1632
▁Geneviève	-11.1634
▁servir	-11.1635
▁mécaniques	-11.1637
▁pose	-11.164
/2022-07-2	-11.1641
▁cesse	-11.1646
▁BRI	-11.1651
.2.1.	-11.1651
thèse	-11.1653
▁Objectif	-11.1654
▁convenu	-11.1656
LAND	-11.1657
▁pal	-11.1659
▁interdiction	-11.1661
▁majeurs	-11.1664
partie	-11.1665
▁stratégiques	-11.1665
▁hépato	-11.1667
▁organisatrice	-11.1667
▁indu	-11.1668
Muriel	-11.167
▁donneur	-11.1672
▁appliquées	-11.1678
AIRES	-11.1678
▁Fau	-11.1679
hypothèse	-11.168
/2014	-11.168
engin	-11.1681
▁demandée	-11.1691
▁rectification	-11.1693
▁téléversement	-11.1693
▁demeurent	-11.1703
▁identifiant	-11.1703
▁712	-11.1704
nia	-11.1705
▁Fabrice	-11.171
▁1998	-11.1718
CHA	-11.1722
▁exprimés	-11.1723
▁bail	-11.1727
▁concernent	-11.1729
▁indépendante	-11.173
▁syndicats	-11.1732
▁signataires	-11.1733
▁efficace	-11.1733
▁serre	-11.1734
composantes	-11.1736
▁Thi	-11.1736
▁intégrée	-11.1739
▁mille	-11.1741
▁perçues	-11.1743
▁Paralympiques	-11.1746
▁voyageurs	-11.1747
gede	-11.1755
▁maternité	-11.1759
▁communautaire	-11.1759
▁simultanément	-11.1761
▁blocs	-11.1768
▁rév	-11.177
ancé	-11.177
NC	-11.177
▁Adrien	-11.1771
▁carbone	-11.1772
▁filiale	-11.1772
▁CAS	-11.1775
▁médiation	-11.1775
emplacement	-11.1785
▁sergent	-11.1786
▁savoirs	-11.1787
▁accessoires	-11.1788
HU	-11.1791
/2019-07-1	-11.1799
▁1980	-11.1799
▁1979	-11.1809
VET	-11.181
ble	-11.181
bour	-11.1811
▁transmettent	-11.1813
▁troubles	-11.1815
▁décide	-11.1818
Henri	-11.1823
▁vidéo	-11.1826
▁dotations	-11.183
▁124	-11.1835
▁allocations	-11.1837
▁Ernest	-11.1839
intégrité	-11.1839
▁poursuivre	-11.1839
▁concentration	-11.1842
▁redevance	-11.1844
▁Fre	-11.1848
▁enquêtes	-11.1862
technique	-11.1864
accompagner	-11.1865
▁requêtes	-11.1865
▁antérieurement	-11.1868
▁commissariat	-11.1881
▁Ang	-11.1883
▁pluriannuel	-11.1886
Alice	-11.1892
▁thématique	-11.1892
▁attesté	-11.1892
▁cellules	-11.1897
▁cumulé	-11.1898
▁162-22	-11.1899
cc	-11.1902
▁Va	-11.1903
▁313-1	-11.1903
MIN	-11.1903
▁renforcement	-11.1906
PER	-11.1908
gne	-11.191
▁obtenues	-11.1914
ACH	-11.1915
▁estimé	-11.1917
▁Edouard	-11.1918
▁décidé	-11.1919
ick	-11.1921
EH	-11.1922
▁On	-11.1925
▁conserver	-11.1928
▁documentaire	-11.1931
xi	-11.1937
canton	-11.1939
▁indiqués	-11.194
▁rejets	-11.1942
Morbihan	-11.1946
▁salariale	-11.1946
▁multiple	-11.1946
▁consultés	-11.1949
tou	-11.1952
Robin	-11.1952
▁ouvertes	-11.1964
EURS	-11.1964
abord	-11.1964
▁certaine	-11.1967
▁convoqués	-11.1969
7-3	-11.197
▁correspondante	-11.1972
▁problème	-11.1973
OUT	-11.1975
Orléans	-11.1986
▁Protocole	-11.1986
▁énumérées	-11.1986
entérologie	-11.2
▁collection	-11.2
obtenir	-11.2002
▁nette	-11.2002
laud	-11.2004
▁automobile	-11.2007
Tarn	-11.2012
▁Paragraphe	-11.2014
▁séquence	-11.2014
▁liberté	-11.2022
▁feuille	-11.2024
▁hydraulique	-11.2027
▁démissionnaire	-11.2028
▁bande	-11.203
▁226	-11.203
eg	-11.2032
José	-11.2036
CGT	-11.2042
pha	-11.2043
homme	-11.2044
▁Pend	-11.2046
2022	-11.2046
union	-11.2048
aise	-11.2049
échantillon	-11.2051
▁caractéris	-11.2051
▁1992	-11.2052
▁Bonn	-11.2054
▁indemnitaire	-11.2054
▁fraude	-11.2055
Didier	-11.2057
5-7	-11.2057
▁créances	-11.2058
▁cellule	-11.2063
▁HT	-11.2066
Myriam	-11.2068
▁strictement	-11.2068
▁211-1	-11.2069
▁abrogeant	-11.2069
IAN	-11.2074
exprim	-11.2075
▁apporter	-11.2075
▁engagées	-11.208
vit	-11.2081
▁électorale	-11.2081
▁spéciaux	-11.2082
▁cautionnement	-11.2082
région	-11.2084
équi	-11.2086
▁dû	-11.2091
▁passe	-11.2093
DER	-11.2095
rev	-11.2095
▁examiné	-11.2095
▁immobiliers	-11.2096
▁servi	-11.2096
▁traitées	-11.2098
olle	-11.2102
▁logis	-11.2109
▁hebdomadaire	-11.2109
END	-11.2113
Manuel	-11.212
SON	-11.2121
dier	-11.2129
▁évaluées	-11.2132
emprunt	-11.2133
▁contient	-11.2136
effort	-11.2137
DET	-11.2144
SIEC	-11.2144
épi	-11.2145
▁cultivées	-11.215
▁servitudes	-11.215
ROY	-11.2155
arc	-11.2156
exerce	-11.2157
▁suffisante	-11.2161
lieu	-11.2164
/2018-07-2	-11.2164
▁audiovisuelle	-11.2164
NAUD	-11.2165
index	-11.2166
▁exprimé	-11.2172
▁critère	-11.2174
▁démarches	-11.2175
lette	-11.2175
▁prononcer	-11.2176
▁Pau	-11.2176
Essonne	-11.2178
UP	-11.2186
▁prévision	-11.2191
▁préventive	-11.2191
▁citernes	-11.2193
«	-11.2197
rectorat	-11.2201
▁conserve	-11.2205
ORI	-11.2206
▁parvenir	-11.2207
gri	-11.2208
▁COU	-11.221
durable	-11.2211
▁saison	-11.2213
4-9	-11.2215
▁issu	-11.2216
▁Considérant	-11.2219
▁ventilation	-11.2219
▁variable	-11.2219
▁carrières	-11.2221
Conseil	-11.2225
▁assister	-11.2232
alternance	-11.2233
▁Chorus	-11.2233
▁TITRE	-11.2233
▁plaques	-11.2239
▁urbaine	-11.2242
▁Assesseur	-11.2247
▁Critère	-11.2247
Aurore	-11.2249
▁321-1	-11.226
▁Chantal	-11.2261
engager	-11.2264
extérieur	-11.2264
▁pluriannuelle	-11.2267
▁facilit	-11.2268
▁affectées	-11.2271
▁variation	-11.2275
▁vasculaire	-11.2287
dynamique	-11.2288
▁Fondation	-11.2288
quatre	-11.2296
IERE	-11.2303
atte	-11.2315
RAND	-11.2317
/2019-11-2	-11.2319
▁validée	-11.232
import	-11.2321
2.1	-11.2328
MONT	-11.2329
▁exécutoire	-11.233
▁sauvetage	-11.233
Amandine	-11.2331
esse	-11.2333
ssier	-11.2339
▁chômage	-11.2344
/2022-02-1	-11.2345
RN	-11.2347
▁impositions	-11.2348
▁capture	-11.2359
developpement	-11.2373
▁signataire	-11.2373
▁Gen	-11.2374
▁temporairement	-11.238
TZ	-11.2386
▁Créteil	-11.2387
▁naturalisation	-11.2387
▁réserviste	-11.2387
▁Puy	-11.2392
acteur	-11.2393
▁collaborateur	-11.2394
vigilance	-11.2401
▁médiateur	-11.2404
émie	-11.2405
▁GRA	-11.2405
▁puni	-11.2405
deux	-11.2408
gou	-11.2412
▁démocratique	-11.2415
▁432-13	-11.2415
Agathe	-11.2415
émetteur	-11.2427
▁meilleure	-11.2427
▁restitution	-11.2429
Calvados	-11.2429
▁fournies	-11.2432
▁remettre	-11.2433
hn	-11.2436
Aurélie	-11.2436
DES	-11.2438
▁décor	-11.2441
▁Marguerite	-11.2443
Magali	-11.2444
▁assimilé	-11.2445
Var	-11.2446
illé	-11.2449
▁désigner	-11.245
▁communiqué	-11.2451
CV	-11.2452
Gabriel	-11.2454
▁agrégé	-11.2457
▁formalités	-11.2457
▁marin	-11.2459
▁précisés	-11.2459
▁Ru	-11.2461
RAY	-11.2466
▁421	-11.2469
▁bulletins	-11.247
▁orthopédique	-11.2471
▁Programme	-11.2472
KO	-11.2474
▁couverts	-11.2481
acquérir	-11.2486
REAU	-11.2486
▁2241-5	-11.2487
▁All	-11.2495
▁contractant	-11.25
activation	-11.25
▁mélange	-11.25
anglais	-11.25
STA	-11.2501
alisation	-11.2501
▁compréhension	-11.2514
ROS	-11.2516
▁maintenue	-11.252
▁souhaitent	-11.2525
▁ophtalmologie	-11.2528
ING	-11.2528
▁révisé	-11.2532
▁professeure	-11.2532
▁141	-11.2539
atelier	-11.2541
/2019-06-2	-11.2543
▁PARIS	-11.256
▁rentrée	-11.2564
▁2020-523	-11.2571
▁cursus	-11.2571
▁archives	-11.2571
▁servant	-11.2571
SSON	-11.2575
▁ARMÉE	-11.2577
sociaux	-11.2584
Johan	-11.2585
▁Données	-11.2586
▁notice	-11.2586
▁exercée	-11.2587
▁formateurs	-11.2588
▁courante	-11.2594
Simon	-11.2599
▁remplit	-11.2605
▁dépassement	-11.2607
▁repérage	-11.2614
▁récapitulatif	-11.2614
▁neuvième	-11.2616
loy	-11.2616
▁sollicite	-11.2617
▁Compte	-11.2618
▁renouvelée	-11.2622
▁terrorisme	-11.2629
sseur	-11.2632
▁Fonction	-11.2643
affiliation	-11.2643
▁ouvrir	-11.2646
▁réputés	-11.2646
▁appropriées	-11.2647
Julia	-11.2647
▁importante	-11.2648
avocat	-11.2656
ONI	-11.267
inscrit	-11.2672
Assemblée	-11.2672
▁Objet	-11.2672
▁bénéficié	-11.2672
▁substitue	-11.2672
5.1	-11.2683
▁brute	-11.2684
▁consécutive	-11.2687
▁délégataire	-11.2687
▁marquage	-11.2687
▁centraux	-11.2687
▁diplomatiques	-11.2687
arrière	-11.2687
▁DANS	-11.269
NES	-11.2694
4-8	-11.2696
▁navigables	-11.2701
Emploi	-11.2701
▁Carole	-11.2711
ical	-11.2712
DIN	-11.2714
/2019-04-1	-11.2716
ESRS	-11.2719
HEN	-11.272
▁Rose	-11.2729
9-4	-11.2732
▁liquides	-11.2732
▁rattaché	-11.2734
chard	-11.2736
▁éventuelle	-11.2737
ôme	-11.2744
▁citoyen	-11.2745
▁conçu	-11.2745
▁présentés	-11.2753
▁empêch	-11.2754
▁gain	-11.2758
▁coopératives	-11.2763
▁diversité	-11.2765
▁spécialement	-11.2765
reux	-11.2767
élec	-11.2771
4.2	-11.2771
dio	-11.2774
▁requérante	-11.2774
▁adopté	-11.2779
▁restreinte	-11.279
▁privées	-11.2793
▁adoptée	-11.2798
▁spécifi	-11.2801
▁411-2	-11.2802
▁impérativement	-11.2803
▁remplissent	-11.2804
AMI	-11.2804
affecte	-11.2805
▁Ti	-11.2805
▁partenaire	-11.281
▁lauréats	-11.2811
.2.2.	-11.2812
argument	-11.2818
▁récolte	-11.2818
gny	-11.2821
TERB	-11.2827
▁manifeste	-11.2833
▁spatial	-11.2833
ANGE	-11.2836
▁planification	-11.2837
▁subir	-11.2841
/2018-08-0	-11.2847
avion	-11.2851
▁constate	-11.2851
▁remplace	-11.2855
▁adopte	-11.2856
▁déposées	-11.2858
▁Ko	-11.2861
▁Département	-11.2862
▁civique	-11.2862
VES	-11.2877
▁retenus	-11.2879
▁214-1	-11.2881
ettre	-11.2883
▁OFFICE	-11.2892
▁oncologie	-11.2892
/2022-06-1	-11.2892
▁renvoi	-11.2895
▁adolescents	-11.2895
▁respectent	-11.2896
▁précision	-11.2896
vient	-11.2899
▁recueilli	-11.2899
▁polluant	-11.2907
Meurthe	-11.2907
MENE	-11.2916
zon	-11.2917
▁transparence	-11.2921
/2019-03-2	-11.2921
▁Denise	-11.2925
▁FL	-11.2925
▁combustibles	-11.2928
▁régulière	-11.2931
▁irrecevable	-11.2936
▁sauvegarde	-11.2936
▁destruction	-11.2936
/2022-03-1	-11.2937
agir	-11.2938
praticien	-11.2941
olo	-11.2946
étape	-11.2948
tum	-11.2949
▁agronomique	-11.2951
ILLON	-11.2953
▁municipal	-11.2954
èche	-11.2963
CHET	-11.2967
▁Dup	-11.297
▁(4)	-11.2972
▁Jan	-11.2973
▁consacré	-11.2981
▁remplissant	-11.2981
gni	-11.2986
▁Trois	-11.2986
▁douanier	-11.2996
▁amiable	-11.2996
▁modéré	-11.3
▁souscrit	-11.3001
▁Font	-11.3001
▁Christiane	-11.3008
nutrition	-11.3009
III	-11.3009
▁72-3	-11.3009
Axel	-11.301
▁Méditerranée	-11.3011
écologie	-11.3012
tar	-11.3013
ème	-11.3015
▁351-1	-11.302
▁1977	-11.3024
▁déléguer	-11.3026
▁1997	-11.3027
▁préservation	-11.3041
stat	-11.3055
DDFIP	-11.3056
▁FORMATION	-11.3056
▁raccordé	-11.3056
affichage	-11.3071
▁combattants	-11.3071
▁neurologie	-11.3071
▁normal	-11.3074
ROUX	-11.3083
▁insaisissables	-11.3085
▁SOU	-11.3086
▁côté	-11.3086
▁MON	-11.3088
aéronautique	-11.3094
▁SAL	-11.31
▁Mission	-11.3101
▁fruits	-11.3102
▁victime	-11.3113
/2022-03-0	-11.3116
tribunaux	-11.3125
ECOI	-11.3127
ambi	-11.3132
/2018-01-1	-11.3132
char	-11.3136
ISSE	-11.3137
▁2.4.	-11.3137
▁apporté	-11.3139
éléments	-11.3141
▁vaccin	-11.3148
▁systémique	-11.3162
/2023-07-2	-11.3162
Armor	-11.3164
▁dixième	-11.3164
DIC	-11.3164
▁400	-11.3166
OZ	-11.3169
QUES	-11.317
recherche	-11.3171
opératoire	-11.3177
▁Signature	-11.3177
▁Syndicat	-11.3177
près	-11.3181
MANN	-11.3191
▁recevant	-11.3192
▁jugé	-11.3192
▁retenu	-11.3193
▁proposée	-11.3194
alli	-11.3202
ète	-11.3203
/2023-07-1	-11.3208
▁Pri	-11.3209
oma	-11.3212
uge	-11.3217
Terre	-11.3219
▁souscription	-11.3223
▁master	-11.3223
▁amené	-11.3224
ague	-11.3227
for	-11.3227
gy	-11.3229
▁complexe	-11.3238
▁spécifications	-11.3238
/2018-04-2	-11.3238
juridictionnelle	-11.3243
bro	-11.3246
▁permettra	-11.3247
▁dépendantes	-11.3254
priseur	-11.3254
vage	-11.3255
▁Cré	-11.3255
▁MOD	-11.3256
▁Que	-11.326
Sylvain	-11.3265
Lorraine	-11.3269
▁présidence	-11.3269
▁facturé	-11.3284
▁sauvage	-11.3284
ILLARD	-11.3296
insuffisance	-11.33
▁domestique	-11.33
▁débarquement	-11.33
▁suspendre	-11.3301
▁Fait	-11.3305
▁213-1	-11.3305
otte	-11.3306
entend	-11.3309
acompte	-11.3313
▁restent	-11.3314
agglomération	-11.3315
/2018-06-0	-11.333
▁723	-11.3331
▁337-	-11.3332
▁organes	-11.3336
▁débiteur	-11.3337
ALES	-11.3337
▁faute	-11.3338
adresser	-11.3341
▁162-3	-11.3343
équipage	-11.3344
ÉTAT	-11.3345
architecte	-11.3346
MENH	-11.3357
▁dérogatoire	-11.3361
/2022-05-1	-11.3362
▁caporal	-11.3362
▁formateur	-11.3367
▁Gro	-11.337
OST	-11.3374
▁syndicat	-11.3375
▁troupeau	-11.3376
/2018-03-2	-11.3377
▁stade	-11.3378
▁correspondent	-11.3385
▁automatiquement	-11.3386
▁substitut	-11.339
▁confiance	-11.3393
Grégory	-11.3393
UY	-11.3393
5-8	-11.3394
▁engagés	-11.34
Inès	-11.34
justice	-11.3407
nov	-11.341
▁bâti	-11.3418
/2018-11-2	-11.3424
▁Description	-11.3426
TEL	-11.3428
▁représentée	-11.3434
▁préavis	-11.3434
▁Bien	-11.3436
/2023-08-0	-11.3439
▁progressive	-11.3439
▁critique	-11.344
▁verte	-11.3441
▁règlementaires	-11.3442
logue	-11.3442
interface	-11.3445
▁cortico	-11.3455
▁occupe	-11.3455
▁gérer	-11.3455
▁pneumologie	-11.3455
▁remplaçant	-11.3455
annonce	-11.3456
▁dévolues	-11.3471
/2019-07-2	-11.3471
Jérémy	-11.3471
cadastr	-11.3471
▁mener	-11.3472
▁préparer	-11.3473
▁terrestres	-11.3479
▁feux	-11.3482
▁corrective	-11.3486
▁maintenir	-11.3486
▁nominative	-11.3486
laine	-11.3488
DEL	-11.3489
▁Et	-11.3495
avantage	-11.3496
▁821-1	-11.3501
▁Défense	-11.3502
session	-11.3504
▁positionnement	-11.3505
▁diagnostique	-11.3518
/2022-10-2	-11.3518
/2022-10-1	-11.352
▁milieux	-11.3524
Bains	-11.3525
009	-11.353
▁mettent	-11.3536
SAN	-11.3539
▁prescripteur	-11.3549
▁aspects	-11.355
▁avancée	-11.3563
audiovisuel	-11.3565
officine	-11.3565
/2023-04-2	-11.3565
▁large	-11.3566
▁assiste	-11.3567
TIQUE	-11.3567
▁Groupement	-11.3572
éclairage	-11.3581
▁intellectuelle	-11.3581
▁récépissé	-11.3581
▁convois	-11.3581
▁Pin	-11.3582
Doubs	-11.359
▁statutaire	-11.3594
insaisissabilité	-11.3597
▁énumérés	-11.3597
anu	-11.3598
Stéphanie	-11.36
Landes	-11.3602
▁carburant	-11.3613
autoroute	-11.3613
▁convoqué	-11.3617
ATIONS	-11.3621
▁volet	-11.3628
▁milliard	-11.3629
▁table	-11.3629
Micka	-11.363
▁mieux	-11.3633
zone	-11.3638
▁cible	-11.3639
associé	-11.3648
▁anticipée	-11.3652
William	-11.3661
Georges	-11.3665
Eva	-11.3669
FON	-11.3671
Blanc	-11.3671
interruption	-11.3677
▁suffisant	-11.368
titulaire	-11.368
ULT	-11.3688
expédition	-11.3693
▁recyclage	-11.3693
/2018-06-2	-11.3693
▁amont	-11.3697
▁JOU	-11.37
liste	-11.3704
rob	-11.3706
▁patrimonial	-11.3709
1-1-1	-11.371
cart	-11.3711
AMM	-11.3711
pique	-11.3724
/2019-03-0	-11.3725
▁Garantie	-11.3725
▁exploite	-11.3725
▁pédiatrique	-11.3725
▁600	-11.3736
▁afférent	-11.3736
BOU	-11.374
▁SCP	-11.3743
▁Franc	-11.3749
NARD	-11.3751
recrutement	-11.3751
▁Har	-11.3753
▁effectuant	-11.3757
kh	-11.3768
▁nettoyage	-11.3773
▁dirigé	-11.3773
▁mondial	-11.3773
▁PROFESSIONNEL	-11.3775
och	-11.3776
TRER	-11.378
▁perception	-11.3789
écran	-11.379
/2018-07-1	-11.379
excédent	-11.3791
0-4	-11.3795
Daniel	-11.3796
procureure	-11.3797
EDF	-11.3801
▁solliciter	-11.3803
▁vaccination	-11.3804
/2019-02-2	-11.3806
/2022-12-1	-11.3806
ITE	-11.3812
apprécie	-11.3814
antenne	-11.3816
nois	-11.3817
▁consultée	-11.3821
▁administré	-11.3822
▁bibliothèques	-11.3822
▁Contrat	-11.3822
▁TOU	-11.3827
▁engagée	-11.3827
▁Bro	-11.3828
▁Simone	-11.3831
▁justifiée	-11.3834
ECH	-11.3837
LIER	-11.3842
▁DISPOSITION	-11.3854
▁concourant	-11.3854
CQ	-11.3862
Hervé	-11.3862
▁traumatologique	-11.3871
▁conservateur	-11.3871
/2018-04-1	-11.3871
armateur	-11.3874
▁pertinentes	-11.3876
actualisation	-11.3879
▁1976	-11.3885
faire	-11.3887
▁PRÉ	-11.3898
▁Décision	-11.3903
▁mère	-11.3908
usager	-11.3915
Jeanne	-11.3916
▁Corn	-11.3917
▁donnent	-11.3918
▁distincte	-11.392
place	-11.3928
HER	-11.393
recrute	-11.3931
ueil	-11.3937
Laetitia	-11.3937
▁peu	-11.3942
▁1333-1	-11.3945
osa	-11.3947
▁délimité	-11.3953
▁volailles	-11.3953
▁faune	-11.3954
▁couvert	-11.3954
▁612-1	-11.3962
enseignant	-11.3962
Bertrand	-11.3962
Corse	-11.3962
▁énoncées	-11.3969
▁énergies	-11.397
▁chargement	-11.3979
/2018-03-0	-11.3986
▁maréchal	-11.3986
▁surveillant	-11.3986
enseigne	-11.3998
adhérent	-11.3999
▁certifiée	-11.4003
HAM	-11.4006
wi	-11.4008
▁intra	-11.4015
comp	-11.4016
▁3.1.	-11.4018
▁litige	-11.4019
▁suspendue	-11.4027
OUSSE	-11.4027
REL	-11.4034
▁téléchargement	-11.4035
▁grammes	-11.4041
astreinte	-11.4042
CCP	-11.4044
▁Maître	-11.4052
▁construit	-11.4052
Thibaut	-11.4052
▁tarification	-11.4052
21-4	-11.4057
SSAH	-11.406
ommercialisation	-11.4063
Fabrice	-11.4064
▁petite	-11.4064
animal	-11.4064
▁Substitute	-11.4065
gor	-11.4067
▁grâce	-11.4069
▁verser	-11.407
▁constitutionnel	-11.4073
▁écarts	-11.4075
▁copropriété	-11.4085
▁descriptif	-11.4085
▁respectant	-11.4092
VIN	-11.4092
ABA	-11.4095
BAUD	-11.4095
▁514	-11.4099
EPS	-11.4099
▁délibérant	-11.4102
Sarthe	-11.4102
éthique	-11.4102
/2018-12-1	-11.4103
▁gouvernement	-11.4106
▁conclure	-11.4114
▁créance	-11.4115
▁dénonciation	-11.4119
▁récupération	-11.4119
▁Annie	-11.412
EPE	-11.412
NEL	-11.4125
/2022-12-0	-11.4135
▁Catalogue	-11.4135
▁Hé	-11.4136
Morgane	-11.414
lum	-11.4146
Florence	-11.4149
Valérie	-11.4149
/2023-06-2	-11.4152
▁Personne	-11.4152
3.1	-11.4165
mal	-11.4168
▁condamnation	-11.4169
▁obtenue	-11.4171
▁adressent	-11.4177
vic	-11.4177
Dès	-11.4177
aidant	-11.4177
▁élevée	-11.4184
FRANCE	-11.4184
▁cargaison	-11.4186
▁correcte	-11.4186
▁consom	-11.4191
▁seulement	-11.4198
rich	-11.4198
ignon	-11.42
▁anime	-11.4212
▁clos	-11.4221
▁Certificat	-11.4222
zan	-11.4225
▁quotidienne	-11.4229
▁fédéral	-11.4237
▁commence	-11.4237
▁envisagé	-11.425
/2022-06-2	-11.4253
/2023-02-1	-11.4254
CEE	-11.4258
▁indirectement	-11.4259
Gu	-11.426
roux	-11.4262
chan	-11.4263
▁Cho	-11.427
Jonathan	-11.427
▁contestation	-11.427
instructeur	-11.427
Marianne	-11.4271
GUY	-11.4278
▁thème	-11.4286
▁choisir	-11.4298
neau	-11.4302
▁immunologie	-11.4304
▁ordinaire	-11.4304
extinction	-11.4305
▁dépasser	-11.4306
douane	-11.4307
▁311-1	-11.431
HAN	-11.431
iot	-11.432
▁confirmation	-11.4322
▁consolidé	-11.4322
injection	-11.4322
2021	-11.4322
sept	-11.4333
▁privée	-11.4337
▁plaisance	-11.4339
/2019-02-1	-11.4339
zé	-11.4339
▁tendant	-11.4341
LAT	-11.4342
vez	-11.4346
PAR	-11.4352
▁aptitudes	-11.4353
▁acquitté	-11.4356
▁pondéré	-11.4356
▁CLA	-11.4358
▁largeur	-11.4359
SAC	-11.4363
arri	-11.4371
évacuation	-11.4373
▁copropriétaire	-11.4373
Vendée	-11.4373
▁saisir	-11.4379
▁revers	-11.4381
▁Entre	-11.4384
▁desquels	-11.439
▁Professionnelle	-11.439
▁opéré	-11.439
▁virus	-11.439
Edouard	-11.4391
engagent	-11.4393
ographie	-11.4394
adri	-11.4396
▁postérieure	-11.4401
COURT	-11.4407
▁interarmées	-11.4407
▁teneur	-11.4408
illot	-11.4415
TAL	-11.4425
▁1962	-11.4428
HIER	-11.443
▁assortie	-11.4435
▁distribué	-11.4438
EIL	-11.4441
▁requête	-11.4443
▁coordonné	-11.4446
AIR	-11.4446
▁Pu	-11.445
▁BRA	-11.4455
▁usées	-11.446
▁Terres	-11.4463
NOU	-11.4464
▁culturelle	-11.4466
JUST	-11.4471
▁signalé	-11.4473
Bastien	-11.4477
▁parental	-11.4485
▁quart	-11.4488
▁Pér	-11.4493
▁aéroportuaire	-11.4494
▁prorogé	-11.4494
▁couronne	-11.4499
▁déterminant	-11.4511
▁gabarit	-11.4511
▁intégrant	-11.4511
▁positif	-11.4511
bb	-11.4517
▁SG	-11.4517
▁muni	-11.4519
Noémie	-11.4526
vité	-11.4527
▁banque	-11.4529
▁notion	-11.453
▁envisage	-11.4535
▁traiter	-11.4544
▁illicite	-11.4546
/2023-09-2	-11.4546
▁chaude	-11.4547
▁foyer	-11.4549
▁existantes	-11.4551
▁Bur	-11.4551
▁Bert	-11.4552
product	-11.4558
ENER	-11.4562
▁suffrages	-11.4564
thi	-11.4565
Auvergne	-11.4568
/2022-03-2	-11.4581
/2018-09-2	-11.4581
INTE	-11.4593
▁recueillies	-11.4597
conférence	-11.4599
▁libération	-11.4599
▁poursuivi	-11.4599
▁recto	-11.4605
onnier	-11.4606
▁exécutée	-11.4611
/2022-11-0	-11.4616
▁chimiothérapie	-11.4616
▁intensive	-11.4616
▁boissons	-11.4616
▁Ainsi	-11.4616
chant	-11.462
estimation	-11.4626
▁lecture	-11.4634
/2022-04-1	-11.4634
1.2	-11.4637
Guadeloupe	-11.464
▁construire	-11.4651
▁réservation	-11.4651
▁clientèle	-11.4653
commissaire	-11.4657
comptable	-11.4657
neur	-11.4658
ELLI	-11.4662
▁ARMÉES	-11.4662
▁mairie	-11.4663
▁transversale	-11.4669
entrepreneur	-11.4669
JO	-11.4679
Ange	-11.468
historique	-11.4684
▁remontée	-11.4687
▁souhaitant	-11.4691
▁National	-11.4691
territorialement	-11.4692
241-17	-11.4697
▁3.2.	-11.4698
/2022-04-0	-11.4705
/2023-02-0	-11.4705
kinésithérapeute	-11.4705
▁Système	-11.4705
gna	-11.4711
▁appropriée	-11.4715
Dôme	-11.472
/2018-02-2	-11.4722
sset	-11.4723
get	-11.4736
inclusion	-11.4739
/2019-01-2	-11.474
agriculteur	-11.474
▁contribuable	-11.474
▁pavillon	-11.474
ANNE	-11.4742
▁1970	-11.4744
ogne	-11.4747
vingt	-11.4748
▁prendra	-11.4751
▁Civile	-11.4756
/2023-03-0	-11.4758
▁fluvial	-11.4758
▁prévisible	-11.4758
▁déficit	-11.4758
Colomb	-11.4758
TY	-11.4761
STI	-11.4765
▁étudiante	-11.4768
océan	-11.4769
ctivité	-11.477
5.2	-11.4772
▁radioélectrique	-11.4776
▁Cergy	-11.4776
/2019-09-2	-11.4776
▁INTER	-11.4778
▁Heure	-11.478
employé	-11.4791
▁réparties	-11.4793
assainissement	-11.4794
introduction	-11.4794
▁renvoyé	-11.4794
▁dimanche	-11.4794
▁Ste	-11.4804
▁And	-11.4806
▁regroupement	-11.4812
ONE	-11.4812
▁notée	-11.4814
INTC	-11.4814
▁FOR	-11.4816
▁Maison	-11.482
▁avantages	-11.4824
SCH	-11.4826
ussi	-11.4828
INSCRIPTION	-11.483
▁curriculum	-11.483
▁indispensable	-11.483
Vaucluse	-11.483
▁pourrait	-11.4831
▁Numéro	-11.4848
▁vitae	-11.4848
▁nominale	-11.4848
▁Domaine	-11.4848
Ou	-11.4856
▁2.5.	-11.4858
▁introduit	-11.4866
▁Nadine	-11.4866
Drôme	-11.4866
/2018-05-1	-11.4866
▁alpin	-11.4866
▁ISO	-11.4867
▁ultérieure	-11.4877
▁aller	-11.4883
▁Chan	-11.4883
CFDT	-11.4884
▁expresse	-11.4884
▁infectieuse	-11.4884
▁Fabienne	-11.4884
NAV	-11.4886
Maine	-11.489
▁Gri	-11.489
IRE	-11.4899
teau	-11.4902
▁plage	-11.4907
hum	-11.4908
finances	-11.4913
Maur	-11.4918
▁sécurisation	-11.492
/2019-05-1	-11.492
Sabine	-11.4921
▁syndic	-11.4922
géographie	-11.4922
onique	-11.493
▁reconduit	-11.4938
▁télécopie	-11.4938
Vienne	-11.494
NER	-11.4941
suppléant	-11.4949
▁cardio	-11.4954
implant	-11.4955
/2019-11-0	-11.4956
exactitude	-11.4956
▁Arcueil	-11.4956
▁verticales	-11.4956
▁augmenté	-11.4956
▁prospective	-11.4957
▁couvre	-11.4965
▁cardiaque	-11.4974
▁défaillance	-11.4974
▁latérales	-11.4974
▁recevabilité	-11.4974
▁1971	-11.4975
▁Médecine	-11.4985
2.2	-11.4988
▁Coefficient	-11.4993
▁navigabilité	-11.4993
REY	-11.4994
360	-11.4995
▁métropolitain	-11.4995
▁payer	-11.5011
▁cyber	-11.5011
▁résidentiel	-11.5012
hom	-11.5013
▁Guer	-11.5014
▁universel	-11.5017
ouge	-11.5023
▁figurer	-11.5028
acquitte	-11.5029
▁constitutif	-11.5029
▁francs	-11.503
▁réflexion	-11.5048
▁substantielle	-11.5061
▁auteurs	-11.5062
authentification	-11.5066
▁2016/679	-11.5066
RIT	-11.5068
▁cédé	-11.5071
▁principalement	-11.5075
arra	-11.5081
▁Pal	-11.5083
/2019-08-0	-11.5084
▁souterrain	-11.5084
▁standardisée	-11.5085
TRAT	-11.5087
utiliser	-11.51
MARCH	-11.5102
énoncé	-11.5103
/2018-12-0	-11.5103
▁indéterminée	-11.5103
édition	-11.5103
GUER	-11.5106
▁souhait	-11.511
DRH	-11.5113
illac	-11.5117
Joseph	-11.5118
▁devenue	-11.5121
▁dermatologie	-11.5121
▁perspective	-11.5121
▁représenté	-11.5122
/2018-02-1	-11.5122
▁annulés	-11.514
▁digestive	-11.514
Renan	-11.5141
▁biais	-11.5142
▁répondent	-11.5146
DIER	-11.5148
ock	-11.5151
▁CCH	-11.5151
▁socle	-11.5159
▁substitution	-11.516
▁minier	-11.516
▁couple	-11.5173
▁Ol	-11.5174
▁détenir	-11.5177
▁légumes	-11.5177
▁instruit	-11.5177
▁journalier	-11.5183
▁postérieurement	-11.5184
▁transit	-11.5186
▁indirecte	-11.5187
iana	-11.5189
▁immédiate	-11.519
▁adéquat	-11.5194
/2018-05-2	-11.5196
▁Blessé	-11.5196
▁Huissiers	-11.5197
▁conviennent	-11.5199
dine	-11.5201
▁bleu	-11.5201
TRAA	-11.5203
ordonnancement	-11.5209
▁Montant	-11.5209
IRA	-11.5213
/2019-06-0	-11.5214
/2022-02-0	-11.5214
▁développé	-11.5214
▁littoral	-11.5214
▁résistance	-11.5214
▁Référentiel	-11.5214
▁financée	-11.5215
▁compatible	-11.5228
/2019-05-2	-11.5233
▁téléservice	-11.5234
TOIRE	-11.5236
ssez	-11.5239
pou	-11.5241
MET	-11.5248
assemblage	-11.5252
hélicoptère	-11.5252
▁certifie	-11.5252
▁remplies	-11.5257
▁THI	-11.5258
anomalie	-11.5267
▁hybride	-11.527
▁possède	-11.527
▁monothérapie	-11.5271
▁pont	-11.5272
▁retirée	-11.5274
-679	-11.5284
ROT	-11.5284
accompagne	-11.5285
▁225-1	-11.5288
/2019-09-1	-11.529
/2019-01-1	-11.529
Lisa	-11.5291
▁classifiées	-11.53
plan	-11.5305
aoui	-11.5308
/2022-01-2	-11.5308
▁multiplié	-11.5308
▁visible	-11.5309
▁condamnée	-11.5309
▁âgé	-11.531
OLLE	-11.532
LOG	-11.5323
indépendance	-11.5327
▁corvette	-11.5327
▁démonstration	-11.5327
▁violences	-11.5327
affaire	-11.5327
/2018-03-1	-11.5327
Marseille	-11.5328
attache	-11.5329
èvre	-11.5338
Champagne	-11.534
▁1973	-11.5342
/2023-12-0	-11.5346
▁hébergé	-11.5346
▁dangereux	-11.5347
▁Cayenne	-11.5365
▁suspendu	-11.5365
▁nautique	-11.5366
économique	-11.5366
▁chasseurs	-11.5366
▁2027	-11.5373
ICI	-11.5373
▁jeu	-11.5374
édé	-11.5377
/2022-07-0	-11.5384
▁associative	-11.5384
▁ruraux	-11.5384
/2022-08-1	-11.5384
EFF	-11.5386
adj	-11.5395
▁familial	-11.5398
▁Gué	-11.5399
▁Cro	-11.54
/2023-10-2	-11.5403
policier	-11.5403
Creuse	-11.5416
▁BEAU	-11.5421
IRM	-11.5421
▁Sociale	-11.5422
▁prélevé	-11.5422
/2023-05-2	-11.5422
▁162-22-6	-11.5422
TAN	-11.5423
Laurence	-11.5424
Nathan	-11.5427
▁contr	-11.5428
▁6124-	-11.5428
SSAP	-11.544
▁manœuvre	-11.5441
▁chien	-11.5447
▁Règle	-11.5455
▁actuelle	-11.5455
▁BAL	-11.5457
Augustin	-11.546
▁prorata	-11.546
▁australes	-11.546
Pas	-11.5477
/2019-12-0	-11.5479
▁octroyé	-11.5479
▁possession	-11.5479
▁siéger	-11.5479
▁franco	-11.5479
▁passeport	-11.548
▁publie	-11.548
▁adhérents	-11.5483
▁alloué	-11.5489
▁212-1	-11.5493
/2018-08-2	-11.5498
▁créancier	-11.5498
▁MENTION	-11.5498
/2022-07-1	-11.5499
conseil	-11.5502
▁mort	-11.5506
verbaux	-11.5518
▁Communauté	-11.5518
▁innovant	-11.5518
▁apparaître	-11.552
▁Chargé	-11.552
RAEP	-11.5526
▁académies	-11.5534
/2019-07-0	-11.5537
▁Evaluation	-11.5537
/2023-11-2	-11.5537
▁détient	-11.5537
▁541-10	-11.5541
corps	-11.5542
8-4	-11.5544
▁Plu	-11.5555
original	-11.5556
/2023-06-1	-11.5557
UGA	-11.5558
▁Hou	-11.5559
▁méthodologie	-11.5575
▁causé	-11.5576
▁messagerie	-11.5577
azi	-11.5577
rive	-11.558
▁48°	-11.5583
▁déclass	-11.5591
.2.3.	-11.5594
FranceAgriMer	-11.5595
▁Analyse	-11.5595
▁ambassadeur	-11.5595
annulation	-11.5595
▁muté	-11.5595
/2023-12-1	-11.5597
améliorer	-11.5601
▁Dela	-11.5602
▁éventuel	-11.5607
pierre	-11.5617
Aube	-11.5617
6-7	-11.5625
▁municipale	-11.5631
▁fondée	-11.5634
▁douzième	-11.5634
▁interrompu	-11.5634
▁photographie	-11.5634
▁zéro	-11.5634
Corentin	-11.5634
▁Colette	-11.5635
Lucile	-11.5636
Virginie	-11.5641
Alex	-11.5651
▁643	-11.5653
▁promulgation	-11.5653
INSEE	-11.5653
▁gérant	-11.5653
▁clés	-11.5654
▁fournie	-11.5672
hospice	-11.5673
▁recourir	-11.5673
SSAR	-11.5676
Clémentine	-11.5677
▁pouss	-11.5677
Christel	-11.5683
▁prolongée	-11.5684
▁motivé	-11.5691
▁complétant	-11.5692
/2019-06-1	-11.5693
▁Brun	-11.5694
étendue	-11.5701
logie	-11.5708
accomplir	-11.5715
iche	-11.5718
OTTE	-11.5719
▁1963	-11.573
Alsace	-11.5732
▁2241-8	-11.5732
▁Eugène	-11.5732
education	-11.5732
allemand	-11.5732
.3.1.	-11.5738
»	-11.574
▁posé	-11.5747
▁supplément	-11.5749
/2018-02-0	-11.5751
excédant	-11.5751
/2019-10-1	-11.5753
▁jeune	-11.5757
ologue	-11.5758
▁renseigne	-11.5767
/2019-04-0	-11.5771
▁Nîmes	-11.5771
adéquation	-11.5773
▁difficulté	-11.5774
▁634	-11.5788
accessoire	-11.5788
▁reçues	-11.5788
ACTIVITÉ	-11.5791
Margot	-11.5791
▁directoire	-11.5792
▁aigu	-11.5806
Alix	-11.5809
▁confirme	-11.5811
▁Base	-11.5812
IST	-11.5813
Cyr	-11.5814
▁Dom	-11.5823
▁alternatives	-11.583
▁antarctiques	-11.583
▁commerciaux	-11.583
▁covid	-11.583
▁portuaire	-11.583
▁RÉPUBLIQUE	-11.583
Aisne	-11.5831
▁POU	-11.584
▁gazeux	-11.584
NAT	-11.5847
Euro	-11.5849
internationales	-11.5849
▁inadéquate	-11.585
▁ionisants	-11.585
▁batterie	-11.585
▁questionnaire	-11.5851
▁chevalier	-11.5851
▁convient	-11.5852
appartenance	-11.587
▁unilatérale	-11.587
▁Mobilité	-11.5871
▁SOUS	-11.5872
▁1975	-11.5876
active	-11.5884
▁recouvré	-11.589
/2019-02-0	-11.589
▁impliqué	-11.589
▁inclut	-11.589
▁Assurer	-11.589
▁vacation	-11.589
▁réutilisation	-11.5891
Emmanuelle	-11.5895
aucune	-11.5902
LLES	-11.5904
▁Conseiller	-11.5909
▁parentale	-11.5909
BOUR	-11.591
/2023-10-1	-11.5911
▁couvrir	-11.5913
ECON	-11.5916
issi	-11.5919
TREP	-11.592
odontologie	-11.593
▁pratiquant	-11.593
▁psychologique	-11.593
/2019-08-2	-11.593
▁change	-11.5933
▁CHAU	-11.5941
animaux	-11.5943
▁modérée	-11.5945
▁autoriser	-11.595
▁pompe	-11.595
▁DIPL	-11.5951
/2023-01-1	-11.5951
Vallée	-11.5954
▁Selon	-11.5955
▁Pan	-11.5966
chy	-11.5967
CPTP	-11.597
emprisonnement	-11.597
▁Bpifrance	-11.597
▁provenance	-11.597
/2023-03-2	-11.597
▁définitivement	-11.5971
/2022-11-2	-11.5973
▁Celle	-11.5976
ambassade	-11.599
/2019-10-0	-11.5991
▁calendaire	-11.5991
▁intégralement	-11.5991
▁conditionnement	-11.5994
CON	-11.5994
▁123-2	-11.5996
/2023-06-0	-11.6011
Gauthier	-11.6011
▁NOTARIAL	-11.6011
▁attendre	-11.6011
▁observé	-11.6011
▁réalisant	-11.6011
▁rétention	-11.6011
Orientales	-11.6011
exposé	-11.6025
▁mobilisation	-11.6031
▁tension	-11.6031
▁médias	-11.6032
▁investi	-11.6046
gouvernementale	-11.6046
▁mobilisé	-11.6051
▁approuvant	-11.6051
▁délibérative	-11.6051
emprise	-11.6051
▁montr	-11.6054
▁toléré	-11.6072
FOUR	-11.6072
▁livré	-11.6074
▁carré	-11.6078
▁attribu	-11.6086
▁Villeneuve	-11.6092
▁contemporain	-11.6092
▁remboursé	-11.6092
/2022-10-0	-11.6092
▁perçus	-11.6092
▁revalorisation	-11.6092
impression	-11.6093
▁Rochelle	-11.6096
existe	-11.6108
alcool	-11.6112
▁Général	-11.6112
/2023-07-0	-11.6112
▁Produits	-11.6112
▁froid	-11.6112
Jura	-11.6115
OCH	-11.6118
amortissement	-11.6133
▁Celui	-11.6133
▁Claudine	-11.6133
▁Présentation	-11.6133
▁imputable	-11.6133
▁prorogation	-11.6133
Yvette	-11.6133
▁cinéma	-11.6133
/2018-10-1	-11.6134
7-4	-11.6135
▁CAG	-11.6136
1.3	-11.6144
uelle	-11.6148
ADI	-11.6149
▁téléphonique	-11.6153
▁NSF	-11.6153
▁photocopie	-11.6153
rhino	-11.6154
▁Demande	-11.6154
▁TERRE	-11.6156
UCH	-11.6171
▁aquatique	-11.6174
▁inutile	-11.6174
▁reversement	-11.6175
▁Poste	-11.618
CHARD	-11.6186
▁GAU	-11.6189
▁librement	-11.6194
▁Séverine	-11.6194
▁sensibilisation	-11.6194
▁implique	-11.6194
asso	-11.6207
▁souscrite	-11.6208
/2018-07-0	-11.6215
Félix	-11.6215
▁Henry	-11.6215
▁corrigé	-11.6215
▁dépose	-11.6219
▁6232-1	-11.622
CCI	-11.622
▁pacte	-11.6228
Ville	-11.6232
intégrer	-11.6236
▁plénière	-11.6236
▁synthétique	-11.6236
jonction	-11.6236
▁Thé	-11.6236
/2023-11-1	-11.6237
▁collaboration	-11.624
▁justifié	-11.6241
Art	-11.6247
jan	-11.6247
▁242-7	-11.6248
Delphine	-11.6255
▁constructeur	-11.6256
▁municipaux	-11.6256
▁planning	-11.6256
▁recense	-11.6256
▁1972	-11.6259
jour	-11.6269
▁analyser	-11.627
▁Financement	-11.6277
▁Gustave	-11.6277
▁comparaison	-11.6277
Pontoise	-11.6277
ref	-11.6282
ling	-11.6285
▁stable	-11.6299
▁Musée	-11.6299
ssac	-11.6301
▁consommateur	-11.631
examinateur	-11.6316
lieutenant	-11.6318
▁précoce	-11.6319
▁postérieur	-11.632
▁mineure	-11.6322
citerne	-11.6338
▁collectées	-11.634
▁siégeant	-11.634
▁identifie	-11.634
RAUD	-11.635
▁levée	-11.6352
BRO	-11.6355
.1.3.	-11.6359
▁chaîne	-11.6361
▁mécanicien	-11.6361
▁gravité	-11.6361
▁Bastia	-11.6361
/2019-10-2	-11.6361
▁installée	-11.6364
▁Boul	-11.6364
▁123-1	-11.6365
Orient	-11.637
HAL	-11.6375
▁identifié	-11.6381
diabétologie	-11.6382
▁CGIAR	-11.6382
▁expressément	-11.6382
▁BTS	-11.6384
▁masseur	-11.6386
opter	-11.6387
▁soumet	-11.6388
▁résultent	-11.6393
Just	-11.6396
ordonner	-11.6402
SPOV	-11.6403
▁légaux	-11.6403
imprimer	-11.6403
▁Elément	-11.6403
/2019-03-1	-11.6403
informer	-11.6406
CHON	-11.6409
▁médi	-11.6415
▁Somme	-11.6416
affilié	-11.6421
▁Organismes	-11.6424
▁samedi	-11.6424
/2023-03-1	-11.6424
▁organisationnel	-11.6439
long	-11.6442
ALIS	-11.6444
évènement	-11.6445
▁combiné	-11.6445
▁promouvoir	-11.6445
▁viscérale	-11.6445
entreposage	-11.6445
Dordogne	-11.6445
écrivant	-11.6445
▁proportionnelle	-11.6446
▁immatriculée	-11.6446
▁auxiliaires	-11.6447
Solène	-11.6458
temps	-11.646
▁appréciée	-11.646
▁Etre	-11.6463
▁métallurgiques	-11.6466
Constance	-11.6466
▁joueur	-11.6467
▁0,5	-11.6475
▁bénévole	-11.6487
Sèvres	-11.6488
▁5126-6	-11.6508
▁prudentiel	-11.6508
▁soldat	-11.6508
▁emprunts	-11.6513
▁exclusive	-11.6524
▁(5)	-11.6525
▁lots	-11.6526
avec	-11.6529
Observatoire	-11.653
▁petits	-11.653
▁soumettre	-11.653
métrie	-11.6531
▁aspirants	-11.6532
/2022-11-1	-11.6537
IVIER	-11.6537
bach	-11.6538
▁générateur	-11.6548
▁différé	-11.6551
▁trajet	-11.6551
▁téléchargeable	-11.6551
▁Droit	-11.6551
▁TRANS	-11.6551
erreur	-11.6558
6-8	-11.656
▁GIP	-11.6567
▁DEMANDE	-11.6567
Russie	-11.657
/2022-02-2	-11.6572
arbitrage	-11.6572
immigration	-11.6572
▁éliminatoire	-11.6572
enceinte	-11.6573
▁examine	-11.6573
accepte	-11.6574
portions	-11.6575
▁GALL	-11.6581
étiques	-11.6582
AYE	-11.6586
▁coordonner	-11.6587
▁subordonné	-11.6588
hôtel	-11.6594
▁préparé	-11.6594
1-3-1	-11.6595
▁Niveau	-11.6599
install	-11.6611
AST	-11.6613
JUSK	-11.6615
/2023-04-0	-11.6615
▁portefeuille	-11.6615
▁examinateurs	-11.6618
▁communiquent	-11.6627
▁facteur	-11.6636
▁fondamentaux	-11.6637
▁monnaie	-11.6637
/2019-04-2	-11.6637
▁Gabrielle	-11.6648
▁analytique	-11.6658
▁confirmé	-11.6658
▁endocrinologie	-11.6658
▁plainte	-11.6658
▁quelconque	-11.6658
TRET	-11.6663
▁4.1.	-11.667
▁Procédure	-11.668
▁envoyer	-11.668
Sud	-11.6683
rian	-11.6685
méthyl	-11.6686
Maroc	-11.6693
▁CODE	-11.67
▁rejetée	-11.6701
▁problématique	-11.6701
▁quorum	-11.6701
professionnalisé	-11.6701
▁fabriqu	-11.6701
▁listés	-11.6702
▁docteur	-11.6702
▁Flo	-11.6708
▁Berg	-11.6713
appuyant	-11.6723
▁Opération	-11.6723
▁couvrant	-11.6723
Accord	-11.6731
lière	-11.6734
▁explicite	-11.6734
▁Option	-11.6745
▁Qualité	-11.6747
▁métaux	-11.675
invite	-11.6753
▁KER	-11.6757
examiner	-11.6766
▁comptabilisé	-11.6767
▁modulation	-11.6767
▁consistant	-11.6767
▁Danielle	-11.677
euf	-11.6776
▁Nations	-11.6787
▁chancelier	-11.6788
▁percevoir	-11.6788
▁précédé	-11.6788
▁spécificités	-11.6788
▁bruit	-11.6788
▁34009	-11.679
chaussée	-11.681
▁dépouillement	-11.681
▁SIREN	-11.681
hiver	-11.6814
voy	-11.6818
ièvre	-11.682
ignan	-11.6821
▁Nanterre	-11.6832
▁consolidation	-11.6832
▁notation	-11.6833
Allier	-11.6847
▁014	-11.6849
▁vénéréologie	-11.6854
/2018-06-1	-11.6855
▁rhumatologie	-11.6876
azote	-11.6876
▁potentielle	-11.6882
▁journal	-11.6886
Force	-11.6888
▁ENTRE	-11.6892
▁visuelle	-11.6894
▁ratio	-11.6897
▁diligence	-11.6898
/2018-01-2	-11.6898
/2023-01-2	-11.6898
▁montage	-11.6899
BAN	-11.6905
▁CAST	-11.6912
connect	-11.6916
/2022-09-0	-11.692
épisode	-11.692
▁douanière	-11.692
▁délibère	-11.692
attractivité	-11.692
▁urgent	-11.692
▁négatif	-11.6921
▁télétravail	-11.6921
▁rayon	-11.6921
TAR	-11.6929
Guyane	-11.6932
▁essentielles	-11.6943
▁francisation	-11.6943
▁Projet	-11.6943
▁SIRET	-11.6944
Abdel	-11.6945
▁verre	-11.6945
Elsa	-11.696
▁COLL	-11.6964
EAUX	-11.6964
▁républicaine	-11.6965
▁significatif	-11.6965
▁84-16	-11.6967
système	-11.6977
▁reprend	-11.6979
5349	-11.6982
▁PDF	-11.6987
▁Palais	-11.6989
▁collégiale	-11.6994
AISE	-11.6997
▁concevoir	-11.7009
▁prépondérante	-11.7009
▁reproduction	-11.7009
COFRAC	-11.7009
▁soin	-11.7011
▁historiques	-11.7013
Sylvie	-11.7023
▁scénario	-11.7032
▁comparable	-11.7032
▁viande	-11.7032
▁marge	-11.7033
▁répét	-11.7034
▁mobiliser	-11.705
▁absolue	-11.7054
▁constant	-11.7054
▁substance	-11.7057
▁recharge	-11.7058
▁Basse	-11.7063
/2022-08-0	-11.7067
▁Concessionnaire	-11.7077
▁compatibilité	-11.7077
▁incompatible	-11.7077
Ardèche	-11.7077
pdf	-11.7077
▁léger	-11.7078
▁Chirurgie	-11.7099
▁chèque	-11.7099
▁criminelle	-11.7099
▁façade	-11.7099
▁ratification	-11.7099
▁BERNARD	-11.71
▁Armand	-11.7102
PIERRE	-11.7111
coefficient	-11.7114
AMF	-11.7114
attester	-11.7116
▁balisage	-11.7122
▁listées	-11.7122
▁urgences	-11.7132
▁tissu	-11.7135
indiqué	-11.7137
▁BELL	-11.714
▁idiopathique	-11.7144
▁navale	-11.7145
▁trace	-11.7147
▁établissent	-11.715
TOUR	-11.7155
amendement	-11.716
▁laitière	-11.716
▁légère	-11.7168
élaborer	-11.7168
▁New	-11.7171
▁intègre	-11.7175
▁Arch	-11.7175
▁Identification	-11.719
▁cervico	-11.719
▁dégagement	-11.719
/2018-10-2	-11.719
IFICATION	-11.719
Mayenne	-11.719
/2023-08-1	-11.7191
▁saisit	-11.7201
Cass	-11.7207
▁Pap	-11.7208
▁Douai	-11.7214
▁extra	-11.722
▁majeur	-11.7223
▁individualisé	-11.7235
▁mérite	-11.7235
▁MINIST	-11.7236
▁formuler	-11.724
amine	-11.7242
▁CONTR	-11.7257
/2023-11-0	-11.7258
▁Dispositif	-11.7258
▁prévoient	-11.7258
▁perçue	-11.7264
Yonne	-11.7265
encadrer	-11.7272
21-8	-11.7273
laryngologie	-11.7281
▁succès	-11.7281
ARMM	-11.7281
▁Généralités	-11.7281
▁kW	-11.7294
Maurice	-11.73
suffisamment	-11.73
▁Bernadette	-11.7304
▁touristique	-11.7304
MAND	-11.7304
▁stabilité	-11.7304
▁clairement	-11.7308
▁411-1	-11.7319
press	-11.7319
sécurité	-11.7324
▁précède	-11.7327
▁Compétences	-11.7327
▁diplômé	-11.7327
▁défavorable	-11.7327
▁exigible	-11.7327
▁remplissage	-11.7327
▁sexuelle	-11.7327
diplomatie	-11.7327
/2023-05-1	-11.7328
▁remplacer	-11.7331
▁déconcentré	-11.7334
œu	-11.7337
▁Natura	-11.735
Vosges	-11.735
▁Qui	-11.7357
Diane	-11.7358
éron	-11.7362
appendice	-11.7374
▁quinquies	-11.7374
▁supervision	-11.7374
▁végétaux	-11.7374
▁94749	-11.7374
Orne	-11.7378
▁dématérialisé	-11.7384
investigation	-11.7394
78-17	-11.7397
Joséphine	-11.7397
▁rectificative	-11.7397
▁artisanale	-11.7397
▁bordereau	-11.7397
▁prolonge	-11.7398
bal	-11.7399
roche	-11.7417
construction	-11.7418
éditeur	-11.7418
izi	-11.7419
Stanislas	-11.742
abandon	-11.742
Guy	-11.7421
oiseaux	-11.7424
EMBRE	-11.7425
▁additionnel	-11.7425
▁Prise	-11.7431
▁6325	-11.7432
bio	-11.744
intention	-11.7442
▁conservatoire	-11.7443
▁pétrolier	-11.7443
▁vitale	-11.7443
▁motorisé	-11.7443
OYER	-11.7463
agisse	-11.7463
ouvrier	-11.7465
▁Prévention	-11.7467
▁affectant	-11.7467
▁concédant	-11.7467
▁trajectoire	-11.7467
influence	-11.7467
▁isolé	-11.7467
▁délit	-11.7467
▁géotechnique	-11.7467
▁ciblée	-11.7467
/2018-11-1	-11.7468
▁détenu	-11.748
notamment	-11.749
Administration	-11.749
▁hiérarchie	-11.749
▁libéraux	-11.749
/2023-02-2	-11.749
Coralie	-11.749
▁visuel	-11.7496
▁admissible	-11.75
▁km	-11.7502
/2022-06-0	-11.7514
▁RÉFÉRENTIEL	-11.7514
▁capitaux	-11.7514
▁Yvonne	-11.7514
▁combat	-11.7514
▁maternel	-11.7514
Tristan	-11.7519
moteur	-11.7523
▁BLANC	-11.7525
▁repas	-11.7534
▁magasin	-11.7537
▁modificative	-11.7537
▁trimestriel	-11.7537
▁parlementaire	-11.7538
▁incorpor	-11.7539
▁assorti	-11.7546
▁recouvre	-11.7555
INO	-11.756
gard	-11.756
▁agroalimentaire	-11.7561
▁flottant	-11.7561
▁télépilote	-11.7561
▁minoré	-11.7561
▁affiliés	-11.7564
modalit	-11.7565
interlocuteur	-11.7584
▁fréquent	-11.7584
GOUVERNEMENT	-11.7584
▁Annick	-11.7584
▁linguistique	-11.7584
▁mobilier	-11.7584
▁confier	-11.7584
chauffe	-11.7585
▁classifié	-11.7594
▁réquisition	-11.7608
▁nordique	-11.7608
▁SANTÉ	-11.7608
▁SPÉCIALITÉ	-11.7608
Malo	-11.7615
kWh	-11.7622
▁recueillir	-11.7626
▁(75)	-11.7628
ssan	-11.763
▁interfère	-11.7632
▁Région	-11.7632
▁locative	-11.7632
▁financer	-11.7632
Ardenne	-11.7634
▁PROFESSIONNELLE	-11.7634
▁vacant	-11.7644
▁traite	-11.7652
nouvellement	-11.7654
▁offert	-11.7654
▁compétition	-11.7656
▁fuite	-11.7656
/2019-11-1	-11.7663
▁ressortissant	-11.7669
Ambassade	-11.7679
archéologie	-11.7679
▁multilatéral	-11.7679
▁pratiqué	-11.7679
/2022-09-2	-11.7679
Brice	-11.768
animateur	-11.768
▁Réalisation	-11.768
interne	-11.7684
▁institutionnel	-11.7686
IGNE	-11.7687
oncernant	-11.7699
▁421-1	-11.7703
autoconsommation	-11.7703
isolation	-11.7703
Sandrine	-11.7707
GON	-11.7716
nombre	-11.7718
entraîne	-11.7727
▁artificielle	-11.7727
▁représentatif	-11.7727
▁Adjoint	-11.7727
▁Situation	-11.7727
/2009	-11.7728
amiral	-11.7728
Alexia	-11.7738
exercent	-11.774
▁Enfin	-11.774
range	-11.7745
▁OFFICIERS	-11.7751
GLEMENT	-11.7751
Kévin	-11.7752
/2008	-11.7752
▁Forme	-11.7756
intervalle	-11.7758
carb	-11.7761
▁voirie	-11.7767
exécuter	-11.7771
/2018-11-0	-11.7775
filtrage	-11.7775
▁perçoit	-11.7775
Vanessa	-11.7776
▁tracé	-11.7776
▁macro	-11.7778
▁reportée	-11.7792
interopérabilité	-11.78
▁valorisé	-11.78
▁radioactives	-11.78
▁Villa	-11.7802
▁GRAND	-11.7808
▁développe	-11.782
IGP	-11.7823
▁CNPMEM	-11.7824
▁Gascogne	-11.7824
▁Production	-11.7824
▁RELATIVE	-11.7824
▁Chapelle	-11.7824
alpinisme	-11.7824
▁échantillons	-11.7829
identifiant	-11.783
▁zonal	-11.783
/2023-08-2	-11.7848
ÉDUCATION	-11.7848
▁Méthode	-11.7848
▁prétendre	-11.7848
échantillonnage	-11.7849
▁investigations	-11.7851
Liban	-11.7862
TRO	-11.787
Installation	-11.7872
▁embarqué	-11.7872
▁respiratoire	-11.7872
▁MICHEL	-11.7873
ack	-11.7875
hem	-11.7877
▁Merc	-11.7879
République	-11.7879
▁6323-1	-11.788
▁garantit	-11.7883
IDE	-11.7886
▁systématique	-11.789
▁contravention	-11.7897
▁traduction	-11.7897
▁Antilles	-11.7897
▁ressource	-11.7913
infirmière	-11.7921
▁Principauté	-11.7921
▁aménagé	-11.7921
▁exécutif	-11.7921
▁tiennent	-11.7946
rectificatif	-11.7946
▁troupeaux	-11.7947
▁contrôleuse	-11.7949
thy	-11.7959
entendent	-11.7962
▁parallèle	-11.797
affection	-11.797
artisan	-11.7971
copie	-11.7979
Véronique	-11.7979
▁Diplôme	-11.7995
▁brigadier	-11.7995
▁incombe	-11.7995
/2023-04-1	-11.7995
Annexe	-11.8004
cachet	-11.8007
cteurs	-11.8009
▁formalis	-11.8018
abrogation	-11.802
▁cohérent	-11.802
▁onzième	-11.802
▁professorat	-11.802
▁reclassement	-11.802
Erwan	-11.802
/2022-01-1	-11.802
compte	-11.8023
▁confort	-11.8024
CIEM	-11.8026
organisateur	-11.803
efficience	-11.8044
▁Capitaine	-11.8044
▁télécharger	-11.8044
▁électronicien	-11.8044
assa	-11.806
▁représentative	-11.8063
Grand	-11.8064
▁manutention	-11.8069
soignant	-11.8069
▁équivalences	-11.8075
▁émana	-11.8082
/2022-08-2	-11.8094
▁fluide	-11.8094
▁PETIT	-11.8094
ROM	-11.8098
▁XVI	-11.81
LAIN	-11.81
HON	-11.8102
Nadia	-11.8108
▁prêtés	-11.8113
Rachel	-11.8114
ommissariat	-11.8115
Jacq	-11.8118
▁DIRECTION	-11.8119
▁opposable	-11.8119
▁Mireille	-11.8119
▁transfér	-11.8129
dentaire	-11.8131
Barbara	-11.8139
▁renouve	-11.8143
▁métallique	-11.8144
▁néphrologie	-11.8144
▁Bell	-11.8151
▁contenir	-11.8169
▁respectifs	-11.8174
Eugénie	-11.8194
▁EMPLOIS	-11.8194
▁licenciement	-11.8194
▁sujétion	-11.8194
▁Gaston	-11.8194
▁prothèse	-11.8196
communication	-11.8207
▁GÉNÉRALE	-11.8207
▁restreint	-11.8218
▁considère	-11.8219
▁imposable	-11.8219
/2019-08-1	-11.822
PLAN	-11.8224
ssement	-11.8229
UFF	-11.8229
▁tend	-11.8236
▁Notarial	-11.8245
▁déclenche	-11.8245
▁impliquant	-11.8245
▁traduit	-11.8245
▁moniteur	-11.8245
interprété	-11.8245
arthrite	-11.8245
▁généré	-11.8247
pression	-11.8263
neuf	-11.8263
/2019-09-0	-11.827
▁évoluer	-11.827
▁consigné	-11.827
▁densité	-11.827
▁mentale	-11.8274
▁22,9	-11.8284
ysfonctionnement	-11.8295
▁Métropole	-11.8295
Jouy	-11.8298
▁rédactrice	-11.8321
▁tête	-11.8321
▁barrage	-11.8322
vous	-11.8327
▁trop	-11.8329
ETTI	-11.8336
export	-11.8342
▁choisit	-11.8342
TERL	-11.8344
▁immatriculé	-11.8345
▁chancellerie	-11.8346
croix	-11.8346
CGC	-11.8349
/2018-10-0	-11.836
▁PUBLIC	-11.8372
▁satisfaction	-11.8372
▁traditionnel	-11.8372
▁Mérite	-11.8372
/2018-08-1	-11.8373
▁dispensé	-11.8387
épandage	-11.8398
▁parisienne	-11.8398
▁prud	-11.8399
▁Régie	-11.84
▁Notaire	-11.84
▁32,4	-11.8403
▁Fiche	-11.8415
/2019-05-0	-11.8423
/2023-10-0	-11.8423
▁alphabétique	-11.8423
▁radioactifs	-11.8423
▁Havre	-11.8424
HLM	-11.8449
▁dérivés	-11.8449
▁toujours	-11.8449
▁gens	-11.845
▁connecté	-11.8452
▁intérimaire	-11.847
▁CONTRAT	-11.8477
Adeline	-11.8477
OIR	-11.8487
bul	-11.8488
▁diabète	-11.8501
▁indépendamment	-11.8501
▁préliminaire	-11.8501
▁séparation	-11.8501
/2022-09-1	-11.8501
INTN	-11.8504
extraction	-11.8512
allocataire	-11.8527
observatoire	-11.8527
▁Chacune	-11.8527
▁SIMON	-11.8528
▁instaur	-11.8546
▁mono	-11.855
Espagne	-11.8553
▁Maladie	-11.8553
▁filet	-11.8553
▁DURAND	-11.8556
Patrice	-11.8557
▁quotidien	-11.8564
OIT	-11.8574
/2022-05-0	-11.8579
ajustement	-11.8579
Acheteur	-11.858
procureur	-11.8597
exemption	-11.8602
▁Examen	-11.8605
▁collectés	-11.8605
▁réservoir	-11.8605
▁violation	-11.8605
▁téléversé	-11.8605
Laye	-11.8606
▁anomalies	-11.8609
▁apte	-11.8613
eutique	-11.8628
Sabrina	-11.8631
▁baisse	-11.8632
▁exempt	-11.8635
gestion	-11.8635
santé	-11.8646
travail	-11.8653
AGRG	-11.8658
atmosphère	-11.8658
▁combinaison	-11.8658
▁régisseuse	-11.8658
▁suisse	-11.8658
▁réglé	-11.8658
▁péage	-11.866
outillage	-11.866
▁amendements	-11.8661
▁élémentaire	-11.8668
appliquant	-11.8684
▁déchargé	-11.8684
▁essences	-11.8684
▁glace	-11.8684
▁juvénile	-11.8684
Olivia	-11.8684
▁coexiste	-11.8685
▁formalisée	-11.8696
▁2019-7	-11.8703
abattement	-11.8711
▁sexies	-11.8711
Bretagne	-11.8735
▁rente	-11.8735
▁2019-2020	-11.8737
▁proclamation	-11.8737
▁Recherche	-11.8737
traitance	-11.8741
bstant	-11.875
▁Déclaration	-11.8764
▁encadré	-11.8764
Robert	-11.8764
▁scellé	-11.8765
Energie	-11.8765
ELLA	-11.8781
ARML	-11.879
▁RELATIF	-11.879
▁protéger	-11.879
▁étanche	-11.879
▁pathologiques	-11.8792
▁ateliers	-11.8796
tomie	-11.8796
▁apprécié	-11.8797
▁gazières	-11.8804
herbe	-11.8816
Pointe	-11.8816
droit	-11.8817
▁privilégié	-11.8817
▁référendaire	-11.8817
▁virement	-11.8817
ENTE	-11.8821
chaud	-11.8824
fondateur	-11.8829
HUISSIER	-11.8844
▁continental	-11.8844
Belgique	-11.8844
▁Active	-11.8844
▁PSL	-11.8844
▁rencontre	-11.8846
▁discriminations	-11.8846
▁162-23-	-11.8849
▁actualisée	-11.8855
▁additionnelle	-11.8865
écriture	-11.887
Martial	-11.8871
Agnès	-11.8871
▁score	-11.8871
Kevin	-11.8872
▁immobilisations	-11.8872
▁rédige	-11.8873
▁manipulation	-11.8878
ILLOT	-11.8897
JUSF	-11.8898
▁modulé	-11.8898
▁Arm	-11.891
Rodolphe	-11.8925
▁Secrétaire	-11.8925
▁football	-11.8925
▁gardien	-11.8925
Gérard	-11.8926
sciences	-11.8926
▁Bouch	-11.8934
▁citoyenneté	-11.8952
▁Météo	-11.8953
▁contractualis	-11.8955
nçant	-11.8956
Victoria	-11.8956
▁361-4	-11.8962
dji	-11.8962
▁0,1	-11.8964
isto	-11.8974
▁essentiels	-11.8979
▁médaille	-11.8979
▁club	-11.8979
▁payeur	-11.8979
▁Mention	-11.898
Karim	-11.8993
Télécom	-11.9003
▁Conservatoire	-11.9006
▁cytologie	-11.9006
▁olympique	-11.9006
▁ouvrière	-11.9006
▁propagation	-11.9006
▁roulant	-11.9006
Gautier	-11.9007
▁Prénom	-11.9007
▁Seule	-11.9009
Concours	-11.9009
▁concept	-11.901
inématographique	-11.9032
remorque	-11.9034
▁Orientation	-11.9034
▁interventionnel	-11.9034
▁poursuit	-11.9046
effluent	-11.9058
ESSE	-11.906
Clotilde	-11.9061
œufs	-11.9061
Paris	-11.9067
▁sénateur	-11.9069
▁terminal	-11.9071
▁modalité	-11.9071
GENT	-11.9078
interrogation	-11.9088
opticien	-11.9088
▁Chambéry	-11.9088
▁conservatrice	-11.9088
▁franchise	-11.9088
▁reconnaît	-11.9088
▁moderne	-11.9089
BORDE	-11.9096
▁organisant	-11.9116
▁Avec	-11.9116
▁Belfort	-11.9117
▁Sauv	-11.9122
▁appartiennent	-11.9144
▁dépositaire	-11.9144
▁Substitut	-11.9149
prendre	-11.9159
▁moral	-11.9162
Eléonore	-11.9171
▁Catégorie	-11.9171
▁diminué	-11.9171
▁témoin	-11.9171
▁voisinage	-11.9172
▁631-1	-11.9172
▁contradictoire	-11.9199
▁météorologique	-11.9199
encadrant	-11.9199
Amaury	-11.9199
/2022-12-3	-11.9201
▁élevages	-11.9209
▁Moyen	-11.9213
0-6	-11.9213
Carine	-11.9214
dict	-11.9224
/2022-01-0	-11.9227
▁2022-2023	-11.9227
▁Capacité	-11.9227
▁COMMUN	-11.9227
▁THOMAS	-11.9255
▁annulée	-11.9255
immunité	-11.9255
entraide	-11.9255
▁Composition	-11.9255
▁intercommunal	-11.9258
▁terrestre	-11.927
Cast	-11.9279
/2023-09-0	-11.9283
/2023-12-3	-11.9283
▁ordonné	-11.9283
▁GRDF	-11.9283
▁denrées	-11.9283
▁Activités	-11.9283
▁Transport	-11.9284
▁localisé	-11.9292
nationale	-11.9306
Angélique	-11.9311
▁Auguste	-11.9311
▁Médicament	-11.9311
▁configuration	-11.9311
▁physico	-11.9311
▁rythme	-11.9311
▁structuré	-11.9311
▁Type	-11.9311
▁financés	-11.9311
▁Suisse	-11.9312
▁NATIONAL	-11.9323
Meuse	-11.9336
Ukraine	-11.9339
ÉVALUATION	-11.9339
▁bilatéral	-11.9339
▁conciliation	-11.9339
▁convenances	-11.9339
▁web	-11.9339
▁Tunis	-11.9362
▁préside	-11.9363
▁JUSTICE	-11.9367
▁Pièce	-11.9367
▁PFMP	-11.9367
▁DROIT	-11.9367
ucco	-11.9373
▁minéral	-11.9384
▁bagages	-11.9396
▁souvent	-11.9396
Technicien	-11.9396
▁commentaire	-11.9396
75001	-11.9401
systématiquement	-11.9404
▁recommandation	-11.9411
▁2018-2019	-11.9424
▁diminution	-11.9424
▁fourragère	-11.9424
▁lucratif	-11.9424
Nous	-11.9424
▁FOURN	-11.9424
Maxence	-11.9424
Blandine	-11.9431
▁claire	-11.9448
▁simplification	-11.9453
▁statuant	-11.9453
écoulement	-11.9453
▁cotation	-11.9453
connaitre	-11.9453
▁panneaux	-11.9454
6.2	-11.9469
▁5332	-11.9477
/2019-01-0	-11.9481
Jérémie	-11.9481
▁mutualisation	-11.9481
▁onéreux	-11.9481
▁préférence	-11.9481
▁syndrome	-11.9481
▁ballast	-11.9481
▁assum	-11.9481
▁2261-7	-11.9482
loup	-11.9485
▁infections	-11.9488
DDT	-11.9492
max	-11.9492
▁actualis	-11.9493
51-8	-11.9509
assignation	-11.951
▁Danièle	-11.951
OPÉRATION	-11.951
▁phyto	-11.951
Gaulle	-11.9511
Afrique	-11.9512
▁rachat	-11.9514
ECOG	-11.9517
▁occasionnel	-11.9522
▁fiduciaire	-11.9539
Astrid	-11.9539
▁caractérisé	-11.9541
▁revient	-11.9543
▁exonérations	-11.9546
champ	-11.9558
▁soute	-11.9564
aspirant	-11.9564
accompagnant	-11.9567
▁Connaissance	-11.9567
▁exonéré	-11.9567
Mehdi	-11.9567
MWh	-11.957
▁renfor	-11.9571
▁retourné	-11.9578
FORT	-11.9578
▁Candidat	-11.9596
Tanguy	-11.9596
▁soussigné	-11.9597
▁anglaise	-11.9598
▁allant	-11.9599
chercheur	-11.9616
embryon	-11.9625
▁Communication	-11.9625
▁DOSSIER	-11.9625
▁Document	-11.9625
▁apposé	-11.9625
▁câble	-11.9625
▁psoriasis	-11.9625
▁gratuitement	-11.9628
Elisa	-11.9636
effacement	-11.9654
optimisation	-11.9654
▁injectable	-11.9654
▁renonciation	-11.9654
▁satisfont	-11.9654
▁flotte	-11.9654
▁toile	-11.9655
Sylvia	-11.9656
▁Melun	-11.9657
géomètre	-11.9658
ISSON	-11.9673
produits	-11.9683
accession	-11.9684
▁contesté	-11.9684
EXAMEN	-11.9684
▁majoritaire	-11.9684
▁flore	-11.9684
▁Boulogne	-11.9684
▁télématique	-11.9685
▁hémorragique	-11.9713
▁sinistre	-11.9713
quand	-11.9727
▁législative	-11.9734
PROFESSIONNELLES	-11.9736
colo	-11.974
▁intégral	-11.974
arrangement	-11.9742
isolement	-11.9742
ECOA	-11.9742
▁Castel	-11.9745
▁écoulé	-11.9749
Orly	-11.976
▁démantèlement	-11.9771
▁recevable	-11.9771
▁onze	-11.9772
▁accepter	-11.9773
▁nourri	-11.9773
attribuer	-11.9776
▁collabor	-11.9779
aucun	-11.9791
▁2023-2024	-11.9801
▁rédacteur	-11.9801
▁marche	-11.9802
▁Esc	-11.9804
▁Moulin	-11.9806
▁aliments	-11.9809
ECOB	-11.9826
intensité	-11.9831
▁tentative	-11.9831
▁détaillant	-11.9832
▁barreau	-11.9846
▁variété	-11.9854
Ajaccio	-11.986
opportunité	-11.986
▁Ministre	-11.986
▁Vendôme	-11.986
▁phénomène	-11.986
▁jardin	-11.986
▁survenance	-11.986
▁actionnaires	-11.986
▁Etude	-11.986
▁rhumato	-11.989
▁biogaz	-11.989
▁chaudière	-11.989
▁Dotation	-11.9891
▁radiologique	-11.9891
IEUX	-11.99
Orange	-11.99
pharmaceutique	-11.991
▁Colmar	-11.992
avertissement	-11.992
▁spécifiées	-11.9923
;	-11.9942
journée	-11.9942
▁Beauvais	-11.995
▁radicalisation	-11.995
metiers	-11.9951
▁septies	-11.9952
investisseur	-11.9958
extradition	-11.998
▁apatrides	-11.998
▁confidentiel	-11.998
▁mesurage	-11.998
▁Famille	-11.998
▁marqué	-11.998
▁fibre	-11.998
▁Durant	-11.9986
▁Culture	-11.9995
▁requérant	-12.0009
▁recherché	-12.001
/2018-04-0	-12.001
▁circulant	-12.001
▁résidus	-12.001
androst	-12.001
▁paix	-12.001
enseignementsup	-12.0012
▁gare	-12.0015
OUCHE	-12.0019
6-9	-12.0019
▁GENDARMERIE	-12.004
▁Nouméa	-12.004
▁Ressources	-12.004
▁favorisant	-12.004
▁montagnard	-12.004
▁textile	-12.004
▁préserver	-12.004
▁ÉTABLISSEMENTS	-12.004
ILLY	-12.0043
▁Aimé	-12.0048
auxiliaire	-12.0068
étanchéité	-12.007
▁CONVENTION	-12.007
▁Secrétariat	-12.007
▁campus	-12.007
▁centralisateur	-12.007
graphe	-12.0071
/2018-09-1	-12.0071
▁explosifs	-12.0072
▁XIII	-12.0073
▁Marthe	-12.0074
▁Comb	-12.009
▁panneau	-12.01
▁Edmond	-12.0101
▁convoque	-12.0101
Perrine	-12.0107
ouvrir	-12.0122
explication	-12.0131
▁Bobigny	-12.0131
▁Registre	-12.0131
▁triennal	-12.0131
▁Londres	-12.0131
OLOGIE	-12.0131
▁déduit	-12.0131
▁garant	-12.0133
▁Langue	-12.0133
médecin	-12.0159
habitant	-12.0159
▁nullité	-12.0162
▁pérenne	-12.0162
▁redressement	-12.0162
▁porcin	-12.0162
▁Crohn	-12.0162
écrit	-12.0178
ONNIER	-12.0178
▁approfondi	-12.0179
▁comprimé	-12.0193
▁décollage	-12.0193
▁labellisation	-12.0193
▁Internet	-12.0193
orienter	-12.0193
▁COMPTE	-12.0194
▁fournissent	-12.0194
éducatif	-12.022
▁désignant	-12.0223
▁présumé	-12.0223
Adèle	-12.0225
Elisabeth	-12.0252
Thérèse	-12.0252
accéder	-12.0252
▁strict	-12.0253
/2018-09-0	-12.0254
Aveyron	-12.0254
Corrèze	-12.0254
▁FONCTION	-12.0254
▁Protection	-12.0254
▁dégradation	-12.0254
▁régularité	-12.0254
Assurance	-12.0254
▁étaient	-12.0254
%	-12.0283
LOIRE	-12.0283
▁légitime	-12.0285
▁différenci	-12.0285
▁analogue	-12.0285
▁Total	-12.0286
▁consultant	-12.0288
Geoffroy	-12.0316
▁cédant	-12.0316
▁dégradé	-12.0316
Andorre	-12.0316
▁jauge	-12.0316
▁CLASSE	-12.0317
/2023-09-1	-12.0317
▁programmée	-12.032
rolles	-12.0337
▁découlant	-12.0347
▁légion	-12.0347
▁métastatique	-12.0347
▁plongée	-12.0347
▁Travail	-12.0347
horizon	-12.0347
▁finition	-12.0348
▁recette	-12.0349
René	-12.0349
▁climatisation	-12.035
▁décompte	-12.035
Armelle	-12.0353
Ferr	-12.037
Richard	-12.0378
/2018-05-0	-12.0379
▁Monaco	-12.0379
▁SUPÉRIEUR	-12.0379
▁reconversion	-12.0379
▁hausse	-12.0379
▁gestes	-12.0379
▁lisible	-12.0379
0-9	-12.039
▁paie	-12.0394
▁adjudicateur	-12.041
▁découverte	-12.041
▁joignant	-12.041
▁valoriser	-12.041
▁vendeur	-12.041
▁revue	-12.041
▁chances	-12.041
▁corticothérapie	-12.041
▁précis	-12.0416
AOUI	-12.0432
joint	-12.0441
Victoire	-12.0441
▁Dénomination	-12.0441
▁prévoyant	-12.0441
▁emporte	-12.0441
isolant	-12.0442
▁segment	-12.0442
▁JACQ	-12.0471
endettement	-12.0473
▁Eiffel	-12.0473
▁regroupé	-12.0473
esprit	-12.0473
Dispositions	-12.0475
graphie	-12.0492
Clarisse	-12.0505
Affaires	-12.0505
▁labellisé	-12.0537
▁classique	-12.0568
Serge	-12.0572
▁prospect	-12.0598
▁téléchargé	-12.06
▁Eliane	-12.0602
Leclerc	-12.0603
"	-12.0604
▁connaît	-12.0628
▁concubin	-12.0632
▁Odette	-12.0632
Vitale	-12.0633
▁approuve	-12.0637
échelonnement	-12.0643
▁CHEV	-12.0646
▁varie	-12.0664
▁paramédical	-12.0664
▁primitif	-12.0664
:	-12.0669
vironnementales	-12.0672
▁Participe	-12.0697
▁expérimenté	-12.0697
▁positive	-12.0697
Ariège	-12.0697
interieur	-12.0697
Célia	-12.0697
▁caution	-12.0729
▁CERTIFICAT	-12.0729
▁privilège	-12.0729
acquéreur	-12.0729
▁Montreuil	-12.0729
▁toiture	-12.0729
▁SIIV	-12.0731
Adam	-12.0732
▁concédé	-12.0761
▁contournement	-12.0761
▁démontable	-12.0762
▁étudié	-12.0794
extrémité	-12.0794
▁Identifier	-12.0794
Thibaud	-12.0794
▁anatomie	-12.0794
▁enchères	-12.0794
▁mutuel	-12.0809
incitation	-12.0827
Aymeric	-12.0827
▁transformé	-12.0827
▁silence	-12.0827
▁83-63	-12.0833
▁Aide	-12.0835
▁liquidateur	-12.0838
Dame	-12.0844
▁manipul	-12.085
▁méconnaissance	-12.086
▁pédagogie	-12.086
▁périphérique	-12.086
▁vulnérabilité	-12.086
▁maquette	-12.086
▁piéton	-12.086
TNF	-12.086
▁programm	-12.0861
Cantal	-12.0879
▁astreint	-12.0879
itinéraire	-12.0892
▁SÉCURITÉ	-12.0892
▁certifiant	-12.0892
▁homologuant	-12.0892
▁tropicales	-12.0892
▁simulation	-12.0892
▁Gisèle	-12.0892
▁cuisine	-12.0892
Evry	-12.0892
▁RICHARD	-12.0893
Rivière	-12.0898
Ludivine	-12.0925
▁Indicateur	-12.0925
▁participatif	-12.0925
ARMB	-12.0926
▁transfusion	-12.0941
▁FICHE	-12.0944
▁Muséum	-12.0959
▁York	-12.0959
▁soutenir	-12.0959
▁Indien	-12.0959
▁diamètre	-12.0959
▁CCF	-12.0959
▁NICOL	-12.0959
Hubert	-12.097
▁apparaît	-12.0988
Hôpital	-12.0992
Jennifer	-12.0992
▁relever	-12.0992
▁fenêtre	-12.0992
▁matérialis	-12.0992
▁récepteur	-12.0992
Avignon	-12.0992
▁accueillant	-12.0992
Syrie	-12.0992
▁Sénat	-12.0993
▁2012-124	-12.0994
pathie	-12.1
▁Varenne	-12.1003
Informatique	-12.1025
▁incomplète	-12.1025
▁perçoivent	-12.1025
▁recensées	-12.1025
owski	-12.1025
altitude	-12.1025
▁dioxy	-12.1025
▁Filière	-12.1025
Jordan	-12.1027
Ronan	-12.1029
▁GIRARD	-12.1059
▁Période	-12.1059
▁délinquance	-12.1059
Jessica	-12.1059
▁Logement	-12.1059
Natacha	-12.1059
fondatrice	-12.1067
huissière	-12.1072
▁Magn	-12.1083
Abd	-12.1088
aléa	-12.1088
▁stipul	-12.1092
▁LAURENT	-12.1092
▁complexité	-12.1092
▁originaux	-12.1092
▁polyvalent	-12.1092
▁pulvérisation	-12.1092
▁tierce	-12.1093
▁douleur	-12.1094
internat	-12.11
Château	-12.1106
▁délibérer	-12.1126
▁INFORMATIONS	-12.1126
▁souches	-12.1127
▁urologie	-12.1127
▁gardé	-12.1127
▁ballon	-12.1128
Carole	-12.114
appuyer	-12.116
▁évidence	-12.116
drone	-12.1165
Article	-12.1175
Stratégique	-12.1193
▁Perpignan	-12.1193
▁anniversaire	-12.1193
▁biologiste	-12.1193
▁meubles	-12.1193
▁soutenance	-12.1193
Gwena	-12.1193
▁boxe	-12.1195
ECOO	-12.1222
interconnexion	-12.1222
▁insuffisant	-12.1226
▁associatif	-12.1227
▁monuments	-12.1227
▁négoce	-12.1227
▁transbordement	-12.1227
▁vœux	-12.1227
▁vendu	-12.1228
▁bourse	-12.1228
▁favorise	-12.1233
numéro	-12.1244
impartialité	-12.1251
ématérialisation	-12.1262
▁160-8	-12.1262
▁Organiser	-12.1262
▁marchande	-12.1262
▁provoque	-12.1262
éleveur	-12.1262
▁Ghislaine	-12.1262
▁demandant	-12.1263
▁serment	-12.1264
▁Jacky	-12.1296
▁blanchiment	-12.1296
gfip	-12.1296
▁Urb	-12.1297
▁passif	-12.131
terroriste	-12.133
▁contamination	-12.133
Flore	-12.1332
▁divisé	-12.1336
▁consigne	-12.1348
lectricité	-12.1352
commun	-12.1353
Romane	-12.1361
Caractéristiques	-12.1365
Philippine	-12.1365
▁Contenu	-12.1365
▁Métiers	-12.1365
▁PREMI	-12.1365
▁engagé	-12.1375
paragraphe	-12.1384
▁reliquat	-12.1399
Mathias	-12.1399
▁résumé	-12.1399
▁uniforme	-12.1399
▁imputé	-12.1399
▁XXI	-12.14
▁crime	-12.1401
▁touch	-12.1407
▁super	-12.1434
atterrissage	-12.1434
émargement	-12.1434
▁symptomatique	-12.1434
▁typologie	-12.1434
▁remarque	-12.1434
Autriche	-12.1434
▁exécuté	-12.1445
(1°)	-12.1454
Ghislain	-12.1468
▁détruit	-12.1469
▁inchangé	-12.1469
▁TECHNIQUE	-12.1469
▁biomasse	-12.1469
▁caprin	-12.1469
▁chirurgicale	-12.1472
asthme	-12.1504
▁subdivision	-12.1504
portail	-12.1527
Laurie	-12.153
Expertise	-12.1539
opposer	-12.1539
uranium	-12.1539
▁MATHIEU	-12.1539
▁RÉGION	-12.1539
▁domicilié	-12.1539
▁fracture	-12.1539
▁converti	-12.1541
territorial	-12.1562
▁déontologue	-12.1574
▁Commissaire	-12.1574
Emeline	-12.1574
bureau	-12.1602
▁participé	-12.1609
villiers	-12.1609
épuration	-12.1609
▁sigle	-12.161
ifolia	-12.1616
département	-12.1625
▁paramètre	-12.1632
Subventions	-12.1645
accompagnateur	-12.1645
▁prérogatives	-12.1645
▁suspect	-12.1645
▁CONSEIL	-12.1645
▁tunnel	-12.1645
▁arabe	-12.1645
attributaire	-12.1651
▁science	-12.1668
▁Alfred	-12.168
▁Coût	-12.168
▁Respect	-12.168
▁associant	-12.168
▁contiennent	-12.168
▁Notification	-12.168
▁détenant	-12.168
▁dommage	-12.1704
anticipation	-12.1716
▁Cherbourg	-12.1716
▁JEUNESSE	-12.1716
▁mutualisé	-12.1716
▁gamme	-12.1716
▁avancé	-12.1721
dépendant	-12.1741
externe	-12.1743
▁Peyr	-12.1751
Ophélie	-12.1752
intéressement	-12.1752
▁tacite	-12.1752
▁transfèrement	-12.1752
▁résiduel	-12.1752
assises	-12.1754
▁HAUTE	-12.1769
▁abroge	-12.1784
titia	-12.1788
enregistrer	-12.1788
▁méthodologique	-12.1788
▁animée	-12.1788
éventuelle	-12.1816
▁moléculaire	-12.1824
▁stylo	-12.1824
▁journaliste	-12.1835
Hélo	-12.1847
établit	-12.1847
Béatrice	-12.1854
▁Exigences	-12.186
▁Rectificatif	-12.186
▁Modification	-12.186
insuline	-12.186
▁blanche	-12.186
▁plantation	-12.1861
SNIA	-12.1866
▁NOTAIRE	-12.1888
Bâtiment	-12.1897
ameublement	-12.1897
▁incombant	-12.1897
Ahmed	-12.1897
▁Dunkerque	-12.1897
▁MODALIT	-12.1897
Yoann	-12.1897
▁serveur	-12.1899
▁modifie	-12.1915
prévu	-12.1928
apprenant	-12.1933
▁SPÉCIFIQUE	-12.1933
▁Varsovie	-12.1933
▁métallurgie	-12.1933
▁semestriel	-12.1933
▁anticipé	-12.1953
▁trouble	-12.1962
contrôle	-12.1965
▁2015/1998	-12.197
▁POPULAIRE	-12.197
▁Valenciennes	-12.197
▁acoustique	-12.197
▁enneigé	-12.197
▁impossible	-12.197
▁indemnisé	-12.197
▁GROUPE	-12.197
▁nominatif	-12.197
▁Jocelyne	-12.197
▁cibl	-12.1974
BOCC	-12.1991
▁affranchi	-12.1992
▁renommé	-12.2007
▁réciproque	-12.2007
▁thoracique	-12.2007
▁langage	-12.2008
Croix	-12.2019
présent	-12.2041
▁Cependant	-12.2043
▁boîte	-12.2043
▁Josette	-12.2044
anguille	-12.2044
▁Agent	-12.2044
▁prolongé	-12.2059
/2023-05-0	-12.2081
CFTC	-12.2081
▁Intitulé	-12.2081
▁indicatif	-12.2081
▁instrumentation	-12.2081
▁soutenu	-12.2081
transfrontalière	-12.2118
▁Capitole	-12.2118
▁terminaux	-12.2118
JUSN	-12.2118
▁Quatre	-12.2118
▁Edith	-12.2118
DENIS	-12.2125
▁rassembl	-12.2141
écoute	-12.215
▁matériau	-12.2154
▁Engagement	-12.2155
▁Nguyen	-12.2155
▁adjuvant	-12.2155
▁dérivées	-12.2155
▁souscripteur	-12.2155
▁PRÉSENT	-12.2155
▁intensif	-12.2163
▁gendarme	-12.2192
Francis	-12.2192
rubrique	-12.2192
radiologie	-12.2192
▁ambulatoire	-12.2192
▁démarrage	-12.2192
▁odontologiques	-12.2192
▁plafonné	-12.2192
▁ÉPREUVES	-12.2193
▁Réglementation	-12.223
▁littéraire	-12.223
▁prescrire	-12.223
▁rencontrées	-12.223
PRMM	-12.223
▁axiale	-12.223
▁CERTIFICATION	-12.223
APPLICATION	-12.2268
▁Attribution	-12.2268
▁audioprothèse	-12.2268
▁tolérance	-12.2268
Dimitri	-12.2268
▁seringue	-12.2268
▁contracté	-12.2268
▁escale	-12.2268
▁avait	-12.2268
Normandie	-12.2269
Léger	-12.2273
▁normalisé	-12.2278
international	-12.2278
▁simultané	-12.23
individu	-12.2306
▁Alphonse	-12.2306
▁Luxembourg	-12.2306
▁distingue	-12.2306
▁domanial	-12.2306
▁orthopédie	-12.2306
▁propulsion	-12.2306
willer	-12.2306
▁Maryse	-12.2306
Yohan	-12.2306
Hilaire	-12.2306
▁hospital	-12.2333
▁entraînant	-12.2344
italien	-12.2347
ENSEIGNEMENT	-12.2382
obtient	-12.2382
opérer	-12.2382
defense	-12.2382
▁battant	-12.2382
▁occasionnés	-12.2382
▁SIGNÉ	-12.2383
Zoé	-12.2383
▁ROUSSEL	-12.2383
texte	-12.2384
Morgan	-12.2418
vasculaire	-12.2419
▁taxi	-12.2419
ÉPREUVE	-12.242
observateur	-12.242
▁Stratégie	-12.242
▁limitrophe	-12.242
▁pécuniaire	-12.242
addition	-12.242
▁manquant	-12.242
▁italienne	-12.242
▁récente	-12.2421
▁biométhane	-12.2459
▁détecter	-12.2459
▁jurisprudence	-12.2459
▁vulnérable	-12.2459
▁conteneur	-12.2459
medicaments	-12.2459
▁belge	-12.2459
invitation	-12.2459
▁radon	-12.2459
harmonisation	-12.2497
observance	-12.2497
▁addictologie	-12.2497
▁supprimer	-12.2497
▁Jacque	-12.2499
▁PARTIE	-12.2507
Inspection	-12.2536
▁joignent	-12.2536
▁reconduction	-12.2536
▁substitué	-12.2536
▁équilibré	-12.2536
HOMME	-12.2537
▁2008-36	-12.254
calendrier	-12.2542
▁concert	-12.2571
adalimumab	-12.2575
▁délimitation	-12.2575
▁expédié	-12.2575
▁probabilité	-12.2575
▁récidive	-12.2575
Timothée	-12.2575
▁Recueil	-12.2575
▁absent	-12.2575
public	-12.2581
cabinet	-12.2582
intérim	-12.2582
échéancier	-12.2614
▁Suivi	-12.2614
▁horticole	-12.2614
▁signifie	-12.2614
▁détiennent	-12.2653
▁nuisances	-12.2653
▁poursuivra	-12.2653
▁remédier	-12.2653
opinion	-12.2654
chambres	-12.2663
Environnement	-12.2693
▁PROGRAMME	-12.2693
▁liquéfié	-12.2693
242-17	-12.2698
défini	-12.2701
Châtel	-12.2732
▁Vérification	-12.2732
▁confirmant	-12.2732
▁cœur	-12.2732
Flavie	-12.2733
impératif	-12.2772
▁Développement	-12.2772
implication	-12.2772
▁Conseillère	-12.2772
▁Museo	-12.2772
embarcation	-12.2812
irrecevabilité	-12.2812
▁Pyramides	-12.2812
▁antécédents	-12.2812
▁covoiturage	-12.2812
▁psoriasique	-12.2812
▁requiert	-12.2812
▁6232-2	-12.2812
▁balise	-12.2819
▁Conception	-12.2852
▁trouvant	-12.2852
autrui	-12.2852
▁Préparer	-12.2852
▁cartographie	-12.2852
▁335-6	-12.2852
▁côte	-12.2852
▁survenue	-12.2854
▁distribu	-12.286
estime	-12.2881
▁SPÉCIAL	-12.2892
▁législatif	-12.2892
▁pétrole	-12.2892
Roumanie	-12.2892
▁Arthrit	-12.2892
▁desserte	-12.2893
▁162-5	-12.2893
expropriation	-12.2932
▁CATÉGORIE	-12.2932
▁dispensation	-12.2932
▁assigné	-12.2932
▁Certain	-12.2932
▁commercialisées	-12.2932
▁digital	-12.2932
augmenter	-12.2932
▁Liliane	-12.2932
exemple	-12.2946
atmosphérique	-12.2973
excellence	-12.2973
▁bibliothécaire	-12.2973
▁dividende	-12.2973
▁phytosanitaire	-12.2973
▁quinzième	-12.2973
▁relogement	-12.2973
▁Villefranche	-12.3013
/2018-01-0	-12.3013
▁délégant	-12.3013
▁quantitative	-12.3013
▁stupéfiants	-12.3013
/2018-05-3	-12.3013
/2004	-12.3014
obstacle	-12.3029
▁Utilisation	-12.3054
▁faisabilité	-12.3054
▁procuration	-12.3054
Honoré	-12.3054
▁SOCIALE	-12.3054
▁chalut	-12.3054
utter	-12.3068
accusé	-12.3071
incertitude	-12.3095
optimiser	-12.3095
▁cotisant	-12.3095
▁dignité	-12.3095
▁ménagers	-12.3096
Secteurs	-12.3104
INFORMATION	-12.3136
intelligence	-12.3136
épidémie	-12.3136
▁Gendarmerie	-12.3136
▁concourent	-12.3136
▁résilience	-12.3136
▁étroite	-12.3136
▁ramené	-12.3136
attaque	-12.3136
▁brefs	-12.3136
Rodrigue	-12.3178
▁PARTICULI	-12.3178
podologue	-12.3178
uvéite	-12.3178
éloignement	-12.3178
▁Implant	-12.3178
▁RECRUTEMENT	-12.3178
▁discussion	-12.3178
▁distinguant	-12.3178
▁psychique	-12.3178
étiquetage	-12.3178
▁linéaire	-12.3178
appréhender	-12.3219
embarquement	-12.3219
▁Conduite	-12.3219
▁difficile	-12.3219
▁Irène	-12.3219
▁cheval	-12.3259
▁concurre	-12.3261
▁Lefebvre	-12.3261
▁TITULAIRE	-12.3261
▁déployé	-12.3261
▁regroupant	-12.3261
▁visibilité	-12.3261
▁émérite	-12.3261
Charlène	-12.3261
▁Agrément	-12.3261
▁Régime	-12.3261
▁242-21	-12.3261
▁fiabilité	-12.3261
▁transverse	-12.3261
▁rénale	-12.3261
▁exécute	-12.3268
aluminium	-12.3303
Lituanie	-12.3303
Nazaire	-12.3303
▁acceptable	-12.3303
▁dactylographié	-12.3303
▁pathogène	-12.3303
▁projection	-12.3303
▁réglage	-12.3303
initiation	-12.3303
Mélissa	-12.3303
▁Branche	-12.3303
▁ROBIN	-12.3303
▁condamné	-12.3341
▁MILITAIRE	-12.3345
▁XXX	-12.3345
▁malveillance	-12.3345
▁péréquation	-12.3345
▁guichet	-12.3345
▁tertiaire	-12.3345
▁tapis	-12.3345
▁Docteur	-12.3346
UILLET	-12.3352
▁contrainte	-12.3358
▁GÉNÉRAL	-12.3365
régisseur	-12.3365
fonction	-12.3367
surveillance	-12.3381
▁Calendrier	-12.3387
▁terminé	-12.3387
abonnement	-12.3388
Sciences	-12.3411
ADMINISTRATION	-12.3429
archivage	-12.3429
▁assignataire	-12.3429
▁élévation	-12.3429
▁gibier	-12.3429
Roxane	-12.3429
▁Relation	-12.3431
▁EURO	-12.3449
Sofia	-12.3459
▁CANDIDAT	-12.3472
▁SGFGAS	-12.3472
Rayer	-12.3476
pprofondissement	-12.3486
équivalent	-12.35
évaluateur	-12.3511
/2022-03-3	-12.3514
éclairer	-12.3514
▁Maîtrise	-12.3514
▁corporelle	-12.3514
▁criminalité	-12.3514
▁désormais	-12.3514
▁musicale	-12.3514
▁reclassés	-12.3514
▁sollicitant	-12.3514
▁détecté	-12.3514
▁hasard	-12.3514
Sophia	-12.3515
explique	-12.3517
/2023-01-0	-12.3557
▁démolition	-12.3557
▁inclure	-12.3557
▁signification	-12.3557
IAHP	-12.3557
PUIS	-12.3558
▁massif	-12.3559
Corinne	-12.3585
▁Compagnie	-12.36
▁MERCIER	-12.36
▁cheminée	-12.36
▁inhérent	-12.36
▁littérature	-12.36
Irlande	-12.36
Mohammed	-12.36
expéditeur	-12.36
▁Garcia	-12.36
▁échu	-12.3601
▁suppos	-12.3601
infanterie	-12.3629
approvisionn	-12.3629
ambulancier	-12.3644
▁abrégée	-12.3644
▁horizontale	-12.3644
▁pollué	-12.3644
▁rattrapage	-12.3644
▁créant	-12.3644
Marlène	-12.3644
interprète	-12.3687
▁Rémunération	-12.3687
▁infecté	-12.3687
▁neutralis	-12.3687
embauche	-12.3687
▁Lambert	-12.3687
▁Marius	-12.3687
▁lauréat	-12.3707
▁concentr	-12.3725
incorporation	-12.3728
Tiphaine	-12.3731
Turquie	-12.3731
▁cocontractant	-12.3731
▁franchissement	-12.3731
▁informatisé	-12.3731
▁postulant	-12.3731
▁produisant	-12.3731
▁restrictives	-12.3731
CROIX	-12.3731
▁voiture	-12.3731
▁fouille	-12.3731
appartenant	-12.3762
actualité	-12.3775
▁baignade	-12.3775
▁paramédicaux	-12.3775
▁minimis	-12.3775
Brieuc	-12.3775
▁inhalé	-12.3775
Guilhem	-12.3785
instauration	-12.3786
▁recruté	-12.3796
innaeus	-12.3819
▁MEDICAL	-12.3819
▁utilisable	-12.3819
▁associe	-12.3819
▁dramatique	-12.3819
aliénation	-12.3863
▁CICTA	-12.3863
▁dispensant	-12.3863
▁défaillant	-12.3863
▁Amélior	-12.3864
cholestérolémie	-12.3907
▁Avocat	-12.3907
▁complications	-12.3907
▁cuivre	-12.3907
Yasmine	-12.3907
▁OUVRA	-12.3907
▁Tarbes	-12.3908
▁tracteur	-12.3908
ANNÉE	-12.3909
intègrent	-12.3937
univers	-12.3939
discrimination	-12.3949
empreinte	-12.3952
psychiatrique	-12.3952
▁SITUATION	-12.3952
▁familiaux	-12.3952
▁mobilisant	-12.3952
▁polyarticulaire	-12.3952
▁récupéré	-12.3952
▁urbaniste	-12.3952
▁DUBOIS	-12.3952
▁préparateur	-12.3952
▁Session	-12.3952
2022-1726	-12.3953
▁Matériel	-12.3997
▁succursale	-12.3997
▁Rousseau	-12.4001
Forêt	-12.4023
financement	-12.4034
▁sectoriel	-12.4042
ARMK	-12.4042
élargissement	-12.4042
▁UNITÉS	-12.4042
▁préemption	-12.4042
attitude	-12.4042
▁expire	-12.4042
▁dérogé	-12.4042
▁plaque	-12.4068
▁Médaill	-12.4079
réponse	-12.408
candidat	-12.408
▁Préalablement	-12.4087
▁magnétique	-12.4087
▁refroidissement	-12.4087
▁retentissement	-12.4087
▁télévision	-12.4087
▁plomb	-12.4087
nomenclature	-12.4127
▁réside	-12.4129
hôtellerie	-12.4133
Extension	-12.4133
▁dépassant	-12.4133
▁homogène	-12.4133
▁posteriori	-12.4133
▁satellite	-12.4133
▁encourue	-12.4133
Frank	-12.4133
▁Kunst	-12.4134
École	-12.4134
Dorian	-12.4136
▁CERFA	-12.4178
▁Dépôt	-12.4178
▁doctorale	-12.4178
▁soumissionnaire	-12.4178
▁pédicure	-12.4178
▁journaux	-12.4178
projet	-12.422
Huissier	-12.4221
▁trésorier	-12.4224
ENFiP	-12.4224
▁gamètes	-12.4224
▁meublé	-12.4224
▁reconstitution	-12.4224
▁technicité	-12.4224
Evreux	-12.4224
inflation	-12.4224
▁orienté	-12.4224
▁ventilé	-12.4224
▁rampe	-12.4225
PACTE	-12.4247
équilibrage	-12.427
▁Dépenses	-12.427
▁Participation	-12.427
▁Résumé	-12.427
▁facilement	-12.427
▁longitude	-12.427
▁recevr	-12.427
▁volontariat	-12.427
▁lympho	-12.427
▁potable	-12.427
▁illégal	-12.4274
▁Ouvr	-12.4299
▁compartiment	-12.4317
▁peinture	-12.4317
▁procédant	-12.4317
▁quatorzième	-12.4317
▁Cercle	-12.4317
▁financeurs	-12.4317
CEREMA	-12.4317
Capucine	-12.4317
Histoire	-12.4317
▁immédiat	-12.4362
economie	-12.4363
▁mixité	-12.4363
▁pulvérisateur	-12.4363
html	-12.4363
▁LAMBERT	-12.4363
▁décimale	-12.4363
▁tennis	-12.4363
solidarites	-12.441
Dorothée	-12.441
▁Aménagement	-12.441
▁Application	-12.441
▁chaussure	-12.441
▁chiffré	-12.441
▁doctrine	-12.441
▁fiscaux	-12.441
▁notariat	-12.441
altération	-12.441
▁posséda	-12.441
observer	-12.4457
orthophoniste	-12.4457
▁Concevoir	-12.4457
▁Responsable	-12.4457
▁archéologique	-12.4457
▁centimètres	-12.4457
▁privative	-12.4457
▁confront	-12.4457
▁encaissé	-12.4457
▁Antenne	-12.4457
▁Baill	-12.4487
▁terdecies	-12.4504
▁cendres	-12.4504
▁coopératif	-12.4504
▁exhaustive	-12.4504
▁négocié	-12.4504
▁rugby	-12.4504
▁subaquatique	-12.4504
▁BERTRAND	-12.4504
▁quotité	-12.4504
▁parfaite	-12.4504
▁juste	-12.4504
/2019-10-3	-12.4504
occupant	-12.4505
▁REQUISE	-12.4551
▁compétitivité	-12.4551
▁paternité	-12.4551
▁sanguine	-12.4551
▁rectrice	-12.4551
ARENH	-12.4551
Education	-12.4551
▁payable	-12.4552
▁2017-138	-12.4552
impayé	-12.4556
conventionnement	-12.4562
fontaine	-12.4589
Hospital	-12.4599
▁Immobilisations	-12.4599
▁biomédecine	-12.4599
▁bouillie	-12.4599
▁coordinateur	-12.4599
▁inapproprié	-12.4599
Salomé	-12.4599
▁technico	-12.4647
▁VINCENT	-12.4647
▁cependant	-12.4647
▁diabétique	-12.4647
▁radionucléide	-12.4647
▁négative	-12.4647
▁affiche	-12.4647
universitaire	-12.465
▁Contribution	-12.4695
▁blessé	-12.4695
JORF	-12.4695
▁cercle	-12.4695
SGCD	-12.4695
fluoro	-12.4696
“	-12.7783
<	-13.5735
