<unk>	0
<s>	0
</s>	0
▁d	-0
es	-1
on	-2
▁l	-3
ti	-4
en	-5
▁de	-6
▁p	-7
re	-8
▁c	-9
an	-10
▁a	-11
▁s	-12
tion	-13
er	-14
in	-15
is	-16
ur	-17
ar	-18
ent	-19
et	-20
le	-21
▁la	-22
▁m	-23
▁du	-24
té	-25
ation	-26
qu	-27
▁des	-28
te	-29
ré	-30
▁et	-31
or	-32
li	-33
▁"	-34
ou	-35
▁à	-36
ne	-37
▁au	-38
tr	-39
si	-40
om	-41
▁2	-42
ment	-43
ic	-44
ai	-45
al	-46
ant	-47
▁le	-48
▁L	-49
▁f	-50
▁n	-51
▁les	-52
▁con	-53
."	-54
ri	-55
our	-56
▁en	-57
▁dé	-58
que	-59
ce	-60
▁(	-61
▁par	-62
▁pr	-63
un	-64
▁:	-65
▁1	-66
est	-67
at	-68
se	-69
me	-70
di	-71
▁20	-72
▁M	-73
ans	-74
▁re	-75
el	-76
au	-77
res	-78
de	-79
▁com	-80
▁;	-81
tre	-82
né	-83
▁é	-84
▁pré	-85
ci	-86
▁est	-87
▁A	-88
▁in	-89
ont	-90
▁C	-91
▁ré	-92
ac	-93
oi	-94
tic	-95
▁ou	-96
il	-97
▁202	-98
▁pro	-99
gé	-100
as	-101
ale	-102
vi	-103
ab	-104
▁mo	-105
▁ch	-106
▁«	-107
ve	-108
inis	-109
ie	-110
ex	-111
▁t	-112
us	-113
aire	-114
ticle	-115
ag	-116
tu	-117
ée	-118
sion	-119
ff	-120
ch	-121
ub	-122
▁j	-123
pp	-124
▁comp	-125
rê	-126
▁dans	-127
une	-128
tions	-129
▁P	-130
les	-131
▁pour	-132
article	-133
rêté	-134
▁tr	-135
mp	-136
▁qu	-137
▁R	-138
▁—	-139
ati	-140
ubli	-141
▁v	-142
▁2023	-143
▁b	-144
▁D	-145
▁»	-146
ér	-147
▁ar	-148
ol	-149
▁I	-150
ter	-151
ts	-152
▁o	-153
sent	-154
▁aux	-155
mb	-156
▁un	-157
ec	-158
ui	-159
és	-160
▁r	-161
ers	-162
▁sont	-163
▁ser	-164
orm	-165
ces	-166
teur	-167
▁3	-168
▁di	-169
ité	-170
ali	-171
▁g	-172
▁S	-173
ise	-174
▁minis	-175
eu	-176
os	-177
ations	-178
ention	-179
▁;"	-180
eur	-181
▁co	-182
▁publi	-183
ance	-184
ad	-185
éc	-186
tif	-187
▁présent	-188
éri	-189
▁sur	-190
ul	-191
nel	-192
ction	-193
),	-194
ice	-195
ques	-196
tes	-197
aires	-198
-1	-199
oci	-200
ort	-201
▁ac	-202
lé	-203
aux	-204
ici	-205
ère	-206
ap	-207
▁B	-208
ées	-209
▁une	-210
▁dis	-211
ain	-212
▁ex	-213
tés	-214
mpl	-215
▁Le	-216
mi	-217
ig	-218
▁arrêté	-219
▁h	-220
po	-221
mbre	-222
▁gé	-223
ès	-224
▁déc	-225
▁E	-226
ure	-227
ique	-228
am	-229
ten	-230
▁ad	-231
og	-232
pr	-233
ate	-234
▁Mme	-235
ins	-236
▁qui	-237
éd	-238
ession	-239
▁ministre	-240
▁ti	-241
nér	-242
age	-243
▁serv	-244
▁char	-245
▁J	-246
ot	-247
▁génér	-248
▁prof	-249
ous	-250
av	-251
▁nom	-252
ran	-253
ence	-254
ili	-255
ments	-256
mis	-257
tat	-258
▁pl	-259
)."	-260
▁Les	-261
▁dire	-262
ine	-263
posi	-264
▁code	-265
ion	-266
end	-267
ours	-268
elle	-269
vant	-270
▁F	-271
ais	-272
▁conc	-273
▁4	-274
ppli	-275
▁Ar	-276
minis	-277
oc	-278
▁profession	-279
im	-280
▁sui	-281
form	-282
ib	-283
▁prév	-284
▁G	-285
ver	-286
fi	-287
▁soci	-288
▁si	-289
man	-290
▁date	-291
ép	-292
ministr	-293
tor	-294
ue	-295
▁mention	-296
▁nation	-297
▁an	-298
▁que	-299
entre	-300
▁ju	-301
▁"«	-302
▁se	-303
▁e	-304
cation	-305
▁disposi	-306
lis	-307
ves	-308
ret	-309
▁professionnel	-310
▁te	-311
insi	-312
▁fin	-313
▁al	-314
ss	-315
▁ainsi	-316
oit	-317
▁fon	-318
tab	-319
ob	-320
▁cons	-321
op	-322
iné	-323
▁5	-324
ois	-325
▁T	-326
▁rel	-327
ni	-328
ord	-329
erson	-330
um	-331
▁person	-332
▁ins	-333
▁contr	-334
ranç	-335
ortant	-336
▁leur	-337
▁mentionné	-338
▁N	-339
ices	-340
dat	-341
nement	-342
▁su	-343
▁6	-344
▁La	-345
LE	-346
▁chargé	-347
sid	-348
it	-349
▁:"	-350
ill	-351
▁can	-352
▁V	-353
▁direc	-354
vis	-355
isation	-356
téri	-357
ge	-358
lec	-359
ffici	-360
▁res	-361
près	-362
cri	-363
▁déf	-364
▁peu	-365
▁candi	-366
▁mé	-367
gan	-368
▁"—	-369
▁portant	-370
▁modi	-371
atif	-372
▁inter	-373
▁aliné	-374
▁rempl	-375
être	-376
▁rég	-377
▁candidat	-378
▁services	-379
tement	-380
ix	-381
alité	-382
organ	-383
ari	-384
ors	-385
▁sp	-386
▁form	-387
ens	-388
▁II	-389
ublique	-390
▁mots	-391
ail	-392
▁sec	-393
▁franç	-394
ette	-395
▁titre	-396
▁être	-397
tivi	-398
pe	-399
▁condi	-400
▁dispositions	-401
▁alinéa	-402
ales	-403
che	-404
écur	-405
▁fix	-406
▁dép	-407
ER	-408
mes	-409
able	-410
▁rec	-411
ication	-412
▁trav	-413
ture	-414
ux	-415
ption	-416
titu	-417
▁sécur	-418
remi	-419
▁décret	-420
▁appli	-421
▁pas	-422
▁trans	-423
▁ci	-424
▁san	-425
▁li	-426
TA	-427
iè	-428
des	-429
-2	-430
ense	-431
▁ter	-432
nes	-433
▁ne	-434
vent	-435
▁sécurité	-436
olog	-437
▁jus	-438
ON	-439
▁Arrêté	-440
▁Rép	-441
acc	-442
▁conditions	-443
née	-444
aise	-445
▁République	-446
▁cas	-447
ateur	-448
▁ass	-449
du	-450
ra	-451
▁modifi	-452
pon	-453
vri	-454
ourn	-455
▁son	-456
▁remplac	-457
▁sous	-458
▁deman	-459
▁française	-460
▁sus	-461
vec	-462
▁2023,	-463
▁offici	-464
▁public	-465
▁ma	-466
ace	-467
▁per	-468
▁7	-469
▁avec	-470
▁sera	-471
ues	-472
ES	-473
ants	-474
oin	-475
▁cl	-476
jet	-477
▁général	-478
▁Mar	-479
▁Par	-480
▁entre	-481
▁ans	-482
▁comm	-483
▁parti	-484
▁suivant	-485
ances	-486
Mme	-487
▁not	-488
▁nationale	-489
▁ag	-490
▁col	-491
▁H	-492
app	-493
▁8	-494
▁premi	-495
pré	-496
▁mar	-497
▁directeur	-498
▁ce	-499
ilité	-500
ier	-501
▁compter	-502
tres	-503
ution	-504
).	-505
Etat	-506
éci	-507
mission	-508
nex	-509
▁-	-510
▁officiel	-511
▁cer	-512
▁201	-513
▁dur	-514
sement	-515
ouv	-516
reu	-517
ournal	-518
administr	-519
pec	-520
erc	-521
ents	-522
▁générale	-523
pl	-524
ir	-525
péri	-526
▁19	-527
▁che	-528
▁Au	-529
tablis	-530
▁Journal	-531
seil	-532
ass	-533
▁déce	-534
▁décembre	-535
Par	-536
ères	-537
▁at	-538
▁formation	-539
BLE	-540
▁tou	-541
val	-542
▁santé	-543
▁peut	-544
vier	-545
▁spéci	-546
administration	-547
Le	-548
OU	-549
▁deux	-550
00	-551
alis	-552
▁mê	-553
gu	-554
AR	-555
▁ph	-556
ard	-557
▁no	-558
alités	-559
▁administr	-560
oire	-561
mé	-562
▁relatif	-563
organis	-564
▁travail	-565
▁tech	-566
été	-567
lle	-568
▁sou	-569
▁concer	-570
ait	-571
▁ob	-572
▁fonction	-573
arrêté	-574
dec	-575
▁dont	-576
TABLE	-577
he	-578
▁<	-579
ner	-580
vre	-581
TI	-582
ffec	-583
▁mis	-584
▁cor	-585
▁don	-586
▁service	-587
sident	-588
uti	-589
nées	-590
oli	-591
▁pos	-592
▁demande	-593
ième	-594
iste	-595
▁médec	-596
enti	-597
▁rés	-598
▁cha	-599
▁collec	-600
▁certif	-601
onom	-602
tère	-603
▁me	-604
dui	-605
ération	-606
AN	-607
▁vi	-608
▁CH	-609
fér	-610
▁susvis	-611
asse	-612
EN	-613
vention	-614
▁terri	-615
▁compé	-616
▁acc	-617
met	-618
▁ses	-619
▁même	-620
▁publié	-621
▁durée	-622
▁il	-623
rance	-624
▁ép	-625
avi	-626
uc	-627
ination	-628
1.	-629
▁1°	-630
nexe	-631
ang	-632
ures	-633
gr	-634
céd	-635
▁ces	-636
st	-637
▁sa	-638
▁autor	-639
▁cette	-640
ôle	-641
▁i	-642
lement	-643
ris	-644
qui	-645
▁U	-646
cip	-647
and	-648
NE	-649
ature	-650
▁Con	-651
ables	-652
estion	-653
▁22	-654
ctions	-655
anvier	-656
▁mod	-657
▁janvier	-658
hé	-659
▁ind	-660
tul	-661
▁défin	-662
éré	-663
▁concours	-664
appli	-665
atr	-666
▁sociale	-667
ticles	-668
▁2°	-669
1-1	-670
all	-671
tique	-672
ante	-673
▁9	-674
tive	-675
▁app	-676
▁dr	-677
mer	-678
atives	-679
▁Ch	-680
ossi	-681
▁articles	-682
tivités	-683
▁op	-684
valu	-685
▁Il	-686
oir	-687
▁plus	-688
▁O	-689
▁candidats	-690
▁supp	-691
présent	-692
▁éc	-693
▁oc	-694
1-	-695
adre	-696
ven	-697
▁mont	-698
▁né	-699
tin	-700
▁gestion	-701
illet	-702
eure	-703
▁premier	-704
cher	-705
▁application	-706
ies	-707
tant	-708
iques	-709
elles	-710
▁représent	-711
oy	-712
▁supéri	-713
ative	-714
th	-715
▁société	-716
▁juillet	-717
▁chef	-718
▁situ	-719
rou	-720
ud	-721
▁16	-722
▁21	-723
▁CHU	-724
▁titul	-725
▁prévues	-726
ille	-727
▁région	-728
lig	-729
▁modifié	-730
édic	-731
ut	-732
La	-733
▁DE	-734
▁national	-735
▁sep	-736
▁12	-737
▁num	-738
▁professionnelle	-739
▁ministère	-740
urs	-741
enne	-742
ement	-743
▁dossi	-744
▁péri	-745
▁lors	-746
taire	-747
▁qualité	-748
tice	-749
▁liste	-750
▁commun	-751
▁finances	-752
ean	-753
▁»,	-754
eurs	-755
▁200	-756
join	-757
▁susvisé	-758
▁personnes	-759
cription	-760
▁31	-761
▁médic	-762
èg	-763
▁min	-764
▁conform	-765
els	-766
IN	-767
▁après	-768
lu	-769
omp	-770
ron	-771
▁publics	-772
tivité	-773
▁Paris	-774
▁auprès	-775
écution	-776
▁dépar	-777
▁référ	-778
RE	-779
éné	-780
entif	-781
▁trois	-782
Les	-783
tation	-784
▁car	-785
tembre	-786
▁Marie	-787
▁septembre	-788
▁sy	-789
ché	-790
ffet	-791
one	-792
ric	-793
2-	-794
▁empl	-795
2.	-796
▁publique	-797
▁convention	-798
ences	-799
lectr	-800
até	-801
▁vis	-802
▁justice	-803
▁sig	-804
II	-805
▁compte	-806
exécution	-807
tac	-808
térieur	-809
▁13	-810
▁2024	-811
▁suivantes	-812
ay	-813
▁associ	-814
▁nomination	-815
▁gar	-816
abilité	-817
▁juin	-818
▁non	-819
ro	-820
▁contrôle	-821
▁sal	-822
œu	-823
▁mise	-824
▁recher	-825
▁for	-826
▁médecine	-827
▁direction	-828
▁certific	-829
▁mars	-830
ision	-831
▁classe	-832
AU	-833
ût	-834
▁délé	-835
▁cadre	-836
▁"1	-837
vembre	-838
▁novembre	-839
enseig	-840
▁tous	-841
vril	-842
empl	-843
tablissement	-844
▁avril	-845
pons	-846
ologie	-847
▁rédi	-848
ception	-849
elon	-850
▁peuvent	-851
aine	-852
▁cré	-853
alisation	-854
▁techn	-855
▁organis	-856
▁fonctions	-857
uli	-858
tob	-859
par	-860
▁poli	-861
vrier	-862
▁montant	-863
▁III	-864
▁mois	-865
▁rédigé	-866
trib	-867
▁dossier	-868
formation	-869
tobre	-870
▁fé	-871
ieu	-872
reuve	-873
ément	-874
▁octobre	-875
▁modalités	-876
sib	-877
▁compéten	-878
iss	-879
application	-880
adi	-881
▁conseil	-882
tent	-883
ises	-884
sig	-885
▁mai	-886
▁permet	-887
▁règ	-888
utilis	-889
▁février	-890
▁pério	-891
oires	-892
▁ég	-893
ages	-894
teurs	-895
▁dél	-896
exerc	-897
▁respons	-898
année	-899
▁2022	-900
▁10	-901
▁Art	-902
▁béné	-903
versi	-904
œuvre	-905
IS	-906
sition	-907
▁produi	-908
▁président	-909
tis	-910
gie	-911
▁mission	-912
quel	-913
▁personnel	-914
▁23	-915
ustr	-916
valuation	-917
▁man	-918
▁complé	-919
▁bénéf	-920
▁An	-921
▁recherche	-922
bre	-923
aut	-924
oût	-925
▁déli	-926
▁11	-927
tifs	-928
▁moins	-929
▁Pour	-930
onomie	-931
▁procéd	-932
▁respec	-933
amment	-934
▁autoris	-935
▁article	-936
erv	-937
▁applic	-938
mbres	-939
▁numéri	-940
▁remplacés	-941
ouver	-942
▁août	-943
ist	-944
pit	-945
▁leurs	-946
▁30	-947
▁indi	-948
▁15	-949
▁ni	-950
▁aff	-951
ps	-952
gation	-953
lè	-954
▁titulaire	-955
▁voi	-956
▁civi	-957
▁France	-958
ulture	-959
▁st	-960
▁néces	-961
▁département	-962
▁notaire	-963
▁"2	-964
ités	-965
▁der	-966
▁limi	-967
▁prop	-968
▁Jean	-969
ég	-970
▁comptes	-971
▁doc	-972
▁ren	-973
iciaire	-974
▁nature	-975
veau	-976
fication	-977
anci	-978
ole	-979
▁navi	-980
anti	-981
▁adjoin	-982
▁inform	-983
▁réalis	-984
▁supérieur	-985
EL	-986
trice	-987
▁prin	-988
▁territ	-989
▁œuvre	-990
▁certificat	-991
▁charge	-992
Mar	-993
▁mentionnées	-994
▁civile	-995
esse	-996
inté	-997
exercice	-998
▁imp	-999
ond	-1000
▁derni	-1001
2-1	-1002
▁chaque	-1003
▁AN	-1004
▁inf	-1005
▁trai	-1006
▁cour	-1007
▁décision	-1008
érations	-1009
▁transp	-1010
▁3°	-1011
saire	-1012
▁doit	-1013
nie	-1014
tall	-1015
▁préc	-1016
reuves	-1017
tien	-1018
ru	-1019
▁électr	-1020
▁gra	-1021
▁mes	-1022
aines	-1023
▁projet	-1024
aci	-1025
▁prend	-1026
onn	-1027
▁z	-1028
enseignement	-1029
sements	-1030
▁mentionnés	-1031
▁bi	-1032
▁numérique	-1033
▁jur	-1034
viron	-1035
mée	-1036
▁compétences	-1037
▁cap	-1038
▁chac	-1039
▁équi	-1040
▁salari	-1041
▁corps	-1042
▁pri	-1043
▁notamment	-1044
tée	-1045
eux	-1046
eté	-1047
▁14	-1048
▁section	-1049
▁moy	-1050
▁nombre	-1051
▁conformément	-1052
rap	-1053
ons	-1054
▁princip	-1055
▁résid	-1056
CH	-1057
▁docu	-1058
id	-1059
vel	-1060
tiques	-1061
autor	-1062
▁cours	-1063
▁industr	-1064
▁membres	-1065
évaluation	-1066
▁mili	-1067
▁lieu	-1068
▁désig	-1069
▁commis	-1070
▁jud	-1071
▁sein	-1072
▁effec	-1073
▁selon	-1074
▁loc	-1075
ateurs	-1076
opp	-1077
▁retr	-1078
alement	-1079
ploit	-1080
truc	-1081
stè	-1082
▁temp	-1083
▁loi	-1084
▁personne	-1085
▁mati	-1086
vironnement	-1087
pond	-1088
▁outre	-1089
3.	-1090
▁pé	-1091
NEX	-1092
▁avant	-1093
ierre	-1094
aint	-1095
▁données	-1096
ureau	-1097
AL	-1098
▁17	-1099
api	-1100
▁ANNEX	-1101
▁exerc	-1102
lar	-1103
▁tout	-1104
▁grade	-1105
▁im	-1106
▁établis	-1107
▁remplacé	-1108
▁En	-1109
gueur	-1110
orts	-1111
nés	-1112
▁situation	-1113
cul	-1114
amen	-1115
RI	-1116
économie	-1117
intérieur	-1118
duction	-1119
▁souver	-1120
▁IV	-1121
velopp	-1122
▁souverain	-1123
▁»."	-1124
▁24	-1125
▁rapp	-1126
▁financi	-1127
niques	-1128
▁souveraineté	-1129
▁délai	-1130
mble	-1131
omm	-1132
▁commission	-1133
tori	-1134
▁éché	-1135
ph	-1136
iversi	-1137
▁systè	-1138
ich	-1139
▁effet	-1140
▁oblig	-1141
▁épreuves	-1142
▁prise	-1143
▁chargés	-1144
aiss	-1145
▁contrat	-1146
▁annexe	-1147
ane	-1148
TION	-1149
▁bureau	-1150
onique	-1151
▁ress	-1152
▁mentionnée	-1153
▁fixant	-1154
organisation	-1155
stitu	-1156
▁2.	-1157
▁25	-1158
min	-1159
▁prévue	-1160
tabli	-1161
▁droit	-1162
▁cent	-1163
▁deuxième	-1164
▁échéant	-1165
▁industri	-1166
inscription	-1167
▁eur	-1168
eures	-1169
3-	-1170
▁comme	-1171
ert	-1172
ouvelle	-1173
▁préf	-1174
▁judiciaire	-1175
▁grou	-1176
ath	-1177
▁réser	-1178
▁inséré	-1179
ouse	-1180
ente	-1181
trang	-1182
ach	-1183
az	-1184
▁techniques	-1185
▁concerne	-1186
IL	-1187
▁activités	-1188
OR	-1189
emploi	-1190
▁ANNEXE	-1191
annexe	-1192
tection	-1193
▁été	-1194
▁Saint	-1195
objet	-1196
établissement	-1197
▁niveau	-1198
__	-1199
▁période	-1200
ils	-1201
▁accord	-1202
▁territori	-1203
▁affaires	-1204
fin	-1205
ress	-1206
▁limite	-1207
yant	-1208
accord	-1209
génie	-1210
ges	-1211
action	-1212
aite	-1213
activité	-1214
▁secré	-1215
▁tran	-1216
▁constitu	-1217
▁lib	-1218
▁progr	-1219
unal	-1220
▁travaux	-1221
▁délégu	-1222
▁diff	-1223
▁entrepr	-1224
▁recru	-1225
▁agents	-1226
▁program	-1227
▁28	-1228
écret	-1229
▁18	-1230
▁té	-1231
3-1	-1232
rée	-1233
▁voie	-1234
▁off	-1235
tées	-1236
▁sub	-1237
▁chacun	-1238
▁consul	-1239
En	-1240
▁vigueur	-1241
tenti	-1242
▁soit	-1243
▁ayant	-1244
▁universi	-1245
dit	-1246
▁"3	-1247
ologique	-1248
▁représentant	-1249
atique	-1250
▁dom	-1251
▁établissements	-1252
▁justif	-1253
épreuve	-1254
▁aéri	-1255
▁droi	-1256
▁trib	-1257
▁inscri	-1258
▁publiques	-1259
▁membre	-1260
tribu	-1261
▁sans	-1262
▁présente	-1263
▁résidence	-1264
ications	-1265
orme	-1266
▁groupe	-1267
▁%	-1268
information	-1269
més	-1270
▁26	-1271
▁réserve	-1272
▁collective	-1273
▁relatives	-1274
▁ten	-1275
▁police	-1276
▁opérations	-1277
▁27	-1278
▁Ce	-1279
apitre	-1280
▁droits	-1281
▁vol	-1282
▁résul	-1283
resse	-1284
▁industrielle	-1285
saires	-1286
oins	-1287
atoire	-1288
nergie	-1289
▁log	-1290
▁partie	-1291
▁produits	-1292
Ar	-1293
▁autres	-1294
▁traitement	-1295
agement	-1296
accès	-1297
▁agré	-1298
▁établi	-1299
oivent	-1300
▁table	-1301
▁Tou	-1302
AS	-1303
atég	-1304
▁Conseil	-1305
▁prest	-1306
▁informations	-1307
▁commissaire	-1308
xim	-1309
▁centre	-1310
▁rele	-1311
▁"4	-1312
jec	-1313
▁référence	-1314
An	-1315
acement	-1316
gence	-1317
ancement	-1318
▁défini	-1319
mées	-1320
rec	-1321
ources	-1322
▁es	-1323
▁ver	-1324
seill	-1325
▁déclar	-1326
aison	-1327
ensemble	-1328
ompag	-1329
▁actes	-1330
▁»"	-1331
▁sé	-1332
naire	-1333
▁commer	-1334
▁applicables	-1335
▁déliv	-1336
exploit	-1337
1-2	-1338
▁dou	-1339
mand	-1340
▁por	-1341
tru	-1342
nu	-1343
▁directrice	-1344
édu	-1345
ah	-1346
▁1.	-1347
▁bud	-1348
endant	-1349
▁utilis	-1350
▁effectu	-1351
▁développ	-1352
éducation	-1353
▁fig	-1354
ase	-1355
▁hors	-1356
▁mot	-1357
▁défense	-1358
▁lig	-1359
▁Gu	-1360
TE	-1361
vr	-1362
▁toute	-1363
▁ab	-1364
▁conseill	-1365
▁première	-1366
▁protection	-1367
▁piè	-1368
ind	-1369
▁chapitre	-1370
▁garde	-1371
énergie	-1372
arm	-1373
ôme	-1374
nation	-1375
▁comptab	-1376
▁maj	-1377
off	-1378
voir	-1379
▁bénéfici	-1380
▁fait	-1381
▁4°	-1382
▁prévention	-1383
▁recrutement	-1384
Ch	-1385
▁nommé	-1386
▁K	-1387
▁Décret	-1388
▁heures	-1389
ls	-1390
▁dipl	-1391
▁pati	-1392
mentation	-1393
organisme	-1394
agis	-1395
environnement	-1396
▁Un	-1397
▁maî	-1398
▁suivi	-1399
▁jusqu	-1400
▁ris	-1401
▁faire	-1402
▁sce	-1403
▁ressources	-1404
IER	-1405
cl	-1406
mentaire	-1407
cep	-1408
Au	-1409
▁0	-1410
▁partir	-1411
▁doivent	-1412
aul	-1413
respond	-1414
istance	-1415
veill	-1416
agistr	-1417
▁Ré	-1418
ariti	-1419
▁tableau	-1420
▁exp	-1421
aide	-1422
▁correspond	-1423
▁29	-1424
▁tard	-1425
▁responsabilité	-1426
éro	-1427
▁étu	-1428
▁fr	-1429
▁supplé	-1430
▁jour	-1431
ueil	-1432
nant	-1433
▁retraite	-1434
▁2023."	-1435
▁électronique	-1436
▁technique	-1437
▁rend	-1438
▁zone	-1439
▁étrang	-1440
▁"1°	-1441
▁€	-1442
enant	-1443
▁attribu	-1444
▁prévu	-1445
▁partic	-1446
▁déter	-1447
IT	-1448
▁compr	-1449
RA	-1450
▁sceaux	-1451
truction	-1452
▁carac	-1453
onne	-1454
▁minim	-1455
▁ministéri	-1456
2-2	-1457
RO	-1458
▁réglement	-1459
▁cal	-1460
▁élé	-1461
▁poin	-1462
taires	-1463
osition	-1464
▁or	-1465
vision	-1466
▁"5	-1467
cours	-1468
▁relevant	-1469
▁tribunal	-1470
▁particuli	-1471
opé	-1472
▁également	-1473
▁matéri	-1474
4-	-1475
aces	-1476
▁suppri	-1477
▁met	-1478
ysi	-1479
▁198	-1480
clu	-1481
▁compris	-1482
examen	-1483
opération	-1484
dem	-1485
▁économ	-1486
▁rése	-1487
▁territoires	-1488
▁sol	-1489
▁six	-1490
Pour	-1491
▁publication	-1492
▁"2°	-1493
jou	-1494
▁conn	-1495
▁vali	-1496
▁matière	-1497
▁ty	-1498
ptions	-1499
pes	-1500
▁site	-1501
▁maxim	-1502
nelle	-1503
▁particip	-1504
aly	-1505
▁production	-1506
ET	-1507
ats	-1508
▁ont	-1509
▁dernier	-1510
▁entreprises	-1511
▁lorsque	-1512
assur	-1513
inter	-1514
▁hum	-1515
▁seu	-1516
▁épouse	-1517
▁In	-1518
rog	-1519
▁dém	-1520
▁mal	-1521
rer	-1522
▁professionnels	-1523
▁cin	-1524
.1.	-1525
IC	-1526
▁nommée	-1527
appel	-1528
tension	-1529
atis	-1530
hér	-1531
▁fond	-1532
▁gaz	-1533
▁transition	-1534
ospit	-1535
..	-1536
▁plan	-1537
▁install	-1538
▁suivants	-1539
▁«-	-1540
▁sci	-1541
▁val	-1542
▁tot	-1543
autorité	-1544
▁pharm	-1545
▁LA	-1546
ax	-1547
▁physi	-1548
▁Pré	-1549
erie	-1550
uis	-1551
▁collectivités	-1552
▁contre	-1553
▁assur	-1554
▁main	-1555
▁Dans	-1556
▁respect	-1557
tie	-1558
▁administratif	-1559
ension	-1560
quis	-1561
▁rapport	-1562
▁modifiant	-1563
▁place	-1564
atégor	-1565
▁Cette	-1566
▁00	-1567
▁affec	-1568
raph	-1569
▁règles	-1570
▁centr	-1571
usi	-1572
▁adjoint	-1573
▁compétent	-1574
▁figur	-1575
▁délégué	-1576
▁ingénie	-1577
OUR	-1578
▁"6	-1579
imp	-1580
▁annu	-1581
▁préfet	-1582
▁radi	-1583
col	-1584
▁hand	-1585
▁autre	-1586
ôpit	-1587
▁2020	-1588
▁actions	-1589
▁définies	-1590
icap	-1591
aissance	-1592
▁jours	-1593
▁mesures	-1594
QU	-1595
▁y	-1596
▁nécessaires	-1597
▁réalisation	-1598
▁spécialité	-1599
▁pris	-1600
In	-1601
▁lég	-1602
▁handicap	-1603
▁82	-1604
sence	-1605
nom	-1606
▁W	-1607
▁médecin	-1608
▁part	-1609
urer	-1610
▁fixé	-1611
▁mariti	-1612
▁catégor	-1613
tats	-1614
▁développement	-1615
▁attac	-1616
▁stat	-1617
Ass	-1618
▁norm	-1619
lex	-1620
dess	-1621
exp	-1622
eau	-1623
ffe	-1624
▁chargée	-1625
vante	-1626
▁permettant	-1627
▁suit	-1628
▁armées	-1629
aur	-1630
ches	-1631
▁DU	-1632
▁fixée	-1633
ov	-1634
fs	-1635
stitut	-1636
▁quali	-1637
▁Lors	-1638
onc	-1639
oupe	-1640
▁défaut	-1641
AM	-1642
gis	-1643
▁garanti	-1644
▁différ	-1645
▁documents	-1646
▁Après	-1647
duc	-1648
▁DES	-1649
▁vé	-1650
▁us	-1651
▁cli	-1652
▁europé	-1653
▁2021	-1654
▁toutes	-1655
vidu	-1656
sible	-1657
▁rest	-1658
▁pièces	-1659
ouverture	-1660
▁cel	-1661
endar	-1662
▁2019	-1663
▁déb	-1664
OM	-1665
adé	-1666
▁jury	-1667
▁individu	-1668
▁ajou	-1669
▁ense	-1670
rés	-1671
AP	-1672
▁remplacement	-1673
rase	-1674
▁Premi	-1675
▁éléments	-1676
vers	-1677
▁struc	-1678
▁phrase	-1679
▁61	-1680
▁magistr	-1681
▁Elle	-1682
4-1	-1683
ouve	-1684
nent	-1685
▁afin	-1686
32	-1687
équi	-1688
▁postes	-1689
▁fa	-1690
chi	-1691
tiers	-1692
4.	-1693
offici	-1694
▁ligne	-1695
get	-1696
tures	-1697
oraire	-1698
▁poste	-1699
▁culture	-1700
▁disposition	-1701
▁Cl	-1702
▁gendar	-1703
▁ouver	-1704
uclé	-1705
▁Com	-1706
vé	-1707
▁inté	-1708
▁précis	-1709
hésion	-1710
loc	-1711
▁LE	-1712
ôpitaux	-1713
▁ent	-1714
▁acces	-1715
▁charges	-1716
lles	-1717
▁32	-1718
▁vale	-1719
entifi	-1720
▁humaines	-1721
merie	-1722
▁équipe	-1723
▁personnels	-1724
test	-1725
▁cir	-1726
usieurs	-1727
▁comité	-1728
▁secrétaire	-1729
▁Al	-1730
▁plusieurs	-1731
oration	-1732
tenant	-1733
atiques	-1734
▁répar	-1735
▁"7	-1736
▁temps	-1737
SS	-1738
exploitation	-1739
rançois	-1740
mun	-1741
hab	-1742
riculture	-1743
DE	-1744
térieure	-1745
atoires	-1746
▁41	-1747
état	-1748
▁nuclé	-1749
xte	-1750
▁dérou	-1751
▁fixées	-1752
▁hospit	-1753
▁champ	-1754
▁médical	-1755
▁celles	-1756
effet	-1757
ime	-1758
rit	-1759
antes	-1760
▁Pierre	-1761
▁troisième	-1762
▁financement	-1763
AT	-1764
▁avis	-1765
▁proc	-1766
▁emploi	-1767
▁territoire	-1768
assurance	-1769
▁lim	-1770
▁véri	-1771
▁fac	-1772
▁règlement	-1773
▁mob	-1774
▁système	-1775
▁cet	-1776
▁lui	-1777
fr	-1778
▁employ	-1779
veillance	-1780
▁procédure	-1781
entiel	-1782
▁modification	-1783
élé	-1784
dr	-1785
▁écologique	-1786
▁suivante	-1787
ôt	-1788
▁gendarmerie	-1789
oles	-1790
▁inféri	-1791
▁ai	-1792
IR	-1793
▁vers	-1794
▁coord	-1795
▁000	-1796
▁calcul	-1797
expéri	-1798
▁budget	-1799
▁donnée	-1800
▁limité	-1801
dic	-1802
▁soins	-1803
éli	-1804
atrice	-1805
eng	-1806
▁modifiée	-1807
aviation	-1808
5-1	-1809
▁aér	-1810
▁eng	-1811
▁sign	-1812
▁type	-1813
Assistance	-1814
▁(1	-1815
él	-1816
▁maladi	-1817
iti	-1818
▁précéd	-1819
ose	-1820
▁douan	-1821
▁contrib	-1822
titude	-1823
▁dispositif	-1824
▁programme	-1825
agriculture	-1826
uit	-1827
entes	-1828
5-	-1829
lon	-1830
▁appr	-1831
inc	-1832
▁transport	-1833
ori	-1834
ange	-1835
▁conclu	-1836
▁complété	-1837
▁Une	-1838
mpli	-1839
▁diplôme	-1840
▁taux	-1841
art	-1842
▁je	-1843
▁hospitali	-1844
demn	-1845
ARD	-1846
êche	-1847
▁contrô	-1848
ets	-1849
▁télé	-1850
der	-1851
con	-1852
▁compos	-1853
up	-1854
▁"8	-1855
▁cohésion	-1856
▁inspec	-1857
▁elle	-1858
ulation	-1859
▁pendant	-1860
▁certification	-1861
▁aut	-1862
▁réception	-1863
▁pres	-1864
▁Première	-1865
▁spécialités	-1866
▁missions	-1867
▁écri	-1868
hili	-1869
tives	-1870
ines	-1871
▁exercer	-1872
anc	-1873
▁base	-1874
rég	-1875
Pierre	-1876
inspec	-1877
▁5°	-1878
▁libér	-1879
▁salariés	-1880
hic	-1881
ordre	-1882
▁gr	-1883
▁lesquel	-1884
▁prestations	-1885
gistre	-1886
▁prendre	-1887
illes	-1888
▁Ces	-1889
▁organismes	-1890
▁id	-1891
▁décisions	-1892
▁associés	-1893
▁livre	-1894
âti	-1895
02	-1896
6-1	-1897
AC	-1898
èle	-1899
forme	-1900
▁contin	-1901
ern	-1902
jud	-1903
naires	-1904
▁adjointe	-1905
hicu	-1906
hilipp	-1907
▁quat	-1908
bles	-1909
rogé	-1910
▁Publique	-1911
▁médicale	-1912
▁étrangères	-1913
tention	-1914
aud	-1915
abin	-1916
prise	-1917
olid	-1918
▁dérog	-1919
ENT	-1920
33	-1921
▁3.	-1922
ennes	-1923
▁interne	-1924
▁maritime	-1925
raphe	-1926
▁opération	-1927
▁contrac	-1928
Al	-1929
utilisation	-1930
▁tari	-1931
ograph	-1932
▁prépar	-1933
ma	-1934
▁unique	-1935
officiers	-1936
▁remplacée	-1937
▁parag	-1938
ing	-1939
tur	-1940
▁De	-1941
▁relative	-1942
fications	-1943
OT	-1944
▁véhicu	-1945
OL	-1946
IE	-1947
itaire	-1948
▁Chris	-1949
oix	-1950
én	-1951
▁relatifs	-1952
▁principal	-1953
▁bis	-1954
▁mani	-1955
▁remb	-1956
▁const	-1957
équipe	-1958
▁annex	-1959
▁social	-1960
▁consomm	-1961
▁capit	-1962
▁transports	-1963
▁consid	-1964
▁Y	-1965
▁exam	-1966
▁internation	-1967
Arrêté	-1968
▁université	-1969
▁moyens	-1970
▁limitée	-1971
venant	-1972
yc	-1973
▁cheffe	-1974
▁class	-1975
▁systèmes	-1976
rêt	-1977
vol	-1978
▁four	-1979
lée	-1980
▁35	-1981
▁visi	-1982
▁français	-1983
Un	-1984
ATION	-1985
hilippe	-1986
quelle	-1987
▁administrateur	-1988
▁cabin	-1989
uel	-1990
▁2023.	-1991
position	-1992
rand	-1993
aisant	-1994
▁née	-1995
▁laquelle	-1996
tements	-1997
▁ministériels	-1998
▁notif	-1999
▁douanes	-2000
▁activité	-2001
mise	-2002
tribution	-2003
orde	-2004
▁vice	-2005
office	-2006
idi	-2007
▁jeun	-2008
52	-2009
▁fer	-2010
▁ET	-2011
▁péni	-2012
install	-2013
▁pénitenti	-2014
ore	-2015
▁supérieure	-2016
▁rou	-2017
enses	-2018
▁admis	-2019
▁pai	-2020
▁condui	-2021
▁rémun	-2022
ade	-2023
oine	-2024
▁celle	-2025
▁cinq	-2026
4,	-2027
▁agric	-2028
▁physique	-2029
otte	-2030
▁éch	-2031
Institut	-2032
ventions	-2033
la	-2034
▁domaine	-2035
▁réseau	-2036
▁second	-2037
▁emplois	-2038
président	-2039
▁attributions	-2040
▁susvisée	-2041
▁procédures	-2042
intégr	-2043
5.	-2044
▁risques	-2045
tenu	-2046
▁navire	-2047
▁scientif	-2048
▁abrogé	-2049
▁adap	-2050
▁centrale	-2051
pose	-2052
mique	-2053
▁vue	-2054
▁mon	-2055
die	-2056
ains	-2057
acité	-2058
▁bâti	-2059
▁représentants	-2060
3,	-2061
oph	-2062
union	-2063
40	-2064
Agence	-2065
▁signer	-2066
adresse	-2067
▁exter	-2068
dits	-2069
▁délégation	-2070
▁administrative	-2071
▁celui	-2072
▁insérés	-2073
▁civ	-2074
▁point	-2075
▁communication	-2076
étés	-2077
▁prom	-2078
▁maladie	-2079
▁applicable	-2080
od	-2081
étu	-2082
30	-2083
rès	-2084
▁pêche	-2085
▁forme	-2086
Il	-2087
▁offer	-2088
▁commerce	-2089
ariat	-2090
▁pass	-2091
orte	-2092
▁cert	-2093
▁199	-2094
▁Mich	-2095
▁reconn	-2096
pro	-2097
▁année	-2098
▁4.	-2099
▁exig	-2100
▁amé	-2101
aute	-2102
▁exer	-2103
pace	-2104
▁objec	-2105
5,	-2106
▁vie	-2107
après	-2108
uelle	-2109
autorisation	-2110
▁accompag	-2111
opér	-2112
ettes	-2113
UR	-2114
ki	-2115
▁Nig	-2116
ote	-2117
▁ministres	-2118
▁confi	-2119
▁inscriptions	-2120
agé	-2121
sie	-2122
▁division	-2123
▁études	-2124
▁paragraphe	-2125
▁méth	-2126
▁faisant	-2127
▁préal	-2128
31	-2129
▁Nigend	-2130
SE	-2131
▁bes	-2132
▁moyen	-2133
oly	-2134
6-	-2135
▁document	-2136
▁mandat	-2137
▁catégorie	-2138
▁dépenses	-2139
▁économique	-2140
▁cabinet	-2141
▁communes	-2142
▁fourni	-2143
III	-2144
tip	-2145
▁sens	-2146
▁cah	-2147
admission	-2148
▁""	-2149
ouvel	-2150
▁éner	-2151
ège	-2152
▁Z	-2153
ertion	-2154
aptitude	-2155
vali	-2156
▁professe	-2157
ble	-2158
avenant	-2159
____	-2160
▁détermin	-2161
ode	-2162
nements	-2163
▁nommés	-2164
éch	-2165
▁disp	-2166
af	-2167
▁définis	-2168
▁comptable	-2169
em	-2170
▁contractu	-2171
dité	-2172
▁figurant	-2173
▁avoir	-2174
▁temporaire	-2175
▁str	-2176
tro	-2177
ler	-2178
sy	-2179
sibilité	-2180
▁gestionnaire	-2181
lés	-2182
entification	-2183
▁responsable	-2184
▁juge	-2185
aceuti	-2186
ze	-2187
▁ali	-2188
▁parcours	-2189
▁Président	-2190
cole	-2191
▁équipements	-2192
ibles	-2193
▁plac	-2194
▁valeur	-2195
▁Ly	-2196
▁déclaration	-2197
▁Des	-2198
▁maîtr	-2199
▁installations	-2200
▁eaux	-2201
▁statut	-2202
lier	-2203
installation	-2204
▁transf	-2205
▁évalu	-2206
Sont	-2207
▁patients	-2208
▁Lorsque	-2209
▁quatre	-2210
Hôpitaux	-2211
amp	-2212
▁rang	-2213
▁comprend	-2214
▁matières	-2215
▁recours	-2216
serv	-2217
▁hab	-2218
médi	-2219
CI	-2220
ophe	-2221
▁péd	-2222
ouvellement	-2223
▁syn	-2224
France	-2225
▁militaires	-2226
usage	-2227
▁cahier	-2228
▁alinéas	-2229
▁régionale	-2230
▁déch	-2231
▁Centre	-2232
▁march	-2233
▁Char	-2234
issue	-2235
agements	-2236
agne	-2237
▁valid	-2238
▁établissement	-2239
emp	-2240
▁sau	-2241
▁seront	-2242
▁comman	-2243
▁création	-2244
aude	-2245
▁libéral	-2246
▁aérienne	-2247
trait	-2248
▁soumis	-2249
▁enseig	-2250
▁surf	-2251
▁33	-2252
▁51	-2253
▁port	-2254
insertion	-2255
▁VI	-2256
▁requ	-2257
▁pharmaceuti	-2258
élè	-2259
▁Th	-2260
▁initi	-2261
▁constaté	-2262
entreprise	-2263
ociation	-2264
▁militaire	-2265
▁propos	-2266
ition	-2267
▁solid	-2268
ouis	-2269
Marie	-2270
▁"3°	-2271
Jean	-2272
agog	-2273
élégation	-2274
▁logement	-2275
▁jeunesse	-2276
ulations	-2277
▁zon	-2278
ong	-2279
fait	-2280
▁post	-2281
▁pédagog	-2282
ouvernement	-2283
▁42	-2284
▁mesure	-2285
6.	-2286
▁2024,	-2287
▁précise	-2288
▁état	-2289
▁rép	-2290
▁Re	-2291
enc	-2292
▁bas	-2293
vient	-2294
ann	-2295
cipl	-2296
▁technici	-2297
entité	-2298
▁texte	-2299
agré	-2300
rection	-2301
cc	-2302
amille	-2303
▁adress	-2304
téris	-2305
▁frais	-2306
▁régional	-2307
ataire	-2308
fiée	-2309
▁tant	-2310
clusion	-2311
▁attach	-2312
▁Cor	-2313
▁spor	-2314
3-2	-2315
accueil	-2316
▁spécialis	-2317
cup	-2318
aisse	-2319
▁sport	-2320
SI	-2321
onel	-2322
▁prescri	-2323
▁paiement	-2324
mie	-2325
▁titulaires	-2326
are	-2327
vement	-2328
▁scientifique	-2329
rier	-2330
▁obligatoires	-2331
ME	-2332
▁ingénieur	-2333
▁renouvellement	-2334
▁"9	-2335
▁examens	-2336
Dans	-2337
agers	-2338
▁énergé	-2339
▁prob	-2340
▁perform	-2341
▁dispon	-2342
▁considéré	-2343
▁conseiller	-2344
yl	-2345
absence	-2346
appr	-2347
anim	-2348
▁Lyon	-2349
▁6°	-2350
▁Partie	-2351
lie	-2352
▁fonctionnement	-2353
ritères	-2354
icol	-2355
▁as	-2356
▁Ier	-2357
testation	-2358
tine	-2359
urb	-2360
▁siège	-2361
tier	-2362
▁dénom	-2363
çon	-2364
▁Mont	-2365
▁commerci	-2366
hérap	-2367
▁concernant	-2368
▁projets	-2369
▁construction	-2370
▁tax	-2371
rie	-2372
effici	-2373
▁X	-2374
ties	-2375
agrément	-2376
6,	-2377
net	-2378
extension	-2379
alyse	-2380
▁Anne	-2381
▁années	-2382
▁exception	-2383
▁Dé	-2384
▁euros	-2385
▁régime	-2386
▁Di	-2387
▁sanctions	-2388
▁pén	-2389
▁av	-2390
01	-2391
ays	-2392
ètre	-2393
▁rur	-2394
▁institu	-2395
chef	-2396
férence	-2397
▁fonctionnaires	-2398
icité	-2399
▁sociales	-2400
téph	-2401
▁égal	-2402
entrée	-2403
▁maximum	-2404
▁cad	-2405
▁choix	-2406
▁lorsqu	-2407
atric	-2408
▁préalable	-2409
▁François	-2410
aume	-2411
▁patient	-2412
lexand	-2413
▁ple	-2414
lection	-2415
▁proposition	-2416
inspection	-2417
utes	-2418
▁transmission	-2419
ani	-2420
▁justific	-2421
lo	-2422
rig	-2423
▁mettre	-2424
▁ouvr	-2425
▁total	-2426
onde	-2427
arb	-2428
icolas	-2429
▁propri	-2430
tenir	-2431
▁chi	-2432
▁prévus	-2433
ry	-2434
▁maîtrise	-2435
çant	-2436
atrie	-2437
▁ceux	-2438
▁exigences	-2439
agn	-2440
▁permettre	-2441
électr	-2442
▁fonds	-2443
7,	-2444
▁conserv	-2445
▁accessible	-2446
tein	-2447
▁caractère	-2448
ber	-2449
iser	-2450
accompag	-2451
▁produit	-2452
▁structure	-2453
▁imm	-2454
▁administratives	-2455
▁pe	-2456
▁renouvel	-2457
▁politique	-2458
▁résultats	-2459
▁demandes	-2460
42	-2461
quent	-2462
▁pension	-2463
RAN	-2464
▁É	-2465
dex	-2466
ression	-2467
adap	-2468
41	-2469
▁Si	-2470
▁externe	-2471
▁5.	-2472
▁mor	-2473
mentaires	-2474
▁transmis	-2475
▁caractéris	-2476
▁ils	-2477
▁nécessi	-2478
▁AU	-2479
orig	-2480
▁européenne	-2481
)"	-2482
▁employeurs	-2483
ommand	-2484
▁divers	-2485
▁transmet	-2486
rique	-2487
▁appar	-2488
AG	-2489
▁pil	-2490
▁dépl	-2491
▁fois	-2492
▁complémentaire	-2493
▁principale	-2494
▁compétente	-2495
▁numéro	-2496
▁concernés	-2497
▁"«-	-2498
▁navigation	-2499
▁pharmaceutiques	-2500
▁enti	-2501
▁éten	-2502
▁th	-2503
▁minutes	-2504
▁Michel	-2505
cien	-2506
dessous	-2507
▁parties	-2508
cid	-2509
▁amén	-2510
lation	-2511
▁contribu	-2512
ible	-2513
▁aides	-2514
▁définie	-2515
▁Article	-2516
CE	-2517
▁milieu	-2518
quer	-2519
▁Jac	-2520
ulaire	-2521
▁Philippe	-2522
▁salariée	-2523
2-3	-2524
▁supprimés	-2525
▁crédits	-2526
▁dernière	-2527
▁détac	-2528
▁recettes	-2529
▁men	-2530
▁zones	-2531
▁ski	-2532
▁secteur	-2533
▁session	-2534
▁Laur	-2535
▁sem	-2536
▁obligations	-2537
▁administratifs	-2538
atifs	-2539
▁bord	-2540
▁proté	-2541
▁rue	-2542
▁position	-2543
▁financier	-2544
▁rémunération	-2545
▁perman	-2546
▁mer	-2547
▁mêmes	-2548
rées	-2549
▁associé	-2550
▁conformité	-2551
▁arrêtés	-2552
50	-2553
ranc	-2554
▁commande	-2555
▁critères	-2556
Ecole	-2557
▁2023-	-2558
▁référentiel	-2559
▁objectifs	-2560
▁transformation	-2561
▁major	-2562
▁énergétique	-2563
▁élè	-2564
▁surveillance	-2565
22	-2566
rin	-2567
ourg	-2568
tenance	-2569
▁discipl	-2570
▁unités	-2571
▁effets	-2572
opérateur	-2573
mandant	-2574
isse	-2575
▁circul	-2576
rage	-2577
▁Car	-2578
unité	-2579
▁commune	-2580
▁correspondant	-2581
▁particulier	-2582
épar	-2583
▁office	-2584
▁Gouvernement	-2585
▁solidar	-2586
origine	-2587
▁inc	-2588
▁déchets	-2589
ll	-2590
▁environnement	-2591
asc	-2592
ôts	-2593
▁sais	-2594
▁déterm	-2595
▁secrét	-2596
▁nécessaire	-2597
▁tarif	-2598
urgence	-2599
agent	-2600
▁Cour	-2601
▁chambre	-2602
Cal	-2603
identification	-2604
versité	-2605
▁recommand	-2606
urop	-2607
AD	-2608
▁clô	-2609
inique	-2610
nelles	-2611
▁simpli	-2612
▁lesquelles	-2613
région	-2614
▁civil	-2615
ellement	-2616
▁page	-2617
▁bil	-2618
ètres	-2619
▁Che	-2620
▁desti	-2621
▁délivrance	-2622
▁Val	-2623
exclusion	-2624
lici	-2625
▁audi	-2626
▁épreuve	-2627
exception	-2628
intégralité	-2629
aî	-2630
onie	-2631
Union	-2632
tophe	-2633
IV	-2634
▁manière	-2635
▁sociaux	-2636
amén	-2637
▁plein	-2638
▁risque	-2639
▁évent	-2640
livier	-2641
Th	-2642
▁minimum	-2643
ordonn	-2644
▁territoriales	-2645
sibles	-2646
LA	-2647
irur	-2648
▁orale	-2649
▁restant	-2650
▁consulter	-2651
intérêt	-2652
▁».	-2653
▁Guy	-2654
achet	-2655
ilités	-2656
▁clôture	-2657
▁k	-2658
endre	-2659
▁Br	-2660
cepti	-2661
▁psy	-2662
▁Q	-2663
assi	-2664
▁tenu	-2665
▁agréé	-2666
▁cadres	-2667
Con	-2668
▁hy	-2669
▁réd	-2670
▁délib	-2671
entifié	-2672
avis	-2673
édération	-2674
ly	-2675
inscri	-2676
▁délais	-2677
▁indiqu	-2678
▁tiers	-2679
▁performance	-2680
ffis	-2681
IG	-2682
8,	-2683
▁197	-2684
▁répond	-2685
registre	-2686
▁suscepti	-2687
▁inscription	-2688
▁stip	-2689
▁connaissance	-2690
mat	-2691
▁May	-2692
▁offerts	-2693
▁groupement	-2694
▁Paul	-2695
MENT	-2696
▁And	-2697
autres	-2698
▁sociétés	-2699
...	-2700
▁esp	-2701
nov	-2702
ône	-2703
▁gl	-2704
▁internet	-2705
▁réaliser	-2706
▁avenant	-2707
▁forfait	-2708
expérimentation	-2709
iche	-2710
▁périodes	-2711
▁adjud	-2712
▁capacité	-2713
▁accep	-2714
▁images	-2715
tance	-2716
▁Nouvelle	-2717
équ	-2718
▁rub	-2719
alie	-2720
reté	-2721
isc	-2722
èse	-2723
drom	-2724
▁scol	-2725
▁désignés	-2726
oul	-2727
direc	-2728
▁enf	-2729
dessus	-2730
▁prises	-2731
10	-2732
IRE	-2733
▁présentation	-2734
obili	-2735
▁admission	-2736
▁lequel	-2737
▁EN	-2738
Juli	-2739
ologiques	-2740
▁extension	-2741
▁secrétariat	-2742
▁condition	-2743
▁dérogation	-2744
▁produc	-2745
dite	-2746
▁acadé	-2747
ouvez	-2748
▁lut	-2749
ILL	-2750
▁Juli	-2751
▁pouvez	-2752
▁sû	-2753
▁Vous	-2754
▁mais	-2755
▁pôle	-2756
▁financière	-2757
▁aérone	-2758
animation	-2759
▁auth	-2760
▁Toute	-2761
▁susp	-2762
▁dépôt	-2763
▁conjoin	-2764
efficient	-2765
▁nucléaire	-2766
▁métiers	-2767
isme	-2768
extrait	-2769
vet	-2770
▁exploit	-2771
accompagnement	-2772
ocon	-2773
▁titres	-2774
▁notaires	-2775
49	-2776
▁expéri	-2777
▁foi	-2778
45	-2779
▁consommation	-2780
47	-2781
réd	-2782
âge	-2783
opri	-2784
toine	-2785
▁juridi	-2786
engagement	-2787
▁spécifi	-2788
seille	-2789
▁raison	-2790
préf	-2791
▁attachée	-2792
assurer	-2793
▁comporte	-2794
Délégation	-2795
osi	-2796
ème	-2797
oni	-2798
attac	-2799
effec	-2800
▁font	-2801
section	-2802
hy	-2803
actions	-2804
▁marché	-2805
▁valoir	-2806
▁hom	-2807
istant	-2808
demnité	-2809
▁rembours	-2810
▁suppléant	-2811
21	-2812
41-1	-2813
idic	-2814
▁sanitaire	-2815
vra	-2816
▁Borde	-2817
▁Réunion	-2818
sation	-2819
▁2007	-2820
▁navires	-2821
gée	-2822
urope	-2823
▁juridic	-2824
fic	-2825
lan	-2826
▁reç	-2827
▁locaux	-2828
▁él	-2829
▁cotis	-2830
ERT	-2831
▁2,	-2832
Gu	-2833
▁pédagogique	-2834
▁2017	-2835
▁début	-2836
▁courir	-2837
sui	-2838
▁réparti	-2839
cession	-2840
▁bénéficier	-2841
ennent	-2842
▁stipulations	-2843
vée	-2844
▁ét	-2845
▁exerçant	-2846
▁devr	-2847
▁long	-2848
▁biens	-2849
▁fourn	-2850
▁véhicules	-2851
mman	-2852
▁auc	-2853
▁stage	-2854
▁candidature	-2855
▁pu	-2856
▁autom	-2857
▁budgé	-2858
▁satis	-2859
▁Ass	-2860
agi	-2861
▁acquis	-2862
FF	-2863
tail	-2864
fois	-2865
▁forê	-2866
▁promo	-2867
ommun	-2868
▁nouvelle	-2869
aménagement	-2870
intéress	-2871
▁Bordeaux	-2872
▁élèves	-2873
illaume	-2874
▁besoins	-2875
▁rendues	-2876
▁conventions	-2877
▁nucléaires	-2878
▁gre	-2879
ock	-2880
▁territorial	-2881
▁pénitentiaires	-2882
▁résultant	-2883
39	-2884
▁dix	-2885
▁agent	-2886
▁36	-2887
▁Est	-2888
▁demand	-2889
▁justifi	-2890
ibilité	-2891
▁lang	-2892
1,	-2893
▁som	-2894
ouvoir	-2895
▁Ad	-2896
ophie	-2897
ocation	-2898
▁chirur	-2899
▁rubrique	-2900
▁autorisée	-2901
▁fem	-2902
▁conf	-2903
▁autorités	-2904
uses	-2905
▁chois	-2906
▁dossiers	-2907
ieux	-2908
direction	-2909
voi	-2910
▁adresse	-2911
▁authentifié	-2912
▁2018	-2913
▁marchés	-2914
▁dispositifs	-2915
▁client	-2916
▁désigné	-2917
▁lutte	-2918
▁fl	-2919
réci	-2920
▁nég	-2921
▁Lille	-2922
▁pourr	-2923
▁attein	-2924
▁bâtiment	-2925
▁75	-2926
▁appel	-2927
ingénie	-2928
▁am	-2929
adaptation	-2930
▁iss	-2931
▁sûreté	-2932
▁rejet	-2933
tec	-2934
▁PRO	-2935
oconférence	-2936
▁territoriale	-2937
illi	-2938
atrième	-2939
▁pharmaci	-2940
erre	-2941
▁maître	-2942
aér	-2943
▁places	-2944
▁chacune	-2945
2,	-2946
▁interrégion	-2947
ureur	-2948
▁visioconférence	-2949
▁Ils	-2950
oblig	-2951
riel	-2952
ÉS	-2953
aque	-2954
▁Etat	-2955
▁Toul	-2956
▁comb	-2957
tivement	-2958
▁Tr	-2959
aits	-2960
▁alimentaire	-2961
abr	-2962
▁départemental	-2963
▁signature	-2964
ug	-2965
▁CON	-2966
▁Ren	-2967
▁patr	-2968
gement	-2969
▁équival	-2970
autre	-2971
▁présenter	-2972
▁coopération	-2973
hement	-2974
▁étendu	-2975
▁inférieur	-2976
▁quatrième	-2977
novation	-2978
▁fisc	-2979
▁2006	-2980
instruction	-2981
avoir	-2982
lexandre	-2983
▁salarié	-2984
Rh	-2985
électricité	-2986
▁indirec	-2987
iers	-2988
éric	-2989
▁MAR	-2990
▁lab	-2991
▁composition	-2992
▁50	-2993
anie	-2994
▁stagi	-2995
▁parten	-2996
▁Toulouse	-2997
nels	-2998
▁Pro	-2999
▁note	-3000
▁obligatoire	-3001
dre	-3002
quê	-3003
anne	-3004
▁soutien	-3005
▁adjudant	-3006
7.	-3007
Lors	-3008
35	-3009
▁liées	-3010
▁rédaction	-3011
▁administratrice	-3012
▁personn	-3013
torité	-3014
▁fixe	-3015
▁Mayotte	-3016
▁communi	-3017
▁enc	-3018
▁modèle	-3019
▁simplifiée	-3020
rent	-3021
▁rep	-3022
▁Sont	-3023
▁compétence	-3024
1-5	-3025
air	-3026
36	-3027
▁pou	-3028
▁1,	-3029
▁économiques	-3030
OS	-3031
tenus	-3032
▁surface	-3033
▁7°	-3034
▁IN	-3035
▁ajouté	-3036
édonie	-3037
▁points	-3038
▁déroulement	-3039
ami	-3040
▁délivré	-3041
toire	-3042
▁Bloc	-3043
▁examen	-3044
,"	-3045
▁terme	-3046
▁télés	-3047
ILLE	-3048
abelle	-3049
▁préparation	-3050
▁162-2	-3051
▁cachet	-3052
▁attaché	-3053
aff	-3054
groupe	-3055
fession	-3056
▁relations	-3057
adel	-3058
adrement	-3059
applique	-3060
Calédonie	-3061
obligation	-3062
issant	-3063
▁34	-3064
▁pop	-3065
mètre	-3066
▁devra	-3067
érodrom	-3068
70	-3069
▁cyc	-3070
▁chez	-3071
▁aérien	-3072
▁hospitalière	-3073
▁autorisation	-3074
for	-3075
otage	-3076
▁concession	-3077
9,	-3078
75	-3079
RU	-3080
▁cou	-3081
raî	-3082
use	-3083
ène	-3084
Europe	-3085
▁équip	-3086
lor	-3087
érie	-3088
▁préci	-3089
AB	-3090
▁légis	-3091
▁normale	-3092
exploitant	-3093
vestis	-3094
ANT	-3095
▁pron	-3096
▁contrôles	-3097
ID	-3098
▁autorisées	-3099
46	-3100
▁médica	-3101
oh	-3102
▁"4°	-3103
▁générales	-3104
omas	-3105
▁Poly	-3106
▁bénéficiaires	-3107
veur	-3108
▁créé	-3109
▁rural	-3110
oss	-3111
Paul	-3112
▁validation	-3113
osé	-3114
habit	-3115
▁stock	-3116
▁Marseille	-3117
étrang	-3118
intervention	-3119
▁certificats	-3120
audit	-3121
tropo	-3122
ouveau	-3123
▁identifi	-3124
appliquent	-3125
AUD	-3126
▁étudi	-3127
▁magistrats	-3128
ettre	-3129
▁réseaux	-3130
▁autorisant	-3131
▁reconnaissance	-3132
gn	-3133
ède	-3134
▁près	-3135
▁prê	-3136
aient	-3137
istes	-3138
EC	-3139
ection	-3140
▁cau	-3141
▁assurer	-3142
▁pratique	-3143
ète	-3144
▁centres	-3145
▁conv	-3146
▁égale	-3147
▁Pr	-3148
ta	-3149
▁2024.	-3150
▁élig	-3151
étranger	-3152
▁NO	-3153
▁méc	-3154
▁lien	-3155
▁vari	-3156
▁Haute	-3157
nésie	-3158
ranche	-3159
▁fins	-3160
▁bilan	-3161
sabelle	-3162
▁Commission	-3163
72	-3164
▁patrim	-3165
MP	-3166
▁noms	-3167
▁sauf	-3168
▁ledit	-3169
agence	-3170
▁matériel	-3171
gré	-3172
▁Gr	-3173
▁dès	-3174
▁procureur	-3175
▁glob	-3176
▁annuel	-3177
▁agricole	-3178
unis	-3179
▁221-1	-3180
▁préfec	-3181
hérapeu	-3182
expérience	-3183
▁enfants	-3184
EP	-3185
▁(2	-3186
agnos	-3187
rédéric	-3188
activités	-3189
▁promotion	-3190
▁cr	-3191
ements	-3192
▁mises	-3193
▁qualifi	-3194
▁tu	-3195
▁prix	-3196
▁fixés	-3197
▁conforme	-3198
onau	-3199
▁postale	-3200
rets	-3201
yn	-3202
enf	-3203
▁géograph	-3204
▁périmètre	-3205
encadrement	-3206
▁plaf	-3207
ordonnance	-3208
onds	-3209
▁concerné	-3210
tal	-3211
▁inférieure	-3212
▁détail	-3213
▁assure	-3214
▁ul	-3215
incent	-3216
▁objet	-3217
▁matériels	-3218
▁écrite	-3219
adeloupe	-3220
▁nouveau	-3221
AV	-3222
avor	-3223
▁mom	-3224
▁figurent	-3225
▁Polynésie	-3226
effectu	-3227
GU	-3228
erm	-3229
▁relè	-3230
leur	-3231
Chris	-3232
▁femmes	-3233
▁départementale	-3234
entin	-3235
▁Martin	-3236
▁maintenance	-3237
▁dispose	-3238
▁pilotage	-3239
▁Stéph	-3240
▁capitaine	-3241
0-	-3242
▁change	-3243
▁démar	-3244
8.	-3245
▁Bern	-3246
▁heure	-3247
colonel	-3248
▁domici	-3249
▁spécifiques	-3250
Laur	-3251
gées	-3252
unaux	-3253
▁prime	-3254
habitation	-3255
valier	-3256
▁financières	-3257
▁tel	-3258
▁valor	-3259
▁demandeur	-3260
▁Louis	-3261
▁rédigée	-3262
▁différents	-3263
registrement	-3264
71	-3265
gard	-3266
▁ref	-3267
▁réalisé	-3268
▁réalisée	-3269
▁réglementaires	-3270
amilles	-3271
aissances	-3272
▁généraux	-3273
▁technicien	-3274
▁Rou	-3275
fique	-3276
▁opér	-3277
▁pays	-3278
étaire	-3279
▁moment	-3280
62	-3281
astien	-3282
▁organisation	-3283
QUE	-3284
dev	-3285
erti	-3286
▁Tri	-3287
0,	-3288
1-3	-3289
ONNE	-3290
▁vérifi	-3291
▁remboursables	-3292
▁André	-3293
▁formations	-3294
▁métropo	-3295
▁familles	-3296
▁bénéficiaire	-3297
AND	-3298
▁Parties	-3299
puis	-3300
mation	-3301
▁diagnos	-3302
ile	-3303
vées	-3304
▁sports	-3305
volution	-3306
▁participation	-3307
▁devront	-3308
my	-3309
oiss	-3310
▁commandant	-3311
▁entreprise	-3312
Ce	-3313
gne	-3314
▁distribution	-3315
▁thérapeu	-3316
ess	-3317
▁bre	-3318
▁vente	-3319
▁poursui	-3320
▁autorisé	-3321
▁initiale	-3322
positions	-3323
▁précédent	-3324
ALE	-3325
▁«,	-3326
ingt	-3327
▁Ben	-3328
enri	-3329
▁Cité	-3330
▁pouvoir	-3331
▁aur	-3332
▁Cedex	-3333
▁destin	-3334
▁38	-3335
▁2016	-3336
▁porte	-3337
gés	-3338
▁contrats	-3339
▁indép	-3340
offre	-3341
▁transfert	-3342
▁conseillère	-3343
▁véhicule	-3344
oient	-3345
espace	-3346
▁2024."	-3347
▁appliqu	-3348
▁renseig	-3349
études	-3350
▁mobil	-3351
0-1	-3352
▁comptables	-3353
oise	-3354
▁chau	-3355
▁anim	-3356
▁prati	-3357
Char	-3358
48	-3359
let	-3360
▁infr	-3361
▁pouvant	-3362
▁budgétaire	-3363
▁comportant	-3364
apprenti	-3365
▁connaissances	-3366
▁cinqu	-3367
▁redev	-3368
quisition	-3369
enn	-3370
▁décrets	-3371
▁usagers	-3372
▁réalisées	-3373
orter	-3374
▁maintien	-3375
▁organisme	-3376
▁depuis	-3377
▁situations	-3378
▁conseillers	-3379
▁solidarités	-3380
59	-3381
▁regard	-3382
éb	-3383
urr	-3384
mpiques	-3385
inaire	-3386
▁présidente	-3387
date	-3388
▁prévision	-3389
▁concernées	-3390
11	-3391
▁cycle	-3392
▁séance	-3393
▁accès	-3394
▁définition	-3395
▁retrait	-3396
LI	-3397
▁impôts	-3398
▁ouvert	-3399
François	-3400
▁aéronefs	-3401
▁inspecteur	-3402
AY	-3403
▁plé	-3404
sur	-3405
▁mécan	-3406
▁pléni	-3407
▁mul	-3408
▁règle	-3409
CHE	-3410
issance	-3411
tations	-3412
▁faveur	-3413
▁Jacques	-3414
entretien	-3415
▁officiers	-3416
▁détachement	-3417
endie	-3418
▁secours	-3419
Or	-3420
bourg	-3421
stances	-3422
▁réserv	-3423
▁modifications	-3424
▁sc	-3425
▁réglementation	-3426
out	-3427
inéa	-3428
▁visées	-3429
▁Dom	-3430
auré	-3431
alinéa	-3432
▁2023-1	-3433
▁naturel	-3434
68	-3435
tient	-3436
ertise	-3437
▁annexé	-3438
▁bénéfice	-3439
▁prescriptions	-3440
▁Trib	-3441
▁dot	-3442
▁bien	-3443
▁satisf	-3444
▁sélection	-3445
▁45	-3446
▁suivent	-3447
▁hau	-3448
▁Rennes	-3449
présidente	-3450
▁Wal	-3451
▁lignes	-3452
intéressé	-3453
PÉ	-3454
UN	-3455
ca	-3456
▁_	-3457
▁quanti	-3458
▁classes	-3459
▁rembour	-3460
▁autorité	-3461
usion	-3462
▁Sous	-3463
▁Guyane	-3464
▁domicile	-3465
▁financiers	-3466
uri	-3467
▁outi	-3468
7-1	-3469
ates	-3470
▁rece	-3471
pel	-3472
▁Soci	-3473
▁Ex	-3474
▁usage	-3475
▁Tribunal	-3476
ger	-3477
▁syndic	-3478
▁pratiques	-3479
▁pont	-3480
▁maximale	-3481
una	-3482
▁3,	-3483
▁renfor	-3484
▁immobili	-3485
4-2	-3486
▁liqui	-3487
▁registre	-3488
58	-3489
▁83	-3490
▁incl	-3491
▁puis	-3492
▁commissaires	-3493
IRES	-3494
▁forêts	-3495
ffectation	-3496
rant	-3497
tative	-3498
▁chirurgie	-3499
▁Or	-3500
▁bloc	-3501
▁quin	-3502
tenues	-3503
aisons	-3504
▁parmi	-3505
▁durable	-3506
.2.	-3507
fir	-3508
enis	-3509
▁façon	-3510
▁aériens	-3511
▁Franç	-3512
▁fiche	-3513
▁moyenne	-3514
▁continue	-3515
▁lieutenant	-3516
uci	-3517
ilitation	-3518
illeurs	-3519
79	-3520
oraires	-3521
venir	-3522
▁notification	-3523
▁COM	-3524
dique	-3525
▁grand	-3526
profession	-3527
▁catégories	-3528
erine	-3529
▁seconde	-3530
▁spécifique	-3531
Cl	-3532
accal	-3533
▁statu	-3534
accalauré	-3535
▁lesquels	-3536
MA	-3537
▁43	-3538
▁pourront	-3539
▁répartition	-3540
BO	-3541
▁certains	-3542
▁montants	-3543
alimentation	-3544
▁coordination	-3545
▁masse	-3546
7-	-3547
▁liés	-3548
ministéri	-3549
▁politiques	-3550
▁interministéri	-3551
▁élec	-3552
▁demander	-3553
ser	-3554
▁GU	-3555
▁plate	-3556
▁aménagements	-3557
▁Ge	-3558
▁RÉ	-3559
▁occup	-3560
▁susceptibles	-3561
▁programmes	-3562
▁Str	-3563
▁2022,	-3564
▁départements	-3565
ager	-3566
▁conte	-3567
obation	-3568
▁professeur	-3569
▁Qu	-3570
▁632	-3571
utuna	-3572
▁citer	-3573
78	-3574
▁100	-3575
▁bou	-3576
▁décri	-3577
Autorité	-3578
▁totale	-3579
▁références	-3580
tisan	-3581
▁propre	-3582
38	-3583
▁Not	-3584
▁mobilité	-3585
▁pénitentiaire	-3586
ds	-3587
analyse	-3588
▁versement	-3589
accalauréat	-3590
▁candidates	-3591
▁évaluation	-3592
Martin	-3593
▁Wallis	-3594
atherine	-3595
▁40	-3596
▁ret	-3597
▁acqu	-3598
chitec	-3599
èrement	-3600
▁souh	-3601
▁contenu	-3602
ataires	-3603
▁interdite	-3604
▁8°	-3605
▁Bou	-3606
▁2015	-3607
▁sollici	-3608
missibilité	-3609
▁phase	-3610
1-4	-3611
eine	-3612
oser	-3613
ierry	-3614
acquisition	-3615
CO	-3616
▁approuv	-3617
▁possible	-3618
Ad	-3619
GE	-3620
onnées	-3621
▁pièce	-3622
▁substitu	-3623
▁contrôleur	-3624
admissibilité	-3625
élène	-3626
tel	-3627
acadé	-3628
▁fich	-3629
option	-3630
attribution	-3631
ww	-3632
▁transi	-3633
▁supprimé	-3634
urveillance	-3635
60	-3636
oyer	-3637
▁Tout	-3638
▁suite	-3639
▁statis	-3640
▁Société	-3641
▁CO	-3642
inform	-3643
pellier	-3644
▁courrier	-3645
▁termes	-3646
▁agricoles	-3647
▁conception	-3648
per	-3649
assemb	-3650
▁présence	-3651
▁Montpellier	-3652
▁2012	-3653
ûts	-3654
▁remboursement	-3655
▁ensemble	-3656
▁Pasc	-3657
▁organ	-3658
▁devant	-3659
indemnité	-3660
▁Isabelle	-3661
▁Chevalier	-3662
▁navig	-3663
▁exercées	-3664
ét	-3665
améli	-3666
oseph	-3667
▁Guadeloupe	-3668
leurs	-3669
ébastien	-3670
mar	-3671
onautique	-3672
vés	-3673
▁association	-3674
▁Ci	-3675
▁PAR	-3676
▁différentes	-3677
▁Christi	-3678
▁rédigés	-3679
▁bar	-3680
directeur	-3681
▁garantie	-3682
▁universités	-3683
▁AR	-3684
▁signi	-3685
▁support	-3686
nants	-3687
▁vingt	-3688
turation	-3689
▁assurés	-3690
▁Bernard	-3691
▁pap	-3692
Rhône	-3693
▁ache	-3694
▁candidate	-3695
61	-3696
69	-3697
▁dû	-3698
▁2008	-3699
▁Olivier	-3700
▁î	-3701
alisée	-3702
▁associée	-3703
▁remplacées	-3704
▁juridiction	-3705
Val	-3706
assement	-3707
▁ouverts	-3708
▁prononc	-3709
niversité	-3710
▁universitaire	-3711
▁cop	-3712
▁ord	-3713
heure	-3714
▁version	-3715
▁conduite	-3716
▁individuelle	-3717
VE	-3718
astruc	-3719
aître	-3720
▁organisations	-3721
IM	-3722
▁Gar	-3723
orient	-3724
gouv	-3725
▁Aux	-3726
▁Claude	-3727
▁marine	-3728
▁anti	-3729
▁méthode	-3730
▁puissance	-3731
51	-3732
UC	-3733
▁papier	-3734
RES	-3735
amin	-3736
▁engagé	-3737
▁information	-3738
lège	-3739
atégie	-3740
titulé	-3741
▁ville	-3742
avancement	-3743
▁certaines	-3744
34	-3745
avier	-3746
firmi	-3747
▁académique	-3748
▁ministériel	-3749
dition	-3750
▁ess	-3751
▁uti	-3752
▁exclu	-3753
▁logements	-3754
Après	-3755
version	-3756
▁soient	-3757
▁annexes	-3758
▁intérieur	-3759
▁directement	-3760
INE	-3761
ailles	-3762
co	-3763
tra	-3764
vie	-3765
▁VII	-3766
▁mètres	-3767
▁Nicolas	-3768
outre	-3769
▁taxe	-3770
▁Nantes	-3771
▁Laurent	-3772
▁probatoire	-3773
ouvre	-3774
▁distance	-3775
▁attestation	-3776
▁installation	-3777
enregistrement	-3778
▁exceptionnelle	-3779
▁réalisés	-3780
▁hospitalier	-3781
▁intérieure	-3782
lit	-3783
potenti	-3784
eff	-3785
mball	-3786
▁reven	-3787
▁langue	-3788
▁plénipotenti	-3789
▁0,	-3790
avid	-3791
▁favor	-3792
▁option	-3793
Acc	-3794
ades	-3795
▁urb	-3796
▁milli	-3797
▁spécial	-3798
▁directeurs	-3799
RÉ	-3800
▁perç	-3801
▁tribunaux	-3802
▁coefficient	-3803
oll	-3804
ycl	-3805
▁7.	-3806
▁fili	-3807
▁voies	-3808
▁Sur	-3809
▁précisant	-3810
ame	-3811
ault	-3812
▁ponts	-3813
▁établie	-3814
asi	-3815
tienne	-3816
▁Emman	-3817
▁prior	-3818
▁cul	-3819
▁informe	-3820
▁validité	-3821
PL	-3822
▁actu	-3823
▁chiff	-3824
▁circulation	-3825
▁"(	-3826
▁trou	-3827
▁Elles	-3828
▁actifs	-3829
▁ve	-3830
tenue	-3831
▁CN	-3832
bilité	-3833
▁atten	-3834
▁entretien	-3835
US	-3836
écu	-3837
▁NOTA	-3838
▁Lorsqu	-3839
▁consig	-3840
▁ouvrant	-3841
▁sciences	-3842
Math	-3843
mili	-3844
▁résultat	-3845
▁cessation	-3846
ign	-3847
▁bon	-3848
▁permis	-3849
▁consultation	-3850
▁responsables	-3851
▁qualification	-3852
▁respectivement	-3853
▁tels	-3854
lément	-3855
odes	-3856
▁"1.	-3857
▁Henri	-3858
asbourg	-3859
itaires	-3860
▁compens	-3861
▁limites	-3862
▁juridique	-3863
▁lic	-3864
▁notifi	-3865
▁Strasbourg	-3866
▁prestation	-3867
▁44	-3868
lées	-3869
oline	-3870
▁savoir	-3871
▁cum	-3872
▁refus	-3873
atrick	-3874
▁pourra	-3875
TS	-3876
▁BOU	-3877
▁rempli	-3878
réanimation	-3879
▁baccalauréat	-3880
ses	-3881
dé	-3882
▁â	-3883
▁RE	-3884
▁mu	-3885
thèse	-3886
aérone	-3887
mention	-3888
▁psychi	-3889
▁Dis	-3890
▁coûts	-3891
▁pénale	-3892
▁Christophe	-3893
▁nationales	-3894
industr	-3895
▁vendre	-3896
▁structures	-3897
reg	-3898
▁Syl	-3899
employ	-3900
▁rattac	-3901
▁échelon	-3902
▁annuelle	-3903
ien	-3904
▁rédui	-3905
▁Martinique	-3906
ume	-3907
ssage	-3908
▁concl	-3909
▁local	-3910
▁autorisés	-3911
▁régulation	-3912
▁2014	-3913
▁simp	-3914
miques	-3915
inscrire	-3916
▁nationalité	-3917
LES	-3918
▁elles	-3919
▁seule	-3920
▁brevet	-3921
▁contac	-3922
▁réduction	-3923
imes	-3924
nier	-3925
▁signé	-3926
▁morale	-3927
▁susmention	-3928
▁préjud	-3929
▁dispens	-3930
▁lieux	-3931
▁52	-3932
orges	-3933
utions	-3934
▁Co	-3935
▁"2.	-3936
▁2006-1	-3937
OD	-3938
▁thé	-3939
▁Concours	-3940
▁scolaire	-3941
PE	-3942
▁Mé	-3943
▁vote	-3944
▁branche	-3945
▁justificatives	-3946
▁lettre	-3947
▁terr	-3948
abrication	-3949
▁matériaux	-3950
▁stratégie	-3951
▁Sud	-3952
▁valeurs	-3953
▁enseignants	-3954
bert	-3955
▁désignation	-3956
ouise	-3957
▁indic	-3958
ologies	-3959
▁ancien	-3960
incendie	-3961
▁couver	-3962
▁devient	-3963
▁précisées	-3964
▁ajoutés	-3965
▁déléguée	-3966
▁européen	-3967
objec	-3968
▁situé	-3969
▁formul	-3970
▁forfaitaire	-3971
640	-3972
8-1	-3973
▁quar	-3974
institu	-3975
▁minimale	-3976
▁vendredi	-3977
▁indirects	-3978
▁professeurs	-3979
imm	-3980
estre	-3981
▁observ	-3982
▁cri	-3983
formément	-3984
▁Me	-3985
tères	-3986
12	-3987
▁6.	-3988
▁éduc	-3989
iquelon	-3990
▁recueil	-3991
▁habilité	-3992
▁vérification	-3993
▁aus	-3994
▁sex	-3995
Nicolas	-3996
athalie	-3997
Lorsque	-3998
▁collecte	-3999
▁procéder	-4000
▁éligibles	-4001
▁prélè	-4002
▁semaines	-4003
aliser	-4004
▁collège	-4005
▁considérée	-4006
Est	-4007
▁9°	-4008
▁ingénieurs	-4009
▁Ob	-4010
tiste	-4011
▁attest	-4012
▁br	-4013
▁certifi	-4014
▁pertin	-4015
obtention	-4016
▁changement	-4017
▁inspectrice	-4018
TH	-4019
ony	-4020
association	-4021
18	-4022
▁contractuel	-4023
65	-4024
77	-4025
ilde	-4026
écile	-4027
▁Gren	-4028
▁gross	-4029
▁physiques	-4030
▁diagnostic	-4031
▁subvention	-4032
▁entité	-4033
omb	-4034
otre	-4035
qués	-4036
uelles	-4037
▁unité	-4038
▁utilisés	-4039
▁COUR	-4040
▁immédi	-4041
▁ori	-4042
▁62	-4043
▁bat	-4044
▁telle	-4045
▁suffis	-4046
aboration	-4047
ISS	-4048
▁eff	-4049
▁vérifier	-4050
▁préjudice	-4051
naud	-4052
▁neu	-4053
icti	-4054
▁hon	-4055
armée	-4056
▁visant	-4057
▁compati	-4058
industrie	-4059
dement	-4060
érodrome	-4061
ina	-4062
arme	-4063
▁facul	-4064
▁bâtiments	-4065
▁géographique	-4066
iz	-4067
aph	-4068
-202	-4069
▁Dani	-4070
▁moti	-4071
esthé	-4072
▁distin	-4073
▁réc	-4074
missions	-4075
uno	-4076
TIN	-4077
ule	-4078
▁Alain	-4079
▁donne	-4080
ast	-4081
sté	-4082
vage	-4083
▁comprenant	-4084
▁normes	-4085
▁2006-1640	-4086
▁Dominique	-4087
2-6	-4088
▁DÉ	-4089
▁liber	-4090
▁Sophie	-4091
▁internes	-4092
▁effectuer	-4093
amb	-4094
▁répon	-4095
19	-4096
▁Su	-4097
▁victi	-4098
▁restaur	-4099
bergement	-4100
jon	-4101
oute	-4102
▁phot	-4103
▁excéd	-4104
▁concernée	-4105
0.	-4106
UL	-4107
▁Mon	-4108
▁désigne	-4109
attestation	-4110
▁interprofession	-4111
▁39	-4112
▁sites	-4113
matique	-4114
▁Joseph	-4115
▁écoles	-4116
Miquelon	-4117
gent	-4118
▁réguli	-4119
▁pharmacie	-4120
orientation	-4121
▁Rob	-4122
préfet	-4123
▁réunion	-4124
▁collectif	-4125
miné	-4126
urée	-4127
▁cardi	-4128
▁durant	-4129
▁indemn	-4130
AH	-4131
▁hi	-4132
Anne	-4133
aure	-4134
▁etc	-4135
atéri	-4136
oratoire	-4137
▁stratég	-4138
▁contexte	-4139
LO	-4140
PEL	-4141
▁visés	-4142
act	-4143
▁besoin	-4144
▁statuts	-4145
▁inscrits	-4146
▁étudiants	-4147
oble	-4148
▁concour	-4149
▁protégé	-4150
orer	-4151
venue	-4152
▁autorisations	-4153
▁préalablement	-4154
▁Franc	-4155
▁diplô	-4156
▁classi	-4157
alog	-4158
▁Del	-4159
casion	-4160
▁producteurs	-4161
alise	-4162
urrence	-4163
▁copie	-4164
▁accomp	-4165
MAN	-4166
del	-4167
cipe	-4168
gérie	-4169
▁vertu	-4170
▁conser	-4171
▁Antoine	-4172
▁courriel	-4173
▁salaires	-4174
▁Catherine	-4175
▁psychiatrie	-4176
vestissement	-4177
▁internationale	-4178
ED	-4179
▁54	-4180
▁Lé	-4181
▁haut	-4182
▁quel	-4183
tuelle	-4184
unisie	-4185
▁cumul	-4186
▁industries	-4187
térieurement	-4188
▁visée	-4189
▁outils	-4190
▁agréées	-4191
▁garanties	-4192
▁patrimoine	-4193
acités	-4194
évolution	-4195
regist	-4196
▁affér	-4197
▁aucun	-4198
▁format	-4199
▁Mod	-4200
égalité	-4201
ASS	-4202
emplois	-4203
▁propriété	-4204
▁cotisations	-4205
eb	-4206
▁Auc	-4207
appui	-4208
isés	-4209
Louis	-4210
entiels	-4211
iration	-4212
validité	-4213
▁exclusi	-4214
▁enregist	-4215
▁grossesse	-4216
▁nécessite	-4217
▁engagements	-4218
5-2	-4219
cer	-4220
qué	-4221
sant	-4222
achat	-4223
▁cohér	-4224
Algérie	-4225
épreuves	-4226
▁médicaments	-4227
▁affectés	-4228
1-8	-4229
jour	-4230
▁voix	-4231
étérin	-4232
▁sujet	-4233
impôt	-4234
▁termin	-4235
matiques	-4236
SP	-4237
▁vétérin	-4238
▁37	-4239
uels	-4240
Tunisie	-4241
▁dotation	-4242
▁associées	-4243
TER	-4244
envoi	-4245
▁Flor	-4246
▁chauff	-4247
▁on	-4248
▁lyc	-4249
▁évol	-4250
▁calend	-4251
▁Grenoble	-4252
▁fabrication	-4253
odi	-4254
arch	-4255
▁géné	-4256
▁issus	-4257
▁transpor	-4258
43	-4259
ôte	-4260
▁Serv	-4261
▁Charles	-4262
▁réglementaire	-4263
55	-4264
▁73	-4265
▁Man	-4266
▁cause	-4267
▁terre	-4268
▁contenti	-4269
▁délivrée	-4270
▁immédiate	-4271
▁préfecture	-4272
▁affectation	-4273
▁îles	-4274
▁somme	-4275
▁appropri	-4276
▁électron	-4277
acte	-4278
Alpes	-4279
aptiste	-4280
estions	-4281
▁collectivité	-4282
oré	-4283
anté	-4284
table	-4285
uréli	-4286
▁expl	-4287
Philippe	-4288
▁auxquel	-4289
▁indications	-4290
▁Ti	-4291
▁ouvri	-4292
tration	-4293
▁Frédéric	-4294
euros	-4295
apprentissage	-4296
ancy	-4297
▁Jeanne	-4298
ouvelles	-4299
▁constituée	-4300
amélioration	-4301
habilitation	-4302
GA	-4303
▁Col	-4304
lotte	-4305
▁exerce	-4306
intégration	-4307
yri	-4308
arité	-4309
ciens	-4310
anisme	-4311
▁analy	-4312
▁simple	-4313
▁commandement	-4314
▁complémentaires	-4315
éco	-4316
▁mens	-4317
indication	-4318
▁transitoire	-4319
▁SA	-4320
▁Fonds	-4321
▁orient	-4322
▁nouvelles	-4323
▁questions	-4324
▁congé	-4325
épartement	-4326
▁Caisse	-4327
▁présid	-4328
tan	-4329
▁esti	-4330
▁prot	-4331
▁pédi	-4332
▁respecter	-4333
agit	-4334
▁BAR	-4335
▁Ber	-4336
andard	-4337
▁valorisation	-4338
TIF	-4339
rêts	-4340
▁"5°	-4341
▁agréés	-4342
▁effectués	-4343
▁fournisse	-4344
mor	-4345
▁Math	-4346
expertise	-4347
▁suspension	-4348
achè	-4349
érés	-4350
érôme	-4351
▁faci	-4352
▁162-1	-4353
▁réponse	-4354
urg	-4355
▁Ac	-4356
▁greff	-4357
ouvrage	-4358
▁formulaire	-4359
▁travailleurs	-4360
▁international	-4361
▁El	-4362
.1.1.	-4363
Décret	-4364
▁écrit	-4365
iciaires	-4366
▁détention	-4367
oth	-4368
▁reti	-4369
▁veille	-4370
▁station	-4371
▁acheminé	-4372
▁Ab	-4373
cent	-4374
habi	-4375
▁Nom	-4376
aille	-4377
▁Marc	-4378
▁tarifs	-4379
▁telles	-4380
▁conjoint	-4381
▁intéress	-4382
▁alors	-4383
▁espaces	-4384
▁numériques	-4385
uni	-4386
rine	-4387
▁éle	-4388
▁join	-4389
▁norme	-4390
▁net	-4391
alisé	-4392
axime	-4393
▁dédi	-4394
▁radio	-4395
autonomie	-4396
trui	-4397
▁tenir	-4398
▁détent	-4399
▁appréci	-4400
▁contentieux	-4401
érer	-4402
▁tex	-4403
étude	-4404
▁2013	-4405
▁aide	-4406
▁expri	-4407
pin	-4408
cess	-4409
▁majoration	-4410
63	-4411
▁90	-4412
élève	-4413
▁visite	-4414
esthésie	-4415
▁cinquième	-4416
▁accessibles	-4417
▁peti	-4418
▁param	-4419
▁durabilité	-4420
Ben	-4421
▁liv	-4422
ingénieurs	-4423
ABLE	-4424
▁pul	-4425
▁exemp	-4426
▁route	-4427
Camille	-4428
▁brig	-4429
olution	-4430
▁Georges	-4431
▁pensions	-4432
if	-4433
ick	-4434
Cette	-4435
Loire	-4436
▁conversion	-4437
67	-4438
bi	-4439
oî	-4440
▁21.	-4441
▁cat	-4442
mplant	-4443
▁entités	-4444
▁fournir	-4445
▁dérogations	-4446
▁RO	-4447
▁camp	-4448
▁coût	-4449
▁médi	-4450
▁Nancy	-4451
▁crédit	-4452
telle	-4453
▁dénommé	-4454
▁Christian	-4455
▁opérateurs	-4456
èces	-4457
onneur	-4458
veloppe	-4459
▁biologie	-4460
▁traitements	-4461
jor	-4462
urbanisme	-4463
▁judiciaires	-4464
▁particulières	-4465
Si	-4466
▁2011	-4467
▁seules	-4468
Mich	-4469
▁emp	-4470
▁gran	-4471
érarch	-4472
▁Loire	-4473
▁Futuna	-4474
▁sportif	-4475
▁Contr	-4476
▁anesthésie	-4477
ITÉ	-4478
3.1.	-4479
tière	-4480
▁élab	-4481
▁tient	-4482
▁agrément	-4483
▁signific	-4484
▁partenaires	-4485
2-7	-4486
Accès	-4487
▁hommes	-4488
▁acteurs	-4489
▁Guillaume	-4490
▁présentant	-4491
▁manif	-4492
honneur	-4493
▁offertes	-4494
anges	-4495
uffis	-4496
▁Fédération	-4497
▁uniquement	-4498
▁223	-4499
▁ach	-4500
mballages	-4501
▁démarche	-4502
▁Toutefois	-4503
▁divisionnaire	-4504
Es	-4505
▁vu	-4506
▁224	-4507
▁analyse	-4508
▁propres	-4509
exercer	-4510
▁cession	-4511
▁médecins	-4512
▁permettent	-4513
▁prescription	-4514
ienne	-4515
▁prêt	-4516
▁intégr	-4517
▁volume	-4518
hébergement	-4519
ascul	-4520
▁coll	-4521
▁mode	-4522
▁spec	-4523
cident	-4524
artisan	-4525
▁gu	-4526
BERT	-4527
quête	-4528
▁aussi	-4529
11-2	-4530
ONNEL	-4531
ocarb	-4532
▁Rouen	-4533
▁logis	-4534
▁action	-4535
▁constat	-4536
▁hiérarch	-4537
achèvement	-4538
▁programmation	-4539
▁tâ	-4540
cel	-4541
▁plans	-4542
▁forces	-4543
▁médico	-4544
▁trente	-4545
Christophe	-4546
▁équivalent	-4547
▁Gér	-4548
avant	-4549
école	-4550
▁auquel	-4551
ganisation	-4552
▁transmettre	-4553
itu	-4554
▁Chaque	-4555
80	-4556
▁gri	-4557
▁mat	-4558
▁Grand	-4559
▁disponibles	-4560
▁volont	-4561
▁Vincent	-4562
équipement	-4563
▁72	-4564
Thomas	-4565
▁remise	-4566
▁Thierry	-4567
▁conservation	-4568
▁informatique	-4569
AUX	-4570
mine	-4571
▁dés	-4572
▁sor	-4573
omain	-4574
▁civils	-4575
isée	-4576
▁vols	-4577
▁espace	-4578
▁prénom	-4579
▁plafond	-4580
hors	-4581
▁Acc	-4582
▁2025	-4583
▁domaines	-4584
▁exercice	-4585
hom	-4586
▁lycée	-4587
▁privé	-4588
▁compar	-4589
▁licence	-4590
chitecture	-4591
▁magistrat	-4592
▁participant	-4593
ORM	-4594
ocat	-4595
▁dématéri	-4596
▁standard	-4597
innovation	-4598
4)	-4599
9.	-4600
GER	-4601
isol	-4602
▁133	-4603
ssant	-4604
▁répu	-4605
▁famili	-4606
▁ressort	-4607
assemblée	-4608
▁maritimes	-4609
APPEL	-4610
armement	-4611
▁citernes	-4612
▁derniers	-4613
▁Françoise	-4614
▁MA	-4615
erts	-4616
▁René	-4617
▁stagiaire	-4618
▁participer	-4619
ak	-4620
osp	-4621
soci	-4622
▁proxim	-4623
Guillaume	-4624
▁fonctionnaire	-4625
FES	-4626
dou	-4627
▁OU	-4628
▁fré	-4629
▁métier	-4630
stitution	-4631
▁capacités	-4632
▁déj	-4633
▁radié	-4634
▁déroule	-4635
▁entrent	-4636
Alexandre	-4637
▁victimes	-4638
▁précédant	-4639
▁techniciens	-4640
sse	-4641
meub	-4642
▁Lég	-4643
▁effectué	-4644
ossibilité	-4645
▁expérience	-4646
▁permanente	-4647
gl	-4648
venants	-4649
ordement	-4650
▁excéder	-4651
▁dérouler	-4652
▁normales	-4653
expiration	-4654
▁démission	-4655
investissement	-4656
jus	-4657
▁test	-4658
identité	-4659
▁conformes	-4660
▁én	-4661
▁1°,	-4662
tières	-4663
▁envis	-4664
tième	-4665
▁confér	-4666
▁obtenu	-4667
▁placés	-4668
▁restauration	-4669
oyage	-4670
▁carte	-4671
Antoine	-4672
académie	-4673
▁justifiant	-4674
tér	-4675
▁Ep	-4676
▁vac	-4677
▁circ	-4678
▁rési	-4679
▁psych	-4680
▁Hélène	-4681
▁quinze	-4682
▁médicaux	-4683
▁professions	-4684
▁acte	-4685
▁thérapeutique	-4686
98	-4687
▁Ou	-4688
ortion	-4689
▁intermédi	-4690
▁individuels	-4691
mil	-4692
▁Li	-4693
ucie	-4694
▁dûment	-4695
▁délivre	-4696
▁raisons	-4697
▁adressée	-4698
▁disciplines	-4699
isé	-4700
▁71	-4701
ELLE	-4702
▁seul	-4703
▁types	-4704
▁Nathalie	-4705
▁diverses	-4706
IA	-4707
▁VIII	-4708
agerie	-4709
▁départ	-4710
▁exempl	-4711
objectif	-4712
▁clients	-4713
cevoir	-4714
▁négociation	-4715
▁contribution	-4716
▁AC	-4717
▁viol	-4718
▁visé	-4719
▁Dijon	-4720
▁justifier	-4721
▁proximité	-4722
infr	-4723
pplé	-4724
▁Comp	-4725
▁amen	-4726
▁dates	-4727
▁Stéphane	-4728
▁effectuée	-4729
▁appartenant	-4730
AUL	-4731
ana	-4732
▁infirmi	-4733
-3	-4734
▁conséqu	-4735
▁indépend	-4736
aill	-4737
▁Claire	-4738
▁Patrick	-4739
▁dénomination	-4740
▁déjà	-4741
▁jeux	-4742
drocarb	-4743
entifier	-4744
▁colonel	-4745
▁utilisé	-4746
▁valable	-4747
▁établit	-4748
▁naturelle	-4749
Conformément	-4750
ia	-4751
ox	-4752
ROU	-4753
▁55	-4754
▁Ca	-4755
2.1.	-4756
astr	-4757
▁Ali	-4758
▁interc	-4759
________	-4760
▁éventuelle	-4761
▁gy	-4762
▁réf	-4763
▁tra	-4764
▁Nord	-4765
▁Yves	-4766
▁diri	-4767
▁inclus	-4768
▁tenant	-4769
arisation	-4770
rien	-4771
État	-4772
▁figure	-4773
▁Modalités	-4774
▁plateforme	-4775
inf	-4776
▁LES	-4777
▁conduire	-4778
▁Alexandre	-4779
-1.	-4780
Car	-4781
▁PER	-4782
Stéph	-4783
▁prog	-4784
▁remet	-4785
artisanat	-4786
affectation	-4787
▁magistrature	-4788
3)	-4789
esp	-4790
▁Jus	-4791
▁Per	-4792
▁Etats	-4793
▁Daniel	-4794
▁handicapées	-4795
▁interrégionale	-4796
tern	-4797
▁bail	-4798
▁réun	-4799
▁entraî	-4800
▁Poi	-4801
▁mutu	-4802
ditions	-4803
▁notari	-4804
▁globale	-4805
employeur	-4806
▁législation	-4807
▁aéronautique	-4808
90	-4809
REN	-4810
sions	-4811
▁Tours	-4812
drocarbures	-4813
éline	-4814
▁soumises	-4815
▁suppléante	-4816
▁mus	-4817
▁PROFES	-4818
▁chambres	-4819
▁sanction	-4820
▁indemnités	-4821
▁stagiaires	-4822
OC	-4823
▁tour	-4824
▁connex	-4825
▁souscri	-4826
▁surfaces	-4827
omé	-4828
Denis	-4829
major	-4830
▁versée	-4831
universi	-4832
▁exploitation	-4833
lou	-4834
▁po	-4835
2-13	-4836
éten	-4837
▁tâches	-4838
▁constitué	-4839
VA	-4840
ICE	-4841
arah	-4842
orth	-4843
indre	-4844
▁2010	-4845
Saint	-4846
▁Eric	-4847
▁adul	-4848
▁aucune	-4849
▁relève	-4850
▁recommandé	-4851
▁contribuant	-4852
2-4	-4853
▁4,	-4854
▁Robert	-4855
▁continu	-4856
▁process	-4857
▁méthodes	-4858
92	-4859
char	-4860
▁déci	-4861
▁pluri	-4862
▁chiffre	-4863
▁spectac	-4864
▁disponibilité	-4865
66	-4866
Luc	-4867
▁supprimée	-4868
▁régionales	-4869
chn	-4870
▁AL	-4871
lité	-4872
tructions	-4873
▁libertés	-4874
▁définitive	-4875
Lé	-4876
▁amb	-4877
▁sen	-4878
alogue	-4879
▁propriétaire	-4880
▁administrateurs	-4881
rière	-4882
évalu	-4883
▁rendus	-4884
▁prévoit	-4885
▁diplômes	-4886
▁pression	-4887
▁produire	-4888
▁compétentes	-4889
ICH	-4890
TIER	-4891
▁fai	-4892
▁fores	-4893
▁placé	-4894
▁duquel	-4895
INS	-4896
int	-4897
voy	-4898
▁impri	-4899
▁combus	-4900
▁locale	-4901
▁artis	-4902
▁définit	-4903
▁complément	-4904
Ou	-4905
Marc	-4906
▁Julien	-4907
▁assist	-4908
▁détermine	-4909
▁laboratoire	-4910
37	-4911
TU	-4912
▁cy	-4913
isant	-4914
▁appor	-4915
▁entend	-4916
institut	-4917
▁règlements	-4918
▁60	-4919
ases	-4920
atth	-4921
pect	-4922
▁ajoutée	-4923
▁famille	-4924
▁accompagnée	-4925
▁SP	-4926
▁mineurs	-4927
inspecteur	-4928
▁Bar	-4929
▁Ile	-4930
▁sim	-4931
ville	-4932
▁Pascal	-4933
CES	-4934
erte	-4935
toral	-4936
▁pror	-4937
▁législ	-4938
▁retour	-4939
▁Es	-4940
▁ponc	-4941
▁étap	-4942
▁téléph	-4943
ingénieur	-4944
▁requises	-4945
▁répondre	-4946
▁Du	-4947
inistère	-4948
▁renouvelable	-4949
icul	-4950
▁faits	-4951
▁taxes	-4952
ospices	-4953
▁procès	-4954
oger	-4955
vence	-4956
hés	-4957
▁hé	-4958
issent	-4959
▁réalise	-4960
▁Université	-4961
ÉE	-4962
appu	-4963
▁homolog	-4964
44	-4965
SA	-4966
▁7,	-4967
▁adop	-4968
asculaire	-4969
▁contractuels	-4970
EAU	-4971
due	-4972
▁deme	-4973
▁correc	-4974
▁électrique	-4975
IB	-4976
▁1984	-4977
Julien	-4978
▁intég	-4979
▁manque	-4980
▁ANNEXES	-4981
▁organisée	-4982
EU	-4983
TAN	-4984
mon	-4985
▁enj	-4986
▁placée	-4987
▁principes	-4988
▁processus	-4989
▁producteur	-4990
-4	-4991
TRE	-4992
▁lis	-4993
▁délég	-4994
▁NOTAIRES	-4995
▁destinés	-4996
▁active	-4997
▁employés	-4998
▁Christine	-4999
Man	-5000
▁TH	-5001
osant	-5002
▁2005	-5003
▁assi	-5004
▁diss	-5005
▁greffe	-5006
▁marchand	-5007
▁effectuées	-5008
▁électroniques	-5009
▁régul	-5010
▁espèces	-5011
▁garantir	-5012
▁associations	-5013
▁59	-5014
▁Civ	-5015
▁nomin	-5016
habitat	-5017
▁PROFESSI	-5018
▁stockage	-5019
Ang	-5020
éder	-5021
▁POUR	-5022
Mariti	-5023
Baptiste	-5024
▁procède	-5025
isées	-5026
▁sché	-5027
▁résili	-5028
▁suppléants	-5029
▁indicateurs	-5030
▁Constitution	-5031
2-5	-5032
ITA	-5033
▁ri	-5034
▁relation	-5035
assistance	-5036
▁ministères	-5037
▁métropolit	-5038
▁Cet	-5039
▁Caen	-5040
▁flux	-5041
trique	-5042
▁insuffis	-5043
.1	-5044
vér	-5045
▁(1)	-5046
▁mén	-5047
import	-5048
Olivier	-5049
échelon	-5050
▁complet	-5051
▁quantité	-5052
▁commissions	-5053
▁internationales	-5054
TO	-5055
▁potenti	-5056
▁coordonn	-5057
▁présents	-5058
▁sportive	-5059
▁inscrites	-5060
architecture	-5061
▁personnalités	-5062
At	-5063
▁Jo	-5064
entraî	-5065
▁protoc	-5066
université	-5067
vres	-5068
enfant	-5069
engage	-5070
▁équipage	-5071
▁70	-5072
ogne	-5073
▁fil	-5074
▁décrit	-5075
▁textes	-5076
aérodrome	-5077
▁cohérence	-5078
▁immédiatement	-5079
entr	-5080
arthé	-5081
▁2009	-5082
hérapie	-5083
▁prolon	-5084
▁habilités	-5085
PS	-5086
▁652	-5087
ermont	-5088
istoire	-5089
oiement	-5090
▁Civils	-5091
▁Valérie	-5092
▁composé	-5093
▁nationaux	-5094
impossibilité	-5095
léc	-5096
▁dépos	-5097
▁locales	-5098
▁statistique	-5099
▁PROFESSIONNEL	-5100
oît	-5101
reux	-5102
▁"3.	-5103
▁mines	-5104
▁servi	-5105
▁calendrier	-5106
▁individuel	-5107
▁ingénieure	-5108
▁substances	-5109
loé	-5110
ITÉS	-5111
▁2020-	-5112
▁distribu	-5113
▁délibération	-5114
▁certifications	-5115
▁obligatoirement	-5116
▁fab	-5117
Marne	-5118
▁poly	-5119
▁preuve	-5120
▁bénéficiant	-5121
▁technologies	-5122
20	-5123
ram	-5124
ovis	-5125
▁Emi	-5126
▁Rég	-5127
▁Mari	-5128
posent	-5129
▁Cécile	-5130
▁profit	-5131
▁central	-5132
OUL	-5133
▁821-	-5134
▁donner	-5135
OND	-5136
▁ball	-5137
reuses	-5138
▁pulvér	-5139
émie	-5140
▁impli	-5141
cologie	-5142
▁caisse	-5143
▁interd	-5144
15	-5145
IP	-5146
irg	-5147
rédi	-5148
▁2.1.	-5149
▁huit	-5150
▁liquid	-5151
▁premiers	-5152
▁recouvre	-5153
organismes	-5154
▁Ro	-5155
Seine	-5156
▁carg	-5157
▁Hôpitaux	-5158
▁constitue	-5159
▁possibilité	-5160
lém	-5161
▁racc	-5162
teindre	-5163
▁2022-1	-5164
▁accords	-5165
▁atteint	-5166
▁Clermont	-5167
astructures	-5168
élaboration	-5169
▁garantissant	-5170
IX	-5171
▁Gab	-5172
▁évé	-5173
▁bate	-5174
▁guerre	-5175
▁logici	-5176
ographie	-5177
▁Poitiers	-5178
▁observations	-5179
idier	-5180
jamin	-5181
▁821-1	-5182
▁libre	-5183
▁chauffage	-5184
▁préparant	-5185
▁réparation	-5186
▁opérationnelle	-5187
ey	-5188
Gar	-5189
aqu	-5190
ims	-5191
2.2.	-5192
▁carb	-5193
▁Notaires	-5194
▁accordée	-5195
év	-5196
6-2	-5197
verb	-5198
érée	-5199
miens	-5200
▁Louise	-5201
viennent	-5202
▁Camille	-5203
▁obtenir	-5204
▁effectifs	-5205
▁pédiatrie	-5206
MAR	-5207
▁No	-5208
delà	-5209
gies	-5210
neum	-5211
▁CAR	-5212
▁Reims	-5213
▁donné	-5214
▁déont	-5215
▁complè	-5216
▁financ	-5217
88	-5218
▁Pays	-5219
▁inclu	-5220
aéronef	-5221
▁confir	-5222
▁Emmanuel	-5223
▁difficul	-5224
aleur	-5225
▁veill	-5226
icacité	-5227
▁enjeux	-5228
▁Epreuve	-5229
lemy	-5230
▁Ray	-5231
▁ZIT	-5232
▁maximal	-5233
▁complétée	-5234
▁lois	-5235
▁circon	-5236
▁listes	-5237
▁adultes	-5238
▁affecté	-5239
▁assurant	-5240
▁émissions	-5241
▁juridiques	-5242
▁principaux	-5243
▁communications	-5244
▁renseignements	-5245
era	-5246
ini	-5247
ande	-5248
▁fréqu	-5249
▁étant	-5250
▁états	-5251
magistr	-5252
▁procédé	-5253
▁organisé	-5254
BL	-5255
▁63	-5256
lage	-5257
▁Bes	-5258
▁mix	-5259
▁Poin	-5260
▁formes	-5261
éronique	-5262
▁hauteur	-5263
▁moteurs	-5264
versement	-5265
▁classement	-5266
▁électriques	-5267
auts	-5268
enir	-5269
▁BEN	-5270
prises	-5271
▁5,	-5272
▁10°	-5273
▁Oly	-5274
▁pay	-5275
▁minuit	-5276
ositions	-5277
▁assimil	-5278
▁Hospices	-5279
▁Institut	-5280
▁Conditions	-5281
▁consommateurs	-5282
na	-5283
euse	-5284
▁solde	-5285
▁grille	-5286
▁déploiement	-5287
▁8.	-5288
sive	-5289
▁"6°	-5290
▁500	-5291
indice	-5292
appréci	-5293
▁saisie	-5294
▁synthèse	-5295
▁déterminé	-5296
magistrature	-5297
▁minima	-5298
▁capital	-5299
▁sixième	-5300
ÉES	-5301
terie	-5302
▁montagne	-5303
▁ouvrages	-5304
▁proportion	-5305
Fer	-5306
▁Maur	-5307
▁prép	-5308
Barthé	-5309
▁annuels	-5310
MO	-5311
to	-5312
▁56	-5313
érées	-5314
aintes	-5315
ifrance	-5316
▁Thomas	-5317
▁appare	-5318
▁adaptée	-5319
▁existant	-5320
▁renseignement	-5321
▁81	-5322
▁ROU	-5323
▁maîtres	-5324
▁secteurs	-5325
▁convocation	-5326
▁justificatifs	-5327
3-3	-5328
ene	-5329
icie	-5330
tific	-5331
▁Sand	-5332
Sophie	-5333
▁douze	-5334
▁morales	-5335
▁marchandises	-5336
RET	-5337
▁éco	-5338
▁améli	-5339
anterie	-5340
▁situés	-5341
▁séjour	-5342
▁rapports	-5343
▁intervient	-5344
99	-5345
eth	-5346
ache	-5347
▁tri	-5348
ouveaux	-5349
▁prenant	-5350
lissement	-5351
▁comptabilité	-5352
ÉN	-5353
arer	-5354
auté	-5355
iène	-5356
▁tab	-5357
▁admise	-5358
agissant	-5359
▁manifest	-5360
▁pourvoir	-5361
▁aménagement	-5362
AF	-5363
ffice	-5364
▁fera	-5365
▁Roger	-5366
▁sommes	-5367
▁description	-5368
OCI	-5369
ême	-5370
▁exi	-5371
onnée	-5372
Michel	-5373
agents	-5374
▁Bruno	-5375
Etienne	-5376
▁facili	-5377
▁conseils	-5378
▁consolid	-5379
▁greffier	-5380
invalidité	-5381
▁bénéficie	-5382
▁Convention	-5383
▁concurrence	-5384
denti	-5385
▁boni	-5386
▁ther	-5387
hospit	-5388
▁requis	-5389
Ile	-5390
▁UN	-5391
▁maire	-5392
▁portabilité	-5393
giène	-5394
raine	-5395
propri	-5396
▁super	-5397
▁liaison	-5398
▁nouveaux	-5399
Barthélemy	-5400
▁enveloppe	-5401
▁disponible	-5402
▁recherches	-5403
▁ir	-5404
▁MON	-5405
▁parc	-5406
▁degré	-5407
▁compag	-5408
▁soumise	-5409
▁déterminer	-5410
▁48	-5411
annu	-5412
▁Non	-5413
TIONS	-5414
préfète	-5415
intitulé	-5416
▁inscrit	-5417
▁combusti	-5418
▁rev	-5419
▁orth	-5420
▁porter	-5421
effectuer	-5422
ara	-5423
uité	-5424
▁gyné	-5425
▁seuil	-5426
▁multip	-5427
▁ouvriers	-5428
▁mandataire	-5429
▁automatique	-5430
05	-5431
▁Sim	-5432
▁remis	-5433
occasion	-5434
▁ailleurs	-5435
▁bénéficient	-5436
VAL	-5437
ite	-5438
▁sépar	-5439
▁orales	-5440
▁catastr	-5441
▁campagne	-5442
approbation	-5443
▁constitution	-5444
INT	-5445
▁donc	-5446
▁libel	-5447
▁Comité	-5448
▁externes	-5449
▁étrangère	-5450
▁solidarité	-5451
▁ap	-5452
économ	-5453
isations	-5454
▁partiel	-5455
▁requise	-5456
▁notarial	-5457
VI	-5458
▁BO	-5459
▁lun	-5460
▁livr	-5461
▁croiss	-5462
▁brigade	-5463
▁Olympiques	-5464
▁déterminée	-5465
▁population	-5466
com	-5467
▁pneum	-5468
▁écrites	-5469
▁décrites	-5470
▁honoraire	-5471
▁directions	-5472
▁raccordement	-5473
value	-5474
▁1986	-5475
▁clinique	-5476
alympiques	-5477
Cor	-5478
▁Lim	-5479
irgin	-5480
assuré	-5481
▁métropole	-5482
▁Délégation	-5483
ervé	-5484
organe	-5485
▁dudit	-5486
Laurent	-5487
directrice	-5488
▁susceptible	-5489
Ju	-5490
ançon	-5491
▁Nice	-5492
▁Gérard	-5493
▁exploi	-5494
effectue	-5495
▁distinc	-5496
▁discipline	-5497
-5	-5498
FR	-5499
Amiens	-5500
vation	-5501
▁alpin	-5502
▁précité	-5503
▁compatibles	-5504
▁Brest	-5505
▁rendu	-5506
▁question	-5507
▁Bel	-5508
▁chanti	-5509
▁filière	-5510
othérapie	-5511
allocation	-5512
▁contenant	-5513
▁DI	-5514
▁165-1	-5515
▁chefs	-5516
élection	-5517
▁majeure	-5518
▁cargaison	-5519
▁connaître	-5520
lir	-5521
▁2°,	-5522
▁franc	-5523
▁ordre	-5524
7-2	-5525
dis	-5526
run	-5527
▁salaire	-5528
▁relèvent	-5529
▁radiation	-5530
ulle	-5531
ictor	-5532
orti	-5533
▁élus	-5534
▁fonci	-5535
▁4111-2	-5536
▁provis	-5537
lantique	-5538
▁extérieur	-5539
IGN	-5540
LET	-5541
arts	-5542
▁poi	-5543
▁inst	-5544
▁Marcel	-5545
▁Section	-5546
TIV	-5547
enneté	-5548
▁David	-5549
▁Trans	-5550
▁journ	-5551
▁lundi	-5552
▁téléc	-5553
irginie	-5554
acements	-5555
▁reprise	-5556
▁gynécologie	-5557
▁interventions	-5558
Qu	-5559
arti	-5560
▁pourv	-5561
▁évaluer	-5562
▁détenteur	-5563
informations	-5564
▁vétérinaire	-5565
▁Paralympiques	-5566
OP	-5567
quet	-5568
▁poss	-5569
▁urbain	-5570
▁millions	-5571
▁cotisation	-5572
▁contributions	-5573
apha	-5574
▁uni	-5575
▁dite	-5576
mension	-5577
▁désignées	-5578
▁Commandant	-5579
▁propositions	-5580
fie	-5581
lic	-5582
troi	-5583
Emman	-5584
torat	-5585
▁assurée	-5586
▁mentions	-5587
▁cassation	-5588
esc	-5589
vain	-5590
intég	-5591
hospitalisation	-5592
CS	-5593
www	-5594
audi	-5595
▁publiés	-5596
▁Sébastien	-5597
▁circulaire	-5598
▁prestataire	-5599
oti	-5600
oud	-5601
▁11°	-5602
térim	-5603
Vincent	-5604
enquête	-5605
▁classés	-5606
▁opérationnel	-5607
17	-5608
2)	-5609
oup	-5610
▁St	-5611
▁lar	-5612
▁reste	-5613
▁troupes	-5614
▁référentiels	-5615
UE	-5616
proc	-5617
▁nett	-5618
▁Xavier	-5619
▁suivie	-5620
▁indique	-5621
▁Réaliser	-5622
▁proposer	-5623
▁assurances	-5624
▁64	-5625
veaux	-5626
▁prés	-5627
▁végé	-5628
▁assis	-5629
▁meilleurs	-5630
64	-5631
MI	-5632
RY	-5633
▁bl	-5634
▁BER	-5635
▁rappor	-5636
▁conférences	-5637
▁organisateur	-5638
▁recouvrement	-5639
oie	-5640
▁AP	-5641
▁Luc	-5642
▁kil	-5643
▁541-1	-5644
▁Heures	-5645
abilités	-5646
▁régimes	-5647
▁chargées	-5648
▁définissant	-5649
ys	-5650
mma	-5651
▁Ser	-5652
▁Conf	-5653
▁modu	-5654
▁déconc	-5655
▁groupes	-5656
▁stationnement	-5657
08	-5658
CF	-5659
Angers	-5660
▁exécu	-5661
Pauline	-5662
▁chaleur	-5663
▁spécialisé	-5664
▁administrations	-5665
mond	-5666
èmes	-5667
▁perf	-5668
▁Julie	-5669
▁décès	-5670
▁théor	-5671
tulaire	-5672
▁dehors	-5673
▁examin	-5674
térieurs	-5675
mplantation	-5676
TC	-5677
▁ASS	-5678
▁face	-5679
▁tabac	-5680
▁tenue	-5681
▁sortie	-5682
▁Stéphanie	-5683
▁coordonnées	-5684
▁destination	-5685
14	-5686
28	-5687
trer	-5688
uits	-5689
anger	-5690
occup	-5691
▁excl	-5692
▁vacc	-5693
▁Référ	-5694
▁Commun	-5695
▁civiles	-5696
▁déterminées	-5697
1-7	-5698
RAND	-5699
cité	-5700
outi	-5701
phine	-5702
▁dange	-5703
▁Sylvie	-5704
▁privés	-5705
▁Besançon	-5706
▁maladies	-5707
▁pluriannu	-5708
523	-5709
LER	-5710
▁65	-5711
▁2.2.	-5712
▁path	-5713
▁adressé	-5714
▁acceptée	-5715
▁modifier	-5716
▁objectif	-5717
▁dimension	-5718
▁expériment	-5719
▁juridictions	-5720
AULT	-5721
▁Can	-5722
▁Rec	-5723
▁pétr	-5724
▁bonne	-5725
▁convo	-5726
Sébastien	-5727
▁qualifié	-5728
▁fourniture	-5729
▁transmises	-5730
▁facturation	-5731
REU	-5732
usé	-5733
lant	-5734
▁SER	-5735
assure	-5736
llerie	-5737
atthieu	-5738
avances	-5739
▁régies	-5740
▁exemple	-5741
▁fixation	-5742
▁croissance	-5743
▁médicament	-5744
atriculation	-5745
hi	-5746
inte	-5747
obil	-5748
trand	-5749
▁Grou	-5750
▁décl	-5751
▁extra	-5752
▁affectée	-5753
▁variétés	-5754
▁spécialisée	-5755
▁LO	-5756
aval	-5757
accomp	-5758
▁altern	-5759
▁portée	-5760
▁animaux	-5761
▁séances	-5762
▁important	-5763
▁spectacle	-5764
▁circonstances	-5765
dire	-5766
▁niveaux	-5767
▁portées	-5768
entraînement	-5769
ORD	-5770
TES	-5771
▁Défin	-5772
oixante	-5773
▁versées	-5774
▁déplacement	-5775
Pro	-5776
▁résidant	-5777
95	-5778
lori	-5779
Toute	-5780
quant	-5781
▁passagers	-5782
▁approbation	-5783
▁groupements	-5784
EY	-5785
cin	-5786
ugo	-5787
▁emb	-5788
▁diplom	-5789
▁monétaire	-5790
▁indépendant	-5791
▁qualifications	-5792
▁thérapeutiques	-5793
▁régi	-5794
▁très	-5795
hygiène	-5796
étaires	-5797
▁passer	-5798
▁publiée	-5799
▁sections	-5800
▁compensation	-5801
▁consultative	-5802
CP	-5803
2-8	-5804
Ali	-5805
Vice	-5806
▁Fab	-5807
▁aug	-5808
ableau	-5809
Mathilde	-5810
▁composer	-5811
▁contrôlée	-5812
▁présentée	-5813
▁constitutive	-5814
▁Vi	-5815
▁opp	-5816
▁recon	-5817
Ferrand	-5818
évaluer	-5819
▁Jérôme	-5820
▁presse	-5821
▁2023-202	-5822
▁adjoints	-5823
▁attribuée	-5824
▁commerciale	-5825
▁chron	-5826
▁imagerie	-5827
25	-5828
▁liée	-5829
▁débit	-5830
▁index	-5831
Stéphane	-5832
▁composée	-5833
▁Véronique	-5834
▁régionaux	-5835
▁contractuelle	-5836
1-6	-5837
asile	-5838
cheurs	-5839
▁moteur	-5840
▁établir	-5841
▁magistrate	-5842
▁déclarations	-5843
RS	-5844
oig	-5845
▁Aucune	-5846
▁dirige	-5847
▁grands	-5848
▁disposant	-5849
▁classification	-5850
▁www	-5851
ament	-5852
▁213-	-5853
▁Vers	-5854
indemn	-5855
▁parts	-5856
onction	-5857
▁432-13	-5858
▁factur	-5859
AZ	-5860
vo	-5861
port	-5862
▁nor	-5863
Claire	-5864
▁Corse	-5865
▁éventuellement	-5866
uy	-5867
▁neur	-5868
▁parce	-5869
▁passe	-5870
▁audiovis	-5871
NIER	-5872
encl	-5873
▁vise	-5874
tablir	-5875
▁calculé	-5876
▁demandé	-5877
▁déclarés	-5878
▁location	-5879
▁Pl	-5880
...)	-5881
ARTI	-5882
ourt	-5883
▁revenus	-5884
▁régisse	-5885
▁développer	-5886
▁infanterie	-5887
ENS	-5888
partie	-5889
▁poids	-5890
▁peines	-5891
mination	-5892
▁consiste	-5893
▁présenté	-5894
▁détermination	-5895
▁interrégional	-5896
IF	-5897
Ces	-5898
▁MO	-5899
▁Ph	-5900
▁œu	-5901
atur	-5902
dent	-5903
▁dén	-5904
ranch	-5905
▁vous	-5906
▁2021-1	-5907
▁trouve	-5908
officier	-5909
▁2020-523	-5910
▁Laurence	-5911
▁identifiée	-5912
▁logistique	-5913
▁enseignements	-5914
▁accompagnement	-5915
▁Ju	-5916
▁do	-5917
èges	-5918
Julie	-5919
anque	-5920
quées	-5921
▁invi	-5922
▁évalue	-5923
▁soixante	-5924
▁antérieure	-5925
icole	-5926
cidents	-5927
ertoire	-5928
vements	-5929
▁postal	-5930
▁Maurice	-5931
▁propose	-5932
▁diffusion	-5933
▁supérieurs	-5934
▁coordonnateur	-5935
▁délibérations	-5936
▁Haut	-5937
▁péné	-5938
▁trac	-5939
adjoin	-5940
▁partage	-5941
▁copropri	-5942
▁précédente	-5943
réh	-5944
érodromes	-5945
▁envisagé	-5946
▁indemnité	-5947
▁Lu	-5948
arde	-5949
▁pol	-5950
abeth	-5951
ologue	-5952
▁appro	-5953
Frédéric	-5954
▁restruc	-5955
entreprises	-5956
▁intervenir	-5957
▁exceptionnel	-5958
▁recommandations	-5959
va	-5960
▁Er	-5961
once	-5962
▁2.3.	-5963
observ	-5964
▁issue	-5965
▁votre	-5966
▁Florence	-5967
▁nordique	-5968
▁attestant	-5969
oux	-5970
▁eu	-5971
▁11.	-5972
▁jeu	-5973
▁occ	-5974
▁déri	-5975
▁venti	-5976
▁repose	-5977
▁finance	-5978
▁délivrer	-5979
▁supports	-5980
▁catastrophe	-5981
EZ	-5982
▁(5	-5983
imie	-5984
quit	-5985
▁urg	-5986
alisés	-5987
urélie	-5988
▁351-1	-5989
▁avenue	-5990
▁suivre	-5991
ORMATION	-5992
▁équipes	-5993
▁complète	-5994
▁dénommée	-5995
▁intercommun	-5996
ST	-5997
▁2004	-5998
▁allou	-5999
▁Groupe	-6000
▁contraintes	-6001
▁exclusivement	-6002
▁Cré	-6003
▁dég	-6004
▁brut	-6005
Claude	-6006
▁jeunes	-6007
▁travers	-6008
▁journali	-6009
odiversité	-6010
▁dernières	-6011
Jac	-6012
ainte	-6013
édric	-6014
stance	-6015
▁conduc	-6016
▁Contrôle	-6017
▁exercices	-6018
▁médicales	-6019
▁solutions	-6020
▁rénovation	-6021
▁prévisionnel	-6022
▁scientifiques	-6023
▁Sec	-6024
obile	-6025
▁Bour	-6026
▁recteur	-6027
▁capitalis	-6028
▁nécessité	-6029
▁utilisées	-6030
▁technologique	-6031
▁infrastructures	-6032
▁FRAN	-6033
▁cela	-6034
▁Caroline	-6035
▁extérieure	-6036
▁réadaptation	-6037
▁rémunérations	-6038
▁533	-6039
onnes	-6040
▁blocs	-6041
▁grande	-6042
▁rigueur	-6043
▁homologu	-6044
▁Versailles	-6045
▁inspecteurs	-6046
▁Confédération	-6047
▁conjointement	-6048
accomplissement	-6049
ty	-6050
▁6,	-6051
▁Rh	-6052
▁CER	-6053
▁Règ	-6054
▁tre	-6055
verbal	-6056
vergne	-6057
▁label	-6058
obilier	-6059
▁transmise	-6060
▁exemplaires	-6061
▁départementales	-6062
oges	-6063
▁512	-6064
ières	-6065
ologne	-6066
▁faite	-6067
▁âgées	-6068
▁Arnaud	-6069
▁contact	-6070
▁livraison	-6071
▁ponctuelle	-6072
▁utilisation	-6073
▁pédagogiques	-6074
administrateur	-6075
immatriculation	-6076
gi	-6077
esseurs	-6078
▁formule	-6079
▁immatric	-6080
▁compagnie	-6081
Az	-6082
MER	-6083
▁46	-6084
ussi	-6085
▁évi	-6086
lexis	-6087
▁auront	-6088
▁subord	-6089
réditation	-6090
▁sportives	-6091
▁répertoire	-6092
▁syndicales	-6093
▁fonctionnelle	-6094
UGA	-6095
▁Bé	-6096
▁Code	-6097
itions	-6098
▁Inter	-6099
▁accueil	-6100
▁horaires	-6101
▁Référentiel	-6102
▁éventuelles	-6103
▁biodiversité	-6104
-2.	-6105
att	-6106
uré	-6107
lise	-6108
▁musée	-6109
▁issues	-6110
▁dépense	-6111
▁thermique	-6112
▁étrangers	-6113
ow	-6114
ISTE	-6115
rite	-6116
▁cit	-6117
Garonne	-6118
▁approuvé	-6119
▁françaises	-6120
▁provisoire	-6121
leine	-6122
▁CHAR	-6123
Charles	-6124
▁import	-6125
▁continuité	-6126
▁infractions	-6127
IO	-6128
ANS	-6129
▁via	-6130
timis	-6131
▁usées	-6132
▁ordres	-6133
▁schéma	-6134
▁abrogés	-6135
▁déconcent	-6136
▁mécaniques	-6137
09	-6138
aie	-6139
arc	-6140
RIER	-6141
▁622	-6142
▁lour	-6143
▁notes	-6144
▁parent	-6145
▁nomencl	-6146
▁statutaires	-6147
EX	-6148
▁EX	-6149
▁Ne	-6150
érap	-6151
Ouest	-6152
Maxime	-6153
ariats	-6154
▁audit	-6155
▁stric	-6156
▁prélèvements	-6157
▁supplémentaires	-6158
VER	-6159
tié	-6160
clam	-6161
David	-6162
andes	-6163
ciences	-6164
▁habitu	-6165
▁intérim	-6166
▁populaire	-6167
▁protocole	-6168
▁immatricul	-6169
▁particuliers	-6170
tia	-6171
abrice	-6172
▁infec	-6173
▁série	-6174
ulletin	-6175
▁conduit	-6176
▁fichier	-6177
▁biologique	-6178
▁présentent	-6179
▁prélèvement	-6180
▁vérifications	-6181
VEN	-6182
amm	-6183
ouss	-6184
▁lit	-6185
appro	-6186
initi	-6187
résor	-6188
izième	-6189
▁génie	-6190
▁Associ	-6191
▁achats	-6192
▁souhait	-6193
▁précitée	-6194
▁53	-6195
▁Dr	-6196
tric	-6197
uméro	-6198
▁1.1.	-6199
▁graph	-6200
▁Autres	-6201
▁adapté	-6202
▁Garanti	-6203
▁fraction	-6204
▁traitées	-6205
▁destinées	-6206
▁documentation	-6207
▁intercommunale	-6208
Br	-6209
1-9	-6210
▁47	-6211
▁cô	-6212
gnès	-6213
▁Sal	-6214
▁ann	-6215
▁nés	-6216
avail	-6217
verse	-6218
▁ciné	-6219
▁attes	-6220
affaires	-6221
▁suspend	-6222
▁totalité	-6223
ORT	-6224
ato	-6225
ect	-6226
eti	-6227
▁"7°	-6228
Xavier	-6229
Clément	-6230
▁2241-1	-6231
▁recycl	-6232
▁revenu	-6233
▁adaptées	-6234
tification	-6235
▁concourir	-6236
▁contraire	-6237
▁hospitaliers	-6238
▁gestionnaires	-6239
29	-6240
CV	-6241
▁SU	-6242
▁AUX	-6243
▁Mes	-6244
▁1.2.	-6245
▁livret	-6246
lisabeth	-6247
▁situées	-6248
efficacité	-6249
expression	-6250
▁nettoyage	-6251
▁praticien	-6252
▁répondant	-6253
cessibilité	-6254
▁ultérieurement	-6255
CN	-6256
umes	-6257
riste	-6258
▁2000	-6259
entine	-6260
▁Didier	-6261
▁access	-6262
▁troupe	-6263
▁inscrite	-6264
▁effective	-6265
▁facultative	-6266
▁orientations	-6267
▁intermédiaires	-6268
MON	-6269
Une	-6270
▁Ag	-6271
▁DEL	-6272
▁Cycl	-6273
▁perte	-6274
▁récup	-6275
▁NATION	-6276
▁immeub	-6277
▁extraord	-6278
▁radiologie	-6279
.)	-6280
73	-6281
RON	-6282
QUES	-6283
exig	-6284
▁Cal	-6285
▁eux	-6286
▁213-1	-6287
▁Seine	-6288
▁fabric	-6289
adeleine	-6290
lexandra	-6291
▁Limoges	-6292
▁échanges	-6293
▁partielle	-6294
TÉ	-6295
-1,	-6296
ION	-6297
▁Cer	-6298
arrêt	-6299
lodie	-6300
sibil	-6301
érance	-6302
▁Alpes	-6303
▁Ecole	-6304
▁Gilles	-6305
▁quater	-6306
onnement	-6307
▁Cyclades	-6308
▁attachés	-6309
▁candidatures	-6310
GN	-6311
▁Bl	-6312
rovi	-6313
▁VER	-6314
uissi	-6315
▁repr	-6316
▁Objec	-6317
tiennent	-6318
▁justifie	-6319
▁officier	-6320
▁téléphone	-6321
indemnisation	-6322
▁dématérialisée	-6323
▁restructuration	-6324
76	-6325
cé	-6326
ALL	-6327
Marg	-6328
▁trim	-6329
▁citoy	-6330
▁décéd	-6331
▁quoti	-6332
▁Céline	-6333
▁dépôts	-6334
▁tutelle	-6335
▁fiscales	-6336
▁recevoir	-6337
▁fondement	-6338
▁communiquer	-6339
DF	-6340
ka	-6341
ève	-6342
▁ARM	-6343
▁asse	-6344
▁impl	-6345
thérap	-6346
▁compor	-6347
▁informé	-6348
▁répartis	-6349
▁Dispositions	-6350
▁déplacements	-6351
▁extraordinaire	-6352
000	-6353
mont	-6354
pomp	-6355
▁moi	-6356
▁Beau	-6357
appare	-6358
▁TABLE	-6359
▁apprenti	-6360
▁confiées	-6361
▁susvisés	-6362
▁satisfaire	-6363
Etablissement	-6364
las	-6365
géni	-6366
étudi	-6367
▁614-	-6368
▁Soit	-6369
▁impos	-6370
▁fusion	-6371
▁Tableau	-6372
▁naissance	-6373
▁résolution	-6374
vestissements	-6375
▁destinataire	-6376
BER	-6377
▁SE	-6378
COUR	-6379
comp	-6380
▁Cap	-6381
istor	-6382
lique	-6383
▁isol	-6384
douard	-6385
oissons	-6386
▁global	-6387
▁prévoy	-6388
▁portent	-6389
▁apportées	-6390
▁sanitaires	-6391
▁admissibles	-6392
▁conséquences	-6393
Is	-6394
▁w	-6395
▁80	-6396
▁Yv	-6397
▁cm	-6398
1-1,	-6399
▁ray	-6400
Romain	-6401
quêtes	-6402
Pologne	-6403
ativement	-6404
▁intérêts	-6405
▁aérodromes	-6406
▁nomenclature	-6407
▁49	-6408
▁Ter	-6409
▁bru	-6410
▁but	-6411
tence	-6412
érant	-6413
thrite	-6414
▁crise	-6415
▁mouve	-6416
▁cardiov	-6417
▁auxquels	-6418
▁souhaite	-6419
▁perfection	-6420
thur	-6421
▁ouv	-6422
ource	-6423
▁Limi	-6424
▁bois	-6425
érature	-6426
▁étapes	-6427
▁préalables	-6428
▁qualifiées	-6429
ata	-6430
ton	-6431
édi	-6432
abor	-6433
quée	-6434
▁Déc	-6435
inési	-6436
hérèse	-6437
utilité	-6438
▁ladite	-6439
▁moitié	-6440
▁complex	-6441
importance	-6442
inésithérap	-6443
▁commercial	-6444
émi	-6445
mélie	-6446
▁aura	-6447
centage	-6448
▁fermet	-6449
▁ferrovi	-6450
▁trimestre	-6451
DI	-6452
DU	-6453
IERS	-6454
onner	-6455
▁CNIL	-6456
Espace	-6457
Quentin	-6458
▁aéronef	-6459
▁respecte	-6460
équipements	-6461
▁manifestation	-6462
mité	-6463
▁due	-6464
▁Muse	-6465
mettre	-6466
▁numér	-6467
hétique	-6468
ductions	-6469
▁préfète	-6470
▁régions	-6471
▁contribue	-6472
▁liquidation	-6473
accessibilité	-6474
▁certificateur	-6475
Aix	-6476
yré	-6477
inne	-6478
▁école	-6479
▁Pointe	-6480
▁veiller	-6481
▁principales	-6482
▁fournisseurs	-6483
▁utilisateurs	-6484
TEN	-6485
▁Ver	-6486
Haute	-6487
émission	-6488
▁desquel	-6489
▁désignée	-6490
▁manquement	-6491
▁Affectation	-6492
▁comprennent	-6493
▁stratégique	-6494
▁susmentionné	-6495
uve	-6496
même	-6497
onné	-6498
▁Barb	-6499
apeurs	-6500
alisées	-6501
illesse	-6502
istence	-6503
▁vivant	-6504
êchement	-6505
▁imprimé	-6506
▁savoirs	-6507
▁classées	-6508
▁naturels	-6509
orb	-6510
▁Sa	-6511
rité	-6512
yrénées	-6513
▁TABLEAU	-6514
▁tarifaire	-6515
▁navigabilité	-6516
▁constitutives	-6517
▁supplémentaire	-6518
MG	-6519
▁Ma	-6520
▁feu	-6521
▁domm	-6522
▁haute	-6523
▁assuré	-6524
▁proposé	-6525
▁restitu	-6526
Charlotte	-6527
▁majorité	-6528
astructure	-6529
▁particulière	-6530
2-9	-6531
3-4	-6532
OUX	-6533
ald	-6534
ENTA	-6535
▁Dou	-6536
ayant	-6537
▁neuf	-6538
Annexe	-6539
▁régie	-6540
chnique	-6541
▁existe	-6542
▁Service	-6543
▁cultures	-6544
▁sensibil	-6545
▁communique	-6546
implantation	-6547
za	-6548
RIS	-6549
▁IX	-6550
CHER	-6551
▁fron	-6552
▁située	-6553
▁indiqué	-6554
▁effectue	-6555
▁incluant	-6556
▁téléchar	-6557
▁participe	-6558
▁violences	-6559
No	-6560
Flor	-6561
arri	-6562
lara	-6563
ning	-6564
▁arme	-6565
▁rôle	-6566
cienne	-6567
érique	-6568
▁peine	-6569
lémence	-6570
nations	-6571
▁locataire	-6572
▁déontologie	-6573
alies	-6574
▁mach	-6575
▁énum	-6576
▁encore	-6577
▁nouvel	-6578
stétrique	-6579
▁utiliser	-6580
▁renouvelé	-6581
▁couverture	-6582
▁intervention	-6583
▁représentatives	-6584
▁dent	-6585
▁Bourg	-6586
▁végét	-6587
diction	-6588
▁carbone	-6589
▁culturels	-6590
▁détection	-6591
▁collectives	-6592
IEU	-6593
dus	-6594
ico	-6595
▁66	-6596
Tout	-6597
utin	-6598
▁12°	-6599
adron	-6600
▁bons	-6601
▁conç	-6602
oselle	-6603
▁plani	-6604
▁retrai	-6605
ollution	-6606
matologie	-6607
▁calculée	-6608
▁treizième	-6609
▁statistiques	-6610
auf	-6611
pir	-6612
tri	-6613
▁CAP	-6614
▁OFF	-6615
▁1987	-6616
▁priv	-6617
▁Hervé	-6618
▁systé	-6619
▁rappel	-6620
▁secret	-6621
▁Premier	-6622
▁principe	-6623
▁indiquant	-6624
▁hiérarchique	-6625
▁internationaux	-6626
cf	-6627
▁91	-6628
▁Id	-6629
uite	-6630
▁Seu	-6631
liers	-6632
zième	-6633
équili	-6634
▁envoy	-6635
ICATION	-6636
▁validé	-6637
▁demeure	-6638
▁pouvoirs	-6639
▁mentionne	-6640
accréditation	-6641
cies	-6642
guer	-6643
▁reçu	-6644
apitul	-6645
queline	-6646
▁modern	-6647
génierie	-6648
formations	-6649
immobilier	-6650
▁qualifiée	-6651
LAN	-6652
hum	-6653
▁Roy	-6654
▁SPÉ	-6655
▁Taux	-6656
omalies	-6657
ppléant	-6658
▁climat	-6659
▁anticip	-6660
▁cinquante	-6661
▁placement	-6662
""	-6663
emb	-6664
ompl	-6665
▁COL	-6666
▁Deux	-6667
lorian	-6668
▁situe	-6669
▁étude	-6670
conform	-6671
▁ballast	-6672
▁routière	-6673
▁unitaire	-6674
▁instances	-6675
▁infirmiers	-6676
▁vieillesse	-6677
6)	-6678
oun	-6679
icien	-6680
trage	-6681
érante	-6682
▁archi	-6683
▁démon	-6684
▁motif	-6685
▁révis	-6686
retagne	-6687
▁ASSOCI	-6688
▁Accord	-6689
▁élément	-6690
▁Associés	-6691
▁indexation	-6692
▁fonctionnel	-6693
▁intervenant	-6694
▁pénétration	-6695
HU	-6696
ota	-6697
▁CL	-6698
Azur	-6699
Yves	-6700
▁ant	-6701
Jacques	-6702
▁saison	-6703
▁décider	-6704
▁carrière	-6705
▁construi	-6706
▁auxquelles	-6707
▁emballages	-6708
▁individuelles	-6709
1)	-6710
8-	-6711
And	-6712
CRI	-6713
OUS	-6714
▁CE	-6715
▁MOD	-6716
▁Denis	-6717
▁spéciale	-6718
▁Titulaire	-6719
tablissements	-6720
▁personnalité	-6721
▁renouvelables	-6722
1°	-6723
Ag	-6724
éle	-6725
▁Gé	-6726
▁Châ	-6727
▁gam	-6728
amien	-6729
Marine	-6730
▁LISTE	-6731
▁SPÉCI	-6732
▁pénal	-6733
▁Offici	-6734
lisation	-6735
▁Pauline	-6736
▁raccord	-6737
ancienneté	-6738
▁Charlotte	-6739
▁contacter	-6740
▁favoriser	-6741
▁difficultés	-6742
cit	-6743
Rhin	-6744
cinq	-6745
raphes	-6746
▁Hauts	-6747
▁motifs	-6748
▁vivante	-6749
▁jugement	-6750
▁planning	-6751
▁premières	-6752
▁accompagné	-6753
▁immobilier	-6754
▁indication	-6755
▁évolutions	-6756
Ma	-6757
da	-6758
AGE	-6759
AIS	-6760
Ren	-6761
▁mm	-6762
Eric	-6763
▁daté	-6764
▁plas	-6765
▁coopér	-6766
▁incompl	-6767
▁Garantie	-6768
▁attribué	-6769
▁notifiée	-6770
▁préciser	-6771
▁référent	-6772
▁minimales	-6773
▁recyclage	-6774
▁recommandée	-6775
▁spécialisés	-6776
▁supérieures	-6777
INI	-6778
RIE	-6779
aug	-6780
aune	-6781
ystè	-6782
▁"4.	-6783
▁hect	-6784
▁forêt	-6785
▁multi	-6786
▁interf	-6787
▁réussi	-6788
▁signée	-6789
▁Martine	-6790
▁Services	-6791
▁périodic	-6792
▁appareils	-6793
▁faciliter	-6794
▁composantes	-6795
▁impositions	-6796
▁concertation	-6797
▁spécialisées	-6798
▁conventionnels	-6799
FÉ	-6800
Léa	-6801
atre	-6802
▁MEN	-6803
▁sept	-6804
▁aérop	-6805
pompiers	-6806
▁passage	-6807
▁évaluées	-6808
opérations	-6809
▁présentes	-6810
▁déconcentrés	-6811
74	-6812
éph	-6813
▁scr	-6814
▁sév	-6815
aillon	-6816
▁Corps	-6817
▁caiss	-6818
▁double	-6819
atisation	-6820
▁occupant	-6821
▁utilisée	-6822
Atlantique	-6823
hématiques	-6824
▁Madeleine	-6825
▁fermeture	-6826
▁Jacqueline	-6827
▁Coefficient	-6828
▁biologiques	-6829
▁instructions	-6830
ome	-6831
▁AG	-6832
crip	-6833
venu	-6834
▁SAP	-6835
▁det	-6836
athan	-6837
tents	-6838
▁vidé	-6839
▁tenus	-6840
▁trimes	-6841
Provence	-6842
olérance	-6843
▁quantités	-6844
▁toutefois	-6845
▁assistante	-6846
▁température	-6847
CLE	-6848
▁HT	-6849
Juge	-6850
Pasc	-6851
Thib	-6852
enci	-6853
▁SEL	-6854
▁cont	-6855
▁mess	-6856
▁vins	-6857
istants	-6858
ongueur	-6859
▁amende	-6860
▁accepté	-6861
▁Sandrine	-6862
▁chantier	-6863
▁engagées	-6864
▁Emmanuelle	-6865
▁compétents	-6866
ètes	-6867
▁mun	-6868
▁221-15	-6869
▁instal	-6870
▁négoci	-6871
histoire	-6872
▁Monique	-6873
▁Chapitre	-6874
▁redevance	-6875
▁renforcer	-6876
SN	-6877
3-7	-6878
ART	-6879
REL	-6880
▁of	-6881
""."	-6882
duits	-6883
rages	-6884
▁1985	-6885
▁cond	-6886
▁prim	-6887
▁émis	-6888
▁final	-6889
inaires	-6890
▁221-16	-6891
▁choisi	-6892
Emmanuel	-6893
▁221-14,	-6894
▁prévenir	-6895
▁ressorti	-6896
▁réunions	-6897
▁Parlement	-6898
▁permanent	-6899
▁Légifrance	-6900
▁Organisation	-6901
▁TER	-6902
impact	-6903
sariat	-6904
▁nommées	-6905
▁scrutin	-6906
▁pourcentage	-6907
▁transporteur	-6908
3-5	-6909
AMP	-6910
ARL	-6911
▁Se	-6912
ASSE	-6913
afic	-6914
▁Mal	-6915
mande	-6916
▁SERV	-6917
Arnaud	-6918
Office	-6919
▁solution	-6920
Université	-6921
KI	-6922
ESS	-6923
ino	-6924
TIEL	-6925
itte	-6926
▁Met	-6927
▁féd	-6928
andie	-6929
asser	-6930
tiens	-6931
▁Date	-6932
▁Patr	-6933
▁intr	-6934
titudes	-6935
▁appelé	-6936
▁direct	-6937
▁sujets	-6938
▁taille	-6939
▁trafic	-6940
▁directe	-6941
▁orthopé	-6942
▁valider	-6943
▁structur	-6944
▁antérieur	-6945
▁passation	-6946
▁mentionnant	-6947
De	-6948
anny	-6949
icia	-6950
tesse	-6951
▁réel	-6952
▁Ville	-6953
▁meille	-6954
▁facture	-6955
▁plantes	-6956
▁interdit	-6957
▁récapitul	-6958
▁déterminés	-6959
▁équipement	-6960
▁paragraphes	-6961
hydrocarbures	-6962
ONN	-6963
vin	-6964
▁Kar	-6965
MENTS	-6966
aisiss	-6967
▁initial	-6968
▁protégée	-6969
ligibilité	-6970
▁prononcée	-6971
▁contribuer	-6972
▁constituent	-6973
▁fournisseur	-6974
▁suppression	-6975
▁évaluations	-6976
3-6	-6977
4.1.	-6978
chet	-6979
erce	-6980
faci	-6981
▁end	-6982
▁dues	-6983
ichard	-6984
▁dimin	-6985
dernier	-6986
▁radiée	-6987
▁vaisse	-6988
▁augment	-6989
▁effectif	-6990
▁redevances	-6991
inésithérapeu	-6992
CU	-6993
▁SI	-6994
▁Te	-6995
LIER	-6996
opie	-6997
▁frau	-6998
▁impér	-6999
▁Banque	-7000
▁Benoît	-7001
▁expert	-7002
▁restric	-7003
intermédi	-7004
empêchement	-7005
▁périodicité	-7006
▁investissements	-7007
DC	-7008
4-4	-7009
▁9.	-7010
▁CP	-7011
▁612	-7012
▁CAS	-7013
▁voy	-7014
▁Yann	-7015
contre	-7016
▁rouge	-7017
▁Trésor	-7018
ormandie	-7019
tructeur	-7020
▁révision	-7021
▁sessions	-7022
▁vaisseau	-7023
Organisation	-7024
▁technologie	-7025
NOR	-7026
TRA	-7027
spec	-7028
▁Gil	-7029
▁lié	-7030
▁2022."	-7031
Juliette	-7032
aitement	-7033
minement	-7034
▁définir	-7035
▁plafonds	-7036
▁éligible	-7037
▁auditrice	-7038
-2,	-7039
Bou	-7040
fem	-7041
▁Cat	-7042
antal	-7043
▁agro	-7044
antill	-7045
▁Durée	-7046
▁Organ	-7047
▁utile	-7048
▁accéder	-7049
▁couleur	-7050
▁pétroli	-7051
▁exercent	-7052
occupation	-7053
▁automatis	-7054
▁satisfait	-7055
▁conducteur	-7056
▁respectives	-7057
▁commerciales	-7058
aus	-7059
ena	-7060
rus	-7061
▁At	-7062
▁JE	-7063
Hugo	-7064
▁1988	-7065
ôpital	-7066
respect	-7067
▁congés	-7068
▁Raymond	-7069
▁légales	-7070
▁Officier	-7071
▁surveill	-7072
▁tableaux	-7073
▁significatives	-7074
CA	-7075
nis	-7076
rey	-7077
▁78	-7078
QUET	-7079
ingu	-7080
▁immun	-7081
▁consent	-7082
▁quotidi	-7083
▁avenants	-7084
▁autonomie	-7085
▁consignes	-7086
▁confidenti	-7087
▁prestataires	-7088
administrateurs	-7089
▁HU	-7090
ards	-7091
Lucie	-7092
▁2002	-7093
▁2026	-7094
avocat	-7095
▁tests	-7096
▁Franck	-7097
▁identi	-7098
▁tonnes	-7099
▁consult	-7100
▁atteints	-7101
exposition	-7102
▁disposent	-7103
5-3	-7104
▁AB	-7105
▁Ni	-7106
▁pér	-7107
ousse	-7108
érite	-7109
euvent	-7110
social	-7111
uration	-7112
▁assemb	-7113
▁reçoit	-7114
▁prénoms	-7115
▁sapeurs	-7116
▁engagement	-7117
▁obligation	-7118
▁obstétrique	-7119
▁justificatif	-7120
▁législatives	-7121
MES	-7122
▁AD	-7123
▁Sp	-7124
Afin	-7125
aques	-7126
indic	-7127
iteur	-7128
ubert	-7129
▁dess	-7130
agraphe	-7131
▁2241-5	-7132
▁charte	-7133
▁adaptés	-7134
économies	-7135
▁Virginie	-7136
▁connexes	-7137
▁appliquée	-7138
▁proposées	-7139
▁afférentes	-7140
▁frontières	-7141
▁justifient	-7142
13	-7143
RG	-7144
no	-7145
Che	-7146
RIN	-7147
▁122	-7148
Chloé	-7149
Laure	-7150
illon	-7151
assade	-7152
▁injec	-7153
▁démont	-7154
aéronefs	-7155
ristelle	-7156
prétation	-7157
▁exécution	-7158
▁reçoivent	-7159
uf	-7160
Emma	-7161
otes	-7162
ovic	-7163
▁Bas	-7164
▁toi	-7165
accep	-7166
▁avoc	-7167
Marion	-7168
ernité	-7169
duisant	-7170
▁déchar	-7171
▁Pascale	-7172
▁conclus	-7173
ographique	-7174
▁fédération	-7175
▁substitute	-7176
▁localisation	-7177
▁responsabilités	-7178
adul	-7179
auth	-7180
FÉREN	-7181
▁Sign	-7182
▁exon	-7183
ortent	-7184
▁signal	-7185
▁obtenus	-7186
▁fondament	-7187
▁comprendre	-7188
▁territoriaux	-7189
▁justification	-7190
pt	-7191
dom	-7192
▁EP	-7193
amed	-7194
▁"10	-7195
égard	-7196
▁sols	-7197
▁2021,	-7198
▁combin	-7199
▁écarts	-7200
▁recrutés	-7201
▁bataillon	-7202
▁pollution	-7203
▁paramètres	-7204
▁,	-7205
▁Mi	-7206
▁Op	-7207
▁RA	-7208
▁CCH	-7209
oyers	-7210
▁extr	-7211
appuie	-7212
octroi	-7213
▁321-1	-7214
▁Lucie	-7215
▁classé	-7216
▁rendre	-7217
Maritime	-7218
Com	-7219
END	-7220
▁Sol	-7221
▁mét	-7222
ironde	-7223
▁Adresse	-7224
▁ouverture	-7225
▁automobile	-7226
▁résiliation	-7227
▁annuellement	-7228
PH	-7229
erb	-7230
han	-7231
▁74	-7232
▁pê	-7233
▁615	-7234
▁SII	-7235
▁Santé	-7236
▁jeudi	-7237
▁réunit	-7238
adoption	-7239
▁majeurs	-7240
▁mobiles	-7241
▁retenue	-7242
▁réforme	-7243
▁visites	-7244
▁Assesseurs	-7245
▁considération	-7246
MB	-7247
vrir	-7248
▁Cas	-7249
PTION	-7250
▁Unité	-7251
▁affili	-7252
▁déposé	-7253
assiette	-7254
▁intitulé	-7255
▁contrôlés	-7256
▁scolarité	-7257
▁versements	-7258
▁disciplinaire	-7259
▁participations	-7260
Ga	-7261
alp	-7262
ibli	-7263
lieu	-7264
▁TRA	-7265
érale	-7266
▁soli	-7267
▁inten	-7268
▁requê	-7269
▁gouver	-7270
▁mobile	-7271
▁vertic	-7272
▁comités	-7273
▁donnant	-7274
▁Mathilde	-7275
▁déroulera	-7276
▁conclusions	-7277
▁volontaires	-7278
zo	-7279
CON	-7280
avoie	-7281
Hélène	-7282
auteur	-7283
▁Laure	-7284
échange	-7285
▁fiches	-7286
▁longue	-7287
▁métall	-7288
▁restre	-7289
existence	-7290
▁dialogue	-7291
ographiques	-7292
▁présidents	-7293
▁populations	-7294
▁secrétaires	-7295
▁pulvérisation	-7296
pos	-7297
▁Bi	-7298
atér	-7299
▁suc	-7300
rises	-7301
valor	-7302
associ	-7303
▁cellu	-7304
▁serre	-7305
▁crimin	-7306
▁Limites	-7307
▁longueur	-7308
▁septième	-7309
emballages	-7310
▁éventuels	-7311
NI	-7312
ii	-7313
4-6	-7314
▁SAS	-7315
dites	-7316
▁Chef	-7317
▁arrê	-7318
▁essais	-7319
tabilité	-7320
érologie	-7321
▁partagé	-7322
▁réduire	-7323
tissement	-7324
▁renforce	-7325
▁Ministère	-7326
▁déclarées	-7327
▁réintégration	-7328
▁représentation	-7329
rag	-7330
▁Ga	-7331
▁Méd	-7332
▁pie	-7333
laire	-7334
▁BOUR	-7335
onsomm	-7336
rières	-7337
▁loyer	-7338
▁mixte	-7339
▁évolu	-7340
ologues	-7341
écurité	-7342
▁finale	-7343
▁délivrés	-7344
initiative	-7345
▁recrutements	-7346
aît	-7347
Oise	-7348
tage	-7349
vité	-7350
▁For	-7351
CTION	-7352
Sarah	-7353
▁trad	-7354
entend	-7355
▁Aucun	-7356
▁Avant	-7357
▁adéqu	-7358
▁modes	-7359
utation	-7360
▁Maxime	-7361
▁Elisabeth	-7362
▁volailles	-7363
▁conservées	-7364
▁dangereuses	-7365
▁enregistrées	-7366
▁modernisation	-7367
FE	-7368
GO	-7369
PO	-7370
▁TE	-7371
ions	-7372
talm	-7373
alerte	-7374
ervice	-7375
▁culti	-7376
▁prêts	-7377
▁terres	-7378
▁utiles	-7379
▁fournit	-7380
▁acquises	-7381
▁addition	-7382
▁employeur	-7383
▁utilisant	-7384
▁localement	-7385
▁management	-7386
▁praticiens	-7387
▁délégataire	-7388
▁géographiques	-7389
Moh	-7390
gus	-7391
▁Mo	-7392
lies	-7393
▁Den	-7394
cadre	-7395
▁Génér	-7396
▁élevé	-7397
▁dépend	-7398
Benjamin	-7399
▁destiné	-7400
▁solidaire	-7401
▁ventilation	-7402
▁évaluateurs	-7403
kinésithérapeu	-7404
▁positionnement	-7405
ANI	-7406
Guy	-7407
Syl	-7408
▁flu	-7409
▁rapi	-7410
▁traç	-7411
▁SAINT	-7412
établir	-7413
▁Nicole	-7414
▁RÉFÉREN	-7415
▁maisons	-7416
▁notifie	-7417
▁certifié	-7418
▁disposer	-7419
▁facteurs	-7420
▁établies	-7421
académique	-7422
▁événements	-7423
▁métropolitaine	-7424
▁interacadémique	-7425
VES	-7426
acu	-7427
mant	-7428
▁12.	-7429
rient	-7430
écart	-7431
udovic	-7432
▁Alice	-7433
arrivée	-7434
▁Marine	-7435
▁Mathieu	-7436
▁choisie	-7437
▁détenus	-7438
▁entraîne	-7439
▁annuelles	-7440
▁administration	-7441
▁cib	-7442
Franc	-7443
vable	-7444
▁grat	-7445
▁Agnès	-7446
▁monde	-7447
▁repro	-7448
▁récol	-7449
▁auxili	-7450
▁chasse	-7451
▁Delphine	-7452
▁comprise	-7453
▁substitution	-7454
BE	-7455
Sur	-7456
lin	-7457
▁Sou	-7458
▁Var	-7459
▁mas	-7460
avance	-7461
chement	-7462
▁Bureau	-7463
▁condam	-7464
escadron	-7465
▁Corinne	-7466
▁fiscale	-7467
▁dispensés	-7468
▁poursuite	-7469
▁probation	-7470
▁prévoyance	-7471
acheminement	-7472
intermédiaire	-7473
héo	-7474
▁int	-7475
▁rup	-7476
▁1990	-7477
▁coup	-7478
▁géri	-7479
▁descrip	-7480
atteindre	-7481
▁collabor	-7482
▁quarante	-7483
▁appliquées	-7484
ute	-7485
▁Lo	-7486
athe	-7487
tude	-7488
uide	-7489
▁226	-7490
▁3°,	-7491
▁COR	-7492
appar	-7493
adémie	-7494
Caroline	-7495
▁horaire	-7496
▁intérêt	-7497
▁atteinte	-7498
▁organique	-7499
▁alimentaires	-7500
▁confidentialité	-7501
89	-7502
ELA	-7503
ocr	-7504
PREU	-7505
itali	-7506
▁1978	-7507
▁écou	-7508
amende	-7509
▁anony	-7510
▁seuls	-7511
Thierry	-7512
▁colonne	-7513
▁fournis	-7514
▁dommages	-7515
▁titularisation	-7516
DUC	-7517
LIN	-7518
line	-7519
ènes	-7520
limin	-7521
▁pond	-7522
▁rhum	-7523
existe	-7524
▁renvoi	-7525
▁Gabriel	-7526
▁citerne	-7527
▁compréh	-7528
▁reconnue	-7529
protection	-7530
▁transvers	-7531
▁artistique	-7532
▁subventions	-7533
▁intervenants	-7534
▁informatiques	-7535
Jus	-7536
SSI	-7537
chw	-7538
▁SCH	-7539
▁jou	-7540
▁1989	-7541
▁dégr	-7542
▁hydr	-7543
▁détec	-7544
▁stages	-7545
▁Présent	-7546
▁annexée	-7547
▁artisan	-7548
▁délégués	-7549
▁identifiés	-7550
▁tarifaires	-7551
infrastructure	-7552
▁représentante	-7553
▁téléversement	-7554
URS	-7555
▁QU	-7556
rece	-7557
▁Cel	-7558
▁mic	-7559
zanne	-7560
▁grav	-7561
inisme	-7562
▁biomé	-7563
▁effic	-7564
quitaine	-7565
▁autonom	-7566
▁réussite	-7567
▁ultérieur	-7568
▁pertinence	-7569
PA	-7570
ost	-7571
▁ME	-7572
reau	-7573
▁CAM	-7574
▁Res	-7575
isent	-7576
▁72-3	-7577
▁same	-7578
▁élar	-7579
Futuna	-7580
▁légal	-7581
▁simul	-7582
Mathieu	-7583
instance	-7584
▁retirer	-7585
▁revalor	-7586
▁semaine	-7587
▁indiciaire	-7588
▁constituant	-7589
▁culturelles	-7590
85	-7591
Dom	-7592
IEC	-7593
ape	-7594
fier	-7595
▁Mor	-7596
▁Van	-7597
faits	-7598
vesti	-7599
▁musi	-7600
▁orig	-7601
Louise	-7602
aisance	-7603
épargne	-7604
▁avocat	-7605
▁recons	-7606
▁Bretagne	-7607
▁préventi	-7608
intéressée	-7609
▁différence	-7610
▁européennes	-7611
▁traçabilité	-7612
▁opérationnelles	-7613
DT	-7614
lène	-7615
▁Lor	-7616
▁art	-7617
▁lire	-7618
crimin	-7619
élanie	-7620
rigitte	-7621
▁fiscal	-7622
▁Etienne	-7623
▁motivée	-7624
▁progres	-7625
alpinisme	-7626
▁Bertrand	-7627
▁mensuelle	-7628
▁contrôleurs	-7629
▁exploitants	-7630
▁comportement	-7631
▁suffisamment	-7632
▁RH	-7633
ISSE	-7634
llon	-7635
▁hép	-7636
▁exercé	-7637
▁histor	-7638
▁Disposi	-7639
▁command	-7640
▁Autorité	-7641
Mer	-7642
▁CA	-7643
3.2.	-7644
atés	-7645
icip	-7646
Manon	-7647
▁lauré	-7648
▁versé	-7649
▁réclam	-7650
▁capable	-7651
▁municip	-7652
▁perçues	-7653
▁proposée	-7654
▁aériennes	-7655
▁concevoir	-7656
▁cultivées	-7657
▁génétique	-7658
▁modifiées	-7659
▁constituer	-7660
16	-7661
UT	-7662
auc	-7663
▁NF	-7664
oral	-7665
▁BRU	-7666
cueil	-7667
Pascal	-7668
torale	-7669
▁mardi	-7670
homolog	-7671
▁Légion	-7672
▁phases	-7673
▁thèmes	-7674
▁tuteur	-7675
▁Royaume	-7676
▁mineure	-7677
▁apporter	-7678
chercheurs	-7679
▁Direction	-7680
informatique	-7681
▁personnelle	-7682
▁consentement	-7683
▁indépendants	-7684
BA	-7685
4-3	-7686
onci	-7687
▁21-	-7688
▁BTS	-7689
▁abs	-7690
▁régis	-7691
chéance	-7692
élevage	-7693
▁démons	-7694
▁Auvergne	-7695
▁Patricia	-7696
▁portions	-7697
▁compléter	-7698
▁enseignant	-7699
▁handicapés	-7700
7)	-7701
9-1	-7702
IEN	-7703
the	-7704
▁9,	-7705
▁Be	-7706
Chaque	-7707
▁2019).	-7708
▁engins	-7709
▁journée	-7710
▁langues	-7711
▁limiter	-7712
▁ancienne	-7713
▁confiance	-7714
▁dotations	-7715
▁combustible	-7716
▁institutions	-7717
▁hydrocarbures	-7718
Sa	-7719
ha	-7720
▁PL	-7721
cède	-7722
▁"8°	-7723
▁SUR	-7724
▁édi	-7725
astro	-7726
ramme	-7727
▁hypo	-7728
▁pers	-7729
▁Annexe	-7730
▁Romain	-7731
▁sauvet	-7732
▁détaché	-7733
▁habilitée	-7734
▁climatique	-7735
▁volontaire	-7736
NO	-7737
PN	-7738
ULA	-7739
olf	-7740
▁angl	-7741
▁banc	-7742
▁cyber	-7743
▁offre	-7744
ARTICLE	-7745
▁Museum	-7746
▁Toulon	-7747
▁Magistr	-7748
▁insérée	-7749
▁analyses	-7750
▁contenus	-7751
▁couverts	-7752
▁assistant	-7753
▁démarches	-7754
▁budgétaires	-7755
▁constatation	-7756
82	-7757
itz	-7758
ajou	-7759
umab	-7760
▁hui	-7761
▁Sans	-7762
▁argu	-7763
Adrien	-7764
ancier	-7765
▁Serge	-7766
▁habit	-7767
▁bateau	-7768
aculture	-7769
▁prennent	-7770
▁Définition	-7771
▁rapportant	-7772
▁régulièrement	-7773
Di	-7774
zi	-7775
Ana	-7776
Des	-7777
ide	-7778
▁(3	-7779
Nord	-7780
▁App	-7781
▁CSP	-7782
▁avi	-7783
▁len	-7784
nance	-7785
thony	-7786
▁Form	-7787
▁porté	-7788
▁serait	-7789
▁Thérèse	-7790
ieutenant	-7791
▁réserves	-7792
▁Représent	-7793
▁comporter	-7794
onsommation	-7795
homologation	-7796
▁technologiques	-7797
Tr	-7798
gro	-7799
ÉRA	-7800
▁DO	-7801
Unis	-7802
orée	-7803
ôles	-7804
▁mél	-7805
▁vit	-7806
ismes	-7807
milie	-7808
▁Bien	-7809
▁revê	-7810
iblioth	-7811
▁instru	-7812
ventaire	-7813
▁Clément	-7814
▁NATIONALE	-7815
▁gériatrie	-7816
SF	-7817
3-8	-7818
▁Fin	-7819
enevi	-7820
▁âgés	-7821
NEMENT	-7822
demain	-7823
▁Sarah	-7824
▁fixer	-7825
▁accusé	-7826
▁proche	-7827
▁Données	-7828
▁consécu	-7829
▁engagés	-7830
▁Béatrice	-7831
▁transpar	-7832
▁commandes	-7833
▁contrôler	-7834
▁lendemain	-7835
▁Réalisation	-7836
▁renforcement	-7837
▁consignations	-7838
GES	-7839
Côte	-7840
SION	-7841
asses	-7842
ompte	-7843
écuti	-7844
Lorsqu	-7845
______	-7846
luents	-7847
▁méthod	-7848
▁bulletin	-7849
▁organise	-7850
▁capitalisable	-7851
-9	-7852
4-5	-7853
▁PU	-7854
onté	-7855
▁Ind	-7856
▁tôt	-7857
èdent	-7858
decine	-7859
▁appui	-7860
▁encad	-7861
▁sauve	-7862
demment	-7863
▁Emilie	-7864
▁chaude	-7865
▁journal	-7866
▁minimal	-7867
▁redevable	-7868
▁conservent	-7869
▁honoraires	-7870
▁télécommun	-7871
sé	-7872
COM	-7873
ots	-7874
ares	-7875
yril	-7876
▁300	-7877
▁Rol	-7878
▁esc	-7879
▁équ	-7880
decies	-7881
illage	-7882
onnage	-7883
▁161-2	-7884
▁expos	-7885
▁Albert	-7886
▁consac	-7887
▁attendu	-7888
▁énergie	-7889
▁fournies	-7890
▁affectées	-7891
éligibilité	-7892
▁organisées	-7893
▁poursuivre	-7894
▁RÉFÉRENTIEL	-7895
▁dissolution	-7896
▁stratégiques	-7897
ATH	-7898
2-12	-7899
Elle	-7900
duit	-7901
▁Déf	-7902
▁Lab	-7903
▁force	-7904
▁relevé	-7905
▁fraudes	-7906
▁Objectifs	-7907
▁théorique	-7908
▁accessoires	-7909
▁réutilisation	-7910
▁susmentionnée	-7911
▁pharmaceutique	-7912
MIN	-7913
uil	-7914
▁BP	-7915
▁PO	-7916
huit	-7917
▁lec	-7918
▁1991	-7919
▁émet	-7920
▁blind	-7921
▁caval	-7922
▁intel	-7923
régoire	-7924
▁bilans	-7925
▁dépasse	-7926
▁indiquée	-7927
▁informer	-7928
▁Signature	-7929
▁cavalerie	-7930
▁clientèle	-7931
▁chargement	-7932
▁07	-7933
attr	-7934
aven	-7935
▁Ern	-7936
▁aid	-7937
▁vul	-7938
ricul	-7939
ursus	-7940
Jérôme	-7941
▁Emile	-7942
▁Liste	-7943
▁joint	-7944
▁vidéo	-7945
faciale	-7946
▁samedi	-7947
eneviève	-7948
ondation	-7949
▁accident	-7950
▁dérivées	-7951
▁étranger	-7952
▁afférents	-7953
▁incomplet	-7954
Association	-7955
▁intéressés	-7956
▁immobiliers	-7957
▁progression	-7958
▁conventionnel	-7959
AI	-7960
202	-7961
▁fi	-7962
31-1	-7963
arie	-7964
deux	-7965
esti	-7966
▁521	-7967
▁631	-7968
▁BRI	-7969
▁onc	-7970
▁voir	-7971
▁mieux	-7972
▁remon	-7973
issement	-7974
▁appelée	-7975
▁compéti	-7976
▁prévoir	-7977
▁multipli	-7978
▁urgences	-7979
▁publicité	-7980
▁permanence	-7981
▁ferroviaire	-7982
▁actuellement	-7983
▁insuffisante	-7984
▁universitaires	-7985
arn	-7986
REAU	-7987
Yann	-7988
rade	-7989
adulte	-7990
▁161-1	-7991
▁codes	-7992
▁décla	-7993
▁Numéro	-7994
▁démocr	-7995
▁report	-7996
▁Sylvain	-7997
▁entrant	-7998
▁connexion	-7999
▁favorable	-8000
▁adaptations	-8001
▁récapitulatif	-8002
NET	-8003
fond	-8004
▁250	-8005
▁GOU	-8006
▁MER	-8007
▁Mag	-8008
▁oph	-8009
▁3.1.	-8010
▁bonnes	-8011
▁pilote	-8012
▁réelle	-8013
Matthieu	-8014
▁imparti	-8015
▁rupture	-8016
▁volonté	-8017
▁forfaits	-8018
▁proposés	-8019
▁retenues	-8020
▁présentés	-8021
▁radioélectr	-8022
Ab	-8023
RIM	-8024
2-1,	-8025
▁2003	-8026
▁Fort	-8027
▁Péri	-8028
▁Vill	-8029
tables	-8030
▁natur	-8031
▁précé	-8032
▁SELARL	-8033
▁autour	-8034
▁cursus	-8035
▁danger	-8036
▁anciens	-8037
talmologie	-8038
▁strictement	-8039
▁précédemment	-8040
▁vétérinaires	-8041
▁règlementaires	-8042
ccit	-8043
page	-8044
ôtes	-8045
▁10.	-8046
édure	-8047
▁créer	-8048
▁énonc	-8049
▁module	-8050
▁privil	-8051
▁réflex	-8052
▁sauveg	-8053
ccitanie	-8054
▁rattach	-8055
▁remplir	-8056
▁liquides	-8057
▁occasion	-8058
▁ouvertes	-8059
▁dépendant	-8060
▁appartient	-8061
▁conclusion	-8062
▁enregistre	-8063
▁respectant	-8064
▁trimestres	-8065
installations	-8066
CL	-8067
FI	-8068
RIA	-8069
VRE	-8070
erg	-8071
▁01	-8072
▁58	-8073
▁77	-8074
omme	-8075
oriz	-8076
▁Pau	-8077
▁Metz	-8078
▁sexe	-8079
trices	-8080
▁2025,	-8081
▁Rhône	-8082
▁était	-8083
▁Victor	-8084
▁maison	-8085
étudiant	-8086
▁Francis	-8087
▁Gestion	-8088
▁caisses	-8089
▁cinémat	-8090
▁provenant	-8091
▁terminale	-8092
▁périodique	-8093
▁audiovisuelle	-8094
▁85	-8095
çage	-8096
▁"5.	-8097
pects	-8098
▁COMM	-8099
▁Prin	-8100
enfance	-8101
ruption	-8102
urélien	-8103
▁bateaux	-8104
▁circuit	-8105
▁communs	-8106
▁experts	-8107
▁notifié	-8108
▁préserv	-8109
▁cabinets	-8110
▁retraits	-8111
▁fiscalité	-8112
▁fréquence	-8113
▁potentiel	-8114
▁institution	-8115
▁nécessitant	-8116
▁attestations	-8117
▁ministérielle	-8118
AUT	-8119
▁PE	-8120
ITRE	-8121
fort	-8122
lent	-8123
autoc	-8124
fiées	-8125
suite	-8126
tuaire	-8127
ureure	-8128
▁Champ	-8129
▁dilig	-8130
▁fluvi	-8131
▁pollu	-8132
adition	-8133
▁dédiée	-8134
attachés	-8135
▁ouverte	-8136
▁petites	-8137
▁éducatif	-8138
▁assimilés	-8139
▁mécanique	-8140
▁professeure	-8141
▁consultations	-8142
LL	-8143
br	-8144
▁BE	-8145
acti	-8146
amor	-8147
sité	-8148
▁4°,	-8149
urant	-8150
UATION	-8151
attein	-8152
chimie	-8153
▁Simon	-8154
▁indem	-8155
▁indis	-8156
▁spati	-8157
▁Suzanne	-8158
▁auteurs	-8159
▁libellé	-8160
Maritimes	-8161
▁Français	-8162
▁boissons	-8163
▁immeubles	-8164
▁communauté	-8165
▁habilitation	-8166
▁mathématiques	-8167
SO	-8168
FMP	-8169
oce	-8170
▁ur	-8171
▁Cay	-8172
▁Cons	-8173
Cécile	-8174
▁225-1	-8175
ISATION	-8176
isateur	-8177
▁réputé	-8178
▁vérifie	-8179
▁destinée	-8180
▁régiment	-8181
▁fabricant	-8182
▁indiquées	-8183
augmentation	-8184
épartementale	-8185
MD	-8186
▁kW	-8187
ALLE	-8188
orés	-8189
▁PRÉ	-8190
tente	-8191
ettres	-8192
▁CERTIF	-8193
▁162-22-6	-8194
▁ASSOCIES	-8195
▁accomplis	-8196
▁définitif	-8197
▁assistants	-8198
▁anciennement	-8199
83	-8200
ARI	-8201
ste	-8202
▁69	-8203
teau	-8204
▁611	-8205
apiers	-8206
ission	-8207
▁162-3	-8208
▁marque	-8209
rogation	-8210
▁parents	-8211
▁terrain	-8212
technique	-8213
équilibre	-8214
▁assurent	-8215
▁contient	-8216
imposition	-8217
aéronautique	-8218
▁académiques	-8219
BI	-8220
bri	-8221
nec	-8222
élo	-8223
▁Je	-8224
xate	-8225
▁12,	-8226
▁641	-8227
▁BEL	-8228
▁dyn	-8229
▁mém	-8230
▁nos	-8231
▁Côte	-8232
▁DIPL	-8233
▁dose	-8234
▁ramp	-8235
▁Spéci	-8236
ogement	-8237
échelle	-8238
▁Ernest	-8239
▁défici	-8240
CRIPTION	-8241
otrexate	-8242
▁déposer	-8243
▁indemni	-8244
▁énergies	-8245
▁identifier	-8246
▁correspondent	-8247
▁régularisation	-8248
fié	-8249
Eure	-8250
▁ate	-8251
ionel	-8252
quage	-8253
▁1983	-8254
▁plur	-8255
▁vaut	-8256
▁panne	-8257
infirmi	-8258
▁arrête	-8259
▁intitu	-8260
▁puisse	-8261
▁rejets	-8262
▁sévère	-8263
▁longitu	-8264
▁résidus	-8265
▁instance	-8266
▁modifiés	-8267
identifier	-8268
▁libérales	-8269
▁élections	-8270
▁considérés	-8271
▁dérouleront	-8272
▁personnelles	-8273
▁AM	-8274
▁GR	-8275
▁Ri	-8276
èses	-8277
▁214	-8278
▁FER	-8279
▁Nad	-8280
▁fut	-8281
cessi	-8282
illie	-8283
èques	-8284
▁arts	-8285
▁avanc	-8286
▁ÉPREU	-8287
▁crises	-8288
ducation	-8289
▁Patrice	-8290
▁servant	-8291
indicateur	-8292
▁chronique	-8293
▁consécuti	-8294
▁plaisance	-8295
▁représente	-8296
▁sensibilisation	-8297
Ge	-8298
OIS	-8299
▁8,	-8300
▁Son	-8301
Laura	-8302
arque	-8303
ugues	-8304
▁Tous	-8305
▁clin	-8306
▁impu	-8307
riques	-8308
▁Entre	-8309
espaces	-8310
▁Nombre	-8311
▁équipé	-8312
▁Qualité	-8313
▁courant	-8314
▁plaques	-8315
onciation	-8316
▁batterie	-8317
efficients	-8318
inscrivent	-8319
▁évolution	-8320
▁financements	-8321
▁pneumatiques	-8322
SC	-8323
be	-8324
4-8	-8325
▁Gh	-8326
▁150	-8327
▁Aus	-8328
▁cur	-8329
Alice	-8330
amuel	-8331
exerce	-8332
formes	-8333
resser	-8334
tifici	-8335
▁Direc	-8336
▁dette	-8337
▁agréée	-8338
▁objets	-8339
▁promus	-8340
▁œuvres	-8341
▁agences	-8342
▁environ	-8343
▁conserver	-8344
▁contenues	-8345
▁permettra	-8346
▁quartiers	-8347
▁familiales	-8348
▁conséquence	-8349
▁immatriculée	-8350
▁compréhension	-8351
▁correspondants	-8352
▁départementaux	-8353
ADE	-8354
TAT	-8355
lay	-8356
temp	-8357
▁13,	-8358
▁13°	-8359
▁céd	-8360
▁Anti	-8361
▁succ	-8362
ilaine	-8363
rielle	-8364
▁actif	-8365
▁alloc	-8366
▁Agence	-8367
▁primes	-8368
appareil	-8369
▁blindée	-8370
▁papiers	-8371
attention	-8372
▁semences	-8373
▁atteindre	-8374
▁chimiques	-8375
▁opérateur	-8376
▁composante	-8377
▁ressortiss	-8378
▁correspondance	-8379
autoconsommation	-8380
Me	-8381
PAR	-8382
aou	-8383
guy	-8384
▁ax	-8385
Mari	-8386
anet	-8387
ILLET	-8388
dicte	-8389
▁823-1	-8390
▁motor	-8391
guerite	-8392
tenants	-8393
▁Nature	-8394
▁faible	-8395
▁vulnér	-8396
▁Bouches	-8397
▁couvert	-8398
▁retenus	-8399
▁bailleur	-8400
▁vocation	-8401
▁conduites	-8402
▁gouvernance	-8403
▁intermédiaire	-8404
▁planification	-8405
▁BA	-8406
▁EL	-8407
geur	-8408
anche	-8409
ILLARD	-8410
ermain	-8411
iscipl	-8412
riture	-8413
▁signe	-8414
trition	-8415
▁entrée	-8416
▁valide	-8417
▁défaill	-8418
▁grandes	-8419
▁Juliette	-8420
▁fichiers	-8421
▁FORMATION	-8422
▁Geneviève	-8423
▁organisés	-8424
▁régisseur	-8425
▁électeurs	-8426
▁représenter	-8427
▁coefficients	-8428
▁gouvernement	-8429
-0	-8430
Ex	-8431
GI	-8432
UX	-8433
isa	-8434
ory	-8435
évé	-8436
▁SN	-8437
▁év	-8438
adic	-8439
romp	-8440
faire	-8441
yriam	-8442
épend	-8443
▁pose	-8444
▁trau	-8445
▁itali	-8446
édition	-8447
▁implan	-8448
▁légale	-8449
énédicte	-8450
▁Fabrice	-8451
▁Benjamin	-8452
▁Brigitte	-8453
▁Sciences	-8454
internation	-8455
veloppement	-8456
▁consécutifs	-8457
▁méthotrexate	-8458
▁exploitations	-8459
▁signalisation	-8460
HE	-8461
▁333	-8462
▁Sch	-8463
▁den	-8464
ortés	-8465
▁chance	-8466
▁irrece	-8467
▁Michèle	-8468
▁ensuite	-8469
▁lettres	-8470
apprécier	-8471
▁indiqués	-8472
▁moyennes	-8473
▁rédigées	-8474
▁tourisme	-8475
▁troupeau	-8476
▁améliorer	-8477
▁approuvée	-8478
▁patrimoni	-8479
▁effectuant	-8480
▁restitution	-8481
▁énergétiques	-8482
▁correspondante	-8483
nei	-8484
éry	-8485
▁Fr	-8486
teil	-8487
▁Ann	-8488
▁DIS	-8489
▁Jos	-8490
▁Marg	-8491
▁cart	-8492
▁couv	-8493
▁décor	-8494
▁acquit	-8495
▁estime	-8496
▁hydrau	-8497
▁Aurélie	-8498
▁préparer	-8499
▁accidents	-8500
▁constatés	-8501
▁déclarant	-8502
▁déduction	-8503
▁précédents	-8504
▁orthopédique	-8505
4-9	-8506
▁Am	-8507
èque	-8508
▁Sab	-8509
Bruno	-8510
onnet	-8511
tudes	-8512
▁Pôle	-8513
menter	-8514
▁corri	-8515
mandine	-8516
▁adoles	-8517
▁recour	-8518
▁vitesse	-8519
▁Normandie	-8520
▁comptabil	-8521
▁comportent	-8522
▁navigables	-8523
▁changements	-8524
▁formulaires	-8525
▁subordonnée	-8526
▁effectivement	-8527
▁propriétaires	-8528
EF	-8529
Ber	-8530
VIII	-8531
▁GAR	-8532
▁INF	-8533
▁Imp	-8534
.1.2.	-8535
▁prud	-8536
▁ennei	-8537
▁latér	-8538
justice	-8539
nergies	-8540
▁Marion	-8541
▁Option	-8542
▁tension	-8543
▁semestre	-8544
▁terrains	-8545
appellation	-8546
▁bonification	-8547
▁pluriannuelle	-8548
24	-8549
Pi	-8550
▁pi	-8551
trat	-8552
▁Ang	-8553
▁dit	-8554
èrent	-8555
▁clau	-8556
▁muni	-8557
▁posté	-8558
▁trait	-8559
Florian	-8560
Margaux	-8561
▁exclus	-8562
▁SERVICE	-8563
Toutefois	-8564
▁certaine	-8565
▁machines	-8566
Je	-8567
Lo	-8568
aj	-8569
Aub	-8570
3-1,	-8571
actu	-8572
▁400	-8573
▁châ	-8574
grade	-8575
onten	-8576
▁3.2.	-8577
amique	-8578
liques	-8579
élèves	-8580
Patrick	-8581
velines	-8582
Isabelle	-8583
▁humaine	-8584
▁Provence	-8585
▁bouillie	-8586
▁dispense	-8587
▁institué	-8588
entérologie	-8589
▁pharmacien	-8590
organisateur	-8591
03	-8592
Gab	-8593
VII	-8594
tré	-8595
vid	-8596
èce	-8597
▁Ec	-8598
ANCE	-8599
▁"12	-8600
▁REN	-8601
pteur	-8602
▁recl	-8603
Arthur	-8604
▁821-2	-8605
▁grave	-8606
▁déclarée	-8607
▁attribués	-8608
▁participent	-8609
▁professionn	-8610
▁Etablissement	-8611
▁temporairement	-8612
▁conventionnelle	-8613
Bas	-8614
ban	-8615
èles	-8616
▁(2)	-8617
▁Vol	-8618
durée	-8619
santé	-8620
▁bass	-8621
▁trés	-8622
acteur	-8623
▁amont	-8624
▁brute	-8625
▁dévol	-8626
▁regis	-8627
▁remar	-8628
venance	-8629
▁2023-2	-8630
▁claire	-8631
▁profil	-8632
ulgation	-8633
vabilité	-8634
▁simultan	-8635
servatoire	-8636
▁européens	-8637
▁installés	-8638
▁logiciels	-8639
aquaculture	-8640
▁Christiane	-8641
▁concernent	-8642
▁invalidité	-8643
▁renouvelée	-8644
▁partenariats	-8645
▁prévisionnelle	-8646
▁ressortissants	-8647
ANC	-8648
sés	-8649
quin	-8650
▁pan	-8651
▁Stade	-8652
Vilaine	-8653
▁master	-8654
ortation	-8655
éléments	-8656
▁options	-8657
▁utilise	-8658
assistant	-8659
▁Alexandra	-8660
▁graphique	-8661
▁limitation	-8662
▁prioritaire	-8663
▁correspondantes	-8664
Ac	-8665
GT	-8666
ACE	-8667
uss	-8668
▁MÉ	-8669
pour	-8670
tatives	-8671
tologie	-8672
ubstitu	-8673
▁retard	-8674
▁servir	-8675
▁seuils	-8676
▁élabore	-8677
▁recevant	-8678
▁remettre	-8679
▁télévers	-8680
▁oncologie	-8681
▁sauvetage	-8682
▁ordonnance	-8683
▁naturalisation	-8684
04	-8685
4°	-8686
âce	-8687
▁68	-8688
▁Vu	-8689
▁Syn	-8690
▁tuy	-8691
chwitz	-8692
termin	-8693
▁métal	-8694
ranches	-8695
ranchie	-8696
▁162-17	-8697
▁circons	-8698
▁réduite	-8699
▁étendue	-8700
entielles	-8701
▁archives	-8702
▁procédés	-8703
▁résident	-8704
▁Auschwitz	-8705
▁intention	-8706
▁maternité	-8707
▁registres	-8708
▁formateurs	-8709
▁occurrence	-8710
▁présentées	-8711
▁combustibles	-8712
▁récupération	-8713
BOU	-8714
CAR	-8715
▁Is	-8716
CHET	-8717
▁312	-8718
▁COU	-8719
▁Mou	-8720
▁Pas	-8721
▁aqu	-8722
opath	-8723
▁1942	-8724
▁2030	-8725
▁Aude	-8726
▁Fern	-8727
▁posi	-8728
▁rais	-8729
ulsion	-8730
▁212-1	-8731
▁Fiche	-8732
▁dites	-8733
▁marin	-8734
▁MARTIN	-8735
▁fraude	-8736
ocations	-8737
▁ménages	-8738
▁préfets	-8739
Christine	-8740
Dominique	-8741
▁enquêtes	-8742
▁huitième	-8743
▁réservée	-8744
▁Fondation	-8745
▁intitulée	-8746
▁retraites	-8747
▁fréquences	-8748
▁souhaitent	-8749
▁remplissent	-8750
▁démonstration	-8751
rh	-8752
lia	-8753
▁Ty	-8754
TEAU	-8755
aies	-8756
ompe	-8757
pens	-8758
érir	-8759
▁CMG	-8760
Clara	-8761
aillé	-8762
▁Lang	-8763
▁Mise	-8764
Benoît	-8765
uments	-8766
▁élève	-8767
visions	-8768
▁exposé	-8769
▁feront	-8770
▁sièges	-8771
acuation	-8772
▁préavis	-8773
▁pénales	-8774
▁lauréats	-8775
▁logiciel	-8776
▁rattaché	-8777
▁réservis	-8778
▁expertise	-8779
▁importante	-8780
▁sauvegarde	-8781
▁appropriées	-8782
Del	-8783
ESP	-8784
ros	-8785
▁PH	-8786
dont	-8787
ende	-8788
▁Léa	-8789
duite	-8790
▁COMP	-8791
▁mère	-8792
Jeanne	-8793
Victor	-8794
kraine	-8795
▁211-1	-8796
▁simil	-8797
▁faites	-8798
▁hautes	-8799
▁réduit	-8800
▁usages	-8801
concours	-8802
▁déposée	-8803
▁explici	-8804
▁routier	-8805
▁traiter	-8806
tribunaux	-8807
▁maintenir	-8808
▁répression	-8809
▁pulvérisateur	-8810
dg	-8811
cré	-8812
oub	-8813
▁JU	-8814
Chef	-8815
ovol	-8816
▁Pal	-8817
▁bov	-8818
essai	-8819
truit	-8820
▁DANS	-8821
▁cuve	-8822
▁réci	-8823
▁soin	-8824
Orient	-8825
illiam	-8826
▁pertes	-8827
Clémence	-8828
▁SPÉCIAL	-8829
▁accordé	-8830
▁immobil	-8831
▁mettant	-8832
▁maintenu	-8833
alisations	-8834
▁constatée	-8835
▁consultés	-8836
▁standards	-8837
▁éducative	-8838
▁dimensions	-8839
▁irrecevable	-8840
▁applications	-8841
▁expérimentation	-8842
YN	-8843
GIE	-8844
lev	-8845
med	-8846
▁ES	-8847
▁Pe	-8848
ENNE	-8849
TIVE	-8850
▁Elé	-8851
▁MOU	-8852
Rapha	-8853
▁Cher	-8854
orerie	-8855
▁Forme	-8856
▁Seuls	-8857
▁décid	-8858
obtenir	-8859
▁Cédric	-8860
▁Cayenne	-8861
▁conclue	-8862
▁pourvus	-8863
Aquitaine	-8864
▁aérodrome	-8865
▁fondation	-8866
▁Christelle	-8867
▁collectifs	-8868
▁enregistré	-8869
▁exemplaire	-8870
▁préventive	-8871
▁pharmaciens	-8872
▁temporaires	-8873
▁équivalente	-8874
AK	-8875
MN	-8876
ANN	-8877
mpt	-8878
▁SIR	-8879
urore	-8880
▁séqu	-8881
expert	-8882
stanti	-8883
▁6325-	-8884
▁prére	-8885
TIVITÉS	-8886
équival	-8887
▁habili	-8888
▁postul	-8889
▁aspects	-8890
▁architec	-8891
▁demandée	-8892
▁réemploi	-8893
▁adressées	-8894
▁indispens	-8895
onctionnement	-8896
▁commissariat	-8897
▁préservation	-8898
▁certificative	-8899
ING	-8900
▁%.	-8901
dile	-8902
exac	-8903
jets	-8904
oies	-8905
onia	-8906
ront	-8907
stac	-8908
.2.1.	-8909
citer	-8910
ficie	-8911
▁1994	-8912
▁PFMP	-8913
▁flot	-8914
▁gros	-8915
Franck	-8916
▁pages	-8917
▁passé	-8918
▁Carole	-8919
intérêts	-8920
▁Peuvent	-8921
▁porteur	-8922
▁prépare	-8923
▁sources	-8924
▁vacants	-8925
intégrité	-8926
rédérique	-8927
ingénierie	-8928
▁Règlement	-8929
▁bénéfices	-8930
▁composant	-8931
▁existants	-8932
▁habitants	-8933
▁suspendre	-8934
▁dépendantes	-8935
▁immobilière	-8936
▁antérieurement	-8937
▁76	-8938
sori	-8939
écut	-8940
▁621	-8941
▁cuis	-8942
▁merc	-8943
▁313-1	-8944
▁connec	-8945
▁décédé	-8946
atteinte	-8947
▁titular	-8948
▁mutation	-8949
▁2023-2024	-8950
▁organiser	-8951
▁Profession	-8952
▁affranchie	-8953
▁assistance	-8954
▁composants	-8955
▁desquelles	-8956
▁industriel	-8957
▁ophtalmologie	-8958
As	-8959
Aud	-8960
hui	-8961
▁57	-8962
ores	-8963
▁DMP	-8964
▁HER	-8965
ABLES	-8966
▁indé	-8967
...)."	-8968
immeub	-8969
terran	-8970
▁gérer	-8971
adjoint	-8972
▁retenu	-8973
▁Gilbert	-8974
▁tendant	-8975
extérieur	-8976
▁biblioth	-8977
▁concourant	-8978
▁spécialement	-8979
▁transmissions	-8980
FA	-8981
Rob	-8982
mas	-8983
Sous	-8984
cell	-8985
▁1982	-8986
▁2001	-8987
▁frég	-8988
▁plon	-8989
Céline	-8990
commis	-8991
▁fixes	-8992
▁saisi	-8993
▁exécut	-8994
▁loisir	-8995
▁occupé	-8996
▁parach	-8997
▁révisé	-8998
échéance	-8999
▁Creuses	-9000
▁choisir	-9001
▁montage	-9002
▁conserve	-9003
▁collectés	-9004
▁dirigeant	-9005
▁formateur	-9006
▁milliards	-9007
▁scolaires	-9008
▁extérieurs	-9009
▁respectent	-9010
▁électricité	-9011
▁diagnostique	-9012
▁enseignement	-9013
9-	-9014
rob	-9015
▁67	-9016
▁CS	-9017
▁Ed	-9018
illy	-9019
Henri	-9020
VILLE	-9021
ammes	-9022
ponses	-9023
▁Tunis	-9024
▁court	-9025
▁frégate	-9026
▁prospec	-9027
▁réponses	-9028
▁précision	-9029
▁Dispositif	-9030
▁conduisant	-9031
▁rapporteur	-9032
▁impérativement	-9033
gy	-9034
0-2	-9035
▁ém	-9036
redi	-9037
▁233	-9038
▁JUS	-9039
vième	-9040
▁7500	-9041
Alexis	-9042
▁Rapha	-9043
Mohamed	-9044
▁affich	-9045
tinction	-9046
▁foncier	-9047
▁bénéficié	-9048
▁événement	-9049
▁neurologie	-9050
▁trésorerie	-9051
OY	-9052
ke	-9053
6-6	-9054
Pré	-9055
extr	-9056
▁RCS	-9057
Armor	-9058
TIQUE	-9059
front	-9060
jours	-9061
▁côté	-9062
▁quelle	-9063
▁détient	-9064
▁lecture	-9065
▁sergent	-9066
▁162-22-7	-9067
▁culturel	-9068
▁déléguer	-9069
▁requêtes	-9070
▁demandent	-9071
▁qualifiés	-9072
▁consolidés	-9073
▁sécurisation	-9074
▁intégralement	-9075
▁transporteurs	-9076
iban	-9077
▁14°	-9078
didat	-9079
geant	-9080
stall	-9081
voyer	-9082
▁Boul	-9083
▁thon	-9084
actifs	-9085
▁incid	-9086
▁mondi	-9087
▁provo	-9088
torales	-9089
▁2023-8	-9090
▁dégrad	-9091
▁incomb	-9092
▁marins	-9093
▁réputés	-9094
▁autonome	-9095
▁libellée	-9096
▁primaire	-9097
conformité	-9098
▁interromp	-9099
▁Marguerite	-9100
▁instruction	-9101
RH	-9102
BAR	-9103
orus	-9104
▁RÉP	-9105
adéqu	-9106
▁Chau	-9107
▁Vend	-9108
▁synt	-9109
diques	-9110
levard	-9111
▁héber	-9112
▁étape	-9113
▁Unités	-9114
▁enfant	-9115
▁inclut	-9116
▁stocks	-9117
encontre	-9118
écriture	-9119
▁Princip	-9120
▁remplit	-9121
▁doctorat	-9122
▁précisés	-9123
▁certifiés	-9124
▁paritaire	-9125
▁attribuées	-9126
▁pneumologie	-9127
▁signalement	-9128
________________	-9129
UF	-9130
jac	-9131
tim	-9132
IERE	-9133
MANN	-9134
ries	-9135
▁Bri	-9136
▁Fou	-9137
▁pal	-9138
COURS	-9139
omalie	-9140
gologie	-9141
èlement	-9142
▁2019-1	-9143
▁Denise	-9144
▁Roland	-9145
▁hépato	-9146
▁Richard	-9147
▁aéropor	-9148
▁gamètes	-9149
▁humains	-9150
▁réservé	-9151
▁équipés	-9152
▁contract	-9153
▁dentaire	-9154
▁Catalogue	-9155
▁réalisant	-9156
matologique	-9157
▁terrestres	-9158
visionnement	-9159
IES	-9160
▁92	-9161
▁PA	-9162
inqu	-9163
▁eau	-9164
ublic	-9165
▁Thib	-9166
entale	-9167
esseur	-9168
▁Augus	-9169
▁COMPÉ	-9170
▁Chloé	-9171
▁copro	-9172
▁domes	-9173
▁dédié	-9174
enfants	-9175
intégré	-9176
▁agente	-9177
arthrite	-9178
▁critère	-9179
▁mettent	-9180
▁mercredi	-9181
▁priorité	-9182
▁quartier	-9183
▁boulevard	-9184
▁réintégré	-9185
acceptation	-9186
▁superficie	-9187
▁extérieures	-9188
▁Présentation	-9189
▁performances	-9190
▁satisfaisant	-9191
▁industrielles	-9192
DA	-9193
6-4	-9194
▁95	-9195
Ille	-9196
abét	-9197
drey	-9198
▁Dan	-9199
▁FON	-9200
▁Rés	-9201
▁ami	-9202
▁and	-9203
contr	-9204
léans	-9205
▁2.4.	-9206
▁Luci	-9207
▁zéro	-9208
Calais	-9209
▁menée	-9210
▁proch	-9211
ressent	-9212
▁Lucien	-9213
▁barème	-9214
Valentin	-9215
engagent	-9216
équipage	-9217
▁donnent	-9218
▁déclaré	-9219
▁modules	-9220
▁Médaillé	-9221
▁délimité	-9222
▁conservés	-9223
▁diversité	-9224
▁construire	-9225
▁forestière	-9226
▁mouvements	-9227
▁artistiques	-9228
▁considérées	-9229
▁productions	-9230
▁prioritaires	-9231
établissements	-9232
▁traumatologique	-9233
CC	-9234
6-3	-9235
umé	-9236
▁BU	-9237
11-1	-9238
auge	-9239
▁412	-9240
▁RAEP	-9241
▁empê	-9242
Savoie	-9243
ompati	-9244
▁paris	-9245
▁virus	-9246
entifie	-9247
▁équili	-9248
chniques	-9249
idiscipl	-9250
▁Chantal	-9251
▁reconnu	-9252
▁COMPÉTEN	-9253
▁agissant	-9254
▁détenues	-9255
matisation	-9256
▁perception	-9257
▁préfectoral	-9258
▁diplomatique	-9259
▁fondamentaux	-9260
▁transmettent	-9261
3-9	-9262
fiés	-9263
domad	-9264
ocrin	-9265
▁232-	-9266
▁Muri	-9267
▁Situ	-9268
gastro	-9269
▁arron	-9270
▁stade	-9271
travail	-9272
▁Audrey	-9273
▁autant	-9274
▁rejeté	-9275
▁perspec	-9276
▁privées	-9277
▁volumes	-9278
▁Critères	-9279
53	-9280
su	-9281
AMB	-9282
ANO	-9283
Aux	-9284
LEC	-9285
TRI	-9286
lai	-9287
oxy	-9288
ray	-9289
via	-9290
▁câ	-9291
▁RELA	-9292
▁INTER	-9293
▁armes	-9294
▁sympt	-9295
onathan	-9296
ulaires	-9297
▁problè	-9298
antillon	-9299
▁enneigé	-9300
▁express	-9301
▁lesdits	-9302
▁raisonn	-9303
▁échange	-9304
▁Candidat	-9305
▁créances	-9306
▁parcelle	-9307
▁échelons	-9308
Guadeloupe	-9309
activation	-9310
▁discrimin	-9311
▁suffisante	-9312
▁consultatif	-9313
▁pluridiscipl	-9314
▁enregistrement	-9315
▁spécialisation	-9316
Sal	-9317
asp	-9318
▁PR	-9319
5.1.	-9320
SIEC	-9321
▁634	-9322
Alain	-9323
Indre	-9324
ondes	-9325
vette	-9326
agnard	-9327
▁ARMÉE	-9328
▁créée	-9329
▁train	-9330
▁télép	-9331
ebdomad	-9332
▁Adrien	-9333
▁cartes	-9334
▁desser	-9335
▁fruits	-9336
▁vitale	-9337
▁Justice	-9338
▁chirurg	-9339
Marseille	-9340
▁pourrait	-9341
directions	-9342
▁appliqués	-9343
▁effluents	-9344
▁interfère	-9345
▁susviséest	-9346
appréciation	-9347
▁indirectement	-9348
--	-9349
LM	-9350
Fab	-9351
▁On	-9352
atom	-9353
issé	-9354
▁351	-9355
▁445	-9356
▁Vic	-9357
dicat	-9358
rases	-9359
▁2.5.	-9360
▁Pont	-9361
▁Proc	-9362
▁SIRE	-9363
▁Ouest	-9364
▁cible	-9365
inscrit	-9366
▁Nation	-9367
▁Person	-9368
▁mobili	-9369
assadeur	-9370
terranée	-9371
tillerie	-9372
▁Créteil	-9373
▁délinqu	-9374
▁facteur	-9375
▁largeur	-9376
▁optimis	-9377
Catherine	-9378
▁efficace	-9379
▁hebdomad	-9380
▁incendie	-9381
▁instituée	-9382
▁prononcer	-9383
▁réparties	-9384
▁formalités	-9385
▁supprimées	-9386
▁industriels	-9387
▁métropolitain	-9388
OUI	-9389
SSE	-9390
gal	-9391
gue	-9392
och	-9393
ora	-9394
ouy	-9395
2-17	-9396
Aude	-9397
▁"18	-9398
▁octr	-9399
Audrey	-9400
apport	-9401
▁PARIS	-9402
▁fuite	-9403
▁ports	-9404
jection	-9405
éditeur	-9406
▁Elodie	-9407
▁petits	-9408
▁recouv	-9409
▁acquise	-9410
▁adminis	-9411
▁détaillé	-9412
troduction	-9413
▁automatisé	-9414
▁Description	-9415
▁auxiliaires	-9416
▁consulaires	-9417
▁signataires	-9418
▁établissant	-9419
▁communiquées	-9420
HA	-9421
ERE	-9422
lot	-9423
Théo	-9424
riss	-9425
seur	-9426
▁10,	-9427
▁rig	-9428
André	-9429
Isère	-9430
anium	-9431
ertes	-9432
▁golf	-9433
▁inno	-9434
▁Systè	-9435
▁diman	-9436
▁femme	-9437
sociaux	-9438
▁approu	-9439
▁majeur	-9440
▁privée	-9441
▁source	-9442
▁modèles	-9443
▁finalité	-9444
▁seulement	-9445
▁communiqué	-9446
▁montagnard	-9447
▁réservation	-9448
▁transparence	-9449
ONS	-9450
Sim	-9451
ano	-9452
aver	-9453
▁633	-9454
oncer	-9455
▁2027	-9456
▁TRAN	-9457
▁cher	-9458
Cédric	-9459
Justine	-9460
▁213-1.	-9461
▁Alexis	-9462
▁dépist	-9463
▁Lorraine	-9464
▁troubles	-9465
▁distribué	-9466
▁priorités	-9467
▁artillerie	-9468
▁instituant	-9469
▁supplément	-9470
▁transferts	-9471
interdiction	-9472
▁polytechnique	-9473
NF	-9474
DES	-9475
TON	-9476
rac	-9477
▁(4	-9478
▁(8	-9479
ANTE	-9480
Bern	-9481
umin	-9482
▁196	-9483
▁MIN	-9484
▁Pri	-9485
▁nav	-9486
Comté	-9487
ssemb	-9488
Emilie	-9489
ssonne	-9490
▁PARTI	-9491
▁offres	-9492
▁organes	-9493
▁plongée	-9494
▁quelque	-9495
▁renforc	-9496
▁adresser	-9497
▁concentr	-9498
▁foncière	-9499
▁installé	-9500
▁locatifs	-9501
▁prononce	-9502
▁Directeur	-9503
▁Suppléant	-9504
▁carrières	-9505
▁démontrer	-9506
▁documentaire	-9507
▁destinataires	-9508
-7	-9509
TR	-9510
°,	-9511
726	-9512
DEL	-9513
ENE	-9514
éth	-9515
atie	-9516
indi	-9517
vine	-9518
▁DUP	-9519
▁Mob	-9520
▁REC	-9521
▁tém	-9522
mento	-9523
urent	-9524
▁Afin	-9525
▁habi	-9526
▁parf	-9527
▁tiss	-9528
affili	-9529
issage	-9530
▁2022.	-9531
▁Jules	-9532
▁embar	-9533
attaché	-9534
▁Mettre	-9535
▁avance	-9536
▁diminu	-9537
▁encour	-9538
▁métaux	-9539
▁Install	-9540
▁intégré	-9541
▁Matthieu	-9542
▁étudiant	-9543
▁reconnues	-9544
▁Spécialité	-9545
▁reversement	-9546
IZ	-9547
Ti	-9548
Uni	-9549
▁(3)	-9550
▁15,	-9551
▁Mus	-9552
auche	-9553
inage	-9554
▁Voies	-9555
▁artic	-9556
▁chauss	-9557
▁envoyé	-9558
▁vaccin	-9559
accident	-9560
mballage	-9561
▁exercée	-9562
▁obtenue	-9563
▁adressés	-9564
▁hôpitaux	-9565
▁spéciaux	-9566
intolérance	-9567
▁solliciter	-9568
▁constructeur	-9569
▁promulgation	-9570
JE	-9571
ye	-9572
ola	-9573
▁UF	-9574
cont	-9575
▁pav	-9576
aclay	-9577
aides	-9578
venus	-9579
ageurs	-9580
▁2025.	-9581
▁Trois	-9582
▁incor	-9583
▁grades	-9584
▁2241-17	-9585
▁absence	-9586
▁devrait	-9587
▁interar	-9588
▁obtenues	-9589
évacuation	-9590
▁auditeurs	-9591
▁insaisiss	-9592
institution	-9593
▁exploitant	-9594
▁résistance	-9595
▁Communication	-9596
CK	-9597
FP	-9598
fip	-9599
éti	-9600
▁As	-9601
TANT	-9602
alle	-9603
▁222	-9604
▁BON	-9605
▁MOR	-9606
Liban	-9607
MANDE	-9608
actes	-9609
▁chaî	-9610
▁liti	-9611
▁accue	-9612
▁mesur	-9613
▁préle	-9614
Bouches	-9615
▁Hubert	-9616
▁trajec	-9617
▁atteste	-9618
▁fourrag	-9619
▁musique	-9620
▁résulte	-9621
▁suivies	-9622
▁dépasser	-9623
▁réservés	-9624
▁médiation	-9625
utilisateur	-9626
▁consistant	-9627
▁Association	-9628
▁identifiées	-9629
▁remplissant	-9630
▁valablement	-9631
▁diplomatiques	-9632
kinésithérapeute	-9633
23	-9634
54	-9635
91	-9636
GF	-9637
TZ	-9638
VET	-9639
isl	-9640
vad	-9641
▁mg	-9642
Inès	-9643
PÉRA	-9644
icka	-9645
éger	-9646
▁"28	-9647
armon	-9648
intes	-9649
tueux	-9650
▁Blan	-9651
▁Médi	-9652
▁SIIV	-9653
Amélie	-9654
érault	-9655
▁Annie	-9656
▁bande	-9657
▁plage	-9658
▁rampe	-9659
animaux	-9660
▁Andrée	-9661
▁médias	-9662
Académie	-9663
▁masseur	-9664
▁intellec	-9665
abétologie	-9666
inventaire	-9667
▁comprises	-9668
▁convoqués	-9669
▁familiale	-9670
▁salariale	-9671
exportation	-9672
▁permanents	-9673
▁prononcées	-9674
▁correctives	-9675
Su	-9676
not	-9677
sif	-9678
1-2,	-9679
acer	-9680
▁Mel	-9681
▁VHU	-9682
▁Rémi	-9683
Guyane	-9684
quatre	-9685
étique	-9686
▁adhér	-9687
▁cesse	-9688
▁forte	-9689
▁liens	-9690
▁repor	-9691
▁subir	-9692
▁thème	-9693
▁décoll	-9694
▁pleine	-9695
▁ventes	-9696
uissiers	-9697
▁Arcueil	-9698
▁Edouard	-9699
▁avocats	-9700
▁défavor	-9701
▁phrases	-9702
ressement	-9703
▁attendus	-9704
▁envisage	-9705
▁filières	-9706
onautiques	-9707
▁spéciales	-9708
▁Groupement	-9709
▁difficulté	-9710
▁directives	-9711
▁signataire	-9712
▁verticales	-9713
▁Conformément	-9714
▁dermatologie	-9715
▁démocratique	-9716
▁exceptionnelles	-9717
go	-9718
Sand	-9719
code	-9720
sous	-9721
ssis	-9722
éduc	-9723
▁Mer	-9724
▁SOU	-9725
cents	-9726
estes	-9727
thane	-9728
▁Plan	-9729
▁Zone	-9730
▁trop	-9731
examin	-9732
▁214-1	-9733
▁assor	-9734
rologie	-9735
tificat	-9736
▁emprun	-9737
▁majoré	-9738
▁préval	-9739
atologie	-9740
▁assisté	-9741
▁mémento	-9742
▁prorata	-9743
infirmier	-9744
▁moniteur	-9745
▁sportifs	-9746
▁universe	-9747
▁aptitudes	-9748
▁postulant	-9749
▁substance	-9750
INSCRIPTION	-9751
▁correction	-9752
▁immunologie	-9753
▁tarification	-9754
▁climatisation	-9755
UB	-9756
aw	-9757
11-	-9758
GRA	-9759
TIS	-9760
éan	-9761
ête	-9762
ELIN	-9763
Jéré	-9764
agés	-9765
bres	-9766
igne	-9767
terr	-9768
▁BAP	-9769
▁LAM	-9770
▁air	-9771
▁fen	-9772
antis	-9773
▁4.1.	-9774
▁annul	-9775
▁devis	-9776
▁chiens	-9777
▁cortic	-9778
▁octroy	-9779
▁versés	-9780
▁gratuit	-9781
▁restent	-9782
procédure	-9783
▁factures	-9784
▁versions	-9785
▁Bourgogne	-9786
▁latérales	-9787
▁capitaines	-9788
▁aéronautiques	-9789
▁spécifications	-9790
nat	-9791
5-1,	-9792
haus	-9793
oirs	-9794
type	-9795
▁"6.	-9796
▁2."	-9797
▁CHE	-9798
Simon	-9799
artic	-9800
▁Leur	-9801
▁Roch	-9802
▁Rose	-9803
teries	-9804
▁bases	-9805
hôpital	-9806
ogation	-9807
▁MENTION	-9808
▁anonyme	-9809
▁précisé	-9810
▁saisine	-9811
▁traités	-9812
▁Pyrénées	-9813
▁pavillon	-9814
▁adressent	-9815
▁longitude	-9816
▁parvenant	-9817
96	-9818
ez	-9819
CIP	-9820
OLL	-9821
▁1)	-9822
ICHE	-9823
▁CAG	-9824
▁lot	-9825
oines	-9826
vages	-9827
ULAIRE	-9828
adoles	-9829
ancien	-9830
heures	-9831
server	-9832
▁822-1	-9833
▁hybri	-9834
▁manip	-9835
▁mener	-9836
Aurélie	-9837
▁2241-8	-9838
▁Amélie	-9839
▁Garant	-9840
▁Niveau	-9841
Pyrénées	-9842
effectif	-9843
▁détenir	-9844
▁récolte	-9845
▁tranche	-9846
▁endocrin	-9847
▁qualités	-9848
▁uniforme	-9849
assemblage	-9850
▁Occitanie	-9851
▁demandées	-9852
▁délivrées	-9853
▁constatées	-9854
▁détenteurs	-9855
▁existantes	-9856
▁présentiel	-9857
▁accompagnées	-9858
▁bonifications	-9859
▁opérationnels	-9860
56	-9861
yt	-9862
ONE	-9863
yer	-9864
▁2)	-9865
▁Hu	-9866
acts	-9867
▁"9°	-9868
▁221	-9869
▁Lec	-9870
▁nul	-9871
▁BERT	-9872
▁Gall	-9873
▁grâce	-9874
orbonne	-9875
▁Commis	-9876
▁obstac	-9877
pifrance	-9878
▁Métiers	-9879
▁réelles	-9880
▁neuvième	-9881
▁regroupe	-9882
▁métallurg	-9883
▁possibles	-9884
▁substanti	-9885
▁Frédérique	-9886
▁servitudes	-9887
▁sollicités	-9888
▁inférieures	-9889
▁rattachement	-9890
RD	-9891
▁Fl	-9892
pore	-9893
▁"48	-9894
▁Rom	-9895
image	-9896
ticip	-9897
êtres	-9898
▁Main	-9899
▁Tour	-9900
▁visc	-9901
etitia	-9902
istent	-9903
présid	-9904
unités	-9905
Conseil	-9906
Moselle	-9907
▁cancer	-9908
▁renvoy	-9909
▁éviter	-9910
régional	-9911
utention	-9912
▁engagée	-9913
▁quelcon	-9914
▁consenti	-9915
▁déposées	-9916
▁intensive	-9917
▁percevoir	-9918
▁syndicats	-9919
▁mobilisation	-9920
97	-9921
Am	-9922
DEC	-9923
ONT	-9924
lli	-9925
▁»)	-9926
oste	-9927
▁%."	-9928
▁120	-9929
▁LAU	-9930
Renan	-9931
échal	-9932
▁aller	-9933
▁ambul	-9934
▁jurys	-9935
▁ouvre	-9936
▁pompe	-9937
▁Damien	-9938
▁imposé	-9939
▁indice	-9940
▁loyers	-9941
Nathalie	-9942
énergies	-9943
▁Assurer	-9944
▁liberté	-9945
▁Syndicat	-9946
▁convient	-9947
▁dévolues	-9948
▁routiers	-9949
infraction	-9950
▁cardiaque	-9951
▁mobilités	-9952
▁parachuti	-9953
élimination	-9954
▁approuvées	-9955
associations	-9956
▁Département	-9957
▁périodiques	-9958
▁immobilières	-9959
27	-9960
ols	-9961
▁kg	-9962
osph	-9963
▁Fer	-9964
▁SAL	-9965
arthe	-9966
▁CENT	-9967
▁salle	-9968
liation	-9969
étendue	-9970
▁Office	-9971
ceptions	-9972
▁Recueil	-9973
▁faculté	-9974
améliorer	-9975
anomalies	-9976
événement	-9977
▁appliqué	-9978
▁désigner	-9979
▁formulée	-9980
▁prescrit	-9981
▁précités	-9982
▁conjointe	-9983
▁parcelles	-9984
▁substitut	-9985
▁énumérées	-9986
▁dépassement	-9987
▁journalière	-9988
▁systématique	-9989
▁transactions	-9990
▁consommations	-9991
▁préparatoires	-9992
▁métallurgiques	-9993
▁radioprotection	-9994
cy	-9995
red	-9996
sec	-9997
▁86	-9998
▁Kh	-9999
▁SÉ	-10000
4-1,	-10001
anna	-10002
heim	-10003
véni	-10004
▁Dub	-10005
▁kVA	-10006
ILLON	-10007
excéd	-10008
▁héli	-10009
▁diges	-10010
▁faute	-10011
▁ferti	-10012
apacité	-10013
atrices	-10014
▁Vienne	-10015
▁ouvrés	-10016
▁portés	-10017
▁tennis	-10018
▁rencont	-10019
▁élargie	-10020
iguration	-10021
infection	-10022
titulaire	-10023
▁syndicat	-10024
▁énoncées	-10025
opposition	-10026
▁instituts	-10027
▁meilleure	-10028
▁descriptif	-10029
▁vasculaire	-10030
▁prescripteur	-10031
ias	-10032
ila	-10033
▁Et	-10034
▁nu	-10035
eaux	-10036
este	-10037
sept	-10038
stes	-10039
▁"19	-10040
▁Amé	-10041
▁Exp	-10042
▁GRA	-10043
▁Joh	-10044
▁»,"	-10045
Lucas	-10046
Saône	-10047
achel	-10048
duire	-10049
▁1980	-10050
▁335-	-10051
▁Léon	-10052
▁Mans	-10053
▁biom	-10054
Accord	-10055
ovolta	-10056
venues	-10057
▁TITRE	-10058
▁jauge	-10059
omètres	-10060
▁Chorus	-10061
▁aurait	-10062
▁problé	-10063
audition	-10064
▁Moselle	-10065
▁comprom	-10066
▁prépond	-10067
▁consulté	-10068
▁institut	-10069
▁navigant	-10070
▁dynamique	-10071
▁fonctionn	-10072
▁appropriée	-10073
▁biométhane	-10074
▁contrôlées	-10075
▁culturelle	-10076
▁secondaire	-10077
▁pertinentes	-10078
MS	-10079
Ré	-10080
cu	-10081
HER	-10082
Per	-10083
Str	-10084
ura	-10085
▁Gi	-10086
mage	-10087
osse	-10088
▁113	-10089
▁124	-10090
▁GIR	-10091
▁GÉN	-10092
Pitre	-10093
▁4139	-10094
▁Part	-10095
▁pomp	-10096
▁2016-	-10097
▁311-1	-10098
▁biais	-10099
▁faune	-10100
Ukraine	-10101
▁OFFICE	-10102
▁menées	-10103
▁égales	-10104
adhésion	-10105
atégique	-10106
▁civique	-10107
▁menaces	-10108
▁optique	-10109
▁ménagers	-10110
▁maintenue	-10111
▁copropriété	-10112
▁coopératives	-10113
▁examinateurs	-10114
▁constructions	-10115
▁conditionnement	-10116
Re	-10117
Kar	-10118
old	-10119
▁XI	-10120
TABL	-10121
tian	-10122
▁212	-10123
▁Ple	-10124
adrer	-10125
autes	-10126
▁1992	-10127
▁dépu	-10128
▁nuit	-10129
▁Renée	-10130
▁SIRET	-10131
▁singu	-10132
istique	-10133
▁Karine	-10134
▁Manuel	-10135
▁Sainte	-10136
▁Simone	-10137
▁légaux	-10138
▁ponctu	-10139
▁évalué	-10140
▁DEMANDE	-10141
oratoires	-10142
▁analyser	-10143
▁rectific	-10144
▁référend	-10145
▁économie	-10146
▁anomalies	-10147
▁créancier	-10148
▁incompati	-10149
▁Paragraphe	-10150
▁restrictions	-10151
▁insaisissables	-10152
▁environnemental	-10153
by	-10154
ny	-10155
ATE	-10156
ski	-10157
▁GO	-10158
▁OP	-10159
2-21	-10160
llem	-10161
ujet	-10162
▁Eli	-10163
▁Mat	-10164
▁NON	-10165
▁soc	-10166
analy	-10167
▁1962	-10168
▁envoi	-10169
▁pieds	-10170
Essonne	-10171
adjoints	-10172
articles	-10173
▁agricul	-10174
▁grammes	-10175
▁toiture	-10176
VALUATION	-10177
dissement	-10178
▁CONCOURS	-10179
▁Fabienne	-10180
▁découver	-10181
▁habituel	-10182
Lieutenant	-10183
▁Bénédicte	-10184
▁identifie	-10185
▁mouvement	-10186
▁prolongée	-10187
▁quelconque	-10188
▁soutenance	-10189
▁patrimoines	-10190
▁laboratoires	-10191
lié	-10192
▁MIL	-10193
▁PAC	-10194
▁nau	-10195
▁54-1	-10196
▁Four	-10197
▁débu	-10198
▁regr	-10199
▁242-7	-10200
▁Carac	-10201
▁amené	-10202
▁franch	-10203
▁lavage	-10204
▁voyage	-10205
frontali	-10206
▁mémoire	-10207
enveloppe	-10208
épendance	-10209
▁demeurent	-10210
▁décollage	-10211
▁maîtriser	-10212
▁rattachés	-10213
▁constitués	-10214
▁motivation	-10215
▁requérante	-10216
▁constituées	-10217
▁progressive	-10218
▁téléservice	-10219
▁transfrontali	-10220
▁principalement	-10221
▁réhabilitation	-10222
-6	-10223
ANE	-10224
gil	-10225
hem	-10226
glom	-10227
▁"58	-10228
▁MAU	-10229
▁ORG	-10230
▁ait	-10231
▁sis	-10232
yants	-10233
▁1.3.	-10234
▁Sauf	-10235
Centre	-10236
femmes	-10237
rammes	-10238
thèses	-10239
▁Elise	-10240
▁SIREN	-10241
▁décou	-10242
▁large	-10243
▁lourd	-10244
triques	-10245
▁diffus	-10246
▁impact	-10247
▁petite	-10248
TABLISSE	-10249
▁devenue	-10250
▁entendu	-10251
▁gravité	-10252
▁réintég	-10253
objectifs	-10254
▁Danielle	-10255
▁conférant	-10256
▁réflexion	-10257
▁réguliers	-10258
▁demandeurs	-10259
▁promotions	-10260
▁adolescents	-10261
▁postérieure	-10262
▁raisonnable	-10263
▁identification	-10264
sg	-10265
.3.	-10266
CHI	-10267
Cap	-10268
din	-10269
ker	-10270
leu	-10271
▁EC	-10272
2-2,	-10273
face	-10274
gues	-10275
nies	-10276
vile	-10277
▁(10	-10278
▁DRO	-10279
▁Lou	-10280
▁OUV	-10281
azote	-10282
▁1.4.	-10283
▁6.1.	-10284
▁MICH	-10285
mpique	-10286
tentes	-10287
▁pôles	-10288
Bernard	-10289
▁menace	-10290
ppléante	-10291
sidérant	-10292
terminée	-10293
▁anglais	-10294
▁innovant	-10295
▁souscrit	-10296
▁éventuel	-10297
▁2022-1726	-10298
▁plastique	-10299
▁remontées	-10300
▁restreint	-10301
▁collectées	-10302
▁statutaire	-10303
▁communiqués	-10304
▁intéressant	-10305
▁majorations	-10306
▁méthodologie	-10307
BU	-10308
ZE	-10309
ja	-10310
5-4	-10311
EST	-10312
Sol	-10313
YER	-10314
exon	-10315
ègre	-10316
▁"15	-10317
▁227	-10318
▁Gau	-10319
▁Uti	-10320
temps	-10321
▁APPL	-10322
▁Tari	-10323
▁ench	-10324
▁éman	-10325
▁312-1	-10326
▁Odile	-10327
Edouard	-10328
adapter	-10329
duisent	-10330
▁Prénom	-10331
▁origin	-10332
▁terror	-10333
utiliser	-10334
▁amiable	-10335
▁légumes	-10336
▁mensuel	-10337
▁portail	-10338
▁télépil	-10339
▁hectares	-10340
▁marquage	-10341
▁privilég	-10342
▁accordées	-10343
▁attendues	-10344
▁remplacer	-10345
▁souscrite	-10346
▁comparaison	-10347
▁manutention	-10348
▁préparatoire	-10349
▁appartiennent	-10350
internationales	-10351
3°	-10352
GUE	-10353
NER	-10354
TIL	-10355
wan	-10356
ESSE	-10357
âtre	-10358
▁(75	-10359
▁FIN	-10360
▁FOR	-10361
▁arm	-10362
▁chô	-10363
▁tir	-10364
▁vin	-10365
▁âge	-10366
iller	-10367
riger	-10368
trise	-10369
énéré	-10370
▁Comm	-10371
▁GRDF	-10372
compos	-10373
posage	-10374
régory	-10375
▁Claud	-10376
▁récép	-10377
▁sages	-10378
▁Europe	-10379
▁Myriam	-10380
▁masses	-10381
▁ordonn	-10382
▁traces	-10383
▁élimin	-10384
inclusion	-10385
▁paramédic	-10386
▁régulière	-10387
▁syndicale	-10388
Stratégique	-10389
énéréologie	-10390
▁photovolta	-10391
▁pétroliers	-10392
▁respectées	-10393
▁manquements	-10394
▁alternatives	-10395
▁confirmation	-10396
▁réglementées	-10397
▁souscription	-10398
▁prépondérante	-10399
.,	-10400
NA	-10401
RR	-10402
Vu	-10403
ORF	-10404
VEL	-10405
ÉRI	-10406
iert	-10407
lamm	-10408
▁"38	-10409
▁513	-10410
▁947	-10411
▁Hen	-10412
▁ISO	-10413
▁faç	-10414
ainsi	-10415
toria	-10416
excède	-10417
▁614-1	-10418
▁rayon	-10419
▁verte	-10420
Contrat	-10421
Hérault	-10422
experts	-10423
ficités	-10424
▁162-22	-10425
▁ayants	-10426
▁champs	-10427
▁pêches	-10428
▁ruraux	-10429
llemagne	-10430
▁Colette	-10431
▁cellule	-10432
▁combatt	-10433
▁liquide	-10434
▁numéros	-10435
▁urbaine	-10436
lémentine	-10437
▁Compéten	-10438
▁Mobilité	-10439
▁conclure	-10440
▁libéraux	-10441
▁appliquer	-10442
▁mobiliser	-10443
▁prévoient	-10444
▁apparaître	-10445
▁pertinents	-10446
attractivité	-10447
▁travailleur	-10448
▁correctement	-10449
▁francisation	-10450
▁participants	-10451
Ax	-10452
009	-10453
01,	-10454
Lab	-10455
aco	-10456
ize	-10457
ral	-10458
ras	-10459
▁%,	-10460
▁DG	-10461
acha	-10462
mann	-10463
mies	-10464
éver	-10465
▁"16	-10466
▁15°	-10467
▁Bor	-10468
▁Moh	-10469
▁SIM	-10470
▁cro	-10471
ADEME	-10472
ardin	-10473
▁Titre	-10474
▁aspir	-10475
▁remor	-10476
attente	-10477
▁______	-10478
▁musées	-10479
▁précon	-10480
▁souhai	-10481
▁élevée	-10482
ficative	-10483
▁Travail	-10484
▁cuisine	-10485
▁diversi	-10486
▁acceptés	-10487
▁exprimée	-10488
ÉVALUATION	-10489
▁chevalier	-10490
▁justifiée	-10491
emplacement	-10492
importation	-10493
▁Informations	-10494
▁indéterminée	-10495
▁spécificités	-10496
▁Professionnelle	-10497
06	-10498
),"	-10499
NEL	-10500
ROS	-10501
aid	-10502
ith	-10503
1-3,	-10504
ball	-10505
lanc	-10506
▁"68	-10507
TIVES	-10508
exemp	-10509
othée	-10510
▁1993	-10511
▁Port	-10512
▁SANT	-10513
▁cité	-10514
▁issu	-10515
▁séri	-10516
Damien	-10517
▁Marne	-10518
▁créés	-10519
▁2025."	-10520
▁Fabien	-10521
▁Nadine	-10522
▁dédiés	-10523
▁rapide	-10524
▁tuyaut	-10525
urrences	-10526
▁Florent	-10527
▁alertes	-10528
▁enquête	-10529
▁mandats	-10530
▁saisies	-10531
isolation	-10532
ubstitute	-10533
▁Antilles	-10534
▁exprimés	-10535
▁intégrée	-10536
▁remplies	-10537
procureure	-10538
▁Activités	-10539
▁positions	-10540
▁récépissé	-10541
▁terminaux	-10542
observation	-10543
▁amendements	-10544
▁attribution	-10545
▁malveillance	-10546
▁collaboration	-10547
▁rectification	-10548
▁intellectuelle	-10549
Vi	-10550
CAP	-10551
GAR	-10552
auv	-10553
aye	-10554
lsa	-10555
▁He	-10556
2-11	-10557
ière	-10558
▁"29	-10559
▁Ant	-10560
▁Dép	-10561
▁élu	-10562
outes	-10563
uites	-10564
vados	-10565
▁Jusqu	-10566
▁Outre	-10567
▁UNITÉ	-10568
▁psori	-10569
irurgie	-10570
runteur	-10571
▁2014."	-10572
▁combat	-10573
▁ouvrir	-10574
Thibault	-10575
oulement	-10576
ssemblée	-10577
▁Particip	-10578
▁branches	-10579
▁débarque	-10580
▁envisagée	-10581
▁identifié	-10582
▁quotidien	-10583
▁théoriques	-10584
▁combattants	-10585
▁occurrences	-10586
▁dénonciation	-10587
▁recevabilité	-10588
CQ	-10589
GH	-10590
Mé	-10591
sc	-10592
zy	-10593
IST	-10594
cha	-10595
vit	-10596
▁EU	-10597
▁€.	-10598
Mont	-10599
ardi	-10600
èche	-10601
▁"",	-10602
▁AUT	-10603
▁MAL	-10604
▁PRE	-10605
Fanny	-10606
Franç	-10607
autom	-10608
brage	-10609
stant	-10610
évent	-10611
▁CHAU	-10612
affich	-10613
nateur	-10614
▁233-2	-10615
▁conci	-10616
▁modul	-10617
Gironde	-10618
Valérie	-10619
inistre	-10620
▁213-0.	-10621
▁durées	-10622
▁jointe	-10623
▁tabacs	-10624
Bertrand	-10625
Virginie	-10626
appuyant	-10627
▁hectare	-10628
antillons	-10629
▁Baptiste	-10630
▁garantis	-10631
▁latitude	-10632
▁soutiens	-10633
▁coordonne	-10634
▁italienne	-10635
▁prenantes	-10636
▁Certificat	-10637
▁admissible	-10638
▁contingent	-10639
▁esthétique	-10640
▁COMPÉTENCES	-10641
▁intérieures	-10642
▁publications	-10643
▁satisfaction	-10644
▁équivalentes	-10645
ISE	-10646
tir	-10647
▁UG	-10648
MPLO	-10649
eant	-10650
seau	-10651
▁531	-10652
▁Mul	-10653
▁Puy	-10654
▁mac	-10655
Bains	-10656
bihan	-10657
céane	-10658
homme	-10659
ister	-10660
▁Prép	-10661
▁lots	-10662
▁rati	-10663
ureaux	-10664
▁Aline	-10665
▁Fanny	-10666
▁basse	-10667
▁chapi	-10668
▁outil	-10669
otation	-10670
▁déclen	-10671
▁listés	-10672
exigence	-10673
▁dixième	-10674
▁milieux	-10675
▁étaient	-10676
▁formuler	-10677
adolescent	-10678
exactitude	-10679
▁Bpifrance	-10680
▁Gabrielle	-10681
▁autoriser	-10682
▁dépistage	-10683
▁identique	-10684
▁produites	-10685
▁répondent	-10686
▁télécopie	-10687
▁forestiers	-10688
indépendance	-10689
▁résidentiel	-10690
ky	-10691
NES	-10692
pol	-10693
essa	-10694
lots	-10695
▁"22	-10696
▁13.	-10697
▁DOU	-10698
▁Sar	-10699
▁mag	-10700
allée	-10701
▁8.1.	-10702
Joseph	-10703
▁Belle	-10704
▁Objet	-10705
▁moral	-10706
Fabrice	-10707
▁décide	-10708
finances	-10709
▁invités	-10710
▁regroup	-10711
▁vacance	-10712
▁voyages	-10713
▁artifici	-10714
▁dimanche	-10715
▁pénalité	-10716
▁approprié	-10717
▁homologué	-10718
▁appropriés	-10719
▁identifiant	-10720
▁interarmées	-10721
▁consécutives	-10722
81	-10723
▁.	-10724
BRE	-10725
▁Pi	-10726
1-15	-10727
asis	-10728
auff	-10729
▁DÉF	-10730
▁Gir	-10731
▁fib	-10732
eline	-10733
ertis	-10734
melle	-10735
onnec	-10736
trant	-10737
▁Camp	-10738
▁Gran	-10739
rosion	-10740
▁centi	-10741
▁horiz	-10742
▁pacte	-10743
Anthony	-10744
inateur	-10745
▁Lionel	-10746
▁audits	-10747
▁verser	-10748
▁Ludovic	-10749
▁Pleines	-10750
▁couvrir	-10751
▁figurer	-10752
▁fluvial	-10753
Alexandra	-10754
Stéphanie	-10755
▁dissoute	-10756
▁prothèse	-10757
géographie	-10758
▁anticipée	-10759
▁digestive	-10760
▁dispensée	-10761
▁infirmier	-10762
▁électoral	-10763
▁SPÉCIALITÉ	-10764
▁indicateur	-10765
▁intégration	-10766
▁simultanément	-10767
▁revalorisation	-10768
5"	-10769
DO	-10770
GEN	-10771
GNE	-10772
Joh	-10773
TIT	-10774
UNE	-10775
zou	-10776
▁SO	-10777
6-1,	-10778
Dani	-10779
chés	-10780
iles	-10781
liss	-10782
rich	-10783
tave	-10784
▁GAU	-10785
▁Lib	-10786
▁Men	-10787
▁NSF	-10788
▁cam	-10789
CHARD	-10790
femme	-10791
inium	-10792
▁1996	-10793
▁Font	-10794
▁arri	-10795
ristan	-10796
▁94749	-10797
▁GUILL	-10798
▁Maria	-10799
▁ROUSS	-10800
▁chien	-10801
Franche	-10802
▁dénomm	-10803
▁repris	-10804
▁Défense	-10805
▁Fernand	-10806
▁exigées	-10807
appliquer	-10808
▁161-22-1	-10809
▁CERTIFIC	-10810
▁Sorbonne	-10811
▁affiliés	-10812
▁assister	-10813
▁bancaire	-10814
▁constate	-10815
▁couvrant	-10816
▁imposées	-10817
▁cliniques	-10818
téristiques	-10819
▁partenaire	-10820
▁destruction	-10821
▁recueillies	-10822
▁endocrinologie	-10823
▁automatiquement	-10824
HT	-10825
Lu	-10826
LÉ	-10827
GAS	-10828
phe	-10829
tae	-10830
yne	-10831
1-19	-10832
ALES	-10833
ENSE	-10834
MONT	-10835
adia	-10836
auss	-10837
hypo	-10838
ones	-10839
part	-10840
▁LER	-10841
▁MED	-10842
talie	-10843
▁"10°	-10844
▁1998	-10845
▁CODE	-10846
▁Mary	-10847
▁cali	-10848
▁club	-10849
▁scén	-10850
adette	-10851
éphine	-10852
▁125-1	-10853
▁2022-	-10854
▁aires	-10855
▁quand	-10856
riculum	-10857
éverine	-10858
▁2.3.1.	-10859
▁navale	-10860
▁possib	-10861
paration	-10862
▁déficit	-10863
▁entrera	-10864
▁fournie	-10865
▁ouvrage	-10866
▁rétabli	-10867
▁Eléments	-10868
▁captures	-10869
▁formulées	-10870
▁mutualité	-10871
▁Organismes	-10872
▁hiérarchie	-10873
▁vénéréologie	-10874
▁organisatrice	-10875
▁Identification	-10876
86	-10877
-3.	-10878
igu	-10879
iso	-10880
vez	-10881
▁pâ	-10882
ufac	-10883
êmes	-10884
▁Bon	-10885
▁Gui	-10886
▁Jan	-10887
▁ROM	-10888
expri	-10889
▁Nota	-10890
▁sage	-10891
▁Dates	-10892
uminium	-10893
▁Civile	-10894
▁Conten	-10895
▁manuel	-10896
▁reçues	-10897
▁apporte	-10898
▁choisis	-10899
▁revient	-10900
▁schémas	-10901
Christian	-10902
lications	-10903
▁applique	-10904
▁délibère	-10905
▁détecter	-10906
▁successi	-10907
▁tradition	-10908
▁viscérale	-10909
▁habilitées	-10910
▁protocoles	-10911
▁supervision	-10912
▁contractante	-10913
▁facultatives	-10914
▁possibilités	-10915
dy	-10916
BAP	-10917
ITE	-10918
▁(7	-10919
agir	-10920
dith	-10921
land	-10922
îmes	-10923
▁GER	-10924
▁Ste	-10925
ENCES	-10926
ender	-10927
laryn	-10928
oport	-10929
rhino	-10930
▁Exig	-10931
▁Peti	-10932
▁phyt	-10933
▁337-1	-10934
▁Chamb	-10935
▁vitae	-10936
▁ARMÉES	-10937
▁Absent	-10938
▁allouée	-10939
▁délibér	-10940
▁Charente	-10941
▁auditeur	-10942
▁coexiste	-10943
▁desquels	-10944
▁protéger	-10945
▁finalités	-10946
▁pétrolier	-10947
▁troupeaux	-10948
▁voyageurs	-10949
inspecteurs	-10950
▁deviennent	-10951
▁postérieur	-10952
▁spécifiées	-10953
▁exécutoires	-10954
▁thématiques	-10955
▁trajectoire	-10956
▁électorales	-10957
▁téléprocédure	-10958
57	-10959
RM	-10960
Max	-10961
PME	-10962
fer	-10963
▁Bu	-10964
lisa	-10965
élec	-10966
▁143	-10967
▁16°	-10968
▁431	-10969
▁POL	-10970
astre	-10971
açant	-10972
colon	-10973
mosph	-10974
étend	-10975
▁FOUR	-10976
amètre	-10977
atures	-10978
endice	-10979
▁236-1	-10980
▁Appli	-10981
▁acous	-10982
▁intro	-10983
▁semes	-10984
Sylvain	-10985
pendant	-10986
▁Hugues	-10987
▁exigée	-10988
▁rappro	-10989
▁Gironde	-10990
▁déclare	-10991
▁déposés	-10992
▁explosi	-10993
▁inflamm	-10994
▁intègre	-10995
▁message	-10996
▁attendre	-10997
▁interpré	-10998
▁parvenir	-10999
▁produite	-11000
▁douaniers	-11001
▁munitions	-11002
▁curriculum	-11003
▁différente	-11004
▁graphiques	-11005
▁possession	-11006
▁similaires	-11007
laryngologie	-11008
▁contrôleuse	-11009
▁Méditerranée	-11010
OUD	-11011
ama	-11012
dix	-11013
don	-11014
oot	-11015
opr	-11016
orp	-11017
2-10	-11018
expl	-11019
oign	-11020
▁22,	-11021
MENTA	-11022
trois	-11023
▁Etre	-11024
▁meub	-11025
Didier	-11026
▁123-1	-11027
▁543-1	-11028
▁oppos	-11029
▁cycles	-11030
▁signés	-11031
Grégoire	-11032
▁exposés	-11033
▁Parcours	-11034
▁circuits	-11035
▁exclusif	-11036
▁ruralité	-11037
▁énumérés	-11038
▁académies	-11039
▁aspirants	-11040
▁différend	-11041
▁transform	-11042
▁présidence	-11043
▁spectacles	-11044
▁partenariat	-11045
enseignements	-11046
▁compatibilité	-11047
▁constatations	-11048
▁copropriétaires	-11049
▁enregistrements	-11050
349	-11051
ROT	-11052
cier	-11053
locu	-11054
▁"20	-11055
▁20.	-11056
▁DOM	-11057
▁Lac	-11058
▁Maî	-11059
▁01-4	-11060
▁amor	-11061
▁quit	-11062
onnaie	-11063
▁Laura	-11064
▁abord	-11065
▁divis	-11066
▁mille	-11067
Gabriel	-11068
optères	-11069
ériques	-11070
▁Manche	-11071
▁confié	-11072
▁périph	-11073
▁retiré	-11074
écologie	-11075
▁brigadi	-11076
▁compose	-11077
▁parquet	-11078
▁présidé	-11079
Assemblée	-11080
▁communau	-11081
▁expresse	-11082
▁tranches	-11083
▁atteintes	-11084
▁certifier	-11085
▁chantiers	-11086
▁forestier	-11087
▁parentale	-11088
▁protégées	-11089
▁transféré	-11090
▁valoriser	-11091
▁compatible	-11092
▁accompagnés	-11093
▁réclamations	-11094
▁PROFESSIONNELLE	-11095
ige	-11096
mel	-11097
Lise	-11098
NARD	-11099
▁"39	-11100
▁232	-11101
▁BAL	-11102
▁JAC	-11103
▁Rod	-11104
▁dys	-11105
Ville	-11106
eries	-11107
orées	-11108
rants	-11109
▁337-	-11110
▁Emma	-11111
▁SOUS	-11112
atelas	-11113
urance	-11114
▁Nîmes	-11115
▁enquê	-11116
▁noire	-11117
▁score	-11118
▁Langue	-11119
▁Terres	-11120
▁mineur	-11121
▁rendue	-11122
▁annexés	-11123
▁arrêtée	-11124
▁châssis	-11125
▁chômage	-11126
▁investi	-11127
ournement	-11128
▁accompli	-11129
▁identité	-11130
▁traitant	-11131
nomination	-11132
▁paiements	-11133
▁ressource	-11134
▁expression	-11135
▁naturelles	-11136
▁accompagner	-11137
▁antérieures	-11138
▁mandataires	-11139
▁consommateur	-11140
▁négociations	-11141
▁collaborateurs	-11142
▁réglementations	-11143
UTC	-11144
til	-11145
▁vo	-11146
RANT	-11147
otas	-11148
rait	-11149
▁"49	-11150
▁"59	-11151
▁"69	-11152
▁"78	-11153
▁"88	-11154
▁POR	-11155
▁SEC	-11156
▁TOU	-11157
▁inv	-11158
viter	-11159
▁SOCI	-11160
▁Tarn	-11161
▁Voir	-11162
▁frag	-11163
▁puni	-11164
Manche	-11165
espèce	-11166
▁2026,	-11167
▁défec	-11168
▁ouvré	-11169
▁rédac	-11170
▁verre	-11171
Germain	-11172
Orléans	-11173
anterre	-11174
istante	-11175
uissier	-11176
▁notice	-11177
▁subaqu	-11178
▁transb	-11179
▁Justine	-11180
▁bureaux	-11181
▁choisies	-11182
▁distingu	-11183
▁résilience	-11184
▁Principauté	-11185
▁communiquée	-11186
▁conviennent	-11187
▁domestiques	-11188
▁défaillance	-11189
5)	-11190
MT	-11191
9-2	-11192
BEL	-11193
ira	-11194
umi	-11195
van	-11196
▁DC	-11197
▁my	-11198
3-1.	-11199
4.2.	-11200
dien	-11201
orum	-11202
élix	-11203
▁152	-11204
▁Aér	-11205
▁Bre	-11206
▁CDC	-11207
▁Eur	-11208
▁Lot	-11209
èvres	-11210
▁162-	-11211
▁4.2.	-11212
▁Avec	-11213
▁Mmes	-11214
▁Prog	-11215
▁blan	-11216
▁débi	-11217
▁joig	-11218
Elodie	-11219
accise	-11220
▁ENTRE	-11221
▁foyer	-11222
▁Gérald	-11223
▁centré	-11224
▁gestes	-11225
▁recens	-11226
informer	-11227
▁Mélanie	-11228
▁signale	-11229
nutrition	-11230
▁corvette	-11231
▁secondes	-11232
▁Concevoir	-11233
▁parlement	-11234
▁rappelant	-11235
▁substitue	-11236
▁universel	-11237
▁coordonner	-11238
▁génétiques	-11239
▁infraction	-11240
▁fédérations	-11241
▁prospective	-11242
▁contrepartie	-11243
▁interdiction	-11244
▁discriminations	-11245
▁radioélectrique	-11246
gh	-11247
vry	-11248
▁88	-11249
PMEM	-11250
auto	-11251
énom	-11252
▁28.	-11253
▁542	-11254
▁5°,	-11255
▁Aub	-11256
▁IND	-11257
▁KER	-11258
▁Vau	-11259
▁fid	-11260
SSIER	-11261
celle	-11262
idité	-11263
ogène	-11264
osent	-11265
ryons	-11266
▁Anna	-11267
▁abrog	-11268
▁achet	-11269
▁mètre	-11270
▁tracé	-11271
Morgane	-11272
▁caporal	-11273
▁capture	-11274
▁loisirs	-11275
▁accueill	-11276
▁anomalie	-11277
▁contenir	-11278
▁suspendu	-11279
éphrologie	-11280
▁accomplir	-11281
▁stabilité	-11282
▁différenci	-11283
▁promouvoir	-11284
▁instruments	-11285
▁Dénomination	-11286
▁Etablissements	-11287
CD	-11288
SU	-11289
GOU	-11290
Gau	-11291
▁(9	-11292
Fait	-11293
OTTE	-11294
TURE	-11295
vous	-11296
ôtel	-11297
▁"17	-11298
▁11,	-11299
▁30,	-11300
▁Nou	-11301
▁The	-11302
▁bag	-11303
▁lou	-11304
actif	-11305
▁""."	-11306
▁133-	-11307
▁5.2.	-11308
▁mail	-11309
▁pein	-11310
▁sise	-11311
▁sort	-11312
▁Techn	-11313
▁austr	-11314
▁repos	-11315
▁Arthur	-11316
▁Muriel	-11317
hétiques	-11318
▁attendue	-11319
▁audition	-11320
▁citoyens	-11321
▁financer	-11322
▁précisée	-11323
▁Bernadette	-11324
▁conférence	-11325
diabétologie	-11326
▁nominations	-11327
TABLISSEMENTS	-11328
▁indemnitaire	-11329
▁monothérapie	-11330
▁standardisée	-11331
JO	-11332
kh	-11333
6-5	-11334
PER	-11335
Rom	-11336
gni	-11337
hyd	-11338
ucr	-11339
▁(6	-11340
▁Ir	-11341
Rémi	-11342
ÉTAT	-11343
▁Gre	-11344
▁Moy	-11345
▁Neu	-11346
▁Thé	-11347
▁cyn	-11348
agnes	-11349
cheur	-11350
endes	-11351
reuse	-11352
Agathe	-11353
vénile	-11354
▁arrêt	-11355
▁chats	-11356
▁coupe	-11357
▁quota	-11358
Ludovic	-11359
ootball	-11360
▁Benoit	-11361
▁chaîne	-11362
▁couple	-11363
▁exhaus	-11364
▁mixtes	-11365
▁photos	-11366
▁quorum	-11367
Florence	-11368
▁Estelle	-11369
▁Montant	-11370
▁Quentin	-11371
intention	-11372
▁Préparer	-11373
▁cellules	-11374
▁maréchal	-11375
▁plénière	-11376
▁profonde	-11377
▁renforcé	-11378
▁toujours	-11379
▁apprécier	-11380
commissaire	-11381
▁délinquance	-11382
▁fourragères	-11383
▁historiques	-11384
▁indépendante	-11385
07	-11386
DP	-11387
El	-11388
171	-11389
bes	-11390
iés	-11391
▁Cr	-11392
▁XX	-11393
4-59	-11394
AMEN	-11395
bers	-11396
téor	-11397
▁231	-11398
▁750	-11399
▁DMN	-11400
▁NOU	-11401
▁OPS	-11402
▁POU	-11403
▁Sau	-11404
▁Uni	-11405
recru	-11406
▁cerv	-11407
▁clos	-11408
Gilles	-11409
▁proro	-11410
Mélanie	-11411
▁Active	-11412
▁couvre	-11413
▁mairie	-11414
▁phénom	-11415
▁préten	-11416
▁revers	-11417
avantage	-11418
▁caution	-11419
▁directs	-11420
▁donneur	-11421
▁implant	-11422
insaisiss	-11423
▁Clémence	-11424
▁ateliers	-11425
▁attentes	-11426
▁horizont	-11427
▁reconnus	-11428
▁conformer	-11429
▁identiques	-11430
▁propulsion	-11431
ministration	-11432
▁synthétique	-11433
▁convocations	-11434
▁psychologues	-11435
▁significative	-11436
insaisissabilité	-11437
▁postérieurement	-11438
oé	-11439
306	-11440
ATS	-11441
Mor	-11442
▁KH	-11443
ANIS	-11444
Lisa	-11445
RIAL	-11446
alim	-11447
aury	-11448
enza	-11449
lits	-11450
orre	-11451
▁...	-11452
▁165	-11453
▁Ana	-11454
▁Ins	-11455
Avant	-11456
ERGIE	-11457
joint	-11458
▁DIRE	-11459
▁nuis	-11460
▁vois	-11461
▁vrac	-11462
Daniel	-11463
▁Ghisl	-11464
▁INRIA	-11465
▁collé	-11466
▁inuti	-11467
authier	-11468
▁Toutes	-11469
▁bovins	-11470
▁conten	-11471
▁copies	-11472
▁dépass	-11473
▁succès	-11474
acheteur	-11475
▁aliment	-11476
▁barèmes	-11477
▁exprimé	-11478
▁prendra	-11479
▁pédiatr	-11480
▁Accompag	-11481
▁assortie	-11482
▁diamètre	-11483
▁distincts	-11484
coefficient	-11485
conformités	-11486
entreposage	-11487
▁poursuites	-11488
▁prévisions	-11489
▁éducatives	-11490
▁collections	-11491
▁permanentes	-11492
▁prorogation	-11493
▁prolongation	-11494
▁Fonctionnement	-11495
Wh	-11496
oz	-11497
Col	-11498
PRO	-11499
▁Us	-11500
▁VO	-11501
▁€,	-11502
dier	-11503
rain	-11504
ugby	-11505
▁123	-11506
▁16,	-11507
▁195	-11508
▁Dès	-11509
▁FAU	-11510
▁Max	-11511
▁oto	-11512
▁plu	-11513
▁voc	-11514
cluse	-11515
▁diab	-11516
▁fais	-11517
▁tête	-11518
▁visa	-11519
Fabien	-11520
▁Cyril	-11521
▁micro	-11522
▁piste	-11523
optimis	-11524
▁connue	-11525
▁déclin	-11526
▁refusé	-11527
ENTATION	-11528
▁Contenu	-11529
▁assiste	-11530
▁manufac	-11531
▁perçoit	-11532
▁placées	-11533
▁évalués	-11534
▁évoluer	-11535
Françoise	-11536
▁Marianne	-11537
▁Nanterre	-11538
▁demandés	-11539
▁douzième	-11540
▁implique	-11541
▁littoral	-11542
▁demandant	-11543
▁rattachée	-11544
▁historique	-11545
▁interdites	-11546
antillonnage	-11547
▁ambassadeur	-11548
▁plateformes	-11549
▁remplissage	-11550
▁rhumatologie	-11551
▁réalisations	-11552
▁constitutionnel	-11553
Jo	-11554
KO	-11555
ZI	-11556
ACC	-11557
GUY	-11558
RAT	-11559
axe	-11560
œur	-11561
▁ii	-11562
1-2.	-11563
ercy	-11564
▁"79	-11565
▁CAL	-11566
▁LAR	-11567
▁RÉG	-11568
▁TECH	-11569
▁auto	-11570
▁scel	-11571
charge	-11572
liquer	-11573
▁Basse	-11574
▁socio	-11575
ertises	-11576
▁FRANCE	-11577
▁posséd	-11578
Aurélien	-11579
audience	-11580
tination	-11581
▁cervico	-11582
▁clauses	-11583
▁collégi	-11584
▁souvent	-11585
▁Valentin	-11586
▁critique	-11587
▁histoire	-11588
▁juvénile	-11589
▁paysages	-11590
▁recourir	-11591
▁détaillée	-11592
▁variation	-11593
affiliation	-11594
exonération	-11595
▁rechercher	-11596
▁réintégrée	-11597
▁terrorisme	-11598
▁tuyautages	-11599
▁nécessitent	-11600
▁essentielles	-11601
▁concentration	-11602
▁capitalisables	-11603
▁transbordement	-11604
Du	-11605
Sy	-11606
ed	-11607
ÉR	-11608
ACH	-11609
gor	-11610
mit	-11611
▁FL	-11612
▁ID	-11613
42-1	-11614
RITÉ	-11615
adie	-11616
lyne	-11617
rise	-11618
▁"62	-11619
▁14,	-11620
▁700	-11621
▁Cou	-11622
▁Doc	-11623
▁MAN	-11624
▁idi	-11625
▁sié	-11626
▁sud	-11627
Enfin	-11628
LIQUE	-11629
onore	-11630
urgie	-11631
▁Empl	-11632
▁Télé	-11633
▁inci	-11634
▁tent	-11635
Margot	-11636
truire	-11637
▁Drôme	-11638
▁OFFIC	-11639
▁gérés	-11640
▁odont	-11641
▁payer	-11642
▁îlots	-11643
cheteur	-11644
lairage	-11645
▁CLASSE	-11646
▁Mérite	-11647
▁absent	-11648
▁attrib	-11649
▁auteur	-11650
▁saisir	-11651
▁envoyer	-11652
▁ouvrier	-11653
▁conflits	-11654
▁exécutée	-11655
▁financés	-11656
▁idiopath	-11657
▁immeuble	-11658
▁solidité	-11659
Emmanuelle	-11660
▁Exigences	-11661
▁suffisant	-11662
accompagner	-11663
▁directoire	-11664
▁détaillées	-11665
▁souhaitant	-11666
▁spécialiste	-11667
▁communiquent	-11668
▁dérogatoires	-11669
interprétation	-11670
▁disciplinaires	-11671
4"	-11672
DRE	-11673
FER	-11674
ire	-11675
non	-11676
▁Av	-11677
▁Az	-11678
1-1.	-11679
IQUE	-11680
lets	-11681
▁"32	-11682
▁014	-11683
▁GIP	-11684
▁dus	-11685
▁stu	-11686
IERRE	-11687
amens	-11688
mêmes	-11689
▁PRÉS	-11690
▁froi	-11691
▁fure	-11692
▁paie	-11693
active	-11694
allèle	-11695
▁11.1.	-11696
▁2019,	-11697
▁assig	-11698
▁camér	-11699
▁levée	-11700
accords	-11701
engager	-11702
gations	-11703
gilance	-11704
ÉNERGIE	-11705
▁2020-1	-11706
▁Action	-11707
▁Agathe	-11708
▁devenu	-11709
▁légère	-11710
ouvrages	-11711
▁confiée	-11712
▁conflit	-11713
▁corpore	-11714
tionnaire	-11715
▁Michelle	-11716
▁Rochelle	-11717
▁certifie	-11718
▁intégrés	-11719
▁siégeant	-11720
présidents	-11721
▁Magistrat	-11722
▁apprentis	-11723
▁multiples	-11724
▁rendement	-11725
bersécurité	-11726
▁complexité	-11727
▁importants	-11728
▁agriculture	-11729
▁expressément	-11730
▁idiopathique	-11731
Ard	-11732
Sab	-11733
TEL	-11734
hdi	-11735
▁SY	-11736
▁bâ	-11737
1-12	-11738
JORF	-11739
orat	-11740
rina	-11741
▁416	-11742
▁gui	-11743
▁red	-11744
▁rév	-11745
▁tox	-11746
Corse	-11747
eneur	-11748
idémi	-11749
lanti	-11750
▁Modi	-11751
▁évid	-11752
mètres	-11753
omique	-11754
omptes	-11755
œuvres	-11756
▁314-1	-11757
▁821-5	-11758
▁lingu	-11759
▁reçus	-11760
▁821-13	-11761
▁CONTRA	-11762
▁bassin	-11763
▁graves	-11764
▁météor	-11765
▁remédi	-11766
▁statue	-11767
Amandine	-11768
Corentin	-11769
ablement	-11770
auditeur	-11771
▁Respect	-11772
▁locatif	-11773
▁mélange	-11774
▁relevés	-11775
▁trouver	-11776
▁ÉPREUVE	-11777
▁élaboré	-11778
▁évaluée	-11779
▁2022-202	-11780
▁approche	-11781
▁chimique	-11782
▁courante	-11783
▁encadrer	-11784
▁recteurs	-11785
▁sécurisé	-11786
enseignant	-11787
▁décrivant	-11788
▁sollicite	-11789
▁diligences	-11790
observatoire	-11791
▁calendaires	-11792
▁reconversion	-11793
▁subaquatique	-11794
Er	-11795
0-8	-11796
INF	-11797
Mal	-11798
OLO	-11799
los	-11800
▁BL	-11801
ALEN	-11802
Sans	-11803
TITU	-11804
amar	-11805
time	-11806
▁"25	-11807
▁511	-11808
▁HAM	-11809
▁Ros	-11810
nière	-11811
▁José	-11812
▁mand	-11813
TATION	-11814
outils	-11815
▁bénév	-11816
élément	-11817
▁créées	-11818
▁devoir	-11819
▁siéger	-11820
Acheteur	-11821
DUCATION	-11822
hôpitaux	-11823
▁accrédi	-11824
▁engager	-11825
▁hybride	-11826
▁physico	-11827
▁vaccins	-11828
lantiques	-11829
notamment	-11830
▁finition	-11831
▁obstacle	-11832
▁répartir	-11833
▁républic	-11834
▁variable	-11835
▁évidence	-11836
▁bulletins	-11837
▁clairement	-11838
▁déchargement	-11839
▁expérimental	-11840
▁documentaires	-11841
▁présentations	-11842
Co	-11843
lv	-11844
ADR	-11845
INA	-11846
RAE	-11847
SEE	-11848
VIS	-11849
her	-11850
▁3)	-11851
1-4,	-11852
ETTE	-11853
TICE	-11854
avec	-11855
thme	-11856
▁"89	-11857
▁3."	-11858
▁48°	-11859
▁Bal	-11860
▁Gus	-11861
▁LOU	-11862
Cyril	-11863
acune	-11864
affec	-11865
outte	-11866
seurs	-11867
▁Gard	-11868
▁More	-11869
▁euro	-11870
▁soup	-11871
aborer	-11872
essais	-11873
osystè	-11874
▁DROIT	-11875
▁rende	-11876
▁égard	-11877
▁Yvonne	-11878
▁agence	-11879
▁chimie	-11880
▁parois	-11881
▁portes	-11882
▁pourvu	-11883
▁Notaire	-11884
▁confier	-11885
▁précoce	-11886
▁statuer	-11887
▁transit	-11888
arctiques	-11889
▁ajoutées	-11890
▁commence	-11891
▁contrôlé	-11892
▁justifié	-11893
▁liaisons	-11894
Traitement	-11895
▁ACTIVITÉS	-11896
▁australes	-11897
▁manufactur	-11898
▁recueillir	-11899
▁stratégies	-11900
▁interrompue	-11901
▁néphrologie	-11902
▁rencontrées	-11903
▁vaccination	-11904
▁circonscription	-11905
5-5	-11906
986	-11907
ARS	-11908
Ain	-11909
VIN	-11910
ete	-11911
feu	-11912
omo	-11913
▁96	-11914
▁GA	-11915
▁UE	-11916
1-5,	-11917
eneu	-11918
igny	-11919
sych	-11920
▁14.	-11921
▁15.	-11922
▁Lar	-11923
ameub	-11924
andre	-11925
archi	-11926
chant	-11927
ports	-11928
▁ajus	-11929
▁case	-11930
effort	-11931
urable	-11932
yrille	-11933
▁820-1	-11934
▁revit	-11935
▁1333-1	-11936
▁Chargé	-11937
▁Samuel	-11938
▁furets	-11939
▁littér	-11940
▁avocate	-11941
▁décédée	-11942
▁réputée	-11943
▁victime	-11944
criptions	-11945
▁Claudine	-11946
▁appareil	-11947
▁atomique	-11948
▁caractér	-11949
▁familial	-11950
▁validées	-11951
▁dangereux	-11952
▁résultent	-11953
ameublement	-11954
▁rédactrice	-11955
▁personnalisé	-11956
▁revitalisation	-11957
BIN	-11958
ERI	-11959
RAY	-11960
abs	-11961
men	-11962
roy	-11963
▁87	-11964
1-11	-11965
Cher	-11966
URES	-11967
assa	-11968
dule	-11969
osmé	-11970
élia	-11971
▁"42	-11972
▁"50	-11973
▁Lef	-11974
▁STE	-11975
▁dig	-11976
▁vos	-11977
house	-11978
outil	-11979
reaux	-11980
▁Pier	-11981
▁demi	-11982
▁erre	-11983
▁lucr	-11984
atomie	-11985
aucune	-11986
dation	-11987
luence	-11988
▁114-1	-11989
▁Clara	-11990
▁Régis	-11991
tenante	-11992
tuaires	-11993
▁213-6.	-11994
▁2241-2	-11995
▁Renaud	-11996
Laurence	-11997
antation	-11998
illement	-11999
ogrammes	-12000
versaire	-12001
▁assujet	-12002
▁créance	-12003
▁régular	-12004
▁scénari	-12005
▁01-44-59	-12006
▁chiffres	-12007
▁parental	-12008
▁échéance	-12009
▁approuvés	-12010
▁impliqués	-12011
▁prescrits	-12012
▁résidents	-12013
▁Prévention	-12014
▁renseignée	-12015
▁citoyenneté	-12016
▁coopérative	-12017
▁pluriannuel	-12018
▁initialement	-12019
KH	-12020
UM	-12021
ji	-12022
ok	-12023
IRA	-12024
Vic	-12025
ala	-12026
amy	-12027
fon	-12028
▁AT	-12029
▁GE	-12030
1-10	-12031
1-14	-12032
BOIS	-12033
elly	-12034
gnon	-12035
rice	-12036
évin	-12037
▁"30	-12038
▁0,5	-12039
▁32,	-12040
▁85-	-12041
▁Rel	-12042
▁TRI	-12043
▁inh	-12044
Elise	-12045
Hervé	-12046
mbert	-12047
onnés	-12048
prati	-12049
uisse	-12050
▁BEAU	-12051
▁SPOR	-12052
▁sylv	-12053
icales	-12054
judant	-12055
ogènes	-12056
▁6527-	-12057
▁Celui	-12058
▁addic	-12059
▁aient	-12060
obstant	-12061
▁contes	-12062
▁détach	-12063
▁franco	-12064
▁suites	-12065
▁tirage	-12066
▁budgets	-12067
▁commenc	-12068
entifiant	-12069
ÉDUCATION	-12070
▁Médecine	-12071
▁accordés	-12072
▁garantit	-12073
▁publiées	-12074
expédition	-12075
▁calculées	-12076
▁complexes	-12077
Atlantiques	-12078
▁01-44-59-4	-12079
▁Conception	-12080
▁effectuera	-12081
▁propriétés	-12082
▁allocations	-12083
▁quotidienne	-12084
▁réparations	-12085
▁antarctiques	-12086
▁généralement	-12087
▁hebdomadaire	-12088
▁consolidation	-12089
AE	-12090
CG	-12091
VO	-12092
gs	-12093
Dis	-12094
▁SD	-12095
AIRE	-12096
ENCE	-12097
Loir	-12098
POSI	-12099
Sauf	-12100
VIER	-12101
uire	-12102
çons	-12103
▁"52	-12104
▁600	-12105
▁CRE	-12106
▁Dur	-12107
▁STA	-12108
▁pot	-12109
atine	-12110
endra	-12111
ercle	-12112
livia	-12113
meric	-12114
olphe	-12115
▁1971	-12116
▁1979	-12117
▁Lili	-12118
▁pied	-12119
▁prai	-12120
LEMENT	-12121
inçage	-12122
éviter	-12123
▁Etude	-12124
▁borde	-12125
▁parcs	-12126
▁perçu	-12127
▁quant	-12128
▁revue	-12129
▁volet	-12130
▁échec	-12131
▁Aurore	-12132
▁dessin	-12133
▁motivé	-12134
▁normal	-12135
Auvergne	-12136
▁Gustave	-12137
▁apports	-12138
▁extrait	-12139
▁listées	-12140
élisation	-12141
▁informés	-12142
▁désignant	-12143
▁financées	-12144
équivalence	-12145
▁distinctes	-12146
▁défectueux	-12147
▁générateur	-12148
▁réductions	-12149
▁pathologies	-12150
▁utilisateur	-12151
▁délibérative	-12152
▁règlementation	-12153
▁ÉTABLISSEMENTS	-12154
3"	-12155
Pr	-12156
5-8	-12157
PIN	-12158
rid	-12159
▁MG	-12160
▁Sc	-12161
3.3.	-12162
Nota	-12163
essi	-12164
olle	-12165
ômes	-12166
▁"70	-12167
▁18,	-12168
▁Esp	-12169
▁GAL	-12170
▁Ham	-12171
▁PRI	-12172
▁VAN	-12173
graph	-12174
rette	-12175
▁1981	-12176
▁22-1	-12177
▁4.6.	-12178
▁ANFR	-12179
▁Arts	-12180
▁Poli	-12181
▁céré	-12182
▁féri	-12183
▁épis	-12184
amiral	-12185
eurthe	-12186
iciens	-12187
milien	-12188
velyne	-12189
▁2008-	-12190
▁Manon	-12191
▁impôt	-12192
▁2012."	-12193
▁cinéma	-12194
▁conver	-12195
▁lourds	-12196
▁prévis	-12197
adresser	-12198
cellence	-12199
▁2241-11	-12200
▁Commune	-12201
▁agroali	-12202
▁mentale	-12203
Finistère	-12204
▁rectorat	-12205
▁OFFICIERS	-12206
▁couvertes	-12207
▁exprimées	-12208
▁installée	-12209
risonnement	-12210
▁coordonnée	-12211
▁libération	-12212
▁prescrites	-12213
▁homologation	-12214
▁surveillants	-12215
SH	-12216
WS	-12217
ANG	-12218
Gér	-12219
ORG	-12220
cia	-12221
cle	-12222
doc	-12223
oty	-12224
▁UC	-12225
3-2,	-12226
Dôme	-12227
JEAN	-12228
inon	-12229
▁111	-12230
▁180	-12231
▁213	-12232
▁59,	-12233
▁Dum	-12234
AIRES	-12235
acées	-12236
index	-12237
inion	-12238
lages	-12239
rante	-12240
▁Bâti	-12241
▁reli	-12242
▁sait	-12243
▁Douai	-12244
▁Effec	-12245
▁fabri	-12246
▁pédic	-12247
investi	-12248
parties	-12249
uranium	-12250
▁2013."	-12251
▁Monaco	-12252
▁perçue	-12253
▁signes	-12254
Yvelines	-12255
enquêtes	-12256
▁Contrat	-12257
▁académie	-12258
▁accorder	-12259
▁lesdites	-12260
▁prélimin	-12261
▁tiennent	-12262
▁animation	-12263
▁assurance	-12264
▁passeport	-12265
▁sexuelles	-12266
▁reconstitu	-12267
▁écoulement	-12268
▁intérimaire	-12269
▁lieutenants	-12270
▁métallurgie	-12271
▁représentés	-12272
▁significatif	-12273
▁exceptionnels	-12274
▁définitivement	-12275
▁spécifiquement	-12276
▁fonctionnalités	-12277
▁immobilisations	-12278
Ob	-12279
ié	-12280
30,	-12281
Loi	-12282
ada	-12283
pod	-12284
éna	-12285
▁89	-12286
▁NE	-12287
▁Ve	-12288
BLIC	-12289
IGNE	-12290
mane	-12291
oses	-12292
▁Dér	-12293
▁sil	-12294
▁312-	-12295
▁Hugo	-12296
▁Oran	-12297
▁gère	-12298
2-1246	-12299
MPLOIS	-12300
chauff	-12301
quants	-12302
rogène	-12303
▁233-1	-12304
▁Améli	-12305
▁Beauv	-12306
▁Oblig	-12307
▁SIISN	-12308
acteurs	-12309
durable	-12310
▁2015."	-12311
▁GÉNÉRA	-12312
▁cumulé	-12313
▁former	-12314
▁perçus	-12315
▁tenues	-12316
ICATIONS	-12317
▁Demande	-12318
▁Yannick	-12319
▁cahiers	-12320
▁pétrole	-12321
▁NOTARIAL	-12322
▁Produits	-12323
▁couverte	-12324
▁emprunts	-12325
▁remplace	-12326
▁terminal	-12327
extinction	-12328
orporation	-12329
▁2012-1246	-12330
▁affectant	-12331
▁attention	-12332
▁déroulent	-12333
▁exclusive	-12334
▁soumettre	-12335
▁téléversé	-12336
▁Protection	-12337
▁accessoire	-12338
▁adaptation	-12339
▁municipale	-12340
▁pourraient	-12341
▁commandants	-12342
▁cumulatives	-12343
▁fournissent	-12344
▁fournitures	-12345
▁hydraulique	-12346
▁réservistes	-12347
▁télécharger	-12348
developpement	-12349
▁condamnation	-12350
▁rectificative	-12351
26	-12352
bo	-12353
-19	-12354
MAS	-12355
Sud	-12356
URE	-12357
chy	-12358
dia	-12359
▁79	-12360
2-20	-12361
RIEU	-12362
▁"11	-12363
▁"40	-12364
▁107	-12365
▁635	-12366
▁Air	-12367
▁Dup	-12368
▁Déb	-12369
▁JOU	-12370
▁Loc	-12371
▁fum	-12372
▁gen	-12373
▁oly	-12374
CONOM	-12375
lsace	-12376
▁Asse	-12377
▁GUER	-12378
▁SÉCU	-12379
▁dysf	-12380
▁gain	-12381
▁sang	-12382
▁ultr	-12383
eneuve	-12384
▁2023)	-12385
▁Ainsi	-12386
▁FICHE	-12387
▁Médic	-12388
Florent	-12389
▁Annick	-12390
▁Bastia	-12391
▁Hautes	-12392
▁animal	-12393
▁câbles	-12394
▁polici	-12395
▁propag	-12396
Delphine	-12397
Jonathan	-12398
▁Absence	-12399
▁inadéqu	-12400
▁pilotes	-12401
▁recense	-12402
▁adresses	-12403
▁dénommés	-12404
▁végétaux	-12405
Substitute	-12406
niversaire	-12407
▁avantages	-12408
▁participé	-12409
glomération	-12410
▁Production	-12411
▁infections	-12412
▁innovation	-12413
▁organisant	-12414
▁Généralités	-12415
▁acceptation	-12416
▁agriculteurs	-12417
▁indispensables	-12418
-3,	-12419
ALA	-12420
ARR	-12421
HOU	-12422
bon	-12423
ell	-12424
gny	-12425
▁Ax	-12426
▁PI	-12427
7-1,	-12428
TARD	-12429
ièle	-12430
uman	-12431
étan	-12432
▁20,	-12433
▁MES	-12434
▁Tur	-12435
▁cui	-12436
▁évè	-12437
inten	-12438
▁suff	-12439
▁verb	-12440
▁œufs	-12441
reille	-12442
ugénie	-12443
▁75349	-12444
▁Côtes	-12445
▁Monté	-12446
▁Sonia	-12447
▁TERRE	-12448
▁accré	-12449
▁guide	-12450
▁recue	-12451
▁sorte	-12452
▁écart	-12453
Service	-12454
essorat	-12455
▁démoli	-12456
▁gazeux	-12457
▁hausse	-12458
▁inadap	-12459
▁sexies	-12460
▁vision	-12461
▁machine	-12462
▁rendent	-12463
▁sorties	-12464
▁souterr	-12465
éducateur	-12466
▁Aurélien	-12467
▁manœuvre	-12468
▁puissent	-12469
employeurs	-12470
▁renseigné	-12471
▁susvisées	-12472
Laboratoire	-12473
▁Evaluation	-12474
▁dirigeants	-12475
▁thématique	-12476
▁travailler	-12477
épartemental	-12478
▁appellation	-12479
▁homologuant	-12480
▁professorat	-12481
▁précédentes	-12482
échelonnement	-12483
▁exonérations	-12484
▁bibliothèques	-12485
728	-12486
AGN	-12487
AMI	-12488
Ari	-12489
COR	-12490
RIL	-12491
DEAU	-12492
QUEL	-12493
▁"90	-12494
▁rob	-12495
Côtes	-12496
ONNET	-12497
chard	-12498
islas	-12499
▁001°	-12500
▁1958	-12501
▁SAPA	-12502
▁bles	-12503
▁desc	-12504
▁semi	-12505
▁Éric	-12506
ICHARD	-12507
ISSION	-12508
Jérémy	-12509
obiles	-12510
établi	-12511
▁SANTÉ	-12512
▁exigé	-12513
▁radic	-12514
▁souti	-12515
Pendant	-12516
VENTION	-12517
vations	-12518
▁Louvre	-12519
▁Renard	-12520
▁UNITÉS	-12521
▁Yvette	-12522
▁droite	-12523
▁modéré	-12524
▁tissus	-12525
▁JUSTICE	-12526
▁possède	-12527
▁visible	-12528
amination	-12529
▁Bulletin	-12530
▁apprécie	-12531
▁centraux	-12532
▁cessions	-12533
▁complets	-12534
▁délégant	-12535
▁libérale	-12536
▁nominale	-12537
▁précises	-12538
▁rigidité	-12539
▁soutenir	-12540
▁séquence	-12541
▁éditeurs	-12542
effectuent	-12543
▁coordonné	-12544
▁notifiées	-12545
▁paramètre	-12546
▁rubriques	-12547
▁sécurisée	-12548
▁chancelier	-12549
▁financeurs	-12550
▁installées	-12551
▁redevables	-12552
▁subordonné	-12553
▁Maintenance	-12554
▁classifiées	-12555
▁multination	-12556
▁établissent	-12557
incorporation	-12558
▁actionnaires	-12559
▁conciliation	-12560
▁préfectorale	-12561
▁secrétariats	-12562
▁échantillons	-12563
84	-12564
CR	-12565
-10	-12566
4-7	-12567
TAL	-12568
aya	-12569
cio	-12570
iff	-12571
▁Dj	-12572
▁EG	-12573
▁ST	-12574
2-14	-12575
2-18	-12576
ITAL	-12577
rend	-12578
éral	-12579
▁"60	-12580
▁140	-12581
▁oné	-12582
4-679	-12583
aucun	-12584
drome	-12585
ingue	-12586
ouche	-12587
trans	-12588
étape	-12589
▁BLAN	-12590
▁Jéré	-12591
▁ence	-12592
Noémie	-12593
acquit	-12594
▁5332-	-12595
▁astre	-12596
▁tourn	-12597
actives	-12598
tieuses	-12599
▁94-679	-12600
▁Compag	-12601
▁PUBLIC	-12602
▁Sabine	-12603
▁Vendée	-12604
▁causes	-12605
▁débute	-12606
▁rurale	-12607
PÉRATION	-12608
apporter	-12609
onomique	-12610
échanges	-12611
▁Anthony	-12612
▁Florian	-12613
▁Général	-12614
▁choisit	-12615
▁monnaie	-12616
▁Objectif	-12617
▁exploité	-12618
▁intégrer	-12619
▁licences	-12620
▁prononcé	-12621
▁Finistère	-12622
▁construit	-12623
▁indirecte	-12624
▁découverte	-12625
▁inadéquate	-12626
▁inspection	-12627
▁aéroportuaire	-12628
▁partiellement	-12629
Ay	-12630
KA	-12631
PC	-12632
DER	-12633
Mon	-12634
OLI	-12635
oil	-12636
Luci	-12637
dies	-12638
▁514	-12639
▁BAS	-12640
▁COS	-12641
▁Maz	-12642
▁hyd	-12643
Paris	-12644
▁Bois	-12645
▁Guil	-12646
▁alph	-12647
▁gard	-12648
Benoit	-12649
chéité	-12650
iement	-12651
▁2016,	-12652
▁Celle	-12653
▁buses	-12654
▁clois	-12655
▁digit	-12656
verbaux	-12657
▁Armand	-12658
▁Réseau	-12659
▁saisit	-12660
aéroport	-12661
▁adapter	-12662
▁annulés	-12663
▁mesurée	-12664
▁proclam	-12665
▁réalité	-12666
▁émanant	-12667
colonelle	-12668
emballage	-12669
organiser	-12670
▁Grégoire	-12671
▁SÉCURITÉ	-12672
▁biomasse	-12673
▁mélanges	-12674
▁recharge	-12675
▁adhérents	-12676
▁assemblée	-12677
▁mécanisme	-12678
▁navigants	-12679
▁prétendre	-12680
▁Magistrate	-12681
▁Traitement	-12682
▁alternance	-12683
▁importantes	-12684
▁Notification	-12685
▁inflammables	-12686
▁fonctionnelles	-12687
▁simplification	-12688
▁multinationales	-12689
-8	-12690
ga	-12691
32,	-12692
ADI	-12693
ZER	-12694
ork	-12695
▁JO	-12696
Maur	-12697
avre	-12698
dine	-12699
ular	-12700
▁"27	-12701
▁"45	-12702
▁244	-12703
▁311	-12704
▁BRO	-12705
▁Gou	-12706
▁MAS	-12707
▁NAV	-12708
▁web	-12709
▁€."	-12710
ophes	-12711
uséum	-12712
viane	-12713
▁"(1)	-12714
▁2.6.	-12715
▁JEAN	-12716
▁PERS	-12717
Samuel	-12718
ilatér	-12719
usager	-12720
ysique	-12721
▁Assez	-12722
▁CONSE	-12723
▁Secré	-12724
▁quart	-12725
oniques	-12726
▁GOUVER	-12727
▁Sandra	-12728
▁argent	-12729
▁détenu	-12730
▁gauche	-12731
▁neurop	-12732
▁soumet	-12733
▁ultime	-12734
▁émises	-12735
ducteurs	-12736
immeuble	-12737
▁162-22-	-12738
▁EMPLOIS	-12739
▁confort	-12740
▁différé	-12741
▁docteur	-12742
▁imposée	-12743
▁validée	-12744
tificatif	-12745
▁Thibault	-12746
▁exigible	-12747
▁panneaux	-12748
excellence	-12749
▁Corrosion	-12750
▁bancaires	-12751
▁certifiée	-12752
▁parallèle	-12753
▁suspendue	-12754
alification	-12755
▁diminution	-12756
▁relogement	-12757
▁réglementé	-12758
▁Compétences	-12759
▁enregistrée	-12760
▁législative	-12761
▁sollicitent	-12762
▁coproduction	-12763
▁hydrauliques	-12764
▁signalements	-12765
▁correspondances	-12766
PD	-12767
PI	-12768
SM	-12769
pé	-12770
5-9	-12771
Eva	-12772
IAH	-12773
Ils	-12774
Lou	-12775
UEL	-12776
inh	-12777
sis	-12778
▁93	-12779
▁GI	-12780
▁HE	-12781
▁om	-12782
Agri	-12783
Alex	-12784
RAEP	-12785
amer	-12786
cons	-12787
elin	-12788
trie	-12789
▁225	-12790
▁302	-12791
▁6°,	-12792
▁Amb	-12793
▁BRE	-12794
▁CHA	-12795
▁Eng	-12796
▁LIC	-12797
ILLOT	-12798
Micha	-12799
ignan	-12800
▁1973	-12801
▁1999	-12802
▁5.1.	-12803
▁Joce	-12804
▁MATH	-12805
▁Rémy	-12806
▁SSSI	-12807
▁casi	-12808
▁conj	-12809
▁flui	-12810
▁hôte	-12811
▁irré	-12812
▁soud	-12813
hommes	-12814
orment	-12815
reinte	-12816
▁Prise	-12817
▁Règle	-12818
▁colis	-12819
▁glace	-12820
amiante	-12821
terriss	-12822
▁APPLIC	-12823
▁Muséum	-12824
▁courte	-12825
▁cultur	-12826
▁unions	-12827
oportion	-12828
▁appelés	-12829
▁classée	-12830
onnements	-12831
élération	-12832
▁NATIONAL	-12833
▁Secteurs	-12834
▁assurées	-12835
▁détachés	-12836
▁intranet	-12837
▁mensuels	-12838
▁porteurs	-12839
▁ÉPREUVES	-12840
expéditeur	-12841
▁chapitres	-12842
▁considère	-12843
▁différent	-12844
▁démarrage	-12845
Considérant	-12846
composantes	-12847
▁entretiens	-12848
▁mobilisées	-12849
▁prudentiel	-12850
aménagements	-12851
▁consultable	-12852
▁lieutenante	-12853
▁perspective	-12854
▁augmentation	-12855
▁constitutifs	-12856
▁résidentiels	-12857
▁mutualisation	-12858
▁questionnaire	-12859
▁indépendamment	-12860
FD	-12861
FO	-12862
Fi	-12863
Fl	-12864
fa	-12865
ILS	-12866
▁94	-12867
▁AV	-12868
▁BR	-12869
▁NM	-12870
▁ov	-12871
avie	-12872
erne	-12873
iens	-12874
▁"21	-12875
▁643	-12876
▁BIO	-12877
▁CMA	-12878
▁VIH	-12879
▁gym	-12880
dette	-12881
lette	-12882
mbles	-12883
vingt	-12884
▁1997	-12885
▁GEND	-12886
▁dist	-12887
▁faut	-12888
▁révé	-12889
Sylvie	-12890
iseaux	-12891
▁(1)."	-12892
▁Alger	-12893
▁bordé	-12894
▁jeune	-12895
▁socle	-12896
Georges	-12897
ITATION	-12898
gélique	-12899
▁Maison	-12900
▁confis	-12901
▁excède	-12902
tanislas	-12903
▁Membres	-12904
▁SPÉCIFI	-12905
▁décrite	-12906
▁reclass	-12907
Titulaire	-12908
ouchement	-12909
▁Marcelle	-12910
▁Séverine	-12911
▁accepter	-12912
▁pondérée	-12913
▁raccordé	-12914
▁requiert	-12915
▁Formation	-12916
▁Organiser	-12917
▁associant	-12918
▁interlocu	-12919
▁intégrant	-12920
▁polluants	-12921
indications	-12922
▁approuvant	-12923
▁expertises	-12924
▁modulation	-12925
▁pathologie	-12926
▁transférés	-12927
▁criminalité	-12928
amortissement	-12929
▁fonctionnels	-12930
▁infectieuses	-12931
▁référendaire	-12932
▁dématérialisé	-12933
▁pathologiques	-12934
MY	-12935
ua	-12936
yr	-12937
0-3	-12938
017	-12939
Lor	-12940
ONG	-12941
OST	-12942
arr	-12943
ave	-12944
bou	-12945
oui	-12946
▁GH	-12947
▁RI	-12948
..."	-12949
IAHP	-12950
TINE	-12951
ides	-12952
▁"26	-12953
▁18.	-12954
▁LAB	-12955
▁SAN	-12956
▁SIT	-12957
▁XII	-12958
arial	-12959
ental	-12960
lande	-12961
liste	-12962
▁Fili	-12963
▁nord	-12964
▁taci	-12965
animal	-12966
quette	-12967
▁321-2	-12968
▁Corne	-12969
▁domin	-12970
larisse	-12971
service	-12972
▁2011."	-12973
▁2023-9	-12974
▁allant	-12975
▁quator	-12976
▁rendez	-12977
▁routes	-12978
▁teneur	-12979
istiques	-12980
▁Culture	-12981
▁William	-12982
▁densité	-12983
▁renvoyé	-12984
▁échelle	-12985
entendent	-12986
▁161-17-2	-12987
▁541-10-1	-12988
▁collèges	-12989
▁déclarer	-12990
▁détenant	-12991
▁empêcher	-12992
▁mondiale	-12993
▁unilatér	-12994
emprunteur	-12995
▁Villeneuve	-12996
▁adéquation	-12997
▁opposition	-12998
optimisation	-12999
▁Préparation	-13000
▁GOUVERNEMENT	-13001
▁appréciation	-13002
▁débarquement	-13003
▁manufacturés	-13004
▁représentative	-13005
DG	-13006
Bri	-13007
CER	-13008
COU	-13009
Nom	-13010
▁(«	-13011
▁ry	-13012
5-1.	-13013
mpor	-13014
soit	-13015
▁"35	-13016
▁"72	-13017
▁"80	-13018
▁"82	-13019
▁17°	-13020
▁181	-13021
▁332	-13022
▁541	-13023
▁IMD	-13024
▁PRA	-13025
▁Sén	-13026
▁agr	-13027
▁pau	-13028
2-1-1	-13029
gique	-13030
oussi	-13031
ugène	-13032
▁file	-13033
▁subi	-13034
▁vend	-13035
Sèvres	-13036
divine	-13037
jaccio	-13038
meline	-13039
ossier	-13040
tantes	-13041
échets	-13042
▁133-1	-13043
▁251-1	-13044
▁421-2	-13045
▁613-1	-13046
▁Selon	-13047
▁macro	-13048
▁réels	-13049
▁venir	-13050
Bastien	-13051
Estelle	-13052
agricul	-13053
ligence	-13054
▁cibles	-13055
▁suivis	-13056
Sandrine	-13057
approche	-13058
insuffis	-13059
▁avaient	-13060
▁onéreux	-13061
▁remarqu	-13062
▁Logement	-13063
▁Mireille	-13064
▁masseurs	-13065
▁référenc	-13066
▁Allemagne	-13067
▁accrédité	-13068
▁contradic	-13069
▁fortement	-13070
▁greffiers	-13071
▁portuaire	-13072
▁terrestre	-13073
▁efficacité	-13074
▁ingénierie	-13075
▁provenance	-13076
▁survenance	-13077
Dispositions	-13078
interruption	-13079
▁ferroviaires	-13080
▁regroupement	-13081
▁habilitations	-13082
▁psychologique	-13083
DOU	-13084
Jos	-13085
Léo	-13086
ary	-13087
mir	-13088
rah	-13089
▁Ay	-13090
▁BC	-13091
▁BI	-13092
▁CF	-13093
▁Im	-13094
....	-13095
2-15	-13096
Form	-13097
chée	-13098
lais	-13099
▁"85	-13100
▁"92	-13101
▁126	-13102
▁623	-13103
▁Gis	-13104
▁Mam	-13105
▁PAS	-13106
▁PDF	-13107
▁RID	-13108
▁âgé	-13109
COURT	-13110
phone	-13111
quies	-13112
▁84-8	-13113
▁Gasc	-13114
▁PASS	-13115
▁choc	-13116
▁dons	-13117
classe	-13118
endeur	-13119
▁174-1	-13120
▁2020,	-13121
▁Analy	-13122
▁GRAND	-13123
▁blanc	-13124
▁clair	-13125
▁neutr	-13126
William	-13127
conseil	-13128
ogramme	-13129
ordogne	-13130
▁CNPMEM	-13131
▁adopté	-13132
▁avoirs	-13133
▁causés	-13134
▁malgré	-13135
▁DISPOSI	-13136
▁Danièle	-13137
▁soussig	-13138
▁Yvelines	-13139
▁directes	-13140
▁débiteur	-13141
▁enchères	-13142
▁indiquer	-13143
▁lucratif	-13144
▁Compagnie	-13145
▁attestées	-13146
▁commerces	-13147
▁contempor	-13148
▁désignent	-13149
▁policiers	-13150
▁satisfont	-13151
▁Identifier	-13152
▁impliquant	-13153
▁automobiles	-13154
▁délégations	-13155
▁propagation	-13156
▁échantillon	-13157
▁anniversaire	-13158
▁cartographie	-13159
▁hiérarchiques	-13160
▁contreviennent	-13161
▁déontologiques	-13162
▁préinscription	-13163
mo	-13164
32)	-13165
ALI	-13166
Bel	-13167
Mag	-13168
cus	-13169
▁97	-13170
▁Ke	-13171
2-22	-13172
INES	-13173
▁INS	-13174
▁Pie	-13175
▁SAU	-13176
onoré	-13177
véite	-13178
▁1963	-13179
▁236-	-13180
▁CONS	-13181
▁pilo	-13182
▁rech	-13183
▁sour	-13184
▁sure	-13185
asmine	-13186
ourner	-13187
tifier	-13188
▁Coord	-13189
▁Fuite	-13190
▁MARCH	-13191
▁absol	-13192
▁formé	-13193
▁immer	-13194
▁texti	-13195
affaire	-13196
ossible	-13197
▁2020).	-13198
▁ciblée	-13199
▁harmon	-13200
▁litres	-13201
alimumab	-13202
▁Evelyne	-13203
▁atelier	-13204
▁joindre	-13205
▁proches	-13206
▁réunies	-13207
▁solides	-13208
Président	-13209
nellement	-13210
suppléant	-13211
▁Gascogne	-13212
▁Laetitia	-13213
▁argument	-13214
▁augmenté	-13215
▁football	-13216
▁implanté	-13217
▁seraient	-13218
annulation	-13219
formatique	-13220
▁batteries	-13221
▁librement	-13222
▁quinquies	-13223
appartenant	-13224
▁analytique	-13225
▁nominative	-13226
▁Financement	-13227
organisations	-13228
▁préparations	-13229
▁individualisé	-13230
▁susmentionnés	-13231
▁téléchargement	-13232
411	-13233
FOR	-13234
PAP	-13235
POL	-13236
ROL	-13237
lès	-13238
▁OL	-13239
▁PÉ	-13240
2-4,	-13241
nale	-13242
tial	-13243
unes	-13244
▁"7.	-13245
▁ACC	-13246
▁Aim	-13247
▁Pic	-13248
▁gel	-13249
RIEUR	-13250
hélic	-13251
oxyde	-13252
▁"(2)	-13253
▁2028	-13254
▁Chal	-13255
▁Lond	-13256
▁Voie	-13257
▁quai	-13258
oisson	-13259
énégal	-13260
▁121-1	-13261
▁311-2	-13262
▁SIMON	-13263
▁autoc	-13264
▁chimi	-13265
▁massi	-13266
▁rugby	-13267
Thibaut	-13268
emprise	-13269
▁finals	-13270
▁fuites	-13271
▁livres	-13272
▁traité	-13273
analyses	-13274
▁DOSSIER	-13275
▁Margaux	-13276
▁remises	-13277
▁épidémi	-13278
▁calculer	-13279
Orientales	-13280
▁Programme	-13281
▁Référence	-13282
▁dispenser	-13283
▁incidents	-13284
▁monuments	-13285
ordonnateur	-13286
▁Complément	-13287
▁Représenté	-13288
▁Situations	-13289
▁programmée	-13290
▁représenté	-13291
▁restreinte	-13292
▁ultérieure	-13293
insuffisance	-13294
▁approvision	-13295
▁faisabilité	-13296
▁inspections	-13297
▁hospitalières	-13298
▁indemnitaires	-13299
Gw	-13300
UG	-13301
ZA	-13302
pi	-13303
CAS	-13304
SCH	-13305
ANAH	-13306
Cour	-13307
OMAS	-13308
ical	-13309
▁"61	-13310
▁"75	-13311
▁112	-13312
▁117	-13313
▁800	-13314
▁86-	-13315
▁JAN	-13316
▁LEB	-13317
▁OUI	-13318
▁SCP	-13319
▁div	-13320
GFGAS	-13321
alier	-13322
lisme	-13323
▁feux	-13324
▁paix	-13325
▁tend	-13326
▁État	-13327
EXAMEN	-13328
angers	-13329
onglet	-13330
ÉCONOM	-13331
▁113-2	-13332
▁froid	-13333
Tristan	-13334
appuyer	-13335
examens	-13336
éthique	-13337
▁Electr	-13338
▁Saclay	-13339
▁concep	-13340
▁invali	-13341
▁outill	-13342
▁séparé	-13343
▁visent	-13344
appropri	-13345
exercent	-13346
réhender	-13347
▁Mention	-13348
▁Mission	-13349
▁détenue	-13350
▁marques	-13351
émination	-13352
▁Développ	-13353
▁Sécurité	-13354
▁acquérir	-13355
▁auraient	-13356
▁convoqué	-13357
▁dispensé	-13358
▁gazières	-13359
▁meilleur	-13360
▁nautique	-13361
▁notifier	-13362
▁cytologie	-13363
▁précitées	-13364
▁recueilli	-13365
▁renforcée	-13366
▁dégagement	-13367
▁favorisant	-13368
▁journalier	-13369
▁messagerie	-13370
▁plastiques	-13371
▁profondeur	-13372
▁régularité	-13373
▁accueillant	-13374
▁compétition	-13375
▁enregistrés	-13376
▁entièrement	-13377
▁télétravail	-13378
intéressement	-13379
emprisonnement	-13380
▁substantielle	-13381
authentification	-13382
87	-13383
Gr	-13384
AVE	-13385
MOU	-13386
son	-13387
▁Gw	-13388
▁OR	-13389
▁cu	-13390
▁va	-13391
3-15	-13392
ICES	-13393
ILLY	-13394
ajus	-13395
amel	-13396
arbi	-13397
atou	-13398
cipi	-13399
ilan	-13400
orph	-13401
▁"31	-13402
▁"55	-13403
▁CAT	-13404
▁DUF	-13405
▁IMP	-13406
▁POP	-13407
Hauts	-13408
prêté	-13409
texte	-13410
tisme	-13411
▁frig	-13412
▁cogni	-13413
▁gamme	-13414
▁DURAND	-13415
▁MICHEL	-13416
▁Marthe	-13417
▁SGFGAS	-13418
▁mérite	-13419
▁opport	-13420
ppléants	-13421
▁COMMISS	-13422
▁Système	-13423
▁ajouter	-13424
▁experte	-13425
▁remplie	-13426
Valentine	-13427
apprenant	-13428
inflation	-13429
éclairage	-13430
▁Académie	-13431
▁calculés	-13432
inissement	-13433
otechnique	-13434
économique	-13435
▁campagnes	-13436
▁combinées	-13437
▁exploités	-13438
▁injection	-13439
▁Atlantique	-13440
▁essentiels	-13441
▁incidences	-13442
▁quindecies	-13443
introduction	-13444
▁définitions	-13445
▁acquisitions	-13446
▁reclassement	-13447
▁communautaire	-13448
▁contreparties	-13449
▁généralisation	-13450
▁investissement	-13451
HO	-13452
OB	-13453
PV	-13454
QR	-13455
-4.	-13456
322	-13457
5-7	-13458
hon	-13459
rez	-13460
rop	-13461
▁ON	-13462
.)."	-13463
ABIL	-13464
reur	-13465
sifs	-13466
▁"41	-13467
▁DEM	-13468
▁DEN	-13469
▁Dor	-13470
▁San	-13471
▁typ	-13472
ISSON	-13473
Micka	-13474
anguy	-13475
aston	-13476
ichet	-13477
onium	-13478
utive	-13479
▁"11°	-13480
▁Elie	-13481
▁IMDG	-13482
▁Pres	-13483
Robert	-13484
cherie	-13485
fiants	-13486
frique	-13487
urants	-13488
▁2021.	-13489
▁2028.	-13490
▁236-2	-13491
▁MODAL	-13492
▁Point	-13493
▁coron	-13494
▁notée	-13495
antenne	-13496
tinence	-13497
établit	-13498
▁2018."	-13499
▁6527-2	-13500
▁85-986	-13501
▁Landes	-13502
▁Savoie	-13503
▁lutter	-13504
▁légion	-13505
▁pistes	-13506
▁récidi	-13507
exprimer	-13508
▁CONTRAT	-13509
▁croquis	-13510
▁cumulée	-13511
▁potable	-13512
▁retirée	-13513
traitance	-13514
ÉCONOMIES	-13515
▁complexe	-13516
assistants	-13517
efficience	-13518
paragraphe	-13519
techniques	-13520
▁problèmes	-13521
▁pédagogie	-13522
▁routières	-13523
▁végétales	-13524
identifiant	-13525
▁chirurgien	-13526
▁contraires	-13527
▁pleinement	-13528
▁préférence	-13529
▁thermiques	-13530
▁additionnel	-13531
▁commerciaux	-13532
▁dérogatoire	-13533
▁modulations	-13534
▁transfusion	-13535
▁amélioration	-13536
▁chancellerie	-13537
▁personnalisée	-13538
ho	-13539
ms	-13540
33,	-13541
AIN	-13542
DAL	-13543
ITS	-13544
bus	-13545
fil	-13546
ovi	-13547
rel	-13548
réf	-13549
▁84	-13550
▁CU	-13551
▁MS	-13552
▁Ra	-13553
4-1.	-13554
BOUR	-13555
Oran	-13556
QUIS	-13557
VANT	-13558
elot	-13559
neau	-13560
olat	-13561
poli	-13562
énar	-13563
▁"36	-13564
▁Ker	-13565
▁LEG	-13566
▁LOI	-13567
▁OSS	-13568
▁SOL	-13569
▁Tal	-13570
▁tap	-13571
Premi	-13572
annes	-13573
apage	-13574
dgfip	-13575
giens	-13576
échec	-13577
▁1970	-13578
▁1975	-13579
▁225-	-13580
▁dits	-13581
▁fuel	-13582
▁murs	-13583
▁quan	-13584
attest	-13585
▁Cergy	-13586
▁Tarif	-13587
aissent	-13588
espèces	-13589
tribuer	-13590
▁2014-1	-13591
▁6323-1	-13592
▁84-810	-13593
▁Barbet	-13594
▁Italie	-13595
▁concub	-13596
▁conven	-13597
▁marche	-13598
lication	-13599
ularités	-13600
▁Communi	-13601
▁admises	-13602
ORMATIONS	-13603
appareils	-13604
appendice	-13605
chauffage	-13606
▁adoptées	-13607
▁exécuter	-13608
▁vivantes	-13609
▁exploiter	-13610
▁précisent	-13611
▁rémunérés	-13612
▁sollicité	-13613
▁supporter	-13614
▁Lieutenant	-13615
▁Médicament	-13616
▁acoustique	-13617
▁consulaire	-13618
▁instituées	-13619
▁réserviste	-13620
▁artisanales	-13621
▁climatiques	-13622
▁réglementée	-13623
▁alimentation	-13624
▁représentent	-13625
▁canalisations	-13626
▁certificateurs	-13627
▁démissionnaire	-13628
▁radicalisation	-13629
▁proportionnelle	-13630
▁vidéoprotection	-13631
BC	-13632
104	-13633
DON	-13634
IGP	-13635
Rép	-13636
ita	-13637
six	-13638
sol	-13639
▁FO	-13640
ANDE	-13641
ISON	-13642
amon	-13643
cour	-13644
inal	-13645
umul	-13646
▁"51	-13647
▁(4)	-13648
▁613	-13649
▁GRE	-13650
▁Mai	-13651
▁ill	-13652
▁the	-13653
arbes	-13654
opage	-13655
tabil	-13656
érage	-13657
▁1968	-13658
▁4.3.	-13659
▁Corb	-13660
▁Ense	-13661
▁Navi	-13662
▁Pati	-13663
▁clés	-13664
▁nous	-13665
Solène	-13666
cision	-13667
scénar	-13668
tibles	-13669
▁163-2	-13670
▁411-1	-13671
▁Chois	-13672
▁Châte	-13673
▁Havre	-13674
▁Henry	-13675
▁Micha	-13676
▁Musée	-13677
▁Résid	-13678
▁SPORT	-13679
▁Types	-13680
▁confr	-13681
▁ratio	-13682
Adresse	-13683
atelier	-13684
gration	-13685
▁Eugène	-13686
▁MINIST	-13687
▁Odette	-13688
▁formés	-13689
▁publie	-13690
▁quotas	-13691
▁stable	-13692
▁voirie	-13693
▁NOTAIRE	-13694
▁Pendant	-13695
▁caméras	-13696
▁détails	-13697
▁impacts	-13698
▁oiseaux	-13699
▁simples	-13700
armaceuti	-13701
immeubles	-13702
▁Amandine	-13703
▁Chambéry	-13704
▁Notarial	-13705
▁Vaucluse	-13706
▁filiales	-13707
▁protégés	-13708
▁provoque	-13709
▁tracteur	-13710
▁agréments	-13711
▁compenser	-13712
▁continuer	-13713
▁développe	-13714
▁interdits	-13715
▁spatiales	-13716
▁supprimer	-13717
▁avancement	-13718
▁chercheurs	-13719
▁envisagées	-13720
▁exhaustive	-13721
▁hématologie	-13722
▁intéressées	-13723
▁motivations	-13724
▁titularisés	-13725
autorisations	-13726
▁parachutiste	-13727
▁cybersécurité	-13728
▁parlementaire	-13729
▁qualificative	-13730
échantillonnage	-13731
▁interprétation	-13732
▁caractérisation	-13733
wa	-13734
-11	-13735
-2-	-13736
ONI	-13737
ROY	-13738
SON	-13739
TAM	-13740
Var	-13741
déc	-13742
ouz	-13743
raf	-13744
èze	-13745
0000	-13746
6.1.	-13747
Alix	-13748
Anna	-13749
Bloc	-13750
INET	-13751
TEUR	-13752
agon	-13753
dans	-13754
orté	-13755
▁"46	-13756
▁DER	-13757
▁Leb	-13758
▁gab	-13759
Inter	-13760
moins	-13761
▁Club	-13762
▁EURO	-13763
▁GALL	-13764
▁GROU	-13765
▁onze	-13766
Océane	-13767
altern	-13768
▁111-2	-13769
▁2027,	-13770
▁421-1	-13771
▁612-3	-13772
▁Maine	-13773
▁Robin	-13774
▁futur	-13775
▁repas	-13776
UBLIQUE	-13777
accéder	-13778
atation	-13779
▁233-28	-13780
▁Gaston	-13781
▁Magali	-13782
▁Rousse	-13783
▁chemin	-13784
▁dotées	-13785
▁estimé	-13786
▁méconn	-13787
▁récipi	-13788
péfiants	-13789
▁Château	-13790
▁Domaine	-13791
▁Solange	-13792
▁confiés	-13793
▁décrits	-13794
▁inutile	-13795
▁rinçage	-13796
▁signées	-13797
▁tuteurs	-13798
aventions	-13799
▁Analyser	-13800
▁________	-13801
▁anatomie	-13802
▁extraits	-13803
▁Candidats	-13804
▁Joséphine	-13805
▁appréciée	-13806
▁ordinaire	-13807
▁prérequis	-13808
▁raccordés	-13809
▁rapidement	-13810
accélération	-13811
▁photographie	-13812
▁présélection	-13813
▁configuration	-13814
▁distributeurs	-13815
▁manifestations	-13816
▁recommandation	-13817
hn	-13818
je	-13819
sp	-13820
.),	-13821
053	-13822
CIA	-13823
EPS	-13824
LAY	-13825
LEN	-13826
Pas	-13827
SSA	-13828
cor	-13829
ley	-13830
onz	-13831
▁Hy	-13832
▁MM	-13833
▁py	-13834
2-1.	-13835
Laye	-13836
RENT	-13837
RITO	-13838
argu	-13839
enni	-13840
suit	-13841
éléc	-13842
▁"67	-13843
▁"71	-13844
▁"91	-13845
▁(0,	-13846
▁18°	-13847
▁24,	-13848
▁331	-13849
▁719	-13850
▁New	-13851
▁PEN	-13852
▁Sui	-13853
▁VIN	-13854
▁méd	-13855
Champ	-13856
MERIE	-13857
amili	-13858
isson	-13859
lissa	-13860
mment	-13861
▁1.5.	-13862
▁1995	-13863
▁5.3.	-13864
▁CHAP	-13865
▁EXIG	-13866
▁axes	-13867
▁voit	-13868
Vienne	-13869
▁513-1	-13870
▁Poste	-13871
▁hyper	-13872
▁notre	-13873
▁seize	-13874
acompte	-13875
▁2.3.2.	-13876
▁Gisèle	-13877
▁ballon	-13878
▁légiti	-13879
chambres	-13880
division	-13881
nagement	-13882
▁Industr	-13883
▁Londres	-13884
▁décrire	-13885
▁émettre	-13886
▁étendus	-13887
affichage	-13888
empreinte	-13889
▁Mulhouse	-13890
▁poursuit	-13891
▁problème	-13892
▁Corneille	-13893
▁adjudante	-13894
▁entraîner	-13895
▁fiabilité	-13896
▁initiales	-13897
▁rétention	-13898
agriculteur	-13899
▁__________	-13900
▁auxiliaire	-13901
▁inférieurs	-13902
Observatoire	-13903
▁APPLICABLES	-13904
▁Obligations	-13905
▁transporter	-13906
actualisation	-13907
agglomération	-13908
▁motorisation	-13909
▁comportements	-13910
▁contamination	-13911
▁indispensable	-13912
▁signification	-13913
016	-13914
3."	-13915
COG	-13916
Rég	-13917
vey	-13918
▁Mu	-13919
33-2	-13920
ANNE	-13921
CIER	-13922
MARD	-13923
MBRE	-13924
arte	-13925
cool	-13926
ules	-13927
▁"57	-13928
▁"65	-13929
▁20°	-13930
▁755	-13931
▁Ard	-13932
▁Ari	-13933
▁Bru	-13934
▁FOU	-13935
▁GEN	-13936
▁Her	-13937
▁VAL	-13938
▁alé	-13939
▁azo	-13940
Jules	-13941
Selon	-13942
chage	-13943
monde	-13944
▁78-1	-13945
▁MONT	-13946
▁PRES	-13947
▁RESP	-13948
▁perd	-13949
▁visu	-13950
Cercle	-13951
ambule	-13952
asique	-13953
ocopie	-13954
▁2030,	-13955
▁323-1	-13956
▁Gains	-13957
▁Petit	-13958
▁Somme	-13959
▁cumac	-13960
▁Gouver	-13961
▁Tarbes	-13962
▁litige	-13963
▁ménage	-13964
Charente	-13965
ertaines	-13966
▁Auguste	-13967
▁Chacune	-13968
▁adoptée	-13969
▁bassins	-13970
▁connaît	-13971
▁encaiss	-13972
▁indices	-13973
▁sauvage	-13974
hypothèse	-13975
injection	-13976
▁discours	-13977
▁essences	-13978
▁exigence	-13979
▁sexuelle	-13980
▁carburant	-13981
▁confirmer	-13982
▁découvrir	-13983
▁hautement	-13984
▁proposant	-13985
▁utilisent	-13986
▁éducation	-13987
▁compagnies	-13988
▁conteneurs	-13989
▁enquêteurs	-13990
▁fondations	-13991
▁kilomètres	-13992
▁lisibilité	-13993
▁régisseurs	-13994
▁Communiquer	-13995
▁kilogrammes	-13996
▁métalliques	-13997
▁représentée	-13998
▁restriction	-13999
▁réglementés	-14000
▁transaction	-14001
▁interruption	-14002
▁manipulation	-14003
▁transversales	-14004
Ri	-14005
do	-14006
xy	-14007
ANA	-14008
ICI	-14009
LEX	-14010
abi	-14011
any	-14012
ars	-14013
ica	-14014
▁EF	-14015
▁Ha	-14016
▁Po	-14017
▁ly	-14018
3-3,	-14019
ELLI	-14020
NAUD	-14021
inat	-14022
incl	-14023
ting	-14024
▁110	-14025
▁422	-14026
▁Cro	-14027
▁GUY	-14028
▁Gen	-14029
▁HAU	-14030
▁MET	-14031
▁Six	-14032
▁Sub	-14033
Grand	-14034
armes	-14035
assad	-14036
icine	-14037
iffel	-14038
oquin	-14039
▁1977	-14040
▁212-	-14041
▁314-	-14042
▁Alex	-14043
▁Chap	-14044
▁aval	-14045
▁cœur	-14046
▁doté	-14047
▁péti	-14048
TEMENT	-14049
▁(75),	-14050
▁2026.	-14051
▁211-2	-14052
▁34009	-14053
▁dotée	-14054
▁dress	-14055
▁décom	-14056
▁enfin	-14057
▁nette	-14058
▁optim	-14059
▁terti	-14060
▁2141-1	-14061
▁3512-1	-14062
▁Commer	-14063
▁absorb	-14064
▁clause	-14065
▁dettes	-14066
▁gérant	-14067
▁jardin	-14068
▁zonale	-14069
abulaire	-14070
ajoutent	-14071
électeur	-14072
▁2023-10	-14073
▁ORGANIS	-14074
▁plateau	-14075
Assurance	-14076
assadrice	-14077
étudiants	-14078
▁Fontaine	-14079
▁fenêtres	-14080
▁propreté	-14081
▁régulier	-14082
▁dispenses	-14083
▁hébergées	-14084
▁incidence	-14085
▁ouvrables	-14086
▁prérempli	-14087
▁salariées	-14088
▁travaille	-14089
équilibrage	-14090
▁démolition	-14091
▁infirmière	-14092
▁neuropsych	-14093
▁poursuivra	-14094
▁tropicales	-14095
▁chirurgiens	-14096
▁pratiquants	-14097
▁pédiatrique	-14098
▁sollicitant	-14099
▁technicienne	-14100
▁équivalences	-14101
▁normalisation	-14102
▁compensatoires	-14103
▁contradictoire	-14104
▁susmentionnées	-14105
▁concessionnaire	-14106
Ap	-14107
LY	-14108
Bar	-14109
CAL	-14110
JET	-14111
LAH	-14112
Ser	-14113
afé	-14114
méa	-14115
odé	-14116
sia	-14117
▁CY	-14118
▁Sh	-14119
▁WE	-14120
1.1.	-14121
AISE	-14122
CLER	-14123
OLLE	-14124
iché	-14125
oche	-14126
phon	-14127
▁"37	-14128
▁"47	-14129
▁"8.	-14130
▁19,	-14131
▁Fil	-14132
▁Gue	-14133
▁Lan	-14134
▁REP	-14135
▁VFR	-14136
▁tun	-14137
▁ÉCO	-14138
Agnès	-14139
négro	-14140
veurs	-14141
▁Cela	-14142
▁Coût	-14143
▁Nguy	-14144
Hugues	-14145
Nathan	-14146
▁2017,	-14147
▁78-17	-14148
▁Indic	-14149
▁PETIT	-14150
▁bipol	-14151
▁bruit	-14152
▁conçu	-14153
▁covid	-14154
▁golfe	-14155
▁magas	-14156
▁puiss	-14157
▁votes	-14158
ARMERIE	-14159
illages	-14160
recrute	-14161
▁2021."	-14162
▁Colmar	-14163
▁biolog	-14164
▁conçus	-14165
▁fondée	-14166
▁livrés	-14167
armateur	-14168
atégorie	-14169
entraide	-14170
▁Période	-14171
▁dangers	-14172
▁feuille	-14173
▁négatif	-14174
▁occuper	-14175
▁occupés	-14176
▁pérenne	-14177
▁rhumato	-14178
chéologie	-14179
▁Boulogne	-14180
▁constant	-14181
Christelle	-14182
République	-14183
alternance	-14184
▁DIRECTION	-14185
▁Huissiers	-14186
▁complétés	-14187
▁dépassant	-14188
▁pertinent	-14189
▁réalisent	-14190
▁voisinage	-14191
▁allocation	-14192
▁mécanismes	-14193
▁GENDARMERIE	-14194
▁associative	-14195
▁positionnés	-14196
▁rééducation	-14197
▁nouvellement	-14198
▁sélectionnés	-14199
justicerecrute	-14200
▁pétitionnaire	-14201
infrastructures	-14202
▁contraventions	-14203
▁reconstruction	-14204
6"	-14205
9)	-14206
▁x	-14207
10.	-14208
321	-14209
7-3	-14210
AYE	-14211
ILI	-14212
Mad	-14213
nac	-14214
▁Sf	-14215
▁«.	-14216
3-10	-14217
ague	-14218
onan	-14219
otal	-14220
régl	-14221
sier	-14222
ucco	-14223
vets	-14224
zone	-14225
▁"56	-14226
▁314	-14227
▁462	-14228
▁MUL	-14229
▁Mah	-14230
▁RPN	-14231
▁SEP	-14232
▁pli	-14233
▁sty	-14234
▁tol	-14235
▁vir	-14236
Maroc	-14237
Yonne	-14238
aitre	-14239
amine	-14240
chées	-14241
latér	-14242
ortic	-14243
rendu	-14244
ylène	-14245
▁Rhin	-14246
▁legs	-14247
Aurore	-14248
essica	-14249
guille	-14250
licite	-14251
ophile	-14252
oproth	-14253
▁2006,	-14254
▁6152-	-14255
▁Guill	-14256
▁Lucas	-14257
▁Struc	-14258
▁verse	-14259
gestion	-14260
▁2016-1	-14261
▁6527-1	-14262
▁COMMUN	-14263
▁Nouméa	-14264
▁bandes	-14265
▁dirigé	-14266
▁minoré	-14267
▁ration	-14268
▁rythme	-14269
auration	-14270
omatique	-14271
▁chances	-14272
▁exclues	-14273
▁rentrée	-14274
▁requête	-14275
▁validés	-14276
▁viandes	-14277
oquinerie	-14278
signation	-14279
émissions	-14280
▁Conseill	-14281
▁durables	-14282
▁joignent	-14283
▁répartie	-14284
▁étendues	-14285
effacement	-14286
terrissage	-14287
▁Transport	-14288
▁phénomène	-14289
▁référente	-14290
▁supportés	-14291
▁accueillir	-14292
▁locataires	-14293
▁multilatér	-14294
▁photocopie	-14295
▁puissances	-14296
▁régisseuse	-14297
▁séparément	-14298
▁télépilote	-14299
▁variations	-14300
appartenance	-14301
▁INFORMATIONS	-14302
▁proclamation	-14303
accompagnateur	-14304
▁apprentissage	-14305
▁conservateurs	-14306
▁chimiothérapie	-14307
▁transformations	-14308
9"	-14309
AJ	-14310
FS	-14311
PP	-14312
40,	-14313
ADN	-14314
AFF	-14315
AIR	-14316
BOT	-14317
HAM	-14318
RAC	-14319
Tom	-14320
cop	-14321
onf	-14322
▁RU	-14323
▁VE	-14324
▁to	-14325
5.2.	-14326
6-1.	-14327
Barb	-14328
ISÉE	-14329
acqu	-14330
trid	-14331
uler	-14332
▁"81	-14333
▁1."	-14334
▁15-	-14335
▁17,	-14336
▁2.1	-14337
▁21,	-14338
▁CRÉ	-14339
▁Cha	-14340
▁Duc	-14341
▁HEN	-14342
▁Lem	-14343
▁cab	-14344
▁rad	-14345
IVIER	-14346
hiver	-14347
oxane	-14348
viers	-14349
élais	-14350
▁MASS	-14351
▁SNIA	-14352
▁Sfax	-14353
▁Vice	-14354
▁Véri	-14355
▁carr	-14356
▁fret	-14357
▁subs	-14358
nexion	-14359
uction	-14360
▁521-1	-14361
▁Mouve	-14362
▁Paule	-14363
▁cosmé	-14364
▁débat	-14365
▁estim	-14366
▁human	-14367
▁lumin	-14368
▁océan	-14369
▁vitic	-14370
Maxence	-14371
Patrice	-14372
arition	-14373
arrêtés	-14374
atmosph	-14375
ennifer	-14376
session	-14377
▁321-12	-14378
▁Margot	-14379
▁actuel	-14380
▁contex	-14381
▁démant	-14382
▁escale	-14383
huissier	-14384
▁2023-11	-14385
▁Choisir	-14386
▁Germain	-14387
▁denrées	-14388
▁infecti	-14389
▁lisible	-14390
▁preuves	-14391
▁silence	-14392
▁Systèmes	-14393
▁anglaise	-14394
▁arrêtées	-14395
▁informée	-14396
▁malveill	-14397
▁visuelle	-14398
tributions	-14399
▁Personnes	-14400
▁concerner	-14401
▁médiateur	-14402
▁Monténégro	-14403
▁RÉPUBLIQUE	-14404
▁assemblées	-14405
▁complétant	-14406
▁criminelle	-14407
▁impossible	-14408
▁provisions	-14409
▁traduction	-14410
▁transférée	-14411
▁Définitions	-14412
▁contiennent	-14413
▁interconnec	-14414
▁majoritaire	-14415
▁orientation	-14416
▁surveillant	-14417
▁vocabulaire	-14418
▁républicaine	-14419
▁éliminatoire	-14420
▁Conservatoire	-14421
▁labellisation	-14422
▁investigations	-14423
ck	-14424
of	-14425
2."	-14426
DEN	-14427
ery	-14428
ida	-14429
ilh	-14430
lat	-14431
oua	-14432
▁Da	-14433
8-12	-14434
Aube	-14435
abri	-14436
anée	-14437
berg	-14438
hmed	-14439
inet	-14440
intr	-14441
▁423	-14442
▁BAT	-14443
▁Bob	-14444
▁LAN	-14445
▁Rab	-14446
▁Vit	-14447
▁fic	-14448
ILLES	-14449
INEAU	-14450
ièvre	-14451
ument	-14452
âtiss	-14453
▁Cass	-14454
ATIONS	-14455
duites	-14456
gorith	-14457
niveau	-14458
▁411-2	-14459
▁Félix	-14460
▁Jacky	-14461
▁flott	-14462
▁rénov	-14463
▁rétro	-14464
.1.1.2.	-14465
ativité	-14466
isement	-14467
▁Concer	-14468
▁Eliane	-14469
▁Indien	-14470
▁carrés	-14471
▁cédant	-14472
▁flotte	-14473
▁maires	-14474
▁pierre	-14475
▁plages	-14476
abétique	-14477
sections	-14478
veloppes	-14479
▁2019)."	-14480
▁Bourges	-14481
▁Emplois	-14482
▁OUVRANT	-14483
▁RELATIF	-14484
▁courses	-14485
▁jointes	-14486
▁mesurer	-14487
▁onzième	-14488
▁relever	-14489
▁reprend	-14490
▁séparée	-14491
▁équilib	-14492
amiliales	-14493
▁MENTIONN	-14494
▁National	-14495
▁apparaît	-14496
▁apportée	-14497
▁embryons	-14498
▁matériau	-14499
▁notifiés	-14500
▁prochain	-14501
▁scission	-14502
▁télésoin	-14503
▁Réglement	-14504
▁insertion	-14505
▁pénalités	-14506
▁reclassés	-14507
▁suffrages	-14508
▁vérifiées	-14509
▁confirmant	-14510
▁centralisée	-14511
▁rayonnement	-14512
▁contournement	-14513
▁démantèlement	-14514
▁démographiques	-14515
BP	-14516
Ed	-14517
OA	-14518
ZY	-14519
ju	-14520
02,	-14521
50,	-14522
Dès	-14523
[...]
