<unk>	0
<s>	0
</s>	0
▁de	-3.02494
'	-3.22849
,	-3.42373
▁l	-3.82435
▁du	-3.854
▁la	-3.87628
.	-4.06005
▁et	-4.13931
▁des	-4.14771
▁	-4.2393
▁à	-4.24033
▁d	-4.28535
▁"	-4.4365
▁les	-4.49167
s	-4.51562
▁le	-4.60417
-	-4.6978
▁au	-4.75441
▁(	-4.82845
▁en	-4.84686
."	-4.8644
▁:	-5.05154
▁est	-5.06347
▁par	-5.06559
/	-5.18206
▁«	-5.33659
article	-5.34019
▁ou	-5.34257
—	-5.37035
)	-5.38377
▁L	-5.44236
▁dans	-5.45608
▁pour	-5.60605
▁»	-5.61321
▁;	-5.63998
▁sont	-5.70497
▁aux	-5.7359
▁2021	-5.83838
▁un	-5.89913
),	-5.90396
▁;"	-5.91994
▁Le	-5.97305
▁sur	-5.9742
A	-6.11964
e	-6.1459
un	-6.15822
▁1	-6.16683
▁arrêté	-6.19451
▁M	-6.20568
▁une	-6.20586
▁présent	-6.20626
er	-6.26144
▁Les	-6.29768
°	-6.30841
▁code	-6.31001
▁ministre	-6.32625
▁qui	-6.34998
une	-6.37896
▁Mme	-6.38723
▁"«	-6.39005
▁R	-6.39702
▁ainsi	-6.422
▁mots	-6.43139
▁date	-6.43291
▁que	-6.49404
▁n	-6.49408
▁fr	-6.54111
lr	-6.5529
▁La	-6.58362
)."	-6.58419
▁alinéa	-6.60317
▁A	-6.60595
▁services	-6.60789
M	-6.63142
▁:"	-6.64381
"	-6.70885
▁décret	-6.72615
▁portant	-6.73018
▁dispositions	-6.73325
▁être	-6.75675
arrete	-6.76771
▁titre	-6.7757
▁officiel	-6.82088
▁avec	-6.82196
▁I	-6.84289
▁française	-6.84499
▁Journal	-6.86772
▁conditions	-6.87915
▁ans	-6.89418
▁République	-6.90271
▁2	-6.91119
▁leur	-6.91299
▁ne	-6.93055
▁Arrêté	-6.93403
▁santé	-6.95624
▁cas	-6.98369
▁décembre	-6.98382
▁sera	-6.98746
▁concours	-6.98779
▁son	-6.99446
▁a	-7.00178
▁travail	-7.01746
▁D	-7.02756
▁pas	-7.03963
▁sous	-7.05947
▁service	-7.07277
▁nationale	-7.07988
S	-7.08075
▁ce	-7.10069
▁peut	-7.10728
▁II	-7.10999
▁2021,	-7.11099
▁Au	-7.11114
▁fixant	-7.11114
a	-7.11915
▁même	-7.12478
Mme	-7.12914
▁ses	-7.13078
D	-7.13718
▁2020	-7.14514
▁s	-7.14669
▁janvier	-7.16065
arrêté	-7.16069
▁générale	-7.16592
▁dont	-7.17835
Par	-7.18184
▁applicables	-7.18202
▁3	-7.19175
▁compter	-7.19254
▁1°	-7.19478
▁sécurité	-7.19772
C	-7.20007
▁général	-7.20737
administration	-7.21178
▁qu	-7.22057
▁Décret	-7.22124
▁publié	-7.22471
Le	-7.23041
▁formation	-7.24276
▁directeur	-7.24369
1	-7.24405
▁professionnelle	-7.24484
▁contre	-7.25808
▁2°	-7.2607
▁publique	-7.27541
▁4	-7.27576
de	-7.28464
Etat	-7.28495
▁juillet	-7.30369
▁chargé	-7.30968
es	-7.32256
▁articles	-7.32448
▁susvisé	-7.33083
▁demande	-7.33376
▁sa	-7.33384
).	-7.33453
2	-7.34244
▁mars	-7.35155
▁candidats	-7.35458
▁N	-7.35878
▁5	-7.36237
▁cette	-7.36439
▁modifié	-7.36878
▁société	-7.37475
▁premier	-7.37807
▁relatif	-7.38858
il	-7.39314
▁ces	-7.40037
▁liste	-7.40114
▁gestion	-7.40232
▁après	-7.40374
▁titulaire	-7.40754
▁durée	-7.41391
3	-7.41824
▁prévues	-7.43246
▁-	-7.43276
L	-7.44634
▁<	-7.44966
TABLE	-7.45161
>	-7.4537
6	-7.45564
▁février	-7.46662
▁juin	-7.46708
que	-7.46998
▁6	-7.47512
▁DE	-7.47686
▁octobre	-7.48087
▁novembre	-7.48426
r	-7.48535
▁plus	-7.49087
▁entre	-7.49486
▁application	-7.50195
▁septembre	-7.50485
▁convention	-7.51058
▁il	-7.51536
▁avril	-7.52014
ant	-7.52191
▁publics	-7.52226
▁notaire	-7.52506
▁C	-7.53668
▁mai	-7.54032
Les	-7.54295
▁suivantes	-7.54314
8	-7.54354
▁remplacés	-7.54583
▁Il	-7.55624
▁Art	-7.55643
étendue	-7.55857
▁qualité	-7.57685
▁servitudes	-7.57811
▁chef	-7.57832
4	-7.57896
T	-7.58334
7	-7.58593
▁candidat	-7.58737
▁compte	-7.59444
▁cadre	-7.59466
▁30	-7.60094
▁personnes	-7.60139
▁se	-7.60373
▁""	-7.60936
▁national	-7.6146
▁sociale	-7.62035
5	-7.62631
▁classe	-7.62882
▁8	-7.63764
▁public	-7.63977
▁Marie	-7.64532
9	-7.64679
▁mise	-7.657
▁auprès	-7.65782
▁justice	-7.65948
▁10	-7.66099
La	-7.66118
▁ministère	-7.66197
▁peuvent	-7.6622
▁Paris	-7.6628
▁électronique	-7.6674
▁dossier	-7.67345
▁mentionnés	-7.67416
▁août	-7.67422
application	-7.67561
▁zones	-7.6795
▁7	-7.68363
▁III	-7.68616
▁finances	-7.69007
▁mois	-7.69045
▁12	-7.69201
▁direction	-7.70337
▁nomination	-7.70449
c	-7.71078
l	-7.71416
▁CHU	-7.71548
▁31	-7.71559
▁modalités	-7.72106
année	-7.72508
▁épreuves	-7.72593
▁non	-7.72731
▁22	-7.72752
▁partir	-7.73055
▁centre	-7.73428
▁»,	-7.74031
▁p	-7.74082
▁15	-7.74117
▁fonction	-7.74247
▁président	-7.74746
0	-7.7488
▁3°	-7.7517
▁20	-7.75444
▁deux	-7.75915
▁délai	-7.7608
exécution	-7.76162
▁fonctions	-7.76244
▁9	-7.76978
n	-7.77697
▁moins	-7.77775
▁montant	-7.77904
▁conseil	-7.77993
▁16	-7.78648
▁B	-7.79263
inscription	-7.79278
et	-7.79347
B	-7.79979
▁mentionnées	-7.80148
▁station	-7.80324
▁13	-7.80332
▁tous	-7.80579
▁membres	-7.80774
▁civile	-7.81288
▁23	-7.82003
▁Pour	-7.82089
▁21	-7.82616
▁loi	-7.83596
▁professionnel	-7.83943
▁voisinage	-7.84481
▁médecine	-7.84532
▁ANFR	-7.84683
▁données	-7.85861
▁obstacles	-7.85883
▁remplacé	-7.85934
▁collective	-7.85958
é	-7.86593
établissement	-7.87664
▁recherche	-7.88924
▁17	-7.89059
b	-7.89223
au	-7.89407
▁cha	-7.89675
▁soit	-7.89935
▁doit	-7.90042
exercice	-7.90547
▁née	-7.90721
▁b	-7.90796
▁protection	-7.91363
▁leurs	-7.91427
▁tout	-7.91992
▁nombre	-7.92015
▁mentionné	-7.92484
I	-7.92539
▁11	-7.92646
▁charge	-7.92676
▁sein	-7.9315
▁référence	-7.93423
▁rédigé	-7.93996
▁article	-7.94267
▁résidence	-7.94972
▁14	-7.95329
▁droit	-7.95446
▁établissements	-7.95484
▁19	-7.95907
▁Conseil	-7.95979
▁deuxième	-7.96428
▁mentionnée	-7.96588
▁réserve	-7.9714
nt	-7.97141
économie	-7.97343
▁Saint	-7.97658
emploi	-7.97725
▁avant	-7.98435
enseignement	-7.99286
▁18	-7.99518
▁notamment	-7.99586
▁24	-7.99679
▁personne	-7.99696
en	-8.00019
▁%	-8.00628
▁Jean	-8.00831
annexe	-8.00983
▁conformément	-8.01111
▁période	-8.01691
▁contrôle	-8.0173
▁selon	-8.01867
▁V	-8.02006
ment	-8.02632
▁supérieur	-8.02658
d	-8.02736
▁corps	-8.02762
▁œuvre	-8.02892
▁25	-8.02896
▁France	-8.0336
▁situation	-8.03627
▁comme	-8.03882
est	-8.05206
▁voie	-8.0617
▁26	-8.06575
▁fin	-8.06926
▁accessible	-8.06931
▁cours	-8.07024
▁prévue	-8.07436
▁29	-8.07835
E	-8.08657
▁membre	-8.08811
▁texte	-8.08878
▁prise	-8.08943
▁limite	-8.09369
▁bureau	-8.09407
extrait	-8.09484
▁été	-8.09858
objet	-8.1022
▁partie	-8.10562
▁page	-8.11393
▁vigueur	-8.11703
▁échéant	-8.11769
▁bas	-8.11835
▁traitement	-8.1245
▁2022	-8.1263
▁consulter	-8.12768
▁S	-8.128
près	-8.12849
▁En	-8.12964
▁“	-8.12983
y	-8.1329
▁droits	-8.13442
▁agents	-8.13591
P	-8.13713
le	-8.14439
▁trois	-8.14927
accès	-8.14938
ci	-8.15132
▁c	-8.15164
▁IV	-8.1555
▁grade	-8.15803
▁ayant	-8.1582
intégralité	-8.15821
éducation	-8.15917
▁28	-8.16217
▁contrat	-8.16378
▁site	-8.17085
▁représentant	-8.17143
▁règlement	-8.17268
▁4°	-8.1754
▁lieu	-8.17704
▁images	-8.18029
▁garde	-8.18099
▁judiciaire	-8.18167
▁Vou	-8.18525
t	-8.18538
▁27	-8.18553
▁mot	-8.18592
▁2019	-8.18864
ouvez	-8.19257
▁authentifié	-8.19281
▁nom	-8.193
▁ci	-8.19445
▁relatives	-8.1948
▁heures	-8.19508
▁sans	-8.19943
▁entreprises	-8.20125
à	-8.20288
▁commission	-8.20325
▁zone	-8.20527
▁produits	-8.20971
épreuve	-8.20997
▁hors	-8.21398
JUS	-8.22071
▁chapitre	-8.22647
cret	-8.2324
▁si	-8.23475
▁décision	-8.23477
▁section	-8.24072
▁"1°	-8.24761
▁jury	-8.25549
▁P	-8.25613
▁collectivités	-8.25819
re	-8.26008
activité	-8.26215
▁fait	-8.26752
▁annexe	-8.26778
▁sceaux	-8.27042
▁"2°	-8.27228
accord	-8.27285
▁activités	-8.27294
fr	-8.27773
▁première	-8.2787
▁relance	-8.28414
▁chargés	-8.28802
autorité	-8.28818
▁niveau	-8.29136
▁jusqu	-8.29278
▁tard	-8.29388
▁suivant	-8.29565
▁faire	-8.29777
R	-8.2988
▁troisième	-8.302
▁responsabilité	-8.30366
▁travaux	-8.30468
admission	-8.31699
évaluation	-8.31891
information	-8.32226
▁toute	-8.32376
ensemble	-8.32766
▁recrutement	-8.32868
▁concerne	-8.32938
▁dernier	-8.3298
En	-8.33464
▁respect	-8.33739
▁jours	-8.33785
organisation	-8.3397
▁certificat	-8.34428
▁Elle	-8.34489
▁personnel	-8.34526
F	-8.34651
▁relevant	-8.34956
▁chacun	-8.34966
▁présente	-8.3501
▁doivent	-8.35034
épouse	-8.35234
▁Un	-8.35559
▁région	-8.3559
▁autre	-8.36266
▁marché	-8.36558
environnement	-8.36801
▁autres	-8.3706
▁directrice	-8.37222
▁techniques	-8.37447
▁publiques	-8.38025
▁LA	-8.38302
▁publication	-8.38327
▁parcours	-8.38776
▁modifiant	-8.38842
▁nature	-8.39035
o	-8.39356
▁mis	-8.40797
▁prévu	-8.41215
▁informations	-8.41947
▁ont	-8.42114
▁avis	-8.42293
▁également	-8.42299
▁actes	-8.42861
▁défense	-8.42877
▁lorsque	-8.42963
▁effet	-8.43022
H	-8.43117
▁projet	-8.43338
▁y	-8.43439
▁technique	-8.43445
ou	-8.4354
▁lors	-8.4359
▁médecin	-8.43895
▁nommé	-8.4413
▁né	-8.4435
▁mesures	-8.44818
▁nommée	-8.44841
▁médical	-8.44854
office	-8.44877
▁ANNEXE	-8.4488
in	-8.45402
▁comptes	-8.4563
UE	-8.46269
▁mission	-8.46445
▁compris	-8.46664
ent	-8.47167
▁suivante	-8.48305
▁ressources	-8.4837
▁compétences	-8.48428
▁documents	-8.48609
▁insérés	-8.48692
▁affaires	-8.48928
▁poste	-8.49441
▁territoriale	-8.49681
examen	-8.50058
▁phrase	-8.50334
i	-8.50418
▁armées	-8.50458
▁Dans	-8.50518
▁tableau	-8.50675
▁permettant	-8.5081
▁DU	-8.51411
▁prestations	-8.5175
▁fixée	-8.51849
▁postes	-8.51876
▁actions	-8.5237
▁comité	-8.5268
officiers	-8.52805
▁interne	-8.53167
▁fixé	-8.53275
LE	-8.5336
▁ligne	-8.53459
12	-8.53613
▁nécessaires	-8.53672
▁G	-8.53944
▁disposition	-8.54129
▁Confédération	-8.54378
▁organisations	-8.54571
aide	-8.54673
11	-8.54711
▁livre	-8.55189
nd	-8.55253
▁DES	-8.55328
▁pris	-8.55394
▁opérations	-8.55555
▁inséré	-8.55638
▁complété	-8.56125
▁ré	-8.56701
▁ministériels	-8.56727
▁suit	-8.56773
10	-8.5722
énergie	-8.57351
▁transport	-8.57481
▁tribunal	-8.57517
Arrêté	-8.57552
▁retraite	-8.57563
▁remplacée	-8.57644
Pour	-8.58089
▁procédure	-8.5851
▁jour	-8.58974
▁supprimés	-8.5902
▁accord	-8.59239
eau	-8.59404
▁plusieurs	-8.59631
V	-8.5967
▁suivants	-8.59726
▁chargée	-8.59971
▁département	-8.60006
▁F	-8.60181
▁5°	-8.60402
G	-8.60515
▁adjoint	-8.60629
▁territoire	-8.60968
▁réception	-8.61087
▁règles	-8.61105
▁administrative	-8.6145
▁associés	-8.61642
intérieur	-8.61698
▁fixées	-8.61993
▁prend	-8.62038
▁relative	-8.62215
adresse	-8.62286
▁développement	-8.62296
mi	-8.62678
▁définies	-8.6323
▁matière	-8.63333
▁professionnels	-8.63637
▁police	-8.63738
▁médicale	-8.63837
▁2017	-8.64325
la	-8.64965
▁susvisée	-8.65083
▁rapport	-8.65299
▁pièces	-8.65592
m	-8.65608
appel	-8.65626
N	-8.65936
ils	-8.65938
organisme	-8.66053
30	-8.66114
▁bis	-8.66278
Au	-8.66553
▁spécialité	-8.66643
▁pendant	-8.6687
▁spéciale	-8.66945
▁lui	-8.67229
▁représentants	-8.67327
▁salariés	-8.67558
entreprise	-8.68021
▁préfet	-8.68315
▁régionale	-8.6841
état	-8.69141
▁remplacement	-8.69231
▁place	-8.69256
▁internet	-8.69273
agriculture	-8.69385
-1	-8.69589
-2	-8.69616
▁champ	-8.69705
▁vice	-8.7061
Pierre	-8.70652
▁000	-8.70838
▁système	-8.70903
▁dispositif	-8.7115
LA	-8.71602
▁faisant	-8.71608
▁salariée	-8.72256
▁externe	-8.72295
13	-8.72319
▁T	-8.72353
exploitation	-8.72402
▁limitée	-8.72686
insertion	-8.7333
▁soins	-8.73343
▁Cett	-8.73448
▁Ce	-8.73482
▁six	-8.73501
assurance	-8.74318
▁inter	-8.74847
▁production	-8.74913
▁m	-8.75054
▁territoriales	-8.75184
▁Pierre	-8.75195
▁sens	-8.75444
▁temps	-8.75449
▁transition	-8.75537
▁humaines	-8.75568
▁part	-8.7557
▁cet	-8.7571
▁organismes	-8.75805
▁abrogé	-8.75895
21	-8.76462
Union	-8.76553
és	-8.77082
▁E	-8.77231
▁personnels	-8.77337
▁établi	-8.77403
▁représentatives	-8.77452
▁secrétaire	-8.77559
14	-8.77718
mer	-8.77861
▁européenne	-8.78217
▁o	-8.78242
ouverture	-8.78289
▁euros	-8.78449
autorisation	-8.78797
▁établissement	-8.79004
▁maladie	-8.79012
▁LE	-8.79051
▁prendre	-8.79094
ur	-8.79113
▁celles	-8.79146
▁éléments	-8.79198
▁social	-8.7927
les	-8.79337
▁risques	-8.79363
▁suivi	-8.79611
▁principal	-8.79831
▁responsable	-8.7992
utilisation	-8.79925
▁missions	-8.80079
▁délégué	-8.80319
on	-8.80417
▁transports	-8.80578
▁inscriptions	-8.8061
▁base	-8.80707
▁construction	-8.8119
▁modifiée	-8.81743
▁programme	-8.81763
▁alinéas	-8.82032
▁laquelle	-8.82316
▁décisions	-8.82414
▁celui	-8.82539
▁Ces	-8.82913
▁VI	-8.83286
19	-8.83597
▁supérieure	-8.84166
effet	-8.84192
accueil	-8.84524
▁charges	-8.84564
▁déclaration	-8.84566
al	-8.8457
▁spécialités	-8.84761
aux	-8.84947
▁liaison	-8.85078
f	-8.85208
▁diplôme	-8.8531
▁plan	-8.85439
elle	-8.85523
Dans	-8.86017
Agence	-8.86107
▁afin	-8.86131
▁sanitaire	-8.86232
▁modification	-8.86277
▁communication	-8.86349
▁écologique	-8.86861
▁domaine	-8.8715
▁année	-8.87214
Sont	-8.87262
▁Lorsque	-8.87274
Une	-8.87538
ordre	-8.87623
▁maître	-8.87776
ra	-8.87921
Y	-8.87974
▁financement	-8.8799
▁"3°	-8.88166
Assistance	-8.88299
MTR	-8.88319
▁avoir	-8.88388
▁frais	-8.8924
▁solidarités	-8.89422
▁donnée	-8.9006
▁économique	-8.90167
▁handicap	-8.90187
▁quatre	-8.90352
▁point	-8.90448
▁De	-8.90548
▁toutes	-8.90611
▁conclu	-8.9089
▁2018	-8.90924
Il	-8.90957
▁régional	-8.91047
▁6°	-8.91369
aptitude	-8.91396
▁commerce	-8.91531
▁activité	-8.91999
▁libéral	-8.92299
▁Article	-8.9253
18	-8.92542
▁Par	-8.92853
▁réalisation	-8.92913
▁obligations	-8.92973
▁résultats	-8.9301
▁figurant	-8.93307
▁pêche	-8.93353
alimentation	-8.93412
h	-8.93551
▁taux	-8.93559
▁celle	-8.93616
▁«-	-8.93651
▁admis	-8.9368
▁Nige	-8.93714
▁vue	-8.93717
▁examens	-8.93945
▁délégation	-8.94077
▁moyen	-8.94273
Jean	-8.94489
▁Premier	-8.94495
▁budget	-8.94536
211	-8.94567
31	-8.94615
▁prévus	-8.94722
▁applicable	-8.94804
▁paiement	-8.95035
▁unique	-8.95065
(	-8.95661
exception	-8.9578
ée	-8.95817
▁tant	-8.95892
213	-8.95916
É	-8.96003
20	-8.96011
▁attributions	-8.9619
▁ET	-8.96205
▁cadres	-8.96337
▁co	-8.96371
22	-8.96441
▁études	-8.96451
▁groupement	-8.9659
▁mention	-8.96678
▁elle	-8.96704
▁seront	-8.96714
16	-8.97031
▁document	-8.97217
▁mer	-8.97235
▁moyens	-8.97341
▁relatifs	-8.97348
1-1	-8.97499
action	-8.9762
▁mesure	-8.97771
▁temporaire	-8.98001
▁dérogation	-8.98135
u	-8.98226
▁territorial	-8.98416
▁hospitalier	-8.98453
▁perturbation	-8.9869
▁dépôt	-8.98773
▁concernant	-8.98793
O	-8.9885
▁cheffe	-8.99089
▁2016	-8.99531
▁précise	-8.99563
▁outre	-8.99659
II	-8.99891
ès	-9.00147
▁secteur	-9.00309
gouv	-9.0034
dit	-9.0045
▁tenu	-9.00464
▁physique	-9.00692
)"	-9.0082
Institut	-9.00939
▁numérique	-9.00979
ation	-9.01009
▁patients	-9.01049
▁note	-9.01076
2-1	-9.01135
▁dégagement	-9.01189
▁prévention	-9.01297
avenant	-9.01682
▁Partie	-9.01743
▁chiffre	-9.01838
absence	-9.01934
▁exercer	-9.0195
▁centrale	-9.02147
▁Ier	-9.02342
▁cinq	-9.02421
Marie	-9.02491
▁reconnues	-9.02668
▁hertzienne	-9.0282
▁K	-9.02992
24	-9.03013
▁création	-9.03123
▁Nouvelle	-9.03186
▁inscription	-9.0321
▁type	-9.03232
▁procédures	-9.03285
▁défaut	-9.03315
▁second	-9.03382
admissibilité	-9.03481
g	-9.036
après	-9.03801
z	-9.03828
▁signer	-9.03877
▁jeunesse	-9.04093
▁Centre	-9.04186
▁nommés	-9.04264
▁paragraphe	-9.04387
▁titulaires	-9.04509
▁européen	-9.04515
▁office	-9.04619
origine	-9.04702
▁installations	-9.04781
▁douanes	-9.04927
▁français	-9.05225
▁foi	-9.05252
▁H	-9.05414
usage	-9.05544
▁2022,	-9.05663
▁syndicales	-9.05863
▁adjointe	-9.06
▁recours	-9.06053
15	-9.06191
ont	-9.06225
▁biens	-9.06241
▁centres	-9.06289
▁Si	-9.06324
▁épreuve	-9.06421
▁équipements	-9.06804
France	-9.06862
▁lorsqu	-9.06874
23	-9.06938
J	-9.07015
▁rédaction	-9.0702
▁catégorie	-9.07028
▁2014	-9.07038
▁dernière	-9.07328
▁minutes	-9.0733
▁1989	-9.07503
K	-9.07604
▁notaires	-9.07687
▁PTTT	-9.07709
▁dépenses	-9.08022
▁cahier	-9.08113
▁forme	-9.08117
▁dossiers	-9.08495
▁compétente	-9.08543
▁culture	-9.08566
17	-9.08647
ne	-9.08678
extension	-9.08777
▁ceux	-9.0879
entrée	-9.08923
▁caractère	-9.08984
it	-9.09091
▁fonctionnaires	-9.09307
LES	-9.095
▁salarié	-9.09665
-5	-9.09683
32	-9.09742
▁systèmes	-9.09917
34	-9.09927
50	-9.10307
▁régime	-9.10952
sur	-9.11033
▁groupe	-9.11034
▁32	-9.1105
51	-9.11197
urgence	-9.1127
RE	-9.11479
41	-9.11502
▁associé	-9.11551
or	-9.11573
▁communes	-9.11788
installation	-9.12299
▁33	-9.12388
▁territoires	-9.12528
▁bâtiment	-9.12579
▁fonctionnement	-9.12613
▁parties	-9.12861
▁surveillance	-9.12943
▁pôle	-9.12999
25	-9.13073
el	-9.13195
▁emplois	-9.13201
40	-9.13251
▁civil	-9.13621
IN	-9.14186
▁maximum	-9.14253
aviation	-9.14254
at	-9.14393
exclusion	-9.14693
▁valeur	-9.14741
▁prises	-9.14799
▁particulier	-9.15037
▁obligatoires	-9.15042
▁Président	-9.15101
Calédonie	-9.15242
▁fonds	-9.15308
▁conseiller	-9.15617
▁transmission	-9.15759
▁Commune	-9.15761
EN	-9.15783
33	-9.1594
ot	-9.15949
▁Des	-9.15966
agent	-9.16093
ET	-9.16183
▁administratives	-9.16464
70	-9.16778
▁ingénieur	-9.16989
35	-9.17069
▁candidature	-9.17087
▁rang	-9.17146
▁proposition	-9.17256
▁juge	-9.17343
▁locaux	-9.17502
▁concernés	-9.17596
-19	-9.1835
▁association	-9.18387
▁numéro	-9.1873
60	-9.18957
27	-9.18983
▁effets	-9.19095
▁correspondant	-9.19199
▁déroulement	-9.19239
ri	-9.1929
▁logement	-9.19325
an	-9.1956
Z	-9.1957
▁employeurs	-9.19592
26	-9.19682
▁demandes	-9.19875
▁comprend	-9.19919
▁an	-9.20039
▁maritime	-9.20069
▁gaz	-9.20201
▁enfants	-9.20202
://	-9.20244
▁siège	-9.20386
chef	-9.20448
▁quatrième	-9.2051
▁eaux	-9.20586
▁manière	-9.20795
▁2.	-9.21009
alinéa	-9.21075
▁examen	-9.21082
▁(1),	-9.21137
▁relations	-9.21231
▁Michel	-9.21396
ouvrage	-9.21637
ES	-9.21645
k	-9.21651
▁sanctions	-9.21719
▁vie	-9.21731
▁terme	-9.21843
▁recettes	-9.21871
▁permettre	-9.21922
ette	-9.21952
▁défini	-9.21958
hôpitaux	-9.22086
ées	-9.22099
autres	-9.22118
dessus	-9.2214
29	-9.22295
28	-9.22329
▁cour	-9.2235
▁rue	-9.22451
▁départemental	-9.22488
intérêt	-9.22508
Ecole	-9.22558
▁total	-9.22612
▁raison	-9.22987
▁résultant	-9.23119
61	-9.23147
▁cabinet	-9.23365
▁risque	-9.23462
▁rémunération	-9.236
80	-9.23639
▁véhicules	-9.24004
▁François	-9.24162
ordonnance	-9.24866
▁restant	-9.24881
▁stipulations	-9.24905
▁congé	-9.25116
▁notification	-9.25361
elles	-9.2549
age	-9.25584
43	-9.25653
issue	-9.25731
▁h	-9.25837
▁Philippe	-9.25963
Autorité	-9.26005
▁points	-9.2606
42	-9.26116
▁début	-9.2615
▁étrangères	-9.26167
affaires	-9.26169
▁déchets	-9.26176
▁produit	-9.26218
▁financier	-9.26226
▁aides	-9.26228
▁pénitentiaires	-9.26307
ine	-9.26314
▁Polynésie	-9.26434
▁comptable	-9.26476
▁suppléant	-9.26716
▁2021.	-9.26737
37	-9.2709
▁Lyon	-9.27234
36	-9.27242
▁avenant	-9.27249
▁gendarmerie	-9.27263
▁scientifique	-9.27496
▁cachet	-9.27802
▁adresse	-9.2784
38	-9.27871
▁dispositifs	-9.27924
▁aérienne	-9.27935
▁tiers	-9.28013
▁administratif	-9.28039
▁inférieure	-9.28059
entretien	-9.28078
57	-9.28122
▁simplifiée	-9.28163
▁ils	-9.28395
te	-9.2845
79	-9.28489
▁7°	-9.28492
aménagement	-9.28561
direction	-9.28778
72	-9.28929
4-1	-9.28999
▁f	-9.29101
U	-9.29181
▁étendu	-9.29278
47	-9.29363
us	-9.29373
▁renouvellement	-9.29418
▁Anne	-9.29485
▁(2)	-9.29752
▁égal	-9.29919
acheteur	-9.29931
▁militaires	-9.30124
▁délais	-9.30193
▁navigation	-9.30218
▁0	-9.30229
p	-9.30369
45	-9.30405
▁commune	-9.30504
▁Mouvement	-9.30507
▁réseau	-9.30573
▁Commission	-9.30579
▁références	-9.30597
ie	-9.30645
▁mettre	-9.30666
▁Cha	-9.30719
▁administrateur	-9.30723
▁terrain	-9.30741
▁autorisation	-9.31091
▁session	-9.31246
00	-9.31293
▁militaire	-9.31401
section	-9.3142
autre	-9.31494
▁écrite	-9.31899
▁pharmaceutiques	-9.32131
55	-9.32235
39	-9.32261
▁vote	-9.32356
88	-9.32519
67	-9.32551
▁regard	-9.32554
dessous	-9.32758
▁désigné	-9.3276
46	-9.32773
▁sols	-9.32803
▁coopération	-9.32865
▁2015	-9.32912
44	-9.33231
▁sécheresse	-9.33368
▁patient	-9.33379
▁emploi	-9.33383
1-3	-9.33421
▁état	-9.33423
▁objectifs	-9.33468
▁complémentaire	-9.3349
Pologne	-9.33667
▁chez	-9.33741
▁statut	-9.33783
▁désignés	-9.34004
▁rubrique	-9.34174
▁prix	-9.34191
art	-9.34241
▁soumis	-9.3444
▁SAINT	-9.34457
▁50	-9.34513
▁clôture	-9.34566
rant	-9.34579
ré	-9.34673
▁pouvant	-9.34793
▁agréé	-9.3488
▁retrait	-9.34881
▁heure	-9.34903
52	-9.34956
▁extension	-9.34985
▁réalisé	-9.35042
▁sports	-9.35077
▁choix	-9.35095
▁présentation	-9.35256
engagement	-9.35272
71	-9.35387
obligation	-9.35566
CE	-9.3558
▁présenter	-9.35713
▁SA	-9.35808
▁tel	-9.35815
▁J	-9.35838
▁compétence	-9.3585
▁fins	-9.36015
▁fois	-9.36033
▁Cour	-9.3627
▁rédigée	-9.36298
avis	-9.36419
v	-9.36434
▁1.	-9.36466
▁1990	-9.36502
▁principale	-9.36503
▁prêt	-9.36595
01	-9.36735
▁Lille	-9.36775
▁consommation	-9.36956
être	-9.36976
▁lutte	-9.36995
59	-9.37049
62	-9.37109
emplois	-9.37118
▁critères	-9.37123
▁sociales	-9.37172
▁"4°	-9.37252
▁exigences	-9.37397
▁courir	-9.37712
▁secrétariat	-9.37753
ard	-9.37776
habitation	-9.37863
▁universitaire	-9.38131
▁postale	-9.38241
▁calcul	-9.38251
▁consécutifs	-9.38261
65	-9.38367
▁pénitentiaire	-9.38429
▁"«-	-9.38571
lle	-9.38685
▁font	-9.38715
▁projets	-9.38751
ON	-9.38771
77	-9.38817
du	-9.38955
▁places	-9.38982
49	-9.38993
W	-9.39082
▁transmis	-9.39151
▁administratifs	-9.39211
▁re	-9.39267
▁égale	-9.39285
▁connaissance	-9.39294
▁35	-9.3943
▁nécessaire	-9.39463
90	-9.39575
▁composition	-9.39587
▁3.	-9.39641
▁moment	-9.39666
encadrement	-9.39666
▁rendues	-9.3967
87	-9.3999
▁2022.	-9.40045
▁bénéficier	-9.40108
▁différentiel	-9.40143
53	-9.4021
▁registre	-9.4043
▁ouvert	-9.40776
▁commissaire	-9.40807
agrément	-9.4087
▁définis	-9.40873
▁honoraire	-9.40917
▁agent	-9.40951
54	-9.40964
▁covid	-9.41103
07	-9.41153
69	-9.41176
▁bien	-9.4134
appliquent	-9.41376
▁lesquelles	-9.41503
▁économiques	-9.41522
▁inférieur	-9.41527
▁lien	-9.41551
innovation	-9.41587
▁définie	-9.41659
02	-9.41739
58	-9.41764
▁normale	-9.41902
CGT	-9.42073
63	-9.42103
expérimentation	-9.42106
▁Gouvernement	-9.42154
▁délivrance	-9.42154
56	-9.42357
▁W	-9.42462
▁certification	-9.42487
▁profession	-9.42511
▁conformité	-9.42544
ro	-9.42712
DE	-9.42911
▁civils	-9.42933
▁navire	-9.43045
76	-9.43136
▁orale	-9.43215
▁fixe	-9.43243
3-1	-9.433
73	-9.4348
▁exerçant	-9.43545
85	-9.43632
▁comporte	-9.4386
75	-9.43889
ac	-9.43941
▁mandat	-9.43956
92	-9.44332
▁admission	-9.44541
05	-9.44568
▁34	-9.44584
▁politique	-9.44633
▁copie	-9.44637
74	-9.44651
▁offerts	-9.44687
▁vente	-9.44739
▁autorités	-9.44751
▁devra	-9.44778
▁précédent	-9.44782
identification	-9.44789
▁Sont	-9.448
203	-9.4484
▁autorisant	-9.4504
▁sauf	-9.45084
▁devront	-9.45123
hydratation	-9.45207
président	-9.45227
▁suite	-9.45258
▁courrier	-9.4527
▁attachée	-9.4529
▁années	-9.45369
▁1984	-9.45407
▁supprimé	-9.45454
▁sport	-9.45583
▁transfert	-9.45652
48	-9.46106
78	-9.46292
89	-9.46312
▁acquis	-9.46534
81	-9.46549
▁complémentaires	-9.46676
▁dispose	-9.46878
▁Parlement	-9.469
▁sociaux	-9.46933
▁nouvelle	-9.47065
▁pourront	-9.47093
inspection	-9.47138
▁40	-9.47221
▁départementale	-9.47299
III	-9.4733
▁fonctionnaire	-9.47372
ER	-9.47543
▁marchés	-9.4757
03	-9.47708
is	-9.47721
▁concerné	-9.47779
▁préparation	-9.47781
▁pré	-9.47824
▁coefficient	-9.47897
▁Cedex	-9.48011
caractéristiques	-9.48107
▁industrie	-9.48258
agence	-9.48399
▁autorisée	-9.4852
▁secours	-9.48795
▁capacité	-9.48935
Délégation	-9.49014
▁conventions	-9.49111
▁2012	-9.49135
▁délivré	-9.49275
▁dix	-9.49334
68	-9.49356
▁adjudant	-9.49399
▁O	-9.49509
/20	-9.49555
ol	-9.49687
▁minimum	-9.49749
espace	-9.4981
▁crise	-9.49908
▁valoir	-9.49925
▁07	-9.49926
air	-9.50013
lo	-9.50273
▁crédits	-9.50292
66	-9.50343
64	-9.50549
▁titres	-9.50605
assurer	-9.50642
▁Tout	-9.50933
▁métiers	-9.51192
▁Etat	-9.51322
▁1986	-9.51376
▁Bordeaux	-9.51429
▁bord	-9.51619
▁36	-9.51748
▁André	-9.51793
▁générales	-9.51802
▁transformation	-9.51876
▁garantie	-9.51901
▁versement	-9.52069
▁langue	-9.52243
86	-9.52385
indication	-9.52434
04	-9.52488
▁41	-9.52501
▁signature	-9.52505
études	-9.52723
ch	-9.52779
▁promotion	-9.52822
-4	-9.53035
93	-9.53083
association	-9.53101
▁arrêtés	-9.53232
83	-9.53345
ir	-9.53567
▁Louis	-9.5382
▁entreprise	-9.53841
▁g	-9.53914
▁financière	-9.53983
▁DÉPARTEMENT	-9.54049
▁besoins	-9.54102
▁reconnaissance	-9.54141
2-2	-9.54219
▁soutien	-9.543
▁Wallis	-9.54324
▁remboursement	-9.54418
6-1	-9.54522
08	-9.54526
▁1988	-9.54552
▁académique	-9.54565
94	-9.54628
unité	-9.54722
▁8°	-9.54799
industrie	-9.54831
Martin	-9.54843
▁Réunion	-9.54877
▁navires	-9.54884
▁ajouté	-9.54936
▁permet	-9.55075
▁performance	-9.55195
▁gestionnaire	-9.55205
▁Toute	-9.55248
▁programmes	-9.55262
▁autorisé	-9.55288
▁position	-9.55562
opération	-9.55631
09	-9.55632
▁Epreuve	-9.55667
li	-9.55712
▁support	-9.55741
▁certain	-9.55806
▁fixés	-9.55808
82	-9.55914
▁connaissances	-9.55952
▁hospitalière	-9.56042
▁annuel	-9.56087
84	-9.56209
enregistrement	-9.56244
▁catégories	-9.56341
▁rédigés	-9.56816
▁aménagements	-9.56894
▁ni	-9.56929
▁44	-9.56941
CH	-9.571
▁cycle	-9.57142
▁remplacées	-9.5717
▁seconde	-9.57177
applique	-9.5721
▁2010	-9.57254
▁répartition	-9.57401
investissement	-9.57574
▁pratiques	-9.57582
▁37	-9.57601
▁consul	-9.57757
AT	-9.57841
▁assure	-9.58002
ar	-9.58129
▁circulation	-9.58162
▁aérien	-9.58413
▁élèves	-9.58489
▁38	-9.58567
▁procureur	-9.58663
▁désignation	-9.58684
▁Marseille	-9.58754
▁diplômes	-9.58857
▁attaché	-9.5907
▁présidente	-9.59109
06	-9.59121
ut	-9.59311
▁Concours	-9.59392
96	-9.59408
expérience	-9.59525
▁travailleurs	-9.59546
▁Est	-9.5983
puis	-9.59885
▁universités	-9.59908
▁bon	-9.59963
▁1987	-9.60032
▁scolaire	-9.60083
▁objet	-9.60085
▁usage	-9.60333
▁chambre	-9.60576
accompagnement	-9.60612
▁financières	-9.60645
Est	-9.60661
95	-9.60665
▁structure	-9.60719
François	-9.60795
210	-9.60811
▁lequel	-9.60871
exploitant	-9.60907
▁pratique	-9.60972
▁in	-9.61174
▁contrats	-9.61289
▁Chevalier	-9.61358
▁Fédération	-9.61358
IV	-9.61384
5-1	-9.61522
▁spécifique	-9.61539
▁coordination	-9.61555
▁Aux	-9.61586
intervention	-9.61701
▁départements	-9.61849
98	-9.61856
▁cinquième	-9.61928
/2021-12-1	-9.62023
▁boue	-9.62052
ia	-9.62055
Europe	-9.6221
▁modèle	-9.62271
▁condition	-9.62282
▁établie	-9.62364
ion	-9.62407
instruction	-9.6241
▁réseaux	-9.62556
▁chacune	-9.62909
▁participation	-9.63078
▁distribution	-9.63348
▁informe	-9.63393
▁matériel	-9.63406
▁formations	-9.6341
▁réalisée	-9.63462
▁Du	-9.63533
▁ouverts	-9.63588
ire	-9.6359
ad	-9.63605
▁51	-9.63708
▁physiques	-9.63848
x	-9.63891
ta	-9.64076
▁VII	-9.64102
▁entretien	-9.64345
▁Claude	-9.64396
▁réglementation	-9.6446
tte	-9.64462
th	-9.64564
▁lieutenant	-9.64775
▁branche	-9.64815
étranger	-9.64966
▁Jacques	-9.65009
▁plein	-9.65028
▁visées	-9.65134
97	-9.65264
▁Paul	-9.65379
▁2007	-9.65474
▁géographique	-9.65641
▁visioconférence	-9.65788
intéressé	-9.65847
▁impôts	-9.65897
▁conforme	-9.6626
me	-9.66281
▁séance	-9.66372
▁lesquels	-9.66387
▁organisme	-9.6639
▁accès	-9.66474
▁susceptibles	-9.66536
▁Cité	-9.6656
▁réaliser	-9.66652
▁2011	-9.66762
2200	-9.66812
▁validation	-9.66822
▁bénéfice	-9.66897
▁Mayotte	-9.66933
AL	-9.67109
▁comportant	-9.67135
,"	-9.67415
▁nouveau	-9.67442
▁Montpellier	-9.67448
▁ministres	-9.67452
▁généraux	-9.67658
▁sciences	-9.67953
ANT	-9.67954
▁façon	-9.67973
di	-9.6809
▁inscrits	-9.681
2021	-9.68177
employeurs	-9.68182
▁directement	-9.68409
▁justificatives	-9.6842
▁directeurs	-9.68458
▁coûts	-9.68493
▁Nantes	-9.6851
▁local	-9.68537
▁simple	-9.68606
coulées	-9.68727
▁demander	-9.68793
▁collectivité	-9.68806
▁régulation	-9.68818
www	-9.68872
▁véhicule	-9.68913
co	-9.68984
NE	-9.69021
▁bénéficiaires	-9.69051
▁Université	-9.69063
▁pédagogique	-9.69129
▁périodes	-9.69517
▁agricole	-9.6956
nondations	-9.6956
2-3	-9.69665
▁porte	-9.69682
▁2009	-9.6969
-3	-9.69902
▁durable	-9.6993
SSAS	-9.70021
▁conduite	-9.70033
▁4.	-9.70042
adaptation	-9.70046
▁Toulouse	-9.70207
Lorsque	-9.70277
j	-9.70305
▁réglementaires	-9.70567
tre	-9.7084
am	-9.70976
▁statuts	-9.71001
▁négociation	-9.71087
▁conservation	-9.7118
▁rural	-9.7118
▁taxe	-9.71304
té	-9.71375
outre	-9.71447
hésion	-9.71463
▁déléguée	-9.71593
▁préalable	-9.71602
▁respectivement	-9.71617
▁42	-9.71653
AU	-9.71673
▁conseillère	-9.71725
▁www	-9.71779
91	-9.7187
▁1982	-9.71876
▁opérateurs	-9.71879
▁informatique	-9.7188
▁assurer	-9.71904
ul	-9.71961
▁format	-9.72226
▁faveur	-9.72272
▁met	-9.7239
▁figurent	-9.72513
▁AU	-9.72627
▁femmes	-9.7268
▁détachement	-9.72713
directeur	-9.72718
▁consultation	-9.72858
œuvre	-9.72863
▁Guyane	-9.72896
▁(1)	-9.72946
▁maximale	-9.73175
RI	-9.73243
▁accords	-9.73244
022000	-9.73304
▁équivalent	-9.73323
▁électroniques	-9.73356
analyse	-9.73395
▁liées	-9.7343
▁02	-9.73473
▁bilan	-9.73488
▁organisation	-9.73496
▁médicaments	-9.73499
indemnité	-9.73502
▁EN	-9.73534
▁forêts	-9.73622
▁autorisés	-9.73663
▁mises	-9.73688
▁01	-9.73734
▁officiers	-9.73909
ti	-9.73926
0-1	-9.73943
▁sociétés	-9.73971
▁1983	-9.73977
▁médecins	-9.74065
▁papier	-9.74094
/2021-12-2	-9.74182
▁Lorsqu	-9.74222
▁annexé	-9.74267
attribution	-9.74409
▁vérification	-9.74431
inscrire	-9.74608
colonel	-9.74615
opérateur	-9.74759
académie	-9.74815
▁maintien	-9.74819
▁vingt	-9.74824
▁tarif	-9.75038
▁compétent	-9.75178
présidente	-9.75226
Rhône	-9.75325
▁budgétaire	-9.75344
▁pharmacie	-9.75352
▁adressée	-9.75352
▁naturel	-9.75378
▁procéder	-9.75396
ay	-9.75451
▁bâtiments	-9.75479
7-1	-9.75484
▁cause	-9.7551
▁près	-9.75614
▁naissance	-9.75623
▁périmètre	-9.75623
▁2013	-9.75668
âge	-9.7608
avancement	-9.76146
▁propre	-9.76148
▁pouvoir	-9.76263
ement	-9.76297
▁distance	-9.76306
▁Martinique	-9.76308
▁contenu	-9.76309
▁maîtrise	-9.7648
▁politiques	-9.76636
▁usagers	-9.76697
▁Re	-9.76728
▁stage	-9.76739
▁concernée	-9.77126
égalité	-9.77158
des	-9.77414
IS	-9.77422
fin	-9.77518
▁Ma	-9.77563
▁pourra	-9.77636
▁montants	-9.77668
▁agricoles	-9.77693
▁haut	-9.77718
▁étudiants	-9.77861
▁particuliers	-9.77955
▁vers	-9.77996
▁Haute	-9.78012
▁visée	-9.78038
▁2020,	-9.78081
99	-9.78136
▁trente	-9.78153
▁patrimoine	-9.78248
▁commun	-9.78363
▁associations	-9.78426
OT	-9.78506
ique	-9.78533
▁fiche	-9.78622
▁communications	-9.78711
ité	-9.78819
▁conjoint	-9.78825
▁elles	-9.78843
▁vendredi	-9.78855
▁hospitaliers	-9.78903
offre	-9.79142
▁pays	-9.79148
orientation	-9.79173
▁référentiel	-9.79196
▁divers	-9.79253
▁réalisées	-9.79275
gissant	-9.79305
▁médicament	-9.79306
université	-9.79308
▁commandant	-9.79318
▁certaines	-9.79338
▁totale	-9.79339
▁devant	-9.79476
▁international	-9.79491
▁effectuée	-9.79578
▁unités	-9.79578
▁spécifiques	-9.79664
▁prescriptions	-9.79755
▁modifications	-9.79803
ME	-9.79942
▁demandeur	-9.79969
▁inspecteur	-9.80074
▁collège	-9.80076
▁annexes	-9.80095
▁2008	-9.801
▁résultat	-9.80149
ter	-9.804
▁carte	-9.80425
▁Section	-9.80428
4-2	-9.80499
/2021-02-1	-9.8051
▁domicile	-9.8051
▁médico	-9.80511
IL	-9.80519
▁préinscription	-9.80568
aire	-9.80825
▁information	-9.80888
▁continue	-9.80892
enfant	-9.80897
Miquelon	-9.80988
▁Auschwitz	-9.81108
▁mobilité	-9.81359
▁intérieur	-9.81365
▁"5°	-9.81368
lin	-9.814
▁associée	-9.8142
▁quinze	-9.81469
▁Etats	-9.81553
▁utilisés	-9.81581
▁39	-9.81637
onformément	-9.81801
FO	-9.81893
▁vol	-9.81954
concours	-9.82097
▁moyenne	-9.82131
heure	-9.82211
▁écrit	-9.82213
ville	-9.82279
▁initiale	-9.82304
▁Tribuna	-9.82315
▁capitaine	-9.82337
▁justifier	-9.82349
▁2005	-9.8236
ma	-9.8239
▁remboursables	-9.82612
1-4	-9.8263
▁réduction	-9.82682
▁réalisés	-9.82706
Philippe	-9.82714
▁espace	-9.82718
▁transmet	-9.82745
▁situé	-9.82788
▁présence	-9.82802
▁séjour	-9.82803
VI	-9.82813
▁https	-9.83008
▁Sud	-9.83038
▁chirurgie	-9.83289
▁telle	-9.83385
ARD	-9.83397
▁2,	-9.83471
▁ponts	-9.83673
▁traitements	-9.83673
▁refus	-9.83744
▁obtenu	-9.8379
▁Bernard	-9.83882
▁préjudice	-9.83906
équipe	-9.83924
id	-9.83961
OU	-9.84046
▁renseignements	-9.84056
▁maritimes	-9.84089
um	-9.841
▁08	-9.84101
employeur	-9.84139
▁Sous	-9.84146
▁sûreté	-9.84321
▁100	-9.84388
▁médicaux	-9.84401
Alpes	-9.8446
▁2006	-9.84487
▁décrets	-9.84521
▁Olivier	-9.84585
ron	-9.84602
se	-9.8467
▁lettre	-9.84794
vient	-9.84907
▁43	-9.84969
ph	-9.84982
▁qualification	-9.85074
incendie	-9.85091
envoi	-9.85221
▁lieux	-9.85252
INTA	-9.85271
▁Nicolas	-9.85324
▁Mont	-9.85325
▁stratégie	-9.85328
▁familles	-9.85399
▁noms	-9.85402
Nicolas	-9.85473
ce	-9.85537
▁particulières	-9.85543
▁Rennes	-9.85552
▁formulaire	-9.85559
▁recteur	-9.85576
▁énergétique	-9.85581
EL	-9.85596
▁propriété	-9.85708
X	-9.85871
ig	-9.85934
évolution	-9.85981
▁questions	-9.85993
▁décédé	-9.86013
na	-9.86094
▁matériels	-9.86111
▁professeur	-9.8617
▁suspension	-9.86279
Université	-9.86366
▁notarial	-9.86405
▁Caisse	-9.86407
expertise	-9.86494
▁exceptionnelle	-9.86588
▁thérapeutique	-9.866
▁individuelle	-9.86607
013000	-9.86646
▁Parties	-9.86754
▁9°	-9.86976
w	-9.87081
▁marine	-9.87082
▁précisant	-9.873
▁Dominique	-9.87513
▁05	-9.87653
▁fournir	-9.87765
▁ordre	-9.87891
▁responsables	-9.88135
▁réponse	-9.88176
▁comptables	-9.88253
▁créé	-9.88261
▁requises	-9.88287
Anne	-9.8844
hors	-9.8848
▁Henri	-9.88548
▁technicien	-9.88577
▁ajoutés	-9.88659
▁Alain	-9.88665
/2021-01-2	-9.88708
▁45	-9.88751
▁surface	-9.88821
▁poids	-9.88838
po	-9.89002
▁enseignants	-9.89167
▁annuelle	-9.89203
▁dé	-9.89237
▁contractuel	-9.8925
▁indications	-9.89291
ance	-9.89389
lé	-9.89407
▁écoles	-9.89477
▁soient	-9.89494
▁possible	-9.89591
▁52	-9.89613
UR	-9.89715
▁paritaire	-9.89766
▁bénéficiaire	-9.89855
▁attestation	-9.89924
▁Joseph	-9.90075
▁crédit	-9.90125
▁Nord	-9.90449
électricité	-9.90537
RO	-9.90539
Paul	-9.90552
▁visant	-9.9057
▁candidates	-9.90629
to	-9.90775
ha	-9.90811
▁e	-9.90873
ure	-9.91019
▁précisées	-9.9104
▁port	-9.91204
▁maire	-9.91223
▁1985	-9.91256
acte	-9.91372
▁validité	-9.91465
eur	-9.9151
▁major	-9.91531
as	-9.91565
▁interrégionale	-9.91693
▁diagnostic	-9.91998
da	-9.92342
Loire	-9.92369
▁liés	-9.92396
▁Isabelle	-9.92452
▁administratrice	-9.92569
attestation	-9.92584
▁mètres	-9.92657
▁considérée	-9.92686
▁Marc	-9.92741
▁seule	-9.92977
▁précité	-9.9307
▁structures	-9.93071
▁collecte	-9.93118
qu	-9.93148
▁régionales	-9.93203
▁puis	-9.93285
022001	-9.93332
▁milieu	-9.93339
▁perte	-9.93358
▁différents	-9.93359
/2021-12-0	-9.935
▁Y	-9.93576
ey	-9.93609
▁LES	-9.93795
Si	-9.94016
obtention	-9.94025
hébergement	-9.943
im	-9.94377
▁requis	-9.94433
▁organisé	-9.94597
▁ingénieurs	-9.94606
▁03	-9.94647
▁délivrée	-9.94656
▁maintenance	-9.9471
▁Christophe	-9.9494
▁matériaux	-9.95027
▁obligatoire	-9.95122
▁lignes	-9.95131
▁privé	-9.95295
identité	-9.95355
va	-9.9541
▁prime	-9.95439
allocation	-9.95662
▁vu	-9.95683
▁VIII	-9.95874
▁Sa	-9.95916
achat	-9.95954
▁pénale	-9.95959
▁changement	-9.96144
▁voix	-9.96234
▁îles	-9.96235
▁Car	-9.96321
▁http	-9.96359
ardi	-9.96381
▁61	-9.96424
▁propres	-9.96428
▁commande	-9.965
▁remise	-9.96592
▁préalablement	-9.96841
▁division	-9.9685
▁prescription	-9.96971
▁démocratique	-9.97076
▁Sur	-9.97098
▁rendu	-9.97162
▁évaluation	-9.97166
ba	-9.97187
-17	-9.97224
▁termes	-9.97241
▁prestataire	-9.97271
ces	-9.97348
▁écrites	-9.9738
▁volume	-9.97414
▁contribution	-9.97556
▁75	-9.97571
▁Futuna	-9.97619
▁cessation	-9.97641
▁besoin	-9.97699
▁disponibles	-9.97743
ry	-9.97826
▁Strasbourg	-9.97923
▁immédiatement	-9.97932
▁signé	-9.97947
▁participer	-9.97979
▁plateforme	-9.97987
▁sixième	-9.98071
ologie	-9.98203
armée	-9.98215
ier	-9.98256
▁contrôles	-9.98274
▁internationale	-9.98292
▁Laurent	-9.9833
▁concurrence	-9.98492
TE	-9.98541
▁tarifs	-9.98564
3-3	-9.98569
▁agrément	-9.98621
▁certificats	-9.98728
▁supprimée	-9.9878
▁test	-9.98875
▁électriques	-9.98895
Rhin	-9.98925
Communes	-9.98965
▁grande	-9.99056
▁destination	-9.99065
▁concernées	-9.99076
iv	-9.99136
▁Guadeloupe	-9.99222
▁respecter	-9.99298
▁morale	-9.99319
▁ouvrant	-9.99353
▁tels	-9.99656
▁biologie	-9.99787
▁(3)	-9.99794
▁1991	-9.99832
honneur	-9.9993
▁sécurisé	-10.0005
▁agréés	-10.001
▁Georges	-10.0015
professionnel	-10.0018
▁1992	-10.0043
▁aide	-10.0044
▁sportives	-10.0049
▁situations	-10.0058
étude	-10.0065
▁René	-10.0076
▁ressort	-10.008
CFDT	-10.008
▁rend	-10.008
▁autorisations	-10.0082
▁réglementaire	-10.009
▁1942	-10.0102
▁Bpifrance	-10.0103
-15	-10.0115
RA	-10.0122
▁financiers	-10.0131
▁500	-10.0134
▁collectifs	-10.0148
▁juridique	-10.0149
ingénieur	-10.0155
/2021-03-1	-10.0168
▁offertes	-10.0169
▁télé	-10.017
▁installation	-10.0171
ing	-10.0174
▁Co	-10.0175
▁professeurs	-10.0176
▁pilotage	-10.0183
Christophe	-10.0188
▁intérieure	-10.0192
▁phase	-10.0194
▁stockage	-10.0209
huissier	-10.0218
▁bois	-10.0224
▁con	-10.0224
▁comprenant	-10.0227
▁transmettre	-10.0229
▁ministériel	-10.0233
▁possibilité	-10.0239
expiration	-10.0242
affectation	-10.0248
eurs	-10.0252
Barthélemy	-10.0257
▁spécial	-10.0284
▁élus	-10.0299
▁clinique	-10.0299
AC	-10.0317
exercer	-10.0326
IER	-10.0329
▁seul	-10.0353
▁Ga	-10.0357
▁excéder	-10.0362
▁seules	-10.0368
▁Z	-10.0368
réanimation	-10.037
▁bonne	-10.0375
▁suivent	-10.0377
▁mandataire	-10.0385
▁courriel	-10.0416
▁justifiant	-10.0422
▁normes	-10.0428
▁Mar	-10.0437
▁nationales	-10.0451
▁limites	-10.0462
if	-10.0466
assemblée	-10.0472
▁préfecture	-10.0472
▁inclus	-10.0475
Marc	-10.0476
Antoine	-10.0477
▁domaines	-10.048
▁Financement	-10.0498
▁alors	-10.0498
▁présentant	-10.0507
▁Charles	-10.0511
▁jeux	-10.0514
▁Val	-10.0517
ait	-10.0543
▁ter	-10.0546
▁interdite	-10.0554
▁conception	-10.0566
▁recommandé	-10.0571
▁Catherine	-10.0572
activités	-10.0573
▁dotation	-10.059
▁hôpitaux	-10.0613
▁subvention	-10.0621
▁duquel	-10.0622
▁2004	-10.0624
aud	-10.063
▁04	-10.0635
▁degré	-10.0636
▁espèces	-10.0642
▁ville	-10.0648
▁route	-10.0653
▁uniquement	-10.0661
▁06	-10.0669
▁dénomination	-10.0675
▁aéronefs	-10.0678
Seine	-10.0679
école	-10.0681
▁émissions	-10.0695
vis	-10.0705
▁200	-10.0714
Louis	-10.0715
▁nationalité	-10.072
▁ouverture	-10.072
▁taxes	-10.0727
▁vertu	-10.0729
▁COUR	-10.073
man	-10.0734
▁permis	-10.0745
UN	-10.0749
SUR	-10.075
ens	-10.0753
▁Grand	-10.0754
▁nationaux	-10.076
▁divisionnaire	-10.076
con	-10.0771
▁option	-10.0776
▁X	-10.0778
▁3,	-10.078
▁sommes	-10.0781
▁accompagnée	-10.0783
ly	-10.0789
▁CHA	-10.08
▁déjà	-10.0807
préfet	-10.0822
1"	-10.0825
bo	-10.0829
MONT	-10.0841
▁définition	-10.0844
▁sélection	-10.0845
▁Guillaume	-10.0846
▁ancien	-10.0867
able	-10.0868
▁proximité	-10.087
▁constituée	-10.0875
▁versée	-10.0889
▁protocole	-10.089
▁bénéficient	-10.0905
▁90	-10.0914
▁brevet	-10.0918
▁minuit	-10.0918
▁semaines	-10.0925
hospitalisation	-10.0934
▁dérogations	-10.0941
▁effectuées	-10.0941
▁disponible	-10.0954
agit	-10.0969
▁directive	-10.097
2"	-10.0974
▁Comité	-10.0982
▁53	-10.0983
TRE	-10.0985
▁prélèvement	-10.0986
2.	-10.0999
▁Vi	-10.1014
▁disciplines	-10.1014
6°	-10.1021
▁garanties	-10.103
▁relève	-10.1042
▁métropole	-10.1056
▁2000	-10.1066
▁convocation	-10.1068
▁monétaire	-10.1078
▁territoriaux	-10.1078
▁praticien	-10.1081
▁indirects	-10.1088
apprentissage	-10.1093
▁collectif	-10.11
▁producteur	-10.11
▁Société	-10.1101
▁BOU	-10.1103
ux	-10.1111
▁adultes	-10.1111
▁tenant	-10.1127
▁accordée	-10.1133
▁Loire	-10.1135
""	-10.1138
▁exercées	-10.1142
▁lundi	-10.1144
▁observations	-10.1144
Décret	-10.1146
▁disponibilité	-10.1159
▁colonne	-10.1159
▁Jeanne	-10.1166
▁dénommé	-10.1167
▁active	-10.1168
▁tient	-10.1175
▁10°	-10.1184
rou	-10.1197
▁grand	-10.12
▁solidarité	-10.1215
▁inspectrice	-10.123
Force	-10.1233
▁profit	-10.1241
amélioration	-10.1243
▁affectés	-10.1243
▁anti	-10.1244
Michel	-10.1246
▁NOTAIRES	-10.1259
▁précitée	-10.1259
▁destinés	-10.1261
▁Antoine	-10.1263
▁classes	-10.1266
appui	-10.1268
US	-10.1271
▁radiation	-10.1274
▁techniciens	-10.1279
om	-10.128
UC	-10.1286
ca	-10.1292
▁1981	-10.1297
▁ouvrages	-10.131
Saint	-10.132
▁fabrication	-10.1323
▁différentes	-10.1324
IE	-10.1329
▁Sophie	-10.133
▁agréées	-10.1339
▁ordonnance	-10.1341
▁Toutefois	-10.1354
▁probatoire	-10.1356
▁classement	-10.1363
RMH	-10.1372
▁établit	-10.138
▁listes	-10.1389
▁Notaires	-10.1389
urbanisme	-10.139
▁valeurs	-10.1396
isation	-10.1397
-1.	-10.141
Thomas	-10.1413
▁Robert	-10.1414
▁libre	-10.142
ub	-10.1421
▁baccalauréat	-10.1423
AS	-10.1441
/2021-10-2	-10.1441
za	-10.1441
Marne	-10.1448
022002	-10.1455
▁jeudi	-10.1457
▁veille	-10.1462
ois	-10.1472
ale	-10.1476
▁compatibles	-10.1477
▁Eric	-10.1478
▁commissions	-10.148
environnementale	-10.1491
intitulé	-10.1498
▁aucune	-10.1503
▁psychiatrie	-10.1507
▁étant	-10.1507
▁inscrites	-10.1508
▁mais	-10.1508
Olivier	-10.1516
dûment	-10.1522
▁dépistage	-10.1524
▁organisatrice	-10.1524
▁garantir	-10.1526
▁jeunes	-10.1528
Guillaume	-10.1533
▁départ	-10.154
▁bénéficiant	-10.1541
▁populaire	-10.1541
▁"1.	-10.1542
▁sol	-10.1555
▁demeure	-10.1566
dé	-10.1573
▁caisse	-10.1576
▁Pascal	-10.1577
épidémie	-10.1591
ct	-10.1592
▁produire	-10.1608
▁Constitution	-10.1608
INT	-10.1617
hapitre	-10.1623
▁somme	-10.1623
▁telles	-10.1625
▁ouvrière	-10.1625
Ce	-10.1626
▁diffusion	-10.1634
▁engagements	-10.1637
État	-10.1641
▁désigne	-10.1646
▁Jo	-10.1651
▁46	-10.1653
▁Haut	-10.1657
ka	-10.1663
▁magistrats	-10.1681
▁Stéphane	-10.1683
▁expérience	-10.169
▁aucun	-10.1697
▁requise	-10.1699
▁propriétaire	-10.1724
▁motif	-10.1727
▁tribunaux	-10.1731
-1,	-10.1733
▁régionaux	-10.1737
▁règlements	-10.1742
▁Ch	-10.1744
▁minimale	-10.1755
▁71	-10.176
▁visés	-10.1765
▁Ca	-10.1778
▁exerce	-10.1779
/2021-11-1	-10.1779
▁déclarés	-10.1805
▁éligibles	-10.1807
▁effectuer	-10.1809
▁démission	-10.1811
Alexandre	-10.1811
ARM	-10.1812
▁concourir	-10.1815
ATION	-10.1815
▁inscrit	-10.1816
mé	-10.182
ez	-10.182
▁Ile	-10.1826
▁Cet	-10.1832
▁opération	-10.1832
élève	-10.1832
▁associées	-10.1833
▁affecté	-10.1837
▁donne	-10.184
▁1979	-10.1841
▁procédé	-10.1847
▁effectué	-10.1855
Ma	-10.1858
▁contentieux	-10.1867
▁CA	-10.1875
EC	-10.1876
▁Hélène	-10.1882
▁indemnités	-10.1885
bi	-10.1894
▁MONT	-10.1903
CO	-10.1924
os	-10.1925
2-5	-10.1925
▁Yves	-10.1934
CHE	-10.1934
/2021-06-0	-10.1945
▁visé	-10.1945
▁spécialisée	-10.1951
▁matières	-10.1954
4"	-10.1955
▁"2.	-10.1956
éco	-10.196
▁détermine	-10.196
▁Françoise	-10.1961
▁normales	-10.1962
vi	-10.1962
▁principes	-10.1962
▁procès	-10.1972
mo	-10.1973
ge	-10.1974
avances	-10.1986
ana	-10.1986
▁douze	-10.1989
▁colonel	-10.1993
▁complétée	-10.1994
ler	-10.2006
▁grossesse	-10.2008
▁stagiaires	-10.2008
▁62	-10.202
tier	-10.2023
3-2	-10.2025
CGC	-10.2026
1.	-10.2027
▁derniers	-10.2029
▁Frédéric	-10.2039
▁discipline	-10.2043
▁université	-10.2043
tra	-10.2048
/2021-03-2	-10.2061
/2021-04-2	-10.2064
ab	-10.2066
ver	-10.2067
armement	-10.2072
▁analyse	-10.2076
▁groupes	-10.208
▁vétérinaire	-10.2097
▁acteurs	-10.2097
em	-10.2098
▁Con	-10.21
▁diverses	-10.2107
▁fond	-10.2114
▁échelon	-10.2146
essai	-10.2146
ag	-10.2147
▁nécessite	-10.2147
occasion	-10.2147
/2021-07-2	-10.215
▁É	-10.2159
RY	-10.2168
▁Durée	-10.2169
▁hauteur	-10.2174
ga	-10.2184
▁correspond	-10.2196
▁statistique	-10.2206
▁vérifier	-10.221
▁Christian	-10.2211
▁types	-10.2213
▁unité	-10.2217
▁reconnue	-10.2222
▁autorité	-10.2223
▁détention	-10.2223
▁tenir	-10.2223
▁internes	-10.2224
▁Daniel	-10.2225
AGR	-10.2227
5"	-10.2231
▁congés	-10.2234
▁sortie	-10.2242
▁presse	-10.2242
▁située	-10.2247
▁suppléants	-10.2248
▁retour	-10.225
▁œuvres	-10.2254
4.	-10.2255
▁72	-10.2258
▁individuel	-10.2264
/2021-08-0	-10.2277
▁autorisées	-10.2279
administrateur	-10.2283
▁acceptée	-10.2296
▁forfaitaire	-10.2298
OR	-10.2306
par	-10.2316
▁anesthésie	-10.2322
CFE	-10.2325
élaboration	-10.2332
▁long	-10.2334
▁conseillers	-10.2335
▁1978	-10.2339
▁issus	-10.2341
▁renouvelable	-10.2353
ix	-10.2354
▁faite	-10.2356
▁Nancy	-10.2365
▁locale	-10.2368
urs	-10.2369
▁déplacement	-10.2371
▁sportive	-10.2372
▁globale	-10.2384
Cha	-10.2385
isé	-10.2386
Laurent	-10.2394
▁placé	-10.2399
▁Thierry	-10.2405
▁plans	-10.241
▁é	-10.241
engage	-10.2415
eux	-10.2418
▁détail	-10.2423
EAU	-10.243
▁U	-10.2435
▁nouvelles	-10.2436
▁précédant	-10.2442
▁Rouen	-10.2444
▁imprimé	-10.2454
▁scrutin	-10.2461
▁suppléante	-10.2465
Val	-10.2475
▁figure	-10.2476
/2021-02-2	-10.2479
▁contribuant	-10.2479
▁nécessité	-10.2479
▁No	-10.2484
▁thérapeutiques	-10.2488
IX	-10.249
▁universitaires	-10.2493
/2021-07-0	-10.2498
SA	-10.2499
▁répondre	-10.25
▁60	-10.2504
▁logements	-10.2508
pe	-10.2509
▁64	-10.2513
▁mines	-10.252
▁délibération	-10.2521
arrêt	-10.2538
▁notes	-10.2551
▁cotisations	-10.2552
FF	-10.2559
▁locales	-10.2563
▁mode	-10.2572
inventaire	-10.2573
ière	-10.2573
euros	-10.2576
▁1994	-10.258
▁Ben	-10.2582
IT	-10.2585
hi	-10.2587
ic	-10.2588
▁Autres	-10.2591
asile	-10.2595
▁prestation	-10.2597
▁Bou	-10.2597
▁acte	-10.2611
/2021-11-2	-10.2616
8"	-10.2636
3-4	-10.2643
▁reprise	-10.2644
▁Marcel	-10.267
▁complément	-10.2672
ton	-10.2679
impossibilité	-10.2686
val	-10.269
▁composé	-10.2697
AR	-10.2699
objectif	-10.2703
▁fera	-10.2712
Confédération	-10.2714
▁conseils	-10.2715
/2021-05-2	-10.2715
▁sites	-10.2724
▁CAR	-10.2724
ina	-10.2734
8-1	-10.2749
▁relation	-10.275
3.	-10.2769
audit	-10.2776
ère	-10.2777
▁CO	-10.2783
▁définit	-10.2786
▁fourniture	-10.2789
élection	-10.2789
▁contrôleur	-10.2802
gu	-10.2803
▁Vincent	-10.2806
ables	-10.2809
▁mineurs	-10.2821
acquisition	-10.2837
▁conformes	-10.2846
▁central	-10.2848
Denis	-10.285
▁47	-10.2855
▁In	-10.2856
▁Patrick	-10.2858
ais	-10.286
IR	-10.2861
mment	-10.2862
▁Date	-10.2865
CCP	-10.2865
ène	-10.2869
Sophie	-10.2869
major	-10.2869
▁permanente	-10.2871
▁Se	-10.2873
ran	-10.2887
▁groupements	-10.2892
APPEL	-10.2898
▁Alexandre	-10.2901
AUD	-10.2909
▁placés	-10.2912
▁protégé	-10.2913
OS	-10.2913
ner	-10.2914
AUX	-10.2915
▁organisée	-10.2916
▁prévoit	-10.2916
▁adressé	-10.2917
▁accessibles	-10.2929
▁Nathalie	-10.2931
▁entraîne	-10.2933
▁biodiversité	-10.2935
▁disposant	-10.2935
▁habilités	-10.2946
ence	-10.2954
▁obligatoirement	-10.2959
▁organisateur	-10.2964
auquel	-10.2964
6-2	-10.2964
▁contributions	-10.2966
▁antérieure	-10.297
▁procède	-10.2971
▁enveloppe	-10.2971
▁pièce	-10.2972
▁comités	-10.2977
EP	-10.298
▁1993	-10.2982
▁partiel	-10.2983
son	-10.2986
▁privés	-10.2989
▁hommes	-10.2993
▁saisie	-10.2995
▁éventuellement	-10.2995
▁considéré	-10.2996
rie	-10.2998
ani	-10.3
OL	-10.3004
pompiers	-10.3006
mar	-10.3011
▁CE	-10.3015
▁candidatures	-10.3015
▁déclarations	-10.3022
▁ajoutée	-10.3028
▁huit	-10.3028
▁sanitaires	-10.3034
AGRT	-10.3038
▁dématérialisée	-10.3054
no	-10.3056
...)	-10.3069
▁modifier	-10.3073
ru	-10.3079
▁constitué	-10.3095
▁effectués	-10.3095
/2021-08-1	-10.3117
ien	-10.312
▁aménagement	-10.3122
▁statutaires	-10.3128
▁décrites	-10.3141
min	-10.3146
▁55	-10.3147
/2021-06-1	-10.3153
▁coordonnées	-10.3153
▁calendrier	-10.3154
▁administrateurs	-10.3158
▁appartenant	-10.316
▁affectation	-10.3164
▁sportif	-10.3164
infrastructure	-10.3169
ingénieurs	-10.3171
▁personnalités	-10.3178
/2021-08-2	-10.319
hygiène	-10.3191
▁livraison	-10.3191
/2021-04-1	-10.32
▁dite	-10.3205
▁70	-10.3207
▁exclusivement	-10.3212
▁norme	-10.3224
▁donné	-10.3225
▁réunion	-10.3225
.3.	-10.3225
▁maison	-10.3231
▁fondement	-10.3232
▁producteurs	-10.3244
5.	-10.3247
▁voies	-10.3252
▁POUR	-10.3258
▁nucléaire	-10.3264
▁individuels	-10.3269
▁1996	-10.3278
ve	-10.328
▁pourvoir	-10.3281
be	-10.3288
4-3	-10.3302
Camille	-10.331
▁Julien	-10.3316
▁réputé	-10.3319
▁victimes	-10.3319
/2021-03-0	-10.3332
▁hiérarchique	-10.3332
▁capital	-10.3332
▁bénéficie	-10.3337
▁BAR	-10.3338
delà	-10.3339
/2021-02-0	-10.3352
▁11°	-10.336
▁"3.	-10.3371
Julien	-10.3375
▁capacités	-10.3379
▁contrôlée	-10.3386
▁pensions	-10.339
▁numériques	-10.339
▁valorisation	-10.3393
▁connaître	-10.3393
▁connexes	-10.3396
/2021-04-0	-10.3396
verbal	-10.3413
▁5.	-10.3414
▁judiciaires	-10.3419
▁déterminé	-10.3421
▁visite	-10.3428
QUE	-10.3434
▁soumises	-10.3436
▁susceptible	-10.3449
▁méthodes	-10.3451
▁définitive	-10.3452
▁consiste	-10.3454
▁SE	-10.3455
▁composer	-10.346
▁via	-10.3461
ins	-10.348
▁indicateurs	-10.348
▁abrogés	-10.3483
▁résolution	-10.3495
ff	-10.3502
RON	-10.3502
GE	-10.3511
CA	-10.3512
▁renseignement	-10.3514
▁référent	-10.3515
.1.	-10.3521
oc	-10.3522
▁Claire	-10.3529
ah	-10.3536
▁intervient	-10.3539
res	-10.3548
▁partielle	-10.3555
/2021-07-1	-10.3557
▁urbain	-10.3559
3-6	-10.3564
AV	-10.3574
▁dates	-10.3586
▁huissier	-10.3591
▁déterminée	-10.3595
▁espaces	-10.3598
habilitation	-10.3599
▁constitue	-10.3599
▁attestant	-10.3619
▁Grenoble	-10.3619
option	-10.3621
▁Institut	-10.3629
▁cent	-10.3636
▁MAR	-10.3652
RES	-10.3652
▁laboratoire	-10.3658
ed	-10.3666
▁obtenir	-10.3671
▁faits	-10.3673
▁Autorité	-10.3674
ob	-10.3676
▁reste	-10.3678
▁trésorerie	-10.3682
▁greffe	-10.3682
▁orales	-10.3683
▁ultérieurement	-10.3683
Luc	-10.3685
op	-10.3688
-2.	-10.369
▁PA	-10.3694
ign	-10.3695
gé	-10.3711
né	-10.3717
EY	-10.3734
▁disciplinaire	-10.3752
▁continu	-10.3758
▁administrations	-10.376
animation	-10.3763
▁conduire	-10.3766
▁preuve	-10.3787
▁réparation	-10.3787
▁répertoire	-10.3787
▁salaires	-10.3789
▁tests	-10.3797
épreuves	-10.38
▁Roger	-10.3804
AN	-10.3806
▁médicales	-10.3806
▁représentation	-10.3807
lu	-10.3812
Un	-10.3816
▁sujet	-10.3821
▁audiovisuelle	-10.3828
▁Maurice	-10.3835
▁165-1	-10.3838
égard	-10.384
▁Gérard	-10.384
2-8	-10.3844
2)	-10.385
▁outils	-10.3851
go	-10.3854
SE	-10.3865
▁Ro	-10.3866
NI	-10.3869
▁garantiss	-10.3869
▁tenue	-10.387
Haute	-10.3872
Baptiste	-10.3878
▁terre	-10.3892
▁licence	-10.3893
▁schéma	-10.3893
▁haute	-10.3904
▁Bureau	-10.3904
▁sanction	-10.3911
▁famille	-10.3914
▁contenant	-10.3915
▁54	-10.392
▁PAR	-10.3929
▁80	-10.393
▁présentée	-10.3932
▁Guy	-10.3935
▁Dijon	-10.3936
▁contractante	-10.3936
▁aéronautique	-10.3937
▁atteints	-10.3942
▁tour	-10.3942
▁annuels	-10.3946
▁animaux	-10.395
▁étrangers	-10.3955
/2021-10-0	-10.3958
▁avenue	-10.3958
▁Bo	-10.396
▁interrégional	-10.3965
ris	-10.3967
▁chambres	-10.398
Accès	-10.3981
▁contact	-10.3981
Etienne	-10.3987
▁recommandations	-10.3988
▁opérationnel	-10.3997
▁Emmanuel	-10.4004
cdg	-10.4011
fa	-10.4012
▁quantité	-10.4024
Claire	-10.4024
lan	-10.4026
▁ANNEXES	-10.4038
lon	-10.4043
Vilaine	-10.4044
▁relèvent	-10.4049
▁sus	-10.4052
▁justificatifs	-10.4053
▁utilisé	-10.4061
équipement	-10.4062
▁Convention	-10.4066
▁coût	-10.4067
▁spectacle	-10.4067
▁souhait	-10.4086
institut	-10.409
▁MA	-10.4094
4)	-10.4099
▁antérieures	-10.4102
▁RE	-10.4102
BE	-10.4106
▁régie	-10.4109
pprovisionnement	-10.4117
▁proposer	-10.4127
AY	-10.4129
exposition	-10.413
▁compensation	-10.4132
▁63	-10.4137
8900	-10.4149
▁compétentes	-10.4154
▁artistique	-10.4156
▁donner	-10.4161
▁enseignements	-10.4168
▁El	-10.4169
▁indemnité	-10.4172
▁portabilité	-10.4175
TI	-10.4176
▁méthode	-10.4178
immatriculation	-10.4197
▁recouvrement	-10.4198
CI	-10.4203
ifi	-10.4205
and	-10.4222
/2021-06-2	-10.4224
▁Seine	-10.4225
▁placée	-10.4226
che	-10.4229
approbation	-10.4231
ille	-10.4246
▁juridiction	-10.4251
ESR	-10.4253
▁ensemble	-10.4254
▁ingénieure	-10.4258
▁accepté	-10.4262
EX	-10.4263
Garonne	-10.4264
De	-10.4265
▁Corse	-10.4268
eu	-10.427
▁mg	-10.4273
▁répartis	-10.4286
▁processus	-10.4286
▁décédée	-10.4288
Atlantique	-10.429
▁résiliation	-10.4308
PE	-10.4309
▁électrique	-10.4312
tu	-10.4314
▁Fa	-10.4318
tion	-10.432
▁indique	-10.4327
▁mixte	-10.433
▁provisoire	-10.433
▁pédagogiques	-10.4332
avant	-10.4333
▁partage	-10.4335
TRA	-10.4349
▁employés	-10.4354
ec	-10.4354
/2021-09-2	-10.4357
▁juridiques	-10.4359
▁Sylvie	-10.437
▁pro	-10.4372
VILLE	-10.4376
▁Christine	-10.4387
st	-10.4387
▁Ba	-10.4395
▁Clermont	-10.4398
▁sapeurs	-10.4401
▁auxquel	-10.4408
pi	-10.4408
▁déterminer	-10.4409
▁conduit	-10.4415
OIS	-10.4417
Claude	-10.4424
9000	-10.4427
3)	-10.4435
▁assurée	-10.4438
efficacité	-10.4443
▁rouge	-10.4443
▁recharge	-10.4443
▁2001	-10.4453
▁actifs	-10.4458
/2021-05-1	-10.446
▁supplémentaires	-10.4461
▁libertés	-10.4462
9-1	-10.4463
▁(1	-10.4464
▁2002	-10.4479
interministériel	-10.448
mont	-10.4481
Vincent	-10.4481
▁aura	-10.4483
▁organisés	-10.4484
▁consultative	-10.4488
▁vétérinaires	-10.4488
▁partenaires	-10.4491
vo	-10.4496
▁naturels	-10.4499
▁répond	-10.4501
▁radié	-10.4504
AND	-10.4504
▁assurés	-10.4508
▁Disposition	-10.4521
▁naturelle	-10.4526
effectue	-10.4528
▁fiscales	-10.4534
▁Pro	-10.4538
▁fournisseur	-10.454
do	-10.4548
▁présenté	-10.4549
▁circonstances	-10.4555
architecture	-10.4556
▁majorité	-10.4557
Ille	-10.4559
▁portée	-10.456
ST	-10.4561
▁filière	-10.4564
▁décès	-10.4569
▁Thomas	-10.4569
1)	-10.4571
▁concession	-10.4579
▁Per	-10.4583
▁handicapées	-10.4584
▁biologiques	-10.4593
quelles	-10.4594
▁utilisation	-10.4596
▁principaux	-10.4602
▁morales	-10.4614
▁59	-10.4621
▁déplacements	-10.4622
▁complète	-10.4622
▁élevé	-10.4628
ex	-10.4632
Ga	-10.4635
▁Valérie	-10.4636
21-2	-10.4636
intégration	-10.4641
▁prononcée	-10.4642
▁synthèse	-10.4648
▁aussi	-10.4649
agents	-10.4663
▁face	-10.4666
▁PO	-10.4674
ger	-10.4674
▁série	-10.4674
▁Al	-10.4675
▁annexée	-10.4677
GUE	-10.4681
venant	-10.4682
▁commerciale	-10.4684
▁vérifications	-10.4684
▁reconnu	-10.4699
▁déterminées	-10.4706
oux	-10.4707
ys	-10.4708
▁calculé	-10.471
▁effectifs	-10.4721
▁désignées	-10.4722
particulièrement	-10.4735
▁fonctionnelle	-10.4736
▁valable	-10.474
▁justifie	-10.4754
let	-10.4769
LI	-10.4771
▁solution	-10.4774
ult	-10.4775
don	-10.4775
BO	-10.4785
▁sévère	-10.4788
EUR	-10.4808
▁déc	-10.4809
Amiens	-10.4811
▁Ha	-10.4818
officier	-10.482
▁i	-10.482
▁plafond	-10.4821
ques	-10.483
magistrature	-10.4832
impôt	-10.4833
▁candidate	-10.4836
▁biologique	-10.4839
▁contractuels	-10.484
▁participant	-10.4845
▁automatisé	-10.4858
Espace	-10.4858
▁CS	-10.4862
▁"7°	-10.4862
▁Service	-10.4863
▁AL	-10.4865
▁1980	-10.487
David	-10.488
iste	-10.4885
chi	-10.4894
auteur	-10.4899
▁brut	-10.4903
▁habilité	-10.4913
▁éligible	-10.4916
▁informé	-10.4927
TA	-10.4937
▁1977	-10.494
▁peine	-10.494
▁ministères	-10.4945
▁programmation	-10.4953
Eric	-10.4955
▁totalité	-10.4955
nel	-10.4963
▁48	-10.4967
ane	-10.4967
br	-10.4967
▁portail	-10.4971
▁infirmiers	-10.4982
▁destinées	-10.4983
▁détection	-10.4984
▁ma	-10.499
adulte	-10.4999
▁satisfaire	-10.5001
▁infrastructures	-10.5007
▁publiée	-10.5016
▁maladies	-10.5018
▁transmises	-10.5021
▁cohérence	-10.5024
Sébastien	-10.5025
▁séquence	-10.5025
ali	-10.5037
▁exceptionnel	-10.5037
▁protégée	-10.5039
▁affectée	-10.5042
/2021-09-0	-10.5043
/2021-01-0	-10.5048
▁permettent	-10.5049
▁téléphone	-10.5054
▁substances	-10.5055
▁indiquée	-10.5056
cu	-10.5065
▁âgées	-10.5067
ive	-10.5068
▁Xavier	-10.5073
▁notifiée	-10.508
▁textes	-10.5088
▁2024	-10.5091
▁cm	-10.5091
▁Bulletin	-10.5096
ai	-10.5097
session	-10.5098
tes	-10.51
▁internationales	-10.5116
▁Trésor	-10.5121
expression	-10.5123
ég	-10.5127
▁spécialisé	-10.5131
▁Cécile	-10.514
▁premiers	-10.5146
▁aériens	-10.515
eaux	-10.5156
▁musée	-10.5159
▁opérationnelle	-10.5162
▁Gilles	-10.5162
▁Cor	-10.5164
▁maximal	-10.5165
Tout	-10.5169
▁magistrature	-10.5172
▁versées	-10.5172
Juge	-10.5172
INE	-10.5179
ain	-10.5185
▁57	-10.5186
▁j	-10.519
intégrité	-10.5193
échelon	-10.5196
assistance	-10.5197
▁exposé	-10.5198
NA	-10.5205
▁quel	-10.5205
ib	-10.5208
erie	-10.5217
▁Poitiers	-10.5218
Futuna	-10.5221
▁admissibles	-10.5227
▁Ou	-10.5227
▁externes	-10.5229
▁peines	-10.5231
▁campagne	-10.5233
▁justificatif	-10.5233
▁Bruno	-10.5234
▁49	-10.5235
▁David	-10.5244
artisanat	-10.5244
▁porter	-10.5251
▁Bar	-10.5251
▁Aucune	-10.5255
▁contractuelle	-10.5269
▁niveaux	-10.5273
▁scientifiques	-10.5273
pa	-10.5281
UL	-10.5283
ét	-10.5293
▁orientations	-10.5295
▁"(	-10.5295
▁certifications	-10.5296
Charles	-10.5296
▁éventuelles	-10.5297
▁confidentialité	-10.5316
▁suppression	-10.5316
▁génie	-10.5316
▁vivante	-10.5321
▁instances	-10.5325
voir	-10.5327
▁culturels	-10.5333
▁validé	-10.5338
.2.	-10.5338
▁hospi	-10.534
▁Caen	-10.5345
Frédéric	-10.5346
▁praticiens	-10.535
▁Mo	-10.5353
▁contraire	-10.5357
▁intervenant	-10.5359
/2021-01-1	-10.5365
ap	-10.5367
▁SARS	-10.5367
▁régi	-10.5369
préfète	-10.5371
▁précédente	-10.5372
▁dépôts	-10.5373
▁intercommunale	-10.5373
▁complet	-10.5382
▁sections	-10.5388
▁pharmacien	-10.5392
credi	-10.5402
▁conférences	-10.5402
▁12°	-10.5403
▁abroge	-10.5415
▁Camille	-10.5417
tri	-10.5427
▁mensuel	-10.5438
▁PTTS	-10.544
▁télétravail	-10.544
TERB	-10.5444
▁Associés	-10.5448
▁atteint	-10.5455
IC	-10.5461
▁versé	-10.5463
▁définitif	-10.5466
Moselle	-10.5472
▁IX	-10.5475
▁désignée	-10.5479
▁consommateur	-10.5483
▁agences	-10.5483
ni	-10.5491
/2021-11-0	-10.5495
assistant	-10.5496
▁propose	-10.5496
rin	-10.5503
▁reçu	-10.5506
▁législation	-10.5515
▁Reims	-10.5515
▁nouveaux	-10.5517
qui	-10.5518
argent	-10.552
▁arrête	-10.5527
ze	-10.5527
▁soumise	-10.5529
aires	-10.5531
▁magistrat	-10.5536
▁description	-10.554
Ile	-10.5546
com	-10.5548
Maxime	-10.5549
▁approbation	-10.5552
▁2023	-10.5555
▁rendus	-10.5558
tique	-10.5558
▁2003	-10.5558
è	-10.5561
▁établis	-10.5565
▁brigade	-10.5566
▁pharmaceutique	-10.5568
▁pénal	-10.5569
▁localement	-10.5572
▁marchandises	-10.5573
ELLE	-10.5591
▁auront	-10.5592
▁adjoints	-10.5593
lot	-10.5594
▁évaluations	-10.5596
▁accompagné	-10.5599
▁dénommée	-10.5604
ISS	-10.5605
▁liée	-10.5605
ov	-10.5606
DI	-10.5608
▁souhaite	-10.5612
émission	-10.5614
accréditation	-10.5616
anne	-10.5626
▁individuelles	-10.563
▁rejet	-10.5641
▁Tous	-10.5642
EZ	-10.5645
QU	-10.5653
▁infanterie	-10.5653
▁adapté	-10.566
▁puissance	-10.5667
gue	-10.567
▁régies	-10.5672
line	-10.5679
ASS	-10.568
onne	-10.5689
▁admise	-10.5693
ECOP	-10.5697
▁attachés	-10.5697
actions	-10.5698
BI	-10.5703
/2021-05-0	-10.5709
▁débit	-10.5714
ARTI	-10.5718
▁pédiatrie	-10.5719
accomplissement	-10.5719
▁scolaires	-10.5719
CoV	-10.572
▁adaptations	-10.5722
▁motifs	-10.5724
▁minima	-10.5728
▁attribuée	-10.5734
▁fer	-10.5737
▁forfait	-10.5739
Ferrand	-10.5744
VA	-10.5752
▁documentation	-10.5753
ise	-10.5758
▁Ar	-10.5767
▁régularisation	-10.577
▁élections	-10.5772
▁retenue	-10.5777
RÉ	-10.5787
▁Sal	-10.5789
▁millions	-10.5791
▁assurant	-10.581
habitat	-10.5817
▁révision	-10.5822
oul	-10.5823
7-2	-10.5824
NT	-10.5825
EMENT	-10.5831
zi	-10.5832
▁intérêts	-10.5836
ten	-10.5837
opposition	-10.5848
▁Po	-10.5856
▁Stéphanie	-10.5857
invalidité	-10.5861
avoir	-10.5866
▁notée	-10.5869
▁issue	-10.587
▁prénom	-10.5871
▁salaire	-10.5873
tan	-10.5887
io	-10.5892
▁retard	-10.5892
Lorsqu	-10.5893
▁volontaire	-10.5897
▁GR	-10.59
▁prévoir	-10.5901
▁donc	-10.5902
Julie	-10.5909
21-4	-10.591
▁indiqué	-10.591
▁signée	-10.5911
▁of	-10.5912
▁savoir	-10.5914
▁maîtres	-10.5923
/2021-10-1	-10.5925
▁obligation	-10.5939
intermédiaire	-10.594
▁trè	-10.5952
▁quater	-10.5952
▁régions	-10.5954
MO	-10.5958
vers	-10.5966
▁exploitation	-10.5974
▁Fonds	-10.5979
od	-10.5988
BA	-10.5991
inspecteur	-10.5994
AIS	-10.5996
▁placement	-10.6001
▁mineur	-10.6002
Oise	-10.6011
cadre	-10.6013
NIER	-10.6015
Jacques	-10.6021
▁cassation	-10.6032
▁directe	-10.6035
▁Caroline	-10.6038
▁sept	-10.6043
Stéphane	-10.6049
▁PER	-10.6052
▁métropolitaine	-10.6052
▁Luc	-10.6056
▁73	-10.6061
▁Di	-10.607
DU	-10.608
▁favorable	-10.6085
▁utilisateurs	-10.6099
▁comprise	-10.6103
mes	-10.6104
▁directions	-10.6106
▁classés	-10.6106
▁stagiaire	-10.6111
ART	-10.6112
▁Arnaud	-10.6118
▁répondant	-10.6118
si	-10.6122
Office	-10.6129
▁transmise	-10.6129
▁formes	-10.6131
▁formule	-10.6134
▁clients	-10.6135
iz	-10.6136
Laure	-10.6137
▁routier	-10.6138
▁report	-10.6138
départemental	-10.6142
▁petites	-10.6142
▁1995	-10.6148
euse	-10.6148
▁eu	-10.6153
ières	-10.6167
ud	-10.6169
▁équipe	-10.6175
vé	-10.6176
SI	-10.6176
▁1976	-10.6176
▁conséquences	-10.6178
▁communiqués	-10.618
▁91	-10.6183
▁notifie	-10.6185
Angers	-10.6192
RIE	-10.6192
▁motivée	-10.6197
▁seuil	-10.6198
ari	-10.6212
▁facturation	-10.6219
▁Nice	-10.6219
▁solde	-10.6219
EAE	-10.6223
acc	-10.6229
▁Groupement	-10.6233
PI	-10.624
octroi	-10.6246
▁gynécologie	-10.6246
▁valider	-10.6248
▁Lo	-10.6256
▁donneur	-10.626
LET	-10.6263
▁Tours	-10.6264
▁obtenus	-10.6265
▁Véronique	-10.6275
▁achats	-10.6276
▁09	-10.6278
Romain	-10.6293
avance	-10.6299
▁Sébastien	-10.6299
▁proposé	-10.6301
▁attribué	-10.6302
▁SAS	-10.6302
nes	-10.6308
▁56	-10.6312
▁populations	-10.6314
000	-10.6321
INS	-10.6323
ts	-10.6326
▁rétention	-10.6327
▁ferroviaire	-10.6329
▁renouvelé	-10.633
▁professions	-10.6331
TER	-10.6335
0"	-10.6336
▁puisse	-10.6339
▁serait	-10.6345
▁occupant	-10.6348
LO	-10.6353
▁cotisation	-10.6357
cher	-10.6358
▁20.	-10.636
▁commandement	-10.6361
▁Florence	-10.6361
▁préciser	-10.6362
▁appel	-10.6366
▁veiller	-10.6368
iques	-10.6378
occupation	-10.6382
▁virus	-10.6382
▁lié	-10.6386
▁fourni	-10.6387
▁recommandée	-10.639
▁enregistrées	-10.6391
Ces	-10.6393
Elle	-10.6394
VAL	-10.6395
tin	-10.64
appellation	-10.6405
▁recevoir	-10.641
ons	-10.6411
▁fiscale	-10.6433
▁septième	-10.6434
▁démarche	-10.644
mb	-10.6448
▁masse	-10.6448
▁infractions	-10.6448
iel	-10.6454
▁Dé	-10.6457
Etablissement	-10.6459
▁liquidation	-10.6465
▁ouverte	-10.6468
▁version	-10.647
AP	-10.6471
202	-10.6471
▁Ver	-10.6475
tation	-10.6491
▁ex	-10.6493
▁pension	-10.6496
tal	-10.6511
.4.	-10.6519
NO	-10.6525
our	-10.6526
▁chefs	-10.6526
▁industrielle	-10.6528
informations	-10.6536
▁tâches	-10.6538
▁situés	-10.6541
▁Louise	-10.6544
▁suivre	-10.6548
▁utilisées	-10.6552
mon	-10.6559
lès	-10.656
▁ST	-10.6568
▁longue	-10.6573
▁nomenclature	-10.6576
▁remis	-10.6577
enne	-10.6585
▁porté	-10.6589
▁65	-10.66
▁exercice	-10.6602
aérodrome	-10.6602
▁BO	-10.6603
▁Commandant	-10.6604
iers	-10.6607
ll	-10.661
▁passagers	-10.6623
ancienneté	-10.6629
▁exercent	-10.6633
▁cession	-10.6637
▁détermination	-10.6643
▁Char	-10.6644
▁Bas	-10.6651
▁ordres	-10.6651
▁DEL	-10.6657
▁trimestre	-10.666
IDCC	-10.666
▁supplémentaire	-10.6666
▁choisi	-10.6668
ang	-10.6673
▁participe	-10.6674
▁nouvel	-10.6676
▁objectif	-10.6678
RET	-10.6682
▁troupe	-10.6683
▁Jérôme	-10.6687
exigence	-10.6687
▁moitié	-10.6688
▁82	-10.6688
▁contexte	-10.6688
▁location	-10.6688
▁perçues	-10.6691
▁seuls	-10.6693
▁qualifiées	-10.6696
▁disposent	-10.67
ho	-10.6701
▁livret	-10.6703
013001	-10.6715
Xavier	-10.6715
▁rigueur	-10.6717
▁double	-10.6717
▁dérouleront	-10.6717
Maritime	-10.6723
ront	-10.6729
az	-10.6733
port	-10.6734
Lo	-10.6735
▁supérieurs	-10.6736
▁prévisionnel	-10.6736
▁propositions	-10.6742
▁Ré	-10.6745
▁vins	-10.6748
ki	-10.6748
▁débiteur	-10.675
▁déposé	-10.6752
▁culturelles	-10.6758
lier	-10.6764
ini	-10.6765
▁prenant	-10.6767
▁rémunérations	-10.677
▁contraintes	-10.6774
infection	-10.6774
▁enfant	-10.6775
▁constaté	-10.6783
organe	-10.6787
▁Albert	-10.68
autonomie	-10.6802
accessibilité	-10.6802
▁croissance	-10.6802
Thierry	-10.6802
▁2021-2022	-10.6802
ret	-10.6803
▁Laurence	-10.6806
▁appelé	-10.681
▁Affectation	-10.6811
▁assimilés	-10.6822
ja	-10.6823
▁vols	-10.6828
▁Assesseur	-10.6831
▁chargées	-10.6845
▁composants	-10.6851
▁Russie	-10.6851
TION	-10.6851
/2021-09-1	-10.6856
▁Conditions	-10.686
▁commissaires	-10.6871
▁proportion	-10.6872
▁déroule	-10.6874
▁identifiée	-10.6875
▁CH	-10.6879
nés	-10.6879
LIN	-10.6884
▁portées	-10.6889
▁SI	-10.6891
▁rendre	-10.6894
▁anciennement	-10.6907
VE	-10.691
▁courant	-10.6912
Or	-10.6915
ayant	-10.6916
IG	-10.6919
assuré	-10.6919
même	-10.6919
▁adaptée	-10.6921
▁respecte	-10.693
▁technologies	-10.6933
ÉS	-10.6943
▁Brest	-10.6948
apprécier	-10.6951
▁Ville	-10.6955
▁humaine	-10.6959
uv	-10.6971
▁organisées	-10.6976
▁restauration	-10.6982
ven	-10.6982
▁Julie	-10.6983
▁étrangère	-10.6984
fi	-10.6999
▁ouvriers	-10.7001
▁réforme	-10.7006
▁pêches	-10.7016
▁gestionnaires	-10.7021
igny	-10.7026
▁constituer	-10.7027
▁organise	-10.7028
▁statistiques	-10.7032
▁réunions	-10.7044
▁Ecole	-10.7047
▁NO	-10.7047
▁insérée	-10.7047
▁inscrite	-10.705
▁133	-10.7052
gra	-10.7062
▁métallurgiques	-10.7063
ILLE	-10.7063
▁correspondance	-10.7064
▁global	-10.7067
ateur	-10.7073
▁cellules	-10.7082
▁Besançon	-10.7092
▁Corps	-10.7093
▁Syndicat	-10.7093
▁déroulera	-10.7095
interdiction	-10.7096
Hélène	-10.7097
▁74	-10.7099
BOIS	-10.7101
▁subi	-10.7116
▁personnelles	-10.7118
ttes	-10.712
site	-10.712
▁Museum	-10.7122
▁résidant	-10.7122
▁v	-10.7132
▁délibérations	-10.7144
cha	-10.7149
▁Pi	-10.715
▁fixation	-10.7152
▁St	-10.7152
▁conclusion	-10.7163
▁fraude	-10.7164
▁Qu	-10.7165
▁Ta	-10.7175
inistère	-10.7175
▁6.	-10.718
▁Monique	-10.7191
▁utiliser	-10.7198
▁eux	-10.7206
▁refusé	-10.7206
▁adaptées	-10.721
Mathilde	-10.7217
▁fraction	-10.7218
MI	-10.7218
▁manifestation	-10.7223
▁terrains	-10.7234
assure	-10.7234
▁secteurs	-10.7241
empêchement	-10.7241
évaluer	-10.7247
Yves	-10.7248
▁Ka	-10.7252
▁permanent	-10.7262
▁probation	-10.7271
▁guerre	-10.7271
▁fournis	-10.7271
▁imagerie	-10.7272
ible	-10.7277
▁exemplaires	-10.7281
▁action	-10.7282
▁françaises	-10.7286
▁traité	-10.729
▁Mou	-10.729
UT	-10.7293
▁Hauts	-10.7294
▁commerciales	-10.7295
▁passage	-10.7297
▁ancienne	-10.7303
entre	-10.7308
nelle	-10.7309
▁HA	-10.7314
▁intervenir	-10.7319
21-5	-10.7323
▁légale	-10.7331
▁législatives	-10.7335
DO	-10.7336
-523	-10.7339
▁recherches	-10.7341
▁An	-10.7341
ification	-10.7356
▁agence	-10.7359
▁routière	-10.7361
▁RO	-10.7362
use	-10.7364
existence	-10.7364
▁contenus	-10.7371
▁chantier	-10.7375
▁mentions	-10.7383
▁sources	-10.7384
AIN	-10.7384
▁difficultés	-10.7384
▁interdit	-10.7387
ue	-10.7388
implantation	-10.7392
▁ladite	-10.7394
▁volontaires	-10.7395
▁population	-10.7405
▁manquement	-10.7406
TO	-10.7407
zone	-10.7412
gi	-10.7417
yn	-10.7419
â	-10.7421
indemnisation	-10.7422
▁2232-6	-10.7422
▁considération	-10.7422
tif	-10.7425
cinq	-10.7429
amp	-10.7432
up	-10.7436
▁stricte	-10.7437
ienne	-10.7438
ano	-10.7438
▁enseignant	-10.7449
▁comprennent	-10.7452
▁solidaire	-10.7452
▁éliminatoire	-10.7452
MES	-10.7452
▁apportées	-10.7453
exposé	-10.7462
▁séances	-10.7463
▁but	-10.7464
▁respectives	-10.7472
100	-10.7474
GA	-10.7475
▁limiter	-10.7478
attaché	-10.7479
▁représente	-10.748
MP	-10.7481
CFTC	-10.7483
▁température	-10.7483
▁satisfait	-10.7483
GU	-10.7487
DON	-10.7488
Côte	-10.7493
▁envoyé	-10.7494
▁124	-10.7501
pt	-10.7504
▁OU	-10.7507
▁Didier	-10.7511
▁prudentiel	-10.7514
▁restructuration	-10.7514
▁Sans	-10.7515
▁immeubles	-10.7515
▁Del	-10.752
JORF	-10.7524
▁régis	-10.7525
durée	-10.7525
▁assurances	-10.7525
▁recev	-10.7526
SSAH	-10.7527
▁Serge	-10.7532
▁forces	-10.7535
▁intention	-10.7537
▁états	-10.7538
ange	-10.754
▁tenus	-10.7543
▁consentement	-10.7544
MAR	-10.7545
effectuer	-10.7551
PA	-10.7555
▁76	-10.7558
▁revenus	-10.7558
SSAN	-10.756
▁technologique	-10.756
TH	-10.7562
▁Cyclades	-10.7575
8°	-10.7586
échange	-10.7588
▁13°	-10.759
sta	-10.7591
▁municipale	-10.7594
court	-10.7604
▁vot	-10.7605
▁tutelle	-10.7606
▁CON	-10.761
EU	-10.7612
▁recueil	-10.7615
▁7,	-10.7618
initiative	-10.7618
▁détaché	-10.762
Vice	-10.7621
▁destinataire	-10.7623
SP	-10.7625
igne	-10.7634
▁vaut	-10.7638
▁électorale	-10.7638
organismes	-10.7639
GER	-10.764
AIRE	-10.764
▁équipes	-10.7641
▁délivrés	-10.7646
▁etc	-10.7646
tent	-10.7647
Provence	-10.765
▁revenu	-10.7655
tor	-10.7662
▁radio	-10.7663
▁Gra	-10.7663
▁Raymond	-10.7664
nant	-10.7664
▁maintenu	-10.7665
LAN	-10.7671
▁justifient	-10.7673
Clément	-10.7681
▁principe	-10.7686
▁minimal	-10.7686
▁marins	-10.7689
▁consulté	-10.7692
▁78	-10.7697
▁AUX	-10.7697
▁chrétiens	-10.77
▁extraordinaire	-10.77
▁clauses	-10.7701
▁traitant	-10.7701
bar	-10.7702
respect	-10.7713
▁déclaré	-10.7721
sante	-10.7725
▁mandats	-10.7729
utilité	-10.7731
▁motivation	-10.7731
▁éco	-10.7733
▁mécaniques	-10.7734
directrice	-10.7745
▁constatation	-10.775
▁demandé	-10.7753
teur	-10.7756
▁Charlotte	-10.7765
▁créances	-10.7765
quet	-10.7785
cy	-10.7786
▁MARTIN	-10.7794
▁ensuite	-10.7794
MICC	-10.7794
TEXT	-10.7794
▁Pôle	-10.7795
del	-10.7795
▁300	-10.7797
ANS	-10.78
▁mille	-10.7809
▁GA	-10.7809
Pauline	-10.7811
▁essais	-10.7817
▁Denis	-10.7818
lia	-10.7819
accise	-10.7826
▁Versailles	-10.7826
DES	-10.783
3-7	-10.7836
isse	-10.784
▁inspecteurs	-10.784
▁ad	-10.7848
▁Pa	-10.7854
▁magistrate	-10.7855
▁prennent	-10.7857
▁vaccination	-10.7859
▁retraits	-10.7863
mor	-10.7866
▁légal	-10.788
mat	-10.7882
ept	-10.7885
▁passer	-10.7887
mettant	-10.7889
élimination	-10.7889
▁vise	-10.789
▁Pays	-10.789
▁parents	-10.7896
No	-10.7897
▁quelle	-10.7898
NOR	-10.7898
▁suivie	-10.7904
dernier	-10.7906
▁auto	-10.7907
▁Nom	-10.7911
ies	-10.7914
▁Be	-10.7915
éducateur	-10.7921
▁électeurs	-10.7923
▁Da	-10.7923
4-4	-10.7929
int	-10.7929
ak	-10.7931
▁Jacqueline	-10.7937
oir	-10.7939
▁personnalité	-10.7942
▁Association	-10.7947
▁obtenues	-10.7948
▁fragilisée	-10.7953
▁huissière	-10.796
AULT	-10.796
▁publicité	-10.7966
▁1974	-10.7967
mm	-10.7969
▁départementaux	-10.7983
▁reçoivent	-10.7985
amiante	-10.7985
▁treizième	-10.7985
▁continuité	-10.7986
▁requérante	-10.7994
car	-10.7999
200	-10.8001
IQUE	-10.8001
IF	-10.8002
▁dommages	-10.8003
Du	-10.8008
▁équipage	-10.8009
▁habilitation	-10.8014
▁interventions	-10.8015
Pascal	-10.8015
observation	-10.8016
▁civiles	-10.8017
▁serre	-10.8018
▁classées	-10.8018
▁faciliter	-10.802
ik	-10.8024
my	-10.8026
▁Spécialité	-10.8027
van	-10.8029
▁spécialisés	-10.8032
TS	-10.8032
Marion	-10.8037
▁énoncée	-10.8048
▁simultanément	-10.8051
ENS	-10.8056
▁PRO	-10.8064
cité	-10.8065
▁délivrer	-10.8066
▁conducteur	-10.8072
▁coordonnateur	-10.8073
▁offre	-10.8073
ny	-10.8075
SSA	-10.8079
▁LISTE	-10.8083
▁personnelle	-10.8084
he	-10.8086
003	-10.809
▁indication	-10.8092
recteur	-10.8097
▁susmentionné	-10.8098
iane	-10.81
▁jeu	-10.8101
▁exemple	-10.8102
chercheurs	-10.8107
▁automatique	-10.8112
▁régimes	-10.8115
appréciation	-10.8115
av	-10.8115
▁créées	-10.8117
▁Franck	-10.8121
▁dialogue	-10.8124
PL	-10.8127
▁terminale	-10.813
▁déconcentrés	-10.813
ault	-10.8131
▁localisation	-10.8134
Ch	-10.8142
▁jeune	-10.8145
▁SP	-10.8148
lie	-10.8148
classe	-10.8151
▁afférentes	-10.8152
social	-10.8157
▁qualifications	-10.8167
▁JORF	-10.8169
pré	-10.8169
Jo	-10.8172
▁Française	-10.8176
▁cancer	-10.818
▁constitutive	-10.818
▁concertation	-10.8181
▁pu	-10.8188
▁remet	-10.8193
▁PI	-10.8195
OUX	-10.8199
▁horaires	-10.8202
der	-10.8202
▁logistique	-10.8205
▁utile	-10.8205
CR	-10.8207
▁intéressés	-10.8218
▁opérateur	-10.8221
▁direct	-10.8224
▁spécialisées	-10.8225
ck	-10.823
▁effective	-10.8235
▁exclu	-10.8243
▁compléter	-10.8246
▁entend	-10.8247
▁tirage	-10.8248
▁arme	-10.8258
▁TA	-10.826
ite	-10.8263
▁dernières	-10.8267
▁intitulé	-10.8268
▁réalise	-10.8271
▁posté	-10.8277
sp	-10.8277
▁destiné	-10.8277
▁syndicats	-10.828
▁accueillir	-10.828
▁fournit	-10.8282
▁mon	-10.8282
per	-10.8283
▁Bretagne	-10.8284
Q	-10.8285
AF	-10.8296
▁issues	-10.8296
▁jugement	-10.8297
Emmanuel	-10.83
impact	-10.8303
net	-10.8306
▁initial	-10.8306
▁Soit	-10.8314
▁établir	-10.8316
▁arts	-10.8326
▁expert	-10.8327
▁audit	-10.8329
SON	-10.8331
▁radiologie	-10.8332
uc	-10.8334
▁Ex	-10.8339
▁83	-10.8341
▁moyennes	-10.8343
ici	-10.835
illon	-10.8354
RIN	-10.8357
▁repos	-10.8368
histoire	-10.837
▁Deux	-10.8371
/2014	-10.8372
▁forêt	-10.8373
▁variétés	-10.8374
▁moteurs	-10.8378
▁secret	-10.838
▁cliniques	-10.8386
zo	-10.8386
OUR	-10.84
informatique	-10.8404
▁lycée	-10.8406
▁émis	-10.8407
▁appartient	-10.8413
▁titularisation	-10.8413
▁donnant	-10.8413
▁susvisés	-10.8416
▁net	-10.8416
▁prénoms	-10.8417
▁déposer	-10.8418
MER	-10.842
asse	-10.8422
professionnelle	-10.8424
▁7.	-10.8433
Caroline	-10.8438
▁fédération	-10.844
groupe	-10.8446
▁construire	-10.8447
▁différence	-10.8447
▁162-22-7	-10.8447
▁conjointement	-10.8451
▁approuvé	-10.8455
▁correction	-10.846
▁réalis	-10.8464
▁familiales	-10.8471
▁sessions	-10.8472
▁final	-10.8472
Arnaud	-10.8473
▁adressées	-10.8474
MICB	-10.848
▁Modalités	-10.848
▁indiquant	-10.848
▁Nombre	-10.8482
▁Titre	-10.8482
EST	-10.8483
PO	-10.849
endant	-10.8493
▁BP	-10.8496
▁contribue	-10.8496
▁compétents	-10.8497
▁conservées	-10.8507
Nord	-10.8508
▁liquide	-10.8509
▁libellée	-10.8511
entité	-10.8514
▁déclarant	-10.8514
▁indiciaire	-10.8514
▁provenance	-10.8515
▁particulière	-10.8518
▁ultérieur	-10.8522
AI	-10.8529
▁quelque	-10.8531
▁Information	-10.8532
BERT	-10.8536
Eure	-10.8537
▁FA	-10.8538
cardiovasculaire	-10.8549
▁PARIS	-10.855
PP	-10.8553
▁appareils	-10.8566
ateurs	-10.8567
AGE	-10.8568
▁expérimentation	-10.8568
pression	-10.8572
Ouest	-10.8577
▁fréquence	-10.8579
▁circonscription	-10.8583
▁comptabilité	-10.8583
▁incomplet	-10.8583
vent	-10.8587
▁annuellement	-10.8592
▁pouvoirs	-10.8596
▁étude	-10.8602
▁vivant	-10.8604
▁déposés	-10.8609
Quentin	-10.861
▁atteinte	-10.8612
▁Aucun	-10.8613
▁Crimée	-10.8617
▁consignations	-10.8617
▁périodicité	-10.8617
▁déploiement	-10.8617
Uni	-10.8619
▁accordé	-10.8622
Aix	-10.8628
23-1	-10.864
▁entités	-10.864
▁résulte	-10.8648
aff	-10.8648
▁catastrophe	-10.8651
▁raisonnable	-10.8651
▁couronne	-10.8652
▁Organisation	-10.8653
▁effectivement	-10.8655
▁établies	-10.8662
CD	-10.8663
▁Ja	-10.8664
▁tri	-10.8673
▁consultations	-10.8675
▁appelée	-10.8677
▁piste	-10.8681
▁Bel	-10.8685
Assemblée	-10.8686
enfance	-10.8686
▁électoral	-10.8689
nier	-10.869
not	-10.8692
Re	-10.8698
▁214	-10.8698
▁rejeté	-10.8699
201	-10.8715
amende	-10.8717
▁BI	-10.8717
▁communiquer	-10.8719
▁Limoges	-10.872
▁lendemain	-10.872
▁scolarité	-10.872
▁effectif	-10.8721
▁régulièrement	-10.8723
dy	-10.8723
▁constituent	-10.8726
▁réadaptation	-10.8726
▁constitution	-10.8733
▁HT	-10.8742
▁agréée	-10.8744
▁PE	-10.8746
EF	-10.8747
▁équivalente	-10.8748
▁k	-10.8749
▁règle	-10.8749
▁échanges	-10.875
▁quantités	-10.8753
▁carrière	-10.8753
▁anonyme	-10.8755
▁bénéficié	-10.8755
▁UE	-10.8756
▁indépendante	-10.8756
ième	-10.8759
▁environnement	-10.8763
▁modes	-10.8764
CHER	-10.8766
▁alimentaires	-10.8767
▁"4.	-10.8769
▁éventuels	-10.8771
▁immobilier	-10.8776
AG	-10.8777
-19,	-10.8778
▁finale	-10.8784
▁on	-10.8785
▁signalisation	-10.879
▁méthotrexate	-10.8796
▁recrutés	-10.8801
▁Pascale	-10.8802
éro	-10.8802
ian	-10.8807
▁destinée	-10.8809
▁neuf	-10.8815
▁remplir	-10.8816
Charlotte	-10.8822
/2021-10-	-10.8823
▁facultative	-10.8825
Algérie	-10.8825
▁ASSOCIES	-10.8825
Bas	-10.8826
FI	-10.8831
ANGE	-10.8835
tel	-10.8837
▁ES	-10.8841
ach	-10.8846
▁demandée	-10.8846
han	-10.8854
échéance	-10.8855
accident	-10.8857
▁greffier	-10.8858
▁proposés	-10.8858
▁repérage	-10.886
servant	-10.886
ert	-10.8861
Tunisie	-10.8861
vous	-10.8863
assistants	-10.8866
▁susmentionnée	-10.8867
▁exercé	-10.8867
TREL	-10.8872
▁extérieur	-10.8879
non	-10.8885
imp	-10.8885
▁fabricant	-10.8887
▁post	-10.889
▁stratégique	-10.8893
af	-10.8896
▁majoration	-10.8897
▁réintégration	-10.8898
▁composée	-10.8908
ures	-10.8913
▁Michèle	-10.8917
▁glace	-10.8918
▁mal	-10.8923
▁Sandrine	-10.8925
▁Martine	-10.8926
électeur	-10.8929
élevage	-10.8929
vet	-10.8929
▁rénovation	-10.893
info	-10.8936
illy	-10.8942
FR	-10.8946
▁fournies	-10.895
OM	-10.8952
▁trans	-10.8953
▁formalités	-10.8956
Maritimes	-10.8958
illet	-10.8959
ong	-10.8965
▁était	-10.8966
▁Ne	-10.8969
▁joint	-10.8974
oud	-10.8982
▁Madeleine	-10.8982
CL	-10.8987
ô	-10.8988
▁prélèvements	-10.8991
▁Annexe	-10.8998
▁85	-10.9
indice	-10.9001
▁chronique	-10.9001
▁Gu	-10.9001
▁ailleurs	-10.9001
end	-10.9002
▁impositions	-10.9003
▁ZIT	-10.9003
▁rapports	-10.901
▁affranchie	-10.9012
▁312	-10.9013
▁confiées	-10.9015
▁puni	-10.9018
Calais	-10.9021
▁Com	-10.9029
Sur	-10.9035
▁communique	-10.9037
Azur	-10.9037
Patrick	-10.9037
▁secrétaires	-10.9039
▁mentionne	-10.9044
▁dédié	-10.9054
ip	-10.9057
type	-10.9074
lation	-10.9075
▁sujets	-10.9075
▁Hervé	-10.9077
▁BA	-10.9081
▁123	-10.9082
all	-10.9084
▁sort	-10.9085
▁extérieure	-10.9095
▁soixante	-10.9109
▁Sexe	-10.9109
▁prévenir	-10.911
Pitre	-10.9111
Ca	-10.9116
▁stages	-10.9121
ost	-10.9126
▁court	-10.9129
▁Emilie	-10.9134
ole	-10.9136
Hugo	-10.9137
ich	-10.914
uff	-10.9141
éditeur	-10.9143
éné	-10.9144
▁utilisant	-10.9145
▁613	-10.9149
▁r	-10.915
HI	-10.9151
Mar	-10.9163
▁(1).	-10.9164
▁présentent	-10.9169
▁prêts	-10.9179
▁travers	-10.9179
▁raisons	-10.9179
équivalence	-10.918
▁alphabétique	-10.9181
Saône	-10.9181
mettent	-10.9181
ev	-10.9183
Jérôme	-10.9183
infirmier	-10.9184
▁automatiquement	-10.9185
▁Or	-10.9187
ren	-10.9188
examens	-10.9193
TON	-10.9197
née	-10.92
▁Mon	-10.9202
▁solutions	-10.9203
IA	-10.9204
▁Sou	-10.9207
▁150	-10.9208
▁langues	-10.9215
▁DA	-10.9215
Alsace	-10.9218
adi	-10.9218
▁Emmanuelle	-10.9221
▁vaccins	-10.9222
▁Cap	-10.9225
▁visa	-10.9225
ric	-10.9231
▁sportifs	-10.9232
ef	-10.924
▁âgés	-10.9241
▁fonctionnel	-10.9249
▁Mi	-10.9251
▁subventions	-10.9253
▁éducatif	-10.9254
▁homologué	-10.9254
▁primaire	-10.9254
leur	-10.9256
Chloé	-10.9257
ège	-10.926
▁cela	-10.9262
▁Bi	-10.9271
▁estime	-10.9274
HA	-10.9275
▁afférents	-10.9277
AB	-10.928
oy	-10.928
▁suffisa	-10.9287
EM	-10.9289
▁pourcentage	-10.9291
importation	-10.9291
Pyrénées	-10.9294
▁BEN	-10.9295
▁calculée	-10.9296
▁présents	-10.9302
STE	-10.9308
aille	-10.9318
DOU	-10.9318
21-8	-10.9319
▁huitième	-10.9319
▁conclus	-10.9322
▁cavalerie	-10.9328
▁remplissent	-10.9328
▁publiés	-10.9333
TIER	-10.9333
ANI	-10.9334
▁tableaux	-10.9336
▁Mor	-10.9336
FE	-10.9341
▁composantes	-10.9342
cf	-10.9346
▁déclarées	-10.9349
isée	-10.9355
▁Beau	-10.9357
▁intitulée	-10.9359
▁Me	-10.9365
▁client	-10.9368
immeuble	-10.937
▁liquides	-10.9371
▁demandées	-10.9375
ères	-10.9376
SO	-10.9397
gr	-10.9401
▁quarante	-10.9401
▁organique	-10.9402
▁mutation	-10.9405
ID	-10.9411
▁accéder	-10.9417
vert	-10.9423
▁Laure	-10.9424
ZE	-10.9425
▁Céline	-10.9428
ty	-10.943
▁engins	-10.9435
abilité	-10.9439
▁cinquante	-10.9439
indépendance	-10.944
▁Benoît	-10.944
▁HU	-10.9441
▁médaille	-10.9442
Al	-10.9443
Toutefois	-10.9445
▁institué	-10.9448
▁Pointe	-10.9456
ata	-10.9459
ast	-10.9459
▁Go	-10.946
▁voyage	-10.9476
▁mensuelle	-10.9476
▁rôle	-10.9476
▁Pr	-10.948
din	-10.948
▁obstacle	-10.9481
▁réintégré	-10.9481
Catherine	-10.9483
▁adaptés	-10.9484
/2021-04-	-10.9484
expert	-10.9489
▁partagé	-10.9489
économies	-10.949
out	-10.9492
las	-10.9493
-3,	-10.9494
lou	-10.9496
▁accusé	-10.9496
▁ouvertes	-10.9503
▁BE	-10.9511
ations	-10.9513
attention	-10.9513
éligibilité	-10.9513
attente	-10.9513
assiette	-10.9514
▁collèges	-10.9515
▁investissements	-10.952
Association	-10.952
▁mathématiques	-10.953
effectuent	-10.9533
▁exécution	-10.9534
▁81	-10.9535
▁employeur	-10.9535
▁informatiques	-10.9545
▁label	-10.9549
embarquement	-10.9551
▁blindée	-10.9551
▁internationaux	-10.9551
▁circulaire	-10.9553
▁bases	-10.9559
▁environnemental	-10.9565
▁géographiques	-10.9567
Des	-10.9568
nom	-10.9569
▁avocat	-10.957
▁identifiant	-10.9572
▁lettres	-10.9576
▁Accord	-10.9578
▁équipement	-10.9581
▁pluriannuelle	-10.9582
faciale	-10.9589
ché	-10.959
▁liberté	-10.9595
Cécile	-10.9597
▁dés	-10.9602
▁Agnès	-10.9603
▁portent	-10.9607
▁car	-10.9609
▁vis	-10.9616
▁Sainte	-10.9616
audiovisuel	-10.9625
▁passation	-10.9627
AUT	-10.9629
▁utilisée	-10.9632
NET	-10.9635
instance	-10.9635
Sarah	-10.9636
▁favoriser	-10.9636
berg	-10.9642
▁comportent	-10.9643
▁Martin	-10.9648
▁Services	-10.9648
▁Ri	-10.9649
UNE	-10.965
▁logiciels	-10.9661
▁vaisseau	-10.9665
pour	-10.9667
▁Ab	-10.9668
▁Lucien	-10.9668
▁détenteur	-10.9671
▁déchet	-10.9673
▁modifiées	-10.9673
▁ressortissants	-10.9677
▁décider	-10.9678
▁assuré	-10.9678
▁Délégation	-10.968
▁classé	-10.9682
▁notifié	-10.9698
▁EPS	-10.9698
▁prolongation	-10.9703
▁toutefois	-10.9703
▁décompte	-10.9703
IO	-10.9705
▁priorité	-10.971
ek	-10.9719
huit	-10.9723
▁experts	-10.9726
▁pose	-10.9729
▁conserver	-10.9736
▁dimanche	-10.9741
▁réduire	-10.9741
▁Coefficient	-10.9741
écran	-10.9742
▁officier	-10.975
▁111	-10.9751
ieux	-10.9754
▁nucléaires	-10.9754
▁Cl	-10.9756
▁72-3	-10.9759
▁grave	-10.9765
î	-10.9765
▁échange	-10.977
france	-10.9774
▁Peuvent	-10.9778
▁rupture	-10.978
▁profil	-10.978
oph	-10.9784
6-3	-10.9786
forme	-10.9788
vier	-10.9788
Céline	-10.9791
commissaire	-10.9791
Dominique	-10.9791
▁finalité	-10.9791
ves	-10.9793
PH	-10.9796
▁Avant	-10.9804
▁exploitants	-10.9804
▁élu	-10.9805
ép	-10.9808
▁commercial	-10.9808
▁air	-10.9811
▁conventionnelle	-10.9817
▁Normandie	-10.9817
▁Sch	-10.9817
▁dissolution	-10.9818
▁enjeux	-10.9818
▁interacadémique	-10.9818
achèvement	-10.9819
▁réduit	-10.9826
▁fichier	-10.9827
administratif	-10.983
▁Bertrand	-10.9831
▁servir	-10.9831
▁Plan	-10.9833
men	-10.984
land	-10.9842
▁lauréats	-10.9847
▁choisie	-10.9856
▁auditrice	-10.9857
ARTICLE	-10.9857
aides	-10.986
ARI	-10.9861
ye	-10.9863
▁délégués	-10.987
ati	-10.987
élèves	-10.9872
▁comportement	-10.9872
▁intervention	-10.9875
▁droite	-10.9876
▁substitute	-10.9876
▁Rhône	-10.9881
▁couverture	-10.9885
▁expérimental	-10.989
alcool	-10.9895
▁vocation	-10.9896
9°	-10.9897
▁extérieurs	-10.9899
/2021-09-	-10.9903
oni	-10.9905
▁instruments	-10.9907
Bernard	-10.9909
▁caisses	-10.9909
HO	-10.991
▁Gilbert	-10.9911
date	-10.9913
▁élabore	-10.9926
▁amende	-10.9927
▁Natura	-10.9935
▁flux	-10.9935
▁évaluer	-10.9938
▁moteur	-10.9944
gues	-10.9948
▁qualifié	-10.9957
▁AR	-10.9959
▁source	-10.9961
pin	-10.9965
▁légales	-10.9965
▁Bu	-10.9972
▁Patricia	-10.9973
▁confér	-10.9974
▁définissant	-10.9974
-2,	-10.9976
LL	-10.9978
▁étranger	-10.9979
AIR	-10.998
▁Francis	-10.9981
21-6	-10.9982
tro	-10.9983
▁occurrence	-10.9985
▁question	-10.9985
▁t	-10.9987
lay	-10.9991
▁saisi	-10.9994
vre	-11
nement	-11
▁Virginie	-11.0003
essais	-11.0006
HE	-11.0007
▁établissant	-11.0014
▁postal	-11.002
▁développer	-11.002
▁632	-11.0022
▁JU	-11.0023
8-2	-11.0024
▁théorique	-11.0024
cale	-11.0025
▁comporter	-11.0028
territorial	-11.0028
▁chimie	-11.0035
▁meilleurs	-11.0044
▁disposer	-11.0046
tz	-11.0046
▁14°	-11.0048
eg	-11.0048
▁mutualité	-11.0053
▁sauvetage	-11.0053
▁capitalisable	-11.0053
▁Nicole	-11.0054
▁conserve	-11.0055
OY	-11.0056
▁Gar	-11.0056
▁Gi	-11.0059
▁proche	-11.006
OC	-11.0061
002	-11.0061
▁charte	-11.0061
VEN	-11.0063
▁communauté	-11.0064
▁1999	-11.0065
dits	-11.0067
isme	-11.0067
▁pieds	-11.0068
alité	-11.007
▁décrit	-11.0072
▁Royaume	-11.0093
▁classification	-11.0093
▁encore	-11.0093
Ra	-11.0094
▁exclus	-11.0095
LON	-11.0096
▁Français	-11.0098
▁VAL	-11.0099
amb	-11.0104
ZI	-11.0106
ines	-11.0106
▁résident	-11.0107
Aude	-11.0108
▁définir	-11.0109
SY	-11.011
pri	-11.0111
▁rétabli	-11.0111
TES	-11.0113
▁départementales	-11.0116
▁composant	-11.0117
▁entrera	-11.0119
ECOT	-11.0131
▁instituant	-11.0133
▁maternité	-11.0133
▁rectificative	-11.0133
▁tourisme	-11.0133
▁diversité	-11.0134
entend	-11.0135
▁restent	-11.0139
▁SUR	-11.0141
iti	-11.0141
▁Li	-11.0143
-3.	-11.0143
établissements	-11.0144
omp	-11.0151
▁conventionnels	-11.0157
▁GI	-11.0171
▁culturel	-11.0172
▁INDP	-11.0173
▁retirer	-11.0173
CN	-11.0174
▁mobiles	-11.018
ante	-11.0182
▁normal	-11.0184
▁thermique	-11.0185
▁force	-11.0186
▁annuelles	-11.0189
Allemagne	-11.019
Centre	-11.02
CK	-11.0201
▁concentration	-11.0214
▁Officier	-11.0214
▁CENTRE	-11.0215
ann	-11.022
▁Je	-11.0228
yl	-11.0228
rat	-11.0229
ROU	-11.023
▁Chef	-11.023
Léa	-11.0233
▁poursuite	-11.0233
▁Elisabeth	-11.0239
▁Gabriel	-11.0242
▁humains	-11.0242
▁primes	-11.0243
▁premières	-11.025
▁facteurs	-11.0253
▁magasin	-11.0253
▁taille	-11.0253
▁faune	-11.0254
établir	-11.0254
▁Pré	-11.0255
▁constatée	-11.0257
tic	-11.026
▁handicapés	-11.0267
entraînement	-11.0267
▁limitation	-11.0268
Unis	-11.0269
Ukraine	-11.0271
▁précisé	-11.0281
loi	-11.0283
▁historique	-11.0287
▁engagées	-11.0289
officine	-11.0294
▁entrant	-11.0294
uz	-11.0298
▁valablement	-11.0299
▁supprimées	-11.0305
ente	-11.0306
▁bloc	-11.0308
Mathieu	-11.0313
Christine	-11.0313
obtenir	-11.0313
ow	-11.0314
▁horaire	-11.0315
▁terminal	-11.0316
▁Etienne	-11.0319
▁anciens	-11.0325
▁passe	-11.0325
Anthony	-11.0334
▁SELARL	-11.0334
▁chauffage	-11.0334
▁raccordement	-11.0334
▁dépendantes	-11.0336
▁extérieures	-11.0341
▁déterminés	-11.0345
▁utiles	-11.0345
vin	-11.0349
▁cellule	-11.0349
▁registres	-11.035
NON	-11.0357
ssent	-11.0362
▁préalables	-11.0368
enquête	-11.0371
NOT	-11.0373
épargne	-11.0375
▁reçoit	-11.0375
▁terrorisme	-11.0375
Désigné	-11.0375
▁dévolues	-11.0376
▁enregistré	-11.0388
▁facture	-11.039
▁autonome	-11.039
▁signalement	-11.0391
▁LO	-11.0393
▁principales	-11.0393
Benjamin	-11.0396
▁obstétrique	-11.0397
398	-11.04
▁2025	-11.0405
▁contacter	-11.0411
▁loyer	-11.0415
▁intellectuelle	-11.0416
▁4111-2	-11.0416
▁constituant	-11.0416
▁foncier	-11.0416
▁fusion	-11.0416
▁musique	-11.0416
▁onze	-11.0416
▁fixes	-11.0417
▁violation	-11.0417
▁ROU	-11.0418
usqu	-11.0422
▁Na	-11.0432
ize	-11.0435
▁ponctuelle	-11.0437
▁syndicale	-11.0438
▁Provence	-11.0441
▁tarifaire	-11.0443
ns	-11.0449
▁conventionnel	-11.0451
▁management	-11.0457
assi	-11.0461
▁pharmaciens	-11.0471
▁technologiques	-11.0477
▁Vu	-11.048
▁carbone	-11.0481
Co	-11.0485
▁institutions	-11.0488
▁juridictions	-11.0492
▁entendu	-11.0493
Ana	-11.0495
étudiant	-11.0497
▁foncière	-11.0498
cation	-11.0509
▁Romain	-11.051
▁appui	-11.0511
HOU	-11.0512
Lucie	-11.0516
document	-11.0521
infraction	-11.0521
André	-11.0522
▁SO	-11.0522
Simon	-11.0522
adoption	-11.0522
▁ménages	-11.0531
▁250	-11.0535
▁rendue	-11.0537
▁recrutements	-11.0538
▁Rhin	-11.0539
▁traçabilité	-11.054
▁familiale	-11.0543
▁existe	-11.0551
can	-11.0558
▁minimales	-11.056
extérieur	-11.0563
Gironde	-11.0563
Juliette	-11.0564
▁radiée	-11.0568
▁communiqué	-11.0572
▁journée	-11.0574
encontre	-11.0582
Hérault	-11.0582
ION	-11.0583
▁adresser	-11.0583
▁(2	-11.0584
▁conservent	-11.0585
estimation	-11.0589
associations	-11.059
viennent	-11.0594
▁envoi	-11.0597
Matthieu	-11.0606
sociaux	-11.0606
ray	-11.061
▁nommées	-11.0611
▁indiquées	-11.0612
Marine	-11.0615
EV	-11.0616
ino	-11.0621
CPE	-11.0622
▁95	-11.0623
Aquitaine	-11.0623
Mohamed	-11.0623
▁vitesse	-11.0624
VII	-11.0629
Ar	-11.0632
Laura	-11.0633
apport	-11.0637
▁majoré	-11.0637
ETTE	-11.0638
▁Metz	-11.0645
▁Son	-11.0646
inc	-11.0647
▁unitaire	-11.0648
mou	-11.0649
▁Pauline	-11.0649
0-2	-11.0651
individuellement	-11.0652
13-1	-11.0658
ath	-11.0659
▁hebdomadaire	-11.0665
▁trafic	-11.0665
ages	-11.0674
/2021-12-3	-11.0678
VIII	-11.0681
ech	-11.0683
▁1975	-11.0684
sse	-11.0686
▁accident	-11.0686
▁Hu	-11.0687
UM	-11.0691
Isabelle	-11.0692
▁Sylvain	-11.0692
▁Maxime	-11.0694
CIP	-11.0701
Alain	-11.0701
▁européennes	-11.0704
Académie	-11.0708
insaisissabilité	-11.0708
▁consulaires	-11.0708
illa	-11.071
▁déposée	-11.0716
▁chimiques	-11.0717
▁consommateurs	-11.072
▁COR	-11.0724
▁Ber	-11.0731
euil	-11.0734
enveloppe	-11.0734
index	-11.0744
▁Can	-11.0744
▁vi	-11.0748
adolescent	-11.0749
équilibre	-11.075
▁savoirs	-11.0755
DR	-11.0758
▁San	-11.0762
▁Patrice	-11.0762
▁dispensés	-11.0767
▁Alpes	-11.0772
lat	-11.0775
aut	-11.0775
▁tôt	-11.0775
durable	-11.0777
▁commandes	-11.0778
▁68	-11.0782
LY	-11.079
veloppement	-11.0791
▁précoce	-11.0793
▁prévoyance	-11.0793
▁incluant	-11.0793
▁mail	-11.0794
▁Liste	-11.0795
LOT	-11.0798
Clara	-11.0799
▁Port	-11.0801
sous	-11.0803
2136	-11.0805
▁prévisionnelle	-11.0807
▁laboratoires	-11.0807
▁Lucie	-11.0809
▁comprendre	-11.081
CHA	-11.0811
▁indépendant	-11.0811
nay	-11.0813
▁PR	-11.0816
▁BER	-11.0825
▁Groupe	-11.0832
▁tension	-11.0835
▁thon	-11.0836
▁référentiels	-11.084
▁échéance	-11.0841
Lieu	-11.0842
ste	-11.0845
▁Béatrice	-11.0848
▁So	-11.0848
▁prescrit	-11.0851
▁GAR	-11.0851
ber	-11.0851
TRER	-11.0859
▁assurent	-11.0866
▁Sarah	-11.0868
21-7	-11.0874
▁consultatif	-11.0878
▁pollution	-11.0878
▁engagement	-11.0886
▁FR	-11.0886
ug	-11.0892
Renseignement	-11.0893
SN	-11.0899
▁issu	-11.09
▁Mathieu	-11.0901
bel	-11.0905
COURT	-11.0908
Bruno	-11.0909
▁préparatoires	-11.0915
ED	-11.0918
▁Bour	-11.0921
▁Justice	-11.0921
▁dissoute	-11.0921
▁remplissant	-11.0921
armateur	-11.0921
▁réunit	-11.0923
agri	-11.0924
▁daté	-11.0928
▁Suzanne	-11.0942
▁compagnie	-11.0944
illi	-11.0944
▁conséquence	-11.0944
Manon	-11.0952
▁ME	-11.0956
▁majeure	-11.0962
▁exploitant	-11.0963
▁propagation	-11.0965
▁concessionnaire	-11.0965
agne	-11.0969
▁participent	-11.097
▁BU	-11.0977
éra	-11.0977
uis	-11.0978
ILLON	-11.0979
adhésion	-11.0982
pp	-11.0983
lement	-11.0983
inaptitude	-11.0987
▁Simon	-11.0989
équipements	-11.099
41-8	-11.0992
▁Direction	-11.0993
▁162-17	-11.0995
wa	-11.0998
▁réduite	-11.1
hal	-11.1002
TIN	-11.1004
▁intermédiaire	-11.1005
▁VER	-11.1008
escadron	-11.1008
▁civique	-11.1008
▁passé	-11.1008
▁remplit	-11.1011
AZ	-11.1016
ras	-11.1017
Mont	-11.1018
oire	-11.1022
▁CHAR	-11.1022
▁conduisa	-11.1024
one	-11.1026
▁signal	-11.103
▁supports	-11.103
▁relevé	-11.1031
EG	-11.1035
off	-11.1038
for	-11.1046
▁électorales	-11.1046
Ro	-11.105
Yvelines	-11.1052
acheminement	-11.1052
▁contingent	-11.1052
▁mémoire	-11.1052
mandant	-11.1057
▁ports	-11.1057
eb	-11.1059
▁repris	-11.106
.5.	-11.1062
rée	-11.1071
ONNE	-11.1072
▁régisseur	-11.1072
▁insuffisante	-11.1073
étend	-11.1074
▁distributeur	-11.1076
▁semaine	-11.1076
Lors	-11.1078
▁présentés	-11.1079
Adrien	-11.1084
Alexis	-11.1084
▁gratuit	-11.1095
Germain	-11.1095
▁efficace	-11.1096
▁train	-11.1098
▁MO	-11.1103
intéressée	-11.1106
▁446-1	-11.1107
▁Sciences	-11.111
▁al	-11.1111
cal	-11.1114
▁Juliette	-11.1116
▁Thérèse	-11.1118
ration	-11.1119
▁dédiée	-11.1119
lage	-11.112
▁cinématographi	-11.112
▁représentative	-11.112
appuie	-11.1122
▁limité	-11.1123
▁fournisseurs	-11.1127
▁collectives	-11.1128
▁détenus	-11.1129
▁lois	-11.1136
▁gouvernance	-11.114
Isère	-11.1141
Toute	-11.1141
▁pluriannuel	-11.1147
roy	-11.1149
ko	-11.1149
▁sièges	-11.1154
▁Rou	-11.1159
▁dépense	-11.1165
▁pilote	-11.1166
▁fournitures	-11.1167
▁réputée	-11.1168
▁culturelle	-11.1175
▁travailleur	-11.1177
▁Brigitte	-11.1177
aquaculture	-11.1184
▁contient	-11.1184
▁modernisation	-11.1184
▁fiscalité	-11.1184
▁dépassement	-11.1187
her	-11.1198
▁faute	-11.1203
Lucas	-11.1208
▁élaboré	-11.1212
▁loisirs	-11.1217
atteindre	-11.1219
▁correspondante	-11.1222
rac	-11.1226
INCONNU	-11.1228
▁couverts	-11.1229
▁échelons	-11.123
▁prononce	-11.1234
ade	-11.1241
▁aptitude	-11.1248
▁Pe	-11.125
▁instituts	-11.1254
atrice	-11.1257
▁instructions	-11.1258
▁assistant	-11.1259
▁"5.	-11.1259
▁secondaire	-11.1259
ouche	-11.126
▁opératoire	-11.126
TÉ	-11.1263
ski	-11.1265
▁certaine	-11.1267
NES	-11.1268
▁expertise	-11.1268
▁Victor	-11.1269
▁Champ	-11.1269
dire	-11.127
mann	-11.1272
▁multi	-11.1273
▁CONCOURS	-11.1273
▁photo	-11.1274
▁Ho	-11.1277
▁demeurent	-11.1282
▁usages	-11.1285
mand	-11.1286
▁vérifié	-11.1292
▁Th	-11.1292
▁soi	-11.1293
▁réutilisation	-11.1293
ECO	-11.1297
Nota	-11.1299
lis	-11.1306
Rapha	-11.1309
atteinte	-11.1309
ANC	-11.1311
Eva	-11.1313
▁Clément	-11.1314
2130	-11.1318
▁diagnostique	-11.1318
▁préparant	-11.1318
▁bulletins	-11.132
BR	-11.1324
▁66	-11.1327
RIS	-11.1338
▁financements	-11.1343
▁prestataires	-11.1345
▁indu	-11.1349
Franck	-11.1355
ENNE	-11.1358
▁Delphine	-11.1359
ANCE	-11.1359
▁captures	-11.1361
importance	-11.1363
▁infraction	-11.1365
▁connexion	-11.1366
▁saisine	-11.1366
▁ouvrir	-11.1367
▁Bon	-11.137
▁standards	-11.1371
▁déclarée	-11.1376
▁présentées	-11.138
PRM	-11.1381
▁va	-11.1381
▁événements	-11.139
▁temporairement	-11.1391
Louise	-11.1392
▁constitutionnel	-11.1392
▁315	-11.1394
mel	-11.1397
▁danger	-11.1399
cou	-11.1404
▁bio	-11.1408
éclairage	-11.1408
▁Limite	-11.1408
▁routiers	-11.1409
▁di	-11.1415
▁fixer	-11.1419
▁He	-11.1419
homme	-11.142
ban	-11.1421
5-3	-11.1428
oral	-11.1437
LOU	-11.1438
ache	-11.1443
LER	-11.1446
▁précédents	-11.1446
effectif	-11.1447
coefficient	-11.1447
service	-11.1447
▁versements	-11.1451
THE	-11.1452
▁gauche	-11.1454
▁prescriv	-11.1454
Indre	-11.1454
IEN	-11.1456
entreprises	-11.1459
▁transmissions	-11.1459
▁important	-11.146
▁thèmes	-11.1461
▁2019,	-11.1465
▁67	-11.1466
▁accomplis	-11.1474
▁Emile	-11.1475
▁coefficients	-11.1475
naire	-11.1477
ist	-11.1479
-6,	-11.1482
gon	-11.1484
▁dirigeant	-11.1491
arrivée	-11.1493
the	-11.1494
échelle	-11.1496
COM	-11.1497
▁déontologie	-11.1499
▁nécessitant	-11.1499
▁assisté	-11.1499
▁kg	-11.1501
▁Bri	-11.1506
RU	-11.1508
▁DANS	-11.1512
▁instance	-11.1517
▁attribuées	-11.1519
▁MI	-11.1519
5-4	-11.1521
TTE	-11.1525
▁métier	-11.153
▁bassin	-11.1531
▁OR	-11.1533
je	-11.1535
▁vidéo	-11.1545
▁conjointe	-11.1551
émetteur	-11.1557
▁120	-11.1558
▁offres	-11.156
▁quotidienne	-11.1571
4-6	-11.1572
▁Marine	-11.1572
▁supérieures	-11.1575
igue	-11.1575
▁MOU	-11.1576
▁alimentaire	-11.1576
▁foyer	-11.1577
▁retiré	-11.1578
▁MOR	-11.1581
▁2.2.	-11.1586
Alice	-11.1587
▁formateurs	-11.1587
▁XI	-11.1588
▁gériatrie	-11.1591
▁sauvegarde	-11.1591
▁2020-2021	-11.1592
▁auxiliaires	-11.1592
▁BON	-11.1603
▁proposées	-11.1605
▁exemplaire	-11.1606
▁volet	-11.1607
inter	-11.1619
▁fraudes	-11.162
▁technologie	-11.1623
pro	-11.1628
Var	-11.1634
▁Contrôle	-11.1638
▁capitaux	-11.1638
▁précédemment	-11.1638
▁grille	-11.1638
inscrivent	-11.1638
▁terres	-11.1639
▁rentrée	-11.164
▁dose	-11.1642
▁15°	-11.1645
▁Hubert	-11.1647
▁Bois	-11.165
▁comp	-11.1652
bert	-11.1652
▁musées	-11.1657
▁documentaire	-11.1659
▁consultables	-11.1662
uses	-11.1671
▁valide	-11.168
mu	-11.1684
▁rectification	-11.1684
▁indexation	-11.1684
▁banque	-11.1684
FORT	-11.1684
▁Légion	-11.1685
▁étapes	-11.1686
▁2-2	-11.1688
▁Alice	-11.1689
NY	-11.169
▁créer	-11.1691
▁221-14	-11.1699
▁obtenue	-11.1703
composantes	-11.1705
▁Léon	-11.1705
▁1962	-11.1706
▁plateformes	-11.171
REK	-11.171
Bou	-11.1718
▁dû	-11.1723
▁respectant	-11.173
▁déclassement	-11.1731
▁CNIL	-11.1731
▁accordées	-11.1735
vironnementales	-11.1738
itaire	-11.1741
▁urgences	-11.1743
▁instituée	-11.1744
▁détenues	-11.1748
QUET	-11.175
èle	-11.1751
IERE	-11.1753
venir	-11.1764
ans	-11.1766
cent	-11.177
31-1	-11.177
tur	-11.1775
Organisation	-11.1776
recherche	-11.1776
▁côté	-11.1778
▁flore	-11.1778
▁téléversement	-11.1778
▁futur	-11.1778
tru	-11.1778
Emma	-11.1778
▁réglementés	-11.1778
▁Gui	-11.1779
▁suspendue	-11.1779
-4,	-11.1784
▁subordonnée	-11.1786
ales	-11.1788
▁déléguer	-11.179
▁allouée	-11.1794
▁contribuer	-11.1798
▁consultés	-11.1798
21-9	-11.1799
▁correspondantes	-11.1799
41-1	-11.1802
▁périodique	-11.1808
enfants	-11.1815
▁finalités	-11.1815
▁faible	-11.182
SAINT	-11.1822
Benoît	-11.1824
illage	-11.1824
extradition	-11.1825
▁entrée	-11.1829
▁apporter	-11.1838
gouvernementale	-11.184
oli	-11.1841
▁2021-8	-11.1843
▁adopté	-11.1844
▁sauvages	-11.1849
▁Edouard	-11.1849
▁grands	-11.1851
▁plafonds	-11.1852
▁TABLEAU	-11.1857
AVE	-11.1857
▁signataire	-11.186
nière	-11.1867
rait	-11.187
▁GUI	-11.187
▁prescripteur	-11.1872
▁préventive	-11.1872
▁Directeur	-11.1873
RH	-11.1874
▁dépasse	-11.1877
▁retenus	-11.1877
▁antérieurement	-11.1881
▁crises	-11.1881
▁souhaitent	-11.1883
gede	-11.1891
PR	-11.1891
▁GO	-11.1892
▁paysage	-11.1896
Sa	-11.1898
▁fonctionnelles	-11.1904
▁sé	-11.1904
RAN	-11.1904
mp	-11.1906
▁vasculaire	-11.1907
YS	-11.1909
ARS	-11.1911
QUI	-11.1912
▁arrêt	-11.1913
RN	-11.1913
acceptation	-11.192
▁fermeture	-11.192
▁tuteur	-11.192
▁fil	-11.192
▁Nature	-11.192
MENH	-11.1921
logi	-11.1924
▁convoqués	-11.1926
▁533	-11.1932
▁Mes	-11.1932
AGNE	-11.1944
▁vaccinal	-11.1947
rot	-11.1947
▁équivalentes	-11.1953
CON	-11.1953
ALLE	-11.1957
▁enregistrement	-11.1962
▁123-1	-11.1963
▁régulière	-11.1964
▁associative	-11.1968
▁permanence	-11.1968
nal	-11.1969
Mo	-11.1973
▁contrepartie	-11.1973
4-9	-11.1975
▁industriel	-11.1977
▁312-1	-11.1982
tour	-11.1983
départementale	-11.1994
ative	-11.2004
ira	-11.2005
▁compatible	-11.2005
▁marque	-11.2005
▁communiquées	-11.2007
lla	-11.2008
▁affectées	-11.2009
300	-11.2013
▁climat	-11.2015
▁combattants	-11.2016
▁souveraineté	-11.2016
Essonne	-11.2016
▁infirmière	-11.2016
Bouches	-11.2017
alerte	-11.2018
▁effectue	-11.202
SSAP	-11.2023
▁exprimés	-11.2023
FP	-11.2024
▁réservé	-11.2025
▁Meurthe	-11.2027
▁antérieur	-11.2036
▁2016/	-11.2043
rel	-11.2047
RIER	-11.2052
▁significative	-11.2053
▁commerces	-11.2053
▁Mathilde	-11.2055
▁Ti	-11.2056
▁devenue	-11.2057
▁Chantal	-11.2061
▁SU	-11.2062
▁réemploi	-11.2064
▁photocopie	-11.2064
▁téléprocédure	-11.2064
▁gros	-11.2065
IGNY	-11.2066
▁Bouches	-11.2066
▁trouve	-11.2068
rh	-11.2074
▁Benjamin	-11.2088
▁Pé	-11.2094
nard	-11.2095
zy	-11.2098
UF	-11.21
▁qualifiés	-11.21
▁objets	-11.21
▁conclue	-11.21
▁éventuelle	-11.2101
▁mouvement	-11.2102
▁doté	-11.2107
▁pertinence	-11.2113
▁Fernand	-11.2113
▁confirmation	-11.2114
Savoie	-11.2115
vingt	-11.2116
part	-11.2118
ena	-11.2118
Loir	-11.212
uel	-11.2123
GI	-11.2125
▁invités	-11.2128
▁familial	-11.2134
▁rapportant	-11.2134
ives	-11.2135
▁préfets	-11.2137
▁Roland	-11.2137
▁délivrées	-11.214
FA	-11.2141
▁NF	-11.2142
▁salle	-11.2143
▁Cou	-11.2149
▁Pas	-11.2151
DER	-11.2158
▁National	-11.2158
221-15	-11.216
▁exclusif	-11.2162
▁carrières	-11.2166
▁221-16	-11.2166
▁The	-11.2176
PS	-11.2177
▁Légi	-11.2185
▁BEAU	-11.2191
▁infirmier	-11.2197
▁fichiers	-11.2199
▁mobile	-11.2201
LIER	-11.2202
▁organiser	-11.2203
▁min	-11.2209
emplacement	-11.2209
affichage	-11.221
▁procuration	-11.221
Didier	-11.2215
▁prononcer	-11.2216
audition	-11.2218
▁procédés	-11.2218
▁1997	-11.2228
ros	-11.2235
▁Agence	-11.2235
ya	-11.2236
▁décide	-11.2243
▁habitants	-11.2249
▁génétique	-11.2251
▁Auvergne	-11.2251
▁233	-11.2253
fér	-11.2255
▁suffisante	-11.2256
soit	-11.2257
éna	-11.2257
▁femme	-11.2261
▁capable	-11.2262
▁constatant	-11.2265
temps	-11.2265
▁DI	-11.2266
habitats	-11.2267
▁élevée	-11.2281
▁Mal	-11.2282
INTE	-11.2293
▁thème	-11.2301
▁petite	-11.2301
ADE	-11.2303
imposition	-11.2308
▁représenter	-11.2309
▁confiance	-11.2309
▁biogaz	-11.2309
▁évolutions	-11.2318
▁possibilités	-11.232
▁2020-169	-11.2322
SSI	-11.2323
▁accompli	-11.2325
hy	-11.2326
Jeanne	-11.2326
▁détaillé	-11.2333
▁Huissier	-11.2333
▁Gestion	-11.2335
▁Audrey	-11.2341
ate	-11.2342
gne	-11.2345
▁SERVICE	-11.2351
▁vérifie	-11.2352
▁BR	-11.2352
image	-11.2354
▁art	-11.2356
Car	-11.2356
interprétation	-11.2359
▁HOSPITALIER	-11.2359
praticien	-11.2359
▁sexe	-11.2359
géographie	-11.236
faire	-11.2361
▁plantes	-11.2362
▁anticipée	-11.2365
%	-11.2366
quatre	-11.2366
én	-11.2368
▁possibles	-11.2369
ral	-11.237
ida	-11.2373
▁exprimé	-11.2374
▁destinataires	-11.2382
▁adressés	-11.2386
▁325	-11.2395
▁dispense	-11.2396
▁SAP	-11.2396
▁aéronef	-11.2398
▁parc	-11.2401
▁subir	-11.2402
ng	-11.2404
ôpitaux	-11.2407
▁indéterminée	-11.2409
▁volonté	-11.2409
▁légaux	-11.2409
▁cautionnement	-11.2409
▁Civil	-11.2409
▁transitoire	-11.2409
3-9	-11.2412
TU	-11.2412
▁rempli	-11.2414
inscrit	-11.2416
▁fréquences	-11.2416
▁appellation	-11.242
▁partenaire	-11.242
fond	-11.242
ep	-11.2423
ara	-11.2429
▁considérés	-11.2434
VO	-11.2434
▁constat	-11.2441
▁stock	-11.2449
▁constatés	-11.2449
▁Mu	-11.2449
▁aurait	-11.245
▁responsabilités	-11.245
▁quartier	-11.2453
OP	-11.2453
9-2	-11.2456
▁Etablissement	-11.2459
▁circuit	-11.2459
▁recyclage	-11.2459
▁portuaire	-11.2459
▁Certificat	-11.246
▁impérativement	-11.246
▁Te	-11.2462
▁Alexandra	-11.2465
pé	-11.2466
dj	-11.2467
çant	-11.2467
Henri	-11.2467
eille	-11.2468
▁saisir	-11.2475
▁réponses	-11.2476
▁échec	-11.2477
▁Office	-11.2477
▁composante	-11.2481
▁socio	-11.2481
▁FOR	-11.2481
▁exploitations	-11.2483
dou	-11.2485
gin	-11.2489
▁autonomes	-11.2491
▁coordonne	-11.2493
▁requêtes	-11.25
▁promus	-11.25
▁Var	-11.2504
BDS	-11.2507
ALL	-11.2508
▁OFFICE	-11.251
▁touristique	-11.251
▁Adresse	-11.2512
▁hoc	-11.2512
▁stationnement	-11.2515
issement	-11.2516
▁or	-11.2516
▁Terres	-11.2518
Conseil	-11.2519
▁77	-11.2519
ches	-11.252
/2021-06-	-11.2522
▁conduites	-11.2524
FPE	-11.2529
▁gel	-11.2531
arthrite	-11.2532
bre	-11.2532
▁délivre	-11.2535
pon	-11.2536
▁exceptionnelles	-11.2536
▁tonnes	-11.2539
▁réaction	-11.254
▁00	-11.2547
▁Cas	-11.2547
nalisation	-11.2548
BOU	-11.2551
UG	-11.2552
itu	-11.2554
▁dotations	-11.2559
▁rédacteur	-11.2561
▁spéciaux	-11.2561
Margaux	-11.2561
▁micro	-11.2561
GEN	-11.2562
▁étendue	-11.2563
Nathalie	-11.257
▁révisé	-11.2576
ita	-11.2577
▁majeur	-11.2578
▁retenu	-11.2579
▁qualifiée	-11.2582
éré	-11.2583
▁Marguerite	-11.2583
opérations	-11.2583
llo	-11.2585
▁GRAND	-11.2585
▁conclure	-11.2588
▁énergétiques	-11.2588
▁HO	-11.2591
▁réel	-11.2592
▁Man	-11.2597
▁préfète	-11.26
▁imparti	-11.2602
▁Am	-11.2604
INI	-11.2604
œuvres	-11.2606
▁consignes	-11.2608
▁Puy	-11.2609
▁dangereuses	-11.2612
▁JA	-11.2613
▁répondent	-11.2616
CY	-11.2617
nage	-11.262
▁214-1	-11.2621
▁Inter	-11.2621
cq	-11.2622
sch	-11.2626
▁Fabrice	-11.2629
gh	-11.2635
▁462	-11.2636
ASSE	-11.2639
▁avenants	-11.264
gens	-11.2649
▁regroup	-11.2649
▁évalué	-11.2649
009	-11.2654
▁diplomatique	-11.2658
▁créance	-11.2658
▁mécanique	-11.2658
▁accrédité	-11.2663
▁récapitulatif	-11.2663
El	-11.2663
▁sécurisation	-11.2663
▁évaluateurs	-11.2663
▁intérêt	-11.2665
▁transporteur	-11.2665
▁ministérielle	-11.2666
▁fiscal	-11.2669
▁331	-11.2669
rist	-11.267
▁analyses	-11.2672
▁suffisant	-11.2672
▁Christiane	-11.2672
DRH	-11.2674
conformité	-11.2675
▁JO	-11.2677
.2.1.	-11.2679
▁existant	-11.2682
ria	-11.2686
▁Fer	-11.2687
▁1944	-11.2687
▁1961	-11.269
▁intermédiaires	-11.269
▁6152	-11.2693
▁cdg	-11.2697
dier	-11.2699
▁...	-11.2701
▁choisis	-11.2703
▁habilitées	-11.2705
hou	-11.2706
▁péri	-11.2708
emprunt	-11.271
oncernant	-11.2711
nutrition	-11.2712
▁fondation	-11.2714
▁contamination	-11.2714
▁dépourvu	-11.2714
▁indemnitaire	-11.2714
▁monnaie	-11.2714
▁longueur	-11.2721
▁couple	-11.2725
▁atteindre	-11.2726
▁repose	-11.2732
Florian	-11.2737
▁transversale	-11.2738
ç	-11.274
disant	-11.2742
▁certifié	-11.2743
ATI	-11.2743
▁Ham	-11.2744
▁injection	-11.2744
▁dette	-11.2746
▁1945	-11.2746
EUX	-11.2749
▁améliorer	-11.2753
▁apporte	-11.2753
uit	-11.2754
▁Code	-11.2758
ii	-11.2762
▁(4)	-11.2765
plénipotentiaire	-11.2766
▁artillerie	-11.2766
▁dixième	-11.2767
▁vacants	-11.2769
▁coopératives	-11.2771
code	-11.2772
vel	-11.2773
Amélie	-11.2779
identifier	-11.2779
utiliser	-11.2779
Emilie	-11.2779
▁retenues	-11.2781
▁TE	-11.2788
▁Nationale	-11.2792
ERT	-11.2793
pér	-11.2799
cur	-11.2803
aine	-11.2804
ola	-11.2807
▁élément	-11.2812
▁mobilités	-11.2814
▁attribués	-11.2815
CU	-11.2818
▁Numéro	-11.2818
▁jardin	-11.2818
▁voyageurs	-11.2819
▁Santé	-11.2819
▁83-63	-11.2821
▁appliquées	-11.2824
▁FL	-11.2825
BER	-11.2826
iser	-11.2829
▁concernent	-11.2833
communications	-11.284
xi	-11.2842
otre	-11.285
▁précisés	-11.2853
▁DÉ	-11.2856
▁proposée	-11.2856
▁contrôler	-11.2858
12-7	-11.2862
avantage	-11.2863
▁appliquer	-11.2865
▁tranche	-11.2868
▁nominative	-11.2871
▁absolue	-11.2873
▁Sol	-11.2875
▁porteur	-11.2877
NP	-11.2881
▁évolution	-11.2881
▁Van	-11.2883
▁1973	-11.2893
▁instituées	-11.2895
▁RÉ	-11.2898
ÉE	-11.29
nie	-11.2906
▁ultérieure	-11.2907
▁déposées	-11.2911
CHI	-11.2913
-4.	-11.2915
▁artistiques	-11.2917
▁signes	-11.2919
▁COU	-11.292
▁renouvelée	-11.2921
▁clause	-11.2921
odontologie	-11.2923
▁Recueil	-11.2923
▁constructeur	-11.2923
▁souscrit	-11.2923
▁tarification	-11.2923
▁AP	-11.2924
▁ascenseurs	-11.2924
▁bande	-11.2927
▁préavis	-11.2929
▁remplace	-11.2929
▁vin	-11.2932
immobilier	-11.2939
osse	-11.2942
Ha	-11.2944
praticiens	-11.2945
dic	-11.2947
▁Renée	-11.2948
▁1943	-11.295
▁avancement	-11.2951
▁Leur	-11.2951
▁Ju	-11.2951
▁redevable	-11.2975
▁bulletin	-11.2975
▁syndicat	-11.2975
▁australe	-11.2976
isolement	-11.2976
▁TITRE	-11.2976
▁chaude	-11.2977
▁bi	-11.298
▁parts	-11.2984
ries	-11.2989
▁Ag	-11.2993
▁salariale	-11.2993
▁rappel	-11.2993
Gilles	-11.2994
Yann	-11.2994
sol	-11.2995
▁1998	-11.2995
OV	-11.2996
▁approprié	-11.3
▁541-1	-11.3001
▁opérationnelles	-11.3002
elli	-11.3005
▁proven	-11.3005
▁sûretés	-11.3011
▁changements	-11.3013
▁Moselle	-11.3014
▁212-1	-11.3015
raient	-11.3018
IGN	-11.3018
▁constatées	-11.3025
▁antarctiques	-11.3029
▁construit	-11.3029
▁frégate	-11.3029
▁renseigné	-11.3029
▁Corinne	-11.3034
idi	-11.3034
gie	-11.3043
▁69	-11.3045
TY	-11.3047
▁Christelle	-11.3048
▁couvert	-11.3053
▁Et	-11.3054
▁main	-11.3059
ions	-11.3059
▁Manuel	-11.3061
▁immeuble	-11.3071
▁to	-11.3078
▁créancier	-11.3082
▁bancaire	-11.3082
▁blanchiment	-11.3083
▁faculté	-11.3083
audience	-11.3083
▁couvrir	-11.3084
▁journalier	-11.3086
▁substitut	-11.3092
▁absence	-11.3095
▁perçue	-11.3097
ick	-11.3101
▁cycles	-11.3101
adjoint	-11.3102
▁Italie	-11.3106
▁envisagé	-11.3109
▁importante	-11.3109
▁manquements	-11.3112
▁Allemagne	-11.3113
▁académiques	-11.3117
rine	-11.3125
▁223	-11.3126
▁réparti	-11.313
ham	-11.3134
BEL	-11.3136
agglomération	-11.3137
assainissement	-11.3137
▁bibliothèques	-11.3137
▁prévoient	-11.3137
▁radioprotection	-11.3137
▁transparence	-11.3137
▁justification	-11.3137
▁manœuvre	-11.3137
UNSA	-11.3138
▁européens	-11.3143
▁dit	-11.3144
▁pression	-11.3147
▁annexées	-11.3149
▁attestations	-11.3153
utilisateur	-11.3155
Clémence	-11.3155
Damien	-11.3155
▁appliquée	-11.3156
GO	-11.3157
▁faites	-11.316
▁Marion	-11.3162
Théo	-11.3162
▁combustibles	-11.3164
▁pli	-11.3168
▁professeure	-11.3173
31-5	-11.3174
▁exploités	-11.3174
▁pénales	-11.3189
▁débarquement	-11.3191
▁milliard	-11.3191
▁superficie	-11.3191
▁master	-11.3191
▁Toulon	-11.3191
▁adolescents	-11.3193
▁évaluées	-11.3196
exerce	-11.3197
ARR	-11.3197
▁communs	-11.32
▁notifier	-11.3204
ima	-11.3205
▁dispensée	-11.3206
▁constate	-11.3207
ori	-11.321
▁313-1	-11.321
Audrey	-11.321
EI	-11.3212
▁temporaires	-11.3212
▁budgétaires	-11.3216
▁Richard	-11.3218
▁HER	-11.3223
▁rayonnements	-11.3225
▁accompagnement	-11.3227
▁évalue	-11.3227
▁machines	-11.3228
500	-11.3228
IP	-11.3234
ING	-11.3236
axe	-11.3237
▁pénalités	-11.3242
▁Protocole	-11.3245
▁modulation	-11.3245
▁métallurgie	-11.3245
édition	-11.3245
CAP	-11.3245
▁plastique	-11.3246
nou	-11.3248
▁existants	-11.325
▁consulaire	-11.325
▁341	-11.3255
mus	-11.3255
▁librement	-11.3256
▁adaptation	-11.3256
lant	-11.3259
▁Gr	-11.3262
comptable	-11.3266
Sylvain	-11.3267
▁58	-11.3271
▁Sé	-11.3272
fect	-11.328
oyer	-11.3281
▁exercices	-11.3284
▁BRI	-11.3285
▁ventes	-11.3294
extinction	-11.33
incapacité	-11.33
▁réservation	-11.33
▁préparé	-11.33
▁champs	-11.33
▁TVA	-11.3303
▁énergies	-11.3306
▁avantages	-11.3306
▁atteste	-11.3306
Valentin	-11.3308
▁311-1	-11.3309
trait	-11.3316
hen	-11.3316
▁intégrée	-11.3319
Victor	-11.3321
▁meilleure	-11.3324
▁Gironde	-11.3324
▁fluvi	-11.3326
▁correspondants	-11.3329
▁contenue	-11.3335
ié	-11.3339
log	-11.3342
avi	-11.3342
▁choisir	-11.3347
erv	-11.3352
3.2	-11.3354
▁descriptif	-11.3355
▁zéro	-11.3355
▁parentale	-11.3355
8700	-11.3355
ROT	-11.3357
▁partenariat	-11.3357
▁capture	-11.3357
▁chaleur	-11.336
▁Karine	-11.3364
expédition	-11.3365
▁Rapha	-11.3365
▁collégiale	-11.3367
▁monde	-11.3367
▁Simone	-11.3371
hôpital	-11.3377
RS	-11.3378
isson	-11.3382
▁Gou	-11.3392
dia	-11.3393
▁Her	-11.3397
▁similaires	-11.3402
▁attestée	-11.3405
▁RAEP	-11.3406
▁Aurélie	-11.3407
▁modifiés	-11.3407
▁intensive	-11.341
▁locataire	-11.341
▁manutention	-11.341
▁positif	-11.341
▁pénalité	-11.3414
▁digue	-11.3416
▁421-1	-11.3418
AYE	-11.3418
▁SOU	-11.3419
▁FRAN	-11.342
▁Manche	-11.3426
▁bureaux	-11.3426
▁impact	-11.3428
pul	-11.3431
▁demandeurs	-11.3432
ges	-11.3432
▁Su	-11.3442
▁collections	-11.3444
▁NATIONALE	-11.3445
enc	-11.3445
▁approuvée	-11.3448
UP	-11.3451
Fa	-11.3454
▁CAP	-11.3455
▁2023.	-11.3457
▁Thi	-11.346
▁satisfaisant	-11.3461
œ	-11.3465
▁développé	-11.3465
▁ophtalmologie	-11.3465
exportation	-11.3467
▁autant	-11.3467
▁équivalences	-11.3468
▁Chi	-11.3469
▁paragraphes	-11.3474
UX	-11.3476
▁présentes	-11.3477
▁Belle	-11.3477
squels	-11.3477
▁Adrien	-11.348
▁parvenir	-11.3485
chimie	-11.349
▁éducative	-11.3491
aison	-11.3494
ésignation	-11.3495
▁environ	-11.3497
▁basse	-11.3498
▁privée	-11.3499
-7,	-11.3503
▁BOURG	-11.3509
▁FI	-11.351
▁acceptés	-11.3512
▁poursuivre	-11.3521
▁recourir	-11.3521
▁unilatérale	-11.3521
▁notation	-11.3521
▁francs	-11.3522
territorialement	-11.3524
▁333	-11.3524
▁organes	-11.3524
▁climatique	-11.3526
chet	-11.3526
▁Br	-11.3532
▁For	-11.3533
taire	-11.3534
▁logiciel	-11.3537
▁initialement	-11.3537
été	-11.3543
▁331-3	-11.3549
▁confié	-11.3554
▁traités	-11.3555
AMM	-11.3558
▁2.3.	-11.356
▁postérieure	-11.356
q	-11.3562
▁existantes	-11.3567
▁interdiction	-11.3572
▁sollicités	-11.3574
▁collectées	-11.3577
▁prothèse	-11.3577
▁récépissé	-11.3577
▁téléchargeable	-11.3577
▁énumérées	-11.3577
▁dopage	-11.3577
▁Données	-11.3578
▁SIREN	-11.3578
▁polytechnique	-11.3578
gastro	-11.3581
▁journalière	-11.3583
▁avances	-11.3587
▁pluri	-11.3588
ARN	-11.3589
▁signe	-11.3591
▁MER	-11.3592
rier	-11.3598
▁Andrée	-11.3599
ettre	-11.3601
ili	-11.3603
Christian	-11.3604
22-4	-11.3605
▁Bra	-11.3605
▁92	-11.3617
▁Pou	-11.3621
▁7500	-11.3626
▁incident	-11.363
entérologie	-11.3634
▁antigénique	-11.3634
▁conversion	-11.3634
▁marquage	-11.3634
mod	-11.3635
▁transmettent	-11.3635
▁commissariat	-11.3635
ico	-11.3636
▁commence	-11.3637
▁immobiliers	-11.364
Franche	-11.3641
▁troupeau	-11.3641
▁pourvus	-11.3641
▁métropolitain	-11.3646
▁recueilli	-11.3649
▁retraites	-11.3649
▁envisage	-11.3649
éno	-11.365
uch	-11.3657
Art	-11.3659
cro	-11.366
ème	-11.3662
▁sang	-11.3664
VAR	-11.3665
▁accidents	-11.3668
▁initiative	-11.3669
AK	-11.3672
onnet	-11.3675
▁mètre	-11.3676
▁231	-11.3681
▁Ko	-11.3683
▁Château	-11.3683
▁démarches	-11.3685
MAS	-11.3685
▁seuils	-11.369
Orléans	-11.3691
▁récupération	-11.3691
▁apparaître	-11.3691
Adjudant	-11.3691
Motif	-11.3696
assesseur	-11.3697
▁mère	-11.3702
▁paritaires	-11.3703
▁nuit	-11.3708
▁créés	-11.3709
▁Ouest	-11.3709
▁immédiate	-11.3712
justice	-11.3713
▁identifiés	-11.3716
▁courante	-11.3718
▁trait	-11.372
▁prononcé	-11.372
▁formulaires	-11.3722
resse	-11.3723
gni	-11.3725
ommercialisation	-11.3725
▁filières	-11.3731
▁modèles	-11.3735
▁publiées	-11.3736
▁GRA	-11.3737
▁dépasser	-11.3738
▁conservés	-11.3744
▁troubles	-11.3745
▁ventilation	-11.3748
▁bruit	-11.3748
aéroport	-11.3748
▁Bourgogne	-11.3748
▁réussite	-11.3748
▁Maria	-11.375
▁accessoires	-11.3751
omme	-11.3753
24-4	-11.3753
1.2	-11.3757
▁salles	-11.376
MET	-11.3761
ell	-11.377
jou	-11.3771
▁armes	-11.3771
MAN	-11.3773
ord	-11.3773
▁1971	-11.3775
interruption	-11.3777
Joseph	-11.3777
▁performances	-11.378
remise	-11.3781
▁RH	-11.3782
▁plate	-11.3784
PAR	-11.3785
endre	-11.3791
▁dirigé	-11.3805
▁percevoir	-11.3805
6-1640	-11.3806
▁présidents	-11.3807
▁POU	-11.3812
▁Fi	-11.3812
▁SAL	-11.3813
▁préparatoire	-11.3813
▁PAS	-11.3815
▁formateur	-11.3816
▁intégration	-11.3818
▁réservés	-11.3819
DJ	-11.3825
▁soin	-11.3828
▁Bert	-11.383
▁pr	-11.3832
▁enseignement	-11.3833
▁CL	-11.3835
▁attribution	-11.3849
▁représentante	-11.3852
élé	-11.3855
11-8	-11.3856
bourg	-11.3858
▁2.1.	-11.3861
.1.1	-11.3862
▁contractantes	-11.3863
Dôme	-11.3863
▁exonéré	-11.3863
▁masculin	-11.3863
▁perception	-11.3863
▁semestre	-11.3863
▁surveillant	-11.3863
▁restitution	-11.3863
▁conformer	-11.3867
wi	-11.387
▁bonification	-11.3873
SIEC	-11.3873
ke	-11.3882
administrateurs	-11.3883
▁Bal	-11.3886
GES	-11.3893
▁GIP	-11.3893
▁indépendants	-11.3893
organisateur	-11.3895
apprentis	-11.3895
emp	-11.3897
▁honoraires	-11.3906
KE	-11.3908
▁Côte	-11.3908
mis	-11.3914
▁poly	-11.3919
IERS	-11.392
/2021-01-3	-11.3921
▁Tokyo	-11.3921
▁cursus	-11.3921
▁libéraux	-11.3921
▁présidence	-11.3921
▁remettre	-11.3923
▁voirie	-11.3923
inclusion	-11.3926
Comté	-11.3927
objectifs	-11.3928
▁quant	-11.3928
ANO	-11.3928
▁versera	-11.3929
présidents	-11.3932
ESS	-11.3934
onnent	-11.3941
▁5.2	-11.3941
tré	-11.3949
▁1972	-11.395
excède	-11.3953
Valérie	-11.3954
fip	-11.3956
▁justifiée	-11.3957
QUES	-11.3962
▁Tarn	-11.3967
TEN	-11.3968
cour	-11.3969
INDI	-11.397
TREP	-11.397
▁assistance	-11.3973
ital	-11.3973
▁industrielles	-11.3974
▁désigner	-11.3974
▁fondé	-11.3977
▁Ernest	-11.398
▁téléversé	-11.398
▁indice	-11.3981
▁MON	-11.3983
▁commandants	-11.3983
MU	-11.3984
TNF	-11.3986
avenir	-11.3987
▁recueillies	-11.3987
12-6	-11.3987
▁MAL	-11.399
cyc	-11.3991
▁633	-11.3994
▁engagée	-11.3999
12-4	-11.4
▁cultures	-11.4002
▁demandent	-11.4006
▁modéré	-11.4008
TRI	-11.4009
Cédric	-11.4013
▁Geneviève	-11.4015
▁conclusions	-11.4017
▁appliqué	-11.4021
issa	-11.4022
▁équipé	-11.4022
▁généraliste	-11.4027
▁217	-11.4027
▁consultée	-11.403
.6.	-11.403
▁urbaine	-11.4032
Jérémy	-11.4039
▁compréhension	-11.4039
▁navigant	-11.4039
▁sédiments	-11.4039
▁peu	-11.4039
▁Règlement	-11.404
nin	-11.404
▁audition	-11.4042
gar	-11.4043
LAS	-11.4045
ave	-11.4049
▁Bien	-11.4054
REAU	-11.4057
▁informer	-11.4066
finances	-11.4073
▁314-1	-11.4075
▁transferts	-11.408
▁intérim	-11.4082
ECOI	-11.4085
har	-11.4088
▁AV	-11.4088
Mer	-11.4093
▁JEAN	-11.4095
▁13/03/2020	-11.4098
▁Formation	-11.4098
▁bénévole	-11.4098
▁radioélectrique	-11.4098
▁rattachement	-11.4098
▁samedi	-11.4098
▁critique	-11.4098
▁boissons	-11.4098
auto	-11.4098
▁Zone	-11.4101
▁maintenue	-11.4104
▁2023,	-11.4105
▁rayon	-11.4107
▁promu	-11.411
ENCE	-11.4112
▁industriels	-11.4112
▁insaisissables	-11.4113
▁visites	-11.4113
▁313	-11.4114
▁cortico	-11.4118
▁paramètres	-11.4119
▁Léa	-11.4123
▁2021-13	-11.4124
▁CMG	-11.4127
Lisa	-11.4128
▁carburants	-11.4129
▁fériés	-11.4131
enseignant	-11.4132
▁000)	-11.4134
HU	-11.4135
▁historiques	-11.4137
▁prononcées	-11.4144
▁Petit	-11.4146
iche	-11.4147
qué	-11.4148
▁subordonné	-11.4151
▁amiable	-11.4151
▁examiné	-11.4157
▁promulgation	-11.4157
▁gouvernement	-11.4161
▁BAP	-11.4166
▁requête	-11.4169
▁course	-11.4174
app	-11.4185
▁0,5	-11.4194
▁neuvième	-11.4194
ERE	-11.4196
MENE	-11.4197
CPT	-11.4197
▁feu	-11.4198
▁Pra	-11.42
▁Vienne	-11.42
▁appropriées	-11.4201
nées	-11.4203
quin	-11.4203
▁guide	-11.4207
actes	-11.4207
▁ép	-11.4207
ESSE	-11.4211
▁options	-11.4211
▁16°	-11.4214
▁assister	-11.4215
▁mondiale	-11.4215
▁biais	-11.4218
▁561-3	-11.4219
▁mentionnant	-11.422
▁plancher	-11.422
▁certifiés	-11.4221
▁2021-5	-11.4224
dr	-11.4224
partie	-11.423
▁statutaire	-11.4235
▁représentés	-11.4235
Vu	-11.4236
▁SCH	-11.4236
olo	-11.4238
679	-11.424
fort	-11.4244
▁Annie	-11.4244
KA	-11.4246
▁VIH	-11.4246
▁protégés	-11.425
▁pôles	-11.4251
rain	-11.4253
maritime	-11.4255
inspecteurs	-11.4256
▁Hautes	-11.4258
10°	-11.4259
▁jointe	-11.4266
hu	-11.4268
ANE	-11.4272
hypothèse	-11.4276
▁figurer	-11.4276
▁table	-11.4277
intéressement	-11.4277
▁orthopédique	-11.4277
▁remboursé	-11.4277
▁reproduction	-11.4277
▁litige	-11.4278
excédent	-11.4278
▁auteurs	-11.4283
CHEM	-11.4291
▁ménage	-11.4291
bri	-11.4292
procureure	-11.4296
▁Culture	-11.4299
GUES	-11.4302
pre	-11.4307
IRA	-11.4307
▁17°	-11.4307
▁numéros	-11.4312
▁rattachés	-11.4316
Stéphanie	-11.4316
▁inv	-11.4324
▁Cal	-11.4326
▁Sta	-11.4326
▁pourrait	-11.4329
▁démolition	-11.4338
▁mécanisme	-11.4338
▁progression	-11.4338
▁démissionnaire	-11.4339
▁amené	-11.4339
▁"6.	-11.434
▁matérielles	-11.434
CROIX	-11.4343
lio	-11.4343
▁variation	-11.4344
▁rapide	-11.4349
▁propriétaires	-11.4352
▁Lors	-11.4353
PRE	-11.4354
rand	-11.4356
▁arrivée	-11.4357
Administration	-11.4359
arrière	-11.4363
organ	-11.4365
▁école	-11.4366
experts	-11.4367
▁certificative	-11.4377
échec	-11.4378
TEL	-11.438
NF	-11.4381
étiques	-11.4382
▁VAN	-11.4385
pose	-11.4387
▁AB	-11.4393
adhérent	-11.4397
▁VILLE	-11.4398
▁défaillance	-11.4399
▁expresse	-11.4399
▁froid	-11.4399
▁maintenir	-11.4399
▁déduction	-11.4399
▁outil	-11.4401
▁stratégiques	-11.4402
▁2021-6	-11.4413
▁message	-11.4413
▁difficulté	-11.4414
mas	-11.4422
ica	-11.4422
▁préfectoral	-11.4424
▁cesse	-11.4425
LS	-11.443
PC	-11.4433
Fabrice	-11.444
▁automobile	-11.444
▁Trois	-11.4441
illard	-11.4443
Sous	-11.4443
traitants	-11.4445
▁transféré	-11.4448
▁détenu	-11.4448
PN	-11.4451
▁consommations	-11.4451
thérapie	-11.4452
HER	-11.4452
▁insuffisa	-11.4457
ossi	-11.446
Assurance	-11.446
▁Identifier	-11.446
▁douzième	-11.446
▁comparaison	-11.446
▁LI	-11.4461
▁Musée	-11.4461
▁suspendre	-11.4461
▁planification	-11.4463
fic	-11.4467
▁89	-11.4468
▁échelle	-11.4469
42-1	-11.4472
▁polaire	-11.4476
soignant	-11.4477
▁Signature	-11.4482
▁certifiée	-11.4484
dap	-11.4485
DEL	-11.4485
/2021-11	-11.4486
▁polluants	-11.4486
▁Sauf	-11.4488
ède	-11.4488
▁esthétique	-11.4492
▁col	-11.4495
anche	-11.4496
▁quart	-11.4498
▁cumul	-11.4499
avocat	-11.4501
Mélanie	-11.4502
Bertrand	-11.4503
Section	-11.4503
▁contrôleurs	-11.4509
tiques	-11.4509
▁motivé	-11.4509
▁réelle	-11.4511
▁exercée	-11.4514
▁archives	-11.4514
▁221-1	-11.4514
▁On	-11.4515
aucune	-11.4516
GN	-11.4519
/2021-07-3	-11.4522
▁Publique	-11.4522
▁compatibilité	-11.4522
▁concourant	-11.4522
▁conflit	-11.4522
▁oncologie	-11.4522
▁télécopie	-11.4522
▁géotechnique	-11.4522
▁fruits	-11.4522
▁aspects	-11.4522
▁dangereux	-11.4523
ona	-11.4524
▁Banque	-11.4525
▁tir	-11.453
alisation	-11.4538
▁pathologie	-11.4539
ars	-11.4542
▁contraires	-11.4543
▁perçus	-11.4547
MENT	-11.4547
▁appréciée	-11.4548
▁demandés	-11.4548
▁Carole	-11.4548
DS	-11.455
▁phrases	-11.4561
▁institution	-11.4566
Daniel	-11.4567
▁BOIS	-11.4567
▁acquise	-11.4569
▁ARMÉE	-11.4576
▁BEL	-11.4579
ella	-11.458
excéd	-11.4583
archéologie	-11.4584
emprisonnement	-11.4584
▁2261-7	-11.4584
▁Meuble	-11.4584
▁incompatible	-11.4584
▁chemin	-11.4584
▁SER	-11.4585
▁pénétration	-11.4586
▁clos	-11.4586
nat	-11.4586
013002	-11.4586
ieu	-11.4587
▁indirectement	-11.4587
dg	-11.459
istes	-11.4592
ram	-11.4592
HT	-11.4599
▁libérale	-11.4604
▁voir	-11.4606
▁BOUR	-11.4611
▁FER	-11.4612
tologie	-11.4612
ind	-11.4619
▁PETIT	-11.462
actif	-11.4627
▁sub	-11.4634
oin	-11.4638
▁muni	-11.4642
▁intolérance	-11.4642
▁2021-9	-11.4644
▁Ser	-11.4644
▁doctorat	-11.4647
▁neurologie	-11.4647
▁souches	-11.4647
▁collaboration	-11.4648
▁conditionnement	-11.4648
nation	-11.4648
▁installés	-11.4657
métr	-11.4661
▁situe	-11.4663
▁substantielle	-11.4663
▁module	-11.4665
▁psychologue	-11.4665
igné	-11.4666
▁identité	-11.4668
Ri	-11.467
▁Maison	-11.467
▁différé	-11.4681
PIN	-11.4682
IDE	-11.4684
ECH	-11.4698
ient	-11.4705
▁HE	-11.4705
▁84	-11.4706
ROUX	-11.4709
▁bateau	-11.4709
▁copropriété	-11.471
▁rédactrice	-11.471
▁spécifications	-11.471
▁questionnaire	-11.471
▁MIPP	-11.471
▁intégralement	-11.4712
▁2241-5	-11.4713
▁effectu	-11.4716
▁identifie	-11.472
▁Méditerranée	-11.4724
▁traitées	-11.4725
▁Produits	-11.4725
▁auditeurs	-11.4726
▁occupé	-11.4728
▁solliciter	-11.4728
▁exploité	-11.4729
▁Pau	-11.4734
Inès	-11.4737
VER	-11.4742
▁admises	-11.4743
▁Fanny	-11.4744
▁REN	-11.4745
NARD	-11.4746
▁restreinte	-11.4748
▁reli	-11.4749
▁publie	-11.475
▁Membres	-11.475
RC	-11.4751
illes	-11.4753
▁égard	-11.4756
:	-11.4756
▁étudiant	-11.4757
rec	-11.4759
▁grades	-11.4759
▁engagés	-11.4762
▁pluridisciplina	-11.4763
EAUX	-11.4763
▁autour	-11.4765
▁Savoie	-11.4769
▁331-2	-11.4771
Dimension	-11.4773
Grégory	-11.4773
▁Représentant	-11.4773
▁grâce	-11.4773
▁intéressant	-11.4773
CENTRAL	-11.4773
▁2021-7	-11.4774
▁appar	-11.4774
▁indiqués	-11.4781
▁bovins	-11.4785
nis	-11.4788
▁considérées	-11.4792
▁Table	-11.4793
▁couvre	-11.4798
▁modérée	-11.4806
▁permanents	-11.481
▁animale	-11.4812
▁deviennent	-11.4815
▁envisagée	-11.4818
Florence	-11.4821
▁Bourg	-11.4821
édaillé	-11.4829
.3.1	-11.4831
▁CRE	-11.4832
alternance	-11.4837
obésité	-11.4837
▁NOTARIAL	-11.4837
▁impliquant	-11.4837
▁littoral	-11.4837
▁notice	-11.4837
▁Programme	-11.4837
▁délimitation	-11.4837
▁marge	-11.4838
▁Tra	-11.4838
▁gérés	-11.4838
▁précision	-11.4839
SNA	-11.4841
▁diplomatiques	-11.4843
▁cor	-11.4843
nce	-11.4846
▁Occitanie	-11.4848
▁ii	-11.4855
ÉES	-11.4861
▁Fort	-11.4864
▁Cu	-11.4869
ministérielle	-11.4872
▁Rose	-11.4875
▁Denise	-11.4881
▁psychologues	-11.4882
Justine	-11.4886
▁imprimer	-11.489
▁publications	-11.489
▁Tri	-11.4891
▁cabinets	-11.4891
▁86	-11.4895
0000436184	-11.4901
Vaucluse	-11.4901
▁Evaluation	-11.4901
▁brigadier	-11.4901
▁pneumologie	-11.4901
▁renforcement	-11.4901
▁fournissent	-11.4901
▁suspendu	-11.4902
▁revers	-11.4902
éch	-11.4904
▁1.1.	-11.4905
▁porteurs	-11.4908
Ba	-11.4915
vol	-11.4919
▁tiré	-11.4919
Pas	-11.4921
▁immobilière	-11.4922
cor	-11.4925
▁plaques	-11.4925
▁mairie	-11.4926
▁exécutée	-11.4927
▁versés	-11.4928
▁élève	-11.493
intérêts	-11.4934
▁122-2	-11.4934
▁Florent	-11.4939
▁Che	-11.4947
▁poursuites	-11.4947
juridictionnelle	-11.4947
▁642	-11.4949
laine	-11.4949
▁certificateur	-11.495
Traitement	-11.4951
;	-11.4952
RTE	-11.4954
▁analyser	-11.4955
▁Col	-11.4957
apprécie	-11.4959
OPS	-11.496
▁routes	-11.4961
▁distribu	-11.4963
▁manifeste	-11.4965
assemblage	-11.4965
▁14/09/201	-11.4965
▁chômage	-11.4965
▁condamnation	-11.4965
▁facturé	-11.4965
▁puériculture	-11.4965
▁reclassement	-11.4965
▁SANTÉ	-11.4965
▁cultivées	-11.4965
▁supplément	-11.4966
ÉTAT	-11.4966
▁SCP	-11.4968
▁approuvées	-11.4974
tiennent	-11.4976
▁Description	-11.4976
▁Etablissements	-11.4978
Aux	-11.4986
▁the	-11.4987
▁Chacun	-11.4991
DIN	-11.4992
▁amont	-11.4992
▁informée	-11.5001
lieu	-11.5004
▁énergie	-11.5008
KO	-11.5013
IAN	-11.5014
▁forte	-11.5016
ort	-11.5016
événement	-11.5017
▁enquête	-11.5018
▁communiquée	-11.5021
heures	-11.5021
SSIER	-11.5022
dio	-11.5023
▁mm	-11.5023
ANDE	-11.5024
▁intégré	-11.5025
▁âgé	-11.5025
Françoise	-11.5026
▁compar	-11.5027
▁arrondi	-11.5029
▁excavées	-11.503
▁Mission	-11.503
000042994	-11.503
▁chevalier	-11.503
▁162-22-6	-11.503
▁cocontractant	-11.5031
aient	-11.5033
▁Somme	-11.5034
11°	-11.5037
hon	-11.5039
▁3-1	-11.5043
▁substitue	-11.5044
▁marin	-11.5045
▁631-1	-11.5048
▁Epo	-11.5052
pompier	-11.5053
▁59,	-11.5054
gan	-11.5063
▁contractuelles	-11.5063
▁réanimation	-11.507
gis	-11.507
HÉ	-11.5073
▁pertinentes	-11.5073
cho	-11.5081
Corse	-11.5084
▁réparties	-11.5087
▁imposé	-11.5089
400	-11.5089
▁Gal	-11.5094
activation	-11.5096
▁Créteil	-11.5096
▁mérite	-11.5096
▁piscine	-11.5096
▁récolte	-11.5096
▁vigilance	-11.5096
▁monothérapie	-11.5096
▁citoyenneté	-11.5096
▁convenu	-11.5096
▁variable	-11.5102
iii	-11.5102
▁majeurs	-11.5103
▁TOUR	-11.5106
entendent	-11.5108
▁Wa	-11.5111
▁caractéris	-11.5117
▁reçues	-11.5117
▁Tour	-11.5119
▁vacance	-11.5119
▁1969	-11.5124
▁Compte	-11.5127
▁entité	-11.5131
▁actif	-11.5137
▁thermiques	-11.514
bé	-11.5146
▁Q	-11.5147
▁capitaines	-11.5149
Description	-11.515
illé	-11.5151
▁Mise	-11.5151
▁700	-11.5152
NER	-11.5155
▁précisée	-11.5155
mine	-11.5155
MAT	-11.5156
▁rattaché	-11.5159
annulation	-11.5161
▁Décision	-11.5161
▁professora	-11.5161
▁ramené	-11.5161
▁énumérés	-11.5161
Considéra	-11.5161
▁passeport	-11.5162
UNITÉ	-11.5162
▁garantit	-11.5164
Allier	-11.5167
USSE	-11.5169
LIS	-11.5172
▁signataires	-11.5179
▁élargie	-11.518
▁321-1	-11.5181
Cour	-11.5195
ulaire	-11.5196
▁précisent	-11.5206
▁prépare	-11.5211
alis	-11.5214
GAN	-11.5216
augmentation	-11.5217
Bar	-11.5218
▁renouvelables	-11.5218
ILLY	-11.5218
001	-11.5221
▁étendus	-11.5224
▁hépato	-11.5228
▁intégrant	-11.5228
▁lyonnais	-11.5228
▁renforcer	-11.5228
.2.2.	-11.5229
Bastien	-11.5232
▁locatifs	-11.5232
▁cible	-11.5237
▁Traitement	-11.5242
120	-11.5245
actualisation	-11.5249
▁semences	-11.5252
▁informés	-11.5262
▁Pont	-11.5267
JUST	-11.5273
▁verser	-11.5275
▁potentiel	-11.5275
ande	-11.528
▁promotions	-11.5283
culture	-11.5285
onique	-11.5285
tribunaux	-11.5285
Laurence	-11.5285
RIC	-11.5286
▁reportée	-11.5286
NAY	-11.5287
priseur	-11.529
▁immunologie	-11.5294
▁inadéquate	-11.5294
▁télécharger	-11.5294
▁Garantie	-11.5294
▁boulev	-11.5294
▁Mérite	-11.5294
▁mener	-11.5295
▁correspondent	-11.5302
MIN	-11.5303
NG	-11.5304
▁comparable	-11.5307
▁émises	-11.5307
▁5126-6	-11.5311
▁limit	-11.5312
▁BRE	-11.5315
Bo	-11.5317
▁privilège	-11.5321
▁122-1	-11.5323
traitant	-11.5328
▁Gard	-11.5329
▁interdits	-11.5333
▁intégrés	-11.5338
▁exigées	-11.5339
▁modules	-11.5342
▁appropriée	-11.5348
▁rectorat	-11.5349
▁appliqués	-11.535
▁réservée	-11.535
programme	-11.5353
Abd	-11.5354
Georges	-11.5355
recrutement	-11.5355
▁EURO	-11.5355
ORG	-11.536
▁Celui	-11.5361
▁contenir	-11.5361
▁gérer	-11.5361
animateur	-11.5361
▁parisienne	-11.5361
▁brute	-11.5369
▁Elise	-11.537
émo	-11.5374
▁aigu	-11.5379
▁Bé	-11.5388
▁2021-10	-11.5389
▁Bre	-11.5391
▁intègre	-11.5391
ologue	-11.5392
Seuls	-11.5392
ium	-11.5393
▁interruption	-11.5395
▁formulée	-11.5396
▁fluvial	-11.5397
▁autoriser	-11.5397
353	-11.5398
▁voté	-11.5399
▁exigée	-11.5404
▁Ali	-11.5405
ANTE	-11.5408
fondateur	-11.541
▁polaires	-11.5412
▁prolongée	-11.5413
▁213-1	-11.5414
▁nette	-11.5414
▁extra	-11.5415
▁détenteurs	-11.5417
▁parcelle	-11.542
échantillon	-11.5421
Alexandra	-11.5421
Elise	-11.5421
AISE	-11.5422
▁pertes	-11.5422
bou	-11.5423
oz	-11.5423
▁Fo	-11.5425
ACC	-11.5426
impose	-11.5426
▁perspective	-11.5429
▁traumatologique	-11.5429
▁Olympiques	-11.5429
▁regroupement	-11.543
▁masque	-11.543
▁Professionnelle	-11.5432
ITE	-11.5432
▁Yann	-11.5432
▁consacrée	-11.5435
▁521-1	-11.544
EVE	-11.5442
zan	-11.5444
ignon	-11.5446
▁cap	-11.5451
▁examine	-11.5452
ND	-11.5453
▁astreinte	-11.5456
▁614	-11.5456
seraient	-11.5458
▁événement	-11.547
ssez	-11.5471
VIER	-11.5472
▁alloué	-11.5474
Atlantiques	-11.5485
▁Aude	-11.5487
tions	-11.5489
PIERRE	-11.549
OSSE	-11.549
Elodie	-11.549
Hervé	-11.549
Guadeloupe	-11.549
commission	-11.549
dan	-11.5496
▁Procédure	-11.5497
▁RELATIVE	-11.5497
▁bataillon	-11.5497
▁denrées	-11.5497
▁endommagé	-11.5497
▁refroidissement	-11.5497
SSAR	-11.5497
Ang	-11.5502
gou	-11.5504
▁stocks	-11.5506
▁comprises	-11.5507
SU	-11.5509
ura	-11.551
sociale	-11.5513
adresser	-11.5513
▁Alexis	-11.5515
LAND	-11.5517
▁attendu	-11.5519
ssin	-11.5523
arra	-11.5527
▁examinateurs	-11.5534
Vi	-11.5534
▁participants	-11.5536
ILLARD	-11.5537
▁identifier	-11.5538
▁reconnus	-11.554
▁transit	-11.5541
tis	-11.5541
▁2026	-11.5542
▁participations	-11.5544
soignants	-11.5547
▁protocoles	-11.555
GOU	-11.5552
▁Gre	-11.5552
ama	-11.5556
▁suivies	-11.5558
Thibault	-11.5559
2121	-11.556
▁interrégion	-11.5562
▁kW	-11.5563
endoprothèse	-11.5565
▁dépositaire	-11.5565
▁facturable	-11.5565
▁pavillon	-11.5565
▁prorogation	-11.5565
▁préservation	-11.5565
▁médias	-11.5567
▁Va	-11.5568
▁Ana	-11.5572
adéquation	-11.5576
▁desquelles	-11.5579
▁approche	-11.5582
▁dynamique	-11.5583
Robin	-11.5585
▁ISO	-11.5586
FRANC	-11.5589
aoui	-11.5589
REL	-11.559
▁opéré	-11.5597
▁détachés	-11.5597
▁Bru	-11.5599
▁volumes	-11.5606
▁Damien	-11.5611
▁Landes	-11.5611
▁BAS	-11.5616
▁communautaire	-11.562
▁travaillé	-11.5625
USE	-11.5625
ctive	-11.5627
Véronique	-11.563
bat	-11.5631
cachet	-11.5633
▁Collectivité	-11.5634
▁confidentiel	-11.5634
▁sergent	-11.5634
▁déficit	-11.5634
▁exclusive	-11.5634
Micka	-11.5635
ouvre	-11.5639
▁faibles	-11.5642
▁délibérant	-11.5651
rm	-11.5659
abi	-11.5662
ONS	-11.5665
▁Fr	-11.5668
89004	-11.5669
▁traiter	-11.5669
▁acquises	-11.567
▁2.1	-11.5678
uri	-11.5687
▁effluents	-11.5689
▁priorités	-11.5691
8-4	-11.5691
▁gain	-11.5694
Fait	-11.5696
▁commis	-11.5697
Arthur	-11.57
aéronautique	-11.57
▁éviter	-11.5701
▁commercialis	-11.5703
▁détect	-11.5703
▁administré	-11.5704
▁conséquent	-11.5704
▁député	-11.5704
Thibaut	-11.5704
▁irrecevable	-11.5704
▁Nadine	-11.5704
▁directoire	-11.5704
▁numérotation	-11.5706
ESP	-11.5707
▁éditeurs	-11.5707
Nad	-11.5708
▁créée	-11.571
Noémie	-11.5711
▁94-6	-11.5712
▁navigables	-11.5714
▁placées	-11.5719
▁DC	-11.5722
édé	-11.5722
train	-11.5733
composante	-11.5734
▁barème	-11.5736
INTD	-11.5736
BAN	-11.5737
BON	-11.5738
▁don	-11.5741
▁représentée	-11.5744
▁infectieuses	-11.5746
▁parcelles	-11.5747
▁paye	-11.5752
éléments	-11.5758
▁assemblée	-11.5759
Na	-11.5762
▁PROFESSIONNEL	-11.5766
▁assistante	-11.5767
esse	-11.5769
bus	-11.5771
introduction	-11.5774
▁Réaliser	-11.5774
▁cardiaque	-11.5774
▁chancelier	-11.5774
▁délibérative	-11.5774
▁vendeur	-11.5774
▁vieillesse	-11.5774
▁volailles	-11.5774
▁Maladie	-11.5774
▁teneur	-11.5774
TOUR	-11.5776
ROY	-11.5777
▁cédé	-11.5777
OUT	-11.5777
▁standardisée	-11.5777
▁314	-11.5782
▁financer	-11.5785
780	-11.579
▁cité	-11.579
agir	-11.5794
Gu	-11.5795
▁indirecte	-11.5796
▁habilitée	-11.5799
▁éman	-11.5803
apprenti	-11.5805
▁carburant	-11.5807
▁branches	-11.5809
GME	-11.5809
▁Fl	-11.581
nais	-11.5811
▁PRÉ	-11.5815
▁manifestations	-11.5816
len	-11.5834
▁assortie	-11.5834
rice	-11.5836
TRAT	-11.5837
Aurélie	-11.5838
▁convocations	-11.5839
atalogue	-11.5841
ingénierie	-11.5842
Charente	-11.5842
▁Boul	-11.5843
évacuation	-11.5844
▁exigible	-11.5844
▁mobilier	-11.5844
▁mélange	-11.5844
▁bourse	-11.5844
▁remontée	-11.5844
▁Seul	-11.5845
▁téléservice	-11.5845
▁125	-11.5845
▁Colette	-11.5846
▁2241-17	-11.5846
▁constructions	-11.5847
▁gazeux	-11.5848
▁médiateur	-11.5848
▁payer	-11.585
met	-11.5851
▁utilisateur	-11.5852
AMI	-11.5855
▁Ter	-11.5855
▁définitivement	-11.5856
informer	-11.5857
SCA	-11.5859
▁mouvements	-11.5859
▁annulée	-11.586
mal	-11.5862
▁vit	-11.5865
RAY	-11.5866
écr	-11.5869
▁récipients	-11.5869
▁chercheurs	-11.5873
▁174-1	-11.5874
▁consultable	-11.5878
▁psychologique	-11.5881
lée	-11.5882
▁jurys	-11.5882
techniques	-11.5882
▁réuni	-11.5883
die	-11.5885
ull	-11.5892
▁541-10	-11.5896
▁Fabien	-11.5908
▁111-1	-11.5911
0-3	-11.5912
Axel	-11.5912
▁chimiothérapie	-11.5915
▁Claudine	-11.5915
▁Chorus	-11.5915
▁Examen	-11.5915
traitance	-11.5916
▁majoritaire	-11.5916
▁spécialisation	-11.5917
gen	-11.5918
▁Suppléant	-11.592
▁résultent	-11.5922
▁Elodie	-11.5922
aval	-11.5925
MON	-11.5927
hab	-11.593
ose	-11.5931
▁...)	-11.5932
▁Har	-11.5935
arts	-11.5935
▁incendie	-11.5947
▁combustible	-11.595
▁critère	-11.595
arc	-11.5953
▁enquêtes	-11.5956
lic	-11.5956
▁rapporteur	-11.596
5-5	-11.5961
BU	-11.5963
▁TERRE	-11.5965
▁pourraient	-11.5965
AIRES	-11.5966
DEC	-11.5968
▁AN	-11.5973
▁Pla	-11.5973
▁Pyrénées	-11.598
▁filiales	-11.598
▁Chloé	-11.5981
BAR	-11.5986
▁aéroportuaire	-11.5986
▁conservatoire	-11.5986
▁gravité	-11.5987
▁générateur	-11.5987
▁211-1	-11.5989
▁séparation	-11.599
abri	-11.5992
▁formuler	-11.5992
ANA	-11.5994
▁patrimoines	-11.6
OZ	-11.6001
observatoire	-11.6008
▁licenciement	-11.601
vie	-11.601
▁intervenants	-11.6011
HAN	-11.6011
UV	-11.6012
éry	-11.6016
ssé	-11.6019
attachés	-11.602
▁1967	-11.6021
▁prendra	-11.6022
▁conférence	-11.6024
nu	-11.6025
gui	-11.603
▁Règles	-11.6031
▁blocs	-11.6032
Selon	-11.6032
▁Frédérique	-11.6034
VES	-11.6036
▁311	-11.6038
▁institut	-11.6038
▁instruction	-11.6038
▁331-1	-11.6044
▁copies	-11.6046
▁quota	-11.6049
emballage	-11.6057
▁1.2.	-11.6058
acquéreur	-11.6058
▁prépondérante	-11.6058
Jonathan	-11.6058
kinésithérapeute	-11.6058
▁chaîne	-11.6058
▁artistes	-11.606
erreur	-11.6061
KER	-11.6061
▁ouvrés	-11.6064
▁5.1	-11.6065
▁recueillir	-11.6065
▁titularisés	-11.6066
▁quartiers	-11.6069
▁prévisions	-11.607
CMA	-11.6076
▁Finistère	-11.6078
«	-11.6087
▁privées	-11.6088
▁sexuelle	-11.609
uy	-11.6091
Durant	-11.6095
▁portes	-11.6096
▁libellé	-11.6096
▁hôpital	-11.6102
▁formé	-11.6108
Clémentine	-11.6108
▁pathologies	-11.6112
ouille	-11.6115
▁accompagnant	-11.6115
IEUX	-11.6116
▁160	-11.6117
▁transférée	-11.6121
▁journalières	-11.6124
TAL	-11.6124
Constance	-11.6131
▁Fondation	-11.6131
▁dermatologie	-11.6131
▁détenir	-11.6131
▁expressément	-11.6131
▁ionisants	-11.6131
▁préliminaire	-11.6131
▁réflexion	-11.6131
▁mentale	-11.6132
▁vigne	-11.6132
▁compétition	-11.6132
ANNE	-11.6132
Ludovic	-11.6133
▁Ru	-11.6133
MARTIN	-11.6134
PRMG	-11.6134
▁change	-11.6135
dix	-11.6135
▁communiquent	-11.6138
télésurveillance	-11.614
▁561-2	-11.6148
▁joueurs	-11.615
ANG	-11.6151
▁dirigeants	-11.6156
anciens	-11.6156
ssa	-11.6162
▁Cédric	-11.6163
mn	-11.6165
espèce	-11.6169
EURS	-11.6173
▁classant	-11.6176
▁généré	-11.6178
▁Baptiste	-11.6182
POV	-11.6183
▁TR	-11.6183
ical	-11.6184
▁121-2	-11.6191
alli	-11.6191
▁Land	-11.6197
reux	-11.62
bon	-11.6203
▁souterrain	-11.6204
▁football	-11.6204
▁francisation	-11.6204
▁monument	-11.6204
▁ordinaire	-11.6204
▁parallèle	-11.6204
▁prorata	-11.6204
▁réquisition	-11.6204
William	-11.6204
▁stabilité	-11.6204
Saclay	-11.6204
▁couleur	-11.6204
▁lecture	-11.6204
▁PMIA	-11.6204
volta	-11.6205
▁Sau	-11.6205
▁consolidation	-11.6205
▁aéronautiques	-11.6205
JEAN	-11.6207
Nathan	-11.6208
▁déclarer	-11.6208
indicateur	-11.6209
▁Régis	-11.6209
oua	-11.621
▁systémiques	-11.6211
6-4	-11.6211
Emmanuelle	-11.6214
▁assorti	-11.6214
▁transactions	-11.6215
▁INRIA	-11.6222
eutique	-11.6223
▁animal	-11.6226
▁sorte	-11.6235
cot	-11.6238
lig	-11.6238
▁180	-11.6239
▁cy	-11.6243
▁MOD	-11.6243
aéronef	-11.6249
▁121-3	-11.6251
2020	-11.6254
▁2021-3	-11.6257
▁armé	-11.6259
IST	-11.6262
antes	-11.6263
ule	-11.6265
OTTE	-11.6269
RAT	-11.6271
ITÉ	-11.6274
▁éventuel	-11.6275
▁alerte	-11.6277
▁observé	-11.6277
▁docteur	-11.6277
Corentin	-11.6277
▁bateaux	-11.6278
▁ingénierie	-11.628
formation	-11.628
▁saisit	-11.6283
trice	-11.6286
▁mort	-11.629
▁périodiques	-11.6298
four	-11.6298
liste	-11.6302
▁sollicite	-11.6303
hommes	-11.6308
MANN	-11.6308
INTN	-11.6312
engagent	-11.6314
▁spécialiste	-11.6319
▁factures	-11.6324
▁224-1	-11.6326
heim	-11.6326
ê	-11.6334
ock	-11.6336
▁passée	-11.6336
▁fondée	-11.6339
▁311-2	-11.6339
▁ACT	-11.634
GR	-11.6344
▁dimensions	-11.6346
▁détaillée	-11.635
▁Communauté	-11.6351
▁Département	-11.6351
▁délibère	-11.6351
▁paternité	-11.6351
▁télévision	-11.6351
88008	-11.6352
▁investigations	-11.6353
▁barre	-11.6354
intolérance	-11.6357
▁1333-1	-11.6358
RAEP	-11.6359
▁élémentaire	-11.6362
OFF	-11.6364
▁identifié	-11.6365
▁approuvés	-11.6365
▁rubriques	-11.6369
▁restrictions	-11.6373
mbr	-11.6373
▁Mélanie	-11.6375
▁BAL	-11.6378
▁redevances	-11.6379
▁Région	-11.6379
▁décrivant	-11.6379
▁constatations	-11.6383
URE	-11.6384
dd	-11.6385
▁and	-11.6387
▁631	-11.6389
Gr	-11.6389
▁Cher	-11.639
▁lieutenants	-11.639
SER	-11.6395
7-4	-11.6398
▁232-2	-11.6399
▁Fabienne	-11.6399
▁242-7	-11.64
▁Réseau	-11.6403
reau	-11.6404
▁Pri	-11.6413
▁rééducation	-11.6414
▁TRE	-11.6416
▁systématique	-11.642
▁Franc	-11.6426
▁DISPOSITION	-11.6426
▁détient	-11.6426
▁métaux	-11.6426
▁quotité	-11.6426
▁renvoyé	-11.6426
▁prélevé	-11.6426
▁natation	-11.6426
▁culte	-11.6426
▁SIRET	-11.6427
algré	-11.6428
▁actuellement	-11.6429
/2021-05-	-11.6429
▁tranches	-11.643
▁majorations	-11.6431
Fabien	-11.6432
instrument	-11.6432
Delphine	-11.6433
▁devrait	-11.6436
AINE	-11.6444
▁seulement	-11.6447
GON	-11.6453
▁Benoit	-11.6453
BAP	-11.6455
ps	-11.6455
▁positions	-11.6466
▁chasse	-11.6473
mant	-11.6492
NOU	-11.6494
▁accepte	-11.6496
acompte	-11.6498
auxiliaire	-11.65
▁collectés	-11.6501
▁quorum	-11.6501
Augustin	-11.6501
▁détaillant	-11.6502
▁stade	-11.6502
▁livré	-11.6502
▁appropriés	-11.6503
ivité	-11.6505
ête	-11.6507
▁soutenu	-11.6508
▁aliment	-11.6511
▁cumulée	-11.6512
▁NOR	-11.6513
▁800	-11.6514
▁réclamations	-11.6518
LOIRE	-11.6519
▁postérieur	-11.652
▁tenues	-11.6522
eck	-11.6523
lus	-11.6532
bal	-11.6533
environnementaux	-11.6534
▁Dou	-11.6536
Pi	-11.6544
▁tabac	-11.6545
▁multiple	-11.6545
▁privilèges	-11.6547
Ange	-11.6549
▁Hou	-11.6555
▁Titulaire	-11.656
RAS	-11.6564
Cher	-11.6564
OST	-11.6565
CQ	-11.6567
▁5126-	-11.6567
PIC	-11.657
exonération	-11.6576
▁225	-11.6576
education	-11.6577
▁Identification	-11.6577
▁digestive	-11.6577
▁négoce	-11.6577
▁paramédicaux	-11.6577
▁prétendre	-11.6577
▁délit	-11.6577
▁infecté	-11.6577
Expertise	-11.6577
▁remplies	-11.6578
oub	-11.6588
▁aériennes	-11.6589
▁Jules	-11.6591
▁HAUT	-11.6598
iculu	-11.6599
artiste	-11.6607
▁douaniers	-11.6609
▁dentaire	-11.6621
▁recommandation	-11.6623
ILLET	-11.6623
oma	-11.6624
hydro	-11.6628
▁coordonné	-11.6629
enquêtes	-11.6632
▁SG	-11.6633
▁Odile	-11.6635
▁équipés	-11.664
508	-11.6648
▁bout	-11.6648
Panthéon	-11.6653
perfectionnement	-11.6653
▁PUBLIC	-11.6653
▁aménagé	-11.6653
▁divorcée	-11.6653
▁imputable	-11.6653
▁succès	-11.6653
▁paramédical	-11.6653
▁menace	-11.6653
▁aidant	-11.6653
▁recul	-11.6653
▁Défense	-11.6654
▁curr	-11.6654
▁soutenir	-11.6654
▁messagerie	-11.6654
▁substitution	-11.6655
ZY	-11.6655
offres	-11.666
▁132-1	-11.6664
▁Es	-11.6664
Ain	-11.6666
▁Pin	-11.6667
Aurélien	-11.6668
métrique	-11.6668
▁Myriam	-11.6669
▁perçu	-11.6672
▁préparer	-11.6672
▁phases	-11.6673
▁institutionnel	-11.6674
1.3	-11.6677
▁justifié	-11.6683
▁1966	-11.6684
once	-11.6684
▁pacte	-11.6686
1-2,	-11.6689
▁for	-11.669
ifier	-11.6692
bes	-11.6694
TEAU	-11.6697
bin	-11.6698
NAC	-11.6698
▁calendaires	-11.6709
▁engager	-11.6712
▁assujettis	-11.6714
▁bâti	-11.672
vic	-11.672
▁Seule	-11.6728
▁parental	-11.6729
▁biométhane	-11.673
▁hydraulique	-11.673
▁pédiatrique	-11.673
▁sensibilisation	-11.673
▁téléchargement	-11.673
▁Droit	-11.673
▁isolé	-11.673
▁hémato	-11.6731
▁achevé	-11.6731
▁antécédents	-11.6731
▁marbre	-11.6731
▁feuille	-11.6737
▁disciplinaires	-11.6739
Sandrine	-11.6742
Rémi	-11.6743
sset	-11.6745
aller	-11.6746
û	-11.6746
▁Neu	-11.6747
▁devenu	-11.6748
VIN	-11.6749
▁dispensé	-11.675
IERES	-11.675
▁Entre	-11.675
▁employ	-11.6751
ennes	-11.6761
▁maires	-11.6763
▁explicite	-11.6766
ancé	-11.6767
zin	-11.6769
installations	-11.6773
▁3.1	-11.6776
▁victime	-11.6778
ISSE	-11.6781
▁pied	-11.6782
▁Pal	-11.6787
Renan	-11.6787
deux	-11.6796
ousse	-11.6799
AMA	-11.6799
600	-11.6801
ECT	-11.6806
Océane	-11.6808
aéromodélisme	-11.6808
▁naturalisation	-11.6808
▁téléphonique	-11.6808
Turquie	-11.6808
▁recouvré	-11.681
▁emprunts	-11.681
▁exprimée	-11.6811
▁assujettie	-11.6811
illot	-11.6813
▁expositions	-11.6813
otte	-11.6818
sg	-11.6819
Concours	-11.682
INES	-11.6823
exercent	-11.6826
▁COMP	-11.6826
▁CAL	-11.6826
ONE	-11.6834
▁Nation	-11.6836
▁respectées	-11.6837
Elsa	-11.6837
INFORMATION	-11.6839
▁1968	-11.684
nto	-11.6846
nic	-11.6846
▁2021-16	-11.6847
▁invalidité	-11.6847
▁Morbihan	-11.6848
▁large	-11.6851
▁apprécié	-11.6854
▁forestière	-11.6856
▁différend	-11.6856
▁admissible	-11.6857
▁445	-11.6859
ICA	-11.686
▁permettra	-11.6867
▁référencement	-11.687
▁Laura	-11.6871
▁envisagées	-11.6871
▁verre	-11.6875
▁ouvre	-11.6878
Maine	-11.6882
hl	-11.6885
ivacaftor	-11.6886
▁Maître	-11.6886
▁canalisations	-11.6886
▁mobilisation	-11.6886
▁portefeuille	-11.6886
▁Généralités	-11.6886
▁grammes	-11.6887
▁LOI	-11.6889
▁Charente	-11.6889
▁homologation	-11.6889
HAM	-11.6891
▁postérieurement	-11.6892
▁choisit	-11.6894
▁académies	-11.6897
Auvergne	-11.69
corps	-11.69
appliquer	-11.6901
▁activement	-11.6902
▁PONT	-11.6904
▁Za	-11.6904
▁accompagnés	-11.6904
▁stockages	-11.6905
ELLI	-11.6906
▁dérivés	-11.6907
▁intranet	-11.6908
Grand	-11.691
▁99	-11.691
▁actuel	-11.6911
▁dentaires	-11.692
▁0,7	-11.6923
doc	-11.6926
▁MAN	-11.6926
▁annexés	-11.6929
▁redevance	-11.6936
nor	-11.6938
▁occuper	-11.6939
8-3	-11.6942
▁131-1	-11.6943
▁Amélie	-11.6946
chard	-11.6946
▁investie	-11.6952
hn	-11.6955
▁engage	-11.6955
▁remises	-11.6958
Mor	-11.6958
utter	-11.6958
▁médi	-11.6958
▁portés	-11.6961
▁Ludovic	-11.6962
▁chirurgien	-11.6963
anomalie	-11.6963
hypothèque	-11.6963
▁cumulé	-11.6963
ysfonctionnement	-11.6965
▁anaphylactique	-11.6965
▁conciliation	-11.6965
▁linguistique	-11.6965
▁octroyé	-11.6965
▁référendaire	-11.6965
▁recto	-11.6965
▁causé	-11.6965
▁gérant	-11.6965
▁consolidés	-11.6966
▁541-4	-11.6967
douane	-11.6969
▁visuel	-11.6969
▁imposées	-11.6973
ADI	-11.6977
rectorat	-11.698
éviter	-11.698
▁échantillons	-11.6982
gor	-11.6983
émettre	-11.6987
▁val	-11.699
Li	-11.6992
15)	-11.6993
▁aient	-11.6995
ext	-11.6995
▁Bernadette	-11.6996
▁Fre	-11.7001
▁excède	-11.7002
OG	-11.7008
▁implantables	-11.7008
Char	-11.701
▁attendus	-11.701
13-8	-11.7014
▁Celle	-11.7014
▁PLA	-11.7014
▁assemblées	-11.7016
CHON	-11.7023
llier	-11.7033
▁UC	-11.7035
cin	-11.7037
2019	-11.7038
Je	-11.7039
▁apprécier	-11.7039
Valentine	-11.7041
gramme	-11.7042
▁Ass	-11.7043
INSCRIPTION	-11.7044
exactitude	-11.7044
▁Varsovie	-11.7044
▁attendre	-11.7044
▁complétant	-11.7044
▁valorisé	-11.7044
▁virologique	-11.7044
▁2015/15	-11.7044
rhino	-11.7044
Armor	-11.7044
▁convient	-11.7047
▁114	-11.7049
RP	-11.705
▁rappelant	-11.7052
Gabriel	-11.7058
Service	-11.706
tine	-11.7062
roux	-11.7062
Cyrille	-11.7063
UNI	-11.7066
▁manuel	-11.7072
anti	-11.7081
▁principalement	-11.7089
obi	-11.709
CAM	-11.709
jo	-11.7098
▁Rémi	-11.7118
▁éducatives	-11.7119
issant	-11.712
▁visuelle	-11.712
autoroute	-11.7123
azi	-11.7124
▁identique	-11.7124
▁Gustave	-11.7124
▁bricolage	-11.7124
▁commerciaux	-11.7124
▁impliqué	-11.7124
▁toléré	-11.7124
▁vitae	-11.7124
▁supervision	-11.7124
▁nautique	-11.7125
Sandra	-11.7125
▁Yvonne	-11.7125
▁configuration	-11.7125
▁résistance	-11.7125
▁THI	-11.7126
TOIRE	-11.7127
LÉ	-11.7128
Orient	-11.7129
▁représentations	-11.7129
▁EL	-11.7135
▁ARMÉES	-11.7135
▁prescrites	-11.7137
▁mandataires	-11.7137
UZ	-11.7137
▁acceptées	-11.7139
organiser	-11.7142
Sylvie	-11.7143
▁estimée	-11.7145
Cyril	-11.7145
▁Marcelle	-11.7146
▁munie	-11.7147
mbert	-11.7153
▁Europe	-11.7155
▁Magistrate	-11.7156
41-5	-11.7156
laire	-11.7166
▁formulées	-11.7175
▁recruté	-11.7178
▁règlementaires	-11.7183
▁aptitudes	-11.7183
▁quai	-11.719
▁SC	-11.7192
yan	-11.7198
▁assurées	-11.7199
rus	-11.72
Ver	-11.7201
ancien	-11.7202
venu	-11.7204
▁Médecine	-11.7205
▁pécuniaire	-11.7205
▁remplaçant	-11.7205
▁trajet	-11.7205
▁verticales	-11.7205
▁viscérale	-11.7205
hydrogène	-11.7205
océan	-11.7205
ièvre	-11.7205
▁déterminant	-11.7205
▁visible	-11.7205
▁marche	-11.7205
▁nettoyage	-11.7207
▁réhabilitation	-11.7212
▁Danielle	-11.7218
CAT	-11.7221
reuse	-11.7222
Lise	-11.7223
▁intra	-11.7225
zon	-11.7227
OYER	-11.7228
▁421-2	-11.7228
▁trace	-11.7232
▁atteintes	-11.724
ourd	-11.7241
▁Pu	-11.7242
▁débute	-11.7243
QUIN	-11.7245
BRE	-11.7247
CEE	-11.7247
▁propriétés	-11.7247
▁prioritaire	-11.7256
▁accompagne	-11.7257
▁parcs	-11.7257
▁ressortissant	-11.726
▁123-3	-11.7261
RRE	-11.7264
▁remplacer	-11.7266
▁Ge	-11.7268
étudiants	-11.727
▁identifiées	-11.7271
usse	-11.7272
▁alternatives	-11.7274
JO	-11.7281
▁impacts	-11.7285
▁déplacer	-11.7286
▁flottant	-11.7286
▁participé	-11.7286
▁siégeant	-11.7286
▁témoin	-11.7286
▁Organismes	-11.7286
▁présidé	-11.7288
ACH	-11.7289
▁Renaud	-11.7291
▁utilise	-11.7297
▁lycées	-11.7302
intention	-11.7306
notamment	-11.7307
»	-11.7307
▁directs	-11.7307
▁OP	-11.731
13-2	-11.7314
▁Matthieu	-11.7321
▁244	-11.7321
▁fournie	-11.7323
cat	-11.7325
▁gares	-11.7326
Alexia	-11.7331
exemption	-11.7335
▁masseur	-11.7339
AILLE	-11.7339
▁Pre	-11.7342
▁invité	-11.7343
▁Gabrielle	-11.7345
▁FOUR	-11.7351
ERIE	-11.7356
▁ROCHE	-11.7357
▁émet	-11.7359
▁Jan	-11.7361
TOR	-11.7366
▁Trans	-11.7368
Drôme	-11.7368
▁Objet	-11.7368
▁dénonciation	-11.7368
▁côte	-11.7368
▁négatif	-11.7368
Mehdi	-11.7368
▁russe	-11.7368
▁recevabilité	-11.7368
▁soumettre	-11.7369
▁bancaires	-11.7369
▁reprendre	-11.7369
oiseaux	-11.737
émissions	-11.7374
ORT	-11.7375
▁allocations	-11.7377
▁SOUS	-11.738
nia	-11.738
Po	-11.738
▁confirmé	-11.7382
/2013	-11.7383
▁To	-11.7384
▁Gh	-11.7387
▁prolongé	-11.7387
▁interdites	-11.7387
Virginie	-11.739
courrier	-11.739
format	-11.7391
ôle	-11.7391
Assas	-11.7392
kh	-11.7396
ison	-11.7398
▁Arcueil	-11.7402
▁533-2	-11.7404
▁Roche	-11.7414
rim	-11.7416
▁connect	-11.7418
▁actuelle	-11.742
▁bail	-11.7423
▁600	-11.7426
▁reporter	-11.7427
affaire	-11.7428
GUY	-11.7429
▁affection	-11.7429
▁311-3	-11.7429
ALI	-11.743
neau	-11.7431
UFR	-11.7434
isant	-11.7435
▁notifiés	-11.7435
iot	-11.7438
dites	-11.7439
▁dépose	-11.744
5349	-11.7442
ado	-11.7448
arbitrage	-11.7451
embauche	-11.7451
▁Catégorie	-11.7451
▁Secrétaire	-11.7451
▁contradictoire	-11.7451
▁délégataire	-11.7451
▁protéine	-11.7451
ajustement	-11.7451
▁tentative	-11.7451
▁chances	-11.7451
Lucile	-11.7452
▁adhérents	-11.7453
▁Calvados	-11.7454
LOGL	-11.7454
Solène	-11.7458
OLI	-11.7461
▁18°	-11.7462
▁renforcé	-11.7463
▁rétablissement	-11.7463
ppe	-11.7465
Qu	-11.7469
▁décrite	-11.7471
neuf	-11.7474
équipage	-11.7474
impression	-11.7475
vy	-11.7478
▁MAU	-11.7481
▁1965	-11.7488
▁hospitalières	-11.7488
▁Chau	-11.7492
▁1970	-11.7497
▁Action	-11.7499
Sud	-11.7499
▁insérées	-11.7501
IRE	-11.7504
Bois	-11.7504
▁saisies	-11.7505
▁restriction	-11.751
▁substance	-11.751
▁Hor	-11.7513
VIGNE	-11.7518
chant	-11.7518
Léo	-11.7532
▁caution	-11.7534
▁CNPMEM	-11.7534
▁Secrétariat	-11.7534
▁concevoir	-11.7534
▁destruction	-11.7534
▁excessif	-11.7534
▁inclut	-11.7534
▁légumes	-11.7534
▁méthodologie	-11.7534
▁possession	-11.7534
▁taxable	-11.7534
▁montagne	-11.7534
▁prud	-11.7534
EMBRE	-11.7535
▁rente	-11.7536
▁médiation	-11.7537
▁milieux	-11.7538
useo	-11.7541
▁distincts	-11.7541
▁constituées	-11.7544
▁représenté	-11.7544
Champagne	-11.7544
▁2007-19	-11.7544
▁exécuter	-11.7548
gard	-11.7549
ours	-11.755
den	-11.7553
▁84-5	-11.7553
▁agente	-11.7553
épi	-11.7554
▁731	-11.7558
▁19°	-11.7561
internationales	-11.7563
Guy	-11.7564
institution	-11.7567
6-5	-11.7568
▁Montant	-11.7571
▁AG	-11.7573
▁adressent	-11.7577
ollet	-11.758
▁soumet	-11.7581
12°	-11.7582
▁561-1	-11.7582
ied	-11.7585
RAND	-11.7587
▁265	-11.759
HAR	-11.759
lav	-11.7592
▁Système	-11.7594
▁vari	-11.7595
▁requérant	-11.7595
▁Coll	-11.7596
▁connu	-11.7598
CES	-11.76
ji	-11.76
prêtés	-11.7607
▁Valentin	-11.7608
▁Ol	-11.7613
enseigne	-11.7614
▁interdictions	-11.7615
graphie	-11.7616
▁possède	-11.7618
▁Nîmes	-11.7618
▁Séverine	-11.7618
▁criminelle	-11.7618
▁participatif	-11.7618
▁spécificités	-11.7618
▁Crédit	-11.7618
▁listés	-11.7618
▁Composition	-11.7618
INSEE	-11.7618
▁préférence	-11.7619
Adeline	-11.7619
guer	-11.7619
▁positionnement	-11.7619
arrondissement	-11.762
▁2261-19	-11.762
▁consultées	-11.7621
▁glaces	-11.7622
▁levée	-11.7623
ui	-11.7632
ECOD	-11.7632
▁détachée	-11.7634
▁Dor	-11.7634
▁Ker	-11.7635
ordonnateur	-11.7635
élaborer	-11.7638
▁BRU	-11.7638
▁Annick	-11.7645
▁sécurisée	-11.7646
olle	-11.7649
ONI	-11.7649
▁Anna	-11.7655
▁1958	-11.7655
▁généralement	-11.766
▁THE	-11.7663
▁143	-11.7664
▁instrument	-11.7667
/2021-12	-11.7669
▁refuser	-11.7669
▁Clémence	-11.7673
DC	-11.7674
▁limitations	-11.7674
▁avancé	-11.7675
▁joueur	-11.768
▁produite	-11.7683
roche	-11.7684
▁Henry	-11.7691
▁accomplir	-11.7696
ève	-11.7701
▁135	-11.7701
0000435186	-11.7703
interrogation	-11.7703
▁centraux	-11.7703
▁embarqué	-11.7703
▁holding	-11.7703
▁injectable	-11.7703
▁jouets	-11.7703
▁perçoivent	-11.7703
▁synthétique	-11.7703
▁photographie	-11.7703
▁5132-1	-11.7703
▁carrés	-11.7705
éo	-11.7705
▁contestation	-11.7707
▁cotation	-11.7707
▁CAS	-11.7707
▁détenue	-11.771
pel	-11.7711
▁2020-172	-11.7714
gli	-11.7714
▁Gall	-11.7717
FN	-11.7717
▁ARS	-11.7718
▁Chirurgie	-11.7718
▁Dela	-11.772
▁2-1	-11.7725
▁bénéfices	-11.7726
écart	-11.773
Samuel	-11.773
Grégoire	-11.773
cel	-11.773
▁bassins	-11.7732
Tous	-11.7733
2022	-11.7734
▁GÉNÉRALE	-11.7735
▁212-3	-11.7737
PORT	-11.7737
GRAND	-11.7745
▁Ainsi	-11.7747
▁chantiers	-11.775
bor	-11.7754
▁081	-11.7754
835	-11.7757
▁indicateur	-11.7758
examiner	-11.7759
▁1225-	-11.7759
Oc	-11.7759
5-6	-11.7761
▁Mass	-11.7764
▁dérogatoire	-11.7766
▁prévisibles	-11.7767
▁LAN	-11.7772
avion	-11.7776
aya	-11.7777
▁expose	-11.7778
chy	-11.7782
▁éducatifs	-11.7784
▁satisf	-11.7786
Félix	-11.7788
▁Acajou	-11.7788
▁Odette	-11.7788
▁défavorable	-11.7788
▁choisies	-11.7789
old	-11.7789
▁Demande	-11.7789
▁immobilisations	-11.7789
▁aspirants	-11.7789
hor	-11.7798
abord	-11.7799
▁confiée	-11.7799
▁complexes	-11.7799
▁latérales	-11.78
clair	-11.78
ète	-11.7801
▁fédérations	-11.7805
Sal	-11.7806
▁canal	-11.7807
▁fort	-11.7809
▁histoire	-11.7813
mètre	-11.7816
▁144	-11.7817
animaux	-11.7817
▁blanc	-11.7824
AST	-11.7826
▁quotas	-11.7832
KI	-11.7834
▁accueillis	-11.7836
▁Cyril	-11.7836
▁unions	-11.7836
▁151	-11.7841
▁Yannick	-11.7843
▁FRE	-11.7846
lière	-11.7846
▁essentielles	-11.7847
▁affranchi	-11.7849
▁directives	-11.785
▁occurrences	-11.7851
▁GOU	-11.7854
MAND	-11.7861
▁consécutives	-11.7861
arn	-11.7864
assesseurs	-11.7865
▁sollicit	-11.7865
▁statue	-11.7867
/2021-10	-11.7868
thi	-11.7873
▁comptabilisé	-11.7874
▁hébergé	-11.7874
▁tampon	-11.7874
▁Donetsk	-11.7874
▁onzième	-11.7874
▁privilégié	-11.7874
▁seringue	-11.7874
▁souscription	-11.7874
▁suffrages	-11.7874
horizon	-11.7874
▁Antilles	-11.7874
bach	-11.7877
▁Bor	-11.7878
▁universel	-11.7879
▁Prise	-11.7879
▁infections	-11.7879
HIN	-11.7884
tou	-11.7885
ajoute	-11.7888
ordonnancement	-11.789
▁Gen	-11.7892
▁rejets	-11.7893
gent	-11.7899
Elisabeth	-11.7905
Guyane	-11.7905
iac	-11.7906
▁MARC	-11.7907
▁dangers	-11.7907
▁distincte	-11.7909
▁006	-11.7912
plan	-11.7912
▁domestiques	-11.7914
▁auditeur	-11.7916
onnier	-11.7916
dro	-11.7919
por	-11.792
▁stratégies	-11.7923
▁Muriel	-11.793
PF	-11.7933
▁pertinents	-11.7936
▁ambassadeur	-11.7936
▁CP	-11.7937
▁PLAN	-11.794
▁ressource	-11.7941
▁terrestre	-11.7942
▁graves	-11.7946
gy	-11.7952
▁partenariats	-11.7957
ame	-11.7957
▁Outre	-11.7958
rez	-11.7959
▁posséd	-11.7961
▁octies	-11.7961
▁quinquies	-11.7961
isolation	-11.7961
▁parlementaire	-11.7962
▁bailleur	-11.7962
▁établissent	-11.7965
▁socle	-11.7973
Alex	-11.7975
▁Tar	-11.7982
modalit	-11.7984
GUI	-11.7985
Yannick	-11.7993
lieutenant	-11.7993
Avant	-11.7994
▁proportionné	-11.7996
.7.	-11.7999
▁Ray	-11.8004
éni	-11.8005
Haut	-11.8007
etti	-11.8009
▁Vol	-11.8009
ioxyde	-11.801
▁FOU	-11.8012
ENTRE	-11.8014
▁Magistrat	-11.8014
▁validée	-11.8016
▁apporté	-11.8024
▁Don	-11.8024
▁transférés	-11.8027
▁régulier	-11.8029
▁réclamation	-11.8029
▁22,9	-11.8031
REY	-11.8034
COL	-11.8035
recrute	-11.8037
▁réglementées	-11.804
▁garanti	-11.8041
fer	-11.8042
ORS	-11.8044
▁3.1.	-11.8045
▁632-2	-11.8046
EXAMEN	-11.8049
intensité	-11.8049
▁JUSTICE	-11.8049
▁agroalimentaire	-11.8049
▁plaisance	-11.8049
▁protéger	-11.8049
▁significatif	-11.8049
▁structuré	-11.8049
▁syndrome	-11.8049
▁siéger	-11.8049
▁levage	-11.8049
▁Villeneuve	-11.8049
▁tierce	-11.805
▁septies	-11.805
▁architecte	-11.805
▁audiovisuelles	-11.8054
▁aérodromes	-11.8054
hier	-11.8056
▁DO	-11.8057
▁commise	-11.8058
▁mobiliser	-11.8058
▁Elie	-11.806
▁GH	-11.8064
LARD	-11.8064
▁anniversaire	-11.8065
▁Magali	-11.8066
ouch	-11.8067
rive	-11.8069
fondatrice	-11.807
Aube	-11.8083
conseil	-11.8084
▁Lionel	-11.809
▁thématiques	-11.8091
▁Lu	-11.8093
Estelle	-11.8095
hom	-11.8096
▁281	-11.81
45-1	-11.8102
pot	-11.8103
itre	-11.8104
lais	-11.8108
▁immobilières	-11.8108
▁théoriques	-11.8113
▁impression	-11.8113
RAIN	-11.8117
▁problème	-11.8119
▁exécutoire	-11.8119
▁chimique	-11.8119
▁installée	-11.8122
INA	-11.8126
org	-11.8131
▁autorise	-11.8132
▁241-1	-11.8133
cours	-11.8134
abon	-11.8135
évènement	-11.8136
card	-11.8137
▁étudiante	-11.8137
laryngologie	-11.8138
▁Lieutenant	-11.8138
▁humanitaire	-11.8138
▁hybride	-11.8138
▁libération	-11.8138
Vosges	-11.8138
▁Crohn	-11.8138
croix	-11.8138
▁Bénédicte	-11.814
▁mieux	-11.8141
▁délimité	-11.8145
LONG	-11.8145
▁Général	-11.8147
Blanche	-11.8151
IENNE	-11.8152
eng	-11.8152
OUD	-11.8152
▁inspections	-11.8154
▁transporteurs	-11.8157
▁mutuelle	-11.8161
▁32,4	-11.8163
tar	-11.8168
▁Mireille	-11.8168
▁calculées	-11.8168
gier	-11.8169
FPF	-11.8169
mani	-11.8172
titulaire	-11.8173
fo	-11.8174
▁Sar	-11.8175
▁lots	-11.8176
nématographiques	-11.8178
▁Ap	-11.818
▁compagnies	-11.8181
▁Manon	-11.8182
▁indiquer	-11.8183
GNE	-11.8184
CHARD	-11.8184
max	-11.8186
sibilité	-11.8187
▁textiles	-11.8189
▁accordés	-11.8191
▁Sabine	-11.8193
sseur	-11.8196
/2021-08-	-11.8209
▁bovin	-11.821
▁adopte	-11.821
poli	-11.821
▁HAUTE	-11.8212
▁334	-11.8213
▁déclare	-11.8218
▁précités	-11.822
MEL	-11.8222
effort	-11.8226
▁RÉPUBLIQUE	-11.8227
▁didactique	-11.8227
▁préserver	-11.8227
▁prévoyant	-11.8227
▁psychomotricien	-11.8227
▁tunnel	-11.8227
▁évidence	-11.8227
diplomatie	-11.8227
▁opposable	-11.8227
RNCP	-11.8227
Ordre	-11.8227
▁durabilité	-11.8227
▁aires	-11.8229
▁nos	-11.823
▁remédier	-11.8231
SION	-11.8239
osi	-11.824
REN	-11.8241
▁KA	-11.8243
▁sujétions	-11.8245
▁prenantes	-11.8248
▁graphiques	-11.8249
NC	-11.8249
VENT	-11.8252
ju	-11.8253
▁affiché	-11.8254
Maur	-11.8257
▁informent	-11.8258
▁Ni	-11.8259
▁énoncés	-11.8261
améliorer	-11.8264
▁multiples	-11.8265
Anna	-11.8265
▁constitués	-11.8266
▁adapter	-11.8267
Vienne	-11.8269
idé	-11.827
ore	-11.8281
▁neuro	-11.8282
▁joindre	-11.8289
.2.1	-11.829
Victoria	-11.829
▁occupés	-11.829
union	-11.8294
émie	-11.8299
▁chargement	-11.8299
▁infrastructure	-11.8302
▁échantillon	-11.8304
ung	-11.8308
clo	-11.8308
▁RU	-11.8313
istant	-11.8313
▁Frais	-11.8315
▁Que	-11.8316
eve	-11.8316
immigration	-11.8317
▁mécanicien	-11.8317
▁rhumatologie	-11.8317
▁traduit	-11.8317
▁trajectoire	-11.8317
▁Domaine	-11.8317
▁sigle	-11.8317
▁muté	-11.8317
▁satisfaction	-11.8319
▁Poste	-11.8319
active	-11.8319
Espagne	-11.8321
▁sensible	-11.8322
échelonnement	-11.8325
ministérielles	-11.833
zer	-11.8331
opposer	-11.8332
▁Lang	-11.8336
▁exécutoires	-11.8336
▁terrestres	-11.8338
▁discrimination	-11.8339
▁CHAMP	-11.8345
▁Dom	-11.8353
▁Public	-11.8353
dri	-11.8355
indiqué	-11.8355
radiologie	-11.8355
injection	-11.8355
Florent	-11.8357
▁spécialistes	-11.8359
▁1901	-11.8359
▁706	-11.8362
▁GRE	-11.8372
▁Marne	-11.8374
▁251-1	-11.8379
▁rive	-11.8382
▁assimilées	-11.8384
▁Fou	-11.8385
tage	-11.8385
ime	-11.8388
▁affiliés	-11.8395
13-3	-11.8397
ary	-11.8399
.2.2	-11.84
LLI	-11.8402
013003	-11.8407
▁Document	-11.8408
verbaux	-11.8408
▁Bâtiment	-11.8408
▁vénéréologie	-11.8408
▁consistant	-11.8408
▁subdivision	-11.8408
Erwan	-11.8408
Aisne	-11.8408
▁DEMANDE	-11.8408
▁caporal	-11.8408
▁légère	-11.8408
▁rhumato	-11.8409
ICHE	-11.841
▁mondial	-11.8411
▁Moyen	-11.8411
Bains	-11.8412
attache	-11.8414
▁Bonn	-11.8417
voi	-11.8418
▁déroulent	-11.8419
▁ml	-11.8419
▁400	-11.842
▁adéquate	-11.8423
gna	-11.8423
dont	-11.8425
▁Hé	-11.8426
ox	-11.8432
appareil	-11.8433
▁121-1	-11.8434
▁513-1	-11.8437
▁enregistrée	-11.8439
▁GEN	-11.844
▁contraventions	-11.844
ORD	-11.8441
MARNE	-11.8441
▁Michelle	-11.8449
▁Géraldine	-11.8457
BERG	-11.8458
▁Brun	-11.8463
appareils	-11.8463
▁compléments	-11.8469
▁0,4	-11.8469
ball	-11.8478
▁animales	-11.8479
▁standard	-11.8484
Ou	-11.8484
chercheur	-11.8484
▁Sam	-11.8484
▁622	-11.849
Morgane	-11.849
▁84-1	-11.8491
▁dématérialisé	-11.8494
▁incombe	-11.8496
implant	-11.8496
▁Ph	-11.8497
.1.2.	-11.8499
▁blanchisserie	-11.85
▁mobilisé	-11.85
acquérir	-11.85
interopérabilité	-11.85
▁antidopage	-11.85
▁endocrinologie	-11.85
▁hiérarchie	-11.85
▁rugby	-11.85
▁ruraux	-11.85
▁scénario	-11.85
▁corporel	-11.85
▁PARTIE	-11.85
▁clientèle	-11.85
▁créanciers	-11.85
▁installé	-11.8501
▁gratuitement	-11.8501
▁gazières	-11.8503
▁clé	-11.8505
▁CAM	-11.8505
▁revient	-11.8506
ema	-11.8508
▁dispenser	-11.851
Micha	-11.8513
▁diffus	-11.8514
gnac	-11.8523
▁542	-11.8524
▁receveur	-11.8524
▁Barb	-11.8525
▁retirée	-11.8526
communication	-11.8528
▁prioritaires	-11.8529
NÉ	-11.8536
▁municipal	-11.8536
ECOE	-11.8539
Fanny	-11.8541
accusé	-11.8541
identifiant	-11.8541
ILLOT	-11.8545
▁aptes	-11.8559
ling	-11.856
▁compose	-11.856
▁643	-11.856
▁potentielle	-11.8562
det	-11.8563
253-3	-11.8568
zac	-11.857
▁menées	-11.8573
▁prévision	-11.8577
nault	-11.8577
▁sapeur	-11.8578
mission	-11.8583
aéronefs	-11.8583
eh	-11.8587
▁courses	-11.859
▁dispensation	-11.8592
▁inutile	-11.8592
▁taxation	-11.8592
▁urgente	-11.8592
▁vendu	-11.8592
▁inégalités	-11.8592
▁CDG	-11.8592
▁dépendent	-11.8594
▁hypothèses	-11.8595
▁232-1	-11.8597
▁"7.	-11.8597
▁consolid	-11.8598
FOR	-11.8599
IBR	-11.8599
▁rattachée	-11.8607
▁exclues	-11.8611
Ré	-11.8614
▁reçus	-11.8618
▁identiques	-11.8624
OLLE	-11.863
EUIL	-11.8641
rey	-11.8642
appliqu	-11.8643
▁Cho	-11.8648
▁préfectorale	-11.8648
▁Aline	-11.8649
▁partagée	-11.8652
TURE	-11.8652
électro	-11.8653
Gir	-11.8656
▁cesser	-11.8657
▁(75)	-11.8665
▁contrôlés	-11.8668
▁législative	-11.8672
▁négociations	-11.8672
▁moral	-11.8674
▁transaction	-11.8675
égi	-11.8676
▁Côtes	-11.8676
▁innovant	-11.8679
▁tiroirs	-11.8679
▁Eugène	-11.8686
▁cervico	-11.8686
▁chèque	-11.8686
▁kilomètre	-11.8686
▁modificative	-11.8686
Angélique	-11.8686
▁SECTION	-11.8686
▁Yvette	-11.8686
▁promouvoir	-11.8686
▁silence	-11.8686
▁ÉPREUVES	-11.8686
pdf	-11.8686
▁proportionnelle	-11.8687
▁actionnaires	-11.8687
▁34009	-11.8687
intervalle	-11.8689
▁3.2.	-11.8689
▁crues	-11.869
▁tendant	-11.869
UZE	-11.8692
▁Terre	-11.8693
▁programmée	-11.8694
▁SAN	-11.8695
▁Gué	-11.8698
Substitute	-11.8699
examinateurs	-11.8703
▁découverte	-11.8705
▁recueille	-11.8708
▁441-1	-11.8714
NEAU	-11.8716
▁dépendance	-11.8717
Paris	-11.872
LAIS	-11.8721
femmes	-11.8721
émont	-11.8724
▁enregistrements	-11.8725
▁FORMATION	-11.8728
vir	-11.8729
Morbihan	-11.8731
Edouard	-11.8731
Thérèse	-11.8731
externe	-11.8731
Gérard	-11.8731
▁prescrits	-11.8732
▁tha	-11.8734
▁FRA	-11.8735
▁signés	-11.8738
▁paris	-11.8739
▁exigé	-11.8739
▁papiers	-11.8739
arbi	-11.8739
▁All	-11.874
▁SAINTE	-11.8741
▁transférées	-11.8741
▁reporté	-11.8742
IVE	-11.8742
DIS	-11.8747
Sou	-11.8751
▁logicielle	-11.8762
LAY	-11.8762
▁constater	-11.8764
▁latérale	-11.8767
▁Basse	-11.8772
▁Aurélien	-11.8775
0000	-11.8777
▁difficile	-11.878
Sèvres	-11.878
▁Métropole	-11.878
▁OFFICIERS	-11.878
▁Octro	-11.878
▁Paragraphe	-11.878
▁métastatique	-11.878
Margot	-11.878
Coralie	-11.878
Ardenne	-11.878
▁conviennent	-11.8781
▁licences	-11.8782
istées	-11.8782
▁Palais	-11.8783
▁convoqué	-11.8785
Lou	-11.8786
Barbara	-11.8786
Del	-11.879
uma	-11.8792
▁légalement	-11.8792
Nadia	-11.8794
▁CODE	-11.8797
▁Fonction	-11.88
▁accompagner	-11.8802
▁indésirables	-11.8804
▁surfaces	-11.8805
7-5	-11.8805
▁trouver	-11.8811
Cor	-11.8811
▁complets	-11.8811
ok	-11.8818
gre	-11.8818
▁normalement	-11.882
▁compromett	-11.8822
▁anglais	-11.8824
▁adoption	-11.8824
éventuel	-11.8827
Richard	-11.8827
éron	-11.8829
▁Cass	-11.883
écu	-11.8836
▁financées	-11.8842
Sans	-11.8847
ADA	-11.8847
352	-11.8848
▁PIERRE	-11.8851
CHAU	-11.8854
▁forestiers	-11.8856
▁Alia	-11.8857
IGNE	-11.886
▁Paule	-11.8863
▁complexe	-11.8863
apporter	-11.887
BOURG	-11.8872
▁syndic	-11.8872
dor	-11.8872
érique	-11.8873
emprise	-11.8874
diabétologie	-11.8875
▁2018/858	-11.8875
▁agronomique	-11.8875
▁archéologique	-11.8875
▁favorisant	-11.8875
▁reconversion	-11.8875
▁tolérance	-11.8875
▁végétaux	-11.8875
▁roulant	-11.8875
▁gardien	-11.8875
▁PDF	-11.8875
▁passible	-11.8876
▁progressive	-11.8876
▁Suisse	-11.8876
▁implique	-11.8876
▁Havre	-11.8876
Afrique	-11.8876
▁Classe	-11.8876
Cet	-11.8877
▁pourvu	-11.888
product	-11.888
▁réelles	-11.8882
▁multipliée	-11.8884
Euro	-11.8884
actionnaire	-11.8888
▁actualisée	-11.8888
▁forfaits	-11.8892
▁copropriétaires	-11.8894
▁Hugues	-11.8895
▁désignent	-11.8896
OLE	-11.8898
▁BLANC	-11.89
ROME	-11.8901
▁quand	-11.8907
▁recevable	-11.8908
▁Alban	-11.8911
urne	-11.8912
▁5.3	-11.8917
▁4.1.	-11.8924
▁accorder	-11.8926
RM	-11.8926
▁vaccin	-11.894
(2)	-11.894
bout	-11.8942
Hauts	-11.8945
▁exploiter	-11.8946
dra	-11.8947
lard	-11.8948
nouvellement	-11.8948
▁Mans	-11.8957
▁titularisé	-11.8961
eff	-11.8964
▁climatiques	-11.8964
▁Tableau	-11.8965
▁spectacles	-11.8965
▁psycho	-11.8968
2005	-11.8968
▁habituel	-11.897
▁cédant	-11.8971
amiral	-11.8971
▁EMPLOIS	-11.8971
▁certifie	-11.8971
agenda	-11.8971
Kévin	-11.8971
▁indépendamment	-11.8971
▁ratification	-11.8971
▁revêtement	-11.8972
▁écarts	-11.8973
ivier	-11.8973
▁160-8	-11.8974
obsta	-11.8975
▁journaliste	-11.8975
Maxence	-11.8976
▁sollicitée	-11.8977
▁dons	-11.8978
▁pourvues	-11.8978
▁accepter	-11.8979
▁302	-11.8984
▁accomplies	-11.8984
▁oto	-11.8988
13-5	-11.8992
▁annulés	-11.8992
adalimumab	-11.8993
▁BRO	-11.8998
midi	-11.8999
atoire	-11.9004
▁REM	-11.9005
6-33	-11.9006
Ka	-11.9011
GH	-11.9014
XI	-11.9015
IES	-11.9015
▁Bro	-11.9015
▁chirurgicale	-11.9017
fu	-11.9018
Agathe	-11.9022
Robert	-11.9023
▁SAU	-11.9024
▁Far	-11.9025
▁Armand	-11.9031
▁différent	-11.9031
caisse	-11.9032
naud	-11.9032
lain	-11.9033
▁BUR	-11.9042
▁réservées	-11.9043
GARD	-11.9044
▁messages	-11.9045
▁naturelles	-11.9054
▁communale	-11.906
▁PC	-11.9061
▁TOU	-11.9066
▁attester	-11.9066
▁bordereau	-11.9068
▁axiale	-11.9068
▁gamètes	-11.9068
▁tropicales	-11.9068
▁cépage	-11.9069
▁déduit	-11.9069
abandon	-11.9069
▁accueillant	-11.9069
approuvant	-11.9069
▁montage	-11.9069
▁sonore	-11.9069
▁navale	-11.9069
▁afférente	-11.9071
▁clairement	-11.9071
▁ateliers	-11.9071
▁gazole	-11.9072
▁Mag	-11.9072
▁élevages	-11.9073
▁Définitions	-11.9074
Sylv	-11.9079
6.2	-11.908
▁(5)	-11.9083
▁Jou	-11.9086
▁713-1	-11.9086
▁coordonner	-11.9087
▁511-1	-11.9087
HAL	-11.9091
▁euro	-11.9091
▁333-1	-11.9092
▁cessionnaire	-11.9096
aucun	-11.9101
zé	-11.9105
▁plu	-11.9107
▁prochain	-11.9109
Pro	-11.9113
▁régisseurs	-11.9114
▁exceptionnels	-11.9115
Compte	-11.9119
▁entrer	-11.912
▁Florian	-11.912
▁vent	-11.9121
▁43°	-11.9122
▁Pic	-11.9127
illo	-11.9128
▁Tur	-11.9131
▁GER	-11.9131
▁pont	-11.9136
▁réorganisation	-11.9137
▁casier	-11.9139
▁pathologiques	-11.9139
régional	-11.914
▁612-1	-11.9143
▁Première	-11.9145
22-6	-11.9147
▁additionnelles	-11.9149
▁intérieures	-11.9149
▁transfusion	-11.915
▁Ci	-11.9151
lette	-11.9153
▁forfaitaires	-11.9156
▁systémique	-11.9157
▁coopérative	-11.9157
▁ferroviaires	-11.9161
conomie	-11.9162
▁dédiés	-11.9166
Ardèche	-11.9167
Industrie	-11.9167
▁Méthode	-11.9167
▁lucratif	-11.9167
▁DOSSIER	-11.9167
0000445902	-11.9167
▁péage	-11.9167
▁Lot	-11.9167
▁prospective	-11.9167
▁confort	-11.9167
▁autonomie	-11.9168
▁chroniques	-11.9168
▁psoriasis	-11.9169
pierre	-11.9169
▁2016/16	-11.9169
▁Arthur	-11.9173
systématiquement	-11.9174
▁ancienneté	-11.9178
▁huiles	-11.9179
▁Aurore	-11.9179
▁personnalisé	-11.9183
▁réalisent	-11.9183
▁distinct	-11.9183
mane	-11.9183
▁clés	-11.9183
exprimer	-11.9184
▁Protection	-11.9186
▁6122-	-11.9189
▁effectives	-11.9192
▁logistiques	-11.9193
ogne	-11.9198
▁2.5.	-11.9199
ssen	-11.92
▁pleine	-11.9207
▁fixent	-11.9208
ETTI	-11.9211
▁CHI	-11.9212
▁fédérale	-11.9215
position	-11.9218
adapter	-11.9221
Julia	-11.9221
hel	-11.9222
▁Julia	-11.9223
▁Han	-11.9225
▁organisationnel	-11.9226
LAC	-11.9227
tti	-11.9229
teau	-11.923
▁Voie	-11.9233
▁exécutées	-11.9235
▁violences	-11.9236
ETE	-11.9251
▁républicaine	-11.9254
▁dépend	-11.9257
/2020	-11.9259
MERM	-11.926
▁finance	-11.9262
▁TO	-11.9263
exige	-11.9263
appuyant	-11.9266
échéancier	-11.9266
▁Covid	-11.9266
▁Physique	-11.9266
▁abîmé	-11.9266
▁biomasse	-11.9266
▁corvette	-11.9266
▁scellé	-11.9266
▁traduction	-11.9266
▁segment	-11.9266
▁TTC	-11.9266
▁tête	-11.9266
Entretien	-11.9267
HLM	-11.9269
Cass	-11.9269
▁Mode	-11.9271
▁mineures	-11.9271
360	-11.9271
▁anime	-11.9286
nent	-11.9288
▁anglaise	-11.9288
Rou	-11.9288
(1°)	-11.9289
275	-11.9295
antenne	-11.9303
▁Rémy	-11.9308
IGP	-11.9312
has	-11.9312
▁SAPA	-11.9313
▁Acte	-11.9316
▁exprimées	-11.9317
▁travailler	-11.9321
nf	-11.9322
Disposition	-11.9322
meur	-11.9333
ELLES	-11.9334
assa	-11.9344
écl	-11.9348
▁mutations	-11.9355
▁locatif	-11.9358
▁ouvré	-11.9358
duc	-11.9362
ome	-11.9363
atant	-11.9364
rectificatif	-11.9366
émargement	-11.9366
▁idiopathique	-11.9366
▁pressing	-11.9366
▁précarité	-11.9366
▁reclassés	-11.9366
▁référencé	-11.9366
▁cuir	-11.9366
Rachel	-11.9366
▁correcteurs	-11.9366
ORNE	-11.9371
Fontaine	-11.9372
332-2	-11.9374
▁Niveau	-11.9378
Di	-11.9378
▁implantée	-11.9379
▁augmentation	-11.9382
IAC	-11.9384
▁entraîner	-11.9384
ULT	-11.9385
COUR	-11.9387
▁survenu	-11.9389
▁Justine	-11.9389
Elisa	-11.939
▁saison	-11.9391
▁rattachées	-11.9392
bois	-11.9394
▁COLL	-11.9394
▁poissons	-11.9395
▁conducteurs	-11.9397
çon	-11.9398
VRE	-11.9408
aume	-11.941
UGE	-11.941
dal	-11.9411
▁ratio	-11.9415
Nicol	-11.9415
ssier	-11.942
▁Ukraine	-11.942
Rémy	-11.9424
appartenant	-11.9424
Lionel	-11.9425
Alix	-11.9426
▁confirm	-11.9428
▁inflammables	-11.943
issi	-11.9432
▁Grégoire	-11.9434
▁LUN	-11.9435
▁favorise	-11.944
▁reçue	-11.9444
▁Sp	-11.9445
ILI	-11.9451
▁014	-11.9452
OIRE	-11.9453
▁rémunérés	-11.9455
▁NOTAIRE	-11.9458
▁112-1	-11.9458
▁accessoire	-11.946
affectant	-11.9467
respiratoire	-11.9467
▁atmosphérique	-11.9467
▁dépouillement	-11.9467
▁entièrement	-11.9467
▁radioactifs	-11.9467
Ahmed	-11.9467
appendice	-11.9467
entraide	-11.9467
▁moderne	-11.9467
▁genre	-11.9467
Acheteur	-11.9467
▁allant	-11.9467
▁notion	-11.9468
▁"(1)	-11.9468
▁correct	-11.9473
▁contribuent	-11.9477
BONNE	-11.9478
Go	-11.9483
▁rémunérée	-11.9484
▁Quentin	-11.9485
▁finals	-11.9485
prêt	-11.9487
blanc	-11.9489
▁Douai	-11.949
DENIS	-11.9491
▁verse	-11.9491
▁Grande	-11.9497
▁distinctes	-11.9498
▁Base	-11.9501
ager	-11.9503
▁coup	-11.9503
▁envoyer	-11.9506
▁connecté	-11.9506
amendement	-11.9507
▁2.4.	-11.9507
chaud	-11.9515
▁déf	-11.9517
gère	-11.9523
travail	-11.9527
exa	-11.9528
Carole	-11.9528
▁démarrage	-11.9528
▁majeures	-11.9529
▁financés	-11.9529
▁travaille	-11.9533
Brice	-11.9533
guet	-11.9534
▁313-2	-11.9537
▁Chan	-11.9537
ERRI	-11.9538
▁442	-11.9539
ISE	-11.9544
▁sinistre	-11.9544
▁Non	-11.9546
VERT	-11.955
▁formée	-11.9552
▁Vice	-11.9553
Substitut	-11.9555
▁introduit	-11.9562
élu	-11.9562
▁146	-11.9562
▁Définition	-11.9563
▁vacant	-11.9564
ILLER	-11.9566
appartenance	-11.9569
▁Muséum	-11.9569
▁concourent	-11.9569
▁homologuant	-11.9569
▁instruit	-11.9569
▁suisse	-11.9569
Aymeric	-11.9569
Victoire	-11.9569
petits	-11.9569
▁575/2013	-11.9569
École	-11.9569
▁Filière	-11.9569
▁acceptation	-11.9569
onglet	-11.9569
ovich	-11.957
▁Tre	-11.957
▁logis	-11.9572
EVANT	-11.9574
espèces	-11.9575
▁5121-12	-11.9577
▁6232-1	-11.9579
▁MIN	-11.9585
ographique	-11.9587
▁minier	-11.9588
ley	-11.9589
▁présentiel	-11.959
▁nord	-11.9597
▁MARCH	-11.9599
▁MAZ	-11.9603
▁Technicien	-11.9607
usagers	-11.9614
▁exposés	-11.9616
▁repas	-11.9617
chon	-11.9619
raud	-11.9624
▁enveloppes	-11.9624
adjoints	-11.963
PUY	-11.9631
▁audits	-11.9635
disciplinaire	-11.9642
▁décrits	-11.9643
ILE	-11.9653
▁approuve	-11.9653
VIL	-11.9656
Orne	-11.9656
Bon	-11.9657
▁immatriculée	-11.9659
▁Em	-11.9661
▁règlementation	-11.9665
▁contest	-11.9667
esson	-11.967
Informatique	-11.9672
affiliation	-11.9672
▁associatif	-11.9672
▁chute	-11.9672
▁dégradé	-11.9672
▁facilitateur	-11.9672
▁manipulateur	-11.9672
▁psoriasique	-11.9672
▁successives	-11.9672
▁transbordement	-11.9672
▁Travail	-11.9672
hématologie	-11.9672
▁2022-2023	-11.9672
oxygène	-11.9672
▁voile	-11.9672
▁appartiennent	-11.9672
▁Réalisation	-11.9672
▁Colmar	-11.9672
▁RCP	-11.9672
▁reversement	-11.9673
▁Marthe	-11.9673
▁Personnel	-11.9675
.2.3.	-11.9681
▁plage	-11.9682
iri	-11.9684
-935	-11.9685
▁XII	-11.9689
cid	-11.9693
▁veillent	-11.9693
thy	-11.9698
▁Evelyne	-11.9706
Quel	-11.9706
▁Font	-11.9707
VY	-11.9707
▁électro	-11.9709
▁provisions	-11.9711
▁rencontr	-11.9726
IONS	-11.9728
▁collaborateurs	-11.9735
Amandine	-11.9736
quota	-11.9737
▁ponctuelles	-11.9737
Agnès	-11.9737
▁219	-11.9737
accéder	-11.9741
▁semi	-11.9742
▁hospital	-11.9744
▁fermé	-11.9751
▁étape	-11.9752
pres	-11.9756
▁CHATEAU	-11.9756
▁débats	-11.976
▁Guill	-11.9763
influen	-11.9764
▁350	-11.9767
NAUD	-11.9771
▁simultané	-11.9773
Emploi	-11.9774
ambassade	-11.9774
enceinte	-11.9774
rol	-11.9775
▁géré	-11.9775
▁contemporain	-11.9776
▁diminué	-11.9776
▁littéraire	-11.9776
▁réserviste	-11.9776
Amaury	-11.9776
▁Option	-11.9776
Clarisse	-11.9776
▁GOUVERN	-11.9776
▁Travaux	-11.9776
▁VHC	-11.9776
dentiste	-11.9776
▁désinfection	-11.9777
▁Entreprises	-11.9777
▁anomalies	-11.9778
/437	-11.9778
▁FRANCE	-11.978
mail	-11.9782
ajoutent	-11.9782
Fi	-11.9786
ope	-11.9786
▁exigés	-11.9791
▁autrement	-11.9795
▁carré	-11.9796
▁mains	-11.9797
▁produites	-11.98
▁Four	-11.9803
PITRE	-11.9805
▁étendues	-11.9807
stat	-11.9815
▁gène	-11.9816
Jouy	-11.9821
▁515-	-11.9828
▁validées	-11.9828
▁Guer	-11.9837
vor	-11.9842
Benoit	-11.9843
existe	-11.9843
Alban	-11.9843
Article	-11.9843
pharmaceutique	-11.9845
▁Samuel	-11.9848
affecte	-11.9851
mba	-11.9851
▁Tal	-11.9858
▁sise	-11.9859
LEN	-11.9859
▁avocats	-11.9865
/2021-03-3	-11.9868
nalité	-11.9868
▁322	-11.9872
MAL	-11.9873
▁insuffisance	-11.9875
▁rechercher	-11.9876
▁incidence	-11.9881
▁13/03/2017	-11.9881
▁Danièle	-11.9881
▁Monaco	-11.9881
▁SNCF	-11.9881
▁cynotechnique	-11.9881
▁jurisprudence	-11.9881
▁néphrologie	-11.9881
▁prérogatives	-11.9881
▁typologie	-11.9881
▁onéreux	-11.9881
▁mariée	-11.9881
▁trousse	-11.9881
21256	-11.9881
▁densité	-11.9881
▁diriger	-11.9885
▁MASS	-11.9887
▁Kh	-11.9888
▁intervenue	-11.9895
▁atelier	-11.9895
▁renoncer	-11.9897
▁471	-11.9897
▁partiellement	-11.9899
▁SERVICES	-11.9899
AUDE	-11.9902
▁significatives	-11.9905
▁je	-11.9907
▁Fin	-11.991
articul	-11.9913
▁Compétences	-11.9916
▁5221-	-11.9919
▁démonstration	-11.9921
▁contrôleuse	-11.9921
▁MAY	-11.9923
▁PUY	-11.9923
MERT	-11.9926
▁CHO	-11.9928
▁distributeurs	-11.9929
ANN	-11.9931
▁retourné	-11.9935
▁6113-	-11.9937
▁BAU	-11.9939
▁BRA	-11.9939
jours	-11.994
▁BRUN	-11.9941
▁Joséphine	-11.9944
Laboratoire	-11.995
Christelle	-11.9951
▁payés	-11.9951
▁Vendée	-11.9958
CNR	-11.9959
▁EDF	-11.9961
assurent	-11.9963
▁Estelle	-11.9963
▁Vanessa	-11.9966
ague	-11.9969
▁calculés	-11.997
▁Sarthe	-11.9972
▁bonifications	-11.9972
ACT	-11.9981
Perr	-11.9982
annonce	-11.9986
ÉPREUVE	-11.9987
▁apposé	-11.9987
▁polyvalent	-11.9987
AASQA	-11.9988
Eléonore	-11.9988
▁Matériel	-11.9988
▁Nanterre	-11.9988
▁chancellerie	-11.9988
▁lésions	-11.9988
▁vœux	-11.9988
▁Belfort	-11.9988
duction	-11.9989
▁évènements	-11.9989
▁Acc	-11.9991
oui	-11.9993
▁48°	-11.9993
▁greffiers	-11.9994
▁Hy	-11.9996
▁impartis	-11.9999
▁représentent	-12
▁proposent	-12.0003
▁visent	-12.0005
▁sages	-12.0009
▁intégrer	-12.0009
▁tou	-12.001
▁différente	-12.0011
avec	-12.0014
22-9	-12.0017
▁Hel	-12.0019
▁Tou	-12.0024
▁appels	-12.0025
APE	-12.0026
▁contr	-12.0032
▁Bio	-12.0037
▁0,3	-12.0039
hem	-12.0044
uge	-12.0047
gène	-12.0049
▁écart	-12.0059
Sciences	-12.0059
bonne	-12.006
▁optique	-12.0061
▁survie	-12.0062
▁citoyens	-12.0064
Tarn	-12.0066
▁220	-12.0069
▁immatriculés	-12.0071
Bel	-12.0082
▁471-1	-12.0084
▁voit	-12.0086
NIE	-12.0086
sans	-12.0086
exprim	-12.0093
▁justifications	-12.0095
ÉVALUATION	-12.0095
▁86-442	-12.0095
▁CONVENTION	-12.0095
▁ambulatoire	-12.0095
▁convenance	-12.0095
▁perçoit	-12.0095
▁régularité	-12.0095
▁sanguins	-12.0095
▁94749	-12.0095
▁Recherche	-12.0095
Autriche	-12.0095
▁Etude	-12.0095
▁finition	-12.0095
▁minoré	-12.0095
▁ventilé	-12.0095
Gwena	-12.0095
▁renvoi	-12.0095
Armelle	-12.0095
▁Bastia	-12.0095
▁facteur	-12.0096
▁essences	-12.0096
▁revalorisation	-12.0097
▁démontrer	-12.0099
▁LANG	-12.0101
ASMR	-12.0103
Gautier	-12.0106
▁Voir	-12.0106
influence	-12.011
▁régissant	-12.0113
▁Mah	-12.0114
AME	-12.0116
▁problèmes	-12.0118
POL	-12.0122
▁dérogatoires	-12.0123
ZON	-12.0125
IMP	-12.0125
affecter	-12.0126
▁susmentionnés	-12.0127
▁coordonnateurs	-12.0129
▁GAL	-12.013
neuve	-12.013
▁campagnes	-12.0138
▁restreint	-12.0138
▁tabacs	-12.0141
écoute	-12.0141
▁rejetée	-12.0142
▁chiffrée	-12.0143
▁aval	-12.0147
journées	-12.0147
▁attribuer	-12.0149
▁1.1	-12.0152
▁123-2	-12.0154
▁touch	-12.0156
▁242-1	-12.0157
▁131-3	-12.0157
▁Bonne	-12.0158
ellement	-12.0163
acquitte	-12.017
jonction	-12.0172
▁cessions	-12.0184
▁renforcée	-12.0187
itz	-12.0189
nac	-12.0189
UBERT	-12.019
GIE	-12.0199
euro	-12.02
▁Rey	-12.02
▁décharge	-12.0201
cadastr	-12.0203
Mulhouse	-12.0204
Olivia	-12.0204
Rodolphe	-12.0204
abrogation	-12.0204
accession	-12.0204
▁Londres	-12.0204
▁Vendôme	-12.0204
▁illicite	-12.0204
▁indemnisé	-12.0204
▁renseigner	-12.0204
▁électronicien	-12.0204
▁Cayenne	-12.0204
▁signaux	-12.0204
▁survenance	-12.0204
▁VHB	-12.0204
▁lisible	-12.0204
Orientales	-12.0204
Tristan	-12.0204
lam	-12.0206
▁BAT	-12.0206
▁dispensées	-12.0211
▁adoptées	-12.0212
▁Micha	-12.0214
amen	-12.0217
▁estimé	-12.0221
▁53-1	-12.0226
lum	-12.0228
interface	-12.023
BARD	-12.023
Roy	-12.0239
▁spécifiquement	-12.024
▁CARRI	-12.0242
▁ouvrables	-12.0243
▁Mayenne	-12.0243
▁Parc	-12.0249
▁séparée	-12.0252
▁secondaires	-12.0254
Hu	-12.0255
Durand	-12.0257
bot	-12.0257
▁saisis	-12.026
achet	-12.0264
▁Air	-12.0272
▁décidé	-12.0272
▁rapporteurs	-12.0273
▁signalements	-12.0273
▁001	-12.0276
Béatrice	-12.028
système	-12.0281
▁Notaria	-12.0282
UTC	-12.0285
asso	-12.029
Beau	-12.0293
▁Maud	-12.0299
▁réintégrée	-12.0299
EE	-12.0302
▁confiés	-12.0304
▁conçus	-12.0309
ZO	-12.031
▁présidée	-12.0311
▁traite	-12.0313
indisponibilité	-12.0314
spatial	-12.0314
épuration	-12.0314
▁Accueil	-12.0314
▁Blessé	-12.0314
▁Déclaration	-12.0314
▁Déplacements	-12.0314
▁Evaluer	-12.0314
▁boîte	-12.0314
▁comptant	-12.0314
▁considère	-12.0314
▁découlant	-12.0314
▁manipulation	-12.0314
▁maréchal	-12.0314
▁musicale	-12.0314
▁méconnaissance	-12.0314
▁psychique	-12.0314
▁relever	-12.0314
▁suspect	-12.0314
▁étudié	-12.0314
▁Logement	-12.0314
▁cuisine	-12.0314
▁Gaston	-12.0314
▁Dotation	-12.0314
▁soussigné	-12.0314
▁162-1-7	-12.0314
Col	-12.0315
articulation	-12.0316
▁largeur	-12.0316
▁définissent	-12.0317
▁incidences	-12.0317
formant	-12.0317
ECOG	-12.0318
▁posées	-12.0319
▁km	-12.032
/2008	-12.0323
▁trouvent	-12.0323
bilité	-12.0323
stein	-12.0324
▁Loiret	-12.0325
▁232-9	-12.0325
▁CFP	-12.0326
▁vivants	-12.0329
▁occasionnel	-12.0329
▁fasse	-12.0331
rois	-12.0331
▁KER	-12.0333
▁nécessitent	-12.0335
▁Matériaux	-12.0342
CLOS	-12.035
▁Laboratoire	-12.0352
▁continuent	-12.0357
▁FAU	-12.0361
▁signaler	-12.0362
▁Cout	-12.0365
HON	-12.0368
▁3-2	-12.0372
▁explosifs	-12.0373
▁forcée	-12.0373
mond	-12.0374
▁CHAN	-12.038
▁143-1	-12.0384
gal	-12.0388
▁125-1	-12.0388
PME	-12.0391
Maurice	-12.0393
▁communautés	-12.0393
▁conservateurs	-12.0395
▁original	-12.0398
▁Cro	-12.04
GIP	-12.0404
tome	-12.0404
aillard	-12.0409
▁anticipé	-12.0411
ATT	-12.0412
ANTS	-12.0413
▁Berg	-12.0414
▁couvertes	-12.0418
odo	-12.0419
investigation	-12.0423
vez	-12.0423
INRAE	-12.0425
Mathias	-12.0425
Territoire	-12.0425
étanchéité	-12.0425
▁Ministre	-12.0425
▁Médicament	-12.0425
▁réclamée	-12.0425
▁usagés	-12.0425
▁télésoin	-12.0425
21258	-12.0425
21259	-12.0425
▁Opération	-12.0425
PUECH	-12.0425
▁raccordé	-12.0425
▁Régie	-12.0425
Tom	-12.0426
Loi	-12.0427
MRA	-12.0427
▁citoyenne	-12.0428
▁CONTRAT	-12.0428
ubert	-12.0428
▁Notaire	-12.043
▁Vern	-12.0431
▁519-1	-12.0431
stéro	-12.0431
▁422-2	-12.0433
asser	-12.0433
▁Bouch	-12.0434
▁Maz	-12.0439
IGNON	-12.0441
essi	-12.0443
evant	-12.0451
RAULT	-12.0451
▁refusée	-12.0454
lina	-12.0455
try	-12.0459
Mary	-12.0462
▁jugée	-12.0463
▁Villa	-12.0464
▁plateau	-12.0467
▁connue	-12.0476
▁évaluée	-12.0476
▁relevés	-12.0477
VAN	-12.0478
▁rencontre	-12.0478
▁expertises	-12.0485
▁maternelle	-12.0485
▁DOM	-12.0486
▁détaillées	-12.049
▁officielles	-12.0494
5-8	-12.0495
▁conçu	-12.0499
Ol	-12.05
▁adéquat	-12.0501
intranet	-12.0506
▁illégale	-12.0508
internet	-12.051
BOT	-12.0521
▁XIII	-12.0523
range	-12.0523
▁mères	-12.053
▁José	-12.0531
▁céramique	-12.0537
▁individualisé	-12.0537
▁multilatéral	-12.0537
effacement	-12.0537
entrepreneur	-12.0537
▁Edmond	-12.0537
▁biomédecine	-12.0537
▁caméra	-12.0537
▁décollage	-12.0537
▁plénière	-12.0537
▁représentatif	-12.0537
▁satellite	-12.0537
▁usagées	-12.0537
▁réfaction	-12.0537
Belgique	-12.0537
Martial	-12.0537
▁Sénat	-12.0537
▁NSF	-12.0537
▁douleur	-12.0538
▁Tro	-12.0539
installateur	-12.0539
▁proposant	-12.054
▁133-5-	-12.0541
Pontoise	-12.0541
▁Antoinette	-12.0542
▁Objectif	-12.0542
▁612-3	-12.0543
▁trouble	-12.0543
▁science	-12.0543
▁4139-	-12.0543
▁barrière	-12.0544
▁CDC	-12.0545
RG	-12.0549
CIA	-12.055
▁DÉC	-12.055
▁approfondi	-12.0557
valeur	-12.0558
▁171-1	-12.0559
RUE	-12.0568
▁apportée	-12.057
▁Angel	-12.0573
13-7	-12.0576
jon	-12.0581
▁quotidien	-12.0586
by	-12.0589
▁CAN	-12.0597
comb	-12.0598
▁"8.	-12.0599
▁opérés	-12.0599
▁appareil	-12.0602
Sami	-12.0604
▁4.2.	-12.0608
▁Ur	-12.0611
bservatoire	-12.0617
▁Vallée	-12.0618
Matériaux	-12.0621
universitaire	-12.0623
▁aquatiques	-12.0626
Gui	-12.0628
ignac	-12.0628
ller	-12.063
ajout	-12.0632
ELLO	-12.0632
▁prorogé	-12.0634
PRO	-12.0642
▁Jam	-12.0642
ANDRE	-12.0645
▁plastiques	-12.0648
raf	-12.0649
incinération	-12.0651
écoulement	-12.0651
▁Bibliothèque	-12.0651
▁Indemnité	-12.0651
▁olympique	-12.0651
▁pratiquant	-12.0651
▁télématique	-12.0651
▁Gisèle	-12.0651
▁unifiée	-12.0651
extraction	-12.0651
▁produisant	-12.0651
régisseuse	-12.0651
expéditeur	-12.0652
véite	-12.0653
▁confier	-12.0654
Cependant	-12.0655
PAUL	-12.0656
▁circonstance	-12.0658
▁PLOU	-12.066
▁intégrale	-12.0661
▁Thibault	-12.0661
▁fondations	-12.0662
DECO	-12.0663
▁expérimentale	-12.0669
wen	-12.0673
▁7504	-12.0675
▁interrompue	-12.0681
▁aéro	-12.0685
porte	-12.0688
▁Recrutement	-12.0692
oppos	-12.0701
▁1963	-12.0701
ivre	-12.0702
▁Dordogne	-12.0705
▁constitutifs	-12.0708
▁adoptée	-12.0709
▁maxi	-12.0715
▁prochaine	-12.0718
▁hyper	-12.0718
▁1123-	-12.072
outils	-12.0721
▁reconduite	-12.0725
▁réglé	-12.0725
atifs	-12.0727
ova	-12.0728
Lot	-12.0729
ORE	-12.0729
BAUD	-12.0737
NTI	-12.0737
INRIA	-12.0737
approche	-12.0738
▁Er	-12.0739
▁conservé	-12.0746
▁myélom	-12.0746
▁Marianne	-12.0755
contractant	-12.0764
aspirant	-12.0764
▁dimension	-12.0765
▁recens	-12.0765
▁inhérent	-12.0766
abattement	-12.0766
▁DIRECTION	-12.0766
▁RECRUTEMENT	-12.0766
▁Responsable	-12.0766
▁ankylosante	-12.0766
▁assermenté	-12.0766
▁confinement	-12.0766
▁météorologie	-12.0766
▁quelconque	-12.0766
▁rattrapage	-12.0766
▁régulariser	-12.0766
▁Type	-12.0766
▁web	-12.0766
ÉDUCATION	-12.0766
▁radiologique	-12.0767
Assistant	-12.0768
▁JOU	-12.077
▁payées	-12.077
▁consigne	-12.0774
▁tiroir	-12.0774
▁PREMI	-12.0774
impartialité	-12.0775
▁désaccord	-12.0775
artisan	-12.0779
▁soc	-12.0781
▁2030	-12.0782
▁mono	-12.0783
IZE	-12.0783
get	-12.0792
céder	-12.08
▁Amandine	-12.0809
▁chirurgiens	-12.081
ATS	-12.081
▁sollicité	-12.0811
The	-12.0812
▁MEN	-12.0813
▁père	-12.0818
▁132-2	-12.0819
GAR	-12.0827
▁empêcher	-12.0833
▁Cre	-12.0835
▁potentiels	-12.0837
▁indispensables	-12.0838
RAP	-12.0845
informe	-12.0846
▁assujetti	-12.0853
▁conc	-12.0853
▁poursuit	-12.0855
▁rapides	-12.0855
Meurthe	-12.0855
Sauf	-12.0855
économique	-12.0855
Pré	-12.0856
▁004	-12.0858
▁6.1	-12.0859
▁Tu	-12.0861
Patrice	-12.0863
AZA	-12.0864
▁consenties	-12.0869
▁Doubs	-12.0874
▁2.2	-12.0874
▁spécifi	-12.0875
▁Sonia	-12.0875
urier	-12.0875
Zoé	-12.0879
ommissariat	-12.0879
▁Eiffel	-12.0882
▁Inscription	-12.0882
▁couvrant	-12.0882
▁façade	-12.0882
▁navigabilité	-12.0882
▁positive	-12.0882
▁retentissement	-12.0882
▁ÉTABLISSEMENTS	-12.0882
▁transcri	-12.0882
▁Météo	-12.0882
▁interarmées	-12.0882
▁correctives	-12.0882
Ville	-12.0882
▁neige	-12.0884
fection	-12.0885
dentistes	-12.0886
▁réalité	-12.0888
▁Poly	-12.0888
▁Varenne	-12.0888
▁plants	-12.0889
jan	-12.0889
▁115	-12.0889
ghi	-12.0893
▁BTS	-12.0898
▁425	-12.0899
▁compenser	-12.09
engager	-12.0901
Institution	-12.0903
▁mesurée	-12.0904
▁condamné	-12.0904
▁PORT	-12.0905
▁guid	-12.0911
MONTAGNE	-12.0911
employé	-12.0913
▁Morgane	-12.0914
Yonne	-12.0915
▁Chev	-12.0915
Gro	-12.0917
ouz	-12.0923
▁sud	-12.0923
▁forestières	-12.0926
▁gère	-12.0929
urie	-12.093
▁Agathe	-12.0938
▁télépilotes	-12.0941
▁variant	-12.0942
metier	-12.0947
▁Pass	-12.095
▁Activités	-12.0956
▁242-	-12.0956
▁vacances	-12.0957
réponse	-12.0974
Marseille	-12.0975
dans	-12.0976
▁Ram	-12.0977
loy	-12.0977
▁GUILL	-12.0982
Finistère	-12.0984
femme	-12.0986
▁Gau	-12.0992
▁avancées	-12.0995
▁Tunis	-12.0996
▁162-2	-12.0996
GUET	-12.1
▁cinéma	-12.1
Caractéristiques	-12.1
Corrèze	-12.1
▁123-30-14	-12.1
▁Pyramide	-12.1
▁Quatre	-12.1
▁imputé	-12.1
▁procédant	-12.1
▁thoracique	-12.1
▁symptomatique	-12.1
▁dignité	-12.1
▁Sorbonne	-12.1
▁Principauté	-12.1
aorte	-12.1
Nelly	-12.1
▁allée	-12.1
▁recensement	-12.1
▁Jacky	-12.1001
▁008	-12.1005
drh	-12.1005
Hélo	-12.1009
▁char	-12.1009
▁filiale	-12.101
▁substitu	-12.1012
ILLO	-12.1016
▁XX	-12.1018
▁"9.	-12.1019
rap	-12.102
▁130	-12.102
ssac	-12.1027
isproportionnées	-12.1028
▁575	-12.1028
▁Cinq	-12.103
DIE	-12.1031
file	-12.1035
▁Pan	-12.1038
▁pratiquée	-12.1041
21000	-12.1044
▁importants	-12.1045
▁Lorraine	-12.1047
anda	-12.1049
▁pilotes	-12.1049
▁Rec	-12.1049
▁Vin	-12.1055
▁Blanc	-12.1057
▁Wi	-12.1059
▁barèmes	-12.1064
▁310	-12.1065
tot	-12.1069
▁cités	-12.107
▁124-1	-12.1073
PRES	-12.1073
▁GÉNÉRAL	-12.1074
▁envoyée	-12.1075
▁PIN	-12.1075
▁taxis	-12.1083
Chez	-12.1084
dine	-12.1084
HET	-12.1087
intégrer	-12.1094
Myriam	-12.1095
Hugues	-12.1095
huissière	-12.1095
▁Dar	-12.1098
bac	-12.1099
verso	-12.1105
▁Bla	-12.1111
▁jointes	-12.1116
▁Laetitia	-12.1119
connaitre	-12.1119
▁ambiant	-12.1119
▁transparent	-12.1119
authentification	-12.1119
élévation	-12.1119
▁SUPÉRIEUR	-12.1119
▁Sébastopol	-12.1119
▁fracture	-12.1119
▁immobilisé	-12.1119
▁juvénile	-12.1119
▁ordonné	-12.1119
▁outillages	-12.1119
▁biocide	-12.1119
▁fermier	-12.1119
▁optionnelles	-12.1119
▁85-98	-12.1119
▁procréation	-12.1119
▁habituellement	-12.1119
Kevin	-12.1119
RAUD	-12.112
53-2	-12.1122
▁opposé	-12.1122
jour	-12.1123
▁intégrées	-12.1126
▁réunies	-12.113
▁répartir	-12.1131
▁rendent	-12.1136
▁dispenses	-12.1137
oise	-12.114
▁meubles	-12.1143
▁Unité	-12.1143
▁512-1	-12.1145
▁réguliers	-12.1146
ALD	-12.1147
▁174-2	-12.1158
▁différends	-12.1164
AOP	-12.1169
▁1905	-12.1169
21091	-12.117
Adam	-12.117
ué	-12.1184
gel	-12.1188
▁refuse	-12.1193
▁câbles	-12.1193
hir	-12.1208
fil	-12.1209
Magali	-12.1217
suppléant	-12.1217
noy	-12.1217
évi	-12.1219
Hubert	-12.1219
Thé	-12.1228
horaire	-12.123
BEAU	-12.123
▁rémunéré	-12.1232
▁préside	-12.1236
Jérémie	-12.1239
▁Tchad	-12.1239
▁génère	-12.1239
▁mauvais	-12.1239
▁stylo	-12.1239
▁simplification	-12.1239
▁Avec	-12.1239
▁SPÉCIALITÉ	-12.1239
▁541-9	-12.1239
-1246	-12.1239
21245	-12.1239
▁baisse	-12.1239
21244	-12.1239
▁photothérapie	-12.1239
Indien	-12.124
▁minimaux	-12.1241
▁occasionné	-12.1242
archiv	-12.1242
▁axes	-12.1243
▁redevables	-12.1243
▁MAG	-12.1244
▁Barbet	-12.1245
▁CHAMB	-12.1248
▁sonores	-12.1252
▁511-4	-12.1252
▁canton	-12.1253
▁réglementée	-12.1254
▁Hi	-12.1255
nois	-12.1256
login	-12.1257
▁réfugiés	-12.1261
▁génétiques	-12.1261
érie	-12.1264
13-9	-12.1265
▁XV	-12.1268
long	-12.1268
Karim	-12.1269
IGE	-12.1273
▁précis	-12.1274
marin	-12.1277
▁fondamentales	-12.1278
▁PROFESSIONNELLE	-12.1288
Sainte	-12.1288
procureur	-12.1291
ulin	-12.1296
▁agrégé	-12.1297
Ex	-12.13
angle	-12.1303
▁remplie	-12.1305
▁conclues	-12.131
rien	-12.1314
▁221-3	-12.1314
▁intercommunal	-12.1315
▁CRO	-12.1317
90000	-12.1321
▁affichée	-12.1324
▁HEN	-12.1324
▁matérielle	-12.1325
anu	-12.1327
▁avancée	-12.1334
▁journal	-12.1334
CHAMP	-12.1335
▁compens	-12.1339
Occitanie	-12.134
▁mené	-12.1342
▁assiste	-12.1343
▁mesurer	-12.1343
OUCHE	-12.1344
Maria	-12.1346
▁Objectifs	-12.1355
APPLICATION	-12.1361
▁bronze	-12.1361
▁complexité	-12.1361
▁conservatrice	-12.1361
▁fondamentaux	-12.1361
▁odontologiques	-12.1361
Rodrigue	-12.1361
Education	-12.1361
Sabrina	-12.1361
▁aviaire	-12.1361
▁SNIA	-12.1361
▁RELATIF	-12.1361
▁2324-3	-12.1361
▁promoteur	-12.1361
▁munitions	-12.1361
▁Régime	-12.1362
avertissement	-12.1362
▁neutr	-12.1366
Agen	-12.1367
▁ciblées	-12.1368
Sch	-12.1369
▁Ob	-12.1372
▁avaient	-12.1374
▁611-1	-12.1375
▁problématique	-12.1376
▁2141-1	-12.1378
▁diminution	-12.1386
BRI	-12.1396
trac	-12.1405
▁décidée	-12.1407
TRES	-12.1408
▁invite	-12.1412
▁212-2	-12.1417
▁formés	-12.1421
▁tend	-12.1421
SERRE	-12.1422
OLS	-12.1433
▁maternel	-12.1434
▁recouvre	-12.1434
▁former	-12.1434
▁sélectionnés	-12.1436
▁ouvrier	-12.144
ecto	-12.1441
▁diplômés	-12.1444
▁réexamen	-12.1448
▁Max	-12.1455
tard	-12.1458
Jules	-12.1465
Karine	-12.1465
atelier	-12.1466
▁cage	-12.1466
afa	-12.1468
▁Gauthier	-12.1468
exécuter	-12.147
SAZ	-12.1471
▁emporte	-12.1482
▁éthique	-12.1483
▁SEINE	-12.1484
▁phyto	-12.1485
Jennifer	-12.1485
Ophélie	-12.1485
Télécom	-12.1485
attractivité	-12.1485
incorporation	-12.1485
inflammatoire	-12.1485
▁15/09/201	-12.1485
▁batterie	-12.1485
▁puéricultrice	-12.1485
▁pédagogie	-12.1485
▁radioactives	-12.1485
▁redressement	-12.1485
▁éliminé	-12.1485
Thibaud	-12.1485
▁viandes	-12.1485
▁avait	-12.1485
▁Jeannine	-12.1485
méthyl	-12.1485
▁Kunst	-12.1485
▁respectifs	-12.1485
▁panneaux	-12.1485
▁Prénom	-12.1485
▁parvenue	-12.1486
▁décoration	-12.1486
▁New	-12.1487
▁DURAND	-12.1487
opportunité	-12.1488
▁termine	-12.149
SSAC	-12.1494
▁Henriette	-12.1494
appuyer	-12.1494
JON	-12.1495
▁Aimé	-12.1498
For	-12.1501
ouri	-12.1501
ignan	-12.1507
▁perd	-12.1509
arme	-12.1509
riat	-12.1512
▁marques	-12.1513
▁séparé	-12.1517
▁motorisés	-12.1518
René	-12.1519
▁Systèmes	-12.152
TARD	-12.1522
▁Ordonnance	-12.1522
Voies	-12.1526
jean	-12.1531
▁Eugénie	-12.1531
GRA	-12.1531
▁encadrer	-12.1547
▁alimenté	-12.155
▁344	-12.1553
FER	-12.1556
▁211-2	-12.1556
Chamb	-12.1561
CAMP	-12.1562
alais	-12.1567
▁résidents	-12.1567
▁Tor	-12.157
▁implantés	-12.1574
armes	-12.158
ting	-12.1582
▁sépar	-12.1594
▁diffuse	-12.1594
oué	-12.1599
▁sélectionn	-12.16
▁0,1	-12.1601
▁exploite	-12.1604
▁222-2	-12.1607
ascenseur	-12.1608
Clotilde	-12.161
▁Attribution	-12.161
▁Participation	-12.161
▁Situation	-12.161
▁anesthésiste	-12.161
▁combiné	-12.161
▁diligence	-12.161
▁licencié	-12.161
▁manuscrite	-12.161
▁phénomène	-12.161
▁relogement	-12.161
▁rythme	-12.161
▁récepteur	-12.161
▁récidive	-12.161
anatomie	-12.161
▁rénale	-12.161
▁labellisé	-12.161
▁charbon	-12.161
▁MINIST	-12.161
▁visibilité	-12.161
▁224-25-	-12.161
▁menant	-12.161
21260	-12.161
Astrid	-12.161
▁vitro	-12.1611
▁amendements	-12.1612
88009	-12.1612
ANRU	-12.1612
▁originale	-12.1612
▁incombent	-12.1614
▁audiovisuels	-12.1615
▁CCAG	-12.1615
1-25	-12.1619
▁mensuellement	-12.1621
bili	-12.1623
▁artificielle	-12.1623
▁semestrielle	-12.1624
▁513-2	-12.1625
VERS	-12.1626
DIC	-12.1626
▁affilié	-12.1628
▁similaire	-12.1628
▁0,2	-12.1629
▁162-1	-12.1631
▁commandeur	-12.1634
▁déterminent	-12.1634
TRU	-12.1638
▁consommé	-12.1644
MOND	-12.1645
▁oeuvre	-12.1647
hôtel	-12.1652
guin	-12.1653
▁"10.	-12.166
▁alternative	-12.1664
Albi	-12.1671
Rose	-12.1673
▁solides	-12.1675
uk	-12.1675
quier	-12.1677
▁tiret	-12.1679
9330	-12.168
▁733	-12.1686
▁Age	-12.1687
▁Pel	-12.1689
▁DGA	-12.169
▁Kar	-12.1695
▁classée	-12.1699
▁commentaires	-12.17
▁0,0	-12.1708
rch	-12.171
▁ROS	-12.171
Thu	-12.171
▁consenti	-12.1716
▁MOULIN	-12.1716
Aurore	-12.172
calendrier	-12.172
astreinte	-12.172
Bretagne	-12.172
▁problématiques	-12.1721
▁cardio	-12.1722
Terre	-12.1722
SOUS	-12.1723
rendu	-12.1723
▁557	-12.1724
yp	-12.1726
▁"11.	-12.1729
exécute	-12.173
▁additionnel	-12.1732
Andorre	-12.1736
COFRAC	-12.1736
efficience	-12.1736
empreinte	-12.1736
▁2019/2033	-12.1736
▁PROGRAMME	-12.1736
▁analytique	-12.1736
▁biologiste	-12.1736
▁cumulatives	-12.1736
▁discriminatoire	-12.1736
▁interfère	-12.1736
▁stabilis	-12.1736
▁souvent	-12.1736
▁Edith	-12.1736
fluor	-12.1736
▁ménagers	-12.1736
▁imposer	-12.1736
▁Contenu	-12.1736
Adèle	-12.1737
▁DIPL	-12.1737
▁GROUPE	-12.1737
▁MAISON	-12.1738
▁MICHEL	-12.1738
▁habituelles	-12.1738
opère	-12.1738
zel	-12.1741
▁moyennant	-12.1741
▁catalogue	-12.1742
▁811-1	-12.1742
▁intervenues	-12.1744
Just	-12.1746
▁ACADÉMIE	-12.175
Gard	-12.1751
inger	-12.1751
ECOO	-12.1753
▁consécutive	-12.1756
▁débat	-12.1757
▁coté	-12.1758
▁723-1	-12.1759
journée	-12.1762
internat	-12.1763
▁drone	-12.1766
▁legs	-12.1769
▁symptômes	-12.177
éma	-12.1774
ologiques	-12.1775
▁735	-12.1777
▁tissus	-12.1781
▁voter	-12.1784
▁BOI	-12.1787
▁221-2	-12.1789
▁PK	-12.1795
▁45°	-12.1796
▁1955	-12.1797
▁encourage	-12.1802
SIGNA	-12.1804
▁Andre	-12.1805
ormis	-12.1808
▁conclut	-12.181
LOG	-12.1813
▁FONTAINE	-12.1815
▁pratiqué	-12.1819
▁1435-	-12.183
mettre	-12.1836
Guillem	-12.1837
Cyr	-12.1837
ELLA	-12.1839
EEE	-12.1845
Inter	-12.185
Serge	-12.1852
compte	-12.1853
plus	-12.1854
santé	-12.1855
▁augmentée	-12.1855
▁végétal	-12.1858
▁engagé	-12.1858
▁1,5	-12.1862
IEL	-12.1863
▁leçon	-12.1864
VINCENT	-12.1864
▁doctorant	-12.1864
▁répété	-12.1864
Aveyron	-12.1864
Marjorie	-12.1864
restaurant	-12.1864
▁Installations	-12.1864
▁Macédoine	-12.1864
▁Prévention	-12.1864
▁Recommandations	-12.1864
▁hémorragique	-12.1864
▁préemption	-12.1864
▁sanguine	-12.1864
▁viticole	-12.1864
▁451-8	-12.1864
▁ROUSSEL	-12.1864
▁DKC	-12.1864
▁exiger	-12.1865
archivage	-12.1866
▁valoriser	-12.1866
colite	-12.1866
▁4451-1	-12.1867
▁751	-12.1867
▁vision	-12.1867
▁traditionnel	-12.1867
▁psychosocial	-12.1869
21049	-12.1875
FOND	-12.1875
▁existent	-12.1875
▁421-3	-12.1876
▁évoluer	-12.1881
omie	-12.1882
▁prorogée	-12.1883
21145	-12.1886
▁variété	-12.1886
▁gaine	-12.189
▁retraités	-12.1892
▁cumulable	-12.1897
▁6323-	-12.1899
▁consentie	-12.1908
INO	-12.1908
▁CONTR	-12.1916
▁entourage	-12.1916
▁ordonner	-12.1916
hiver	-12.1921
GRE	-12.1928
CAPES	-12.1929
CHATEL	-12.193
Sara	-12.194
Esther	-12.1941
boul	-12.1955
▁courte	-12.1956
▁continuer	-12.1959
NAF	-12.1961
SAN	-12.1964
▁développe	-12.1968
▁5112-1	-12.1972
international	-12.1975
▁maternels	-12.1978
avaient	-12.1981
LIA	-12.1984
▁sage	-12.1984
▁patrimonial	-12.1987
▁spécifié	-12.1988
▁Métier	-12.1988
réalablement	-12.199
Maud	-12.1991
interlocuteur	-12.1994
▁continental	-12.1994
▁distingue	-12.1994
LAURENT	-12.1994
atmosphère	-12.1994
▁Chambéry	-12.1994
▁Ressources	-12.1994
▁Suivi	-12.1994
▁combinaison	-12.1994
▁incorporé	-12.1994
▁remarque	-12.1994
▁tertiaire	-12.1994
▁volontariat	-12.1994
▁émérite	-12.1994
podologue	-12.1994
▁Conservatoire	-12.1994
▁diamètre	-12.1994
agissements	-12.1994
▁provoqu	-12.1994
▁saillant	-12.1994
▁transposition	-12.1994
▁Mesures	-12.1995
▁MENTION	-12.1995
▁6324-3	-12.1995
▁SOCI	-12.1995
▁543-2	-12.1997
▁séparément	-12.1998
▁aéroports	-12.1998
▁apports	-12.1999
▁filles	-12.2001
▁plantation	-12.2001
▁préinscrire	-12.2003
▁Paulette	-12.2008
chin	-12.2011
élément	-12.2014
▁réorientation	-12.2016
Marin	-12.2017
▁million	-12.2018
COSTE	-12.2018
▁Active	-12.202
cutanée	-12.2022
▁0,8	-12.2023
Nous	-12.2024
LIEU	-12.2024
▁431-1	-12.203
GOT	-12.2037
▁amélior	-12.204
Van	-12.2042
▁statuer	-12.2043
Pay	-12.2044
▁Ceux	-12.2047
▁majore	-12.2049
ECON	-12.2051
▁162-22-1	-12.2052
amin	-12.2054
1232	-12.2056
orge	-12.2057
▁BELLE	-12.2064
usager	-12.2067
▁couverte	-12.207
ZAC	-12.2072
▁consacré	-12.2073
▁162-22	-12.2084
▁Raymonde	-12.2085
cap	-12.2089
Arc	-12.209
ello	-12.2094
UIT	-12.2099
▁SPORT	-12.2111
LIE	-12.2112
▁Porte	-12.2113
Corinne	-12.2115
SAR	-12.2117
outil	-12.2123
▁disposé	-12.2126
▁soupçon	-12.2126
abattage	-12.2126
étiquetage	-12.2126
▁Critères	-12.2126
▁Pièce	-12.2126
▁Téléphone	-12.2126
▁compassionnel	-12.2126
▁concubin	-12.2126
▁inclure	-12.2126
▁incomplète	-12.2126
▁toiture	-12.2126
▁transformé	-12.2126
▁Cergy	-12.2126
afferm	-12.2126
▁déroger	-12.2126
écologie	-12.2126
▁artisanale	-12.2126
▁BERNARD	-12.2127
burg	-12.2128
OCDE	-12.2129
▁Sab	-12.213
▁Lucienne	-12.2131
▁TROD	-12.2132
enheim	-12.2133
▁fortement	-12.2133
ERY	-12.2134
▁sollicitent	-12.2135
▁augmenté	-12.2135
export	-12.2139
▁BIO	-12.2139
▁Communication	-12.2144
PCR	-12.2146
▁nominale	-12.2146
▁supportés	-12.2149
ouvrir	-12.2151
91002	-12.2152
▁additionnelle	-12.2154
▁indicatif	-12.2158
GUIN	-12.2158
▁Lorient	-12.2158
▁Obligations	-12.216
▁Gros	-12.2162
main	-12.2172
▁NATIONAL	-12.2174
▁élaborés	-12.2176
droit	-12.218
▁Baud	-12.218
APL	-12.2183
▁2019-147	-12.2184
▁Gri	-12.2184
▁doute	-12.2184
▁malades	-12.2189
▁contrôlé	-12.2192
1-5.	-12.2194
▁Ban	-12.2197
▁caractérisée	-12.2197
voy	-12.2197
▁CERTIFICAT	-12.2198
Pascale	-12.2203
▁frontières	-12.2203
ométrie	-12.2209
FIN	-12.2213
OISE	-12.2214
▁collecteur	-12.2216
▁15-1	-12.2217
interprétée	-12.222
▁garant	-12.2222
▁formalis	-12.2227
of	-12.2229
▁écoulé	-12.2241
▁évit	-12.2244
▁cantons	-12.2244
trans	-12.2246
Suppléant	-12.225
Régis	-12.225
Mayotte	-12.225
connexion	-12.2251
▁inchangé	-12.2252
▁consigné	-12.2252
OUTRE	-12.2258
▁mineure	-12.2259
▁encourue	-12.2259
▁menuiserie	-12.2259
ENSEIGNEMENT	-12.2259
RÉFÉRENTIEL	-12.2259
observateur	-12.2259
quatorzième	-12.2259
▁Médaille	-12.2259
▁guichet	-12.2259
▁marqué	-12.2259
▁quantitative	-12.2259
▁recourant	-12.2259
▁récupéré	-12.2259
▁succursal	-12.2259
Emeline	-12.2259
▁aortique	-12.2259
▁CNRS	-12.2259
▁CHARGES	-12.2259
▁Prescriptions	-12.226
▁surgelé	-12.2261
▁PEPS	-12.2262
▁interrégionaux	-12.2262
▁acomptes	-12.2262
Ronan	-12.2262
▁servie	-12.2262
▁claire	-12.2262
▁accueillies	-12.2264
bord	-12.2264
abus	-12.2266
échantillonnage	-12.2266
▁6232-	-12.2268
▁remplacent	-12.2268
php	-12.2269
interne	-12.2269
trée	-12.227
/2006	-12.227
/2009	-12.227
oit	-12.227
▁interventionnel	-12.2279
▁Pierrette	-12.228
ARRA	-12.2282
▁forestier	-12.2286
▁Principes	-12.2286
▁géo	-12.2292
BAT	-12.2294
SSAA	-12.2295
onville	-12.2299
GAL	-12.2305
▁expliqu	-12.2306
▁reconduit	-12.2307
Maroc	-12.2308
▁totalement	-12.2308
▁conçue	-12.231
0-9	-12.231
0.00	-12.2311
▁78-1	-12.2312
▁portion	-12.2313
fé	-12.232
CAG	-12.232
IRM	-12.2322
cre	-12.2324
▁maîtriser	-12.2324
franc	-12.2326
ENCES	-12.2326
COP	-12.2336
▁insuffisant	-12.2337
grain	-12.2337
GUEN	-12.2342
▁AINS	-12.2345
ibert	-12.2347
▁131-2	-12.2353
ouff	-12.2356
AGES	-12.2358
▁émett	-12.2359
ssou	-12.2361
AGRE	-12.2362
▁mesuré	-12.2369
▁circul	-12.2375
ffaires	-12.2379
▁unies	-12.2386
Renaud	-12.2387
chambres	-12.2387
▁manquant	-12.2388
imagerie	-12.2388
▁démontre	-12.2389
▁posé	-12.2389
GNOL	-12.239
Environnement	-12.2394
apprenant	-12.2394
▁cohérent	-12.2394
▁métallique	-12.2394
Capucine	-12.2394
étanercept	-12.2394
▁Auguste	-12.2394
▁CFTR	-12.2394
▁Conception	-12.2394
▁EHPAD	-12.2394
▁Nouméa	-12.2394
▁Prestations	-12.2394
▁Référentiel	-12.2394
▁addictologie	-12.2394
▁consommables	-12.2394
▁convoque	-12.2394
▁dexaméthasone	-12.2394
▁délibérer	-12.2394
▁implicite	-12.2394
▁impossible	-12.2394
▁négociant	-12.2394
▁pathogène	-12.2394
▁plomb	-12.2394
▁signification	-12.2394
▁téléchargé	-12.2394
▁sexies	-12.2394
▁dérogé	-12.2394
▁hasard	-12.2394
Avignon	-12.2394
cellulaire	-12.2394
▁présélection	-12.2394
Session	-12.2394
▁86-10	-12.2394
OACI	-12.2394
harmonisation	-12.2395
▁Mention	-12.2395
▁carnet	-12.2395
▁Eliane	-12.2395
Laurine	-12.2396
Blandine	-12.2396
imposent	-12.2401
emprunteur	-12.2403
▁intérimaire	-12.2404
▁débuté	-12.2407
▁DOR	-12.2411
Croix	-12.2417
▁tablette	-12.2417
▁Cf	-12.2419
▁procèdent	-12.2419
érat	-12.2422
QUIER	-12.2423
▁163-2	-12.2427
doux	-12.2428
▁diffuser	-12.2429
lac	-12.2431
udi	-12.2433
champ	-12.2435
▁rapportée	-12.2439
▁voisins	-12.2441
gny	-12.2445
ij	-12.2446
▁diffusée	-12.2455
▁équipée	-12.2457
▁Prépa	-12.2458
ZIN	-12.246
étal	-12.2465
SKI	-12.247
JOU	-12.2471
▁Mines	-12.2472
▁désign	-12.2481
PROFESSIONNELLES	-12.2491
RIQUE	-12.2492
emport	-12.2495
illac	-12.2496
▁présumée	-12.2498
HAUT	-12.2501
▁condamnée	-12.2505
▁NORD	-12.2508
géni	-12.2515
vaux	-12.2515
Calvados	-12.2526
homologation	-12.2526
Adresse	-12.2526
octobre	-12.2526
République	-12.2526
install	-12.2529
chev	-12.2529
XII	-12.2531
▁supervis	-12.2531
Ghislain	-12.2531
▁grève	-12.2531
▁recyclé	-12.2531
FranceAgriMer	-12.2531
Geoffroy	-12.2531
Mamoudzou	-12.2531
Stanislas	-12.2531
ajournement	-12.2531
interprète	-12.2531
▁Adjoint	-12.2531
▁Dispositif	-12.2531
▁Statut	-12.2531
▁conchyliculture	-12.2531
▁croisement	-12.2531
▁distinguant	-12.2531
▁dégradation	-12.2531
▁encadrant	-12.2531
▁scolarisés	-12.2531
▁trésorier	-12.2531
▁urbaniste	-12.2531
▁immunosuppress	-12.2531
▁revue	-12.2531
interieur	-12.2531
▁Construction	-12.2531
▁pédicure	-12.2531
▁Talents	-12.2531
Eglise	-12.2531
▁inhibiteur	-12.2531
▁THOMAS	-12.2531
▁1121-1	-12.2531
▁fournissant	-12.2531
▁Liliane	-12.2531
▁cyber	-12.2532
▁labiles	-12.2532
▁Chambre	-12.2532
▁Pasteur	-12.2532
▁ROBERT	-12.2532
▁autotests	-12.2532
▁gardé	-12.2532
▁notable	-12.2532
Mélissa	-12.2533
DMARD	-12.2533
▁ACCOR	-12.2533
▁Alger	-12.2533
CHEV	-12.2534
▁déchargement	-12.2535
▁troupeaux	-12.254
▁verte	-12.2541
21064	-12.2542
▁122-5	-12.2544
IGNAC	-12.2544
21025	-12.2546
21072	-12.2546
accompagner	-12.2547
▁2231-1	-12.2548
8-7	-12.2553
▁offert	-12.2555
21030	-12.2556
mot	-12.2558
▁poursuivi	-12.2562
▁aquatique	-12.2562
Garnier	-12.2564
Roch	-12.2569
tout	-12.2573
Gen	-12.2575
▁décor	-12.2577
▁immatriculé	-12.2579
▁PEN	-12.2584
▁Taux	-12.2584
AMO	-12.2598
▁effectuera	-12.2602
BES	-12.2602
▁Ze	-12.2607
▁ciblé	-12.2611
▁constante	-12.2614
feu	-12.2619
▁CAST	-12.2619
▁jugé	-12.2622
▁servi	-12.2625
via	-12.2628
▁0,6	-12.2629
ROCHE	-12.263
▁314-2	-12.2635
▁bilatérale	-12.2638
ENTS	-12.2639
▁meilleur	-12.2641
▁personnalisée	-12.2647
Chi	-12.2663
ZIT	-12.2666
incidence	-12.2666
Bénédicte	-12.2666
rubrique	-12.2667
atterrissage	-12.267
▁RÉGION	-12.267
▁déclenchement	-12.267
▁manufacturés	-12.267
▁projection	-12.267
▁quatorze	-12.267
arpentier	-12.267
▁virement	-12.267
▁locative	-12.267
▁opter	-12.267
▁urologie	-12.267
▁Agents	-12.267
▁stable	-12.2671
▁Montreuil	-12.2671
▁injecté	-12.2671
Gi	-12.2671
▁rencontrées	-12.2671
▁relais	-12.2671
▁Exploitation	-12.2672
▁retourner	-12.2673
▁radiographique	-12.2673
▁emballages	-12.2673
▁caractérisation	-12.2674
▁entretenu	-12.2674
oxy	-12.2675
▁polyarthrit	-12.2676
▁GALL	-12.2676
21047	-12.2683
Francis	-12.2687
21018	-12.2688
▁sanctionnée	-12.2693
arge	-12.2695
THIER	-12.2697
Claud	-12.2701
▁équi	-12.271
▁réservoirs	-12.2715
étant	-12.2717
ssard	-12.2717
Op	-12.2723
▁matérialis	-12.2725
▁Dia	-12.2731
ssement	-12.2735
▁Anti	-12.2737
gaz	-12.2741
▁hectares	-12.2744
▁123-4	-12.2746
▁BOS	-12.2749
SEN	-12.2749
▁FAL	-12.2751
ONNIER	-12.2768
▁film	-12.2768
incitation	-12.2772
▁CORN	-12.2785
▁Castel	-12.2791
adou	-12.2791
charge	-12.2792
otti	-12.2796
encours	-12.2808
joint	-12.2809
architecte	-12.2809
bulletin	-12.2809
orthophoniste	-12.2809
équivalent	-12.2809
greffe	-12.281
avril	-12.281
uan	-12.281
▁8.1	-12.281
▁architectural	-12.2811
Formulaire	-12.2811
Lefebvre	-12.2811
extrémité	-12.2811
▁NATUREL	-12.2811
▁Notification	-12.2811
▁Sécurité	-12.2811
▁acceptable	-12.2811
▁coordinateur	-12.2811
▁exécutif	-12.2811
▁humide	-12.2811
▁législatif	-12.2811
▁pondération	-12.2811
▁prescrire	-12.2811
▁spécimen	-12.2811
Tanguy	-12.2811
▁fonctionnalités	-12.2811
▁06301300	-12.2811
▁corticothérapie	-12.2811
offrir	-12.2811
▁descendant	-12.2811
BOUR	-12.2812
▁Melun	-12.2812
autrui	-12.2812
▁parentalité	-12.2812
▁Langue	-12.2812
▁Rochelle	-12.2812
▁chien	-12.2813
▁divisé	-12.2815
IFICATION	-12.2815
▁assistent	-12.2815
▁saut	-12.2817
▁intéressées	-12.2817
▁Jeunes	-12.2822
▁acquisitions	-12.2822
▁résistant	-12.2823
auss	-12.2824
52-6	-12.2824
ANNÉE	-12.2837
isser	-12.2839
▁graphique	-12.2845
▁prévisible	-12.2845
▁lauréat	-12.2846
▁104-3	-12.2846
ESSON	-12.2847
▁Enfin	-12.2848
rave	-12.2848
▁Roque	-12.2854
7-9	-12.2857
▁342-1	-12.2857
inp	-12.2864
▁tractions	-12.2868
▁conditionné	-12.2871
▁exécutés	-12.2872
▁1959	-12.2876
▁Fra	-12.2877
21015	-12.2881
▁162-23-	-12.2883
▁chiffré	-12.289
▁immédiat	-12.2892
ACHE	-12.2892
▁18-1	-12.2897
GY	-12.2901
▁répartie	-12.2907
Marina	-12.2914
▁précédée	-12.2915
▁732	-12.2917
▁prolonge	-12.2923
▁141-1	-12.2924
▁simplifié	-12.2934
Tour	-12.2935
▁Générale	-12.2939
▁considér	-12.2943
optimis	-12.2949
▁prérempli	-12.295
devenir	-12.2952
allemand	-12.2952
Cheval	-12.2954
Enseignement	-12.2954
▁ukrainien	-12.2954
0/09/2020	-12.2954
ENFiP	-12.2954
▁Alfred	-12.2954
▁Candidat	-12.2954
▁Courriel	-12.2954
▁Paralympiques	-12.2954
▁TITULAIRE	-12.2954
▁apatrides	-12.2954
▁coproduction	-12.2954
▁cérébral	-12.2954
▁facilement	-12.2954
▁méthanisation	-12.2954
▁méthodologique	-12.2954
▁pétrolier	-12.2954
▁quinzième	-12.2954
▁séparatistes	-12.2954
▁terminaux	-12.2954
▁blessé	-12.2954
Ingénieur	-12.2954
▁maquette	-12.2954
esprit	-12.2954
▁gestes	-12.2954
Laetitia	-12.2954
Lozère	-12.2954
▁parution	-12.2955
officiel	-12.2955
▁sanctionnant	-12.2955
▁mutualisation	-12.2955
▁SYST	-12.2955
▁2020/12	-12.2956
ERON	-12.296
▁2324-1	-12.2964
▁périodiquement	-12.2964
▁cotis	-12.2964
Romane	-12.2964
Port	-12.2966
OLO	-12.2969
trois	-12.297
donnees	-12.2971
21340	-12.2983
VERN	-12.2984
▁Tré	-12.2989
Malo	-12.2991
agisse	-12.2992
mble	-12.2992
ommé	-12.2994
▁exposées	-12.2994
▁LYON	-12.2996
▁Aide	-12.2998
▁vélos	-12.3003
▁MOREAU	-12.3011
▁généralisation	-12.3018
▁FIA	-12.3021
▁coupe	-12.3021
péri	-12.3022
▁314-3	-12.3027
Annecy	-12.3036
OMS	-12.3044
bault	-12.3047
▁5121-1	-12.3051
2-1-1	-12.3063
interentreprises	-12.3069
▁intervenu	-12.3074
Perrine	-12.3078
▁533-4	-12.3087
▁fréquent	-12.3096
Gérald	-12.3098
Connaissance	-12.3099
insuline	-12.3099
▁Plateforme	-12.3099
▁boucherie	-12.3099
▁posologie	-12.3099
▁structuration	-12.3099
▁stupéfiants	-12.3099
▁plainte	-12.3099
▁sénateur	-12.3099
▁Chapelle	-12.3099
▁MHz	-12.3099
▁reconstitution	-12.3099
▁232-23-3-	-12.3099
▁Qui	-12.3099
▁flotte	-12.3099
sky	-12.31
▁2021-376	-12.31
▁Chargé	-12.31
éthique	-12.3101
Patricia	-12.3102
▁campus	-12.3102
dentaire	-12.3102
▁Boris	-12.3102
▁démocratie	-12.3103
SEINE	-12.3103
▁Analyser	-12.3103
▁combat	-12.3104
▁prioritairement	-12.3105
point	-12.3105
▁feux	-12.3108
orienter	-12.3114
▁aidé	-12.3116
▁empêch	-12.3116
▁Micheline	-12.3119
52-4	-12.3121
ZOU	-12.3127
▁noté	-12.3129
HARD	-12.3132
SEL	-12.3133
.3.2.	-12.3134
▁conservateur	-12.3137
▁formalité	-12.3138
andra	-12.3139
technique	-12.3139
▁loisir	-12.3141
VOIE	-12.3148
▁publier	-12.3152
▁passerelle	-12.3158
▁menée	-12.3163
▁Esp	-12.3167
écriture	-12.317
REZ	-12.317
usine	-12.3177
ogo	-12.3179
▁Nul	-12.3186
▁Bade	-12.3196
ple	-12.3198
▁162-16-	-12.3206
evich	-12.3218
oix	-12.3223
▁THO	-12.3229
EMA	-12.3232
Dup	-12.3234
▁supplé	-12.3236
titia	-12.3238
amine	-12.3239
IOT	-12.324
▁Officie	-12.324
▁précède	-12.3242
UILLE	-12.3244
GLEMENT	-12.3246
entreposage	-12.3246
intelligen	-12.3246
introduire	-12.3246
▁Papeete	-12.3246
▁Période	-12.3246
▁Tarifs	-12.3246
▁Volailles	-12.3246
▁discussion	-12.3246
▁harcèlement	-12.3246
▁latitude	-12.3246
▁moniteur	-12.3246
▁préfiguration	-12.3246
▁quarantaine	-12.3246
▁spectre	-12.3246
▁vulnérables	-12.3246
▁Secteur	-12.3246
▁démographique	-12.3246
▁paix	-12.3246
▁2124-6	-12.3246
▁béton	-12.3246
androst	-12.3246
▁ECTS	-12.3246
▁émoluments	-12.3246
▁viol	-12.3247
ampus	-12.3247
▁concourt	-12.3248
▁exonérations	-12.3249
Normandie	-12.3251
▁compli	-12.3255
21097	-12.3255
bureau	-12.3256
QUER	-12.3256
▁SIMON	-12.3256
▁humain	-12.3259
▁murs	-12.3259
21036	-12.326
▁attendues	-12.326
▁déclaratives	-12.3266
Opéra	-12.3266
ANJ	-12.3269
▁Bern	-12.327
▁1221-2	-12.3277
▁541-10-1	-12.3277
▁actualisé	-12.3278
▁trop	-12.3279
▁BARR	-12.3283
examinateur	-12.3287
▁pathologique	-12.3287
▁calendaire	-12.3287
Ariane	-12.3289
▁626-3	-12.329
▁consacr	-12.3292
Bresse	-12.3295
île	-12.33
urin	-12.3305
▁1964	-12.3306
▁Bout	-12.3307
▁1956	-12.331
▁conservée	-12.3315
▁INTER	-12.3316
ref	-12.3342
▁Sor	-12.3355
.4.1.	-12.336
▁Zo	-12.3364
.1.3.	-12.3364
▁dirige	-12.3366
mbo	-12.3367
celle	-12.3368
XXX	-12.3368
Flore	-12.337
21153	-12.3378
étroit	-12.3384
▁CONSEIL	-12.3387
GIS	-12.3391
▁Yvon	-12.3394
américain	-12.3395
▁CICTA	-12.3395
▁Mathématiques	-12.3395
▁Présentation	-12.3395
▁accède	-12.3395
▁battant	-12.3395
▁défaillant	-12.3395
▁expiré	-12.3395
▁impérieux	-12.3395
▁mobilières	-12.3395
▁numérisée	-12.3395
▁pétitionnaire	-12.3395
▁réciproque	-12.3395
▁régler	-12.3395
▁tuberculose	-12.3395
▁évolutive	-12.3395
Geoffrey	-12.3395
HUMIRA	-12.3395
Yohan	-12.3395
inflation	-12.3395
▁restée	-12.3395
▁serveur	-12.3395
▁CNSP	-12.3395
augmenter	-12.3395
Célia	-12.3395
▁rassemblement	-12.3395
▁langage	-12.3396
▁COMMUNES	-12.3396
▁cube	-12.3396
▁détiennent	-12.3396
▁échu	-12.3397
▁préremplie	-12.3399
▁rembourser	-12.3399
▁inclusif	-12.3399
▁Mala	-12.34
▁rédiger	-12.34
explication	-12.34
Peuvent	-12.3402
▁Eco	-12.3403
▁spécifiées	-12.3404
▁déchargée	-12.3405
gestion	-12.3406
▁Place	-12.3408
▁météorologiques	-12.3414
21032	-12.3415
▁implanté	-12.342
▁revêtu	-12.3421
▁SYN	-12.3423
script	-12.3425
▁0,9	-12.3426
▁citoyen	-12.3433
Manche	-12.3434
ouze	-12.3435
Code	-12.3436
▁commentaire	-12.3438
otariaux	-12.3438
mari	-12.3439
▁7501	-12.3446
▁voire	-12.345
cade	-12.346
▁1907	-12.3461
lian	-12.3465
▁strict	-12.3469
▁CHEN	-12.3474
SSEL	-12.3476
▁311-4	-12.3478
▁contrevient	-12.3481
▁bras	-12.3483
▁VAU	-12.3485
5-2,	-12.349
▁CIE	-12.3492
▁Blan	-12.3502
colonelle	-12.3513
rian	-12.3518
ouge	-12.3518
région	-12.3523
tain	-12.3525
natura	-12.3525
reuil	-12.3526
▁évolu	-12.3526
▁Pen	-12.3533
▁Salon	-12.3534
Amine	-12.3542
YON	-12.3542
fense	-12.3545
immunité	-12.3546
▁Bobigny	-12.3547
▁COMPÉTENCES	-12.3547
▁LCSQA	-12.3547
▁Répartition	-12.3547
▁divulgation	-12.3547
▁glycémie	-12.3547
▁infectieux	-12.3547
▁légitime	-12.3547
▁mucoviscidose	-12.3547
▁organisant	-12.3547
▁parachute	-12.3547
▁privative	-12.3547
▁renonciation	-12.3547
▁simulation	-12.3547
▁spondyl	-12.3547
Dimitri	-12.3547
Matthias	-12.3547
▁franchissement	-12.3547
▁Josette	-12.3547
88007	-12.3547
▁crime	-12.3547
▁terminé	-12.3547
immun	-12.3547
▁Transport	-12.3547
▁démontré	-12.3547
ampleur	-12.3547
▁Germaine	-12.3548
▁normalisation	-12.3548
▁Francine	-12.3548
▁baie	-12.3549
▁modifient	-12.355
▁compromettre	-12.3551
▁FICHE	-12.3551
▁joignant	-12.3552
insuffisance	-12.3556
éducatif	-12.3556
[...]
