<unk>	0
<s>	0
</s>	0
00	-0
▁d	-1
es	-2
on	-3
▁l	-4
OR	-5
0000	-6
ORF	-7
JORF	-8
ti	-9
en	-10
▁de	-11
00004	-12
1|	-13
▁p	-14
re	-15
▁a	-16
▁c	-17
an	-18
▁s	-19
tion	-20
TE	-21
XT	-22
TEXT	-23
JORFTEXT	-24
▁JORFTEXT	-25
in	-26
er	-27
is	-28
AR	-29
TI	-30
|1|	-31
ARTI	-32
JORFARTI	-33
ar	-34
ur	-35
ent	-36
le	-37
▁m	-38
et	-39
▁la	-40
▁du	-41
it	-42
ation	-43
qu	-44
ré	-45
20	-46
▁des	-47
or	-48
te	-49
▁et	-50
00003	-51
ic	-52
▁à	-53
al	-54
ou	-55
▁au	-56
ne	-57
|1||	-58
tr	-59
si	-60
ant	-61
ment	-62
om	-63
▁le	-64
0|	-65
▁f	-66
té	-67
▁les	-68
▁n	-69
ai	-70
▁con	-71
000043	-72
our	-73
ie	-74
▁dé	-75
000042	-76
ce	-77
2|	-78
▁en	-79
000038	-80
que	-81
▁L	-82
▁(	-83
▁par	-84
19	-85
000046	-86
il	-87
ité	-88
se	-89
3|	-90
est	-91
▁pr	-92
ér	-93
▁:	-94
▁re	-95
un	-96
4|	-97
000045	-98
bl	-99
▁20	-100
at	-101
me	-102
22	-103
de	-104
au	-105
▁1	-106
000044	-107
res	-108
ée	-109
5|	-110
▁est	-111
tic	-112
▁é	-113
ac	-114
6|	-115
▁pré	-116
di	-117
pl	-118
000039	-119
▁;	-120
▁com	-121
tre	-122
ans	-123
7|	-124
ont	-125
ve	-126
▁ré	-127
▁M	-128
▁in	-129
oc	-130
21	-131
8|	-132
▁C	-133
▁mo	-134
as	-135
▁ou	-136
ier	-137
ticle	-138
ale	-139
▁g	-140
aire	-141
ff	-142
ex	-143
ol	-144
9|	-145
▁j	-146
▁t	-147
inis	-148
us	-149
ag	-150
18	-151
és	-152
|0|	-153
17	-154
▁ch	-155
▁v	-156
ul	-157
▁»	-158
rê	-159
article	-160
ique	-161
▁A	-162
▁2	-163
ch	-164
rêté	-165
tions	-166
sion	-167
ubl	-168
iv	-169
14	-170
▁pro	-171
▁dans	-172
1|1|	-173
une	-174
▁tr	-175
15	-176
▁R	-177
10	-178
▁pour	-179
▁qu	-180
im	-181
▁ar	-182
el	-183
▁P	-184
éc	-185
38	-186
▁«	-187
pr	-188
ati	-189
16	-190
ure	-191
▁b	-192
én	-193
ig	-194
ter	-195
mb	-196
▁D	-197
39	-198
34	-199
sent	-200
ap	-201
26	-202
ié	-203
30	-204
▁su	-205
35	-206
▁sont	-207
75	-208
▁ser	-209
▁o	-210
▁aux	-211
▁r	-212
79	-213
ec	-214
oi	-215
▁un	-216
▁I	-217
ées	-218
ts	-219
36	-220
),	-221
ab	-222
70	-223
▁publ	-224
▁comp	-225
ad	-226
12	-227
os	-228
ice	-229
ise	-230
40	-231
45	-232
▁S	-233
▁minis	-234
46	-235
ers	-236
ate	-237
ations	-238
orm	-239
ance	-240
▁co	-241
ention	-242
25	-243
▁sur	-244
les	-245
▁di	-246
ces	-247
|1|1|	-248
▁présent	-249
76	-250
ER	-251
ction	-252
28	-253
29	-254
iè	-255
78	-256
tif	-257
▁ac	-258
nel	-259
mbre	-260
av	-261
mpl	-262
ort	-263
am	-264
▁dis	-265
▁an	-266
48	-267
▁h	-268
ot	-269
).	-270
▁déc	-271
aux	-272
ques	-273
aires	-274
49	-275
og	-276
ine	-277
▁arrêté	-278
66	-279
éd	-280
po	-281
urs	-282
▁ti	-283
▁ex	-284
ue	-285
ès	-286
▁J	-287
13	-288
▁serv	-289
▁B	-290
ins	-291
ication	-292
ence	-293
ip	-294
abl	-295
▁3	-296
age	-297
27	-298
eu	-299
ran	-300
alité	-301
arg	-302
▁ad	-303
ret	-304
▁une	-305
ite	-306
ion	-307
end	-308
iel	-309
ous	-310
fr	-311
59	-312
47	-313
ments	-314
▁conc	-315
▁ministre	-316
▁gén	-317
ours	-318
▁nom	-319
posi	-320
23	-321
onn	-322
▁qui	-323
tu	-324
08	-325
▁génér	-326
mis	-327
|1||1	-328
cr	-329
op	-330
▁E	-331
oit	-332
▁charg	-333
▁e	-334
▁dire	-335
ession	-336
▁soc	-337
68	-338
Le	-339
ais	-340
▁ap	-341
ir	-342
tes	-343
id	-344
/20	-345
ffic	-346
tat	-347
▁code	-348
69	-349
entre	-350
44	-351
ib	-352
2|1|	-353
minis	-354
▁se	-355
▁al	-356
▁ju	-357
▁cons	-358
▁prof	-359
ép	-360
58	-361
▁pl	-362
43	-363
ministr	-364
▁date	-365
▁rel	-366
▁F	-367
▁disposi	-368
▁—	-369
▁mention	-370
0||0|	-371
lec	-372
50	-373
ien	-374
-1	-375
ERS	-376
▁G	-377
ix	-378
iné	-379
man	-380
insi	-381
77	-382
▁ainsi	-383
▁prév	-384
1|1||	-385
Ar	-386
ois	-387
ss	-388
VERS	-389
▁que	-390
▁te	-391
▁Mme	-392
lr	-393
▁mots	-394
▁2020	-395
JORFVERS	-396
▁fon	-397
▁ins	-398
▁profession	-399
ves	-400
ét	-401
▁nation	-402
ord	-403
form	-404
▁rempl	-405
vr	-406
teur	-407
ain	-408
▁N	-409
|0||0|	-410
tér	-411
ranç	-412
73	-413
sid	-414
près	-415
24	-416
60	-417
▁mentionn	-418
ourn	-419
65	-420
▁port	-421
▁19	-422
▁aliné	-423
ob	-424
-0	-425
▁professionnel	-426
▁suiv	-427
▁2021	-428
tor	-429
dat	-430
▁Le	-431
▁5	-432
vis	-433
▁2019	-434
ices	-435
▁pers	-436
▁dél	-437
▁rég	-438
ille	-439
▁direc	-440
▁fin	-441
89	-442
▁contr	-443
dif	-444
able	-445
▁mar	-446
▁portant	-447
▁peu	-448
▁res	-449
▁modif	-450
▁can	-451
pér	-452
▁inter	-453
nement	-454
isation	-455
ail	-456
du	-457
arre	-458
atif	-459
iques	-460
▁alinéa	-461
Arrêté	-462
33	-463
arrete	-464
▁offic	-465
▁not	-466
▁ter	-467
ités	-468
▁dispositions	-469
ère	-470
0000439	-471
org	-472
▁candi	-473
11	-474
ors	-475
▁fix	-476
▁Les	-477
▁2022	-478
▁candidat	-479
être	-480
▁services	-481
▁franç	-482
ants	-483
09	-484
ales	-485
▁appl	-486
LE	-487
▁remplac	-488
▁décret	-489
▁4	-490
▁V	-491
Les	-492
3|1|	-493
▁officiel	-494
isse	-495
▁T	-496
▁sp	-497
organ	-498
ournal	-499
▁titre	-500
▁sus	-501
seil	-502
ublique	-503
▁trav	-504
▁jus	-505
▁être	-506
tiv	-507
vec	-508
mes	-509
0000418	-510
II	-511
▁public	-512
▁trans	-513
ux	-514
ait	-515
▁Journal	-516
▁ass	-517
▁condi	-518
ég	-519
rem	-520
▁avec	-521
ten	-522
▁col	-523
aise	-524
63	-525
▁sec	-526
▁form	-527
80	-528
55	-529
che	-530
lle	-531
olog	-532
pré	-533
ture	-534
▁Rép	-535
74	-536
▁République	-537
▁dép	-538
0000460	-539
ues	-540
▁française	-541
2|1||	-542
um	-543
▁déf	-544
pe	-545
0000417	-546
▁ét	-547
▁cl	-548
ette	-549
mission	-550
▁ne	-551
pon	-552
▁La	-553
ense	-554
▁conditions	-555
1-	-556
▁pas	-557
rit	-558
des	-559
0000388	-560
▁6	-561
ouve	-562
|1|2|	-563
dec	-564
Mme	-565
▁soci	-566
gr	-567
ieur	-568
iété	-569
ON	-570
TA	-571
ari	-572
▁deman	-573
elle	-574
▁cas	-575
229	-576
tul	-577
acc	-578
▁Par	-579
uc	-580
erc	-581
▁comm	-582
▁déce	-583
▁décembre	-584
AN	-585
ouv	-586
▁leur	-587
▁sous	-588
▁sera	-589
▁entre	-590
▁im	-591
▁parti	-592
La	-593
ablisse	-594
0000425	-595
64	-596
ace	-597
▁général	-598
▁mé	-599
anté	-600
Par	-601
▁son	-602
ES	-603
0000459	-604
ière	-605
▁-	-606
ution	-607
▁prem	-608
tement	-609
administr	-610
|1||2	-611
écur	-612
▁no	-613
▁travail	-614
▁santé	-615
ures	-616
titu	-617
0000419	-618
ième	-619
▁per	-620
crip	-621
▁Mar	-622
ra	-623
▁sécur	-624
▁ce	-625
▁susvis	-626
0000468	-627
éci	-628
ge	-629
▁rec	-630
▁ans	-631
|1||1|	-632
54	-633
he	-634
oin	-635
ances	-636
▁ses	-637
0000438	-638
▁nationale	-639
ables	-640
nex	-641
▁H	-642
dic	-643
reu	-644
enti	-645
|1||3	-646
administration	-647
ard	-648
ens	-649
▁Au	-650
▁peut	-651
▁mê	-652
▁compter	-653
ilité	-654
▁sécurité	-655
sident	-656
fér	-657
▁territ	-658
ass	-659
▁directeur	-660
▁société	-661
57	-662
tres	-663
▁concours	-664
arrêté	-665
jet	-666
▁dont	-667
▁générale	-668
lement	-669
▁fonction	-670
▁relatif	-671
▁conv	-672
2-	-673
▁spéci	-674
ign	-675
0000416	-676
▁service	-677
asse	-678
67	-679
▁deux	-680
▁ma	-681
antes	-682
0000433	-683
▁me	-684
53	-685
20|	-686
90	-687
▁rés	-688
▁tou	-689
▁titul	-690
éré	-691
10|	-692
▁administr	-693
▁conseil	-694
▁person	-695
▁collec	-696
vier	-697
ément	-698
▁ph	-699
▁publié	-700
estion	-701
iers	-702
née	-703
pec	-704
▁concer	-705
0000415	-706
ents	-707
anvier	-708
Etat	-709
▁janvier	-710
organis	-711
oci	-712
▁chargé	-713
cep	-714
▁at	-715
ori	-716
▁pos	-717
▁av	-718
oire	-719
▁che	-720
▁acc	-721
▁ép	-722
▁élec	-723
19|	-724
▁sup	-725
▁dur	-726
iste	-727
99	-728
▁demande	-729
OU	-730
11|	-731
IN	-732
0000420	-733
▁même	-734
st	-735
alités	-736
▁8	-737
▁dr	-738
chn	-739
tin	-740
0000427	-741
▁formation	-742
EN	-743
ffec	-744
▁gestion	-745
présent	-746
37	-747
illet	-748
ticles	-749
5|1||	-750
ination	-751
▁7	-752
él	-753
por	-754
▁ag	-755
▁oc	-756
16|	-757
▁II	-758
▁articles	-759
0000428	-760
ang	-761
▁civ	-762
vent	-763
▁juillet	-764
▁représent	-765
▁proc	-766
onom	-767
4|1|	-768
tère	-769
0000389	-770
▁médec	-771
▁région	-772
iti	-773
▁droit	-774
anc	-775
▁ces	-776
ile	-777
0000424	-778
▁Con	-779
BLE	-780
▁mis	-781
ill	-782
alis	-783
ante	-784
▁professionnelle	-785
▁modifié	-786
▁produ	-787
▁susvisé	-788
ies	-789
▁cor	-790
▁nomm	-791
▁9	-792
▁22	-793
0000430	-794
▁CH	-795
▁techn	-796
13|	-797
tice	-798
▁sa	-799
▁autor	-800
sib	-801
all	-802
atives	-803
ative	-804
ert	-805
▁Ar	-806
▁notaire	-807
▁il	-808
▁Ch	-809
cher	-810
TABLE	-811
atr	-812
ision	-813
uti	-814
itu	-815
cription	-816
ist	-817
ach	-818
▁électr	-819
87	-820
▁cette	-821
édic	-822
appl	-823
aite	-824
▁publics	-825
12|	-826
port	-827
▁publique	-828
ences	-829
▁mars	-830
▁sep	-831
nexe	-832
éri	-833
▁sal	-834
▁lim	-835
inté	-836
▁premier	-837
▁consul	-838
▁mod	-839
▁préc	-840
▁titulaire	-841
ages	-842
▁»,	-843
▁durée	-844
6|1||	-845
met	-846
ps	-847
▁justice	-848
onique	-849
rance	-850
val	-851
▁prévues	-852
▁cad	-853
RE	-854
ud	-855
88	-856
tive	-857
▁200	-858
oir	-859
th	-860
èg	-861
▁personn	-862
▁candidats	-863
oy	-864
▁donn	-865
omm	-866
ossi	-867
0000445	-868
▁médic	-869
ut	-870
ean	-871
ess	-872
▁sociale	-873
▁juin	-874
vembre	-875
▁novembre	-876
▁après	-877
its	-878
5|1|	-879
ature	-880
ération	-881
0000435	-882
▁gar	-883
14|	-884
ieu	-885
inc	-886
▁dossi	-887
▁application	-888
▁éc	-889
4|1||	-890
▁plus	-891
ôle	-892
42	-893
▁ob	-894
ché	-895
tembre	-896
▁septembre	-897
tob	-898
6|1|	-899
tobre	-900
▁applic	-901
tivités	-902
gé	-903
▁liste	-904
▁octobre	-905
1°	-906
▁supér	-907
▁commun	-908
ablissement	-909
▁remplacés	-910
▁DE	-911
Un	-912
▁organis	-913
▁classe	-914
▁st	-915
lu	-916
0000440	-917
▁compét	-918
rou	-919
▁qualité	-920
15|	-921
pris	-922
▁21	-923
▁lors	-924
ctions	-925
ateur	-926
écution	-927
▁mai	-928
vril	-929
▁avril	-930
2°	-931
▁convention	-932
entif	-933
vrier	-934
empl	-935
▁Paris	-936
lé	-937
▁ministère	-938
▁fé	-939
▁défin	-940
▁trois	-941
apit	-942
189	-943
ay	-944
par	-945
7|1||	-946
▁national	-947
▁février	-948
▁référ	-949
▁règ	-950
▁dépar	-951
▁chef	-952
23|	-953
▁président	-954
▁suivantes	-955
pons	-956
NE	-957
exécution	-958
▁».	-959
▁personnes	-960
ût	-961
▁nomination	-962
3|1||	-963
▁sy	-964
tériel	-965
2.	-966
▁sol	-967
erv	-968
▁mont	-969
▁vo	-970
7|1|	-971
0000465	-972
▁électronique	-973
▁auprès	-974
tific	-975
▁rédi	-976
▁CHU	-977
trait	-978
05	-979
fic	-980
17|	-981
▁direction	-982
▁Marie	-983
▁Art	-984
ivers	-985
▁30	-986
▁civile	-987
00004643	-988
▁respons	-989
ffet	-990
▁territori	-991
▁compte	-992
ception	-993
85	-994
18|	-995
esse	-996
▁cha	-997
0000414	-998
▁fonctions	-999
▁compl	-1000
ffice	-1001
▁eur	-1002
00004275	-1003
235	-1004
sig	-1005
pit	-1006
00|	-1007
oût	-1008
ulture	-1009
mbres	-1010
▁10	-1011
▁peuvent	-1012
exerc	-1013
74|	-1014
86	-1015
one	-1016
▁cadre	-1017
tivité	-1018
▁mise	-1019
▁août	-1020
ente	-1021
▁O	-1022
▁épreu	-1023
▁cré	-1024
▁partic	-1025
application	-1026
abilité	-1027
trib	-1028
|1|3|	-1029
uel	-1030
join	-1031
25|	-1032
▁associ	-1033
▁résid	-1034
arm	-1035
▁partir	-1036
▁personnel	-1037
ole	-1038
▁finances	-1039
▁sign	-1040
0000385	-1041
▁cer	-1042
▁conform	-1043
1.	-1044
and	-1045
▁vis	-1046
AU	-1047
tifs	-1048
▁car	-1049
24|	-1050
uv	-1051
▁Il	-1052
iss	-1053
cherche	-1054
▁z	-1055
ouver	-1056
ologie	-1057
itaire	-1058
rog	-1059
prim	-1060
770	-1061
▁16	-1062
▁dossier	-1063
onne	-1064
ui	-1065
année	-1066
▁décision	-1067
▁1°	-1068
▁mentionnés	-1069
éné	-1070
▁non	-1071
27|	-1072
iée	-1073
▁pol	-1074
IS	-1075
▁modalités	-1076
enseig	-1077
tique	-1078
▁situ	-1079
écret	-1080
/2021	-1081
26|	-1082
0000426	-1083
ieure	-1084
tis	-1085
aine	-1086
iaire	-1087
/2019	-1088
98	-1089
tien	-1090
22|	-1091
omp	-1092
rn	-1093
tés	-1094
util	-1095
/2020	-1096
teurs	-1097
29|	-1098
00003968	-1099
▁mois	-1100
▁fixant	-1101
▁médecine	-1102
▁membres	-1103
bre	-1104
blig	-1105
▁tous	-1106
ério	-1107
/2022	-1108
▁An	-1109
▁procéd	-1110
ci	-1111
▁contrôle	-1112
▁min	-1113
▁pério	-1114
▁applicables	-1115
ém	-1116
▁ég	-1117
▁montant	-1118
322	-1119
US	-1120
formation	-1121
▁15	-1122
▁résidence	-1123
elon	-1124
exercice	-1125
▁dern	-1126
▁13	-1127
▁Jean	-1128
▁sein	-1129
▁cour	-1130
sible	-1131
aint	-1132
▁béné	-1133
▁indi	-1134
41	-1135
valu	-1136
▁man	-1137
▁département	-1138
▁recherche	-1139
▁acces	-1140
▁délég	-1141
autor	-1142
ond	-1143
action	-1144
▁empl	-1145
▁respec	-1146
▁moins	-1147
▁délai	-1148
|1|2|1|	-1149
▁article	-1150
sign	-1151
|1|1|1|	-1152
▁31	-1153
▁2°	-1154
▁loi	-1155
▁inséré	-1156
▁leurs	-1157
▁autoris	-1158
inscription	-1159
ères	-1160
06	-1161
quel	-1162
pel	-1163
▁23	-1164
œuv	-1165
▁III	-1166
iron	-1167
▁opér	-1168
▁val	-1169
|1||2|	-1170
00004240	-1171
tég	-1172
Mar	-1173
agr	-1174
▁mission	-1175
tant	-1176
0000443	-1177
lev	-1178
|1||4	-1179
Au	-1180
▁doc	-1181
▁jur	-1182
28|	-1183
▁remplacé	-1184
▁charge	-1185
intégr	-1186
▁mes	-1187
▁salari	-1188
▁nombre	-1189
térieur	-1190
▁for	-1191
-3	-1192
incip	-1193
▁mentionnées	-1194
iqu	-1195
21|	-1196
ablissements	-1197
▁lieu	-1198
▁aér	-1199
▁sé	-1200
0000437	-1201
enant	-1202
▁sou	-1203
0000455	-1204
0000467	-1205
bles	-1206
▁14	-1207
amment	-1208
iment	-1209
cru	-1210
07	-1211
▁tex	-1212
ibun	-1213
alement	-1214
▁intern	-1215
eurs	-1216
▁supérieur	-1217
anti	-1218
onomie	-1219
▁princip	-1220
▁permet	-1221
95	-1222
if	-1223
▁concern	-1224
▁12	-1225
▁aff	-1226
84	-1227
▁ren	-1228
▁chac	-1229
▁épreuves	-1230
oires	-1231
ement	-1232
ueur	-1233
sition	-1234
pement	-1235
▁centre	-1236
viron	-1237
enseignement	-1238
œuvre	-1239
vel	-1240
▁soit	-1241
pos	-1242
▁Saint	-1243
ov	-1244
écess	-1245
▁France	-1246
▁nécess	-1247
ierre	-1248
ire	-1249
iens	-1250
000044229	-1251
0000396	-1252
tée	-1253
▁prend	-1254
▁établissements	-1255
iant	-1256
▁cent	-1257
trice	-1258
elles	-1259
▁contrat	-1260
▁chaque	-1261
▁tout	-1262
-2	-1263
▁sc	-1264
▁accord	-1265
▁réser	-1266
▁table	-1267
2||	-1268
▁bas	-1269
établissement	-1270
▁inform	-1271
▁commission	-1272
0000460770	-1273
▁17	-1274
▁traite	-1275
▁financ	-1276
▁he	-1277
▁Conseil	-1278
▁nature	-1279
aines	-1280
amen	-1281
ureau	-1282
2|1°	-1283
00003878	-1284
igueur	-1285
tection	-1286
▁loc	-1287
EL	-1288
▁effec	-1289
▁conformément	-1290
000043910	-1291
lar	-1292
SS	-1293
▁docu	-1294
▁ni	-1295
vironnement	-1296
-12	-1297
▁avant	-1298
onc	-1299
00004227	-1300
AL	-1301
2|«	-1302
opé	-1303
ites	-1304
000	-1305
▁oblig	-1306
ath	-1307
▁née	-1308
ress	-1309
3|—	-1310
▁garde	-1311
▁rédigé	-1312
eux	-1313
annexe	-1314
▁contre	-1315
▁accessible	-1316
0000379	-1317
▁tem	-1318
▁texte	-1319
▁données	-1320
▁doit	-1321
▁deuxième	-1322
CH	-1323
ich	-1324
ient	-1325
▁supprim	-1326
00004391020	-1327
aut	-1328
rét	-1329
▁bénéfic	-1330
Ch	-1331
56	-1332
▁comme	-1333
alisation	-1334
ateurs	-1335
emploi	-1336
210	-1337
▁att	-1338
apitre	-1339
JUS	-1340
ibunal	-1341
▁moy	-1342
31|	-1343
9|1||	-1344
▁sce	-1345
▁notamment	-1346
▁selon	-1347
0000464326	-1348
ploit	-1349
▁24	-1350
aiss	-1351
▁corps	-1352
erg	-1353
▁lib	-1354
▁effet	-1355
▁18	-1356
00004227189	-1357
umér	-1358
▁cours	-1359
▁œuvre	-1360
▁référence	-1361
▁certific	-1362
ouse	-1363
-10	-1364
▁adjoin	-1365
▁page	-1366
erie	-1367
▁consulter	-1368
94	-1369
▁tableau	-1370
prise	-1371
▁réserve	-1372
00003878322	-1373
entifié	-1374
4|—	-1375
resse	-1376
▁prévue	-1377
▁pris	-1378
ph	-1379
▁vigueur	-1380
pond	-1381
36|	-1382
000039229	-1383
▁En	-1384
truc	-1385
▁europé	-1386
▁voie	-1387
00003966	-1388
gén	-1389
▁2020,	-1390
▁éché	-1391
▁25	-1392
▁concerne	-1393
00004422958	-1394
reuve	-1395
▁établ	-1396
▁mentionné	-1397
▁ca	-1398
04	-1399
ouvelle	-1400
velop	-1401
▁sceaux	-1402
▁ress	-1403
uis	-1404
En	-1405
▁mentionnée	-1406
▁inst	-1407
▁11	-1408
▁chargés	-1409
intégralité	-1410
▁ab	-1411
▁membre	-1412
▁recru	-1413
▁période	-1414
▁secrét	-1415
éduc	-1416
▁droits	-1417
agement	-1418
IL	-1419
▁auth	-1420
▁désign	-1421
▁équ	-1422
▁judic	-1423
stè	-1424
138	-1425
▁bureau	-1426
extrait	-1427
▁prise	-1428
▁déliv	-1429
▁pén	-1430
▁"	-1431
▁personne	-1432
trang	-1433
▁images	-1434
▁ci	-1435
ouvez	-1436
▁pouvez	-1437
igne	-1438
cul	-1439
▁ann	-1440
▁limite	-1441
▁été	-1442
0000387	-1443
Vous	-1444
ane	-1445
▁2021,	-1446
tation	-1447
▁ministériel	-1448
▁authentifié	-1449
5|—	-1450
rée	-1451
organisation	-1452
▁numér	-1453
179	-1454
▁européen	-1455
▁protection	-1456
▁ind	-1457
▁réalis	-1458
aison	-1459
8|1||	-1460
▁fr	-1461
3|«	-1462
0000384	-1463
prises	-1464
|1|4|	-1465
▁échéant	-1466
▁diff	-1467
▁él	-1468
UE	-1469
▁2018	-1470
hé	-1471
▁règlement	-1472
économie	-1473
▁rap	-1474
sement	-1475
▁gra	-1476
ils	-1477
▁fait	-1478
objet	-1479
ordonn	-1480
stitu	-1481
An	-1482
▁2022,	-1483
▁exerc	-1484
▁“	-1485
▁Pour	-1486
1|1|1|	-1487
3°	-1488
adi	-1489
tru	-1490
▁collective	-1491
Décret	-1492
▁partie	-1493
dit	-1494
TR	-1495
0000436	-1496
▁2019,	-1497
▁grou	-1498
▁préf	-1499
2|—	-1500
tribu	-1501
In	-1502
Pour	-1503
▁représentant	-1504
220	-1505
yant	-1506
▁traitement	-1507
valuation	-1508
3.	-1509
atique	-1510
▁28	-1511
decret	-1512
éducation	-1513
0000386	-1514
▁chacun	-1515
▁déclar	-1516
ières	-1517
▁résul	-1518
▁26	-1519
tiques	-1520
▁systè	-1521
offic	-1522
97	-1523
uelle	-1524
3-	-1525
96	-1526
▁site	-1527
accord	-1528
▁section	-1529
37|	-1530
|1||5	-1531
▁hors	-1532
▁27	-1533
40|	-1534
▁ayant	-1535
ler	-1536
TION	-1537
acement	-1538
▁projet	-1539
ologique	-1540
▁Dans	-1541
00004679	-1542
32|	-1543
▁relatives	-1544
▁relev	-1545
▁grade	-1546
▁29	-1547
mble	-1548
▁sans	-1549
ivent	-1550
▁agents	-1551
▁mot	-1552
30|	-1553
00004459	-1554
IC	-1555
ospit	-1556
▁comptes	-1557
▁nive	-1558
NEX	-1559
8|1|	-1560
▁tribunal	-1561
pro	-1562
4|«	-1563
▁produits	-1564
accès	-1565
▁affaires	-1566
udg	-1567
0000466	-1568
▁nav	-1569
information	-1570
ver	-1571
▁dét	-1572
nes	-1573
35|	-1574
ven	-1575
6|—	-1576
▁certificat	-1577
▁dom	-1578
▁budg	-1579
▁té	-1580
▁judiciaire	-1581
aul	-1582
▁publiques	-1583
▁annexe	-1584
mand	-1585
0000394	-1586
for	-1587
200	-1588
▁situation	-1589
▁prest	-1590
xim	-1591
▁do	-1592
▁mil	-1593
00003969	-1594
urg	-1595
▁faire	-1596
oul	-1597
ANNEX	-1598
AS	-1599
▁progr	-1600
▁recrutement	-1601
▁entreprises	-1602
114	-1603
▁responsabilité	-1604
▁directrice	-1605
▁%	-1606
▁3°	-1607
▁toute	-1608
▁dipl	-1609
/2019-0	-1610
▁IV	-1611
39|	-1612
▁collectivités	-1613
▁program	-1614
quis	-1615
▁jusqu	-1616
activité	-1617
▁autres	-1618
0000423	-1619
00003930	-1620
naire	-1621
▁chapitre	-1622
▁suppl	-1623
/2021-0	-1624
az	-1625
vid	-1626
ancement	-1627
aph	-1628
dem	-1629
office	-1630
ources	-1631
▁heures	-1632
eur	-1633
0000380	-1634
▁première	-1635
▁particul	-1636
38|	-1637
/2022-0	-1638
ww	-1639
ports	-1640
ub	-1641
70|	-1642
▁dou	-1643
amp	-1644
dr	-1645
0000456	-1646
▁por	-1647
▁nommée	-1648
▁complé	-1649
0000390	-1650
term	-1651
hér	-1652
▁liv	-1653
atoire	-1654
▁agré	-1655
▁associés	-1656
4-	-1657
234	-1658
▁nommé	-1659
9|1|	-1660
▁0	-1661
oins	-1662
115	-1663
▁économ	-1664
▁K	-1665
▁fig	-1666
▁zone	-1667
▁attribu	-1668
▁sub	-1669
▁relevant	-1670
000043235	-1671
80|	-1672
imentation	-1673
21|1||	-1674
▁activités	-1675
7|—	-1676
épreuve	-1677
▁niveau	-1678
ase	-1679
▁étu	-1680
▁délégu	-1681
0000397	-1682
▁stat	-1683
34|	-1684
▁tard	-1685
▁mati	-1686
▁jours	-1687
496	-1688
▁si	-1689
▁solid	-1690
0000383	-1691
ustr	-1692
▁”	-1693
|1||3|	-1694
ôme	-1695
▁pharm	-1696
ensemble	-1697
▁ligne	-1698
autorité	-1699
officiers	-1700
51|	-1701
0000450	-1702
3|2°	-1703
Il	-1704
▁log	-1705
57|	-1706
▁dernier	-1707
▁autre	-1708
itée	-1709
▁actes	-1710
▁présente	-1711
▁rend	-1712
ime	-1713
▁ministériels	-1714
exploit	-1715
▁util	-1716
▁ris	-1717
5|«	-1718
▁épouse	-1719
em	-1720
▁LA	-1721
environnement	-1722
IER	-1723
rer	-1724
▁suivant	-1725
▁bi	-1726
▁techniques	-1727
▁publication	-1728
00004417	-1729
▁différ	-1730
/2020-0	-1731
▁Gu	-1732
ienne	-1733
▁retr	-1734
▁arm	-1735
▁défense	-1736
|1||6	-1737
clu	-1738
33|	-1739
▁poin	-1740
tées	-1741
|1|5|	-1742
ANNEXE	-1743
ospital	-1744
▁troisième	-1745
JUSC	-1746
359	-1747
ind	-1748
▁réglement	-1749
▁vol	-1750
▁fourn	-1751
▁compétences	-1752
▁né	-1753
évaluation	-1754
▁U	-1755
0000458	-1756
EC	-1757
8|—	-1758
rec	-1759
|1|3|1|	-1760
criptions	-1761
▁effectu	-1762
▁modifiant	-1763
nelle	-1764
esp	-1765
endant	-1766
▁dévelop	-1767
▁travaux	-1768
▁mesures	-1769
▁également	-1770
équ	-1771
79|	-1772
▁Un	-1773
iées	-1774
▁ressources	-1775
32	-1776
▁ver	-1777
tie	-1778
▁doivent	-1779
up	-1780
respond	-1781
4.	-1782
▁ten	-1783
47|	-1784
▁prévu	-1785
▁(1	-1786
truction	-1787
00004579	-1788
yc	-1789
iculture	-1790
▁san	-1791
▁correspond	-1792
act	-1793
388	-1794
▁constitu	-1795
72|	-1796
▁suit	-1797
▁comité	-1798
▁piè	-1799
fin	-1800
000043310	-1801
▁compt	-1802
admission	-1803
MEN	-1804
ern	-1805
84|	-1806
▁particip	-1807
iversité	-1808
▁jury	-1809
270	-1810
aissance	-1811
att	-1812
-5	-1813
000045964	-1814
▁spor	-1815
00003945	-1816
▁abrog	-1817
121	-1818
▁technique	-1819
intérieur	-1820
41|	-1821
▁informations	-1822
▁y	-1823
▁mal	-1824
6|«	-1825
appel	-1826
ia	-1827
▁centr	-1828
136	-1829
77|	-1830
▁pati	-1831
▁hum	-1832
RA	-1833
▁administratif	-1834
oute	-1835
50|	-1836
▁Al	-1837
▁lorsque	-1838
▁sim	-1839
ax	-1840
▁armées	-1841
▁cin	-1842
▁plac	-1843
istance	-1844
▁ont	-1845
▁respect	-1846
tats	-1847
▁retraite	-1848
▁Ce	-1849
149	-1850
▁mariti	-1851
entiel	-1852
examen	-1853
assur	-1854
▁carac	-1855
lles	-1856
120	-1857
00004260	-1858
▁moyen	-1859
yn	-1860
0000457	-1861
▁chargée	-1862
▁conn	-1863
▁suivante	-1864
inter	-1865
00004455	-1866
▁fixé	-1867
00004596439	-1868
▁opérations	-1869
▁tot	-1870
▁ent	-1871
100	-1872
44|	-1873
2|1|1|	-1874
▁part	-1875
▁tran	-1876
OM	-1877
agn	-1878
erce	-1879
▁étrang	-1880
iés	-1881
0|1||	-1882
▁procédure	-1883
Al	-1884
Ass	-1885
000042846	-1886
tification	-1887
62|	-1888
état	-1889
240	-1890
rés	-1891
édi	-1892
▁compris	-1893
pes	-1894
▁écr	-1895
▁condu	-1896
demn	-1897
atis	-1898
▁culture	-1899
ons	-1900
59|	-1901
▁€	-1902
▁fixée	-1903
73|	-1904
sibilité	-1905
jec	-1906
▁am	-1907
▁scien	-1908
▁maxim	-1909
▁déterm	-1910
▁fond	-1911
360	-1912
OUR	-1913
▁DU	-1914
▁avis	-1915
forme	-1916
|1||10|	-1917
ôpit	-1918
▁postes	-1919
75|1||	-1920
▁cal	-1921
▁hospital	-1922
▁2017	-1923
▁vé	-1924
itaires	-1925
▁actions	-1926
agriculture	-1927
usi	-1928
00003834	-1929
▁poste	-1930
jou	-1931
position	-1932
ules	-1933
▁cel	-1934
780	-1935
aide	-1936
▁W	-1937
0000453	-1938
▁suivants	-1939
▁utilis	-1940
veill	-1941
▁ingén	-1942
▁reconn	-1943
▁valid	-1944
▁garanti	-1945
III	-1946
▁préfet	-1947
▁social	-1948
738	-1949
▁affec	-1950
▁figur	-1951
▁équip	-1952
245	-1953
▁matière	-1954
dess	-1955
▁jour	-1956
▁minim	-1957
▁lég	-1958
▁remplacement	-1959
▁interne	-1960
▁Lors	-1961
▁DES	-1962
ouverture	-1963
entes	-1964
▁phy	-1965
54|	-1966
stitut	-1967
▁Com	-1968
▁radi	-1969
52|	-1970
▁médecin	-1971
hil	-1972
|1||11|	-1973
ones	-1974
▁gr	-1975
0000446	-1976
tension	-1977
rase	-1978
od	-1979
▁compr	-1980
134	-1981
▁phrase	-1982
▁install	-1983
▁représentants	-1984
rég	-1985
▁police	-1986
▁Après	-1987
▁salariée	-1988
ogr	-1989
269	-1990
ordre	-1991
61|	-1992
▁territoire	-1993
▁je	-1994
RI	-1995
▁six	-1996
aud	-1997
▁spécialité	-1998
sence	-1999
▁développement	-2000
▁conf	-2001
43|	-2002
00004376	-2003
▁cap	-2004
▁secrétaire	-2005
mer	-2006
ET	-2007
istr	-2008
adém	-2009
▁rapport	-2010
▁définies	-2011
▁transport	-2012
00004308	-2013
ergie	-2014
▁administrative	-2015
▁transition	-2016
759	-2017
titul	-2018
▁complément	-2019
miss	-2020
itenti	-2021
ade	-2022
êche	-2023
▁pénitenti	-2024
▁assoc	-2025
00004569	-2026
48|	-2027
▁met	-2028
▁susvisée	-2029
RO	-2030
endue	-2031
▁Pr	-2032
agistr	-2033
▁inc	-2034
▁norm	-2035
▁fixées	-2036
130	-2037
▁catég	-2038
▁supplé	-2039
▁rése	-2040
▁attach	-2041
|1|6|	-2042
▁main	-2043
00004519	-2044
mun	-2045
ats	-2046
▁In	-2047
per	-2048
▁maj	-2049
iation	-2050
icol	-2051
4°	-2052
éral	-2053
119	-2054
rançois	-2055
▁remplacée	-2056
opération	-2057
AG	-2058
▁documents	-2059
67|	-2060
00004600	-2061
78|	-2062
identif	-2063
▁vers	-2064
▁zones	-2065
▁déb	-2066
▁livre	-2067
▁pièces	-2068
148	-2069
▁individ	-2070
00004330	-2071
49|	-2072
▁insérés	-2073
000043075	-2074
lex	-2075
ma	-2076
00004248	-2077
adresse	-2078
58|	-2079
ève	-2080
aisant	-2081
▁salariés	-2082
▁agr	-2083
▁personnels	-2084
238	-2085
▁disposition	-2086
55|	-2087
▁relative	-2088
▁Pierre	-2089
▁off	-2090
00003940	-2091
▁permettant	-2092
AP	-2093
1-1	-2094
▁annex	-2095
-4	-2096
ches	-2097
eau	-2098
219	-2099
iaires	-2100
▁dérog	-2101
ing	-2102
▁organismes	-2103
53|	-2104
737|	-2105
▁cet	-2106
▁budget	-2107
▁place	-2108
▁nécessaires	-2109
45|	-2110
75|	-2111
76|	-2112
▁précis	-2113
IR	-2114
usage	-2115
hilip	-2116
▁maî	-2117
71|	-2118
▁rest	-2119
hy	-2120
▁admis	-2121
▁physi	-2122
osition	-2123
itation	-2124
▁exter	-2125
atoires	-2126
▁limitée	-2127
usieurs	-2128
▁médical	-2129
fs	-2130
▁plusieurs	-2131
|1||4|	-2132
113	-2133
65|	-2134
00004217	-2135
000046040	-2136
42|	-2137
00003929	-2138
▁or	-2139
▁adjoint	-2140
▁supprimés	-2141
«-	-2142
9|—	-2143
▁français	-2144
hier	-2145
térieure	-2146
▁syn	-2147
assurance	-2148
édération	-2149
▁jeun	-2150
▁réception	-2151
▁internet	-2152
0000449	-2153
▁000	-2154
▁plan	-2155
Pierre	-2156
ôpitaux	-2157
▁ajou	-2158
▁cir	-2159
ograph	-2160
▁office	-2161
56|	-2162
000046077074|	-2163
oix	-2164
▁répar	-2165
ôt	-2166
▁professionnels	-2167
46|	-2168
▁écologique	-2169
▁régionale	-2170
inst	-2171
AM	-2172
▁complété	-2173
▁règles	-2174
▁assur	-2175
eng	-2176
▁4°	-2177
énergie	-2178
▁lui	-2179
gis	-2180
..	-2181
ements	-2182
uit	-2183
hilippe	-2184
Sont	-2185
oine	-2186
AT	-2187
▁ty	-2188
▁tempor	-2189
00003839	-2190
▁LE	-2191
organisme	-2192
▁conten	-2193
▁humaines	-2194
hab	-2195
▁transports	-2196
ann	-2197
▁vice	-2198
▁conclu	-2199
ines	-2200
279	-2201
▁prestations	-2202
▁gran	-2203
▁pendant	-2204
président	-2205
000043910204|	-2206
ong	-2207
atiques	-2208
Article	-2209
ène	-2210
69|	-2211
enc	-2212
▁territoriales	-2213
▁cr	-2214
▁Pré	-2215
ueil	-2216
▁missions	-2217
▁défini	-2218
aur	-2219
expér	-2220
▁faisant	-2221
83	-2222
aly	-2223
▁relance	-2224
ociation	-2225
▁solidar	-2226
▁inscr	-2227
OT	-2228
ls	-2229
▁eng	-2230
AC	-2231
ose	-2232
▁Cl	-2233
▁consomm	-2234
▁bis	-2235
▁2023	-2236
▁AN	-2237
▁dérou	-2238
000046432620|	-2239
ange	-2240
000046432621|1||	-2241
▁Chr	-2242
▁base	-2243
63|	-2244
entreprise	-2245
▁pres	-2246
▁politi	-2247
000042271891|	-2248
▁devr	-2249
▁décisions	-2250
ze	-2251
▁Prem	-2252
▁territoriale	-2253
258	-2254
126	-2255
▁pouv	-2256
adie	-2257
IT	-2258
▁alinéas	-2259
135	-2260
000038783224|	-2261
▁industr	-2262
jud	-2263
sie	-2264
andic	-2265
▁notaires	-2266
▁univers	-2267
▁prendre	-2268
▁document	-2269
ri	-2270
▁soins	-2271
andicap	-2272
ARD	-2273
cours	-2274
▁unique	-2275
Ag	-2276
▁européenne	-2277
▁rédig	-2278
inet	-2279
▁contrib	-2280
▁système	-2281
-08	-2282
vention	-2283
480	-2284
▁modifiée	-2285
00004259	-2286
tiers	-2287
▁employ	-2288
▁médicale	-2289
▁commiss	-2290
00004436	-2291
▁transf	-2292
▁ouvr	-2293
▁infér	-2294
effet	-2295
▁Elle	-2296
2100|	-2297
66|	-2298
000042271892|1||	-2299
▁précéd	-2300
▁handicap	-2301
ric	-2302
000044229585|	-2303
yl	-2304
▁ense	-2305
00004539	-2306
▁quat	-2307
ieurs	-2308
▁Nig	-2309
tra	-2310
ichel	-2311
léments	-2312
▁qual	-2313
00004240210	-2314
Jean	-2315
▁lesquel	-2316
▁supérieure	-2317
▁outre	-2318
titude	-2319
89|	-2320
-7	-2321
00004331	-2322
00004547	-2323
00004420	-2324
▁principal	-2325
190	-2326
urer	-2327
▁destin	-2328
▁pai	-2329
▁celles	-2330
000038496	-2331
▁imm	-2332
Institut	-2333
▁Nigend	-2334
▁charges	-2335
000042402100|	-2336
Assistance	-2337
▁donnée	-2338
exploitation	-2339
▁internation	-2340
000042402101|1||	-2341
▁production	-2342
▁pêche	-2343
180	-2344
quelle	-2345
atrice	-2346
▁compos	-2347
▁2022.	-2348
▁nouve	-2349
ll	-2350
▁laquelle	-2351
▁2016	-2352
▁adress	-2353
6-	-2354
▁douan	-2355
tribution	-2356
▁attributions	-2357
▁vale	-2358
▁champ	-2359
hic	-2360
000039229737|	-2361
000039229738	-2362
OL	-2363
▁euros	-2364
▁2021.	-2365
▁toutes	-2366
0000393	-2367
▁libéral	-2368
▁suivi	-2369
400	-2370
itudes	-2371
ariat	-2372
étu	-2373
▁remb	-2374
▁diplôme	-2375
87|	-2376
▁capit	-2377
00004266	-2378
▁justif	-2379
▁maladie	-2380
▁fer	-2381
▁juge	-2382
hérap	-2383
▁spécialités	-2384
3|1|1|	-2385
ension	-2386
ulation	-2387
00003965	-2388
▁servitudes	-2389
▁éléments	-2390
naires	-2391
▁temporaire	-2392
1289	-2393
opér	-2394
00004454	-2395
▁responsable	-2396
union	-2397
000043910205|1||	-2398
▁mob	-2399
|1||12|	-2400
rêt	-2401
aphe	-2402
60|	-2403
00003826	-2404
▁groupe	-2405
tives	-2406
ides	-2407
▁fam	-2408
760	-2409
gistre	-2410
00004675	-2411
88|	-2412
7|1|1|	-2413
▁sanitaire	-2414
▁2020.	-2415
▁exam	-2416
▁siè	-2417
▁délégué	-2418
▁maritime	-2419
▁ouver	-2420
▁véhic	-2421
étendue	-2422
abinet	-2423
âti	-2424
64|	-2425
▁paragr	-2426
uissi	-2427
▁marché	-2428
00003877	-2429
MENT	-2430
▁rémun	-2431
165	-2432
▁établissement	-2433
aisse	-2434
serv	-2435
-6	-2436
17|1||	-2437
▁territoires	-2438
000046845	-2439
▁station	-2440
DE	-2441
288	-2442
-1,	-2443
68|	-2444
▁inscriptions	-2445
▁second	-2446
▁mét	-2447
00004218	-2448
▁économique	-2449
00004553	-2450
ffre	-2451
▁struc	-2452
autorisation	-2453
▁véri	-2454
pose	-2455
▁programme	-2456
102|	-2457
tures	-2458
UR	-2459
-19	-2460
veillance	-2461
▁inspec	-2462
▁délégation	-2463
▁Br	-2464
▁numérique	-2465
IE	-2466
230	-2467
▁Y	-2468
▁centrale	-2469
▁modification	-2470
▁op	-2471
139	-2472
000038783225|1||	-2473
83|	-2474
Union	-2475
enses	-2476
oph	-2477
tenant	-2478
00004326	-2479
▁mandat	-2480
illes	-2481
▁dispositif	-2482
▁obten	-2483
|1||13|	-2484
énagement	-2485
▁Décret	-2486
00004149	-2487
ffe	-2488
▁Cette	-2489
▁temps	-2490
achet	-2491
▁relatifs	-2492
▁régional	-2493
FR	-2494
CE	-2495
▁aut	-2496
cipl	-2497
TRE	-2498
▁risques	-2499
▁frais	-2500
▁institu	-2501
00003870	-2502
▁demand	-2503
▁abrogé	-2504
▁afin	-2505
ulaire	-2506
ertion	-2507
▁cabinet	-2508
mise	-2509
▁financement	-2510
000044229586|1||	-2511
00004350	-2512
▁calcul	-2513
248	-2514
▁inf	-2515
▁où	-2516
après	-2517
▁Centre	-2518
▁externe	-2519
▁exercer	-2520
▁spécif	-2521
la	-2522
cole	-2523
▁celui	-2524
7|«	-2525
00004309	-2526
▁éch	-2527
▁adap	-2528
95|	-2529
▁jeunesse	-2530
▁cert	-2531
cc	-2532
pres	-2533
▁inté	-2534
▁statut	-2535
▁études	-2536
idi	-2537
▁dev	-2538
▁contin	-2539
96|	-2540
ide	-2541
▁as	-2542
▁sens	-2543
340	-2544
▁vue	-2545
▁déclaration	-2546
|1||14|	-2547
00004245	-2548
00003868	-2549
▁Ren	-2550
▁prévention	-2551
81|	-2552
entrée	-2553
000045538	-2554
0000463	-2555
▁elle	-2556
▁signer	-2557
-11	-2558
5.	-2559
▁dén	-2560
▁gaz	-2561
utilisation	-2562
▁div	-2563
inspec	-2564
ordonnance	-2565
▁activité	-2566
agne	-2567
00004518	-2568
col	-2569
▁année	-2570
122	-2571
▁rou	-2572
vol	-2573
▁retrait	-2574
▁gé	-2575
▁bâti	-2576
Comm	-2577
France	-2578
▁associé	-2579
urb	-2580
▁én	-2581
▁priv	-2582
▁esp	-2583
▁appr	-2584
5-	-2585
00004331179	-2586
377	-2587
469	-2588
▁magistr	-2589
orie	-2590
▁offer	-2591
▁tari	-2592
▁consid	-2593
263|	-2594
110	-2595
▁douanes	-2596
156	-2597
out	-2598
|1||5|	-2599
èle	-2600
00003935	-2601
▁figurant	-2602
▁matériel	-2603
00004450	-2604
▁paiement	-2605
▁titulaires	-2606
▁exig	-2607
▁conserv	-2608
sy	-2609
▁nommés	-2610
Dans	-2611
otte	-2612
IV	-2613
écu	-2614
stac	-2615
▁Partie	-2616
169	-2617
orde	-2618
ommand	-2619
▁coll	-2620
000046846	-2621
▁création	-2622
▁réd	-2623
ATION	-2624
▁Premier	-2625
▁celle	-2626
▁mesure	-2627
▁pay	-2628
▁ET	-2629
▁taux	-2630
insertion	-2631
▁contrac	-2632
▁paragraphe	-2633
Agence	-2634
▁domaine	-2635
▁exception	-2636
ettes	-2637
▁Lorsque	-2638
00004346	-2639
00004334	-2640
▁commerce	-2641
|1||15|	-2642
▁avoir	-2643
170	-2644
▁mon	-2645
85|	-2646
▁emplois	-2647
rier	-2648
▁préal	-2649
▁salar	-2650
▁scientif	-2651
▁prom	-2652
▁communes	-2653
estation	-2654
▁prévus	-2655
▁dém	-2656
effic	-2657
11|1|	-2658
Marie	-2659
▁obstac	-2660
418	-2661
ore	-2662
alimentation	-2663
▁sau	-2664
▁navig	-2665
278	-2666
▁fonctionnement	-2667
▁cinq	-2668
380	-2669
276	-2670
Con	-2671
|1|7|	-2672
000046077075|1||	-2673
ouis	-2674
aude	-2675
▁communication	-2676
106	-2677
239	-2678
8|«	-2679
000046836	-2680
000038889	-2681
▁parcours	-2682
▁Ré	-2683
4|1|1|	-2684
▁De	-2685
▁tél	-2686
-8	-2687
236	-2688
▁qualif	-2689
ocation	-2690
endre	-2691
309	-2692
▁(1),	-2693
dits	-2694
0000444	-2695
00003920	-2696
▁applicable	-2697
710	-2698
isti	-2699
▁pass	-2700
2|1|2|	-2701
0||0||0|	-2702
ARM	-2703
▁télé	-2704
onel	-2705
▁civil	-2706
hésion	-2707
▁pe	-2708
inage	-2709
▁systèmes	-2710
www	-2711
▁br	-2712
▁point	-2713
00004635	-2714
508	-2715
▁solidarités	-2716
▁intitul	-2717
gouv	-2718
▁Une	-2719
LA	-2720
▁tant	-2721
▁75	-2722
000038438	-2723
00004566	-2724
dex	-2725
▁dépenses	-2726
000045726	-2727
-20	-2728
▁Ly	-2729
000042434	-2730
aceuti	-2731
▁fa	-2732
let	-2733
▁pharmac	-2734
▁commune	-2735
▁réalisation	-2736
495	-2737
▁prépar	-2738
agements	-2739
exception	-2740
Cal	-2741
|1||16|	-2742
639	-2743
▁soumis	-2744
atric	-2745
inaire	-2746
▁étrangères	-2747
00004479	-2748
250	-2749
tric	-2750
art	-2751
00003879	-2752
endarm	-2753
93	-2754
5°	-2755
▁forme	-2756
▁march	-2757
tt	-2758
ience	-2759
abr	-2760
00004378	-2761
ties	-2762
▁discipl	-2763
00004676	-2764
aptitude	-2765
385	-2766
▁fac	-2767
▁spécialis	-2768
ache	-2769
chef	-2770
0000454	-2771
▁post	-2772
▁dispon	-2773
86|	-2774
▁dossiers	-2775
▁33	-2776
aute	-2777
▁type	-2778
00003850	-2779
000043776	-2780
endarmerie	-2781
118	-2782
acité	-2783
▁seront	-2784
00004546	-2785
00004409	-2786
▁siège	-2787
ophe	-2788
ications	-2789
460	-2790
nov	-2791
▁établi	-2792
▁colonne	-2793
dire	-2794
00004181289	-2795
Ecole	-2796
00004349	-2797
▁salarié	-2798
aume	-2799
▁concernant	-2800
▁bes	-2801
▁relations	-2802
entions	-2803
140	-2804
00004524	-2805
▁comptable	-2806
clusion	-2807
▁quatre	-2808
MTR	-2809
00003900	-2810
▁imp	-2811
▁syndic	-2812
▁secteur	-2813
0000434	-2814
▁Mont	-2815
▁terr	-2816
-9	-2817
9|«	-2818
▁34	-2819
00004366	-2820
▁dérogation	-2821
▁installations	-2822
▁recours	-2823
▁moyens	-2824
▁compor	-2825
▁vie	-2826
▁patients	-2827
00004273	-2828
00004508	-2829
tements	-2830
▁indiqu	-2831
éch	-2832
00004303	-2833
112	-2834
▁accomp	-2835
|1||17|	-2836
▁surveillance	-2837
000039668	-2838
ble	-2839
avenant	-2840
▁régime	-2841
82|	-2842
install	-2843
▁vois	-2844
000038821	-2845
ielle	-2846
▁conseiller	-2847
▁tax	-2848
absence	-2849
oration	-2850
▁Re	-2851
▁rédaction	-2852
|1||6|	-2853
CI	-2854
sur	-2855
▁vérif	-2856
▁hab	-2857
issue	-2858
ta	-2859
région	-2860
|1|4|1|	-2861
▁class	-2862
00004359	-2863
▁foi	-2864
▁médica	-2865
iter	-2866
0000396839	-2867
▁justific	-2868
▁obligations	-2869
IG	-2870
▁contrô	-2871
▁raison	-2872
00004522	-2873
▁parties	-2874
▁sociales	-2875
▁logement	-2876
00004236	-2877
isc	-2878
00004617	-2879
349	-2880
00003808	-2881
ône	-2882
ouvernement	-2883
▁gendarmerie	-2884
▁pharmaceuti	-2885
150	-2886
▁Z	-2887
ains	-2888
▁Ier	-2889
▁2014	-2890
nent	-2891
00004416	-2892
249	-2893
hom	-2894
000042722	-2895
▁défaut	-2896
sych	-2897
accueil	-2898
00003919	-2899
ranc	-2900
ourg	-2901
onie	-2902
▁contractu	-2903
étaire	-2904
00004360	-2905
00003835	-2906
▁catégorie	-2907
mbl	-2908
CP	-2909
00004322	-2910
▁total	-2911
00004175	-2912
élég	-2913
|1||18|	-2914
▁scol	-2915
agers	-2916
urgence	-2917
téph	-2918
91|	-2919
chet	-2920
00003820	-2921
▁transmission	-2922
▁5°	-2923
endu	-2924
00004340	-2925
▁construction	-2926
dite	-2927
orig	-2928
▁enf	-2929
▁sais	-2930
▁accep	-2931
▁recommand	-2932
ôts	-2933
asc	-2934
00004441	-2935
ival	-2936
390	-2937
2,	-2938
▁adjointe	-2939
▁35	-2940
urent	-2941
icolas	-2942
ubr	-2943
ibles	-2944
▁dépôt	-2945
inique	-2946
▁technic	-2947
▁préalable	-2948
ule	-2949
aviation	-2950
▁voisinage	-2951
▁rue	-2952
▁th	-2953
▁fonds	-2954
▁obstacles	-2955
▁indic	-2956
00003844	-2957
▁dernière	-2958
élégation	-2959
|1||10	-2960
oles	-2961
▁ANFR	-2962
160	-2963
▁détermin	-2964
▁candidature	-2965
liv	-2966
tro	-2967
avis	-2968
389	-2969
▁examens	-2970
▁transmis	-2971
▁définis	-2972
ry	-2973
00004559	-2974
INT	-2975
▁Lyon	-2976
▁réseau	-2977
▁Jac	-2978
00003843	-2979
OS	-2980
autre	-2981
entiels	-2982
icole	-2983
000041645	-2984
▁annuel	-2985
▁professe	-2986
Cl	-2987
Rh	-2988
▁administratives	-2989
▁particulier	-2990
|1|1|2|	-2991
obil	-2992
▁Nouvelle	-2993
00004529	-2994
▁François	-2995
erci	-2996
00004329	-2997
▁obligatoires	-2998
çant	-2999
159	-3000
▁lorsqu	-3001
00003928	-3002
tein	-3003
▁mer	-3004
▁Président	-3005
▁initi	-3006
|1||21|	-3007
|1|8|	-3008
▁occ	-3009
▁eaux	-3010
▁proposition	-3011
ug	-3012
isme	-3013
ection	-3014
00004377	-3015
▁SA	-3016
//	-3017
-1.	-3018
00004427	-3019
▁Ces	-3020
lection	-3021
00004239	-3022
▁prises	-3023
çon	-3024
▁Michel	-3025
▁résultats	-3026
▁opération	-3027
ataire	-3028
▁caractère	-3029
1|1|2|	-3030
▁acquis	-3031
▁psych	-3032
▁Philippe	-3033
▁ceux	-3034
agent	-3035
000039229738|1||	-3036
exclusion	-3037
▁compétente	-3038
▁correspondant	-3039
0000464	-3040
con	-3041
00004270	-3042
▁commissaire	-3043
anim	-3044
|1||7|	-3045
vestis	-3046
|1|9|	-3047
00004610	-3048
▁rang	-3049
▁simpl	-3050
▁procédures	-3051
vision	-3052
▁anc	-3053
▁2015	-3054
00004457	-3055
-12-	-3056
▁emploi	-3057
téri	-3058
▁Char	-3059
oncours	-3060
origine	-3061
▁territorial	-3062
94|	-3063
▁vote	-3064
▁physique	-3065
▁propr	-3066
▁demandes	-3067
▁délib	-3068
▁objec	-3069
équip	-3070
réd	-3071
utes	-3072
sibles	-3073
lier	-3074
ieux	-3075
nements	-3076
▁conseill	-3077
▁biens	-3078
ah	-3079
190|	-3080
rement	-3081
▁organisations	-3082
uer	-3083
▁transmet	-3084
lan	-3085
▁Des	-3086
▁rép	-3087
▁VI	-3088
▁cheffe	-3089
1|1||1|	-3090
▁inscription	-3091
00004565	-3092
▁coopération	-3093
▁commerci	-3094
QU	-3095
Or	-3096
▁interrégion	-3097
▁concernés	-3098
275	-3099
▁ouv	-3100
▁valeur	-3101
00004618	-3102
://	-3103
lexand	-3104
▁indemn	-3105
anctions	-3106
novation	-3107
▁Em	-3108
ME	-3109
ouvellement	-3110
▁us	-3111
▁seu	-3112
00004544	-3113
ulations	-3114
aë	-3115
00004448	-3116
▁cahier	-3117
▁consult	-3118
▁fonctionnaires	-3119
00004429	-3120
téris	-3121
▁2019.	-3122
▁consommation	-3123
ème	-3124
▁épreuve	-3125
▁recettes	-3126
atrième	-3127
torité	-3128
▁Pol	-3129
▁cadres	-3130
admis	-3131
00003827	-3132
▁précise	-3133
SE	-3134
▁ingénieur	-3135
autres	-3136
▁162-	-3137
▁cohésion	-3138
▁groupement	-3139
▁effets	-3140
▁comprend	-3141
▁Etat	-3142
00004425	-3143
issant	-3144
636	-3145
00003810	-3146
▁propos	-3147
▁som	-3148
0000428466	-3149
4|3°	-3150
▁dépos	-3151
▁mêmes	-3152
00004274	-3153
90|	-3154
▁individuel	-3155
installation	-3156
00004649	-3157
ope	-3158
155|	-3159
orient	-3160
-14	-3161
cepti	-3162
▁gl	-3163
▁administrateur	-3164
▁rémunération	-3165
▁financier	-3166
aill	-3167
00004463	-3168
▁employeurs	-3169
Lors	-3170
identi	-3171
ple	-3172
580	-3173
▁note	-3174
▁division	-3175
extension	-3176
▁sanctions	-3177
istophe	-3178
▁ils	-3179
98|	-3180
aménagement	-3181
▁titres	-3182
▁X	-3183
280	-3184
admissibilité	-3185
00004166	-3186
000042747	-3187
livier	-3188
étrang	-3189
▁session	-3190
000045964393|	-3191
▁suscepti	-3192
▁intitulée	-3193
▁administratifs	-3194
▁cachet	-3195
▁équipements	-3196
tention	-3197
tratég	-3198
▁simplif	-3199
▁Che	-3200
00003848	-3201
app	-3202
ili	-3203
▁minutes	-3204
▁circul	-3205
000046029	-3206
▁examen	-3207
000043235263|	-3208
▁délivrance	-3209
216	-3210
▁quatrième	-3211
ho	-3212
▁mainten	-3213
▁académ	-3214
▁Anne	-3215
▁centres	-3216
▁délais	-3217
▁état	-3218
étranger	-3219
▁Commission	-3220
260	-3221
▁considéré	-3222
▁pénitentiaire	-3223
000042519	-3224
▁And	-3225
00004440	-3226
▁perman	-3227
aî	-3228
▁évent	-3229
atrie	-3230
hérapeu	-3231
0000386495	-3232
fait	-3233
▁rédu	-3234
AND	-3235
00004648	-3236
117	-3237
00004415	-3238
tier	-3239
isl	-3240
▁maximum	-3241
|1||8|	-3242
IRE	-3243
▁(2	-3244
00004564	-3245
▁rubr	-3246
00004379	-3247
▁militaire	-3248
oupe	-3249
ILL	-3250
voir	-3251
▁environnement	-3252
ÉP	-3253
▁politique	-3254
▁caractéris	-3255
dessus	-3256
nels	-3257
appr	-3258
▁Car	-3259
irurg	-3260
▁prê	-3261
▁restant	-3262
000038829	-3263
ologiques	-3264
000043339	-3265
116	-3266
11|1||	-3267
▁points	-3268
af	-3269
▁major	-3270
dessous	-3271
▁appel	-3272
rément	-3273
▁aérienne	-3274
370	-3275
tent	-3276
ome	-3277
▁expér	-3278
▁nég	-3279
00004421	-3280
▁dépl	-3281
judant	-3282
AD	-3283
eté	-3284
vers	-3285
aff	-3286
▁conjoin	-3287
ètre	-3288
alyse	-3289
rées	-3290
▁grande	-3291
▁ministres	-3292
▁locaux	-3293
00004222	-3294
▁sem	-3295
00004395	-3296
▁scientifique	-3297
▁«,	-3298
▁Gouvernement	-3299
▁tenu	-3300
indemn	-3301
fession	-3302
▁cyc	-3303
▁sports	-3304
▁susp	-3305
▁réc	-3306
intérêt	-3307
▁Toul	-3308
-11-	-3309
ouvements	-3310
▁suppléant	-3311
urr	-3312
▁tra	-3313
▁terme	-3314
▁reç	-3315
▁arrêtés	-3316
inscr	-3317
▁1,	-3318
▁désigné	-3319
468	-3320
▁sociaux	-3321
-17	-3322
▁AU	-3323
arch	-3324
rand	-3325
▁fois	-3326
7|0||0|	-3327
7||0||0|	-3328
▁renouvellement	-3329
▁ref	-3330
▁équival	-3331
▁fisc	-3332
00004629	-3333
2|1||1|	-3334
▁navigation	-3335
éb	-3336
▁bl	-3337
▁crédits	-3338
▁exc	-3339
6.	-3340
▁dix	-3341
OP	-3342
fédération	-3343
toine	-3344
érie	-3345
inspection	-3346
▁réparti	-3347
oth	-3348
00004608	-3349
▁Cour	-3350
▁manière	-3351
▁secrétariat	-3352
99|	-3353
lus	-3354
▁nouvelle	-3355
00004225	-3356
agrément	-3357
▁départemental	-3358
3|0||0|	-3359
3||0||0|	-3360
TER	-3361
▁numéro	-3362
▁résultant	-3363
mande	-3364
000038730	-3365
direction	-3366
▁pér	-3367
irm	-3368
duc	-3369
édonie	-3370
férence	-3371
▁Val	-3372
aliné	-3373
ésie	-3374
▁pourr	-3375
Gu	-3376
▁2,	-3377
EP	-3378
▁écrite	-3379
▁égal	-3380
are	-3381
5|1|1|	-3382
air	-3383
alinéa	-3384
▁économiques	-3385
ingén	-3386
3|<	-3387
QUE	-3388
Chr	-3389
00004428	-3390
use	-3391
▁pron	-3392
▁stratég	-3393
▁cau	-3394
direc	-3395
00004650	-3396
225|	-3397
Calédonie	-3398
urope	-3399
▁pharmaceutiques	-3400
▁désignés	-3401
▁identif	-3402
ote	-3403
ège	-3404
41-	-3405
tue	-3406
▁perform	-3407
▁El	-3408
1|0||0|	-3409
1||0||0|	-3410
▁militaires	-3411
nelles	-3412
▁patr	-3413
▁régul	-3414
▁lang	-3415
épar	-3416
00004480	-3417
ynésie	-3418
▁terrain	-3419
Délégation	-3420
▁véhicules	-3421
2|0||0|	-3422
2||0||0|	-3423
erm	-3424
▁crit	-3425
▁lesquelles	-3426
ible	-3427
atifs	-3428
00003948	-3429
▁appar	-3430
▁2012	-3431
|1||9|	-3432
ition	-3433
▁chi	-3434
▁renouve	-3435
000046849	-3436
314	-3437
▁autorisation	-3438
▁k	-3439
▁péd	-3440
▁admission	-3441
00003823	-3442
1,	-3443
cession	-3444
alie	-3445
▁mor	-3446
SI	-3447
▁risque	-3448
000042845	-3449
▁Tr	-3450
00003825	-3451
000046794	-3452
▁autorités	-3453
exp	-3454
▁début	-3455
▁Si	-3456
00003846	-3457
00004347	-3458
000041728	-3459
▁prop	-3460
ilités	-3461
000045940	-3462
expérimentation	-3463
243	-3464
vet	-3465
000043156	-3466
415	-3467
▁principale	-3468
appliqu	-3469
▁certification	-3470
8|0||0|	-3471
8||0||0|	-3472
00004615	-3473
ôture	-3474
▁Christi	-3475
▁Guy	-3476
0000452440	-3477
pression	-3478
000039675	-3479
9|0||0|	-3480
9||0||0|	-3481
▁tiers	-3482
▁produit	-3483
▁normale	-3484
ommun	-3485
mi	-3486
▁Polynésie	-3487
ètres	-3488
▁chez	-3489
▁orale	-3490
▁clôture	-3491
00004622	-3492
cheresse	-3493
PR	-3494
▁nécessaire	-3495
LES	-3496
4|0||0|	-3497
00003970	-3498
4||0||0|	-3499
▁avenant	-3500
▁sécheresse	-3501
▁lab	-3502
0000419240	-3503
agog	-3504
rédér	-3505
èse	-3506
Jul	-3507
000044590	-3508
▁exploit	-3509
▁composition	-3510
▁infr	-3511
ureur	-3512
▁conventions	-3513
▁offerts	-3514
5|0||0|	-3515
5||0||0|	-3516
▁condition	-3517
▁htt	-3518
ologne	-3519
131|	-3520
7-	-3521
anie	-3522
▁maître	-3523
00004659	-3524
hydr	-3525
6|0||0|	-3526
6||0||0|	-3527
élec	-3528
registre	-3529
▁évalu	-3530
▁36	-3531
UN	-3532
6|1|1|	-3533
engagement	-3534
▁rubrique	-3535
ds	-3536
▁postale	-3537
▁disp	-3538
Commune	-3539
▁pénitentiaires	-3540
000042576	-3541
quê	-3542
00004389	-3543
▁simplifiée	-3544
▁compétence	-3545
▁références	-3546
idic	-3547
arial	-3548
▁pédagog	-3549
246	-3550
▁chambre	-3551
▁Paul	-3552
illaume	-3553
▁hospitalier	-3554
▁font	-3555
▁sols	-3556
istes	-3557
su	-3558
660	-3559
ock	-3560
▁mettre	-3561
▁pop	-3562
enf	-3563
▁Cedex	-3564
00003890	-3565
▁communiqu	-3566
iser	-3567
00004275639	-3568
312	-3569
mblée	-3570
▁minimum	-3571
000045796	-3572
tivement	-3573
00004369	-3574
▁50	-3575
▁hom	-3576
▁connaissance	-3577
èves	-3578
positions	-3579
ordeaux	-3580
000042756398|	-3581
739	-3582
7.	-3583
6°	-3584
0000433026	-3585
▁déchet	-3586
▁séj	-3587
631|	-3588
seille	-3589
onde	-3590
▁permettre	-3591
▁tel	-3592
ète	-3593
▁chois	-3594
870	-3595
▁exer	-3596
▁courir	-3597
▁requis	-3598
000044336	-3599
▁notif	-3600
▁supprimé	-3601
▁signature	-3602
▁transfert	-3603
2-1	-3604
▁enfants	-3605
efficient	-3606
|1||22|	-3607
▁juridic	-3608
rent	-3609
animation	-3610
▁Toute	-3611
section	-3612
▁position	-3613
459	-3614
000043235270	-3615
▁agricole	-3616
▁adresse	-3617
▁consécu	-3618
FF	-3619
316	-3620
▁extension	-3621
000045964394|1||	-3622
▁Bordeaux	-3623
000039683923|	-3624
00004621	-3625
▁divers	-3626
▁choix	-3627
▁cinqu	-3628
▁autorisée	-3629
00003875	-3630
▁2.	-3631
Pologne	-3632
00004666	-3633
290	-3634
astruc	-3635
▁patrim	-3636
▁forê	-3637
▁valoir	-3638
20|1||	-3639
▁cont	-3640
ffis	-3641
▁Jul	-3642
Mouvements	-3643
études	-3644
▁marchés	-3645
erge	-3646
000043360	-3647
▁géograph	-3648
Qu	-3649
▁coord	-3650
▁projets	-3651
ophie	-3652
ompl	-3653
▁complémentaire	-3654
▁1.	-3655
00004185	-3656
▁patient	-3657
achement	-3658
▁consécutifs	-3659
atation	-3660
ouvr	-3661
▁répond	-3662
▁rendues	-3663
entretien	-3664
▁all	-3665
fications	-3666
▁attein	-3667
▁obligatoire	-3668
▁sti	-3669
▁fixe	-3670
▁thérapeu	-3671
▁années	-3672
▁comport	-3673
▁étudi	-3674
agnement	-3675
▁long	-3676
eine	-3677
ranche	-3678
▁structure	-3679
334	-3680
425	-3681
effec	-3682
▁pouvoir	-3683
▁refus	-3684
Autorité	-3685
2699	-3686
MTRT	-3687
gard	-3688
00004535	-3689
▁gestionnaire	-3690
TT	-3691
▁exerçant	-3692
▁rur	-3693
▁autorisant	-3694
▁Lille	-3695
▁contrats	-3696
▁promo	-3697
propr	-3698
▁40	-3699
▁fins	-3700
▁statu	-3701
yr	-3702
▁sauf	-3703
|1||23|	-3704
intéress	-3705
▁Gr	-3706
00004669	-3707
▁comporte	-3708
▁déten	-3709
ommée	-3710
Europe	-3711
▁Cor	-3712
10|1|	-3713
▁cop	-3714
▁pays	-3715
▁6°	-3716
00004665	-3717
00003922	-3718
446	-3719
▁sû	-3720
▁Confédération	-3721
▁reconnaissance	-3722
▁chirurg	-3723
▁objet	-3724
00004376418	-3725
▁objectifs	-3726
ura	-3727
00003849	-3728
oblig	-3729
▁moment	-3730
-15	-3731
▁adjudant	-3732
▁financière	-3733
▁places	-3734
000039728	-3735
oraire	-3736
00004250	-3737
▁auc	-3738
▁sport	-3739
oise	-3740
▁notification	-3741
00004604060	-3742
179|	-3743
ires	-3744
▁prix	-3745
▁bâtiment	-3746
actions	-3747
▁63	-3748
▁Parties	-3749
aque	-3750
00004533	-3751
1|1|3|	-3752
ume	-3753
00003854	-3754
▁vente	-3755
Tr	-3756
▁Cité	-3757
▁dès	-3758
▁autom	-3759
▁rembour	-3760
▁exigences	-3761
▁dispositifs	-3762
▁ouvert	-3763
00003838	-3764
00004210	-3765
00004638	-3766
▁44	-3767
|1||12	-3768
fois	-3769
érations	-3770
employ	-3771
▁formations	-3772
196|	-3773
▁heure	-3774
▁chacune	-3775
2|2|	-3776
lor	-3777
cad	-3778
▁pu	-3779
|1||24|	-3780
▁contribu	-3781
atic	-3782
600	-3783
▁let	-3784
▁sûre	-3785
▁pôle	-3786
éli	-3787
92|	-3788
▁pil	-3789
▁instance	-3790
unité	-3791
▁agent	-3792
▁lut	-3793
▁agréé	-3794
-13	-3795
▁tarif	-3796
▁André	-3797
000045149	-3798
profession	-3799
▁attachée	-3800
▁inférieur	-3801
▁bénéficier	-3802
rets	-3803
00004348	-3804
sation	-3805
▁aides	-3806
▁déchets	-3807
attach	-3808
000042439	-3809
00004234	-3810
AGR	-3811
ylv	-3812
2200	-3813
▁aérien	-3814
|1|5|1|	-3815
innovation	-3816
adap	-3817
▁Louis	-3818
00004235	-3819
000042748	-3820
accomp	-3821
▁May	-3822
▁étendu	-3823
▁présenter	-3824
▁2011	-3825
350	-3826
éder	-3827
▁liqu	-3828
▁devra	-3829
▁définie	-3830
▁pouvant	-3831
365	-3832
▁Publique	-3833
▁regard	-3834
175	-3835
734	-3836
97|	-3837
▁critères	-3838
-16	-3839
00004314	-3840
00004215	-3841
lexandre	-3842
▁stip	-3843
00004568	-3844
00004318	-3845
▁travaille	-3846
colonel	-3847
▁devront	-3848
Cette	-3849
▁2013	-3850
▁Toulouse	-3851
ernard	-3852
▁notarial	-3853
▁coordonn	-3854
895	-3855
▁garantie	-3856
321	-3857
▁procureur	-3858
445	-3859
▁association	-3860
▁séjour	-3861
▁contractuel	-3862
▁métho	-3863
00003821	-3864
▁dispose	-3865
mandant	-3866
hydratation	-3867
10|«	-3868
uration	-3869
▁délivré	-3870
▁2010	-3871
▁produc	-3872
▁législ	-3873
▁2008	-3874
308	-3875
ocon	-3876
000039508	-3877
▁199	-3878
ell	-3879
|1||25|	-3880
31|1||	-3881
▁déroulement	-3882
sive	-3883
▁chiffre	-3884
min	-3885
000044388	-3886
00003812	-3887
201|	-3888
ecture	-3889
|1||30|	-3890
▁indirec	-3891
▁créé	-3892
▁Martin	-3893
▁juridi	-3894
appliquent	-3895
670	-3896
tise	-3897
00004238	-3898
Char	-3899
CF	-3900
00004526	-3901
▁stock	-3902
sif	-3903
rov	-3904
voi	-3905
▁Parlement	-3906
00004575	-3907
▁généraux	-3908
750	-3909
obligation	-3910
▁satis	-3911
▁capacité	-3912
▁réhydratation	-3913
ède	-3914
▁1986	-3915
pertise	-3916
0000384426	-3917
▁Marseille	-3918
300	-3919
▁EN	-3920
▁différentiels	-3921
00004439	-3922
enne	-3923
479	-3924
uellement	-3925
740	-3926
▁hy	-3927
▁ple	-3928
abelle	-3929
▁assure	-3930
arc	-3931
aér	-3932
Paul	-3933
▁stage	-3934
0000417377	-3935
▁diplô	-3936
00004339	-3937
▁Luc	-3938
urrence	-3939
▁égale	-3940
ERT	-3941
rédéric	-3942
▁enseign	-3943
▁départementale	-3944
homas	-3945
00004325	-3946
000038528	-3947
000041939	-3948
▁concerné	-3949
agence	-3950
▁porte	-3951
▁remboursement	-3952
000045615	-3953
00004673	-3954
908	-3955
000039645	-3956
▁versement	-3957
ANT	-3958
aces	-3959
ingt	-3960
▁fixés	-3961
▁sociétés	-3962
▁lien	-3963
000043258	-3964
▁budgétaire	-3965
▁inférieure	-3966
▁Réunion	-3967
▁conduite	-3968
00004487	-3969
▁pourront	-3970
uissier	-3971
▁courrier	-3972
745	-3973
000038115	-3974
▁221-	-3975
incent	-3976
uclé	-3977
AUD	-3978
▁ret	-3979
enri	-3980
|1||31|	-3981
anne	-3982
00003943	-3983
▁conformité	-3984
ibilité	-3985
▁générales	-3986
una	-3987
▁cycle	-3988
▁rédigée	-3989
00004315634	-3990
▁performance	-3991
310	-3992
|1||14	-3993
instruction	-3994
▁commande	-3995
547	-3996
▁ouverts	-3997
▁198	-3998
8|1|1|	-3999
00004228	-4000
▁universitaire	-4001
000045640	-4002
Est	-4003
▁cotis	-4004
▁sciences	-4005
▁Is	-4006
téphane	-4007
▁1984	-4008
00004335	-4009
00003924	-4010
00004317	-4011
00004539400	-4012
▁forfait	-4013
▁3,	-4014
François	-4015
LI	-4016
000039699	-4017
▁lutte	-4018
▁réseaux	-4019
▁financières	-4020
▁validation	-4021
00004150	-4022
arb	-4023
...	-4024
inf	-4025
charg	-4026
▁Jacques	-4027
1364|	-4028
▁répartition	-4029
▁appliqu	-4030
habitation	-4031
ominique	-4032
746	-4033
3|1||1|	-4034
|1||26|	-4035
assurer	-4036
00004226	-4037
▁IN	-4038
00004169	-4039
▁change	-4040
▁transformation	-4041
00004386	-4042
▁décrets	-4043
▁rembours	-4044
▁Ass	-4045
association	-4046
asi	-4047
ault	-4048
▁distribution	-4049
▁bénéf	-4050
00004447	-4051
00004274770	-4052
registrement	-4053
000045471364|	-4054
▁présentation	-4055
oh	-4056
576	-4057
raî	-4058
000046566	-4059
00004336020	-4060
00004388	-4061
▁naturel	-4062
ILLE	-4063
▁prob	-4064
▁statis	-4065
exploitant	-4066
▁stipulations	-4067
▁bou	-4068
AB	-4069
0000417636	-4070
93|	-4071
allis	-4072
▁ledit	-4073
000046113	-4074
▁ajouté	-4075
EA	-4076
000046719	-4077
enseignements	-4078
00003800	-4079
▁hon	-4080
▁Franç	-4081
000038359	-4082
|1|10|	-4083
|1||13	-4084
▁À	-4085
00004521	-4086
utuna	-4087
▁reten	-4088
00003839710	-4089
▁lieutenant	-4090
00004385	-4091
▁impôts	-4092
▁programmes	-4093
▁bien	-4094
▁académique	-4095
749	-4096
▁précédent	-4097
▁É	-4098
▁départements	-4099
▁participation	-4100
0000414912	-4101
▁concession	-4102
▁2007	-4103
▁suite	-4104
158	-4105
▁43	-4106
vestissement	-4107
00004284	-4108
11|«	-4109
▁Ben	-4110
434	-4111
▁copie	-4112
iz	-4113
ories	-4114
ûts	-4115
AV	-4116
▁constat	-4117
▁sûreté	-4118
och	-4119
adémie	-4120
▁immobil	-4121
▁soutien	-4122
000043868	-4123
000044559	-4124
avor	-4125
244	-4126
astien	-4127
▁prononc	-4128
▁exclu	-4129
000046845631|	-4130
000046514	-4131
▁nuclé	-4132
▁stag	-4133
ueill	-4134
▁Wallis	-4135
247	-4136
722	-4137
valier	-4138
éph	-4139
esti	-4140
▁CON	-4141
▁besoins	-4142
|1|11|	-4143
▁réserv	-4144
00004299	-4145
0|0||0|	-4146
identification	-4147
▁bord	-4148
▁3.	-4149
▁aérone	-4150
|1||27|	-4151
00003795	-4152
expérience	-4153
▁parten	-4154
00004516	-4155
▁ancien	-4156
▁lic	-4157
▁circulation	-4158
00004614	-4159
onnes	-4160
▁rédigés	-4161
000038496102|	-4162
▁décéd	-4163
▁contract	-4164
378	-4165
amille	-4166
iaison	-4167
▁ul	-4168
▁promotion	-4169
00003873	-4170
259	-4171
336	-4172
istant	-4173
▁attaché	-4174
▁métiers	-4175
▁Ils	-4176
00004316	-4177
nom	-4178
▁demandeur	-4179
▁â	-4180
présidente	-4181
▁bil	-4182
▁statuts	-4183
▁élèves	-4184
▁NO	-4185
0000445479	-4186
▁organisation	-4187
▁45	-4188
ARTE	-4189
▁congé	-4190
del	-4191
▁désignation	-4192
▁directeurs	-4193
ates	-4194
ffectation	-4195
mp	-4196
4400	-4197
00004249	-4198
▁fem	-4199
▁visées	-4200
aissances	-4201
000046138	-4202
379	-4203
▁liaison	-4204
▁supplément	-4205
00004538	-4206
1|1|1|1|	-4207
▁officiers	-4208
4|2°	-4209
▁solidaire	-4210
▁quin	-4211
0000427547	-4212
▁susceptibles	-4213
000038934	-4214
▁conseillère	-4215
bourg	-4216
▁collège	-4217
▁près	-4218
eorg	-4219
▁remplacées	-4220
▁informe	-4221
▁complémentaires	-4222
▁coopér	-4223
000043311792|	-4224
▁cinquième	-4225
Rhône	-4226
368	-4227
667|	-4228
▁annexes	-4229
▁interven	-4230
▁intérieur	-4231
▁anim	-4232
▁certains	-4233
▁entreprise	-4234
▁annexé	-4235
aille	-4236
▁financiers	-4237
▁détachement	-4238
aître	-4239
▁1989	-4240
ustrie	-4241
LO	-4242
0000398	-4243
▁coefficient	-4244
▁Not	-4245
▁périm	-4246
00003908	-4247
4|<	-4248
Val	-4249
usion	-4250
▁Etats	-4251
directeur	-4252
1|1|2|1|	-4253
iét	-4254
▁réglementaires	-4255
dre	-4256
▁devant	-4257
00003814	-4258
ôte	-4259
Université	-4260
31	-4261
enis	-4262
▁bre	-4263
▁permis	-4264
▁appor	-4265
ascal	-4266
▁gre	-4267
2|<	-4268
▁préparation	-4269
▁rece	-4270
oconférence	-4271
|1||19|	-4272
applique	-4273
▁périodes	-4274
Après	-4275
offre	-4276
7°	-4277
emplois	-4278
00003822	-4279
préf	-4280
00004558	-4281
arr	-4282
12|«	-4283
|1||28|	-4284
800	-4285
▁hospitalière	-4286
▁lesquels	-4287
▁visi	-4288
intéressé	-4289
▁organisme	-4290
▁pont	-4291
issement	-4292
000042754770|	-4293
▁2009	-4294
00004578	-4295
ergé	-4296
▁Aux	-4297
UC	-4298
▁désig	-4299
000044560	-4300
Luc	-4301
▁comportant	-4302
▁coûts	-4303
ignes	-4304
▁Mayotte	-4305
volution	-4306
occ	-4307
▁navires	-4308
1525|	-4309
▁iss	-4310
▁civils	-4311
00003963	-4312
▁spécifique	-4313
386|	-4314
aient	-4315
▁spéciale	-4316
00004212	-4317
ECO	-4318
INE	-4319
▁mul	-4320
▁catégories	-4321
▁médicaments	-4322
mil	-4323
▁mu	-4324
▁modèle	-4325
▁langue	-4326
00004620	-4327
▁réglementation	-4328
veur	-4329
▁rural	-4330
▁autorisé	-4331
▁plate	-4332
accompagnement	-4333
▁visioconférence	-4334
▁usagers	-4335
000038578	-4336
000046165	-4337
entin	-4338
▁diplômes	-4339
▁maîtr	-4340
▁observ	-4341
▁bénéficiaires	-4342
00003805	-4343
▁politiques	-4344
▁bon	-4345
▁approuv	-4346
▁industrielle	-4347
779	-4348
érés	-4349
▁méc	-4350
oiss	-4351
00003914	-4352
000042700	-4353
AY	-4354
gré	-4355
puis	-4356
▁propriété	-4357
▁demander	-4358
orer	-4359
|1||29|	-4360
rig	-4361
00003949	-4362
000046658	-4363
▁amén	-4364
3|1|2|	-4365
65|1|1|	-4366
▁navire	-4367
21-	-4368
▁Rou	-4369
▁Di	-4370
▁plein	-4371
000044966	-4372
00004370	-4373
oss	-4374
▁mine	-4375
2|1|3|	-4376
ID	-4377
▁physiques	-4378
|1|12|	-4379
▁justificatives	-4380
▁lequel	-4381
000042840	-4382
bert	-4383
▁accompagn	-4384
▁exp	-4385
erine	-4386
339	-4387
IRES	-4388
▁capitaine	-4389
0000442022	-4390
7|1|2|	-4391
▁technicien	-4392
▁inscrits	-4393
|1||15	-4394
▁Caisse	-4395
▁accès	-4396
▁dist	-4397
▁surf	-4398
376	-4399
▁nouveau	-4400
▁90	-4401
▁séance	-4402
aël	-4403
▁mobilité	-4404
industrie	-4405
▁souh	-4406
▁connaissances	-4407
000038529	-4408
-2,	-4409
475	-4410
000042410	-4411
599	-4412
▁réalisé	-4413
atherine	-4414
▁pratique	-4415
2698|	-4416
|1||20|	-4417
32|1||	-4418
▁maintien	-4419
▁covid	-4420
▁durable	-4421
▁pap	-4422
outre	-4423
000038822	-4424
indemnité	-4425
155	-4426
00003813	-4427
000039385	-4428
Ce	-4429
▁respectivement	-4430
▁élig	-4431
▁bénéfice	-4432
361|	-4433
ulle	-4434
ociété	-4435
oseph	-4436
000038759	-4437
▁pratiques	-4438
▁associée	-4439
intervention	-4440
▁Claude	-4441
▁lettre	-4442
▁périmètre	-4443
Alpes	-4444
iche	-4445
stances	-4446
inscrire	-4447
oient	-4448
▁représentatives	-4449
▁usage	-4450
000043965	-4451
Am	-4452
00004677	-4453
▁bénéficiaire	-4454
hierry	-4455
estions	-4456
▁perç	-4457
00004613	-4458
▁réunion	-4459
▁1987	-4460
▁59	-4461
00004580	-4462
adaptation	-4463
12|1|	-4464
▁souver	-4465
CHE	-4466
▁domic	-4467
448	-4468
1)	-4469
▁façon	-4470
espace	-4471
▁volume	-4472
lève	-4473
00004199	-4474
000043990	-4475
▁scolaire	-4476
▁coordination	-4477
▁î	-4478
458	-4479
476	-4480
650	-4481
00004514	-4482
▁depuis	-4483
avid	-4484
▁secours	-4485
▁maritimes	-4486
Lorsque	-4487
▁noms	-4488
000038342698|	-4489
▁hau	-4490
00003977	-4491
▁seconde	-4492
000038342699	-4493
Martin	-4494
000044069	-4495
co	-4496
▁motiv	-4497
▁prêt	-4498
00004446	-4499
▁responsables	-4500
776	-4501
▁forêts	-4502
ÉS	-4503
▁impl	-4504
élène	-4505
▁consta	-4506
00004499	-4507
000042148	-4508
avoir	-4509
191|1||	-4510
▁fonctionnaire	-4511
▁présidente	-4512
▁fournit	-4513
730	-4514
▁Pro	-4515
338	-4516
▁questions	-4517
onau	-4518
00004606	-4519
▁Olivier	-4520
▁fl	-4521
▁spécifiques	-4522
▁38	-4523
imin	-4524
▁PRO	-4525
▁mises	-4526
oï	-4527
▁seul	-4528
000043114	-4529
ÉPARTE	-4530
00004220	-4531
383|	-4532
▁souverain	-4533
▁immédi	-4534
00003896	-4535
imes	-4536
647	-4537
▁figurent	-4538
▁universités	-4539
13|«	-4540
amb	-4541
olution	-4542
▁directement	-4543
00004216	-4544
000043558	-4545
00004200	-4546
Philippe	-4547
13|1|	-4548
▁marine	-4549
▁prescriptions	-4550
tient	-4551
▁renouvel	-4552
260|	-4553
▁tour	-4554
1-2	-4555
▁souveraineté	-4556
4449	-4557
|1||16	-4558
▁organ	-4559
▁unités	-4560
ilitation	-4561
▁interv	-4562
000039120	-4563
▁Chevalier	-4564
▁1988	-4565
▁taxe	-4566
▁Bernard	-4567
▁dispens	-4568
lon	-4569
Hôpitaux	-4570
urée	-4571
▁Henri	-4572
▁conforme	-4573
arme	-4574
00004658	-4575
320	-4576
imp	-4577
▁multi	-4578
335	-4579
2|1|2|1|	-4580
▁2006	-4581
▁propre	-4582
107|	-4583
▁comb	-4584
▁femmes	-4585
émie	-4586
000041812898|	-4587
gn	-4588
avier	-4589
▁rejet	-4590
▁Rennes	-4591
oie	-4592
hôpitaux	-4593
▁juridiction	-4594
ONNE	-4595
▁famili	-4596
▁mill	-4597
▁Dan	-4598
inform	-4599
▁100	-4600
▁carte	-4601
▁procéder	-4602
▁56	-4603
oline	-4604
▁pratic	-4605
00004444	-4606
000043876	-4607
gés	-4608
000038318	-4609
▁énergé	-4610
2||3|<	-4611
▁Serv	-4612
317	-4613
Ces	-4614
▁aliment	-4615
▁pension	-4616
ÉPARTEMENT	-4617
times	-4618
|1|13|	-4619
▁géographique	-4620
▁éduc	-4621
0000439569	-4622
▁expl	-4623
▁exceptionnelle	-4624
▁patrimoine	-4625
110|	-4626
icoles	-4627
▁Sud	-4628
Cor	-4629
▁établie	-4630
▁syndicales	-4631
lic	-4632
▁Nicolas	-4633
2|1|1|1|	-4634
▁ingénieurs	-4635
00004541	-4636
1|—	-4637
▁indép	-4638
Mari	-4639
328	-4640
▁branche	-4641
itz	-4642
510	-4643
atrick	-4644
▁présence	-4645
▁brevet	-4646
-03	-4647
|1|6|1|	-4648
▁matériels	-4649
0000446376	-4650
▁montants	-4651
000042665	-4652
3580|	-4653
▁prot	-4654
000042080	-4655
avancement	-4656
▁collectivité	-4657
enregistrement	-4658
sements	-4659
onneur	-4660
▁local	-4661
ataires	-4662
▁inspecteur	-4663
reg	-4664
00004561508	-4665
|1|1|3|	-4666
633|	-4667
▁compétent	-4668
00004537	-4669
▁fact	-4670
chw	-4671
attribution	-4672
▁mus	-4673
0000464890	-4674
▁autorisés	-4675
ute	-4676
000044514	-4677
imm	-4678
ony	-4679
▁audi	-4680
▁Société	-4681
uy	-4682
ébastien	-4683
00003939	-4684
▁chirurgie	-4685
formément	-4686
isé	-4687
▁mun	-4688
DÉPARTEMENT	-4689
pellier	-4690
▁formulaire	-4691
127	-4692
▁pharmacie	-4693
▁liées	-4694
00004506	-4695
oyer	-4696
|1||32|	-4697
00003867	-4698
▁lignes	-4699
tienne	-4700
▁poursu	-4701
▁Or	-4702
00003819	-4703
0000394079	-4704
▁renommée	-4705
▁comptables	-4706
né	-4707
▁continu	-4708
▁réaliser	-4709
térieurement	-4710
648	-4711
élie	-4712
▁mobil	-4713
000043336	-4714
El	-4715
▁entretien	-4716
obation	-4717
▁www	-4718
▁123	-4719
▁spécial	-4720
iration	-4721
000042838	-4722
eorges	-4723
▁occup	-4724
▁limites	-4725
encad	-4726
▁vingt	-4727
▁phase	-4728
assemblée	-4729
▁Martinique	-4730
ulletin	-4731
▁véhicule	-4732
nées	-4733
209	-4734
000042753580|	-4735
2|1|4|	-4736
▁adressée	-4737
0000382616	-4738
▁assurer	-4739
▁glob	-4740
▁év	-4741
289	-4742
Anne	-4743
asile	-4744
ministériel	-4745
808	-4746
▁ponts	-4747
▁milieu	-4748
▁honoraire	-4749
▁fil	-4750
gan	-4751
▁7°	-4752
000044300	-4753
000044411525|	-4754
▁vi	-4755
000043370	-4756
ASS	-4757
ior	-4758
00004660	-4759
|1||33|	-4760
▁îles	-4761
tuelle	-4762
775	-4763
000046848	-4764
tine	-4765
Loire	-4766
4|1|2|	-4767
▁favor	-4768
▁démission	-4769
000045279	-4770
▁registre	-4771
▁reven	-4772
▁travailleurs	-4773
▁Guyane	-4774
000042625	-4775
000042475	-4776
intégration	-4777
▁médecins	-4778
oqu	-4779
-01	-4780
▁sélection	-4781
▁Montpellier	-4782
▁maîtrise	-4783
00004434	-4784
▁paritaire	-4785
▁validité	-4786
orientation	-4787
▁remboursables	-4788
790	-4789
omb	-4790
00004644	-4791
000039306	-4792
amin	-4793
21|1|	-4794
manuel	-4795
▁précité	-4796
000042760	-4797
tras	-4798
audi	-4799
00004586	-4800
▁concurrence	-4801
GE	-4802
investissement	-4803
794|	-4804
▁autorisations	-4805
▁aven	-4806
▁option	-4807
▁information	-4808
000041505	-4809
000045780	-4810
préc	-4811
000042066	-4812
▁interprofession	-4813
2)	-4814
endie	-4815
mont	-4816
▁Autres	-4817
00004587	-4818
574|	-4819
Acc	-4820
14|1|	-4821
375	-4822
14|«	-4823
00004328	-4824
RAN	-4825
▁pilot	-4826
00004611	-4827
tricité	-4828
Concours	-4829
▁concernée	-4830
cel	-4831
▁RE	-4832
-10-	-4833
▁Col	-4834
▁parmi	-4835
▁1990	-4836
▁concour	-4837
▁maximale	-4838
▁certificats	-4839
IA	-4840
oniques	-4841
▁MAR	-4842
aï	-4843
00004387	-4844
▁Laurent	-4845
374	-4846
heure	-4847
▁immédiate	-4848
▁élector	-4849
duction	-4850
▁interdite	-4851
entiss	-4852
▁satisf	-4853
▁[	-4854
▁certaines	-4855
âge	-4856
000044525	-4857
▁modifications	-4858
adel	-4859
▁pourra	-4860
185	-4861
identité	-4862
▁administratrice	-4863
0000448	-4864
▁matéri	-4865
SA	-4866
SSAS	-4867
00003840	-4868
421|	-4869
▁elles	-4870
ocole	-4871
sté	-4872
▁quanti	-4873
affaires	-4874
▁réalisées	-4875
000038689	-4876
▁aéronefs	-4877
▁candidates	-4878
00004670	-4879
▁moyenne	-4880
▁qualification	-4881
SP	-4882
▁réalisée	-4883
option	-4884
▁règle	-4885
00003916	-4886
▁vendre	-4887
8.	-4888
741|	-4889
▁Aus	-4890
▁Est	-4891
|1||34|	-4892
▁étudiants	-4893
1-3	-4894
▁visée	-4895
uses	-4896
259|	-4897
▁requ	-4898
000041987	-4899
▁plaf	-4900
▁tarifs	-4901
naud	-4902
analyse	-4903
ions	-4904
00004680	-4905
0000438359	-4906
▁agricoles	-4907
45|1|1|	-4908
▁nationales	-4909
onction	-4910
▁consultation	-4911
000043189	-4912
VE	-4913
273|	-4914
▁référentiel	-4915
▁préjud	-4916
▁Bou	-4917
▁Lorsqu	-4918
▁men	-4919
▁obtenu	-4920
▁engagements	-4921
▁situé	-4922
oë	-4923
▁sollic	-4924
000042238	-4925
349|	-4926
▁0,	-4927
▁format	-4928
Tribunal	-4929
▁Sylv	-4930
▁répon	-4931
▁protég	-4932
oies	-4933
▁simple	-4934
589	-4935
▁entrent	-4936
539	-4937
▁associations	-4938
▁ajoutés	-4939
▁domicile	-4940
ients	-4941
▁totale	-4942
00004276	-4943
COUR	-4944
▁Dominique	-4945
951|	-4946
hors	-4947
aure	-4948
▁Sont	-4949
sp	-4950
▁régionales	-4951
090	-4952
▁dû	-4953
ager	-4954
5|4°	-4955
agnos	-4956
000046829	-4957
00003866	-4958
ises	-4959
▁Isabelle	-4960
778	-4961
▁intéress	-4962
Nicolas	-4963
00004179	-4964
000039248	-4965
▁contrôleur	-4966
000041821	-4967
000043646	-4968
▁pénale	-4969
▁prélève	-4970
Tout	-4971
▁mécan	-4972
00004247	-4973
encadrement	-4974
▁VII	-4975
▁plur	-4976
2-3	-4977
▁haut	-4978
42|1||	-4979
▁lieux	-4980
indication	-4981
▁Nantes	-4982
000045076	-4983
00004438825	-4984
▁différents	-4985
tablissement	-4986
veloppe	-4987
▁transpor	-4988
arth	-4989
trasbourg	-4990
▁Rob	-4991
000043311793|1||	-4992
osi	-4993
▁bilan	-4994
èces	-4995
opérateur	-4996
▁familles	-4997
▁commandant	-4998
▁enseignants	-4999
-05	-5000
ges	-5001
rêts	-5002
▁papier	-5003
▁université	-5004
IM	-5005
000039638	-5006
00004243907	-5007
ses	-5008
▁cause	-5009
00003909	-5010
▁contrôles	-5011
▁(2),	-5012
ergement	-5013
▁Alain	-5014
év	-5015
000039630	-5016
000046548	-5017
▁indirects	-5018
asion	-5019
ident	-5020
000042580	-5021
tères	-5022
000042421	-5023
omination	-5024
▁éventuel	-5025
▁Chapitre	-5026
▁Christophe	-5027
▁Haute	-5028
épartement	-5029
alisée	-5030
▁effectuée	-5031
▁préjudice	-5032
▁jeu	-5033
▁_	-5034
ult	-5035
▁conservation	-5036
▁seule	-5037
00004536	-5038
▁dérouler	-5039
000044590225|	-5040
▁dot	-5041
-04	-5042
675	-5043
athalie	-5044
▁traitements	-5045
▁aménagements	-5046
PE	-5047
▁somme	-5048
chwitz	-5049
00004246	-5050
207	-5051
▁Nord	-5052
▁distance	-5053
▁Auschwitz	-5054
▁Strasbourg	-5055
000042445	-5056
CO	-5057
000043235270|1||	-5058
440	-5059
▁Joseph	-5060
▁vendredi	-5061
|1||35|	-5062
tiste	-5063
▁2005	-5064
entissage	-5065
ak	-5066
▁professeur	-5067
▁Th	-5068
▁initiale	-5069
▁deme	-5070
expertise	-5071
15|1|	-5072
000042075	-5073
▁viv	-5074
00004160	-5075
00004634	-5076
0000448717	-5077
▁on	-5078
▁ord	-5079
▁changement	-5080
▁déléguée	-5081
ox	-5082
▁dispos	-5083
▁possible	-5084
ologies	-5085
▁écrit	-5086
▁concernées	-5087
tieux	-5088
lation	-5089
00004374	-5090
326	-5091
000042739	-5092
▁vérification	-5093
000041876	-5094
▁faveur	-5095
000044126	-5096
0000430815	-5097
▁précisant	-5098
15|«	-5099
00003842	-5100
708	-5101
▁listes	-5102
▁vit	-5103
my	-5104
449	-5105
000044947	-5106
ina	-5107
▁élev	-5108
enfant	-5109
▁vétér	-5110
00004221	-5111
stitution	-5112
▁reti	-5113
659	-5114
▁dég	-5115
00004267	-5116
▁auxquel	-5117
106|	-5118
issent	-5119
▁conjoint	-5120
369	-5121
608	-5122
armée	-5123
▁122	-5124
|1||36|	-5125
▁conseils	-5126
▁commissions	-5127
442|	-5128
université	-5129
00004445	-5130
330	-5131
▁puis	-5132
00004555	-5133
▁négociation	-5134
▁liés	-5135
000038895	-5136
▁support	-5137
▁612	-5138
00004512	-5139
lam	-5140
expiration	-5141
478	-5142
adeloupe	-5143
▁telle	-5144
▁nationalité	-5145
▁vic	-5146
isseur	-5147
16|1|	-5148
concours	-5149
▁individuelle	-5150
325	-5151
|1|2|2|	-5152
000043956924|	-5153
000045734	-5154
679	-5155
0000455312	-5156
comp	-5157
▁médicament	-5158
▁5.	-5159
000038900	-5160
quisition	-5161
▁renseignements	-5162
Com	-5163
▁enreg	-5164
▁SP	-5165
▁affectés	-5166
▁test	-5167
▁industries	-5168
VI	-5169
00004589	-5170
érée	-5171
00004367	-5172
▁régulation	-5173
00004438	-5174
▁pédagogique	-5175
101|	-5176
00004324	-5177
0000467685	-5178
▁cessation	-5179
ALE	-5180
000046070	-5181
infr	-5182
▁COM	-5183
109	-5184
employeur	-5185
145	-5186
182|	-5187
▁Franc	-5188
▁accessibles	-5189
▁proxim	-5190
000044327	-5191
▁délivrée	-5192
809	-5193
Ad	-5194
emp	-5195
279|	-5196
obtention	-5197
▁indications	-5198
307|	-5199
Seine	-5200
1|1||2|	-5201
439	-5202
▁psychi	-5203
▁attestation	-5204
00004574	-5205
▁GU	-5206
riel	-5207
▁décrit	-5208
▁BOU	-5209
00004569576	-5210
▁aéronau	-5211
▁Futuna	-5212
ONT	-5213
000044025	-5214
▁pilotage	-5215
000041717	-5216
▁Qu	-5217
▁volont	-5218
▁ess	-5219
00003938	-5220
▁Fédération	-5221
▁surface	-5222
▁structures	-5223
▁4.	-5224
▁écoles	-5225
▁ve	-5226
ville	-5227
▁durant	-5228
-09	-5229
acte	-5230
pole	-5231
▁crise	-5232
▁besoin	-5233
438	-5234
auré	-5235
▁mais	-5236
▁signé	-5237
▁quinze	-5238
233|	-5239
▁stratégie	-5240
0000468369	-5241
▁particulières	-5242
▁prol	-5243
000042846616|	-5244
|1||17	-5245
▁diagnos	-5246
▁Marc	-5247
435	-5248
EAU	-5249
▁suivent	-5250
▁Dé	-5251
00004604053	-5252
▁enregist	-5253
envoi	-5254
▁attest	-5255
▁huissi	-5256
▁termes	-5257
▁prévision	-5258
ii	-5259
Math	-5260
▁411	-5261
électricité	-5262
000043879	-5263
▁trente	-5264
ame	-5265
|1||37|	-5266
▁liber	-5267
▁Ad	-5268
▁utilisés	-5269
tern	-5270
▁Antoine	-5271
titulé	-5272
primé	-5273
00004375	-5274
▁supprimée	-5275
▁mètres	-5276
000043575	-5277
000038438196|	-5278
ycée	-5279
00003843820	-5280
astructures	-5281
INTA	-5282
000044546	-5283
▁proximité	-5284
uno	-5285
▁00	-5286
▁artis	-5287
000044245	-5288
▁39	-5289
000046821	-5290
000038829574|	-5291
▁réalisés	-5292
▁vertu	-5293
académie	-5294
▁consign	-5295
▁anti	-5296
missions	-5297
odi	-5298
▁1985	-5299
▁Sous	-5300
▁soient	-5301
▁ouvrant	-5302
000046520	-5303
000043808	-5304
allocation	-5305
00004528	-5306
huissier	-5307
▁Man	-5308
orti	-5309
▁313	-5310
▁voix	-5311
00004223	-5312
▁constituée	-5313
00004368	-5314
▁nucléaire	-5315
Is	-5316
mé	-5317
▁133	-5318
00004354	-5319
▁continue	-5320
▁énergétique	-5321
00004214	-5322
ron	-5323
▁interd	-5324
▁compens	-5325
▁RO	-5326
▁2023.	-5327
00003918	-5328
4,	-5329
▁Am	-5330
422	-5331
▁écrites	-5332
MA	-5333
▁résultat	-5334
▁logis	-5335
▁annuelle	-5336
▁informatique	-5337
mention	-5338
ièrement	-5339
▁trou	-5340
416	-5341
-18	-5342
▁vac	-5343
▁conséqu	-5344
0000391914	-5345
tropole	-5346
Car	-5347
-06	-5348
▁peti	-5349
▁plafond	-5350
lo	-5351
▁cou	-5352
Christophe	-5353
▁CN	-5354
armement	-5355
000046780	-5356
oî	-5357
00004667	-5358
000044318	-5359
IP	-5360
▁médico	-5361
000039726	-5362
CG	-5363
000038649516|	-5364
000046836951|	-5365
iquelon	-5366
égalité	-5367
799	-5368
▁chim	-5369
217|	-5370
▁valeurs	-5371
▁prior	-5372
414	-5373
▁Lim	-5374
▁répu	-5375
exercer	-5376
▁situations	-5377
▁domaines	-5378
Elle	-5379
ancy	-5380
|1||38|	-5381
00004190	-5382
▁contentieux	-5383
france	-5384
152|	-5385
000042334	-5386
0000424449	-5387
118|	-5388
ick	-5389
ailles	-5390
▁requises	-5391
00003817	-5392
ennent	-5393
▁international	-5394
16|«	-5395
▁inclus	-5396
▁nationaux	-5397
odr	-5398
tière	-5399
41|1||	-5400
0|—	-5401
accal	-5402
00004573	-5403
-31	-5404
▁compati	-5405
accalauré	-5406
Br	-5407
700	-5408
▁recouv	-5409
▁internationale	-5410
ascul	-5411
hérapie	-5412
▁Section	-5413
000045570	-5414
▁médicaux	-5415
▁réponse	-5416
000041722	-5417
000046745	-5418
ades	-5419
▁ferrov	-5420
000043032	-5421
283|	-5422
000042376	-5423
319	-5424
▁détach	-5425
▁évaluation	-5426
▁jeux	-5427
00003942	-5428
▁suspension	-5429
io	-5430
Saint	-5431
|1|14|	-5432
Une	-5433
tarc	-5434
estre	-5435
▁susmention	-5436
érôme	-5437
▁contenu	-5438
réanimation	-5439
era	-5440
000041812899|1||	-5441
168	-5442
▁Catherine	-5443
000044638	-5444
413	-5445
▁René	-5446
▁adul	-5447
▁privé	-5448
|1||39|	-5449
000038914	-5450
▁maintenance	-5451
tel	-5452
▁NOTA	-5453
8°	-5454
▁habilité	-5455
Louis	-5456
MIC	-5457
▁crédit	-5458
▁sixième	-5459
attestation	-5460
0000427312	-5461
erre	-5462
▁labor	-5463
aboration	-5464
Michel	-5465
7|1||1|	-5466
▁4,	-5467
00004640	-5468
▁46	-5469
▁dénomination	-5470
vant	-5471
-02	-5472
▁mens	-5473
instance	-5474
▁associées	-5475
Si	-5476
activités	-5477
|1||18	-5478
00003980	-5479
▁thérapeutique	-5480
urban	-5481
Em	-5482
▁propres	-5483
000045538155|	-5484
000042677	-5485
.,	-5486
isant	-5487
dement	-5488
▁Ile	-5489
enn	-5490
▁env	-5491
▁professeurs	-5492
▁Notaires	-5493
▁Loire	-5494
▁Georges	-5495
▁devient	-5496
000042738	-5497
idité	-5498
itre	-5499
000038858	-5500
▁caisse	-5501
accalauréat	-5502
▁ministères	-5503
Miquelon	-5504
écile	-5505
4|1||1|	-5506
▁précisées	-5507
▁affér	-5508
000038906	-5509
héb	-5510
000045531251|	-5511
▁alors	-5512
OIS	-5513
▁dénomm	-5514
1300	-5515
▁accompl	-5516
▁1942	-5517
000043985	-5518
▁opérateurs	-5519
000041645190|	-5520
mat	-5521
000045946	-5522
oux	-5523
000041645191|1||	-5524
appui	-5525
72	-5526
commun	-5527
00004577	-5528
▁disponibles	-5529
unes	-5530
Ben	-5531
▁vu	-5532
000043915	-5533
000042709	-5534
00004284660	-5535
▁quar	-5536
277|	-5537
alog	-5538
000046179	-5539
▁prime	-5540
▁tels	-5541
▁Charles	-5542
évolution	-5543
▁échelon	-5544
000043728	-5545
1360|	-5546
quement	-5547
▁journal	-5548
266|	-5549
318	-5550
▁indépend	-5551
LIS	-5552
▁dates	-5553
▁proté	-5554
▁fiche	-5555
▁agréés	-5556
000045114	-5557
time	-5558
▁Grou	-5559
ifrance	-5560
00004155	-5561
▁fournir	-5562
490	-5563
3|1|3|	-5564
▁prescr	-5565
-07	-5566
titue	-5567
▁entraî	-5568
▁exercées	-5569
ondations	-5570
affectation	-5571
preuve	-5572
*)	-5573
000046820	-5574
399	-5575
▁CO	-5576
680	-5577
▁quel	-5578
▁autorisées	-5579
▁minuit	-5580
▁biologie	-5581
▁tribun	-5582
▁inv	-5583
000044044	-5584
▁app	-5585
Marne	-5586
▁Elles	-5587
opol	-5588
esthé	-5589
00004657	-5590
00004543	-5591
628	-5592
▁rattach	-5593
▁ressort	-5594
posé	-5595
2|1||2|	-5596
AH	-5597
208|	-5598
0000394400	-5599
787|	-5600
isée	-5601
▁autorité	-5602
211|	-5603
00003947	-5604
▁préfecture	-5605
▁enc	-5606
▁certif	-5607
3|1|2|1|	-5608
▁derniers	-5609
0000443619	-5610
sse	-5611
▁PAR	-5612
000046534	-5613
294|	-5614
Guillaume	-5615
▁courriel	-5616
▁bâtiments	-5617
5|<	-5618
arité	-5619
▁1987.	-5620
▁scru	-5621
|1|16|	-5622
000041820	-5623
oids	-5624
▁détail	-5625
ouvrage	-5626
▁remise	-5627
objec	-5628
▁lois	-5629
3|1|1|1|	-5630
000045245	-5631
▁ordre	-5632
▁valor	-5633
▁tribunaux	-5634
043|	-5635
▁exerce	-5636
0000463508	-5637
▁espèces	-5638
000043950	-5639
ingénieur	-5640
▁formul	-5641
▁seules	-5642
▁scrutin	-5643
arisation	-5644
▁accords	-5645
▁chau	-5646
intitulé	-5647
1198|	-5648
▁pédi	-5649
▁comprenant	-5650
▁psychiatrie	-5651
0000445470	-5652
▁immédiatement	-5653
▁312	-5654
486|	-5655
Marc	-5656
00003809	-5657
000041751360|	-5658
450	-5659
iér	-5660
turb	-5661
▁offertes	-5662
▁présentant	-5663
▁contrôl	-5664
▁producteurs	-5665
▁assi	-5666
17|«	-5667
▁perturb	-5668
000043808633|	-5669
▁recher	-5670
000043715	-5671
▁convocation	-5672
▁32	-5673
000044637640|	-5674
▁1988.	-5675
▁préalablement	-5676
ranch	-5677
hébergement	-5678
▁internes	-5679
▁diss	-5680
188	-5681
isés	-5682
Antoine	-5683
000042620	-5684
0000425923	-5685
incendie	-5686
▁reconnues	-5687
00004563	-5688
000038510	-5689
000038930	-5690
▁voies	-5691
▁aériens	-5692
▁définiti	-5693
▁1°,	-5694
▁rendu	-5695
6574|	-5696
000044616	-5697
▁magistrats	-5698
▁organisé	-5699
▁https	-5700
420	-5701
218|	-5702
quête	-5703
▁contribution	-5704
AZ	-5705
00004198	-5706
cent	-5707
date	-5708
▁coul	-5709
inaires	-5710
|1|1|2|1°	-5711
iale	-5712
▁111	-5713
000045668	-5714
▁décédé	-5715
▁juridique	-5716
lotte	-5717
00004624	-5718
oche	-5719
Thomas	-5720
0000451814	-5721
▁considérée	-5722
000039666574|	-5723
386	-5724
▁matériaux	-5725
école	-5726
▁visés	-5727
000041835	-5728
0000435229	-5729
417	-5730
000045221198|	-5731
000042570	-5732
373	-5733
▁baccalauréat	-5734
000043814	-5735
00004158	-5736
▁camp	-5737
▁prénom	-5738
18|«	-5739
500	-5740
cteur	-5741
▁termin	-5742
19|«	-5743
▁http	-5744
000043714	-5745
UL	-5746
▁réun	-5747
▁Stéphane	-5748
▁inspectrice	-5749
000043220	-5750
239|	-5751
303|	-5752
▁respecter	-5753
354|	-5754
▁radio	-5755
▁calend	-5756
▁intérieure	-5757
Gar	-5758
oyage	-5759
idation	-5760
▁appropr	-5761
gl	-5762
736	-5763
nés	-5764
ande	-5765
▁Del	-5766
▁électroniques	-5767
000046077075	-5768
▁contractante	-5769
▁justifiant	-5770
▁infirm	-5771
▁Grand	-5772
▁poids	-5773
▁165	-5774
▁visant	-5775
▁prescription	-5776
achat	-5777
RÉ	-5778
IX	-5779
▁Nancy	-5780
Office	-5781
aptiste	-5782
▁colonel	-5783
▁Gren	-5784
0000416235	-5785
entr	-5786
▁relève	-5787
▁Se	-5788
000046619	-5789
▁radiation	-5790
ssant	-5791
2||4|<	-5792
▁suffis	-5793
▁garanties	-5794
▁tonnes	-5795
▁administrateurs	-5796
▁aur	-5797
000038261631|	-5798
avances	-5799
▁Pascal	-5800
axime	-5801
▁import	-5802
▁accordée	-5803
▁dirig	-5804
▁judiciaires	-5805
▁aus	-5806
▁observations	-5807
▁action	-5808
000045339	-5809
▁protocole	-5810
▁sites	-5811
▁détention	-5812
9-	-5813
iérarch	-5814
00004419	-5815
▁excéder	-5816
000043317	-5817
▁Frédéric	-5818
▁discipline	-5819
▁recommandé	-5820
▁déj	-5821
omain	-5822
▁Sophie	-5823
▁sommes	-5824
44|1||	-5825
000045979	-5826
-3,	-5827
Toute	-5828
▁exempl	-5829
▁différentes	-5830
690	-5831
▁morale	-5832
dev	-5833
000044469	-5834
▁interrégionale	-5835
RH	-5836
2|1||1	-5837
honneur	-5838
▁techniciens	-5839
137|	-5840
1|1|4|	-5841
00004626	-5842
▁Robert	-5843
▁hiérarch	-5844
habit	-5845
000042138	-5846
210|	-5847
180|1||	-5848
acquisition	-5849
▁70	-5850
▁statistique	-5851
▁Ca	-5852
358|	-5853
▁taxes	-5854
3)	-5855
▁Eric	-5856
▁équivalent	-5857
habilitation	-5858
soci	-5859
▁adultes	-5860
▁matières	-5861
▁justifier	-5862
000043302650|	-5863
▁Ex	-5864
▁licence	-5865
000039810	-5866
633	-5867
▁Co	-5868
mation	-5869
▁possibilité	-5870
dou	-5871
00004411	-5872
341|	-5873
71|1||	-5874
Alexandre	-5875
▁définition	-5876
▁espace	-5877
▁53	-5878
ro	-5879
▁mutu	-5880
000045536	-5881
▁collectif	-5882
▁élus	-5883
jon	-5884
199	-5885
vre	-5886
000041535	-5887
000043630	-5888
191|	-5889
▁procès	-5890
▁homolog	-5891
5|1|2|	-5892
abor	-5893
▁lun	-5894
TS	-5895
729	-5896
▁Du	-5897
▁indemnités	-5898
verb	-5899
00003828	-5900
▁”,	-5901
▁Math	-5902
▁propriét	-5903
323	-5904
▁industriel	-5905
000041924019|	-5906
17|1|	-5907
▁placé	-5908
▁réglementaire	-5909
▁37	-5910
▁installation	-5911
ATI	-5912
▁déjà	-5913
▁pror	-5914
▁Toutefois	-5915
maj	-5916
▁affecté	-5917
▁départ	-5918
▁insérée	-5919
▁reprise	-5920
000042444940|	-5921
▁join	-5922
▁capital	-5923
423	-5924
▁SAINT	-5925
20|«	-5926
▁duquel	-5927
▁telles	-5928
esthésie	-5929
000045244037|	-5930
000045269	-5931
itaine	-5932
▁cardi	-5933
0000427480	-5934
▁LES	-5935
▁médi	-5936
000045244038	-5937
Conformément	-5938
agerie	-5939
tations	-5940
00004333	-5941
EU	-5942
illeurs	-5943
▁classement	-5944
▁Flor	-5945
▁distin	-5946
689|	-5947
536	-5948
▁intég	-5949
ARMH	-5950
▁fich	-5951
▁envis	-5952
▁sujet	-5953
GU	-5954
▁route	-5955
00003865	-5956
ovis	-5957
000042748043|	-5958
Ang	-5959
▁mines	-5960
▁réduction	-5961
▁prestataire	-5962
égard	-5963
▁locales	-5964
▁cotisations	-5965
▁veille	-5966
▁établit	-5967
000042730	-5968
▁uniquement	-5969
6|1|2|	-5970
000042079	-5971
▁parts	-5972
329	-5973
▁outi	-5974
Inondations	-5975
-2.	-5976
▁nomin	-5977
▁définitive	-5978
ICE	-5979
000042658	-5980
▁terre	-5981
acements	-5982
▁Rh	-5983
00004534	-5984
▁agrément	-5985
rine	-5986
posent	-5987
000039034	-5988
▁Guillaume	-5989
00004380	-5990
ignement	-5991
oble	-5992
▁Jus	-5993
chnique	-5994
IGN	-5995
préfet	-5996
▁cession	-5997
▁participer	-5998
TH	-5999
▁8°	-6000
▁instru	-6001
▁boue	-6002
00004224	-6003
000038716	-6004
424	-6005
▁Me	-6006
▁normes	-6007
ys	-6008
▁Mon	-6009
18|1|	-6010
00004647	-6011
▁/	-6012
0000436060	-6013
▁coulées	-6014
équipe	-6015
améli	-6016
▁intégr	-6017
▁sor	-6018
gent	-6019
00004189	-6020
000044447	-6021
reuves	-6022
MP	-6023
000046846667|	-6024
médi	-6025
000045038	-6026
▁Christian	-6027
SC	-6028
ae	-6029
▁var	-6030
▁47	-6031
206|	-6032
00004517	-6033
othérapie	-6034
009	-6035
436	-6036
▁aucun	-6037
▁versée	-6038
▁permanente	-6039
▁renfor	-6040
At	-6041
▁Tout	-6042
mar	-6043
▁lundi	-6044
000038376	-6045
0000465910	-6046
▁intercommun	-6047
AIS	-6048
▁ouverture	-6049
10|—	-6050
00004230	-6051
▁exclusive	-6052
317|	-6053
▁Vincent	-6054
0000422289	-6055
ONN	-6056
érard	-6057
▁aucune	-6058
▁disciplines	-6059
▁Françoise	-6060
197|	-6061
ilde	-6062
▁compétentes	-6063
rédit	-6064
uffis	-6065
/200	-6066
00004435	-6067
▁monétaire	-6068
000046040604|	-6069
acités	-6070
00004684668	-6071
Rhin	-6072
000041885	-6073
▁Guadeloupe	-6074
AUX	-6075
▁types	-6076
▁unité	-6077
▁ville	-6078
▁préinscription	-6079
5,	-6080
▁réf	-6081
▁2023,	-6082
oraires	-6083
▁engag	-6084
▁Ou	-6085
▁esti	-6086
▁éligibles	-6087
▁synth	-6088
apprentissage	-6089
324	-6090
000043535	-6091
▁stockage	-6092
7395|	-6093
Etablissement	-6094
étique	-6095
▁manif	-6096
000042020	-6097
▁adop	-6098
000038438208|1||	-6099
auts	-6100
098	-6101
▁suppléants	-6102
▁poly	-6103
▁valable	-6104
ospitalisation	-6105
000042846617|1||	-6106
LAN	-6107
000042839	-6108
00003965670	-6109
▁Yves	-6110
▁métr	-6111
IB	-6112
dg	-6113
gment	-6114
▁dûment	-6115
|1|15|	-6116
▁Sur	-6117
168|	-6118
000041554	-6119
▁effectué	-6120
TES	-6121
000039070	-6122
0000385447	-6123
▁bénéficiant	-6124
000045197395|	-6125
Communes	-6126
▁assimil	-6127
000042544	-6128
▁fabr	-6129
Julien	-6130
000041759	-6131
érer	-6132
Denis	-6133
000038365	-6134
▁infrastructures	-6135
RU	-6136
▁500	-6137
▁Patrick	-6138
▁uti	-6139
76|1||	-6140
▁présents	-6141
▁PTT	-6142
▁Maur	-6143
|1|7|1|	-6144
000038626	-6145
▁salaires	-6146
▁&	-6147
ect	-6148
ciation	-6149
▁73	-6150
JUSB	-6151
634	-6152
000046045	-6153
▁plateforme	-6154
▁Services	-6155
▁sportives	-6156
Olivier	-6157
▁TH	-6158
▁pertin	-6159
▁règlements	-6160
305|	-6161
▁dédi	-6162
▁métropole	-6163
00004579649	-6164
568	-6165
▁régionaux	-6166
▁solidarité	-6167
▁stagiaires	-6168
▁fré	-6169
ouise	-6170
165|	-6171
194|	-6172
▁effectuées	-6173
idier	-6174
▁dés	-6175
1|1|3|1|	-6176
▁anesthésie	-6177
▁sanction	-6178
0000397019	-6179
inte	-6180
▁désigne	-6181
étude	-6182
▁541-	-6183
▁étrangers	-6184
000039079	-6185
▁contributions	-6186
▁60	-6187
ispositions	-6188
AF	-6189
ictor	-6190
DI	-6191
410	-6192
ocr	-6193
00004656	-6194
▁démar	-6195
▁redev	-6196
élection	-6197
urbanisme	-6198
Laurent	-6199
▁Daniel	-6200
▁suppléante	-6201
125|	-6202
267|	-6203
743|	-6204
72|1||	-6205
matéri	-6206
▁bénéficient	-6207
▁Acc	-6208
789	-6209
ner	-6210
érées	-6211
00004408	-6212
▁Nathalie	-6213
▁vir	-6214
▁Grenoble	-6215
aj	-6216
ANS	-6217
ogne	-6218
735	-6219
proc	-6220
ast	-6221
▁clim	-6222
auté	-6223
rage	-6224
▁Ber	-6225
193|	-6226
▁tenant	-6227
▁Thierry	-6228
000042539	-6229
▁5,	-6230
▁cul	-6231
éline	-6232
▁Hélène	-6233
000039138	-6234
000042520	-6235
▁délibération	-6236
orme	-6237
000045268	-6238
658	-6239
avant	-6240
De	-6241
possibilité	-6242
00004557	-6243
134|	-6244
alisé	-6245
itant	-6246
000038649517|1||	-6247
▁aide	-6248
major	-6249
▁protégé	-6250
ticip	-6251
isations	-6252
PP	-6253
3428|	-6254
▁pièce	-6255
172|	-6256
▁dématéri	-6257
▁clas	-6258
127|	-6259
diction	-6260
00004628	-6261
▁ordonnance	-6262
676	-6263
umul	-6264
806|	-6265
▁enveloppe	-6266
108	-6267
téphanie	-6268
▁transmettre	-6269
000043388	-6270
▁minimale	-6271
▁jeudi	-6272
315	-6273
oger	-6274
00003869	-6275
▁conseillers	-6276
Co	-6277
649	-6278
659|	-6279
▁1989.	-6280
▁162-22	-6281
000046600	-6282
istants	-6283
▁acqu	-6284
000041539	-6285
00004219	-6286
▁définit	-6287
▁expérience	-6288
▁rev	-6289
000041990	-6290
000043134	-6291
▁directive	-6292
▁phot	-6293
▁semaines	-6294
▁administrations	-6295
00004412	-6296
▁×	-6297
cer	-6298
00003874	-6299
464|	-6300
▁clinique	-6301
▁perturbations	-6302
quêtes	-6303
▁NOTAIRES	-6304
sil	-6305
00004320	-6306
▁ROU	-6307
anterie	-6308
000039417	-6309
utions	-6310
▁central	-6311
▁2000	-6312
▁donne	-6313
470	-6314
9.	-6315
▁maire	-6316
▁prolong	-6317
Th	-6318
▁Rouen	-6319
▁locale	-6320
ly	-6321
▁2004	-6322
426	-6323
▁mix	-6324
313	-6325
▁recteur	-6326
▁sex	-6327
validité	-6328
000039373	-6329
Ou	-6330
Sophie	-6331
000038130	-6332
▁profit	-6333
00004616	-6334
▁effectués	-6335
▁naissance	-6336
ification	-6337
▁BAR	-6338
▁commissaires	-6339
orth	-6340
▁agréées	-6341
0000453170	-6342
TU	-6343
6|1||1|	-6344
issance	-6345
▁visé	-6346
▁dotation	-6347
institu	-6348
▁dégagement	-6349
▁figure	-6350
▁1986.	-6351
▁franc	-6352
|1|1|5|	-6353
▁conception	-6354
▁résolution	-6355
éle	-6356
000041529	-6357
▁hospitaliers	-6358
590	-6359
▁314	-6360
alogue	-6361
▁Chaque	-6362
▁téléph	-6363
▁forfaitaire	-6364
▁collecte	-6365
▁disponibilité	-6366
OC	-6367
000044547	-6368
▁groupements	-6369
11-	-6370
528	-6371
▁perte	-6372
/2020-08	-6373
▁étant	-6374
ingénieurs	-6375
00004378908	-6376
plé	-6377
odivers	-6378
ITA	-6379
641|	-6380
iennent	-6381
▁victimes	-6382
▁inscrites	-6383
enir	-6384
▁destinés	-6385
▁expériment	-6386
UB	-6387
787	-6388
▁actifs	-6389
sions	-6390
0000430328	-6391
177|	-6392
▁placée	-6393
▁divisionnaire	-6394
▁AL	-6395
mettre	-6396
000039727	-6397
▁conduire	-6398
odiversité	-6399
Ac	-6400
2|1|3|1|	-6401
▁of	-6402
anges	-6403
640	-6404
000044517	-6405
447	-6406
▁VIII	-6407
000043518	-6408
▁candidatures	-6409
129|	-6410
387|1||	-6411
0000386828	-6412
0000421014	-6413
ELLE	-6414
▁(1).	-6415
▁vari	-6416
écologie	-6417
▁nouvelles	-6418
ORM	-6419
effectu	-6420
▁savoir	-6421
▁acteurs	-6422
amme	-6423
▁path	-6424
00003845	-6425
000042418	-6426
▁Jeanne	-6427
▁chargées	-6428
érant	-6429
▁principes	-6430
osp	-6431
▁07	-6432
▁élab	-6433
000045864	-6434
uré	-6435
100|	-6436
AGRT	-6437
▁brig	-6438
▁dénommé	-6439
000046229	-6440
744	-6441
RES	-6442
ROU	-6443
▁fréqu	-6444
▁diagnostic	-6445
|1|1|4|	-6446
Re	-6447
rant	-6448
▁grand	-6449
000045968	-6450
▁habilités	-6451
3-1	-6452
▁2241-	-6453
6|1|1|1|	-6454
oign	-6455
▁aéronautique	-6456
▁Marcel	-6457
000046779	-6458
000041737716|	-6459
129	-6460
▁libre	-6461
00004398	-6462
▁abrogés	-6463
▁orient	-6464
000044170	-6465
000044488	-6466
▁tenir	-6467
000043156344|	-6468
62	-6469
▁carr	-6470
▁degré	-6471
▁placés	-6472
▁inscrit	-6473
▁numériques	-6474
470|	-6475
▁effectuer	-6476
▁AR	-6477
21|«	-6478
19|1|	-6479
▁1983	-6480
▁concl	-6481
0000393045	-6482
▁internationales	-6483
599|	-6484
ian	-6485
œuvres	-6486
▁analy	-6487
▁retour	-6488
000039085	-6489
000043809	-6490
▁Dr	-6491
lasse	-6492
▁biodiversité	-6493
▁propor	-6494
▁assurés	-6495
▁exécu	-6496
ganisation	-6497
▁électriques	-6498
iane	-6499
▁décid	-6500
000042636	-6501
000038219	-6502
0000428460	-6503
ÉE	-6504
63|1||	-6505
▁thérapeutiques	-6506
ENT	-6507
▁Lé	-6508
169|	-6509
▁Haut	-6510
▁Mich	-6511
00004422	-6512
▁pluri	-6513
768	-6514
oselle	-6515
▁acceptée	-6516
oti	-6517
121|	-6518
euros	-6519
▁urb	-6520
000038334	-6521
▁pourvoir	-6522
int	-6523
000038442647|	-6524
▁adressé	-6525
▁7,	-6526
000045398	-6527
000045394006|	-6528
000042558	-6529
▁constitué	-6530
be	-6531
11|—	-6532
00004665855	-6533
ycl	-6534
▁souhait	-6535
000042747705|	-6536
327	-6537
▁classes	-6538
00004345	-6539
▁comités	-6540
▁personnalités	-6541
▁particuliers	-6542
uge	-6543
▁dépôts	-6544
▁peines	-6545
▁Ann	-6546
urence	-6547
153|	-6548
▁procède	-6549
000043148	-6550
Barth	-6551
hospitalisation	-6552
▁Rég	-6553
Camille	-6554
▁famille	-6555
9°	-6556
ED	-6557
ser	-6558
èmes	-6559
isées	-6560
éronique	-6561
▁tient	-6562
00004678	-6563
000043788	-6564
890	-6565
234|	-6566
▁connex	-6567
52	-6568
4|1|1|1|	-6569
▁passagers	-6570
Jac	-6571
inistère	-6572
720	-6573
0000424817	-6574
▁compar	-6575
▁destination	-6576
pomp	-6577
00004423	-6578
▁appartenant	-6579
000043360204|	-6580
▁65	-6581
5479|	-6582
▁Dijon	-6583
OCI	-6584
3|1°	-6585
enseign	-6586
000045100	-6587
bli	-6588
ene	-6589
han	-6590
281|	-6591
218	-6592
00004269	-6593
000046114	-6594
▁nécessite	-6595
épid	-6596
Haute	-6597
6|1|2|1|	-6598
▁Christine	-6599
▁télécharg	-6600
ertz	-6601
▁visite	-6602
▁Alexandre	-6603
▁émissions	-6604
▁trait	-6605
00004188	-6606
4)	-6607
7|1|2|1|	-6608
AUL	-6609
▁exercice	-6610
▁connaître	-6611
bi	-6612
▁douze	-6613
▁active	-6614
000043459	-6615
148|	-6616
▁disponible	-6617
769	-6618
▁Comité	-6619
▁client	-6620
000046014	-6621
▁avenue	-6622
000038397107|	-6623
.00	-6624
ématiques	-6625
▁instances	-6626
▁composé	-6627
isseurs	-6628
asculaire	-6629
impossibilité	-6630
329|	-6631
▁obligatoirement	-6632
000042121	-6633
icip	-6634
000041999	-6635
▁orales	-6636
térieures	-6637
▁détermine	-6638
▁PER	-6639
tième	-6640
▁conte	-6641
▁Cler	-6642
7|1|1|1|	-6643
00003820120	-6644
109|	-6645
▁613	-6646
▁POUR	-6647
|1|1|2|«	-6648
▁capacités	-6649
000046605479|	-6650
199|	-6651
▁prestation	-6652
▁Fond	-6653
ocations	-6654
▁complétée	-6655
122|	-6656
agit	-6657
▁plans	-6658
▁sportive	-6659
▁fonc	-6660
000046040605|1||	-6661
▁dépend	-6662
00004625	-6663
000044740	-6664
▁concourir	-6665
▁infanterie	-6666
raison	-6667
▁constitution	-6668
00003816	-6669
000038040	-6670
000042170	-6671
▁produire	-6672
uf	-6673
▁presse	-6674
4|1|2|1|	-6675
▁procédé	-6676
MI	-6677
▁notes	-6678
0000389479	-6679
▁ferroviaire	-6680
149|	-6681
▁huit	-6682
élemy	-6683
▁ajoutée	-6684
▁espaces	-6685
000038830	-6686
▁gross	-6687
399|	-6688
▁provis	-6689
▁logements	-6690
▁audit	-6691
000043648	-6692
aval	-6693
élaboration	-6694
▁automatique	-6695
▁param	-6696
astructure	-6697
▁handicapées	-6698
ow	-6699
2-2	-6700
▁Su	-6701
▁hertz	-6702
00003979	-6703
000043935	-6704
▁circ	-6705
▁scientifiques	-6706
Fer	-6707
upplé	-6708
gu	-6709
111|	-6710
22|«	-6711
▁contractuels	-6712
534	-6713
Etienne	-6714
▁insuffis	-6715
▁Ray	-6716
5|1|2|1|	-6717
▁municip	-6718
▁individuels	-6719
aqu	-6720
57|1||	-6721
Accès	-6722
entis	-6723
000045063	-6724
00003930425	-6725
▁521	-6726
agnée	-6727
engage	-6728
▁Claire	-6729
▁principaux	-6730
▁garantir	-6731
VA	-6732
APP	-6733
Sur	-6734
▁veill	-6735
▁Clermont	-6736
238|	-6737
èvent	-6738
000038342699|1||	-6739
▁exprim	-6740
▁praticien	-6741
▁accompagnée	-6742
▁vacc	-6743
delà	-6744
▁CAR	-6745
4|1|3|	-6746
00004426	-6747
673	-6748
224|	-6749
▁greff	-6750
Barthélemy	-6751
▁Fin	-6752
ki	-6753
oît	-6754
▁hommes	-6755
▁législation	-6756
71	-6757
▁emb	-6758
▁Constitution	-6759
▁sap	-6760
▁Cr	-6761
mond	-6762
877|	-6763
▁déconc	-6764
62|1||	-6765
▁dérogations	-6766
080	-6767
716	-6768
000038599	-6769
212|	-6770
épidémie	-6771
▁Sim	-6772
▁48	-6773
trand	-6774
▁cumul	-6775
▁téléc	-6776
000041889	-6777
TIONS	-6778
▁confér	-6779
équipement	-6780
▁probatoire	-6781
000043764183|	-6782
3|1||2|	-6783
▁Julien	-6784
▁ouvrages	-6785
▁Emmanuel	-6786
▁spécialisée	-6787
12-	-6788
Des	-6789
▁hertzienne	-6790
▁statutaires	-6791
22|1||	-6792
00003807	-6793
llerie	-6794
▁mode	-6795
5|1|1|1|	-6796
|1||10|—	-6797
▁prélèvement	-6798
ospices	-6799
▁analyse	-6800
▁métropol	-6801
iène	-6802
▁chambres	-6803
▁précitée	-6804
▁couver	-6805
autonomie	-6806
Aur	-6807
0000466639	-6808
138|	-6809
20|1|	-6810
51|1||	-6811
▁recon	-6812
▁hauteur	-6813
000039446	-6814
000043957	-6815
000046678	-6816
/0	-6817
eth	-6818
56|1||	-6819
▁remis	-6820
▁ressorti	-6821
▁interrégional	-6822
ARI	-6823
usé	-6824
124|	-6825
ende	-6826
Garonne	-6827
▁cm	-6828
ociés	-6829
▁groupes	-6830
▁populaire	-6831
12|—	-6832
▁partielle	-6833
▁spécialisé	-6834
▁76	-6835
iences	-6836
Baptiste	-6837
▁précédant	-6838
▁conformes	-6839
096|	-6840
trique	-6841
▁régie	-6842
105|	-6843
509|	-6844
▁2°,	-6845
perts	-6846
Claire	-6847
import	-6848
▁circon	-6849
▁vérifier	-6850
185|	-6851
254|	-6852
26|1|	-6853
|1|3|2|	-6854
▁diverses	-6855
▁fondement	-6856
000046113383|	-6857
▁renouvelable	-6858
2|1|6|	-6859
2||5|<	-6860
▁assis	-6861
|1|1|6|	-6862
▁proportion	-6863
▁accueill	-6864
objectif	-6865
000043070	-6866
▁pensions	-6867
3,	-6868
4-1	-6869
672|	-6870
▁(1)	-6871
▁antérieure	-6872
▁Civ	-6873
▁indemnité	-6874
677	-6875
743	-6876
5|1||1|	-6877
Vincent	-6878
tte	-6879
arah	-6880
▁territoriaux	-6881
▁hu	-6882
00004293	-6883
276|	-6884
▁adjoints	-6885
▁recueill	-6886
▁directions	-6887
emb	-6888
▁80	-6889
giène	-6890
▁pharmacien	-6891
oré	-6892
▁constitue	-6893
385|	-6894
▁privés	-6895
provision	-6896
143|	-6897
146|	-6898
▁Lég	-6899
▁Plan	-6900
▁versées	-6901
000045023	-6902
▁marchand	-6903
▁question	-6904
▁communications	-6905
Ile	-6906
▁accepté	-6907
▁sanitaires	-6908
OUL	-6909
000045614	-6910
NI	-6911
728	-6912
▁organisée	-6913
▁soumises	-6914
0000461745	-6915
▁magistrat	-6916
▁sché	-6917
▁voyage	-6918
ifications	-6919
ervé	-6920
▁ASS	-6921
ographie	-6922
leur	-6923
▁615	-6924
322|	-6925
jamin	-6926
ertoire	-6927
000045189	-6928
▁substances	-6929
▁congés	-6930
audit	-6931
7|1|3|	-6932
▁Gérard	-6933
5|3°	-6934
agents	-6935
magistr	-6936
▁cohér	-6937
▁premiers	-6938
▁susceptible	-6939
▁Poi	-6940
adies	-6941
000042234	-6942
Sous	-6943
10|1||	-6944
▁Aur	-6945
000038940	-6946
000043032794|	-6947
lin	-6948
384|	-6949
ainte	-6950
▁libertés	-6951
▁demeure	-6952
0000429	-6953
000045726442|	-6954
▁consultative	-6955
19|—	-6956
ourt	-6957
61|1||	-6958
▁ordonn	-6959
000043210	-6960
▁Trans	-6961
itement	-6962
▁modifier	-6963
▁Ag	-6964
résor	-6965
▁porter	-6966
▁Gar	-6967
000041924020|1||	-6968
ontologie	-6969
magistrature	-6970
▁CE	-6971
▁grossesse	-6972
Pré	-6973
395|	-6974
▁supplémentaire	-6975
mor	-6976
ventions	-6977
000042460	-6978
▁indiquée	-6979
▁Pe	-6980
▁621	-6981
000042538	-6982
-3.	-6983
Man	-6984
000041746	-6985
▁diffusion	-6986
3148|	-6987
▁variété	-6988
000044368	-6989
riv	-6990
▁diffic	-6991
5|2°	-6992
128	-6993
136|	-6994
▁faite	-6995
▁puissance	-6996
dam	-6997
▁421	-6998
lantique	-6999
000044099	-7000
amélioration	-7001
administrateur	-7002
23|«	-7003
▁331-	-7004
▁textes	-7005
▁Fonction	-7006
lém	-7007
▁49	-7008
▁TE	-7009
▁enti	-7010
oël	-7011
▁Valérie	-7012
198	-7013
▁obtenir	-7014
▁exclusivement	-7015
ims	-7016
000042430	-7017
▁déclarés	-7018
748	-7019
▁avoc	-7020
▁externes	-7021
▁déclarations	-7022
indre	-7023
▁David	-7024
000038475	-7025
000042660	-7026
▁renseignement	-7027
▁alimentaire	-7028
▁intercommunale	-7029
eant	-7030
22|1|	-7031
uerre	-7032
élève	-7033
▁recouvrement	-7034
▁arch	-7035
▁BER	-7036
▁therm	-7037
38|1|2|	-7038
251|	-7039
▁carb	-7040
|1||40|	-7041
▁livraison	-7042
▁magistrature	-7043
▁dim	-7044
▁Muse	-7045
▁sections	-7046
▁déplacement	-7047
▁peine	-7048
235|	-7049
000042229	-7050
25|1|	-7051
▁PTTT	-7052
|1||41|	-7053
00004377135	-7054
992|	-7055
▁recherches	-7056
000042575	-7057
▁mandataire	-7058
abric	-7059
dition	-7060
▁Maurice	-7061
376|	-7062
venir	-7063
▁télés	-7064
000038988	-7065
▁Poitiers	-7066
▁Université	-7067
5|1|3|	-7068
▁anciennement	-7069
540	-7070
718	-7071
ÈRE	-7072
ÉES	-7073
244|	-7074
▁422	-7075
▁jeunes	-7076
Frédéric	-7077
▁répondre	-7078
FP	-7079
venant	-7080
▁attachés	-7081
oud	-7082
▁78	-7083
Vice	-7084
▁ensemble	-7085
ERV	-7086
|1||11|—	-7087
oup	-7088
verbal	-7089
▁tenue	-7090
▁Sylvie	-7091
000043130	-7092
MG	-7093
ompte	-7094
▁auquel	-7095
▁calendrier	-7096
363|	-7097
▁évol	-7098
000043914	-7099
000039675317|	-7100
264|	-7101
474|	-7102
1|1|5|	-7103
▁OU	-7104
▁lit	-7105
000042183148|	-7106
▁pédagogiques	-7107
Az	-7108
348	-7109
▁amb	-7110
▁effectifs	-7111
▁éventuellement	-7112
▁6,	-7113
▁sépar	-7114
24|1|	-7115
▁prim	-7116
▁hôpitaux	-7117
▁em	-7118
128|	-7119
occasion	-7120
727|	-7121
térim	-7122
once	-7123
ocu	-7124
24|«	-7125
__	-7126
MAN	-7127
00003925	-7128
OD	-7129
▁Méd	-7130
3|1|5|	-7131
00004602906	-7132
▁répertoire	-7133
000038730259|	-7134
548|	-7135
▁organisateur	-7136
299|	-7137
ucune	-7138
000038115179|	-7139
ali	-7140
▁présid	-7141
000037909	-7142
▁83	-7143
▁Reims	-7144
▁Roger	-7145
othè	-7146
stém	-7147
▁dite	-7148
▁impos	-7149
▁méthodes	-7150
0000430326	-7151
▁masse	-7152
00004612	-7153
▁mineurs	-7154
000039728361|	-7155
000044871736|	-7156
167|	-7157
oivent	-7158
▁certifications	-7159
yré	-7160
gées	-7161
▁thé	-7162
00004323	-7163
000042055	-7164
00004540	-7165
assistance	-7166
▁Mé	-7167
▁TI	-7168
0000379529	-7169
000043156345|1||	-7170
7|1||2|	-7171
Christi	-7172
▁présentée	-7173
exc	-7174
▁pê	-7175
site	-7176
6|1|3|	-7177
0000436646	-7178
iteur	-7179
▁musée	-7180
000043835932|	-7181
.1.	-7182
▁Bruno	-7183
▁identifiée	-7184
Claude	-7185
▁Nice	-7186
ANNEXES	-7187
▁9°	-7188
▁Per	-7189
itées	-7190
yrénées	-7191
000046374	-7192
▁juridiques	-7193
Lé	-7194
0000445478	-7195
▁affectation	-7196
pompiers	-7197
0000427380	-7198
▁aussi	-7199
4|1||2|	-7200
000041894	-7201
000043280	-7202
23|1|	-7203
000043673	-7204
440|	-7205
▁mardi	-7206
▁DÉ	-7207
27|1|	-7208
▁saisie	-7209
▁systém	-7210
▁ultérieurement	-7211
000041491257|	-7212
DT	-7213
299	-7214
438|	-7215
173|	-7216
retagne	-7217
▁niveaux	-7218
▁déconcent	-7219
Vil	-7220
oyé	-7221
éti	-7222
130|	-7223
441|	-7224
ergne	-7225
antill	-7226
auration	-7227
274|	-7228
▁Caen	-7229
00004511	-7230
▁morales	-7231
748|	-7232
00004310	-7233
▁intérêts	-7234
▁portée	-7235
000046768	-7236
▁représentation	-7237
▁121	-7238
▁émis	-7239
/2021-08	-7240
000044518	-7241
00003946	-7242
▁fourniture	-7243
▁technologies	-7244
240|	-7245
▁acte	-7246
▁bate	-7247
▁process	-7248
▁relèvent	-7249
125	-7250
irg	-7251
000043416	-7252
▁distribu	-7253
▁déterminé	-7254
▁Sal	-7255
Sébastien	-7256
000045394007|1||	-7257
364|	-7258
atth	-7259
iette	-7260
itions	-7261
▁issus	-7262
▁1978	-7263
▁coût	-7264
▁Thomas	-7265
▁prévoit	-7266
▁faits	-7267
Esp	-7268
000038235	-7269
4|1||1	-7270
73|1||	-7271
000042525	-7272
ignements	-7273
0000433445	-7274
0000460055	-7275
▁propriétaire	-7276
▁donner	-7277
000044340	-7278
▁naturelle	-7279
com	-7280
istoire	-7281
▁régions	-7282
000043121	-7283
▁placement	-7284
|1|1|3|«	-7285
000042045	-7286
13|—	-7287
000038158	-7288
▁Roy	-7289
EM	-7290
▁détaill	-7291
▁sportif	-7292
▁stagiaire	-7293
▁neur	-7294
▁guerre	-7295
221|	-7296
750|	-7297
3|1|4|	-7298
|1|1|7|	-7299
▁Pl	-7300
ôpital	-7301
▁Bourg	-7302
agissant	-7303
000045470	-7304
▁exploitation	-7305
GER	-7306
▁annuels	-7307
▁Seine	-7308
▁classif	-7309
▁fabrication	-7310
oz	-7311
oite	-7312
▁déterminée	-7313
ICH	-7314
toire	-7315
▁facil	-7316
00004207	-7317
▁321	-7318
▁Associés	-7319
▁disposant	-7320
▁garantissant	-7321
103|	-7322
▁fera	-7323
▁établis	-7324
214|	-7325
000043360205|1||	-7326
783|	-7327
▁fabric	-7328
▁intermédi	-7329
▁laboratoire	-7330
000038559	-7331
135|	-7332
|1||42|	-7333
000045215	-7334
▁vétérinaire	-7335
▁feu	-7336
▁imme	-7337
▁2020-	-7338
000041865	-7339
▁actu	-7340
▁utilisé	-7341
tructions	-7342
000044202262|	-7343
/2019-08	-7344
00004636	-7345
▁envisag	-7346
▁salaire	-7347
000039288	-7348
TC	-7349
113|	-7350
▁311	-7351
▁rouge	-7352
00004205	-7353
000045159	-7354
▁maladies	-7355
428	-7356
astr	-7357
torat	-7358
▁Xavier	-7359
▁parent	-7360
000039050	-7361
▁provisoire	-7362
000046845870	-7363
▁2024	-7364
▁substitu	-7365
▁parc	-7366
LET	-7367
précier	-7368
▁Tours	-7369
000041579	-7370
00004586445	-7371
informations	-7372
opie	-7373
6|1||2|	-7374
20|—	-7375
▁croiss	-7376
000039429	-7377
▁pédiatrie	-7378
5|1||1	-7379
▁etc	-7380
▁norme	-7381
▁condam	-7382
00004413	-7383
▁convoqu	-7384
Bou	-7385
jus	-7386
226|	-7387
6557|	-7388
14,	-7389
sant	-7390
2|1|5|	-7391
Vilaine	-7392
▁mg	-7393
2350|	-7394
zième	-7395
acheteur	-7396
ota	-7397
▁médicales	-7398
725	-7399
▁RÉ	-7400
000044614	-7401
709	-7402
▁désignées	-7403
000041737717|1||	-7404
788	-7405
État	-7406
000043046	-7407
approbation	-7408
égét	-7409
▁bénéficie	-7410
▁françaises	-7411
000038397108|1||	-7412
occup	-7413
manuelle	-7414
-22	-7415
ases	-7416
▁affectée	-7417
échelon	-7418
00004627	-7419
000039685	-7420
▁relation	-7421
ger	-7422
▁face	-7423
itte	-7424
Chaque	-7425
000043258131|	-7426
622|	-7427
00004653	-7428
000042056	-7429
▁compensation	-7430
▁Mari	-7431
▁assurée	-7432
▁pluriann	-7433
ana	-7434
▁SN	-7435
rite	-7436
▁chauff	-7437
00004321	-7438
▁résil	-7439
00004180	-7440
000045068	-7441
.2.	-7442
TAN	-7443
215|	-7444
382|	-7445
ubles	-7446
00003863	-7447
000043339599|	-7448
▁reste	-7449
Charles	-7450
3|1|3|1|	-7451
▁méthode	-7452
000043339600	-7453
drien	-7454
idents	-7455
▁déplacements	-7456
reux	-7457
ONNEL	-7458
▁employés	-7459
229|	-7460
▁Bes	-7461
▁valorisation	-7462
oun	-7463
160|	-7464
David	-7465
|1||43|	-7466
▁soumise	-7467
000044388258|	-7468
257|	-7469
▁Bar	-7470
60|1||	-7471
▁synthèse	-7472
0000467917	-7473
▁coordonnées	-7474
aisiss	-7475
▁diplom	-7476
▁processus	-7477
ITÉ	-7478
BERT	-7479
133|	-7480
ironde	-7481
▁végét	-7482
▁rappor	-7483
Stéphane	-7484
infrastructure	-7485
1|1|6|	-7486
▁admise	-7487
▁Dire	-7488
25|«	-7489
119|	-7490
▁sapeurs	-7491
000039698	-7492
000046049	-7493
inspecteur	-7494
aëlle	-7495
000042515	-7496
ançon	-7497
000043530	-7498
▁intervient	-7499
000045615085|	-7500
ays	-7501
192|	-7502
▁561-	-7503
▁Première	-7504
▁Ne	-7505
▁ach	-7506
▁mat	-7507
/2022-12-	-7508
▁opérationnelle	-7509
000038021	-7510
▁assurant	-7511
▁fournisseur	-7512
2|1|7|	-7513
session	-7514
ara	-7515
aleur	-7516
arrêt	-7517
2|1||3|	-7518
▁prorog	-7519
▁troupes	-7520
réditation	-7521
OY	-7522
▁motif	-7523
1|1||3|	-7524
/2022-08	-7525
▁Bl	-7526
odrome	-7527
▁subvention	-7528
▁aura	-7529
ditions	-7530
▁publiée	-7531
to	-7532
535	-7533
QUES	-7534
▁imprimé	-7535
000038827	-7536
000039121	-7537
▁enseignements	-7538
▁exceptionnel	-7539
759|	-7540
observ	-7541
|1|17|	-7542
▁contraire	-7543
ême	-7544
000039309	-7545
▁proposer	-7546
CGT	-7547
▁flu	-7548
▁mén	-7549
▁conser	-7550
▁outils	-7551
▁reconnue	-7552
▁personnalité	-7553
000043190	-7554
▁supplémentaires	-7555
▁Ab	-7556
00004515	-7557
indemnisation	-7558
abeth	-7559
▁mess	-7560
▁greffe	-7561
274|1||	-7562
▁régimes	-7563
000046048	-7564
000043764184|1||	-7565
cin	-7566
▁rémunérations	-7567
▁marchandises	-7568
00004218316	-7569
▁passe	-7570
000041521	-7571
RET	-7572
itoy	-7573
0000388809	-7574
Amiens	-7575
ancien	-7576
Ferrand	-7577
▁candidate	-7578
▁producteur	-7579
2-6	-7580
45|1||	-7581
▁vérifications	-7582
▁Sand	-7583
000042545	-7584
▁homologu	-7585
archit	-7586
accompl	-7587
|1||44|	-7588
▁majorité	-7589
ynécologie	-7590
132|	-7591
▁arme	-7592
▁totalité	-7593
▁orth	-7594
▁prog	-7595
▁indicateurs	-7596
▁%.	-7597
000042619	-7598
000044106	-7599
000045696	-7600
291|	-7601
Ille	-7602
▁viol	-7603
▁régies	-7604
▁Cet	-7605
▁165-1	-7606
▁répartis	-7607
272|	-7608
assi	-7609
▁Brest	-7610
▁campagne	-7611
▁fonctionnelle	-7612
▁Vers	-7613
▁disciplinaire	-7614
▁rendus	-7615
▁publiés	-7616
▁recommandée	-7617
pect	-7618
000042533	-7619
▁accompagné	-7620
▁population	-7621
évalu	-7622
▁communs	-7623
-4,	-7624
147|	-7625
449|	-7626
705|	-7627
organe	-7628
▁Epreuve	-7629
JUSE	-7630
▁extra	-7631
▁distinc	-7632
0000387594	-7633
000038480	-7634
émi	-7635
édant	-7636
000041400	-7637
000041930	-7638
▁commerciale	-7639
▁Corse	-7640
2|1|2|<	-7641
▁décrites	-7642
▁justifie	-7643
▁ir	-7644
phine	-7645
CES	-7646
14|—	-7647
pifrance	-7648
▁maximal	-7649
▁bonne	-7650
000044220	-7651
26|«	-7652
▁formes	-7653
150|	-7654
262|	-7655
290|	-7656
463|	-7657
aliser	-7658
▁automatis	-7659
678	-7660
222|	-7661
5|1||2|	-7662
▁métall	-7663
/2021-12-	-7664
ECOP	-7665
Eric	-7666
▁multipl	-7667
000044019	-7668
7498|	-7669
00004670445	-7670
10°	-7671
ami	-7672
5|1|4|	-7673
ologue	-7674
00004641	-7675
impôt	-7676
▁Arnaud	-7677
▁secteurs	-7678
OG	-7679
4|1|7|	-7680
Jacques	-7681
▁Trésor	-7682
émission	-7683
▁aménagement	-7684
765|	-7685
▁Cécile	-7686
00004284598	-7687
ÉR	-7688
toral	-7689
▁,	-7690
INS	-7691
TIER	-7692
000038918	-7693
▁recommandations	-7694
Azur	-7695
▁partiel	-7696
▁Caroline	-7697
186|	-7698
▁chasse	-7699
▁mut	-7700
000045327	-7701
▁investis	-7702
▁cassation	-7703
▁professions	-7704
▁55	-7705
170|	-7706
andard	-7707
|1|18|	-7708
ARL	-7709
▁08	-7710
▁bulletin	-7711
▁ingénieure	-7712
▁incomp	-7713
▁croissance	-7714
Juge	-7715
▁MOR	-7716
▁tre	-7717
0000433105	-7718
CCP	-7719
érale	-7720
▁2018,	-7721
▁situés	-7722
|1|1|4|«	-7723
▁solution	-7724
▁dudit	-7725
▁seuil	-7726
▁atteint	-7727
▁Véronique	-7728
▁attribuée	-7729
▁admissibles	-7730
646	-7731
▁bar	-7732
anger	-7733
▁131-	-7734
résorer	-7735
▁sortie	-7736
▁poursuiv	-7737
▁nécessité	-7738
36|1||	-7739
▁issue	-7740
▁cotisation	-7741
▁inspecteurs	-7742
▁preuve	-7743
▁quater	-7744
▁globale	-7745
000045959	-7746
▁rapports	-7747
0000382268	-7748
▁Camille	-7749
000044060	-7750
000044516	-7751
▁fraction	-7752
▁quantité	-7753
ÉN	-7754
252|	-7755
▁bois	-7756
000041636	-7757
000045207	-7758
FES	-7759
202|	-7760
▁posi	-7761
0000434966	-7762
▁Jérôme	-7763
▁suppression	-7764
▁transporteur	-7765
112|	-7766
|1||45|	-7767
▁susvisés	-7768
▁Sébastien	-7769
▁circonstances	-7770
alise	-7771
▁desquel	-7772
144|	-7773
6|5°	-7774
exig	-7775
▁filière	-7776
000042219	-7777
▁recevoir	-7778
158|	-7779
ffich	-7780
▁donné	-7781
hygiène	-7782
000044315	-7783
CC	-7784
860	-7785
369|	-7786
00003804	-7787
0000462214	-7788
▁St	-7789
▁pot	-7790
ATIONS	-7791
7|1||1	-7792
000045973	-7793
▁trésorer	-7794
▁transmises	-7795
678|	-7796
AGRS	-7797
▁DEL	-7798
▁portées	-7799
268	-7800
▁compatibles	-7801
734|	-7802
00004364	-7803
mine	-7804
0000388510	-7805
▁déterminer	-7806
EY	-7807
lexis	-7808
▁cohérence	-7809
▁Versailles	-7810
6|<	-7811
730|	-7812
effectue	-7813
▁entraîne	-7814
▁Bas	-7815
4|1|4|	-7816
groupe	-7817
▁74	-7818
▁sév	-7819
▁normales	-7820
358	-7821
000041869	-7822
236|	-7823
adul	-7824
▁voir	-7825
000039626	-7826
000045930	-7827
▁collectifs	-7828
▁approbation	-7829
br	-7830
▁=	-7831
/2020-12	-7832
▁obtenus	-7833
000043548	-7834
▁consiste	-7835
▁présenté	-7836
▁Groupement	-7837
▁définissant	-7838
1|1|7|	-7839
▁minima	-7840
▁motifs	-7841
▁audiovis	-7842
▁Stéphanie	-7843
ato	-7844
248|	-7845
255|	-7846
466|	-7847
troi	-7848
▁programmation	-7849
oll	-7850
auche	-7851
antation	-7852
232|	-7853
▁asse	-7854
Angers	-7855
abriel	-7856
000039234	-7857
000041559	-7858
arn	-7859
▁super	-7860
00004289	-7861
000044615	-7862
▁difficul	-7863
3333|	-7864
habitat	-7865
▁requise	-7866
▁(3	-7867
198|	-7868
▁Cal	-7869
▁tome	-7870
▁génie	-7871
▁sécurisé	-7872
▁gynécologie	-7873
27|«	-7874
irgin	-7875
Lorsqu	-7876
▁habit	-7877
▁destinées	-7878
178	-7879
TREK	-7880
tenir	-7881
▁inclu	-7882
000041858	-7883
▁domm	-7884
▁chefs	-7885
000043576	-7886
0000460039	-7887
176|	-7888
encl	-7889
assure	-7890
|1|8|1|	-7891
/2022-04-	-7892
Pr	-7893
▁allou	-7894
atthieu	-7895
0000441540	-7896
▁attestant	-7897
-1-1	-7898
108|	-7899
Section	-7900
00004668	-7901
térieurs	-7902
▁auxquels	-7903
▁septième	-7904
...)	-7905
▁Bel	-7906
▁détaché	-7907
0000387725	-7908
▁attes	-7909
tration	-7910
000038149	-7911
▁affranch	-7912
▁désignée	-7913
▁trésorerie	-7914
▁paris	-7915
▁âgées	-7916
682|1||	-7917
▁intérim	-7918
183|	-7919
▁Gilles	-7920
RS	-7921
476|	-7922
▁due	-7923
▁nouvel	-7924
▁ordres	-7925
▁contrôlée	-7926
Me	-7927
ION	-7928
536|	-7929
640|	-7930
▁indique	-7931
▁nouveaux	-7932
811|1||	-7933
utilité	-7934
interm	-7935
ordement	-7936
▁atteints	-7937
645	-7938
▁mas	-7939
dique	-7940
72|1|1|	-7941
▁rigueur	-7942
▁élections	-7943
PS	-7944
-21	-7945
tia	-7946
isabeth	-7947
00004505	-7948
000046447	-7949
UM	-7950
▁jou	-7951
▁212-	-7952
▁chanti	-7953
▁+	-7954
00004263	-7955
▁justificatifs	-7956
▁chr	-7957
▁lis	-7958
Centre	-7959
compos	-7960
|1|1|8|	-7961
▁détente	-7962
0000436048	-7963
▁partenaires	-7964
APPEL	-7965
▁Vill	-7966
▁examin	-7967
▁protégée	-7968
eff	-7969
▁routière	-7970
VAL	-7971
▁ciné	-7972
181|	-7973
▁114	-7974
26|1||	-7975
ormand	-7976
000038234	-7977
▁logistique	-7978
▁version	-7979
▁déconcentrés	-7980
446|	-7981
▁déposé	-7982
▁détenues	-7983
invalidité	-7984
▁prononcée	-7985
ata	-7986
ouss	-7987
rains	-7988
▁bass	-7989
▁description	-7990
000043075806|	-7991
Ex	-7992
▁623	-7993
▁Met	-7994
2601|	-7995
▁énum	-7996
▁calculé	-7997
▁ouvriers	-7998
000042434277|	-7999
▁net	-8000
▁brigade	-8001
000042434278	-8002
000042439070|	-8003
000044547930|	-8004
EZ	-8005
189|	-8006
eb	-8007
▁Bulletin	-8008
0000435029	-8009
Ren	-8010
LIER	-8011
odie	-8012
prun	-8013
000044547931|1||	-8014
Maxime	-8015
▁démocr	-8016
000046489074|	-8017
000042439071|1||	-8018
étudi	-8019
▁1994	-8020
▁secret	-8021
And	-8022
quet	-8023
|1||46|	-8024
/2021-12	-8025
▁facturation	-8026
000043075811|1||	-8027
2280|	-8028
endus	-8029
1-4	-8030
|1|2|3|	-8031
/2021-01-	-8032
▁consignations	-8033
▁cat	-8034
▁féd	-8035
▁sen	-8036
douard	-8037
421	-8038
ENS	-8039
lori	-8040
3|1||1	-8041
teindre	-8042
|1|1|3|2°	-8043
cadre	-8044
▁liquidation	-8045
-5,	-8046
▁complet	-8047
000041814	-8048
dom	-8049
▁mixte	-8050
irginie	-8051
00003824	-8052
000046298	-8053
▁statistiques	-8054
VES	-8055
ani	-8056
231|	-8057
626|	-8058
▁œuvres	-8059
00004513	-8060
000038250	-8061
▁législatives	-8062
▁donc	-8063
Xavier	-8064
▁repor	-8065
▁correc	-8066
000038429	-8067
0000420808	-8068
▁participant	-8069
▁120	-8070
▁Hauts	-8071
▁schéma	-8072
000044408	-8073
▁Var	-8074
istor	-8075
izième	-8076
000042614	-8077
000043100	-8078
000046578	-8079
0000463575	-8080
779|	-8081
AULT	-8082
▁PROFES	-8083
000045638	-8084
utr	-8085
péci	-8086
odalités	-8087
▁restric	-8088
000041623565|	-8089
▁propositions	-8090
▁détermination	-8091
▁bloc	-8092
▁dehors	-8093
▁Besançon	-8094
000043776107|	-8095
792|	-8096
000045410	-8097
êchement	-8098
/2020-11-	-8099
intermédi	-8100
▁supérieurs	-8101
accréditation	-8102
sol	-8103
étr	-8104
▁SEL	-8105
00004418	-8106
000039749	-8107
ociations	-8108
loé	-8109
15|—	-8110
6|1|4|	-8111
▁infec	-8112
000042459	-8113
205|	-8114
000041566	-8115
Jus	-8116
▁Laurence	-8117
▁CS	-8118
665|	-8119
âte	-8120
745|	-8121
dent	-8122
▁commandement	-8123
érance	-8124
▁états	-8125
|1||47|	-8126
▁variétés	-8127
0000466522	-8128
000041763631|	-8129
CON	-8130
867|	-8131
▁1985.	-8132
▁subordonn	-8133
578	-8134
778|	-8135
duits	-8136
▁logic	-8137
ciences	-8138
▁contex	-8139
▁réinté	-8140
▁conséquences	-8141
érante	-8142
430	-8143
000043664684|	-8144
000039434	-8145
▁223	-8146
assuré	-8147
▁contact	-8148
000042500	-8149
▁millions	-8150
▁probation	-8151
UX	-8152
344|	-8153
Prov	-8154
▁1990.	-8155
51	-8156
▁séances	-8157
▁transmise	-8158
adjoin	-8159
officier	-8160
000041708	-8161
ila	-8162
159|	-8163
▁citoy	-8164
▁radié	-8165
turation	-8166
▁propose	-8167
000041829	-8168
▁fiscales	-8169
Mer	-8170
impl	-8171
▁FRAN	-8172
▁7.	-8173
381|	-8174
Julie	-8175
000041567	-8176
ISS	-8177
662|	-8178
▁fiscale	-8179
0000392025	-8180
7,	-8181
LER	-8182
VII	-8183
623|	-8184
666|	-8185
1058|	-8186
▁pénal	-8187
▁suivre	-8188
▁Financement	-8189
ost	-8190
729|	-8191
initi	-8192
▁tute	-8193
▁voté	-8194
▁obligation	-8195
ichard	-8196
▁bibli	-8197
▁quoti	-8198
▁adaptations	-8199
▁dues	-8200
▁animaux	-8201
▁confidenti	-8202
oni	-8203
▁Fr	-8204
000042529	-8205
▁individuelles	-8206
uire	-8207
▁Rec	-8208
Espace	-8209
000039110	-8210
0000394947	-8211
000038889182|	-8212
▁*	-8213
▁6.	-8214
aintes	-8215
▁clients	-8216
00004433666	-8217
164|	-8218
▁423	-8219
4334|	-8220
▁imagerie	-8221
▁compétents	-8222
▁intervention	-8223
004|	-8224
2-13	-8225
unis	-8226
00004602969	-8227
▁juridictions	-8228
AE	-8229
▁ray	-8230
000041950	-8231
▁universitaires	-8232
115|	-8233
28|«	-8234
▁plén	-8235
▁progres	-8236
000038565	-8237
▁standard	-8238
180|	-8239
790|	-8240
▁Sau	-8241
économ	-8242
287|	-8243
▁Ville	-8244
Provence	-8245
▁déroulera	-8246
ives	-8247
▁mensuel	-8248
▁Florence	-8249
869	-8250
▁conduit	-8251
▁réparation	-8252
accomplissement	-8253
▁AD	-8254
|1||48|	-8255
|1|1|5|«	-8256
000039378	-8257
raine	-8258
▁ladite	-8259
▁Royaume	-8260
0000434775	-8261
the	-8262
543|	-8263
589|	-8264
000046180	-8265
▁huissière	-8266
atriculation	-8267
▁hiérarchique	-8268
icien	-8269
▁signal	-8270
0000421650	-8271
▁délivrés	-8272
2-4	-8273
▁Julie	-8274
▁location	-8275
▁participe	-8276
abrice	-8277
ervice	-8278
veloppement	-8279
▁permettent	-8280
▁hydr	-8281
▁larg	-8282
adulte	-8283
207|1||	-8284
▁ASSOCI	-8285
000045523	-8286
anche	-8287
▁préfec	-8288
onnement	-8289
▁moteurs	-8290
assistant	-8291
▁permanent	-8292
provisionnement	-8293
▁Es	-8294
▁SE	-8295
neté	-8296
000043023	-8297
▁réunions	-8298
156|	-8299
▁prép	-8300
MAR	-8301
140|	-8302
195|	-8303
Romain	-8304
institut	-8305
▁compagn	-8306
23|1||	-8307
000041920	-8308
▁retraits	-8309
atre	-8310
63|1|	-8311
▁prévoy	-8312
épreuves	-8313
▁jugement	-8314
▁Q	-8315
emple	-8316
▁civiles	-8317
▁culturels	-8318
▁conférences	-8319
▁446	-8320
00004296	-8321
▁routiers	-8322
0000421289	-8323
exposition	-8324
|1|2|2|1°	-8325
▁MON	-8326
ource	-8327
▁agences	-8328
000041857	-8329
145|	-8330
avail	-8331
|1||49|	-8332
▁Didier	-8333
▁auront	-8334
▁maison	-8335
000046422	-8336
643	-8337
ive	-8338
▁Mal	-8339
▁label	-8340
▁altern	-8341
Atlantique	-8342
000038359386|	-8343
▁orientations	-8344
IOM	-8345
ARTIC	-8346
0000388278	-8347
746|	-8348
rice	-8349
▁513	-8350
000045389	-8351
0000456415	-8352
000038232601|	-8353
61	-8354
▁dig	-8355
▁enj	-8356
▁reçu	-8357
▁revenu	-8358
/2020-12-	-8359
747	-8360
275|	-8361
29|«	-8362
▁Mor	-8363
Maritime	-8364
▁démarche	-8365
0000427536	-8366
igr	-8367
348|	-8368
00003936	-8369
▁adaptée	-8370
▁coopérative	-8371
▁exemplaires	-8372
▁éventuelles	-8373
TIF	-8374
outes	-8375
10.	-8376
269|	-8377
édure	-8378
000038185	-8379
▁délibérations	-8380
407|	-8381
468|	-8382
▁ZIT	-8383
00004453	-8384
00004347759	-8385
719	-8386
▁très	-8387
▁déclaré	-8388
462|	-8389
496|	-8390
▁décès	-8391
▁votre	-8392
ormandie	-8393
▁auxquelles	-8394
▁Rhône	-8395
0000459730	-8396
▁constatant	-8397
000044553428|	-8398
625	-8399
▁226	-8400
ultan	-8401
▁consol	-8402
Yves	-8403
▁contac	-8404
▁renouvelé	-8405
.)	-8406
ousse	-8407
▁2019-	-8408
erte	-8409
▁évé	-8410
▁probl	-8411
▁revenus	-8412
▁téléphone	-8413
▁pourv	-8414
▁report	-8415
Laure	-8416
▁lycée	-8417
000042565	-8418
000038115180|1||	-8419
▁informé	-8420
00003969929	-8421
▁praticiens	-8422
000045695763|	-8423
Conseil	-8424
000044319	-8425
amps	-8426
▁Marg	-8427
288|	-8428
000039060	-8429
▁Sol	-8430
42|1|	-8431
▁souscr	-8432
enclature	-8433
▁infractions	-8434
034	-8435
▁eu	-8436
▁améli	-8437
▁forces	-8438
000043884	-8439
▁Ac	-8440
anque	-8441
▁cell	-8442
00003926	-8443
000046538	-8444
PH	-8445
▁dépasse	-8446
Vu	-8447
ilib	-8448
▁Fab	-8449
▁impér	-8450
▁venti	-8451
000041880	-8452
▁tourisme	-8453
▁vins	-8454
nation	-8455
▁Louise	-8456
35|1|	-8457
000038670	-8458
(1)	-8459
791|	-8460
000041617	-8461
412	-8462
LIC	-8463
▁05	-8464
▁Denis	-8465
3|1||3|	-8466
Pauline	-8467
colonne	-8468
00004338	-8469
000043519	-8470
▁résident	-8471
▁conjointement	-8472
758	-8473
719|	-8474
igny	-8475
00003912	-8476
/2020-01-	-8477
▁scolarité	-8478
000039457498|	-8479
▁immun	-8480
▁extraord	-8481
DF	-8482
magne	-8483
▁copropr	-8484
AGE	-8485
|1|1|3	-8486
/2019-11-	-8487
000038625	-8488
rup	-8489
246|	-8490
|1|4|2|	-8491
▁combus	-8492
000039323	-8493
000043390	-8494
000046720	-8495
▁dématérialisée	-8496
aie	-8497
▁Be	-8498
▁Beau	-8499
tig	-8500
ascale	-8501
▁Lycée	-8502
0000442139	-8503
▁magistrate	-8504
▁annexée	-8505
▁comprise	-8506
▁opérationnel	-8507
OUX	-8508
Mathilde	-8509
▁modifiées	-8510
mon	-8511
idé	-8512
anat	-8513
▁mineur	-8514
▁chaleur	-8515
0000429317	-8516
▁disposent	-8517
▁étrangère	-8518
355|	-8519
▁dépist	-8520
00004455434	-8521
000046768510|	-8522
▁MA	-8523
▁autonom	-8524
000038449	-8525
▁naturels	-8526
▁comptabilité	-8527
RAND	-8528
29|1|	-8529
▁électrique	-8530
000042592280|	-8531
878	-8532
00003806	-8533
|1|1|2|—	-8534
employeurs	-8535
538|	-8536
0000467940	-8537
dern	-8538
avoie	-8539
0000414388	-8540
0000427229	-8541
▁volontaire	-8542
▁indiqué	-8543
▁pharmaceutique	-8544
PÉ	-8545
16|—	-8546
▁via	-8547
▁grat	-8548
▁enregistrées	-8549
escad	-8550
▁mentions	-8551
▁renseign	-8552
▁assurances	-8553
▁contractuelle	-8554
▁administration	-8555
30|«	-8556
31|1|	-8557
itième	-8558
00004609	-8559
000043877	-8560
▁simultan	-8561
architecture	-8562
▁vous	-8563
▁motivée	-8564
▁qualifications	-8565
171|	-8566
603|	-8567
▁augment	-8568
empêchement	-8569
▁contribuant	-8570
▁restauration	-8571
000045615086|1||	-8572
▁théor	-8573
ospitalier	-8574
271|	-8575
▁tenus	-8576
ventaire	-8577
▁décédée	-8578
▁notifiée	-8579
▁populations	-8580
DU	-8581
Sa	-8582
357|	-8583
oges	-8584
▁proch	-8585
/2019-12	-8586
▁attribué	-8587
0000422058	-8588
▁Bi	-8589
|1|1|6|«	-8590
▁principe	-8591
0000419397	-8592
588|	-8593
Flor	-8594
▁bat	-8595
52|1||	-8596
▁PROFESSI	-8597
▁spécialisés	-8598
000045780470|	-8599
Che	-8600
▁restruc	-8601
000046169	-8602
0000441773	-8603
aune	-8604
itié	-8605
00004229	-8606
▁partage	-8607
▁délivrer	-8608
▁fédération	-8609
ific	-8610
86|1||	-8611
000038726	-8612
6,	-8613
529	-8614
333|	-8615
▁classées	-8616
▁exercent	-8617
0000387728	-8618
000042722672|	-8619
vin	-8620
2.1.	-8621
Sylv	-8622
▁OFF	-8623
aisses	-8624
Thierry	-8625
▁fixation	-8626
efficacité	-8627
▁localement	-8628
▁biologiques	-8629
000039668279|	-8630
000044554334|	-8631
000044388259|1||	-8632
EAEA	-8633
▁Commandant	-8634
000039699283|	-8635
000042665307|	-8636
off	-8637
èges	-8638
▁spect	-8639
appellation	-8640
▁confirm	-8641
▁Convention	-8642
▁BP	-8643
abil	-8644
▁rais	-8645
|1||12|—	-8646
▁10°	-8647
▁sept	-8648
formes	-8649
▁repris	-8650
00004355	-8651
000045185	-8652
▁exécution	-8653
/2020-10	-8654
108|1||	-8655
000042169	-8656
000043835	-8657
216|	-8658
444|	-8659
▁Pau	-8660
▁achats	-8661
▁Ter	-8662
Arnaud	-8663
000038109	-8664
000045978	-8665
▁révision	-8666
▁Te	-8667
crise	-8668
0000461319	-8669
000039191413|	-8670
ty	-8671
Clément	-8672
▁Bretagne	-8673
▁pouvoirs	-8674
OB	-8675
antal	-8676
llemagne	-8677
▁Institut	-8678
▁conducteur	-8679
343|	-8680
00004655	-8681
interdiction	-8682
000046791754|	-8683
▁512	-8684
édric	-8685
uble	-8686
|1|1|4	-8687
▁blind	-8688
▁conver	-8689
▁tutelle	-8690
000045458	-8691
TIN	-8692
▁",	-8693
▁Can	-8694
▁choisi	-8695
▁longue	-8696
▁conclus	-8697
000042577	-8698
▁horaires	-8699
0000393060	-8700
▁gestionnaires	-8701
OV	-8702
▁énonc	-8703
préfète	-8704
▁contractantes	-8705
▁extraordinaire	-8706
000044889	-8707
▁souhaite	-8708
pir	-8709
isol	-8710
iver	-8711
▁trad	-8712
▁inscrite	-8713
▁char	-8714
000038029	-8715
000042106	-8716
000042886	-8717
000043496	-8718
0000424821	-8719
114|	-8720
/2022-10	-8721
▁2003	-8722
0000456970	-8723
▁Dispositions	-8724
000046115	-8725
000044740106|	-8726
577	-8727
▁Yv	-8728
▁AUX	-8729
▁2006-	-8730
▁caval	-8731
▁stric	-8732
0559	-8733
141|	-8734
461|	-8735
▁Dou	-8736
30|1|	-8737
ointe	-8738
▁remet	-8739
|1|1|3|—	-8740
▁déroule	-8741
▁précédente	-8742
213|	-8743
32|1|	-8744
▁dérouleront	-8745
▁and	-8746
00004313	-8747
▁huissiers	-8748
fort	-8749
28|1|	-8750
0000467530	-8751
▁PROFESSIONNEL	-8752
467|	-8753
▁511	-8754
00004599	-8755
6|1|3|1|	-8756
000042749	-8757
▁radiologie	-8758
ORD	-8759
▁merc	-8760
▁racc	-8761
Hélène	-8762
▁stages	-8763
▁retenue	-8764
000045873	-8765
▁assimilés	-8766
▁immobilier	-8767
Se	-8768
104|	-8769
613|	-8770
amien	-8771
▁maîtres	-8772
000041789	-8773
000044027	-8774
▁recrutements	-8775
247|	-8776
▁20.	-8777
ayant	-8778
2||2|<	-8779
entine	-8780
▁utilisation	-8781
Tit	-8782
237|	-8783
000043534	-8784
versement	-8785
▁familiales	-8786
▁intervenant	-8787
▁spécialisées	-8788
/2019-10	-8789
effectuer	-8790
0000444470	-8791
CA	-8792
Côte	-8793
▁pie	-8794
gérie	-8795
/2021-04-	-8796
000043179	-8797
▁constaté	-8798
▁dénommée	-8799
CN	-8800
000043216	-8801
0000451675	-8802
▁internationaux	-8803
545	-8804
▁300	-8805
▁veiller	-8806
▁consulté	-8807
▁cavalerie	-8808
▁rup	-8809
|1|1|9|	-8810
000045298	-8811
00004417734	-8812
▁secrétaires	-8813
000044177336|	-8814
▁242-	-8815
▁rappel	-8816
1-5	-8817
▁77	-8818
706|	-8819
umes	-8820
Franc	-8821
27|1||	-8822
▁effective	-8823
oport	-8824
/2022-06-	-8825
000043798	-8826
0000382326	-8827
228	-8828
ton	-8829
▁CHAR	-8830
▁SNCF	-8831
00004560	-8832
499	-8833
200|	-8834
284|	-8835
-25	-8836
▁eux	-8837
ournée	-8838
▁électeurs	-8839
ka	-8840
TEL	-8841
outi	-8842
▁dange	-8843
0000416234	-8844
0000441559	-8845
TEN	-8846
lexandra	-8847
000038048	-8848
▁dernières	-8849
000042148266|	-8850
46|1|	-8851
entraî	-8852
Moselle	-8853
000043327	-8854
aérodrome	-8855
▁dépistage	-8856
▁indication	-8857
▁qualifiées	-8858
270|	-8859
▁Cas	-8860
41|1|	-8861
ammes	-8862
andes	-8863
chéance	-8864
▁pêches	-8865
▁utilisées	-8866
298|	-8867
398|	-8868
754|	-8869
ucun	-8870
▁clau	-8871
areils	-8872
000039440	-8873
000042148270	-8874
▁susmentionné	-8875
▁Prov	-8876
559	-8877
éth	-8878
368|	-8879
▁ponc	-8880
Pascal	-8881
umab	-8882
▁treizième	-8883
000042760548|	-8884
1|1||4|	-8885
▁ailleurs	-8886
▁effectif	-8887
000042592350|	-8888
els	-8889
TERB	-8890
▁banc	-8891
va	-8892
/19	-8893
hum	-8894
▁Nom	-8895
▁Monique	-8896
▁adaptées	-8897
vi	-8898
626	-8899
SPR	-8900
2724	-8901
31|«	-8902
▁SAS	-8903
00004159	-8904
ativement	-8905
directrice	-8906
▁Bpifrance	-8907
▁organisés	-8908
▁technologique	-8909
697|	-8910
arde	-8911
ovic	-8912
▁1982	-8913
▁effic	-8914
▁tests	-8915
▁classés	-8916
ym	-8917
2-12	-8918
000045155	-8919
▁3°,	-8920
▁virus	-8921
▁enjeux	-8922
chercheurs	-8923
ini	-8924
▁".	-8925
▁CAS	-8926
▁sort	-8927
000038669	-8928
▁respecte	-8929
▁Form	-8930
▁loisir	-8931
▁élément	-8932
▁logiciel	-8933
▁définitif	-8934
rogr	-8935
Quentin	-8936
000043310421|	-8937
atiqu	-8938
▁visa	-8939
écurité	-8940
▁112	-8941
/2019-01-	-8942
ieutenant	-8943
ART	-8944
370|	-8945
ontre	-8946
▁liée	-8947
olérance	-8948
▁vitesse	-8949
000042310	-8950
▁européennes	-8951
▁Bé	-8952
▁implant	-8953
▁résidant	-8954
11°	-8955
24-	-8956
Oise	-8957
▁forêt	-8958
▁command	-8959
alm	-8960
393|	-8961
|1||13|—	-8962
expression	-8963
▁fai	-8964
▁pratiqu	-8965
000046090	-8966
▁personnelles	-8967
▁9,	-8968
euse	-8969
▁contexte	-8970
▁répondant	-8971
rey	-8972
499|	-8973
▁Gil	-8974
Ouest	-8975
4|1|3|1|	-8976
Caroline	-8977
000042322	-8978
▁échanges	-8979
▁Ma	-8980
760|	-8981
761|	-8982
établ	-8983
▁couv	-8984
00004576	-8985
00004630	-8986
0000454127	-8987
ots	-8988
leine	-8989
▁Gén	-8990
ssants	-8991
▁experts	-8992
auth	-8993
▁orig	-8994
alisés	-8995
endues	-8996
▁signific	-8997
000042846606|	-8998
380|	-8999
nant	-9000
▁end	-9001
000038534	-9002
000042424	-9003
▁concessionnaire	-9004
297|	-9005
▁prud	-9006
00004034	-9007
▁portail	-9008
/2019-03-	-9009
▁chauffage	-9010
000042760559	-9011
7|<	-9012
301|	-9013
000044030	-9014
▁résiliation	-9015
▁COL	-9016
lémence	-9017
Emmanuel	-9018
▁complète	-9019
0000396840	-9020
142|	-9021
Marion	-9022
▁blindée	-9023
hérèse	-9024
7|1||3|	-9025
imination	-9026
▁composer	-9027
0000394529	-9028
▁automatisé	-9029
▁confidentialité	-9030
8900	-9031
▁institué	-9032
▁terrains	-9033
▁démocratique	-9034
cdg	-9035
330|	-9036
▁Museum	-9037
▁droite	-9038
000043477594|	-9039
ARS	-9040
042|	-9041
0000426077	-9042
00004424589	-9043
00004480628	-9044
.00”	-9045
4|1||3|	-9046
▁double	-9047
▁représente	-9048
▁coordonnateur	-9049
▁métropolitaine	-9050
419	-9051
ORT	-9052
739|	-9053
▁connexes	-9054
0000441258	-9055
MER	-9056
atricia	-9057
0000439857	-9058
009|	-9059
Nord	-9060
LISTE	-9061
▁interdit	-9062
0000430327	-9063
▁biologique	-9064
17|—	-9065
388|	-9066
Algérie	-9067
VEN	-9068
Unis	-9069
▁moitié	-9070
209|	-9071
omme	-9072
0000464379	-9073
397|	-9074
▁int	-9075
00003876	-9076
▁cardiov	-9077
000038325	-9078
▁pourcent	-9079
ographique	-9080
EX	-9081
347|	-9082
▁160	-9083
▁arrê	-9084
Charlotte	-9085
000038230	-9086
000043679	-9087
intermédiaire	-9088
6)	-9089
▁SUR	-9090
Supplé	-9091
00004341	-9092
▁Limoges	-9093
▁Raymond	-9094
000043716	-9095
▁150	-9096
3810|	-9097
/2021-10	-9098
atologie	-9099
000045848	-9100
0000424999	-9101
▁volontaires	-9102
000045244038|1||	-9103
CL	-9104
▁i	-9105
▁72	-9106
5|1||3	-9107
▁porté	-9108
▁Albert	-9109
▁69	-9110
116|	-9111
▁Fonds	-9112
queline	-9113
▁anticip	-9114
▁conclusion	-9115
▁RA	-9116
3230	-9117
4|«-	-9118
74|1||	-9119
▁routier	-9120
0000437714	-9121
▁tâ	-9122
▁explo	-9123
iliation	-9124
Del	-9125
▁2002	-9126
▁régis	-9127
▁notifie	-9128
▁Jos	-9129
759|1||	-9130
▁NATION	-9131
▁Hospitalier	-9132
aérone	-9133
▁conven	-9134
▁restre	-9135
00004311	-9136
000038880	-9137
▁approuvé	-9138
ESS	-9139
CHER	-9140
▁brut	-9141
assade	-9142
▁agréée	-9143
000046794190|	-9144
38|1|	-9145
000046618	-9146
▁intitulé	-9147
▁communiqués	-9148
▁tu	-9149
ubert	-9150
▁Victor	-9151
0000464322	-9152
714	-9153
VER	-9154
tiens	-9155
7|1|4|	-9156
▁caisses	-9157
000038850	-9158
000041763632|1||	-9159
▁index	-9160
▁facult	-9161
▁sévère	-9162
▁humaine	-9163
0000387922	-9164
▁respectives	-9165
▁réintégration	-9166
2.2.	-9167
2|3|	-9168
601|	-9169
illon	-9170
▁histor	-9171
208	-9172
249|	-9173
▁annul	-9174
2|1||4|	-9175
▁donnant	-9176
000039416	-9177
▁8,	-9178
327|	-9179
353|	-9180
34|1|	-9181
asser	-9182
69|1||	-9183
▁anciens	-9184
▁spectac	-9185
▁infirmiers	-9186
▁stratégique	-9187
INI	-9188
▁BEN	-9189
échange	-9190
▁adapté	-9191
▁marins	-9192
00003815	-9193
▁recueil	-9194
▁établies	-9195
0000438619	-9196
Affectation	-9197
▁UE	-9198
295|	-9199
7706|	-9200
▁catastr	-9201
▁directe	-9202
▁transit	-9203
▁déterminées	-9204
▁réglementés	-9205
▁destinataire	-9206
▁633	-9207
▁élevé	-9208
▁reçoit	-9209
▁proposé	-9210
000043547	-9211
▁dommages	-9212
▁faciliter	-9213
▁412	-9214
amens	-9215
Chapitre	-9216
/2019-06-	-9217
5)	-9218
151|	-9219
▁5126	-9220
aphaël	-9221
évaluer	-9222
/2019-07	-9223
▁délégués	-9224
épartemental	-9225
▁ressortissants	-9226
OUS	-9227
▁AC	-9228
uits	-9229
|1||50|	-9230
000039700	-9231
000038821260|	-9232
265|	-9233
392|	-9234
ujet	-9235
▁Hervé	-9236
▁réclam	-9237
▁équipe	-9238
7|1|3|1|	-9239
000043040	-9240
162|	-9241
ITÉS	-9242
redi	-9243
0000430816	-9244
ellée	-9245
ernité	-9246
▁institutions	-9247
530|	-9248
▁signée	-9249
▁consent	-9250
bo	-9251
529|	-9252
argne	-9253
▁1979	-9254
▁versé	-9255
000043934	-9256
▁contenant	-9257
▁intervenir	-9258
▁restructuration	-9259
▁58	-9260
117|	-9261
▁SELARL	-9262
5|1|3|1|	-9263
000038100	-9264
▁étranger	-9265
▁reçoivent	-9266
▁vétérinaires	-9267
1-7	-9268
040|	-9269
ANCE	-9270
▁accordé	-9271
▁apporte	-9272
000038028	-9273
000044361959|	-9274
717	-9275
fac	-9276
39|1|	-9277
dernier	-9278
▁indiquant	-9279
▁intéressés	-9280
▁raccordement	-9281
CD	-9282
352|	-9283
577|	-9284
000043490	-9285
▁éligible	-9286
▁Charlotte	-9287
460|	-9288
▁couvr	-9289
00004255	-9290
000043075486|	-9291
▁BR	-9292
orce	-9293
▁Kar	-9294
/2019-12-	-9295
000043268	-9296
ographiques	-9297
000043522969|	-9298
cé	-9299
Thib	-9300
▁lié	-9301
artis	-9302
alisées	-9303
00003818	-9304
▁Autorité	-9305
391|	-9306
426|	-9307
▁233	-9308
000045288	-9309
120|	-9310
1640	-9311
▁décider	-9312
000043522970	-9313
ament	-9314
000044327322|	-9315
389|	-9316
▁indé	-9317
▁maje	-9318
▁regr	-9319
00004483	-9320
000038135	-9321
000042607706|	-9322
000044547027|	-9323
▁considération	-9324
inal	-9325
exist	-9326
▁glace	-9327
▁solde	-9328
6|1||3|	-9329
000039160	-9330
0000456418	-9331
▁particulière	-9332
Dé	-9333
▁dent	-9334
▁série	-9335
▁prenant	-9336
000043909	-9337
000044410	-9338
▁Bertrand	-9339
▁consultations	-9340
Cour	-9341
durée	-9342
▁couverture	-9343
000045940273|	-9344
38|1|1|	-9345
▁limiter	-9346
0000461866	-9347
▁électoral	-9348
▁artistique	-9349
-26	-9350
312|	-9351
stance	-9352
▁préserv	-9353
0000388122	-9354
▁math	-9355
80|1||	-9356
▁prêts	-9357
▁frau	-9358
entité	-9359
▁inves	-9360
000038140	-9361
cf	-9362
OSS	-9363
▁1996	-9364
ulaires	-9365
▁concertation	-9366
0000384922	-9367
0000387300	-9368
▁Sa	-9369
iscipl	-9370
▁validé	-9371
adeleine	-9372
▁petites	-9373
▁culturelles	-9374
Maritimes	-9375
▁mercredi	-9376
▁détection	-9377
575	-9378
▁cô	-9379
6|3°	-9380
urant	-9381
▁assuré	-9382
▁suivie	-9383
▁utilisateurs	-9384
7)	-9385
▁circons	-9386
▁dialogue	-9387
▁Mes	-9388
/2022-03-	-9389
0000468370	-9390
351|	-9391
408|	-9392
même	-9393
▁ill	-9394
▁accusé	-9395
▁rendre	-9396
/2020-02-	-9397
000038919	-9398
000046837	-9399
00003966828	-9400
▁contrôleurs	-9401
▁Sec	-9402
▁66	-9403
▁Chef	-9404
/2019-02-	-9405
tissement	-9406
Organisation	-9407
000038889626|	-9408
8,	-9409
544	-9410
674	-9411
535|	-9412
7|1|5|	-9413
|1||14|—	-9414
▁résulte	-9415
▁addition	-9416
▁composantes	-9417
▁Sch	-9418
▁raisons	-9419
▁ASSOCIES	-9420
land	-9421
▁MARTI	-9422
▁codes	-9423
0000432586	-9424
▁scolaires	-9425
urveillance	-9426
78|1|	-9427
▁destiné	-9428
0000423229	-9429
▁len	-9430
Orient	-9431
|1||51|	-9432
▁sièges	-9433
▁organisatrice	-9434
174|	-9435
473|	-9436
ilie	-9437
Futuna	-9438
▁utile	-9439
31|1|1|	-9440
00004342	-9441
00004366468	-9442
▁documentation	-9443
ape	-9444
▁inten	-9445
▁propag	-9446
▁satisfaire	-9447
▁2001	-9448
▁marqu	-9449
▁équipes	-9450
organismes	-9451
000046040531|	-9452
OND	-9453
Uni	-9454
anet	-9455
▁Deux	-9456
16|1||	-9457
▁formule	-9458
000037953	-9459
▁capitalis	-9460
ÉRA	-9461
▁privil	-9462
▁Conditions	-9463
000042731259|	-9464
18|—	-9465
524|	-9466
6|2°	-9467
telle	-9468
▁seuls	-9469
▁cellules	-9470
auc	-9471
▁Ap	-9472
▁Ver	-9473
▁kil	-9474
▁prés	-9475
demain	-9476
▁	-9477
e	-9478
0	-9479
i	-9480
s	-9481
t	-9482
a	-9483
n	-9484
r	-9485
o	-9486
l	-9487
d	-9488
|	-9489
u	-9490
c	-9491
1	-9492
é	-9493
4	-9494
R	-9495
T	-9496
2	-9497
p	-9498
m	-9499
3	-9500
O	-9501
F	-9502
J	-9503
5	-9504
6	-9505
8	-9506
9	-9507
7	-9508
E	-9509
A	-9510
I	-9511
'	-9512
f	-9513
,	-9514
v	-9515
X	-9516
g	-9517
.	-9518
b	-9519
h	-9520
-	-9521
L	-9522
q	-9523
x	-9524
à	-9525
M	-9526
)	-9527
C	-9528
S	-9529
(	-9530
è	-9531
:	-9532
P	-9533
/	-9534
j	-9535
ê	-9536
«	-9537
N	-9538
D	-9539
;	-9540
y	-9541
°	-9542
U	-9543
»	-9544
—	-9545
V	-9546
B	-9547
G	-9548
H	-9549
z	-9550
ç	-9551
ô	-9552
É	-9553
k	-9554
û	-9555
Y	-9556
<	-9557
w	-9558
>	-9559
K	-9560
î	-9561
Z	-9562
œ	-9563
â	-9564
"	-9565
Q	-9566
”	-9567
W	-9568
“	-9569
%	-9570
€	-9571
ë	-9572
ï	-9573
ù	-9574
_	-9575
*	-9576
È	-9577
À	-9578
[	-9579
]	-9580
@	-9581
&	-9582
+	-9583
=	-9584
×	-9585
ʹ	-9586
ʺ	-9587
§	-9588
Ô	-9589
□	-9590
Ê	-9591
Ç	-9592
?	-9593
ü	-9594
Î	-9595
−	-9596
‒	-9597
α	-9598
Ë	-9599
Ï	-9600
≥	-9601
Â	-9602
‘	-9603
β	-9604
Œ	-9605
á	-9606
ä	-9607
ö	-9608
≤	-9609
í	-9610
®	-9611
ó	-9612
•	-9613
μ	-9614
⁄	-9615
±	-9616
Û	-9617
→	-9618
Δ	-9619
́	-9620
Ü	-9621
′	-9622
∆	-9623
‐	-9624
#	-9625
Ö	-9626
!	-9627
İ	-9628
̀	-9629
ñ	-9630
æ	-9631
■	-9632
ÿ	-9633
ú	-9634
η	-9635
―	-9636
е	-9637
и	-9638
ß	-9639
ã	-9640
数	-9641
ø	-9642
н	-9643
с	-9644
Ä	-9645
о	-9646
λ	-9647
Ÿ	-9648
ˮ	-9649
~	-9650
σ	-9651
т	-9652
а	-9653
в	-9654
∑	-9655
{	-9656
}	-9657
К	-9658
ε	-9659
р	-9660
─	-9661
δ	-9662
τ	-9663
å	-9664
ý	-9665
ă	-9666
ς	-9667
公	-9668
ě	-9669
к	-9670
函	-9671
ű	-9672
ƒ	-9673
φ	-9674
Ñ	-9675
Ó	-9676
ο	-9677
у	-9678
◻	-9679
ć	-9680
š	-9681
θ	-9682
П	-9683
Р	-9684
д	-9685
л	-9686
·	-9687
Á	-9688
Ø	-9689
Č	-9690
π	-9691
ρ	-9692
М	-9693
ы	-9694
式	-9695
形	-9696
方	-9697
等	-9698
Å	-9699
ţ	-9700
ί	-9701
κ	-9702
м	-9703
’	-9704
标	-9705
^	-9706
ń	-9707
Н	-9708
п	-9709
‰	-9710
列	-9711
坐	-9712
©	-9713
ò	-9714
ι	-9715
б	-9716
й	-9717
☐	-9718
体	-9719
分	-9720
角	-9721
递	-9722
Ã	-9723
Í	-9724
ì	-9725
ā	-9726
č	-9727
ī	-9728
Σ	-9729
ν	-9730
Г	-9731
х	-9732
一	-9733
三	-9734
值	-9735
圆	-9736
差	-9737
次	-9738
比	-9739
的	-9740
Ú	-9741
ʼ	-9742
Ж	-9743
ь	-9744
∙	-9745
√	-9746
∞	-9747
术	-9748
算	-9749
项	-9750
õ	-9751
Ē	-9752
ț	-9753
Ε	-9754
ά	-9755
ζ	-9756
υ	-9757
ό	-9758
А	-9759
г	-9760
ж	-9761
‟	-9762
►	-9763
●	-9764
不	-9765
交	-9766
亩	-9767
减	-9768
号	-9769
因	-9770
图	-9771
增	-9772
导	-9773
斤	-9774
正	-9775
率	-9776
理	-9777
直	-9778
系	-9779
线	-9780
边	-9781
里	-9782
量	-9783
集	-9784
面	-9785
ę	-9786
ů	-9787
ų	-9788
ž	-9789
ș	-9790
Ȧ	-9791
̧	-9792
Α	-9793
γ	-9794
χ	-9795
Ѐ	-9796
Л	-9797
з	-9798
ч	-9799
я	-9800
Ễ	-9801
‍	-9802
九	-9803
单	-9804
可	-9805
定	-9806
平	-9807
性	-9808
无	-9809
点	-9810
积	-9811
程	-9812
章	-9813
统	-9814
计	-9815
调	-9816
象	-9817
长	-9818
$	-9819
`	-9820
	-9821
	-9822
¢	-9823
¿	-9824
Ù	-9825
ē	-9826
ğ	-9827
ı	-9828
Ł	-9829
ş	-9830
Ž	-9831
̊	-9832
Ρ	-9833
ή	-9834
ψ	-9835
ω	-9836
В	-9837
Д	-9838
З	-9839
С	-9840
Х	-9841
ц	-9842
ш	-9843
щ	-9844
ё	-9845
Ậ	-9846
‬	-9847
≠	-9848
丈	-9849
两	-9850
个	-9851
事	-9852
二	-9853
件	-9854
兆	-9855
切	-9856
刘	-9857
割	-9858
勾	-9859
十	-9860
变	-9861
向	-9862
四	-9863
寸	-9864
小	-9865
尺	-9866
带	-9867
干	-9868
年	-9869
并	-9870
底	-9871
径	-9872
徽	-9873
支	-9874
最	-9875
机	-9876
极	-9877
果	-9878
根	-9879
棱	-9880
概	-9881
法	-9882
百	-9883
穷	-9884
符	-9885
筹	-9886
纪	-9887
结	-9888
股	-9889
能	-9890
自	-9891
解	-9892
试	-9893
距	-9894
锥	-9895
随	-9896
顷	-9897
频	-9898
首	-9899
验	-9900
高	-9901
	-9902
ą	-9903
Ć	-9904
ĕ	-9905
Ė	-9906
ė	-9907
ķ	-9908
ł	-9909
ő	-9910
Š	-9911
Ũ	-9912
ũ	-9913
ź	-9914
ȋ	-9915
˗	-9916
̂	-9917
Κ	-9918
Τ	-9919
Υ	-9920
Ψ	-9921
І	-9922
И	-9923
О	-9924
У	-9925
Ш	-9926
Э	-9927
ъ	-9928
ю	-9929
ї	-9930
Ầ	-9931
ề	-9932
–	-9933
≈	-9934
│	-9935
、	-9936
万	-9937
中	-9938
义	-9939
亿	-9940
任	-9941
位	-9942
例	-9943
侧	-9944
偶	-9945
共	-9946
准	-9947
化	-9948
区	-9949
千	-9950
半	-9951
厘	-9952
原	-9953
反	-9954
周	-9955
在	-9956
均	-9957
域	-9958
处	-9959
大	-9960
奇	-9961
子	-9962
学	-9963
容	-9964
布	-9965
弧	-9966
微	-9967
意	-9968
截	-9969
扇	-9970
据	-9971
推	-9972
整	-9973
斜	-9974
曲	-9975
月	-9976
有	-9977
望	-9978
期	-9979
条	-9980
柱	-9981
格	-9982
模	-9983
横	-9984
母	-9985
毫	-9986
气	-9987
然	-9988
球	-9989
矩	-9990
离	-9991
立	-9992
纳	-9993
纵	-9994
组	-9995
腰	-9996
