<unk>	0
<s>	0
</s>	0
▁de	-3.04018
'	-3.26395
,	-3.44911
▁l	-3.8529
▁la	-3.88487
▁du	-3.88586
▁	-3.93862
.	-4.10317
s	-4.15098
▁et	-4.15767
▁des	-4.17689
▁à	-4.28992
▁d	-4.31176
▁"	-4.44942
▁les	-4.6277
▁le	-4.6595
."	-4.72715
-	-4.73021
▁au	-4.76313
▁en	-4.8299
▁(	-4.83355
▁:	-4.90153
▁par	-5.06979
)	-5.08043
▁est	-5.10547
▁;	-5.11109
"	-5.21222
▁«	-5.27083
/	-5.27118
—	-5.3316
article	-5.43511
▁ou	-5.43869
▁dans	-5.47763
▁»	-5.55341
▁L	-5.56313
▁pour	-5.61272
▁sont	-5.73281
e	-5.74496
▁aux	-5.76489
▁2022	-5.82477
▁un	-5.9495
▁M	-6.03566
▁sur	-6.04287
A	-6.04752
),	-6.07307
▁Le	-6.09798
er	-6.15008
▁arrêté	-6.15899
▁1	-6.16198
▁ministre	-6.20937
un	-6.22041
▁présent	-6.22988
▁une	-6.26453
▁qui	-6.29502
▁Mme	-6.33084
▁Les	-6.35875
▁code	-6.36619
▁R	-6.39523
une	-6.41116
▁date	-6.43592
▁n	-6.4924
▁fr	-6.49731
°	-6.49789
▁mots	-6.50888
M	-6.51611
lr	-6.52591
▁"«	-6.55563
▁que	-6.55881
▁ainsi	-6.56149
▁portant	-6.66693
▁La	-6.67088
▁A	-6.67831
▁dispositions	-6.68659
▁décret	-6.69718
arrete	-6.74612
▁D	-6.77021
▁alinéa	-6.80207
▁services	-6.80344
es	-6.82838
▁titre	-6.83009
▁être	-6.84857
▁2	-6.86982
▁française	-6.87954
▁République	-6.88674
▁conditions	-6.88952
▁Arrêté	-6.90216
▁général	-6.90605
▁officiel	-6.90735
S	-6.91295
a	-6.92641
▁leur	-6.92915
administration	-6.9326
r	-6.95393
▁Journal	-6.95492
▁sera	-6.96095
▁cas	-6.96115
▁avec	-6.9625
▁I	-6.97079
C	-6.98347
▁a	-6.98429
▁nationale	-6.98676
▁santé	-7.00416
▁ne	-7.03032
▁son	-7.03256
▁ce	-7.03362
▁décembre	-7.03923
▁sécurité	-7.04012
▁2022,	-7.06257
▁directeur	-7.07473
▁sous	-7.08703
▁même	-7.09149
▁compter	-7.10801
▁Au	-7.1171
Mme	-7.12035
▁service	-7.12742
▁générale	-7.13014
de	-7.13136
Le	-7.1327
▁II	-7.13823
▁pas	-7.14131
▁concours	-7.14794
▁ans	-7.1528
Par	-7.15815
▁publié	-7.16358
Etat	-7.16598
▁3	-7.16732
▁publique	-7.17898
▁travail	-7.17927
▁peut	-7.18156
▁chargé	-7.18156
▁C	-7.19021
arrêté	-7.19742
▁c	-7.19881
).	-7.20224
▁4	-7.22303
▁-	-7.2414
▁B	-7.24563
▁dont	-7.24996
▁formation	-7.25243
▁qu	-7.25787
▁susvisé	-7.26516
▁s	-7.26565
D	-7.2746
▁ses	-7.29438
▁professionnelle	-7.30164
▁janvier	-7.3036
▁articles	-7.30628
1	-7.31649
▁relatif	-7.32179
▁1°	-7.33392
c	-7.33415
2	-7.33731
▁5	-7.33766
▁<	-7.34673
TABLE	-7.34698
>	-7.34872
▁demande	-7.35578
L	-7.35814
▁candidats	-7.36015
▁sa	-7.36812
▁2°	-7.39744
▁société	-7.39846
é	-7.39876
près	-7.39931
▁durée	-7.40698
▁juillet	-7.40917
▁mars	-7.43193
▁prévues	-7.43263
▁sociale	-7.43374
3	-7.44108
▁gestion	-7.44323
▁6	-7.44554
cette	-7.44621
ant	-7.44816
▁personnes	-7.45025
B	-7.46036
il	-7.46515
▁premier	-7.46916
▁application	-7.47991
▁liste	-7.47997
▁national	-7.48875
▁modifié	-7.49299
▁fonction	-7.50031
I	-7.50244
▁ministère	-7.50599
▁juin	-7.51264
▁direction	-7.51581
▁il	-7.5219
▁plus	-7.52416
T	-7.5325
▁remplacés	-7.5332
▁chef	-7.5352
l	-7.53558
▁7	-7.54137
▁avril	-7.54237
▁justice	-7.54338
▁ces	-7.54345
▁titulaire	-7.54381
▁Il	-7.54444
▁novembre	-7.54617
▁qualité	-7.54674
ment	-7.55373
▁P	-7.55717
La	-7.5695
▁classe	-7.57102
▁publics	-7.57102
▁entre	-7.57171
▁candidat	-7.57441
Les	-7.57502
▁Art	-7.57808
b	-7.58383
▁suivantes	-7.58814
▁Paris	-7.58851
▁compte	-7.58952
▁mise	-7.59647
▁finances	-7.59744
▁se	-7.59925
▁septembre	-7.60501
▁mai	-7.60818
exécution	-7.61319
▁2021	-7.61939
▁octobre	-7.62029
▁DE	-7.62473
nt	-7.63183
▁nomination	-7.63244
P	-7.63457
le	-7.63663
4	-7.63722
▁CHU	-7.63787
d	-7.64833
▁après	-7.65011
▁février	-7.65164
▁notaire	-7.65386
▁8	-7.66476
▁convention	-7.66557
5	-7.66806
application	-7.67243
▁dossier	-7.67437
▁cadre	-7.68194
▁fonctions	-7.68608
6	-7.69441
▁31	-7.69625
▁12	-7.69731
▁»,	-7.70092
▁professionnel	-7.704
▁9	-7.70642
▁conseil	-7.7112
▁public	-7.71517
▁peuvent	-7.72004
▁30	-7.72399
▁Marie	-7.72639
7	-7.727
▁21	-7.72803
▁tous	-7.73173
▁S	-7.73397
▁modalités	-7.73422
E	-7.73434
et	-7.7422
9	-7.74336
▁non	-7.7467
en	-7.74988
▁président	-7.75285
au	-7.75803
▁mentionnés	-7.75805
haque	-7.75871
▁mois	-7.75922
▁août	-7.76923
▁b	-7.76976
▁deux	-7.77204
année	-7.77376
▁charge	-7.77771
▁III	-7.78153
n	-7.78731
▁médecine	-7.78944
établissement	-7.80286
▁moins	-7.80923
▁sein	-7.81102
▁10	-7.8142
▁13	-7.8147
▁électronique	-7.81827
▁montant	-7.82026
inscription	-7.82619
▁20	-7.82682
▁loi	-7.83237
▁membres	-7.83276
▁nombre	-7.84369
in	-7.84453
▁délai	-7.84831
▁14	-7.85063
8	-7.85297
▁remplacé	-7.85369
▁15	-7.86109
▁mentionnées	-7.86327
221	-7.87039
▁civile	-7.87061
▁3°	-7.87414
▁recherche	-7.87618
exercice	-7.87629
économie	-7.88228
▁22	-7.88233
▁centre	-7.88259
0	-7.88318
▁11	-7.88668
y	-7.89546
222	-7.89819
▁leurs	-7.9004
▁contrôle	-7.90291
▁épreuves	-7.90318
G	-7.90675
t	-7.91155
▁16	-7.91403
▁Pour	-7.92073
R	-7.92586
▁19	-7.9282
▁Un	-7.92939
▁commission	-7.92955
▁23	-7.93335
▁données	-7.9422
220	-7.94827
▁V	-7.95112
▁F	-7.95158
▁supérieur	-7.95651
▁œuvre	-7.95777
▁traitement	-7.97194
▁17	-7.97279
▁corps	-7.97401
ci	-7.97402
▁bureau	-7.98133
▁France	-7.98226
▁née	-7.9855
ation	-7.99373
▁personne	-7.99399
▁établissements	-8.00358
ou	-8.00785
▁partir	-8.0119
▁prise	-8.01645
F	-8.01728
▁Conseil	-8.01751
▁droit	-8.01782
selon	-8.01934
se	-8.02034
N	-8.02066
re	-8.02204
▁N	-8.02337
▁concerne	-8.02744
▁Jean	-8.03329
enseignement	-8.03435
▁voie	-8.03637
▁doit	-8.04187
▁ci	-8.04237
▁soit	-8.04329
▁avant	-8.04527
▁IV	-8.04574
▁période	-8.04755
▁tout	-8.04892
▁conformément	-8.05917
▁notamment	-8.05961
▁25	-8.06592
▁réserve	-8.06594
▁chargés	-8.06596
est	-8.06752
emploi	-8.06915
▁cours	-8.06966
▁échéant	-8.07296
▁limite	-8.07441
▁comme	-8.07706
▁agents	-8.07968
▁affaires	-8.08298
▁2023	-8.08457
▁nom	-8.08528
▁résidence	-8.0874
▁mentionné	-8.08867
▁représentant	-8.08992
information	-8.09046
▁situation	-8.09331
i	-8.09391
ur	-8.0975
annexe	-8.0982
▁En	-8.09905
▁fin	-8.10063
▁vigueur	-8.10567
▁garde	-8.10727
fr	-8.11037
▁site	-8.11112
▁G	-8.1139
▁chacun	-8.11747
▁tableau	-8.12578
▁membre	-8.12631
▁ligne	-8.12864
▁Saint	-8.12946
objet	-8.13125
▁mentionnée	-8.13574
▁28	-8.13595
▁prévue	-8.13644
▁grade	-8.13973
▁personnel	-8.13995
▁trois	-8.14277
cret	-8.1449
al	-8.14541
▁collective	-8.14944
o	-8.1501
▁décision	-8.15436
▁hors	-8.15506
▁ayant	-8.15731
▁deuxième	-8.15784
▁règlement	-8.165
H	-8.16504
▁applicables	-8.16742
f	-8.16792
▁social	-8.17315
▁été	-8.17935
En	-8.18082
▁24	-8.18331
▁judiciaire	-8.18681
mer	-8.18733
▁lieu	-8.18982
à	-8.1911
▁numérique	-8.192
ent	-8.19402
▁section	-8.19646
accès	-8.19811
▁rédigé	-8.19887
▁E	-8.20386
▁fixant	-8.20698
▁recrutement	-8.20859
▁26	-8.21379
éducation	-8.21381
▁18	-8.21613
▁responsabilité	-8.21839
▁comité	-8.22287
▁relatives	-8.22436
la	-8.23189
▁T	-8.23411
épreuve	-8.23431
▁nature	-8.236
▁2020	-8.23706
environnement	-8.2384
▁sceaux	-8.23899
▁publiques	-8.24303
JUS	-8.24538
▁directrice	-8.24929
▁référence	-8.25445
▁27	-8.25673
accord	-8.25777
▁article	-8.25886
▁protection	-8.26073
activité	-8.26161
▁certificat	-8.26166
▁droits	-8.26341
intérieur	-8.2639
u	-8.26573
▁29	-8.2697
▁nommée	-8.27246
ensemble	-8.27967
eau	-8.28149
▁tard	-8.28156
▁annexe	-8.28348
évaluation	-8.28534
▁médical	-8.29239
▁jusqu	-8.29245
▁première	-8.29354
▁ré	-8.29362
▁mission	-8.29491
▁sans	-8.29565
▁mot	-8.30294
▁niveau	-8.31118
aide	-8.31189
▁Décret	-8.31476
▁relevant	-8.31493
223	-8.31528
▁actes	-8.3173
▁ANNEXE	-8.31813
organisation	-8.32152
p	-8.32499
▁médecin	-8.32571
agriculture	-8.32623
▁fait	-8.33084
▁si	-8.33101
▁heures	-8.33177
▁nommé	-8.33623
état	-8.3423
▁techniques	-8.34738
▁4°	-8.35159
V	-8.35209
▁opérations	-8.35251
▁contrat	-8.35336
▁"1°	-8.35421
▁région	-8.35794
▁produits	-8.35911
▁partie	-8.35958
▁entreprises	-8.3621
▁autres	-8.36285
▁dernier	-8.36308
▁ressources	-8.36325
▁faire	-8.36337
és	-8.36629
▁H	-8.36701
▁Elle	-8.36728
▁délégué	-8.37266
▁activités	-8.38104
▁présente	-8.38136
nd	-8.38484
▁compétences	-8.38634
▁"2°	-8.38686
▁jours	-8.38783
▁collectivités	-8.38797
▁“	-8.38978
on	-8.38984
▁suivant	-8.40011
IN	-8.40165
▁transition	-8.40324
▁né	-8.40483
▁publication	-8.40544
▁défense	-8.40546
examen	-8.41163
ra	-8.41368
▁chapitre	-8.4162
▁tribunal	-8.41931
▁page	-8.42381
▁prévu	-8.42827
▁mis	-8.42919
▁suivante	-8.43212
▁outre	-8.43332
▁bas	-8.43599
▁informations	-8.43682
▁toute	-8.44126
▁technique	-8.44149
autorité	-8.44398
▁comptes	-8.44433
11	-8.44728
▁également	-8.44796
▁pièces	-8.45076
▁police	-8.45097
▁effet	-8.45785
▁accessible	-8.46163
▁lors	-8.46342
K	-8.46432
▁travaux	-8.46588
▁doivent	-8.46621
▁projet	-8.47277
les	-8.47357
Pour	-8.47587
▁représentants	-8.47592
▁autre	-8.4766
▁fixée	-8.47664
▁remplacement	-8.48505
▁modifiant	-8.48901
▁poste	-8.49369
g	-8.49418
▁susvisée	-8.49496
▁retraite	-8.49786
▁pris	-8.49799
▁souveraineté	-8.49841
▁suit	-8.50183
▁texte	-8.50355
▁secrétaire	-8.51112
ch	-8.51172
▁administrative	-8.51258
ée	-8.5127
office	-8.51436
▁adjoint	-8.51485
▁mesures	-8.51529
v	-8.52096
▁mention	-8.52245
adresse	-8.52479
▁chargée	-8.52822
mi	-8.52848
m	-8.53111
▁procédure	-8.5322
▁soins	-8.53264
▁fixé	-8.5348
ne	-8.53608
appel	-8.53695
▁spécialité	-8.53852
▁troisième	-8.53917
énergie	-8.53979
▁compris	-8.54241
▁prend	-8.54469
▁p	-8.54494
▁DES	-8.54717
▁écologique	-8.54907
▁suivants	-8.55517
▁re	-8.55809
▁jour	-8.55871
is	-8.55963
or	-8.56166
▁épou	-8.56465
▁matière	-8.56736
▁territoriale	-8.56771
extrait	-8.56908
▁budget	-8.57479
▁territoires	-8.57922
di	-8.5807
▁«-	-8.58176
▁inter	-8.58178
▁2019	-8.58312
▁ont	-8.58515
▁o	-8.58684
▁actions	-8.58749
▁respect	-8.58845
▁LA	-8.59099
admission	-8.59183
▁médicale	-8.59236
▁humaines	-8.5926
▁consulter	-8.59281
▁pêche	-8.59316
ils	-8.59323
▁lorsque	-8.59495
▁accord	-8.59577
▁Dans	-8.59657
it	-8.59938
organisme	-8.60209
Arrêté	-8.60276
▁Cette	-8.60357
▁prévention	-8.6036
▁”	-8.60453
assurance	-8.6048
▁armées	-8.60518
▁postes	-8.60531
▁contre	-8.60536
10	-8.60668
▁rapport	-8.6076
▁jury	-8.60886
▁cabinet	-8.60886
ac	-8.61157
▁industrielle	-8.61163
▁développement	-8.61782
▁interne	-8.61809
▁y	-8.61932
▁fixées	-8.62562
▁département	-8.62628
▁financement	-8.62672
▁avis	-8.62738
intégralité	-8.62826
UE	-8.62892
▁images	-8.63638
us	-8.63654
▁associés	-8.63785
▁préfet	-8.63902
12	-8.63964
▁champ	-8.63985
▁internet	-8.63986
▁personnels	-8.64074
ées	-8.64177
▁nécessaires	-8.6434
▁charges	-8.64459
entreprise	-8.64661
▁professionnels	-8.64665
aux	-8.64782
▁""	-8.64875
▁délégation	-8.65079
▁base	-8.65182
▁pénitentiaire	-8.65376
▁régionale	-8.65466
▁place	-8.65976
O	-8.66202
Vous	-8.66398
30	-8.66503
▁pouvez	-8.66543
▁documents	-8.66634
▁organismes	-8.66936
▁suivi	-8.66958
insertion	-8.67023
▁phrase	-8.67143
▁donnée	-8.67278
▁responsable	-8.673
▁authentifié	-8.67344
ine	-8.67608
▁définies	-8.67717
▁ministériels	-8.6779
officiers	-8.67876
▁supérieure	-8.6835
▁permettant	-8.68762
▁Après	-8.69114
▁réception	-8.6916
14	-8.69312
1-1	-8.7015
▁plusieurs	-8.70197
▁part	-8.70391
▁missions	-8.70619
▁gaz	-8.70854
▁m	-8.70926
ol	-8.71082
▁DU	-8.71137
▁relative	-8.7122
Pierre	-8.71285
▁remplacée	-8.71453
▁attributions	-8.71542
effet	-8.71711
▁règles	-8.71818
▁disposition	-8.71857
▁décisions	-8.72047
13	-8.72048
ouverture	-8.72073
20	-8.72123
autorisation	-8.72353
▁modifiée	-8.72401
▁Ce	-8.72461
Il	-8.72666
▁pendant	-8.72669
▁six	-8.72808
▁salariés	-8.72916
▁limitée	-8.73001
▁cet	-8.73243
▁transports	-8.73244
▁maladie	-8.73462
▁5°	-8.73709
J	-8.73755
action	-8.73927
▁production	-8.73946
h	-8.74684
▁faisant	-8.74722
z	-8.74803
ul	-8.75523
après	-8.75669
▁vice	-8.75854
Y	-8.76061
▁toutes	-8.76192
▁Nige	-8.76207
ot	-8.76258
-1	-8.7627
Au	-8.76439
▁principal	-8.76439
an	-8.76661
▁vote	-8.77217
▁complété	-8.77245
15	-8.77343
▁territoire	-8.77479
▁Pierre	-8.77522
ordre	-8.77903
▁livre	-8.77913
te	-8.7812
▁000	-8.7836
▁inscriptions	-8.78651
▁ET	-8.78714
▁diplôme	-8.78842
▁zone	-8.79017
x	-8.79262
▁K	-8.79271
▁lui	-8.79482
Institut	-8.79503
▁plan	-8.79832
ar	-8.79889
▁insérés	-8.80233
▁exercer	-8.80236
É	-8.80421
ont	-8.80453
▁conclu	-8.805
RE	-8.8057
ir	-8.80708
Assistance	-8.80878
▁inséré	-8.80924
▁colonne	-8.81154
exploitation	-8.8118
absence	-8.81246
▁prendre	-8.81337
▁gendarmerie	-8.81558
elle	-8.8157
▁emplois	-8.8161
▁titulaires	-8.81901
▁modification	-8.81966
▁temps	-8.8227
▁risques	-8.82303
Sont	-8.8232
▁paiement	-8.82596
▁emploi	-8.82749
el	-8.82854
▁centrale	-8.82971
▁salariée	-8.83379
Agence	-8.84542
▁signer	-8.84738
▁f	-8.84742
age	-8.84906
▁étrangères	-8.85135
▁handicap	-8.8516
▁supprimés	-8.85221
▁transport	-8.85236
U	-8.85252
▁dépenses	-8.85343
▁afin	-8.85428
▁système	-8.85676
25	-8.85863
▁in	-8.85934
▁éléments	-8.86238
▁laquelle	-8.8646
▁culture	-8.86504
▁programme	-8.86604
ON	-8.867
▁établissement	-8.86736
▁établi	-8.86736
▁celles	-8.87026
at	-8.87327
▁territoriales	-8.87476
▁régional	-8.87584
▁maritime	-8.87596
▁patients	-8.87625
-2	-8.87734
32	-8.87844
▁adjointe	-8.8814
▁rédaction	-8.88276
▁siège	-8.88465
19	-8.88507
▁libéral	-8.88524
ie	-8.88601
▁cohésion	-8.88673
ér	-8.88701
24	-8.88756
▁prestations	-8.88763
gouv	-8.89126
▁européen	-8.89398
16	-8.89516
▁commissaire	-8.89653
▁moyen	-8.89945
▁LE	-8.90042
▁De	-8.90045
▁économique	-8.90155
▁0	-8.90377
Z	-8.90405
inspection	-8.90581
▁douanes	-8.90685
▁spécialités	-8.90693
▁sens	-8.90772
▁relatifs	-8.90808
▁abrogé	-8.90962
21	-8.90995
avenant	-8.91137
▁cheffe	-8.91354
▁tant	-8.91728
▁dé	-8.91825
▁avoir	-8.91846
▁bis	-8.92039
▁celle	-8.92087
aptitude	-8.92242
▁Centre	-8.9238
▁2.	-8.92385
France	-8.92804
▁comptable	-8.92986
▁communes	-8.92997
▁jeunesse	-8.93365
▁frais	-8.93477
▁surveillance	-8.93495
▁vue	-8.93536
▁dispositif	-8.93885
▁33	-8.93934
▁réalisation	-8.94251
ré	-8.94295
▁elle	-8.94452
▁création	-8.94568
▁associé	-8.94596
18	-8.94729
▁taux	-8.94784
aviation	-8.94887
▁forme	-8.95267
31	-8.95352
▁figurant	-8.95358
expérimentation	-8.95369
▁cahier	-8.95411
k	-8.95546
lo	-8.95665
▁type	-8.95827
▁Ces	-8.95861
▁européenne	-8.95967
▁systèmes	-8.96344
▁Nouvelle	-8.96697
▁communication	-8.9719
▁1.	-8.97399
▁secteur	-8.97524
▁euros	-8.97834
▁con	-8.98045
▁commerce	-8.98107
▁mesure	-8.98565
▁celui	-8.98606
▁cinq	-8.98756
am	-8.98876
ard	-8.9912
entrée	-8.99395
ique	-8.9944
▁fonctionnement	-8.99483
▁g	-8.99497
00	-8.99528
ité	-8.99651
▁"3°	-8.99769
▁français	-9.0001
▁solidarités	-9.00133
▁point	-9.00197
ro	-9.00217
▁document	-9.0027
Jean	-9.0028
▁nommés	-9.00305
▁2017	-9.00305
exception	-9.00318
▁2016	-9.00704
://	-9.00779
MTR	-9.00973
▁relance	-9.00991
▁correspondant	-9.01056
2-2	-9.01072
▁conseiller	-9.0125
art	-9.01293
▁Par	-9.01328
33	-9.01341
▁patient	-9.01399
aménagement	-9.01506
▁cour	-9.01589
▁déclaration	-9.01633
du	-9.01673
▁32	-9.01705
22	-9.01712
▁prévus	-9.01845
▁dépôt	-9.01864
▁foi	-9.02014
▁domaine	-9.02034
▁secrétariat	-9.02214
Marie	-9.02268
▁note	-9.02443
▁O	-9.02492
II	-9.02688
▁seront	-9.02715
3-1	-9.02748
23	-9.02867
▁catégorie	-9.02872
▁unique	-9.02905
▁VI	-9.03109
▁numéro	-9.03164
▁recours	-9.03497
▁précise	-9.03622
▁2023,	-9.03668
▁régime	-9.03689
ri	-9.03708
▁administratif	-9.0394
opération	-9.03963
26	-9.04153
▁Commission	-9.04218
▁études	-9.04692
▁compétente	-9.04721
▁obligatoires	-9.04802
ES	-9.04971
35	-9.05052
▁6°	-9.05131
17	-9.05189
▁transmission	-9.05201
▁mer	-9.05231
▁second	-9.05259
▁2018	-9.05407
▁caractère	-9.05419
que	-9.05564
▁défaut	-9.05832
▁structure	-9.05947
hôpitaux	-9.0599
chef	-9.06004
Union	-9.06034
▁activité	-9.06068
intérêt	-9.06098
▁paragraphe	-9.06132
▁externe	-9.06355
▁recettes	-9.06663
usage	-9.06814
▁h	-9.06864
▁fonctionnaires	-9.07093
▁physique	-9.07301
▁office	-9.07564
▁certification	-9.07579
▁examens	-9.07952
▁admis	-9.0796
▁réseau	-9.08027
alimentation	-9.08168
im	-9.08334
EN	-9.08334
▁administratives	-9.08481
▁an	-9.08535
01	-9.08674
Dans	-9.08759
▁concernant	-9.09018
50	-9.09074
▁applicable	-9.09139
utilisation	-9.09592
▁eaux	-9.0975
▁Si	-9.09929
▁restant	-9.10053
▁profession	-9.10075
▁avenant	-9.1025
▁chambre	-9.10585
▁temporaire	-9.10618
▁concernés	-9.10626
▁aides	-9.10736
▁juge	-9.10804
exclusion	-9.11116
▁2006	-9.11155
▁groupement	-9.11197
▁consommation	-9.11235
ab	-9.11258
AN	-9.11474
▁suppléant	-9.116
▁minutes	-9.1173
▁alinéas	-9.11813
▁candidature	-9.11939
▁territorial	-9.12042
me	-9.12291
▁état	-9.12329
ma	-9.12336
▁quatre	-9.12389
(	-9.12412
57	-9.12515
▁logement	-9.12555
55	-9.12574
▁W	-9.12765
02	-9.12905
▁2022.	-9.13006
aire	-9.13022
ion	-9.13128
▁sociales	-9.1321
40	-9.13294
▁Lorsque	-9.1333
▁agréé	-9.13548
▁total	-9.1363
origine	-9.13819
27	-9.14142
▁chez	-9.14396
52	-9.146
▁"«-	-9.14629
44	-9.14714
▁moyens	-9.14725
43	-9.1477
51	-9.14795
eur	-9.14929
▁Président	-9.15104
▁dernière	-9.15289
▁marché	-9.15408
extension	-9.15598
36	-9.15679
▁rémunération	-9.15683
aud	-9.1572
69	-9.15859
Calédonie	-9.15887
68	-9.15902
▁inscription	-9.16084
unité	-9.16173
▁sanctions	-9.16204
ti	-9.16382
accueil	-9.16406
▁rue	-9.16417
34	-9.16652
um	-9.167
▁fonds	-9.16706
Europe	-9.16806
28	-9.16839
42	-9.1684
▁comprend	-9.16851
▁3.	-9.16867
▁équipements	-9.16968
41	-9.17
67	-9.17002
▁particulier	-9.17015
▁Lyon	-9.17135
05	-9.17457
▁Première	-9.17536
▁Article	-9.17556
▁dossiers	-9.17576
▁rang	-9.17803
▁effets	-9.17831
lle	-9.17847
▁employeurs	-9.17947
▁administrateur	-9.18099
60	-9.18119
29	-9.18203
▁commune	-9.18266
▁pré	-9.18382
▁année	-9.18772
66	-9.18874
▁aérienne	-9.18955
▁Michel	-9.19023
▁vie	-9.1924
▁principale	-9.19343
▁administratifs	-9.19359
RI	-9.1999
▁résultats	-9.2002
▁proposition	-9.20077
45	-9.2017
ET	-9.20349
▁sanitaire	-9.20353
▁normale	-9.2037
▁relations	-9.20414
OU	-9.20578
▁Ier	-9.20695
46	-9.2082
agrément	-9.20988
70	-9.20992
65	-9.21182
▁mandat	-9.2121
▁Toulouse	-9.21321
▁Cour	-9.21417
58	-9.2145
▁session	-9.21458
2-1	-9.21586
▁obligations	-9.21901
/20	-9.21933
avis	-9.21938
▁délais	-9.22069
4-1	-9.22074
61	-9.22243
▁maximum	-9.2243
47	-9.22431
▁politique	-9.22448
04	-9.22636
mettre	-9.22684
▁notaires	-9.22826
▁lorsqu	-9.22829
dessous	-9.22957
▁Etat	-9.22963
agence	-9.22969
86	-9.22987
▁cachet	-9.2313
▁volume	-9.232
▁renouvellement	-9.232
Ecole	-9.23398
▁Polynésie	-9.23466
▁ceux	-9.23503
▁orale	-9.2367
▁début	-9.23763
56	-9.23857
53	-9.24166
urgence	-9.24301
▁statut	-9.24366
▁postale	-9.2443
▁financier	-9.2445
▁minimum	-9.24543
79	-9.24592
▁pénitentiaires	-9.24789
▁installations	-9.24942
80	-9.2513
▁groupe	-9.25177
▁dérogation	-9.25181
54	-9.25255
▁ingénieur	-9.25286
▁centres	-9.25379
77	-9.25384
▁plein	-9.25473
▁tenu	-9.25529
▁paritaire	-9.25568
▁François	-9.25775
elles	-9.25931
installation	-9.2603
5-1	-9.26079
étranger	-9.26093
62	-9.26096
tion	-9.26363
té	-9.26514
enfant	-9.26541
▁militaire	-9.26565
▁agent	-9.26596
▁rubrique	-9.26614
identification	-9.2663
▁Sont	-9.26649
▁sociaux	-9.26654
agent	-9.26867
▁procédures	-9.2695
▁sport	-9.27057
▁demandes	-9.27282
dessus	-9.27299
▁34	-9.27405
▁clôture	-9.27506
président	-9.27527
▁valeur	-9.27682
▁locaux	-9.27874
59	-9.27891
▁produit	-9.27902
▁Anne	-9.28049
▁simplifiée	-9.28096
▁Des	-9.28115
91	-9.2823
▁défini	-9.28258
▁agricole	-9.28355
38	-9.28459
▁adresse	-9.28537
▁transmis	-9.28564
▁parcours	-9.28764
▁biens	-9.2882
instruction	-9.2888
90	-9.28924
48	-9.28963
AL	-9.29084
ier	-9.29086
37	-9.29111
▁port	-9.29116
autre	-9.29208
85	-9.29265
EL	-9.29306
espace	-9.29334
▁formulaire	-9.29357
▁références	-9.29363
▁permettre	-9.29517
▁lesquelles	-9.29805
▁écrite	-9.29837
▁égal	-9.29883
▁déroulement	-9.29977
)"	-9.30212
▁_	-9.30247
89	-9.30476
75	-9.30486
obligation	-9.30605
Délégation	-9.30615
93	-9.30923
▁crédits	-9.30929
admissibilité	-9.30938
39	-9.31117
section	-9.31222
tique	-9.3138
08	-9.31395
▁courir	-9.31415
▁signature	-9.31471
direction	-9.31692
autres	-9.31776
▁Comité	-9.31932
▁calcul	-9.31951
81	-9.31995
ut	-9.32087
être	-9.321
▁Partie	-9.32106
▁Gouvernement	-9.32237
▁transfert	-9.32237
▁délivrance	-9.32545
49	-9.32591
06	-9.32603
▁dispose	-9.32752
ance	-9.32759
▁J	-9.32785
▁composition	-9.33009
09	-9.33095
▁points	-9.33099
issue	-9.33188
▁épreuve	-9.33396
▁construction	-9.33452
64	-9.33554
ME	-9.33618
▁connaissance	-9.33661
▁nouvelle	-9.33701
▁examen	-9.33725
76	-9.33906
min	-9.34006
▁exerçant	-9.34099
▁extension	-9.34132
▁départemental	-9.34192
▁alimentaire	-9.34257
TRE	-9.34411
▁coopération	-9.34504
▁désignés	-9.34508
ologie	-9.34524
74	-9.34538
88	-9.34554
▁co	-9.34575
▁retrait	-9.34616
▁courrier	-9.34798
▁désigné	-9.34927
ordonnance	-9.34987
▁budgétaire	-9.35147
▁2023.	-9.35187
▁scientifique	-9.35198
▁position	-9.3526
▁Philippe	-9.35342
82	-9.35412
▁années	-9.35481
84	-9.35571
▁nécessaire	-9.3559
th	-9.35798
07	-9.35856
▁complémentaire	-9.36003
▁marchés	-9.36025
1-2	-9.36031
▁navigation	-9.36157
▁organisations	-9.36207
ay	-9.36276
ARD	-9.36284
exploitant	-9.36288
▁créé	-9.36294
▁raison	-9.36337
offre	-9.36341
▁hospitalière	-9.36358
▁devra	-9.36453
▁choix	-9.3688
▁naturel	-9.36949
78	-9.36969
▁offerts	-9.3701
▁attachée	-9.37016
▁adjudant	-9.37041
engagement	-9.37104
▁rendues	-9.37111
03	-9.37128
ement	-9.3716
87	-9.37226
▁2014	-9.37262
ER	-9.37404
▁risque	-9.37465
alinéa	-9.37549
vi	-9.37594
▁quatrième	-9.37714
▁2015	-9.37774
▁résultant	-9.37851
▁prix	-9.37851
▁acquis	-9.37881
▁capacité	-9.37883
▁stipulations	-9.38014
▁versement	-9.38117
▁2007	-9.38217
▁parties	-9.38226
▁lien	-9.38259
LE	-9.3833
▁cadres	-9.38413
▁commun	-9.38524
92	-9.3861
▁valoir	-9.38667
SPR	-9.38673
▁compétence	-9.39123
ad	-9.39125
72	-9.39163
▁Sous	-9.39175
▁devront	-9.39326
▁bénéficier	-9.39397
▁exigences	-9.39499
▁admission	-9.3971
colonel	-9.39737
▁font	-9.39738
71	-9.39758
▁2011	-9.39774
▁pôle	-9.39832
▁concerné	-9.39964
▁telle	-9.40052
▁35	-9.40056
▁manière	-9.40155
po	-9.40324
▁pourront	-9.40465
▁autorités	-9.40612
73	-9.4063
63	-9.40819
AT	-9.40868
intervention	-9.4102
▁projets	-9.41073
▁modèle	-9.41158
▁sûreté	-9.41158
▁Ma	-9.41215
▁heure	-9.4138
▁fois	-9.41396
▁précédent	-9.4158
IV	-9.41588
▁séance	-9.4176
▁justificatives	-9.41919
▁prises	-9.41962
▁conduite	-9.42051
co	-9.42072
ère	-9.42199
▁Re	-9.42296
▁7°	-9.42409
association	-9.42475
▁ledit	-9.42498
▁déchets	-9.42513
▁41	-9.42575
▁Bordeaux	-9.42598
▁Wallis	-9.42598
CE	-9.42599
▁André	-9.42604
▁départementale	-9.42617
sur	-9.42621
w	-9.42642
▁exceptionnelle	-9.43059
ia	-9.43346
▁40	-9.43357
lé	-9.43379
lu	-9.43383
entretien	-9.43672
▁autorisée	-9.43713
ag	-9.4374
▁procureur	-9.44029
▁validation	-9.44059
▁performance	-9.44197
ANT	-9.44215
▁femmes	-9.44239
ale	-9.4426
▁Premier	-9.44318
▁permet	-9.4433
▁visioconférence	-9.44492
▁coûts	-9.4463
▁demandeur	-9.44868
▁soumis	-9.44869
III	-9.44872
▁63	-9.44957
▁36	-9.44977
▁lieutenant	-9.44981
▁contrats	-9.44993
CH	-9.45083
▁Cedex	-9.45102
OT	-9.4524
-3	-9.45255
▁(1)	-9.45508
▁fixe	-9.45588
our	-9.45714
accompagnement	-9.46298
▁moment	-9.46335
os	-9.46428
▁comporte	-9.46456
▁autorisation	-9.46472
▁division	-9.46698
▁militaires	-9.46767
▁terme	-9.4678
www	-9.46813
▁médicaments	-9.46943
▁transformation	-9.47134
▁promotion	-9.47223
air	-9.47262
-10	-9.47389
▁réglementation	-9.47402
ic	-9.47458
▁étendu	-9.47511
▁"4°	-9.47682
▁tiers	-9.4778
ECO	-9.47883
urs	-9.47887
outre	-9.4789
analyse	-9.47922
RA	-9.47941
▁salarié	-9.4798
▁pharmaceutiques	-9.48052
IS	-9.48122
ire	-9.48157
na	-9.48229
IER	-9.48258
▁conseillère	-9.48301
▁gestionnaire	-9.48526
tte	-9.48561
heure	-9.48576
▁financière	-9.48594
▁regard	-9.48663
▁périmètre	-9.48753
▁garantie	-9.48874
3-2	-9.49062
▁lettre	-9.49217
▁critères	-9.49581
ge	-9.49774
▁copie	-9.49964
attribution	-9.5001
ex	-9.50017
▁hospitalier	-9.50082
j	-9.50123
95	-9.50226
▁bâtiment	-9.50273
▁aménagements	-9.50304
UC	-9.50477
▁Réunion	-9.50492
▁reconnaissance	-9.50493
▁cycle	-9.50493
▁chacune	-9.50629
études	-9.50666
▁énergétique	-9.50677
83	-9.5079
able	-9.5097
▁1989	-9.50999
4.	-9.5123
▁présentation	-9.51289
UR	-9.51289
▁Rennes	-9.51327
▁pro	-9.51466
213	-9.5152
IR	-9.51554
▁notification	-9.51606
▁annexé	-9.51615
che	-9.51711
▁Est	-9.51751
égard	-9.51795
li	-9.51805
▁1990	-9.51932
ter	-9.5197
▁autorisant	-9.5198
▁Parlement	-9.51986
AU	-9.52101
▁Marseille	-9.52112
OR	-9.5215
cu	-9.52181
▁attaché	-9.52288
W	-9.52331
▁inférieur	-9.52513
▁collège	-9.52638
▁vente	-9.52641
94	-9.52686
ca	-9.52731
to	-9.52919
▁désignation	-9.53015
▁métiers	-9.53112
▁pénale	-9.53515
▁soutien	-9.5352
▁Paul	-9.5355
7.	-9.53618
▁enfants	-9.53623
▁ex	-9.53627
▁pratique	-9.5369
id	-9.53692
▁objectifs	-9.53715
ce	-9.53784
▁50	-9.53785
▁dès	-9.53865
▁remboursement	-9.53873
expérience	-9.53962
▁suite	-9.53983
▁Lille	-9.53992
dé	-9.54018
▁délivré	-9.54151
▁indiquée	-9.54291
indemnité	-9.54446
as	-9.54495
▁certain	-9.54507
▁titres	-9.54531
DE	-9.5456
mb	-9.54734
▁définie	-9.54767
avancement	-9.54858
▁stage	-9.54887
tre	-9.55102
▁commandant	-9.55216
▁bilan	-9.55217
▁bien	-9.55309
▁répartition	-9.55316
▁définis	-9.55437
isation	-9.55488
▁2013	-9.55571
aires	-9.55707
99	-9.55777
▁préparation	-9.55799
▁coefficient	-9.5583
▁fiche	-9.55898
▁économiques	-9.56094
François	-9.56132
▁dix	-9.56637
▁ajouté	-9.56742
ry	-9.56744
▁42	-9.5688
con	-9.56903
va	-9.56932
▁bénéficiaires	-9.56976
▁civil	-9.56982
▁1986	-9.57024
▁sports	-9.57051
▁supprimé	-9.57209
assurer	-9.57221
▁Ch	-9.57258
▁maître	-9.57366
▁comportant	-9.57368
▁honoraire	-9.57368
▁tel	-9.57472
rie	-9.57518
5.	-9.57564
/2022-12-2	-9.57575
ois	-9.57645
▁rural	-9.57666
▁arrêtés	-9.57797
Conformément	-9.57864
▁51	-9.57939
▁entretien	-9.58098
do	-9.58244
▁44	-9.58369
bi	-9.58432
▁besoins	-9.58441
▁rédigée	-9.58488
▁vol	-9.58535
IT	-9.58542
▁informe	-9.58546
▁conformité	-9.58628
▁maîtrise	-9.58662
▁changement	-9.58668
▁inférieure	-9.58794
▁durable	-9.5895
▁dispositifs	-9.58951
▁technicien	-9.59055
▁accès	-9.59198
▁véhicules	-9.59241
inscrire	-9.59277
▁physiques	-9.59295
▁patrimoine	-9.5937
iv	-9.59444
autonomie	-9.59466
▁Louis	-9.59507
▁bénéficiaire	-9.59565
96	-9.59566
▁phase	-9.59567
iste	-9.59601
▁Du	-9.5968
▁conventions	-9.59855
▁départements	-9.60019
▁chirurgie	-9.60032
▁43	-9.60056
▁présenter	-9.60374
▁registre	-9.60379
▁questions	-9.60401
1-3	-9.60466
▁distribution	-9.60584
présidente	-9.6067
▁2012	-9.6068
▁réponse	-9.60712
▁Con	-9.6074
▁SA	-9.60858
▁collectivité	-9.60905
par	-9.60998
▁places	-9.61008
▁discipline	-9.61014
97	-9.61018
▁pratiques	-9.61084
▁local	-9.61092
▁propre	-9.61122
électricité	-9.61204
▁maritimes	-9.61276
98	-9.61301
▁ni	-9.61315
▁professeur	-9.61332
▁lesquels	-9.61506
▁association	-9.61543
▁usage	-9.61548
appliquent	-9.61553
▁1988	-9.61554
▁Sa	-9.61719
▁objet	-9.61933
Martin	-9.61978
▁compétent	-9.62063
▁académique	-9.62126
▁conforme	-9.62184
▁civils	-9.62272
Rhône	-9.6229
ang	-9.62304
▁2008	-9.62376
▁commissions	-9.62494
▁préalable	-9.62643
▁coordination	-9.62649
LA	-9.62656
Autorité	-9.62717
op	-9.62745
▁détachement	-9.6275
intéressé	-9.62778
▁bénéfice	-9.62854
▁pouvant	-9.62854
▁concession	-9.63166
val	-9.6318
▁ouvert	-9.63247
âge	-9.63279
UN	-9.63281
▁ministres	-9.6333
indication	-9.63349
▁engagements	-9.6341
ins	-9.63522
▁annexes	-9.63563
abilité	-9.63588
▁Cha	-9.6369
applique	-9.63749
évolution	-9.63786
UT	-9.63815
AR	-9.63856
AS	-9.63875
▁EN	-9.63956
▁circulation	-9.6401
▁37	-9.64105
▁noms	-9.64167
mé	-9.64221
-19	-9.64236
adaptation	-9.64273
engage	-9.644
▁fixés	-9.64447
▁déléguée	-9.64456
▁annuel	-9.64587
▁îles	-9.64646
▁liées	-9.64673
▁scrutin	-9.64752
▁met	-9.64798
▁cause	-9.6486
puis	-9.65109
▁égale	-9.65148
des	-9.65191
▁individuel	-9.65233
▁support	-9.65245
iques	-9.65273
▁catégories	-9.65439
▁condition	-9.65479
▁généraux	-9.655
▁visées	-9.65607
▁Mayotte	-9.65607
ct	-9.65646
ha	-9.65703
▁lequel	-9.65823
om	-9.65947
▁ministériel	-9.66087
expertise	-9.66179
▁remplacées	-9.66286
▁financières	-9.66444
▁réglementaires	-9.6646
3-3	-9.66497
▁université	-9.6653
équipe	-9.6657
X	-9.66571
innovation	-9.66578
caractéristiques	-9.66689
ta	-9.66747
ables	-9.66938
▁assure	-9.6694
▁4.	-9.66955
directeur	-9.67164
▁Futuna	-9.67355
▁réalisé	-9.67374
attestation	-9.67386
▁Co	-9.67502
▁faveur	-9.67559
▁comptables	-9.6759
enregistrement	-9.6766
▁capitaine	-9.67668
▁fins	-9.67737
▁spécifiques	-9.67741
▁domicile	-9.67778
▁officiers	-9.67805
vis	-9.67949
▁https	-9.68043
IE	-9.68065
▁présidente	-9.68155
ly	-9.68195
▁nouveau	-9.68202
▁porte	-9.68276
▁AU	-9.68276
▁complémentaires	-9.68333
▁organisme	-9.68379
ron	-9.68419
▁61	-9.6842
ill	-9.68667
▁détenues	-9.68685
ey	-9.68696
▁Toute	-9.68744
▁vers	-9.68776
▁spécifique	-9.6881
réanimation	-9.68889
up	-9.68954
appui	-9.68963
▁devant	-9.68969
▁major	-9.69033
▁papier	-9.69103
.1.	-9.69154
▁sauf	-9.69233
▁Tout	-9.69344
▁annuelle	-9.69414
▁prime	-9.69551
▁réalisée	-9.69572
tra	-9.69574
no	-9.69631
▁traitements	-9.69694
▁inscrits	-9.69832
st	-9.69834
▁simple	-9.70109
▁précisant	-9.70114
▁nucléaire	-9.7017
▁réaliser	-9.70177
ib	-9.7025
▁congé	-9.70288
▁brevet	-9.70334
▁liés	-9.70371
▁initiale	-9.70577
▁surface	-9.7081
▁formations	-9.70847
▁45	-9.70981
▁Z	-9.71197
emplois	-9.71239
▁refus	-9.71282
eux	-9.71318
AC	-9.71326
Alpes	-9.7149
▁associée	-9.71526
▁susceptibles	-9.71548
opérateur	-9.71552
▁impôts	-9.71595
ais	-9.71598
▁www	-9.71648
▁participation	-9.71664
professionnel	-9.71686
▁marine	-9.717
gu	-9.71703
▁contenu	-9.71703
▁sciences	-9.71752
▁lignes	-9.71774
égalité	-9.71775
▁1984	-9.7186
▁concernées	-9.71861
▁vingt	-9.72099
▁médecins	-9.72158
▁maintien	-9.72245
▁branche	-9.72265
identité	-9.72269
▁Aux	-9.72306
▁langue	-9.72363
▁t	-9.72416
▁Martinique	-9.72495
▁financiers	-9.72531
and	-9.72721
▁format	-9.72828
▁pharmacien	-9.72869
ence	-9.729
▁médicaux	-9.72956
▁certificats	-9.73017
▁inspecteur	-9.73038
▁75	-9.73211
▁universitaire	-9.73298
▁connaissances	-9.73472
▁Cité	-9.73582
▁demander	-9.73727
habitation	-9.7391
▁respectivement	-9.7401
▁préfecture	-9.74118
▁vendredi	-9.74118
ig	-9.74169
▁géographique	-9.74214
6-1	-9.74228
ez	-9.74301
▁tarifs	-9.74443
▁38	-9.74572
▁Jacques	-9.74615
IL	-9.74621
▁VII	-9.74701
▁ouverts	-9.74764
lin	-9.74768
▁Sud	-9.748
▁2010	-9.74837
encadrement	-9.74941
▁lutte	-9.74947
▁seule	-9.74995
▁autorisé	-9.75012
▁crédit	-9.75017
▁politiques	-9.75027
▁unités	-9.75037
▁qualification	-9.75076
ing	-9.75111
▁X	-9.75188
vant	-9.75192
▁responsables	-9.75369
▁établie	-9.75477
▁Caisse	-9.75533
2-4	-9.7558
▁8°	-9.75602
ix	-9.75629
▁besoin	-9.75674
▁référentiel	-9.75681
▁2024	-9.75747
▁haut	-9.75753
envoi	-9.75769
NE	-9.75808
cr	-9.75849
▁négociation	-9.76006
2-8	-9.76123
▁Société	-9.76245
▁propriété	-9.76364
▁écrit	-9.76392
▁signé	-9.76438
▁programmes	-9.76489
▁espace	-9.76551
Après	-9.76562
▁autorisées	-9.76787
▁inclus	-9.77064
ph	-9.77114
gissant	-9.77156
▁familles	-9.77209
▁pédagogique	-9.77257
acquisition	-9.77477
▁contrôles	-9.77608
▁individuelle	-9.77731
VI	-9.77766
▁décrets	-9.77855
mar	-9.77938
▁pourra	-9.78003
▁préinscription	-9.78003
▁procéder	-9.78052
▁organisation	-9.78068
▁Claude	-9.78203
▁informatique	-9.78285
▁administratrice	-9.78296
▁matériels	-9.78337
be	-9.78355
▁Ga	-9.78491
▁validité	-9.7854
▁prêt	-9.786
▁maximale	-9.78601
INT	-9.78798
RO	-9.788
.2.	-9.78821
▁rend	-9.78838
▁http	-9.7886
▁figurent	-9.7894
▁réalisées	-9.78981
▁adressée	-9.79077
▁Loire	-9.79094
-4	-9.79106
▁façon	-9.79152
hi	-9.79277
2-6	-9.79341
▁spécial	-9.7946
employeur	-9.79493
pa	-9.79561
▁pouvoir	-9.79616
▁consultative	-9.79618
SE	-9.79636
▁2021,	-9.79673
Est	-9.79723
AND	-9.79806
▁zones	-9.79835
▁option	-9.79842
▁Guyane	-9.7989
ap	-9.80061
▁contrôleur	-9.80069
▁entreprise	-9.80336
▁fonctionnaire	-9.80384
▁Se	-9.80652
ver	-9.80662
oc	-9.80669
IOM	-9.80724
▁Sur	-9.80726
ina	-9.80801
▁certaines	-9.80807
adulte	-9.80859
▁ressort	-9.80888
▁concernée	-9.80957
qu	-9.81081
bo	-9.81116
dit	-9.81164
▁ma	-9.81166
io	-9.81169
expiration	-9.81264
▁convocation	-9.81264
Si	-9.8131
▁milieu	-9.81375
rou	-9.81376
▁affectés	-9.81438
ville	-9.81454
port	-9.81548
Lorsque	-9.81773
▁moyenne	-9.81949
concours	-9.81999
▁directement	-9.82052
▁Nicolas	-9.82111
imp	-9.8218
▁In	-9.82202
▁considérée	-9.82245
6.	-9.82262
▁forêts	-9.82346
▁Section	-9.82366
OL	-9.82391
Un	-9.82427
▁Haute	-9.82521
▁thérapeutique	-9.82537
▁montants	-9.8256
▁devient	-9.82566
eu	-9.82629
eurs	-9.82758
PE	-9.82763
▁2005	-9.82875
if	-9.82893
▁intérieure	-9.82916
em	-9.82979
▁rendu	-9.83022
▁taxe	-9.83186
▁candidates	-9.83205
▁sociétés	-9.83272
▁navires	-9.83426
AP	-9.83429
▁U	-9.83663
▁tome	-9.83681
/2022-1	-9.83683
▁1987	-9.83736
int	-9.83874
ari	-9.83954
onne	-9.83994
obtention	-9.84065
SA	-9.84086
▁véhicule	-9.84096
TA	-9.84156
ect	-9.84163
investissement	-9.84165
▁pharmacie	-9.84282
▁totale	-9.84292
2-3	-9.84306
▁requises	-9.84327
▁permis	-9.84398
▁ajoutés	-9.84509
▁périodes	-9.8455
industrie	-9.84552
▁effectuée	-9.84579
▁Strasbourg	-9.84583
▁stratégie	-9.84583
mo	-9.84596
▁listes	-9.84606
Philippe	-9.84613
▁Bernard	-9.84623
▁consultation	-9.84628
▁travailleurs	-9.84651
▁transmet	-9.84828
TE	-9.84848
▁obtenu	-9.8492
▁rédigés	-9.84976
▁sportif	-9.84983
▁caisse	-9.85024
ub	-9.85043
7-1	-9.85122
/2022-07-2	-9.85234
▁Montpellier	-9.85234
▁médico	-9.85365
▁route	-9.85498
/2022-04-2	-9.85547
▁Mar	-9.8565
▁assurer	-9.85673
▁v	-9.85784
exercer	-9.85838
▁seconde	-9.85888
▁présence	-9.8589
sse	-9.85962
EC	-9.8601
▁différents	-9.86065
▁62	-9.8633
ENT	-9.86479
apprentissage	-9.86549
▁Autres	-9.86551
Université	-9.8662
▁53	-9.86673
▁particulières	-9.86674
▁musée	-9.86683
Loire	-9.86697
▁interrégionale	-9.86739
▁obligatoire	-9.86786
▁nécessite	-9.86814
▁précité	-9.86911
ue	-9.86931
▁élèves	-9.86972
▁statuts	-9.8699
▁Olivier	-9.87064
▁indirects	-9.8708
▁possibilité	-9.8708
▁divers	-9.8709
▁contractuel	-9.87163
armée	-9.87184
▁voix	-9.87215
1-4	-9.87279
▁près	-9.87323
ux	-9.87335
▁matériel	-9.87413
ette	-9.87415
▁remboursables	-9.87482
▁Parties	-9.87713
▁privé	-9.87738
▁Chevalier	-9.87747
sy	-9.87768
▁universités	-9.8777
▁mobilité	-9.87843
▁autorisations	-9.87862
animation	-9.87872
▁pièce	-9.87971
JORF	-9.88016
▁Isabelle	-9.88095
Anne	-9.88119
▁suivent	-9.8815
▁secours	-9.88151
▁constituée	-9.88389
▁syndicales	-9.88459
▁locale	-9.88467
▁2,	-9.88495
▁54	-9.88504
▁structures	-9.88513
▁Jo	-9.8853
▁100	-9.88543
▁Grand	-9.88556
8.	-9.8864
▁usagers	-9.88698
▁scolaire	-9.88802
▁réseaux	-9.88859
▁per	-9.88919
▁notarial	-9.89096
▁comprenant	-9.89232
▁licence	-9.89232
▁cessation	-9.89237
ront	-9.893
▁59	-9.8933
▁attestation	-9.89395
▁1991	-9.89434
hospitalisation	-9.89513
État	-9.89641
▁46	-9.89691
ATION	-9.89697
▁télé	-9.89723
▁Ro	-9.89746
Miquelon	-9.89777
▁ingénieurs	-9.89785
▁détenue	-9.8981
▁intérieur	-9.8997
▁anti	-9.90008
▁continue	-9.90091
▁commande	-9.90135
▁aéronautique	-9.90181
▁psychiatrie	-9.90268
ba	-9.90401
▁détention	-9.90466
▁CA	-9.90533
▁réalisés	-9.90584
ens	-9.9075
▁professeurs	-9.90835
MA	-9.90992
mm	-9.91004
▁pilotage	-9.91015
Paul	-9.91167
▁suppléants	-9.91185
▁Marc	-9.91274
▁situé	-9.91445
▁interrégional	-9.91527
▁accordée	-9.91582
▁situations	-9.91654
INE	-9.91748
▁Nord	-9.91837
LI	-9.91838
▁maintenance	-9.91849
▁nationalité	-9.9185
ière	-9.91869
vers	-9.91889
▁ter	-9.92021
Nicolas	-9.92029
▁Henri	-9.92078
ARM	-9.92112
▁médicament	-9.92138
▁carte	-9.92167
▁modifications	-9.92195
/2022-02-1	-9.92269
▁prescription	-9.92314
affectation	-9.92315
ve	-9.92418
▁"5°	-9.92426
Marne	-9.92507
ign	-9.92735
fin	-9.92743
2.	-9.92756
▁5.	-9.92835
▁ponts	-9.92873
▁générales	-9.92918
▁cinquième	-9.92945
▁tarif	-9.92958
ure	-9.93057
pi	-9.93109
▁alors	-9.93114
.3.	-9.93135
▁Laurent	-9.93142
▁peines	-9.93146
1-5	-9.93171
▁Mo	-9.93288
▁renseignements	-9.93309
▁supprimée	-9.93313
▁agréés	-9.93355
EAU	-9.93477
CI	-9.93526
▁(1	-9.93534
▁régionales	-9.9362
da	-9.9381
▁Nantes	-9.93823
▁cession	-9.93855
▁limites	-9.93938
▁crise	-9.93952
▁ouvrant	-9.93965
ive	-9.93983
▁contractuels	-9.94022
pe	-9.94104
▁dénommé	-9.94185
AY	-9.94217
▁équivalent	-9.94238
▁termes	-9.94261
go	-9.94262
▁chiffre	-9.9434
▁courriel	-9.94394
itu	-9.94496
allocation	-9.94537
▁2009	-9.94621
CO	-9.94644
man	-9.94668
▁conservation	-9.9468
▁protégé	-9.947
▁bord	-9.9484
▁adultes	-9.94858
▁autorisés	-9.94947
â	-9.9496
▁distance	-9.94968
▁procès	-9.94968
▁É	-9.95017
▁délivrée	-9.9522
EP	-9.95236
▁associations	-9.95275
euse	-9.95278
▁r	-9.95367
NA	-9.95433
académie	-9.95516
▁veille	-9.95551
▁exercées	-9.95554
▁tribunaux	-9.95563
IC	-9.9558
▁considéré	-9.95645
onfédération	-9.9569
AUD	-9.95803
▁accompagnée	-9.95837
▁transmettre	-9.9585
▁remise	-9.95904
▁elles	-9.95917
CA	-9.96082
▁Tribuna	-9.96126
▁inspectrice	-9.96145
▁visée	-9.96148
▁sol	-9.96151
ler	-9.96165
▁83	-9.96195
...)	-9.96273
▁Ile	-9.96451
▁exerce	-9.96636
▁reste	-9.96785
▁filière	-9.96876
ki	-9.96947
▁bonne	-9.97049
▁indications	-9.97066
▁Lorsqu	-9.97069
▁consul	-9.97125
▁fond	-9.97265
▁grande	-9.97395
Christophe	-9.97448
ru	-9.97453
▁conjoint	-9.97589
▁semaines	-9.97668
▁suppléante	-9.97672
▁Christophe	-9.9774
▁No	-9.97907
▁handicapées	-9.97946
▁magistrats	-9.98031
▁Ar	-9.98078
MO	-9.98179
/2022-03-1	-9.98187
▁directeurs	-9.98187
▁Joseph	-9.98225
▁Aucun	-9.98428
▁vérification	-9.98611
préfet	-9.98654
▁information	-9.98661
▁Bou	-9.9874
3-4	-9.9876
lon	-9.98779
TI	-9.98825
lais	-9.98975
▁René	-9.99028
▁lieux	-9.99055
▁expérience	-9.99089
▁agricoles	-9.99154
ô	-9.99226
Etienne	-9.99399
objectif	-9.99421
▁fournir	-9.99468
▁droite	-9.99502
▁choisi	-9.99544
▁plateforme	-9.99678
▁CO	-9.99706
ah	-9.99808
▁nationaux	-9.99836
▁antérieure	-9.99867
▁diplômes	-9.9991
venir	-9.99966
▁navire	-9.99982
/2022-03-0	-9.99987
▁gauche	-9.99987
▁définition	-10.0008
tif	-10.0014
▁résultat	-10.0029
▁collecte	-10.0044
dûment	-10.0045
▁Val	-10.0057
▁Epreuve	-10.0059
hébergement	-10.006
interministériel	-10.0067
0-1	-10.0071
▁bon	-10.0071
▁probatoire	-10.0075
▁disponibles	-10.01
▁(2)	-10.0101
▁salaires	-10.0104
▁j	-10.011
ui	-10.0112
ton	-10.0116
▁Vi	-10.012
▁voies	-10.0126
habitat	-10.0133
▁lycée	-10.0136
”	-10.0144
assemblée	-10.015
ouvrage	-10.0164
étude	-10.0176
▁recommandé	-10.0179
▁interdite	-10.018
élève	-10.0183
▁Y	-10.02
▁placée	-10.02
▁correspond	-10.02
armement	-10.0209
enquête	-10.021
▁naturelle	-10.0211
▁classement	-10.0212
▁39	-10.0225
▁participant	-10.0228
▁enveloppe	-10.0228
▁sécurisé	-10.023
▁déjà	-10.0244
▁quinze	-10.0244
CHE	-10.0244
▁Dominique	-10.0245
▁organisé	-10.0254
▁procède	-10.0259
▁placé	-10.0268
▁Institut	-10.0276
▁Antoine	-10.0279
▁somme	-10.0283
▁pays	-10.0293
▁terre	-10.03
gra	-10.0307
▁commissaires	-10.0308
Marc	-10.0316
▁vu	-10.0317
cadre	-10.0318
▁complément	-10.032
res	-10.0323
▁9°	-10.0334
DI	-10.0346
intitulé	-10.035
▁spéciale	-10.0351
Michel	-10.0365
Décret	-10.0366
▁régulation	-10.0369
Rhin	-10.037
▁démarche	-10.0385
▁préjudice	-10.0385
▁enseignants	-10.0392
lan	-10.0399
-17	-10.0405
/2022-10-2	-10.0407
▁agrément	-10.0414
Louis	-10.0415
SI	-10.0415
▁justifiant	-10.0416
bert	-10.0417
élection	-10.0418
▁Alain	-10.0427
▁visés	-10.0427
ST	-10.0432
pompiers	-10.0433
▁"1.	-10.0436
▁mais	-10.0437
pro	-10.0438
▁Commandant	-10.044
▁Nancy	-10.0464
/2022-10-1	-10.0464
▁préalablement	-10.0472
Ma	-10.0481
▁conduire	-10.0495
▁métropole	-10.0495
▁MAR	-10.0502
Guillaume	-10.0511
▁contentieux	-10.0511
GE	-10.0521
▁Car	-10.0535
▁possible	-10.0536
▁garanties	-10.0538
UL	-10.0546
▁internationale	-10.0552
dite	-10.0553
▁opérationnelle	-10.0558
▁autorité	-10.0564
environnementale	-10.0574
US	-10.0575
▁sélection	-10.0578
▁Mont	-10.058
▁puis	-10.0582
▁comités	-10.0583
▁clinique	-10.0584
▁disciplinaire	-10.0589
4-2	-10.0596
▁1983	-10.0598
tes	-10.0606
vé	-10.0607
/2022-12-1	-10.0609
od	-10.0614
▁protocole	-10.0623
▁Sophie	-10.0626
3.	-10.0638
habilitation	-10.0639
tri	-10.0647
all	-10.0648
▁proximité	-10.0656
1-6	-10.0661
▁trente	-10.0673
ger	-10.0688
▁industries	-10.0692
fi	-10.0715
▁élus	-10.0716
/2022-05-1	-10.0721
▁lundi	-10.0722
activités	-10.0725
▁hôpitaux	-10.0726
▁observations	-10.0738
▁versée	-10.075
honneur	-10.0753
tin	-10.0754
ille	-10.0757
assure	-10.0759
▁hommes	-10.0764
▁COUR	-10.0768
▁NOTAIRES	-10.0771
▁SE	-10.0772
▁instances	-10.0782
▁spécialisée	-10.0789
▁seuil	-10.079
Antoine	-10.0791
▁groupements	-10.0791
éta	-10.0793
▁sites	-10.0795
▁dénomination	-10.0802
▁écrites	-10.0804
▁sportives	-10.081
▁organisateur	-10.0813
▁ordre	-10.0818
2-5	-10.0821
▁composé	-10.0821
▁infrastructures	-10.0821
▁sapeurs	-10.0821
▁justifier	-10.083
ner	-10.0833
▁jeudi	-10.0836
▁unité	-10.0837
▁64	-10.084
▁BOU	-10.084
major	-10.0841
Thomas	-10.0841
9.	-10.0844
▁Notaires	-10.0847
éli	-10.0847
mat	-10.0852
▁échelon	-10.0858
▁radiation	-10.0868
▁éligibles	-10.0869
acte	-10.0873
oy	-10.0886
▁différentes	-10.0889
audit	-10.0891
▁diagnostic	-10.0897
4-3	-10.0901
▁respecter	-10.0905
▁Catherine	-10.0913
▁collectif	-10.0916
Accè	-10.0935
▁visant	-10.0937
▁ville	-10.0955
chi	-10.0957
▁ancienne	-10.0958
▁offertes	-10.097
▁participer	-10.0971
▁Bo	-10.0977
_	-10.098
▁compétentes	-10.0983
▁soient	-10.0984
▁procédé	-10.1001
▁MA	-10.1011
orientation	-10.1015
/2022-12-0	-10.1018
urbanisme	-10.1018
▁1985	-10.1026
administrateur	-10.1028
amp	-10.1031
form	-10.1031
▁étudiants	-10.1037
▁permanente	-10.1042
ative	-10.1043
intégration	-10.1049
achat	-10.105
▁famille	-10.1051
▁chaleur	-10.1051
▁connaître	-10.1052
▁fonctionnelle	-10.1058
ni	-10.1066
▁ajoutée	-10.1067
Baptiste	-10.1068
▁bénéficiant	-10.1068
▁techniciens	-10.107
▁durant	-10.1072
è	-10.1082
▁juridique	-10.1085
▁saisie	-10.1089
▁Fédération	-10.1093
▁"2.	-10.1099
▁biologie	-10.1102
▁affectation	-10.1113
fa	-10.1117
▁Ca	-10.1122
▁Daniel	-10.1131
▁magistrat	-10.1132
si	-10.114
▁forfaitaire	-10.1141
▁types	-10.1142
QUE	-10.1146
▁renouvelable	-10.1153
▁active	-10.1168
trent	-10.1169
▁Bar	-10.1177
tier	-10.1182
ran	-10.1185
▁central	-10.1187
▁Chapitre	-10.1187
▁Ecole	-10.119
ga	-10.119
▁60	-10.12
▁dérogations	-10.1206
▁précisées	-10.1208
▁seules	-10.1213
▁établit	-10.1217
▁évaluation	-10.122
oul	-10.1221
▁duquel	-10.1221
▁bénéficient	-10.1225
cho	-10.123
app	-10.1233
Alexandre	-10.1235
▁secret	-10.1241
tro	-10.1242
▁Chef	-10.1253
▁aide	-10.126
Saint	-10.127
▁uniquement	-10.1271
▁Po	-10.1276
né	-10.1292
émission	-10.1299
▁sixième	-10.1308
OP	-10.1311
gue	-10.1312
qui	-10.1319
▁seul	-10.1323
▁grossesse	-10.1324
▁"(	-10.133
▁Robert	-10.1333
eaux	-10.1344
RES	-10.1349
▁habilités	-10.1349
▁valeurs	-10.1352
nel	-10.1358
▁divisionnaire	-10.1359
▁opération	-10.1367
ana	-10.1371
occasion	-10.1372
▁RE	-10.138
▁statistique	-10.1381
ten	-10.1394
uc	-10.1395
▁Guadeloupe	-10.1396
TRA	-10.1399
ali	-10.14
▁réunion	-10.1401
▁Pro	-10.1404
▁com	-10.1409
Ce	-10.141
▁derniers	-10.1411
▁version	-10.1418
▁anesthésie	-10.142
▁présentant	-10.1423
OUR	-10.1425
▁prescriptions	-10.1426
ai	-10.1426
▁produire	-10.1429
appellation	-10.1429
SC	-10.1433
▁obligatoirement	-10.1436
ff	-10.1437
▁conseils	-10.1437
▁régionaux	-10.1439
▁Charles	-10.1443
▁solidarité	-10.1452
▁praticien	-10.146
/2022-03-2	-10.1464
impossibilité	-10.1464
▁coordonnateur	-10.1464
▁assurés	-10.1464
▁figure	-10.1483
▁aéronefs	-10.1483
▁disponible	-10.1487
▁Frédéric	-10.149
/2022-06-1	-10.1493
ite	-10.1494
ans	-10.1495
PH	-10.1498
▁facturation	-10.1499
az	-10.1501
▁ministères	-10.1512
▁aérien	-10.1518
▁dotation	-10.1542
▁judiciaires	-10.1543
Denis	-10.1555
▁coût	-10.1559
▁baccalauréat	-10.157
▁Etats	-10.1571
▁morale	-10.1582
▁Concours	-10.1583
▁voté	-10.1593
ien	-10.1598
1.	-10.1604
avances	-10.1609
iz	-10.1616
▁aucun	-10.1619
▁définitive	-10.1619
iel	-10.1622
▁Toutefois	-10.1627
▁Ber	-10.1631
▁dite	-10.1633
teur	-10.1641
12-1	-10.1646
BERT	-10.1648
ingénieur	-10.1657
▁accompagné	-10.1658
▁56	-10.1667
▁réduction	-10.1668
▁Stéphane	-10.1672
▁séjour	-10.1676
ort	-10.168
ines	-10.1687
▁inscrit	-10.1688
per	-10.1689
▁minuit	-10.1694
▁suspension	-10.1712
▁sportive	-10.1723
indice	-10.173
▁compatibles	-10.1734
▁CHA	-10.1743
AIS	-10.1743
▁Pascal	-10.1746
assistance	-10.1749
▁retour	-10.175
mont	-10.1751
▁mon	-10.1752
don	-10.1757
▁détermine	-10.1759
GER	-10.1761
aut	-10.1763
▁écoles	-10.1764
▁disponibilité	-10.1766
bar	-10.1769
▁acteurs	-10.177
__	-10.1778
▁effectuer	-10.1788
▁affecté	-10.179
tant	-10.1796
▁Qu	-10.1801
ifi	-10.1801
▁tenir	-10.1802
▁utilisés	-10.1802
anc	-10.1805
pé	-10.1818
▁nationales	-10.1823
EAE	-10.1826
▁internes	-10.1833
▁90	-10.1834
▁assistant	-10.1837
▁stockage	-10.1841
invalidité	-10.1843
agit	-10.1847
▁3,	-10.1852
▁sommes	-10.1852
▁El	-10.1853
▁minima	-10.1863
▁concurrence	-10.1875
▁colonel	-10.1876
AGRT	-10.1877
▁définit	-10.1878
▁adressé	-10.1883
tu	-10.1888
▁prestataire	-10.1888
Julien	-10.1906
amélioration	-10.192
avance	-10.1922
▁complet	-10.193
atif	-10.1932
▁72	-10.1935
Seine	-10.1941
alité	-10.1943
▁taxes	-10.1946
▁Dé	-10.1946
▁commandement	-10.1956
▁méthode	-10.1962
▁excéder	-10.1967
▁assurée	-10.1974
▁identifiée	-10.1974
-1.	-10.1974
▁acceptée	-10.1976
▁effectué	-10.1976
▁VIII	-10.1981
▁i	-10.1992
voir	-10.1995
▁profit	-10.2004
▁mines	-10.2008
lier	-10.2011
▁libre	-10.2017
▁relève	-10.2017
verbal	-10.2022
cha	-10.2027
Camille	-10.2035
za	-10.2036
he	-10.2048
▁Marcel	-10.2053
▁répertoire	-10.2059
▁analyse	-10.2062
▁intitulée	-10.2065
inter	-10.2066
ert	-10.2072
▁Al	-10.2073
VA	-10.2073
nelle	-10.2078
▁capital	-10.2078
équipement	-10.2082
▁Université	-10.2087
▁tels	-10.2087
▁producteurs	-10.2088
/2022-02-0	-10.2097
▁individuels	-10.21
née	-10.2111
Q	-10.2111
▁opérationnel	-10.2118
ELLE	-10.2132
▁effectués	-10.2138
▁désigne	-10.2142
architecture	-10.2147
7°	-10.2152
▁normales	-10.216
Office	-10.2168
vin	-10.217
▁substances	-10.2172
affaires	-10.2183
▁subvention	-10.219
▁conception	-10.2191
pt	-10.2191
▁paritaires	-10.2192
▁locales	-10.2197
▁démission	-10.2197
▁disciplines	-10.2205
Sophie	-10.2206
▁probation	-10.2209
▁Guillaume	-10.221
▁immédiatement	-10.2211
▁partenariat	-10.2228
▁détaché	-10.2237
▁mandataire	-10.2259
tions	-10.2263
/2022-07-0	-10.2266
/2022-08-1	-10.2266
▁Georges	-10.2266
EUR	-10.2268
▁71	-10.227
/2022-11-0	-10.2271
▁vérifier	-10.2275
Cette	-10.2278
IG	-10.2278
ult	-10.2287
▁Nathalie	-10.2298
enne	-10.2307
▁SI	-10.231
let	-10.2319
▁conducteur	-10.2323
inspecteur	-10.2323
▁Rouen	-10.2326
▁international	-10.2337
▁départ	-10.2342
▁sévère	-10.2342
▁puissance	-10.2342
▁admise	-10.2349
agents	-10.2349
▁Vincent	-10.2355
▁aucune	-10.2357
▁indemnités	-10.2357
▁CON	-10.2362
▁52	-10.2363
oir	-10.2373
PR	-10.2377
▁complétée	-10.2378
/2022-07-1	-10.2381
ret	-10.2382
▁réglementaire	-10.2382
▁grand	-10.2391
▁chambres	-10.2392
AG	-10.2395
incendie	-10.24
▁concourir	-10.2401
nage	-10.2402
▁compensation	-10.2402
gé	-10.2411
ani	-10.2412
▁constitué	-10.2424
1-8	-10.2424
▁70	-10.2427
nes	-10.2432
▁capitalisable	-10.2439
▁placement	-10.2445
ze	-10.2448
so	-10.2448
com	-10.245
école	-10.245
▁constaté	-10.2457
PP	-10.2458
▁fédération	-10.2458
▁directive	-10.246
SS	-10.246
▁sanction	-10.2467
▁déroule	-10.2469
ord	-10.2473
arrêt	-10.2474
▁administrateurs	-10.2475
Olivier	-10.248
▁visite	-10.2481
▁accepté	-10.2488
Atlantique	-10.2516
▁matériaux	-10.2516
▁An	-10.2517
▁prestation	-10.252
erie	-10.2522
tr	-10.2523
8-1	-10.2525
▁art	-10.2528
▁métropolitaine	-10.2528
gi	-10.2536
▁administrations	-10.2539
▁juridiction	-10.2539
social	-10.254
ole	-10.2544
ingénieurs	-10.2546
▁Dijon	-10.2555
▁cotisations	-10.2558
▁statutaires	-10.2558
▁accompli	-10.2564
lement	-10.257
▁Cet	-10.2572
ud	-10.2572
▁ad	-10.2573
/2022-06-2	-10.2573
▁vertu	-10.2575
▁délibération	-10.258
ateur	-10.2581
-1640	-10.2583
élaboration	-10.2594
/2022-04-0	-10.2595
▁Françoise	-10.2602
▁domaines	-10.2605
hé	-10.2608
▁adjoints	-10.2612
indemnisation	-10.2614
▁susmentionné	-10.2626
ide	-10.2628
▁preuve	-10.2634
▁visé	-10.2638
EX	-10.2639
▁long	-10.2662
▁savoir	-10.2667
▁huit	-10.2668
/2022-08-0	-10.2673
université	-10.2679
oux	-10.2688
▁"6°	-10.2695
▁obtenir	-10.27
expert	-10.2701
▁capacités	-10.2705
▁ANNEXES	-10.2706
EY	-10.2726
▁Grenoble	-10.2733
▁permanent	-10.2744
▁exceptionnel	-10.2745
▁propres	-10.2748
▁6.	-10.2749
▁pourvoir	-10.2752
▁Patrick	-10.2757
▁effectuées	-10.2758
Marion	-10.2761
▁extérieur	-10.2771
▁principaux	-10.2773
▁routière	-10.2773
opposition	-10.2773
▁via	-10.2778
▁radié	-10.2779
▁mode	-10.278
▁contribution	-10.2781
▁2000	-10.2795
mand	-10.2798
Al	-10.2807
▁placés	-10.2808
ris	-10.2817
▁Guy	-10.2819
infrastructure	-10.283
▁quater	-10.2833
igne	-10.2834
▁accessibles	-10.2835
ants	-10.2836
ible	-10.2839
▁Julien	-10.2845
ho	-10.2848
▁73	-10.286
▁présenté	-10.2862
ante	-10.2865
▁synthèse	-10.2873
▁sections	-10.2878
▁organisée	-10.2883
▁contribuant	-10.2893
IX	-10.2907
▁résid	-10.2909
▁Corse	-10.2909
▁haute	-10.2911
BA	-10.2915
mon	-10.2921
ons	-10.2928
LIN	-10.2928
▁ordonnance	-10.2928
▁Valérie	-10.2931
tz	-10.2935
▁sort	-10.2942
▁institué	-10.2942
/2022-01-2	-10.2943
▁bâtiments	-10.2943
▁principes	-10.2943
▁portail	-10.2943
▁mètres	-10.2956
▁recteur	-10.2963
▁internationales	-10.2965
aff	-10.2966
▁2004	-10.2968
sta	-10.297
▁BAR	-10.2972
▁requis	-10.2973
▁Clermont	-10.2974
cation	-10.2975
ture	-10.2976
▁cent	-10.2978
/2022-10-0	-10.2981
▁forfait	-10.2989
rait	-10.299
▁indemnité	-10.2999
9-1	-10.3006
venu	-10.3007
▁mal	-10.3007
emp	-10.3012
▁informé	-10.3014
▁espèces	-10.3017
▁abrogés	-10.3026
▁appel	-10.3026
▁effectifs	-10.3027
EZ	-10.3032
▁victimes	-10.3033
▁Christian	-10.3033
RY	-10.3035
▁populaire	-10.3036
ardi	-10.304
▁fer	-10.3041
▁LES	-10.3043
ka	-10.3046
▁aménagement	-10.3054
▁maire	-10.3069
Haute	-10.307
attaché	-10.3071
▁perte	-10.3072
issement	-10.3073
▁diverses	-10.3073
▁imprimé	-10.3075
▁renseignement	-10.3075
RMH	-10.3077
Claire	-10.3078
▁aériens	-10.309
▁protégée	-10.3095
ières	-10.3101
Co	-10.3114
ques	-10.3114
actions	-10.3117
PRM	-10.3117
Algérie	-10.3118
▁rouge	-10.3118
▁tenant	-10.3118
ach	-10.3119
APPEL	-10.3119
▁bloc	-10.312
EU	-10.3139
ck	-10.3144
▁appartenant	-10.3145
▁exploitation	-10.3148
BO	-10.3149
lot	-10.3149
asse	-10.3159
▁liaison	-10.316
▁entraîne	-10.3161
▁recommandée	-10.3163
▁associées	-10.3168
▁Hélène	-10.3173
ages	-10.3178
VE	-10.3179
aquaculture	-10.318
▁ferroviaire	-10.318
▁fixation	-10.318
Ar	-10.3203
▁donc	-10.3204
▁Tours	-10.3206
▁orales	-10.321
DA	-10.3213
▁tenue	-10.3225
▁Eric	-10.3226
téri	-10.323
ÉS	-10.3231
ara	-10.3234
▁10°	-10.3235
▁normes	-10.3237
/2022-04-1	-10.3253
▁décrites	-10.3253
▁congés	-10.3253
aérodrome	-10.3261
GUE	-10.3267
ja	-10.3267
▁peine	-10.328
22-1	-10.3285
▁Ré	-10.329
▁Thierry	-10.329
Mar	-10.3295
uve	-10.3298
iers	-10.33
▁déconcentrés	-10.3304
▁hiérarchique	-10.3306
▁dispense	-10.3306
▁contrôlée	-10.3308
Marine	-10.3309
▁adaptations	-10.3312
3-5	-10.3315
entité	-10.3318
▁47	-10.3325
Laurent	-10.3329
▁Yves	-10.3329
éco	-10.3338
▁BO	-10.3341
ç	-10.3343
▁supplémentaire	-10.3345
▁séances	-10.3346
▁composer	-10.3352
Vice	-10.3352
éné	-10.3352
▁David	-10.3356
huissier	-10.3367
▁stagiaires	-10.3367
▁globale	-10.337
▁dématérialisée	-10.3371
▁intervenant	-10.3371
▁espaces	-10.3372
Côte	-10.3386
▁occupant	-10.3393
Val	-10.3393
ILLE	-10.3394
-1,	-10.3395
▁issus	-10.34
▁volontaires	-10.3404
han	-10.341
▁contact	-10.3412
▁Annexe	-10.3412
▁Jeanne	-10.3413
line	-10.3419
▁ouverture	-10.342
isse	-10.3435
▁candidatures	-10.3439
tel	-10.3451
▁laboratoire	-10.3453
/2022-02-2	-10.3455
▁croissance	-10.3455
▁acte	-10.3457
delà	-10.3458
ayant	-10.3458
▁Per	-10.3459
▁nouvelles	-10.3465
rin	-10.3472
HA	-10.3479
▁donne	-10.3486
▁garantissant	-10.3498
▁contraire	-10.3501
mment	-10.3501
QU	-10.3503
▁opérateurs	-10.3503
éra	-10.3503
nat	-10.3508
▁trans	-10.3508
▁contributions	-10.351
▁minimale	-10.3514
▁500	-10.3515
▁existant	-10.3519
option	-10.3521
euros	-10.3538
▁consiste	-10.3541
TION	-10.3556
assi	-10.3556
aéronef	-10.3559
▁thérapeutiques	-10.3561
▁éligible	-10.3562
▁coordonnées	-10.3564
▁faits	-10.3569
▁règlements	-10.3573
ip	-10.3573
har	-10.3574
TO	-10.3584
▁Pa	-10.3585
▁spécialisé	-10.3586
▁groupes	-10.359
cc	-10.3599
ts	-10.36
ANS	-10.3601
▁Ver	-10.3601
ESR	-10.3603
impôt	-10.3603
ati	-10.3603
▁campagne	-10.3606
ait	-10.361
▁calculé	-10.3614
bu	-10.3616
GA	-10.3617
▁indiqué	-10.3627
hospice	-10.3627
échéance	-10.3627
▁Poitiers	-10.3627
▁valorisation	-10.3627
▁répondre	-10.3629
▁FA	-10.3631
mes	-10.3645
efficacité	-10.3649
▁législation	-10.3649
ise	-10.365
TER	-10.3653
▁Alexandre	-10.3653
▁Fa	-10.366
ienne	-10.3665
2022	-10.367
vo	-10.3671
▁Maurice	-10.3676
▁contractuelle	-10.3692
▁tient	-10.3694
▁sortie	-10.3696
▁Di	-10.3698
ions	-10.3704
nés	-10.3713
▁guerre	-10.3715
▁logistique	-10.3715
▁PAR	-10.3716
▁masse	-10.3721
▁précitée	-10.3721
hu	-10.3731
▁représentation	-10.3737
▁stagiaire	-10.3739
▁salaire	-10.3744
▁RO	-10.3746
Pyrénées	-10.3759
▁biodiversité	-10.3759
apport	-10.376
▁POUR	-10.3766
ich	-10.378
▁pédiatrie	-10.3781
ed	-10.3782
Vincent	-10.3788
▁présentée	-10.3789
▁mg	-10.3792
▁qualifications	-10.3799
infirmier	-10.38
▁naissance	-10.3803
INS	-10.3813
▁reprise	-10.3817
▁disposant	-10.3825
▁routier	-10.3825
▁Reims	-10.3825
11-3	-10.3826
▁ouvriers	-10.3826
▁inscrites	-10.3837
▁valable	-10.3842
OIS	-10.3846
▁prévoit	-10.3847
nier	-10.3851
end	-10.3852
MER	-10.3853
▁sus	-10.3862
1-7	-10.3862
tour	-10.3867
▁avenue	-10.387
▁Bruno	-10.3871
▁suivie	-10.3883
▁ouvrages	-10.3896
lie	-10.3899
groupe	-10.3901
Or	-10.3902
étudiant	-10.3909
▁ingénieure	-10.3916
▁PER	-10.3923
effectuer	-10.3923
▁degré	-10.3926
▁choisie	-10.3928
anne	-10.393
LO	-10.3932
▁tri	-10.3935
▁formule	-10.3937
très	-10.3937
amende	-10.3938
11-1	-10.3947
▁Modalités	-10.3959
cour	-10.396
▁portée	-10.3975
Ferrand	-10.3983
Frédéric	-10.3993
▁fera	-10.3995
IOMA	-10.4003
▁éventuellement	-10.4007
venant	-10.4012
De	-10.4016
▁BA	-10.4019
BE	-10.402
▁greffe	-10.4026
▁relevé	-10.4027
Luc	-10.4029
▁DÉ	-10.403
▁étant	-10.4031
PS	-10.4032
uy	-10.4033
▁norme	-10.4034
Juge	-10.4035
▁aussi	-10.4041
▁déclarations	-10.4041
▁fondement	-10.4051
▁actifs	-10.4052
▁client	-10.4057
êt	-10.4057
apprécier	-10.4058
▁matières	-10.406
▁2025	-10.4069
▁représentatives	-10.4072
▁bassin	-10.4073
asile	-10.4073
/2022-11-2	-10.4074
▁vérifications	-10.4076
▁propositions	-10.4076
▁exposé	-10.4083
▁professions	-10.4083
▁PA	-10.4086
▁morales	-10.4087
▁contexte	-10.4095
▁garantir	-10.4096
▁Ba	-10.41
▁déclarés	-10.4101
▁relèvent	-10.4101
▁extérieure	-10.4107
▁agréées	-10.4113
institut	-10.4113
Ile	-10.4124
▁indique	-10.4128
▁versées	-10.4136
Amiens	-10.4141
▁partiel	-10.4146
▁demandé	-10.4148
ug	-10.4151
▁hospitaliers	-10.4151
votre	-10.4153
▁logements	-10.4161
▁employés	-10.4165
▁maladies	-10.4168
EG	-10.4174
▁contractante	-10.4182
Barthélemy	-10.4187
▁Brest	-10.4187
▁diffusion	-10.4204
▁issue	-10.4214
RET	-10.422
▁situés	-10.4231
▁constatation	-10.4236
▁rappel	-10.4237
▁forêt	-10.4243
▁adaptée	-10.4243
▁CAR	-10.4252
▁test	-10.4253
▁manquement	-10.4256
▁justificatifs	-10.4272
▁brut	-10.4277
▁constitue	-10.4279
▁destination	-10.4279
▁modifier	-10.4281
▁CE	-10.4288
NO	-10.4291
Claude	-10.4297
isé	-10.4302
initiative	-10.4302
▁territoriaux	-10.4302
Vilaine	-10.4303
▁Christine	-10.4314
avant	-10.4321
▁effective	-10.4321
▁Ta	-10.4325
▁psychologue	-10.4326
▁attachés	-10.4333
▁approuvé	-10.4335
ec	-10.4337
▁action	-10.4347
ARTICLE	-10.4349
▁auquel	-10.4349
ient	-10.436
▁55	-10.4361
approbation	-10.4368
pri	-10.4369
▁Ben	-10.437
Azur	-10.4373
iane	-10.4383
cl	-10.4387
vert	-10.4394
▁états	-10.4396
▁reçu	-10.4398
cher	-10.4399
▁totalité	-10.4401
▁habilité	-10.4401
ID	-10.4415
▁Bour	-10.4416
▁annexée	-10.4417
accréditation	-10.442
▁mutation	-10.442
▁régimes	-10.4421
▁médicales	-10.4428
Tout	-10.4429
ste	-10.4433
ces	-10.4436
assuré	-10.444
▁destinés	-10.4441
▁Nice	-10.4443
▁méthodes	-10.4449
▁dépôts	-10.4456
▁participe	-10.4458
21-1	-10.447
▁assistante	-10.4473
ici	-10.4486
magistrature	-10.4488
gré	-10.4493
▁remis	-10.4495
FR	-10.4502
arr	-10.4514
▁Constitution	-10.4514
▁schéma	-10.4514
ène	-10.4524
▁attribuée	-10.4532
IP	-10.4537
î	-10.4538
▁douze	-10.4538
▁partenaires	-10.4543
▁dénommée	-10.4549
▁Seine	-10.4551
LAN	-10.4557
▁al	-10.4558
▁numériques	-10.4559
▁(3)	-10.4562
pose	-10.4562
▁Luc	-10.4571
▁pédagogiques	-10.4575
pr	-10.4576
BR	-10.4579
Ille	-10.458
▁jugement	-10.4582
▁bénéficie	-10.4584
évaluer	-10.4586
▁nécessité	-10.4586
▁indicateurs	-10.4587
non	-10.4591
/2022-09-0	-10.4591
cent	-10.4592
▁propose	-10.46
JE	-10.4603
▁déterminé	-10.4609
Sébastien	-10.461
▁Thomas	-10.4625
▁location	-10.4634
Garonne	-10.4635
▁donner	-10.4635
▁supports	-10.4638
▁1992	-10.4645
▁tour	-10.4645
▁longue	-10.4653
▁Associés	-10.4658
▁mobile	-10.4658
SSA	-10.4663
▁Caen	-10.4664
▁dédié	-10.4667
▁conduit	-10.4668
FO	-10.4677
▁"3.	-10.4679
viennent	-10.468
▁Conditions	-10.4682
ologique	-10.469
ENS	-10.4697
▁loyer	-10.4698
▁Claire	-10.4698
éro	-10.4699
ales	-10.4704
▁précédant	-10.4706
▁plateformes	-10.4708
▁11°	-10.4716
ange	-10.4725
▁validé	-10.4729
▁libertés	-10.473
immatriculation	-10.4731
INTA	-10.4731
tal	-10.4733
▁fourniture	-10.4734
▁directe	-10.4743
ric	-10.4744
▁terrain	-10.475
Ro	-10.4757
▁élections	-10.4759
TH	-10.4764
▁réalise	-10.4764
▁intérêts	-10.4767
▁assurant	-10.4779
▁covid	-10.4779
▁Versailles	-10.478
men	-10.4788
▁CS	-10.479
▁publiée	-10.4795
▁parts	-10.4799
PA	-10.48
▁rendus	-10.4802
▁outils	-10.4806
▁textes	-10.4807
échange	-10.4807
ASS	-10.4809
▁recherches	-10.481
▁intercommunale	-10.4819
5-3	-10.4822
▁solution	-10.4824
incident	-10.4828
octroi	-10.4828
pprovisionnement	-10.4828
▁complète	-10.4828
▁sanitaires	-10.4831
out	-10.4831
TS	-10.4839
▁formes	-10.4844
▁imagerie	-10.4846
▁NO	-10.486
yn	-10.4863
▁mineurs	-10.4872
▁déplacement	-10.4874
▁téléphone	-10.4878
▁multi	-10.4878
▁cassation	-10.4879
exposition	-10.4882
Stéphane	-10.4887
▁transmises	-10.4891
▁conseillers	-10.4895
▁secteurs	-10.4896
▁poids	-10.4902
▁vins	-10.4907
ART	-10.4924
▁soumises	-10.4925
Espace	-10.4927
▁processus	-10.4927
▁Bretagne	-10.4927
▁Emmanuel	-10.4927
AZ	-10.4928
ième	-10.4933
▁Délégation	-10.4933
Charles	-10.4934
▁Sylvie	-10.4936
gar	-10.4945
▁déc	-10.4945
▁cotisation	-10.4949
▁régie	-10.4953
ARTI	-10.4959
pli	-10.496
van	-10.4967
▁installation	-10.4969
▁personnalités	-10.4969
OC	-10.4974
/2022-08-2	-10.4977
▁CONCOURS	-10.4977
▁Ex	-10.4977
▁déposé	-10.4983
▁donné	-10.4983
tan	-10.4983
▁recommandations	-10.4985
▁avocat	-10.4985
laire	-10.4999
▁ordres	-10.5
▁rigueur	-10.5002
▁Bi	-10.5004
BI	-10.5012
▁localement	-10.5013
CCP	-10.5024
▁vétérinaire	-10.5025
▁Accord	-10.5027
▁magistrature	-10.5029
▁48	-10.5035
tor	-10.5035
▁Rhône	-10.5037
lage	-10.5041
▁2002	-10.5042
AUX	-10.5043
▁description	-10.5044
▁car	-10.5044
▁consultable	-10.5052
Angers	-10.5052
adoption	-10.5057
AGRS	-10.5058
use	-10.5062
RON	-10.5065
▁nouvel	-10.5067
ren	-10.5071
▁éco	-10.5071
ANI	-10.5071
▁200	-10.5077
▁juridiques	-10.5077
Traitement	-10.5077
▁concessionnaire	-10.5077
/2022-11-1	-10.5079
ili	-10.5079
▁candidate	-10.5095
▁gynécologie	-10.5102
▁recevoir	-10.5102
▁trouve	-10.5102
sante	-10.5106
nce	-10.5117
▁demeure	-10.5123
Audrey	-10.5127
▁LO	-10.5127
actif	-10.5127
TR	-10.5128
▁finalité	-10.5132
Lorsqu	-10.5133
aine	-10.5133
▁utilisé	-10.5136
ssent	-10.514
épreuves	-10.5141
utilité	-10.5153
▁annuels	-10.5159
▁Ha	-10.5161
▁externes	-10.5163
rain	-10.5171
Quentin	-10.5178
TEXT	-10.5178
quelles	-10.5179
▁maximal	-10.5193
HE	-10.5196
can	-10.5197
TU	-10.5199
▁Disposition	-10.5203
▁cancer	-10.5203
enfance	-10.5204
▁pensions	-10.5206
HO	-10.5213
▁Gérard	-10.5216
cy	-10.5218
▁électriques	-10.5219
▁radio	-10.5229
Matthieu	-10.5229
Gironde	-10.5229
▁615	-10.523
▁proposer	-10.5238
▁calendrier	-10.524
comp	-10.5241
ann	-10.5247
▁affectée	-10.5248
▁automatisé	-10.5254
▁marque	-10.5255
ng	-10.5273
▁régisseur	-10.528
▁infanterie	-10.5281
SSE	-10.5292
ateurs	-10.5294
ano	-10.5294
4-4	-10.5297
▁troupe	-10.5297
▁FS	-10.53
ives	-10.5301
achèvement	-10.5306
chercheurs	-10.5307
3-6	-10.5314
▁Ville	-10.5317
not	-10.5322
▁spécialisées	-10.5326
▁plans	-10.533
▁précédente	-10.5332
▁porter	-10.5336
▁majoration	-10.5339
Etablissement	-10.5346
ault	-10.535
STE	-10.5353
Ga	-10.5353
ane	-10.5356
ian	-10.5357
▁thermique	-10.5357
▁Durée	-10.5357
▁Roger	-10.5358
▁presse	-10.5359
▁électeurs	-10.536
▁tir	-10.5361
▁émissions	-10.5361
hors	-10.5362
▁112	-10.5367
▁fourni	-10.5373
▁régis	-10.5373
▁maison	-10.5385
▁âgées	-10.5388
▁calculée	-10.5392
▁49	-10.5402
▁fraction	-10.5409
▁prescrit	-10.5409
▁Besançon	-10.5409
▁auxquel	-10.5413
▁report	-10.5414
att	-10.5414
rm	-10.5422
▁préalables	-10.5423
▁Ne	-10.5427
ND	-10.5428
▁envoyé	-10.5435
Alexis	-10.5436
▁détail	-10.5437
▁ultérieurement	-10.5438
▁certifications	-10.544
▁communique	-10.5449
échelon	-10.5451
directrice	-10.5452
David	-10.5452
Provence	-10.5452
je	-10.5455
/2022-06-	-10.546
LET	-10.5466
org	-10.5467
▁Haut	-10.5473
▁niveaux	-10.5476
▁80	-10.548
▁biologiques	-10.5481
ures	-10.5482
Lo	-10.5486
aragraphe	-10.5487
hou	-10.5496
▁atteint	-10.5497
OS	-10.5503
ong	-10.5504
Maxime	-10.5506
▁relation	-10.552
chet	-10.552
▁Etablissement	-10.5525
itaire	-10.5527
▁immobilier	-10.5535
▁équivalente	-10.5539
nom	-10.554
▁Nombre	-10.5541
▁forces	-10.5543
▁liquidation	-10.5543
▁OU	-10.5544
▁privés	-10.5547
000	-10.5547
12-3	-10.5548
▁eu	-10.5552
▁instituée	-10.5555
▁pénal	-10.5558
land	-10.5565
▁tutelle	-10.5567
▁passagers	-10.5567
▁propriétaire	-10.5573
▁signalement	-10.5574
SP	-10.5574
▁organise	-10.5575
▁experts	-10.5577
▁1982	-10.5578
cal	-10.5582
▁Pr	-10.5587
▁motivée	-10.5589
▁Trésor	-10.5593
▁instituant	-10.5593
▁provisoire	-10.5593
▁concertation	-10.5594
▁référent	-10.5595
Laura	-10.5597
▁prénom	-10.5601
▁comprise	-10.5603
FE	-10.5607
▁porté	-10.5609
▁Hauts	-10.5614
lis	-10.5615
▁comptabilité	-10.562
▁réparation	-10.562
▁cumul	-10.5623
▁approbation	-10.5624
▁susceptible	-10.5627
▁partage	-10.5633
▁technologies	-10.5645
▁conversion	-10.5646
▁personnalité	-10.5654
22-5	-10.5655
lant	-10.5655
▁commerciale	-10.5661
aye	-10.5664
effectue	-10.5666
▁Caroline	-10.5672
mbre	-10.5672
RÉ	-10.5672
ition	-10.5675
▁cm	-10.5678
▁notifiée	-10.5681
Laure	-10.5682
son	-10.5687
avi	-10.5688
court	-10.5694
▁constat	-10.5697
particulièrement	-10.5698
▁occurrence	-10.57
▁revenus	-10.57
▁Date	-10.5708
▁Go	-10.571
▁cité	-10.5713
tur	-10.5716
écu	-10.5721
assistant	-10.5722
▁soumise	-10.5722
/2022-09-2	-10.5724
éducateur	-10.5726
▁catastrophe	-10.5726
▁technologique	-10.5726
onc	-10.5729
▁radiologie	-10.5734
▁instance	-10.5736
▁étrangers	-10.5737
Pauline	-10.5753
▁livraison	-10.5753
▁réforme	-10.5755
ARS	-10.5757
8°	-10.5763
▁sé	-10.5763
ZE	-10.5776
éré	-10.5776
bre	-10.5776
▁réglementés	-10.5776
oit	-10.5779
▁reconnue	-10.5788
FI	-10.5795
▁compétents	-10.5796
▁traité	-10.5798
▁justifie	-10.5802
▁admissibles	-10.5806
▁définitif	-10.581
Elle	-10.5823
ROU	-10.5829
▁aura	-10.5832
▁contribue	-10.5834
▁Commune	-10.5838
▁423	-10.5841
▁établis	-10.5846
officier	-10.5846
▁équipes	-10.5847
▁continu	-10.5852
péri	-10.5856
ison	-10.586
oire	-10.5863
11-4	-10.5864
▁faite	-10.5865
▁accords	-10.5867
▁enregistrées	-10.5871
ies	-10.5871
▁étrangère	-10.5873
▁BEN	-10.5885
▁logiciel	-10.5889
▁millions	-10.5889
▁détenteur	-10.5889
▁déroulera	-10.5892
▁exemple	-10.5894
▁74	-10.591
▁01	-10.591
ém	-10.5912
▁veiller	-10.5915
▁Sébastien	-10.5916
mp	-10.5916
ori	-10.5917
▁exclusivement	-10.5918
▁rémunérations	-10.5919
▁Char	-10.5928
▁populations	-10.5929
▁commercial	-10.5932
▁électroniques	-10.594
ain	-10.5945
/2022-05-0	-10.5949
▁vous	-10.5951
OM	-10.5953
▁producteur	-10.5956
ALL	-10.5961
▁Xavier	-10.5962
▁audit	-10.5962
▁chargées	-10.5963
▁liquid	-10.5964
▁Sal	-10.5965
atteindre	-10.5971
▁So	-10.5972
▁sujet	-10.5978
Ana	-10.5978
▁PO	-10.5983
▁pu	-10.5985
▁165-1	-10.5986
▁clients	-10.599
▁AL	-10.5992
NI	-10.5993
ini	-10.5996
▁prononcée	-10.6006
▁consommateurs	-10.6012
▁donneur	-10.6016
cdg	-10.6017
URE	-10.6022
▁priorité	-10.6026
Chloé	-10.6026
▁enseignements	-10.6037
/2022-06-0	-10.6039
▁obtenus	-10.6042
oud	-10.6044
FF	-10.6044
eille	-10.605
▁recouvrement	-10.6055
▁inspecteurs	-10.6062
Jo	-10.6063
informations	-10.6068
/2022-01-1	-10.6068
▁stratégique	-10.6069
VAL	-10.6072
/2022-12-3	-10.6083
▁sept	-10.6089
▁notes	-10.6092
▁recueil	-10.6093
▁Th	-10.6094
▁population	-10.6097
▁Jérôme	-10.6106
▁suivre	-10.6109
▁jeux	-10.6111
▁Véronique	-10.6111
MIC	-10.6113
▁attribué	-10.6113
▁tarifaire	-10.6119
▁dommages	-10.6123
▁individuelles	-10.6129
▁décrit	-10.6129
bon	-10.6132
ak	-10.6136
RH	-10.6138
raient	-10.6144
▁Provence	-10.6147
pre	-10.6157
▁praticiens	-10.6158
▁particuliers	-10.616
quet	-10.6161
infraction	-10.6163
▁Mor	-10.6163
▁jeunes	-10.6165
▁attestant	-10.6165
car	-10.6166
départemental	-10.617
Re	-10.6173
▁GO	-10.6175
CIP	-10.6191
21-2	-10.6192
Gu	-10.6221
▁Bulletin	-10.6222
▁greffier	-10.6222
▁satisfaisant	-10.6222
▁grave	-10.6222
▁78	-10.6226
▁renouvelé	-10.6228
ès	-10.623
▁Julie	-10.6233
▁fournisseur	-10.6239
▁appelé	-10.624
▁motif	-10.6245
▁Convention	-10.625
▁bulletin	-10.6251
▁passer	-10.6255
▁élevé	-10.626
▁compléter	-10.626
▁désignées	-10.6261
▁sols	-10.6261
▁quantité	-10.6268
▁plafond	-10.6268
▁valider	-10.6278
▁évaluateurs	-10.6279
▁légale	-10.6283
intermédiaire	-10.6285
-2,	-10.6287
DO	-10.6287
▁portées	-10.629
▁réputé	-10.6299
issi	-10.6303
iti	-10.6306
hygiène	-10.6307
▁fabrication	-10.6307
élé	-10.6313
11-2	-10.6318
Maritime	-10.6326
▁exercent	-10.633
▁direct	-10.633
▁acheminé	-10.6335
▁Cl	-10.6335
▁Deux	-10.6338
▁sièges	-10.6342
préfète	-10.6343
▁DEL	-10.635
mor	-10.6352
▁confié	-10.6353
▁régions	-10.6357
▁intention	-10.6358
▁Florence	-10.636
▁brigade	-10.6364
▁consentement	-10.6364
▁diplomatique	-10.6364
empêchement	-10.6365
ECOE	-10.6371
Ouest	-10.6373
▁accusé	-10.6384
▁transporteur	-10.6385
▁Ou	-10.6386
accomplissement	-10.6392
▁compagnie	-10.6394
égi	-10.6394
EMENT	-10.6394
▁moteurs	-10.6396
Mathilde	-10.6402
▁horaires	-10.6402
▁proposé	-10.6402
▁déterminer	-10.6403
essai	-10.6406
▁régi	-10.6412
▁AUX	-10.6413
▁syndicale	-10.6413
af	-10.6417
▁vise	-10.6418
immeuble	-10.6418
▁solde	-10.642
Cédric	-10.6421
▁monétaire	-10.6421
Fabien	-10.6421
▁conférences	-10.6424
télésurveillance	-10.6427
▁série	-10.6428
Xavier	-10.6431
▁destinées	-10.6431
rat	-10.6433
▁1978	-10.6434
endre	-10.6435
ros	-10.6441
▁théorique	-10.645
▁variété	-10.645
3-7	-10.6455
ny	-10.6461
▁Gar	-10.6463
▁2001	-10.647
▁Cas	-10.6476
▁chronique	-10.6479
▁organique	-10.6479
▁reçoivent	-10.6479
▁Corps	-10.6479
▁exercice	-10.6482
▁court	-10.6486
▁législatives	-10.6488
▁hauteur	-10.6489
ê	-10.6492
auteur	-10.6492
vent	-10.6497
lia	-10.6507
▁déontologie	-10.6508
cité	-10.6531
isée	-10.6532
▁ensemble	-10.6532
▁Del	-10.6533
▁Pointe	-10.6537
der	-10.6538
▁correspondance	-10.6539
ente	-10.6542
▁Côte	-10.6543
Julie	-10.6544
▁comportement	-10.6554
év	-10.6554
▁représente	-10.6557
gre	-10.656
my	-10.6562
▁permettent	-10.6566
ification	-10.6567
▁12°	-10.6567
▁RÉ	-10.6569
▁expert	-10.6569
▁nouveaux	-10.657
dy	-10.6572
▁mentionne	-10.6573
▁FR	-10.6577
▁régies	-10.6581
▁GA	-10.6583
▁refusé	-10.6584
lat	-10.6588
▁référentiels	-10.6588
▁classes	-10.6589
▁Je	-10.6592
▁souhaite	-10.6595
œ	-10.6595
▁restructuration	-10.6595
0000467683	-10.6595
▁312-1	-10.66
rh	-10.6604
Hugo	-10.6605
▁Arnaud	-10.6608
▁Stéphanie	-10.6609
▁dehors	-10.6619
▁Affectation	-10.6625
▁décès	-10.6625
▁Lo	-10.6627
▁513	-10.663
Clément	-10.6637
oi	-10.6641
▁réunions	-10.6646
▁prénoms	-10.6646
▁composant	-10.6648
▁Cécile	-10.665
No	-10.6653
▁spécialisés	-10.6654
▁équipe	-10.6656
▁fiscale	-10.6663
cf	-10.6664
identifier	-10.6664
oli	-10.6668
▁rejet	-10.6669
adjoint	-10.667
▁HA	-10.6673
the	-10.6673
▁Limoges	-10.6683
Yann	-10.6684
▁infirmiers	-10.6687
pré	-10.6698
tré	-10.6704
fort	-10.6708
▁Officier	-10.6713
▁reçoit	-10.6713
▁consulté	-10.6718
▁accordé	-10.6719
quota	-10.6719
▁rejeté	-10.6722
▁MOR	-10.6732
ath	-10.6737
▁indication	-10.6738
▁main	-10.6739
▁composée	-10.6739
▁réadaptation	-10.675
▁magistrate	-10.6751
▁signe	-10.6751
▁meilleur	-10.6757
▁signée	-10.6759
jo	-10.676
▁Pas	-10.676
isant	-10.6762
▁rapports	-10.6763
▁statistiques	-10.6764
exigence	-10.677
Clémence	-10.6772
Savoie	-10.6773
▁intervient	-10.6774
PO	-10.678
Arnaud	-10.679
▁pension	-10.68
▁force	-10.6801
opticien	-10.6802
▁réintégré	-10.6802
inventaire	-10.6802
▁Pays	-10.6803
Tunisie	-10.6804
rom	-10.6804
endant	-10.6806
▁conjointement	-10.6807
▁naturels	-10.6826
▁expertise	-10.6826
adolescent	-10.6829
▁ailleurs	-10.6832
▁dialogue	-10.6832
cardiovasculaire	-10.6834
TIER	-10.6834
▁parental	-10.6844
Pascal	-10.6851
NET	-10.6855
▁étendue	-10.6856
▁bio	-10.6858
▁maîtres	-10.686
isme	-10.686
▁réparti	-10.6868
▁Camille	-10.6872
iff	-10.6876
même	-10.6881
▁mensuelle	-10.6885
▁stock	-10.6889
▁2003	-10.6892
▁Raymond	-10.6892
▁pilote	-10.6892
▁scientifiques	-10.6894
▁COM	-10.6894
▁transmise	-10.6895
nant	-10.6906
arch	-10.6909
accompagne	-10.6917
▁voir	-10.6919
LES	-10.6922
Lieutenant	-10.6923
▁barème	-10.6923
▁revenu	-10.6925
▁conventionnelle	-10.6929
uz	-10.6935
▁Gilles	-10.6937
▁approuvée	-10.6941
Charlotte	-10.6943
▁gestionnaires	-10.6944
q	-10.6944
▁secondaire	-10.6945
▁Service	-10.6946
Saône	-10.6953
homologation	-10.6953
▁Didier	-10.6954
▁majorité	-10.6956
/2022-01-0	-10.6958
▁arrête	-10.6962
▁of	-10.6963
▁65	-10.6965
▁socio	-10.6969
cyc	-10.697
gent	-10.697
▁adapté	-10.6972
▁éventuelles	-10.6978
▁trésorerie	-10.6983
og	-10.6986
▁SAINT	-10.6986
Florian	-10.6995
▁Rou	-10.6998
▁contrôleurs	-10.7002
Romain	-10.7005
▁désignée	-10.7011
▁ancien	-10.7011
▁dissolution	-10.7014
▁chauffage	-10.7014
▁infractions	-10.7017
zo	-10.7017
Ch	-10.7017
▁supplémentaires	-10.7019
gen	-10.7023
▁pluridisciplina	-10.7023
▁Or	-10.7031
avoir	-10.7033
▁Bas	-10.7034
culture	-10.7037
dire	-10.7039
▁Cor	-10.704
▁électorales	-10.7042
▁fréquence	-10.7044
▁charte	-10.7044
ham	-10.7044
▁LISTE	-10.7044
▁Fond	-10.7044
▁Normandie	-10.7045
artisanat	-10.7045
èle	-10.7048
/2022-04-	-10.7048
▁Gui	-10.7051
▁321-1	-10.7054
▁76	-10.7056
▁climatique	-10.7061
-2.	-10.7062
SSAS	-10.7063
éno	-10.7064
Ces	-10.7066
▁atteints	-10.7068
/2022-09-1	-10.7074
thérapie	-10.7075
▁cohérence	-10.7075
▁dépistage	-10.7075
▁particulière	-10.7079
Cha	-10.7084
▁disposent	-10.7094
resse	-10.7095
▁dés	-10.7098
Jacques	-10.7099
▁répartis	-10.7101
ères	-10.7103
Laboratoire	-10.7106
▁Mouvement	-10.7106
▁répondant	-10.711
nis	-10.7112
▁motifs	-10.7117
▁Serge	-10.712
▁post	-10.7123
▁but	-10.7125
Emmanuel	-10.7125
Manon	-10.7126
▁dose	-10.713
impact	-10.7131
▁marchandises	-10.7135
▁liée	-10.7136
escadron	-10.7137
▁enjeux	-10.7137
▁Directeur	-10.7137
▁PI	-10.7137
▁dépense	-10.7139
▁IX	-10.7147
202	-10.7151
▁DI	-10.7156
▁enregistré	-10.7157
▁intéressée	-10.7159
▁inscrite	-10.7162
comptable	-10.7163
▁Sécurité	-10.7168
tiennent	-10.7168
▁culturels	-10.7187
Emma	-10.7187
▁assuré	-10.719
LIER	-10.7192
▁publicité	-10.7193
▁séquence	-10.7199
▁prélèvement	-10.7202
▁dernières	-10.7204
ave	-10.7207
▁123-2	-10.7229
▁officier	-10.7233
▁fonctionnel	-10.7238
naire	-10.7248
ust	-10.7249
ancienneté	-10.7252
▁thèmes	-10.7254
▁préciser	-10.7258
Académie	-10.7261
attention	-10.7261
▁2020-523	-10.7261
▁solidaire	-10.7261
▁Sandrine	-10.7263
▁anciens	-10.7263
▁utilisation	-10.7264
aliment	-10.7265
▁Port	-10.7274
▁couverture	-10.7287
▁reconnues	-10.7291
expression	-10.7294
IQUE	-10.7297
▁détermination	-10.7306
▁qualifiées	-10.7307
Elise	-10.731
▁stages	-10.7314
INI	-10.7314
▁bureaux	-10.7316
▁intitulé	-10.7321
Yves	-10.7322
Damien	-10.7327
histoire	-10.7328
▁déplacements	-10.7329
▁150	-10.7329
▁respectives	-10.7331
▁conséquences	-10.7343
▁SP	-10.7346
7-2	-10.7347
▁juridictions	-10.7348
dia	-10.735
électeur	-10.7353
femme	-10.7353
▁Pré	-10.7354
ond	-10.7354
▁Action	-10.7355
▁prolongation	-10.7355
▁rôle	-10.7355
▁sexe	-10.7356
▁spécialiste	-10.7357
▁Mon	-10.7378
▁seuls	-10.738
▁Pi	-10.7384
respect	-10.7385
▁prioritaire	-10.7387
▁programmation	-10.7387
Amélie	-10.7387
Eric	-10.7391
▁assimilés	-10.7392
heim	-10.7394
▁utilisées	-10.7396
4)	-10.7404
▁courant	-10.7404
▁attendu	-10.7416
▁consécutifs	-10.7419
▁sécheresse	-10.7419
net	-10.7429
▁intérim	-10.743
▁bois	-10.7441
▁Louise	-10.7446
site	-10.7448
pha	-10.7449
existence	-10.7451
zi	-10.7454
AULT	-10.7456
▁conclusion	-10.7458
▁exemplaires	-10.7461
5-5	-10.7461
▁interdit	-10.7464
atrice	-10.7467
lig	-10.7467
▁conventionnel	-10.7469
iser	-10.7471
▁recrutés	-10.7471
▁potentiel	-10.7483
▁ASSOCIES	-10.7484
▁Da	-10.7491
▁conformes	-10.7498
▁déterminée	-10.75
entraînement	-10.7504
mine	-10.7511
occupation	-10.7515
▁différence	-10.7515
▁favorable	-10.7515
onnant	-10.7526
ministérielle	-10.7526
▁évalué	-10.7536
ball	-10.7537
▁déploiement	-10.7547
▁suppression	-10.7547
Caroline	-10.7548
OUL	-10.7554
leur	-10.7554
rac	-10.7557
▁susmentionnée	-10.7559
4-5	-10.756
▁agences	-10.756
ii	-10.7573
▁classé	-10.7578
▁remplaçant	-10.7579
▁trimestre	-10.7579
▁génie	-10.7579
échec	-10.7579
▁pourcentage	-10.7579
EDF	-10.758
▁continuité	-10.7581
interdiction	-10.7581
▁or	-10.7583
▁exploitants	-10.7591
date	-10.7591
▁secrétaires	-10.7597
▁émis	-10.7601
intolérance	-10.7611
▁Ka	-10.7613
▁couronne	-10.7614
▁journée	-10.7622
▁concour	-10.7623
▁Tous	-10.7623
▁élu	-10.7625
13-1	-10.7625
▁label	-10.7631
mètre	-10.7637
▁expérimentation	-10.7637
ALE	-10.7637
GU	-10.764
éligibilité	-10.7644
▁6124-	-10.7644
▁flux	-10.7644
▁moitié	-10.7644
▁autonome	-10.7644
▁MO	-10.7652
gr	-10.7653
▁BER	-10.7662
▁77	-10.7663
Aix	-10.7663
lor	-10.7673
▁régularisation	-10.7677
▁dérouleront	-10.7677
▁certifié	-10.7677
▁universitaires	-10.7678
▁départementales	-10.7684
▁remet	-10.7694
▁Santé	-10.7695
▁saisi	-10.7702
▁734	-10.771
MICC	-10.772
▁prévisionnel	-10.7725
Oise	-10.7725
ven	-10.7727
▁caisses	-10.7729
▁versé	-10.7731
▁reconnu	-10.7733
▁délivrés	-10.7735
▁déposer	-10.7742
▁extraordinaire	-10.7742
▁saisine	-10.7747
▁mobilis	-10.775
▁résident	-10.775
cinq	-10.7751
▁volontaire	-10.7754
▁développer	-10.776
ty	-10.7761
▁étude	-10.7762
IGN	-10.7767
▁assurances	-10.7768
ingénierie	-10.7775
▁circonscription	-10.7775
▁bancaire	-10.7775
▁2241-1	-10.7776
▁Monique	-10.7776
▁achats	-10.7781
5-4	-10.7784
▁appelée	-10.7784
DC	-10.7784
IM	-10.7787
▁électrique	-10.7788
▁notifie	-10.7789
cou	-10.7791
21-3	-10.7793
été	-10.7793
▁supprimées	-10.7802
gène	-10.7803
AGE	-10.7806
▁ensuite	-10.7808
▁limitation	-10.7808
▁pertinent	-10.7808
▁tirage	-10.7811
ANCE	-10.782
▁Ja	-10.7834
▁cap	-10.7838
ov	-10.7839
adopté	-10.7841
▁situées	-10.7841
▁salle	-10.7843
LER	-10.7844
▁Com	-10.7844
pon	-10.7847
▁614	-10.7857
▁07	-10.7862
Considérant	-10.7874
implantation	-10.7874
écart	-10.7876
œuvre	-10.7881
▁ultérieur	-10.7891
huit	-10.7891
RIS	-10.7891
ARR	-10.7894
MP	-10.7899
▁Denis	-10.7905
▁Laurence	-10.7906
perfectionnement	-10.7908
▁300	-10.7916
▁k	-10.792
adi	-10.792
▁personnelle	-10.7922
▁nucléaires	-10.7923
éna	-10.793
événement	-10.7938
AH	-10.7938
ssa	-10.794
▁confidentialité	-10.7941
▁facultative	-10.7941
▁réelle	-10.7943
HI	-10.7946
credi	-10.7954
▁ponctuelle	-10.7958
▁postal	-10.7965
▁communiquée	-10.7974
▁orientations	-10.798
hor	-10.7984
Mo	-10.7985
▁septième	-10.7986
▁initial	-10.7986
hy	-10.7997
igue	-10.7998
▁travailleur	-10.7999
▁électoral	-10.8
eff	-10.8007
▁systémique	-10.8008
Elodie	-10.8008
▁tourisme	-10.8009
ITÉ	-10.8009
▁neuf	-10.8012
▁atteste	-10.8015
▁impact	-10.8015
▁atteinte	-10.8019
9°	-10.8026
▁âgés	-10.8033
ordonnateur	-10.8041
lla	-10.8044
oris	-10.8044
6-3	-10.8053
▁neuro	-10.8061
▁constitution	-10.8062
▁Franck	-10.8063
▁exigé	-10.8065
▁traitant	-10.8074
faciale	-10.8076
▁lendemain	-10.8076
▁pluriannuel	-10.8076
▁collectifs	-10.808
▁cellules	-10.8088
▁personnelles	-10.8093
thé	-10.8096
▁échanges	-10.8096
▁délibérations	-10.8101
alerte	-10.8102
▁vivante	-10.811
▁nomenclature	-10.8112
22-3	-10.8114
▁réintégration	-10.8115
cor	-10.8115
▁issues	-10.8115
gie	-10.8118
▁fournis	-10.8119
▁PRO	-10.8122
Hélène	-10.8123
Mathieu	-10.8123
▁culturelles	-10.8126
▁principe	-10.8128
arme	-10.8129
illet	-10.8133
ZI	-10.8135
▁GI	-10.8137
▁petites	-10.814
▁enseignant	-10.8143
▁Réaliser	-10.8144
Arthur	-10.8144
exportation	-10.8145
uit	-10.8155
▁Hu	-10.8159
pin	-10.8161
▁accompagnement	-10.8164
BER	-10.8166
▁radiée	-10.8168
▁posté	-10.8172
appréciation	-10.8178
▁retenue	-10.8182
▁classées	-10.819
▁méthotrexate	-10.8191
Association	-10.8193
tic	-10.8195
session	-10.8199
▁Taux	-10.8203
▁Nom	-10.8206
▁Bri	-10.8208
▁contrôlé	-10.8209
▁CAS	-10.8212
▁abroge	-10.8213
▁périodicité	-10.8213
Edouard	-10.8213
hommes	-10.8217
▁SAS	-10.822
BRE	-10.8221
Du	-10.8237
▁humaine	-10.824
▁sessions	-10.8243
▁périodique	-10.8247
▁quarante	-10.8247
▁Banque	-10.8247
▁considération	-10.8248
tt	-10.8249
▁déterminées	-10.8254
entre	-10.8256
fe	-10.8264
Lors	-10.827
▁imparti	-10.8275
outil	-10.8279
assainissement	-10.8282
▁mensuel	-10.829
▁communiqués	-10.8291
ieux	-10.8292
▁quantités	-10.8294
praticien	-10.8298
euvent	-10.8315
▁artistique	-10.8316
▁éventuels	-10.8319
▁ét	-10.8321
mod	-10.8322
▁ST	-10.8323
Charente	-10.8327
ico	-10.8328
ys	-10.8333
usqu	-10.8335
▁notifié	-10.834
▁classés	-10.8341
illon	-10.8344
▁confirm	-10.8348
▁géographiques	-10.8348
▁SELARL	-10.8351
▁Pôle	-10.8351
▁final	-10.8354
NOT	-10.8357
▁Mou	-10.8357
FP	-10.8369
organiser	-10.8371
▁cellule	-10.8374
▁horaire	-10.8374
étend	-10.8379
▁envisagée	-10.8381
▁utiles	-10.8385
▁Financement	-10.8386
▁classification	-10.8386
▁problème	-10.8386
échelle	-10.8386
▁Albert	-10.8387
▁participations	-10.8395
▁SO	-10.8402
▁111	-10.8405
Sous	-10.8408
ttes	-10.841
agne	-10.841
rier	-10.8421
▁indexation	-10.8421
▁mentionnant	-10.8424
ORD	-10.8427
▁intéressés	-10.8431
GN	-10.8435
VO	-10.8436
▁214	-10.8441
▁dédiée	-10.8444
▁Na	-10.8447
ESS	-10.8448
audition	-10.8452
▁Cyclades	-10.8457
▁appartient	-10.8457
▁indiciaire	-10.8457
▁manifestation	-10.8457
▁résolution	-10.8457
▁vidéo	-10.8457
▁tuteur	-10.8457
MAN	-10.8457
▁Bureau	-10.8458
▁utiliser	-10.8474
▁réuni	-10.848
▁cré	-10.8483
▁imposé	-10.8492
▁bons	-10.8502
▁mobilités	-10.8502
▁dirigeant	-10.8504
ches	-10.851
durée	-10.8513
▁face	-10.8521
Justine	-10.8527
▁modernisation	-10.8527
▁simultanément	-10.8529
▁constituent	-10.8535
▁effectivement	-10.8535
▁important	-10.8545
informatique	-10.8549
▁Bu	-10.8554
▁engagée	-10.8557
▁tenus	-10.8561
▁intervention	-10.8562
mission	-10.8563
▁fabricant	-10.8563
▁précédemment	-10.8563
ncé	-10.8563
communications	-10.8565
▁accident	-10.8574
▁Charlotte	-10.8575
aient	-10.8576
ld	-10.8581
▁circonstances	-10.8583
▁déclaré	-10.8584
▁ministérielle	-10.8584
ENNE	-10.8591
▁pédiatrique	-10.8599
attente	-10.8599
▁remplir	-10.8602
▁paramètres	-10.8603
Calais	-10.8606
LON	-10.8617
▁221-14	-10.8618
dernier	-10.8622
▁Beau	-10.8623
CGT	-10.8623
▁pharmaceutique	-10.8626
▁quelle	-10.8629
▁résulte	-10.863
eg	-10.8632
duc	-10.8632
Aquitaine	-10.8635
▁Metz	-10.8635
dan	-10.8637
ves	-10.8637
organe	-10.8638
TREL	-10.864
ADE	-10.864
▁verser	-10.864
▁BE	-10.8642
▁contraintes	-10.8643
▁Céline	-10.8644
▁homologué	-10.8645
▁1994	-10.8648
▁parents	-10.8648
▁lié	-10.865
▁Sch	-10.8651
▁interventions	-10.8659
Clara	-10.866
Aude	-10.8661
Léa	-10.8662
▁réel	-10.8664
▁majoré	-10.8665
▁Direction	-10.8666
▁partielle	-10.8668
équilibre	-10.867
▁réussite	-10.867
▁CNIL	-10.8671
▁prochain	-10.8671
ya	-10.8673
▁familiales	-10.8674
▁retraits	-10.8674
12-7	-10.8679
vier	-10.8679
▁fraudes	-10.8681
dj	-10.8685
oral	-10.8685
▁Emmanuelle	-10.8688
▁arme	-10.869
Moselle	-10.8695
▁prenant	-10.8695
trait	-10.8698
▁partenaire	-10.8699
▁visites	-10.87
▁modifiées	-10.8703
▁compens	-10.8704
critère	-10.8704
▁indiquant	-10.8707
▁mémoire	-10.8707
▁scolarité	-10.8707
Pitre	-10.8712
classe	-10.8722
cept	-10.8723
▁obstétrique	-10.8725
▁qualifiée	-10.8726
lée	-10.8734
RIE	-10.874
SSI	-10.8742
▁Légifrance	-10.8743
▁intéressant	-10.8743
▁répression	-10.8743
▁apportées	-10.8748
Valentin	-10.8748
▁livret	-10.8755
ION	-10.8759
▁libellée	-10.8759
▁Sans	-10.8761
PI	-10.8763
▁conservé	-10.8768
utilisateur	-10.8776
ox	-10.8777
▁internationaux	-10.8779
Richard	-10.8779
▁différentiel	-10.878
▁passage	-10.8783
▁entendu	-10.8785
dou	-10.8788
RN	-10.8789
▁supérieurs	-10.8792
▁délivrer	-10.8803
Thierry	-10.8806
▁133	-10.8811
augmentation	-10.8816
▁St	-10.8821
GO	-10.8826
41-2	-10.8827
▁objectif	-10.883
▁NF	-10.8837
ira	-10.8838
▁consultations	-10.884
▁vérifié	-10.8847
221-15	-10.8848
plénipotentiaire	-10.8852
▁chantier	-10.8852
▁travers	-10.8852
▁virus	-10.8852
ore	-10.8853
▁ouverte	-10.8857
▁coll	-10.8865
▁412	-10.8869
▁tâches	-10.8878
territorial	-10.8881
encontre	-10.8883
▁préparatoire	-10.8889
▁semestre	-10.8889
▁ventes	-10.8889
uses	-10.8894
▁automatiquement	-10.8894
rim	-10.8895
part	-10.8896
▁LF	-10.8898
AIRE	-10.8902
▁subi	-10.8906
IO	-10.8908
pour	-10.8911
▁temporairement	-10.8921
▁prélèvements	-10.8922
▁exclu	-10.8922
▁respecte	-10.8922
électro	-10.8926
▁immobilière	-10.8926
▁majeure	-10.8926
▁CHAR	-10.8929
▁règlementaires	-10.8937
▁conservées	-10.8937
▁prêts	-10.894
▁performances	-10.894
RIN	-10.8941
▁climat	-10.8943
▁réservée	-10.8944
▁foncier	-10.8963
▁équipé	-10.8963
▁valide	-10.8964
▁exprimée	-10.8971
▁certificative	-10.8973
AUT	-10.8975
21-16	-10.8979
▁Bel	-10.8981
document	-10.8994
▁Château	-10.8997
▁faible	-10.9
▁profil	-10.9
▁utilisateurs	-10.9003
▁fondation	-10.9009
▁cliniques	-10.9016
Rémi	-10.9018
▁maintenu	-10.9028
DES	-10.903
▁Agence	-10.903
Futuna	-10.9032
▁vo	-10.9035
▁13°	-10.9036
Alexandra	-10.9038
Fanny	-10.9038
hal	-10.9039
▁institutions	-10.904
▁Bon	-10.9042
▁décider	-10.9044
alisation	-10.9046
▁affranchie	-10.9047
▁armes	-10.905
LU	-10.9063
▁destinée	-10.9065
▁organisés	-10.9066
accept	-10.9072
dre	-10.9072
▁quel	-10.9074
▁DÉPARTEMENT	-10.9075
▁Décision	-10.9075
▁correction	-10.9075
Germain	-10.9075
▁financé	-10.9075
excédent	-10.9076
▁rapporteur	-10.908
▁tableaux	-10.9101
▁JA	-10.9101
organismes	-10.9103
hen	-10.911
▁Museum	-10.9113
▁combustible	-10.9113
▁connexes	-10.9113
▁treizième	-10.9113
Thibault	-10.9113
▁fiscalité	-10.9114
▁Titre	-10.9115
uf	-10.9116
▁langues	-10.9118
Alban	-10.9121
▁Soit	-10.9121
loi	-10.9126
Lucas	-10.9134
dits	-10.9137
EST	-10.9139
▁constituer	-10.9143
▁mathématiques	-10.9144
▁créée	-10.9145
instance	-10.9147
▁métier	-10.9149
Suppléant	-10.915
▁2022-2023	-10.915
▁bonification	-10.9151
VEN	-10.9152
▁participent	-10.9158
▁eux	-10.9171
▁stricte	-10.9172
22-4	-10.9186
Benjamin	-10.9186
Pologne	-10.9188
▁audioprothèse	-10.9188
▁facturé	-10.9188
▁Sociale	-10.9188
▁dépend	-10.9188
▁réclamation	-10.9189
▁insérée	-10.919
▁Patricia	-10.919
▁intervenir	-10.9193
▁représentante	-10.9194
▁Ab	-10.9194
info	-10.9198
▁fournisseurs	-10.9202
▁confiées	-10.9203
▁net	-10.9209
▁préfète	-10.9215
ONNE	-10.9216
▁automatique	-10.9221
équivalence	-10.9223
▁rendre	-10.9238
▁Su	-10.9239
abri	-10.9249
UV	-10.9249
spec	-10.9251
▁Am	-10.9255
DU	-10.9256
issant	-10.9259
bra	-10.9262
officine	-10.9264
▁révision	-10.9264
chimie	-10.9264
▁utile	-10.9265
uff	-10.9267
▁légal	-10.9271
MAR	-10.9284
NT	-10.9284
LOU	-10.9286
▁terminale	-10.929
▁environnemental	-10.9294
▁Bertrand	-10.9297
ANN	-10.9297
institution	-10.93
▁titularisation	-10.9303
▁téléversement	-10.9303
▁contenant	-10.9303
▁téléprocédure	-10.9303
▁vaut	-10.9304
▁technologie	-10.9304
PL	-10.932
▁Gr	-10.932
▁manifeste	-10.9321
illy	-10.9336
▁auto	-10.9339
▁Français	-10.934
atoire	-10.934
▁polytechnique	-10.9341
▁modes	-10.9346
ata	-10.9347
TON	-10.9351
▁proche	-10.9368
▁Bouches	-10.9369
▁conventionnels	-10.937
▁identifiant	-10.9372
rand	-10.9378
▁message	-10.9379
▁restauration	-10.938
▁double	-10.938
▁mixte	-10.938
▁sollicit	-10.9381
TES	-10.9385
▁insuffisante	-10.9387
rop	-10.9388
roy	-10.9404
euil	-10.9406
ements	-10.9408
▁privées	-10.9412
▁animaux	-10.9416
Mélanie	-10.9418
▁cavalerie	-10.9418
▁nécessitant	-10.9418
▁destiné	-10.9419
▁minier	-10.9419
▁débat	-10.942
▁instituts	-10.9423
▁afférentes	-10.9425
▁contractant	-10.9426
ries	-10.9428
▁NATIONALE	-10.9428
▁prestataires	-10.943
▁éducatif	-10.9431
DON	-10.9431
pp	-10.9431
traitant	-10.9434
▁engagement	-10.9434
aj	-10.9436
eng	-10.944
▁limiter	-10.9443
▁familiale	-10.9443
/2022-11-	-10.9452
bin	-10.9454
▁consenti	-10.9457
▁européennes	-10.9459
▁prévoir	-10.946
administratif	-10.946
HER	-10.9465
lli	-10.947
▁informatiques	-10.9477
û	-10.9481
▁puisse	-10.9482
iot	-10.9486
tou	-10.949
ussi	-10.9493
▁signalisation	-10.9497
▁invité	-10.9498
▁victime	-10.9501
AGR	-10.9502
▁entend	-10.951
▁Alpes	-10.9514
log	-10.9516
Lucie	-10.9517
professionnelle	-10.9518
▁211-1	-10.9518
▁dotations	-10.9519
▁consignations	-10.9523
▁plaques	-10.9527
EF	-10.9529
isson	-10.953
▁exercé	-10.9533
▁prononcé	-10.9533
▁Bourgogne	-10.9536
▁décédé	-10.9536
Sarah	-10.954
Cécile	-10.954
▁postérieure	-10.9547
▁Vu	-10.955
▁521	-10.9551
▁TABLEAU	-10.9552
▁intégré	-10.9553
▁reçus	-10.9554
FA	-10.9565
SON	-10.9565
Uni	-10.9567
aille	-10.9567
UM	-10.9573
▁caractéris	-10.9574
▁mutualité	-10.9575
▁quartier	-10.9575
Jérôme	-10.958
▁réglementé	-10.9581
▁BP	-10.9582
▁Chi	-10.9584
▁fiscales	-10.9592
▁substitute	-10.9594
▁approprié	-10.9594
berg	-10.9595
IEN	-10.9597
▁serait	-10.9602
din	-10.9606
▁industriel	-10.9607
42-1	-10.9608
▁élabore	-10.9611
▁adaptées	-10.9611
▁blindé	-10.9615
excède	-10.9615
▁satisfait	-10.9615
ajout	-10.9617
acceptation	-10.9618
▁réunit	-10.9619
▁Sta	-10.962
-2-1	-10.9622
▁signataires	-10.9628
▁utilisée	-10.9629
▁jointe	-10.9633
graphique	-10.964
QUI	-10.9643
▁SUR	-10.9643
voi	-10.9644
mou	-10.9645
▁cortico	-10.9654
▁partagé	-10.9655
▁4111-2	-10.9655
▁GR	-10.9659
▁daté	-10.9667
▁rattachés	-10.9678
▁communiquer	-10.9679
yl	-10.9682
5-6	-10.9686
ita	-10.9689
▁BON	-10.9691
▁obstacle	-10.9693
importance	-10.9694
▁comprennent	-10.9694
mier	-10.9696
Florent	-10.9697
▁prépare	-10.97
▁utilise	-10.9701
▁représenté	-10.9704
édaillé	-10.9704
▁garantis	-10.971
▁déposée	-10.9711
elli	-10.9723
▁mail	-10.9726
▁requêtes	-10.973
▁visa	-10.9732
▁appliqué	-10.9732
élimination	-10.9734
▁permanence	-10.9734
▁bailleur	-10.9734
▁identifiés	-10.9736
▁moyennes	-10.9736
▁BI	-10.9738
▁fiscal	-10.9743
çon	-10.9744
▁mineur	-10.9745
▁acquises	-10.9749
▁passe	-10.9753
▁appui	-10.976
éventuel	-10.9771
rage	-10.9773
▁CAP	-10.9773
▁Var	-10.9774
▁Jacqueline	-10.9774
▁assisté	-10.9774
▁incomplet	-10.9774
▁Ho	-10.9775
axe	-10.9778
▁accidents	-10.9788
▁Laure	-10.9792
▁for	-10.9794
▁Benoît	-10.9808
adapter	-10.9815
▁Bpifrance	-10.9815
▁récolte	-10.9815
▁ventilation	-10.9815
ERT	-10.9815
équipements	-10.9823
▁destinataire	-10.9824
7-3	-10.9826
▁Auvergne	-10.9835
▁Hervé	-10.9838
▁documentation	-10.9839
CHER	-10.9846
▁estime	-10.9847
▁suffisa	-10.985
▁Contrôle	-10.9855
▁Produits	-10.9855
▁foncière	-10.9855
▁rattachement	-10.9855
▁361-4	-10.9858
▁prévenir	-10.9858
▁Martine	-10.9858
auxiliaire	-10.9861
vre	-10.9864
▁organisées	-10.9865
▁biologique	-10.9865
▁déterminés	-10.9868
GEN	-10.9871
▁Plan	-10.9876
▁troubles	-10.9878
VER	-10.9878
▁Gra	-10.9883
image	-10.9893
▁bail	-10.9895
▁provision	-10.9896
Franche	-10.9898
▁envoi	-10.9898
rit	-10.9898
▁lire	-10.9904
▁114	-10.9905
▁Mise	-10.9907
durable	-10.9908
▁1981	-10.9915
▁Toulon	-10.9937
▁démocratique	-10.9937
▁critique	-10.9937
▁Information	-10.9937
AMI	-10.9938
▁capable	-10.994
▁rencontr	-10.9943
▁pouvoirs	-10.9946
NOR	-10.9947
▁Autorité	-10.995
bilité	-10.9965
▁CCH	-10.9972
tage	-10.9973
▁Capitole	-10.9978
▁utilisant	-10.9978
▁marins	-10.998
▁OFFIC	-10.9981
ppe	-10.9995
100	-10.9996
▁transférée	-10.9997
▁72-3	-10.9997
▁appropriée	-10.9999
nie	-11
▁"4.	-11.0001
▁Mathieu	-11.0003
VILLE	-11.0015
▁To	-11.0016
developpement	-11.0019
adhésion	-11.0019
▁SNCF	-11.0019
▁indemnitaire	-11.0019
▁modificative	-11.0019
▁résiliation	-11.0019
▁2241-5	-11.0019
▁présidé	-11.0019
▁notée	-11.002
Toute	-11.002
▁souhaitant	-11.0022
▁justificatif	-11.0032
Conseil	-11.0033
▁carrière	-11.0036
▁1993	-11.0039
▁225	-11.0041
▁adresser	-11.0047
▁débit	-11.0049
▁global	-11.0058
▁DISPOSITION	-11.006
▁transmettent	-11.006
▁régulièrement	-11.0064
ditrice	-11.0072
accident	-11.0075
immobilier	-11.0075
▁JU	-11.0076
▁coup	-11.0076
UD	-11.0079
Sur	-11.0079
éni	-11.0082
▁tests	-11.0083
▁demandée	-11.0088
▁proportion	-11.0097
▁éducative	-11.0101
▁Royaume	-11.0101
▁détection	-11.0101
▁existe	-11.0104
▁faciliter	-11.0111
one	-11.0112
▁signal	-11.0113
▁VER	-11.0115
▁facture	-11.0116
▁formé	-11.0117
▁placées	-11.0123
▁annuellement	-11.0123
▁Organisation	-11.0123
▁danger	-11.0126
▁répond	-11.0128
ium	-11.0132
blanc	-11.014
▁communauté	-11.0143
▁impérativement	-11.0143
▁module	-11.0143
▁renseigné	-11.0143
▁renforcé	-11.0143
▁socle	-11.0143
hon	-11.0145
rectorat	-11.0148
▁scolaires	-11.015
nalité	-11.0153
▁école	-11.0157
▁qualifié	-11.0159
▁nuit	-11.0162
▁présentent	-11.0163
▁aptitudes	-11.0167
lès	-11.0169
Des	-11.0173
▁Part	-11.0179
▁retard	-11.0185
établir	-11.0187
▁vaccination	-11.0187
▁Victor	-11.0189
▁parcelle	-11.0194
vel	-11.0197
Adrien	-11.0203
uel	-11.0204
RIER	-11.0204
lay	-11.0208
▁Coll	-11.0208
▁Lucien	-11.0216
ANC	-11.0218
ech	-11.0219
NC	-11.0226
acheminement	-11.0227
alternance	-11.0227
▁justification	-11.0227
▁primaire	-11.0227
▁commis	-11.0227
▁entrant	-11.0227
▁établir	-11.023
omme	-11.0236
oui	-11.0237
▁Maxime	-11.024
▁conséquence	-11.0244
▁handicapés	-11.0249
▁réservistes	-11.0254
▁poursuite	-11.0255
▁disposer	-11.0257
▁cartes	-11.0262
rine	-11.0269
▁Titulaire	-11.0269
▁notice	-11.0269
▁pertinence	-11.0269
▁toutefois	-11.0269
▁tôt	-11.0269
▁vétérinaires	-11.0272
Comté	-11.0273
▁rejets	-11.0278
▁culturel	-11.028
Unis	-11.0293
loc	-11.0306
▁motivation	-11.0312
▁raccordement	-11.0312
▁Description	-11.0312
▁commerciales	-11.0316
individuellement	-11.0324
Inter	-11.0325
▁cela	-11.0329
▁conclue	-11.0332
justice	-11.0332
▁Simon	-11.0333
ÉE	-11.0333
EUX	-11.0335
Anna	-11.0335
▁détaillée	-11.0336
▁Association	-11.0336
mettent	-11.0337
▁Clément	-11.0342
iens	-11.0349
▁occupé	-11.0354
rice	-11.0355
▁dispensés	-11.0366
effectif	-11.0375
quatre	-11.0376
SER	-11.0379
EV	-11.038
▁porteur	-11.039
▁Van	-11.0391
▁patrimoines	-11.0395
/2022-03-3	-11.0397
échantillon	-11.0397
▁fusion	-11.0397
▁libération	-11.0397
autoroute	-11.0397
▁satisfaire	-11.0397
▁contacter	-11.0398
audience	-11.0398
▁déposés	-11.0401
▁inv	-11.0405
▁déclarée	-11.041
▁analyses	-11.0419
mettant	-11.0419
atteinte	-11.042
ession	-11.0426
▁Madeleine	-11.0429
riat	-11.0432
Aurélien	-11.0433
▁remplace	-11.0436
élevage	-11.0437
▁7500	-11.0439
▁délibérant	-11.044
▁tranche	-11.044
▁taille	-11.0441
Eure	-11.0441
▁diversité	-11.0444
▁suspendue	-11.0449
▁favoriser	-11.0456
▁Bru	-11.0458
▁syndicats	-11.046
ème	-11.0466
▁principales	-11.0467
▁consultée	-11.0469
▁équipement	-11.0473
UNE	-11.0479
affichage	-11.0483
entrepreneur	-11.0483
▁cinquante	-11.0483
▁vaisseau	-11.0483
▁vitesse	-11.0483
▁futur	-11.0483
▁organisatrice	-11.0483
▁feuille	-11.0488
ssé	-11.0494
212	-11.0495
▁Gabriel	-11.0498
▁assurent	-11.0502
▁précisé	-11.0508
▁expérimental	-11.0526
▁rectification	-11.0526
▁vivant	-11.0526
▁journalière	-11.0529
CHI	-11.0536
lou	-11.0536
▁Pauline	-11.054
▁Emilie	-11.054
ouche	-11.0544
▁semaine	-11.0548
extérieur	-11.0549
▁évolu	-11.0559
▁vacants	-11.056
▁effectif	-11.0567
▁patientes	-11.0568
Anthony	-11.057
aspirant	-11.057
hôpital	-11.057
▁forestière	-11.057
▁interventionnel	-11.0572
▁Services	-11.0572
▁poly	-11.0575
0-2	-11.0577
11-5	-11.058
Maritimes	-11.0584
gna	-11.0584
2021	-11.0585
▁rempli	-11.0585
▁réductions	-11.059
▁Elisabeth	-11.0595
▁accéder	-11.0597
▁Lucie	-11.0607
▁Sol	-11.0611
olo	-11.0611
nutrition	-11.0613
Christelle	-11.0613
Ludovic	-11.0613
▁432-13	-11.0613
▁spéciaux	-11.0613
▁CDG	-11.0613
▁requise	-11.0615
effectuent	-11.0615
▁subventions	-11.0615
▁GU	-11.0615
▁313-1	-11.0619
▁échange	-11.062
▁mille	-11.0624
▁162-1	-11.0633
In	-11.064
obtenir	-11.0641
aval	-11.0643
▁conclusions	-11.0647
ieu	-11.0655
Cyril	-11.0656
▁Nicole	-11.0656
▁établies	-11.0656
▁titularisé	-11.0657
▁éliminatoire	-11.0657
Margaux	-11.0657
▁arrêt	-11.0663
her	-11.0665
▁émet	-11.0667
nard	-11.0669
▁Mi	-11.0669
▁233	-11.067
▁situe	-11.0673
dg	-11.0674
ALI	-11.0678
▁SU	-11.068
▁légales	-11.0686
agri	-11.0688
▁vari	-11.0691
usse	-11.0692
▁Occitanie	-11.0694
▁communications	-11.0694
▁6123-1	-11.0701
juridictionnelle	-11.0704
▁Avant	-11.0705
Vienne	-11.0707
▁proposés	-11.0715
ACC	-11.0716
BEL	-11.0731
sociaux	-11.0731
KER	-11.0733
▁destinataires	-11.0735
▁indépendante	-11.0743
ica	-11.0743
▁adaptés	-11.0745
▁retirer	-11.0745
▁musique	-11.0746
MES	-11.0746
▁Chargé	-11.0746
▁définissant	-11.0747
idé	-11.0748
▁instruments	-11.0748
▁pharmaciens	-11.0749
▁MARTIN	-11.0751
OUSS	-11.0751
▁investissements	-11.0756
code	-11.0756
vie	-11.0758
sous	-11.0761
CU	-11.0771
▁Liste	-11.0774
AMM	-11.078
▁paysage	-11.0782
Olympiques	-11.0783
appareil	-11.0787
ema	-11.0787
▁prévoyance	-11.079
Théo	-11.0793
▁délivre	-11.08
Emilie	-11.0821
▁apporter	-11.0827
vol	-11.0829
indicateur	-11.0832
assujetti	-11.0835
▁dissoute	-11.0835
▁audiovisuelle	-11.0835
ACT	-11.0835
UP	-11.0837
▁localisation	-11.0838
Bas	-11.084
▁afférents	-11.0844
▁2014-	-11.0847
▁captures	-11.0848
ino	-11.0851
▁minimales	-11.0851
▁231	-11.0852
▁monde	-11.0857
union	-11.086
exprim	-11.0866
▁portent	-11.0871
▁Mal	-11.0875
ada	-11.0875
ast	-11.0875
▁Virginie	-11.0878
▁gratuit	-11.0879
▁voyage	-11.0879
joindre	-11.0879
▁trafic	-11.0879
▁démontr	-11.088
▁fixes	-11.0884
▁agro	-11.0886
MENT	-11.0887
écri	-11.0889
▁valablement	-11.089
▁évolutions	-11.0892
éga	-11.0897
▁Ministère	-11.0897
wa	-11.0912
▁évalue	-11.0915
▁adressées	-11.092
instrument	-11.0922
intégrité	-11.0924
▁abrégée	-11.0924
▁restriction	-11.0924
▁thon	-11.0926
▁train	-11.0926
▁équipage	-11.0927
▁2352-	-11.0933
Inès	-11.0935
▁2261-	-11.0937
▁évaluées	-11.094
▁plafonds	-11.0941
▁différent	-11.0943
OUX	-11.0943
SSAN	-11.0945
▁départementaux	-11.0945
▁transaction	-11.0949
Micha	-11.0952
▁retenues	-11.0953
▁station	-11.0954
bri	-11.0959
Toutefois	-11.0959
▁Pé	-11.0968
Mohamed	-11.097
▁forestier	-11.097
▁raisonnable	-11.097
del	-11.0973
▁attestations	-11.0987
▁détaillé	-11.0991
▁possibles	-11.0991
exerce	-11.0991
▁distinct	-11.0992
▁installé	-11.0998
▁actualis	-11.0999
▁signataire	-11.1
LÉ	-11.1001
▁transféré	-11.1001
GNE	-11.1004
▁Agnès	-11.1007
▁constitutive	-11.1015
▁cédé	-11.1015
▁distributeur	-11.1015
Vitale	-11.1015
▁exclusif	-11.1016
▁progression	-11.1016
▁péage	-11.1016
écologie	-11.1016
Lionel	-11.1016
Maria	-11.1017
▁essais	-11.102
▁réputée	-11.1027
«	-11.103
▁Montant	-11.1036
▁présentées	-11.1037
▁Fi	-11.1039
▁aigu	-11.104
illi	-11.1046
▁exemplaire	-11.1046
▁Cap	-11.1046
TEL	-11.1048
approche	-11.1052
Patrick	-11.1052
▁compose	-11.1055
Hérault	-11.1061
▁Gilbert	-11.1061
Léo	-11.1088
ERS	-11.1089
▁factures	-11.1091
ié	-11.1106
▁Paralympiques	-11.1107
▁constituant	-11.1107
PORT	-11.1111
▁gros	-11.1111
▁fil	-11.1114
▁quelque	-11.1115
▁solutions	-11.1115
DER	-11.1122
▁GUI	-11.1123
▁attribués	-11.1128
▁capture	-11.114
▁Tra	-11.114
BOU	-11.1142
ANG	-11.1148
gramme	-11.1149
emprunt	-11.115
observation	-11.115
▁CLA	-11.115
gastro	-11.1153
incidence	-11.1153
▁locataire	-11.1153
▁récapitulatif	-11.1153
▁fournit	-11.1153
▁encore	-11.1153
▁pied	-11.1154
fection	-11.1156
▁ROU	-11.1172
▁disciplinaires	-11.1174
▁retiré	-11.1178
ssant	-11.118
▁poursuites	-11.1185
ATI	-11.1187
▁raisons	-11.1188
▁fraude	-11.1189
Juliette	-11.1194
type	-11.1194
public	-11.1194
▁frégate	-11.1199
▁vocation	-11.12
▁sollicité	-11.12
▁passation	-11.1202
▁fichiers	-11.1205
▁limité	-11.1205
▁entités	-11.1206
tom	-11.1213
▁desquelles	-11.1223
gh	-11.1224
mus	-11.1226
ARI	-11.1229
bel	-11.1231
▁connexion	-11.1233
▁attribuées	-11.1236
▁habilitation	-11.1239
gan	-11.1244
▁ménage	-11.1245
▁thématique	-11.1246
udi	-11.1246
▁francs	-11.1246
bourg	-11.1248
marin	-11.1255
▁pose	-11.1255
▁HT	-11.1255
▁consultatives	-11.1256
▁Romain	-11.1259
▁intermédiaire	-11.1265
éviter	-11.1266
▁comporter	-11.1268
oyer	-11.1272
5.1	-11.1274
▁Sou	-11.1281
▁Ouest	-11.1283
▁rattachée	-11.1285
Outre	-11.1286
technique	-11.1287
▁interdiction	-11.1289
actes	-11.1291
▁implanté	-11.1292
▁monothérapie	-11.1292
▁occupe	-11.1292
▁rupture	-11.1292
▁connu	-11.1293
▁Patrice	-11.13
▁2.2.	-11.1303
▁dispensée	-11.1305
REL	-11.1309
▁modérée	-11.1312
▁prévisionnelle	-11.1317
▁créances	-11.1323
▁auditeur	-11.1323
▁Son	-11.1325
▁Cre	-11.1325
intéressée	-11.1327
▁statu	-11.1328
▁immobiliers	-11.1332
Louise	-11.1333
service	-11.1335
PN	-11.1335
atelier	-11.1337
Yvelines	-11.1339
hydratation	-11.1339
▁Registre	-11.1339
▁balisage	-11.1339
▁immeubles	-11.1344
▁Ag	-11.1345
euro	-11.1345
▁Juliette	-11.1347
▁Office	-11.1348
laine	-11.1352
▁Sylvain	-11.1352
▁clés	-11.1356
▁pression	-11.1356
▁1.1.	-11.1363
▁correspondantes	-11.1366
▁Francis	-11.1367
ète	-11.1368
▁effectue	-11.1369
Sauf	-11.1369
▁Brigitte	-11.1371
▁FRAN	-11.1378
▁versés	-11.138
nay	-11.1382
/2022-09-	-11.1382
André	-11.1383
espèce	-11.1384
nomenclature	-11.1384
Dominique	-11.1384
ko	-11.1385
audiovisuel	-11.1386
▁gériatrie	-11.1386
▁maternité	-11.1386
▁mécanisme	-11.1386
▁spatial	-11.1386
▁grille	-11.1386
Dès	-11.1388
▁ouvrir	-11.1395
▁332-1	-11.1402
4-6	-11.1403
▁Tour	-11.1412
▁collections	-11.1412
▁intégrée	-11.1413
▁exprimé	-11.1415
▁sub	-11.1422
▁question	-11.1425
▁soixante	-11.1428
▁située	-11.1434
▁carburant	-11.1434
▁diabète	-11.1434
▁médiation	-11.1434
▁prennent	-11.1434
▁décidé	-11.1434
▁lauréats	-11.1434
▁huitième	-11.1435
gede	-11.1435
▁établissant	-11.1435
▁pénalité	-11.1436
▁évaluer	-11.1444
gel	-11.1446
▁joint	-11.1461
▁communiqué	-11.147
nais	-11.1474
ANO	-11.1476
investigation	-11.1479
rot	-11.148
RAT	-11.1481
▁2.1.	-11.1481
▁évaluations	-11.1481
▁dévolues	-11.1481
▁interacadémique	-11.1481
▁certaine	-11.1482
▁aspects	-11.1482
inscrivent	-11.1482
Indre	-11.1483
▁plantes	-11.1486
▁arts	-11.149
ancien	-11.1494
HU	-11.1494
▁faites	-11.1502
▁Pascale	-11.1506
▁COL	-11.1512
Anton	-11.1515
▁laboratoires	-11.1515
ographie	-11.1522
▁masses	-11.1522
èse	-11.1523
enveloppe	-11.1529
hypothèse	-11.1529
neuvième	-11.1529
▁opératoire	-11.1529
▁salariale	-11.1529
▁température	-11.1529
▁exploité	-11.1529
▁conduisa	-11.153
▁payé	-11.153
▁pan	-11.1531
ncer	-11.1534
▁Ap	-11.1536
▁déposées	-11.1541
cart	-11.1543
ardin	-11.1548
çant	-11.1553
argent	-11.1555
▁comportent	-11.1555
jou	-11.1565
environ	-11.157
▁221-1	-11.1574
ATIONS	-11.1577
SGCD	-11.1577
▁examiné	-11.1577
SO	-11.1581
▁Leur	-11.1588
23-2	-11.1588
▁COR	-11.1591
▁perçues	-11.1592
Jules	-11.1594
▁Et	-11.1603
▁sujets	-11.1604
▁désigner	-11.1605
▁JO	-11.1609
Cher	-11.1616
▁consomm	-11.1623
arrivée	-11.1626
▁Hubert	-11.1626
sson	-11.163
▁milieux	-11.1632
▁proposées	-11.1632
▁enquêtes	-11.1635
DDT	-11.1638
CES	-11.1639
ray	-11.164
▁pertes	-11.1645
▁spécialement	-11.1645
▁Thérèse	-11.1656
▁vend	-11.1661
▁définir	-11.1666
Axel	-11.1666
▁fichier	-11.1668
▁Sarah	-11.1669
ILLA	-11.1669
▁contingent	-11.1674
▁identique	-11.1674
▁primitif	-11.1674
▁traçabilité	-11.1674
Agathe	-11.1674
▁Civil	-11.1674
▁était	-11.1675
exige	-11.1677
▁variation	-11.1678
▁faute	-11.1682
▁ouvrés	-11.1683
▁consultés	-11.1684
rist	-11.1686
Bruno	-11.1689
▁remettre	-11.1689
▁options	-11.1691
pét	-11.1698
▁habituelle	-11.1698
UF	-11.1699
▁Alice	-11.1718
▁Groupe	-11.1718
▁indépendant	-11.1721
▁téléphonique	-11.1723
▁clause	-11.1723
▁Benjamin	-11.1726
émissions	-11.1726
MONT	-11.173
/2014	-11.1735
▁adressés	-11.1737
écl	-11.1747
▁policier	-11.1747
▁informer	-11.175
HIER	-11.1752
bou	-11.1756
▁carrières	-11.1756
▁signalements	-11.176
▁2026	-11.176
▁vasculaire	-11.1763
▁Te	-11.1766
hydro	-11.1769
enseigne	-11.1769
▁exploitations	-11.1771
Allemagne	-11.1772
automobile	-11.1772
▁affiché	-11.1772
▁multiple	-11.1772
▁unitaire	-11.1773
▁emprunts	-11.1775
▁portion	-11.1776
RAND	-11.1779
▁162-17	-11.178
▁engagé	-11.1781
▁facteurs	-11.1786
▁variable	-11.1786
Régis	-11.1787
▁Moselle	-11.1787
▁542	-11.1794
trice	-11.1801
▁14°	-11.1805
émie	-11.1811
▁humains	-11.1819
▁pratiquant	-11.1821
▁tabac	-11.1821
▁volonté	-11.1821
assesseur	-11.1821
Corinne	-11.1821
▁Total	-11.1822
▁INRIA	-11.1822
▁6152-3	-11.1822
▁actuellement	-11.1825
▁sécurisée	-11.1826
abord	-11.1826
Alice	-11.1827
▁demandées	-11.1829
urne	-11.183
▁Delphine	-11.1835
▁Ju	-11.1839
qué	-11.1843
ève	-11.1855
▁Mathilde	-11.1855
▁mécaniques	-11.1858
index	-11.1864
▁grands	-11.1865
▁consultatif	-11.1871
▁recevant	-11.1871
▁élaboré	-11.1871
▁Seuls	-11.1871
▁neurologie	-11.1871
▁remplissent	-11.1871
▁Béatrice	-11.1872
▁statutaire	-11.1875
Rapha	-11.1877
partie	-11.1878
▁demeurent	-11.188
VEL	-11.1883
▁nette	-11.1884
Benoit	-11.1886
▁1996	-11.1889
VII	-11.1895
▁constatée	-11.19
Compte	-11.1903
▁forte	-11.191
▁conjointe	-11.1915
▁recueilli	-11.1916
Nota	-11.192
Flor	-11.192
▁énumérées	-11.1921
▁oncologie	-11.1921
▁séparé	-11.1921
▁impositions	-11.1923
aidant	-11.1924
▁kg	-11.1924
▁événements	-11.1925
Benoît	-11.1928
▁MONT	-11.193
TÉ	-11.193
Julia	-11.1935
AFD	-11.1939
▁consulaires	-11.1939
ING	-11.1945
▁normal	-11.1946
▁...	-11.1947
pens	-11.1947
▁composantes	-11.1949
▁urbain	-11.1953
ache	-11.1954
issa	-11.1963
Bou	-11.1963
▁artillerie	-11.1971
▁circulaire	-11.1971
▁trajet	-11.1971
éthique	-11.1971
▁Nature	-11.1971
▁souten	-11.1971
Samuel	-11.1973
kh	-11.1974
▁Code	-11.1983
ola	-11.1985
▁représenter	-11.1986
▁souscrit	-11.1986
Bar	-11.1987
tori	-11.1987
▁dû	-11.1989
5-9	-11.1992
UIS	-11.1993
▁1980	-11.1996
▁comprendre	-11.1996
▁311-1	-11.1999
Estelle	-11.2001
▁dangers	-11.2003
ssin	-11.2005
phon	-11.2006
▁agréée	-11.2009
▁Pièce	-11.2021
▁rémunéré	-11.2021
▁SDAGE	-11.2021
▁ressortissants	-11.2021
PER	-11.2022
▁Activ	-11.2024
▁Représentant	-11.2025
▁Prise	-11.2028
8-2	-11.2029
départementale	-11.2034
▁allouée	-11.2039
▁conserver	-11.2045
▁servir	-11.2051
ida	-11.2052
AIRES	-11.2054
ECOT	-11.2056
▁FER	-11.206
6-4	-11.2063
▁Chorus	-11.2071
▁diagnostique	-11.2071
▁irrecevable	-11.2071
▁promu	-11.2073
PIN	-11.2074
▁animale	-11.2076
▁rentrée	-11.2077
NG	-11.2077
▁ouvertes	-11.2081
▁exprimés	-11.2082
Simon	-11.2084
HT	-11.2085
▁514	-11.2089
▁instructions	-11.2091
22-7	-11.2094
▁attestée	-11.2096
▁Adrien	-11.21
▁délivrées	-11.2103
34009	-11.2105
▁élément	-11.2109
▁propriétaires	-11.2109
Mont	-11.2109
▁douanier	-11.2122
injection	-11.2122
soignant	-11.2122
▁Justice	-11.2122
▁anonyme	-11.2122
▁cautionnement	-11.2122
▁doctorat	-11.2122
▁prescripteur	-11.2122
▁banque	-11.2122
▁Voie	-11.2122
▁liberté	-11.2123
CNR	-11.2125
▁patrimoniales	-11.2126
▁indépendants	-11.2128
▁justifient	-11.2131
▁indu	-11.2132
apprentis	-11.2136
▁concernent	-11.2136
igny	-11.214
▁conserve	-11.2145
▁SCH	-11.2152
otte	-11.2153
NY	-11.2154
▁porteurs	-11.2158
▁prononce	-11.2164
▁obtenues	-11.2165
ALA	-11.217
▁123-1	-11.2172
▁avancé	-11.2173
▁surveillant	-11.2173
▁unilatérale	-11.2173
▁SIREN	-11.2173
▁jugé	-11.2173
▁standardisée	-11.2173
ELLI	-11.2175
▁PARIS	-11.2175
▁réduite	-11.2186
▁antérieur	-11.2195
▁Aurélie	-11.2198
ÉRI	-11.22
Nord	-11.2204
▁améliorer	-11.2209
position	-11.2219
Finistère	-11.2224
Morbihan	-11.2224
▁préparant	-11.2224
▁TITRE	-11.2224
▁modalité	-11.2227
▁conservent	-11.2229
▁181	-11.2237
ik	-11.224
▁courante	-11.224
abi	-11.224
▁vérifie	-11.2241
ROS	-11.2247
▁sources	-11.2247
▁Réseau	-11.2247
▁volet	-11.2248
▁Orientation	-11.2251
KI	-11.2254
IERE	-11.2258
quin	-11.2262
▁interrégion	-11.2271
▁Maître	-11.2276
▁Natura	-11.2276
▁remplissant	-11.2276
▁difficultés	-11.228
▁laitière	-11.228
VIII	-11.2283
▁Léa	-11.2286
▁terrains	-11.2288
6-5	-11.2289
recherche	-11.2291
ANSM	-11.2291
Bouches	-11.2291
procureur	-11.2293
▁moteur	-11.2299
21-4	-11.2304
QUET	-11.2308
▁For	-11.231
▁BRU	-11.2312
appuie	-11.2313
poli	-11.2321
LY	-11.2325
▁hydraulique	-11.2328
arg	-11.2328
zone	-11.2328
▁précision	-11.233
▁assister	-11.2332
NP	-11.2334
▁prononcer	-11.2337
Nathalie	-11.2344
Catherine	-11.2344
elon	-11.235
▁solliciter	-11.2357
vient	-11.2359
ama	-11.236
OY	-11.236
▁Her	-11.2368
hn	-11.2369
▁Rapha	-11.2373
ENER	-11.2379
/2022-07-3	-11.238
▁Données	-11.238
▁Michèle	-11.238
▁archives	-11.238
▁délégataire	-11.238
▁récupération	-11.238
▁Emile	-11.238
▁dépendantes	-11.238
▁consolidation	-11.238
▁quotidienne	-11.2382
▁revers	-11.2386
OLI	-11.2394
▁chimiques	-11.2394
conformité	-11.2397
Corse	-11.2397
Chef	-11.2397
Alain	-11.2398
5.2	-11.2401
▁restreinte	-11.2403
▁HU	-11.2414
ÉES	-11.2422
▁industriels	-11.2424
▁couvert	-11.2425
Calvados	-11.2432
Bénédicte	-11.2432
Gérald	-11.2432
Contrat	-11.2432
vir	-11.2437
bat	-11.2439
▁finale	-11.2441
▁souhaitent	-11.2443
BDS	-11.2444
▁2.3.	-11.2451
▁Adresse	-11.2454
nou	-11.2455
▁Ham	-11.2459
CEE	-11.2463
quer	-11.2465
▁Cla	-11.2478
▁spécifi	-11.2483
▁bibliothèques	-11.2485
▁formalités	-11.2485
Saclay	-11.2485
▁162-22-7	-11.2485
▁règle	-11.2486
▁petite	-11.2491
gli	-11.2499
▁GAR	-11.2501
▁fixer	-11.2504
Victor	-11.2504
12-5	-11.2505
10°	-11.2505
Franck	-11.2505
HOU	-11.2515
forme	-11.2516
▁613	-11.2524
▁Gou	-11.2529
DD	-11.253
▁bénéficié	-11.2538
▁exécutoire	-11.2538
▁vigilance	-11.2538
▁Légion	-11.2538
▁micro	-11.2538
▁122-1	-11.2539
▁appliquées	-11.254
RAN	-11.2544
▁documentaire	-11.2546
▁correspondent	-11.2547
▁Pau	-11.2553
▁sollicités	-11.2554
tran	-11.2557
▁stratégiques	-11.2562
onnet	-11.2564
▁distincte	-11.2565
▁pathologies	-11.257
FS	-11.2573
▁intranet	-11.2574
▁Can	-11.2575
ella	-11.2587
▁Champ	-11.2588
incapacité	-11.2591
▁condamnation	-11.2591
▁préventive	-11.2591
▁mener	-11.2592
Manche	-11.2592
Vi	-11.2593
5-8	-11.2593
Isère	-11.2594
▁redevance	-11.2599
ague	-11.26
Isabelle	-11.2613
ILLON	-11.2614
olle	-11.262
XX	-11.2626
▁réduit	-11.263
600	-11.264
ith	-11.2643
▁subordonnée	-11.2644
▁accessoires	-11.2644
▁réduire	-11.2644
▁éventuelle	-11.2648
▁recueillies	-11.2656
FT	-11.2661
IGP	-11.2665
▁formulées	-11.2666
▁canal	-11.267
▁réservé	-11.2682
▁régulière	-11.2693
▁exclus	-11.2693
Geneviève	-11.2698
▁compréhension	-11.2698
▁hebdomadaire	-11.2698
▁questionnaire	-11.2698
▁Roland	-11.2699
▁saison	-11.2718
vingt	-11.2722
▁créées	-11.2723
opér	-11.2724
▁prononcées	-11.274
vet	-11.2745
▁exercices	-11.275
Grégoire	-11.2752
▁intensive	-11.2752
▁orthopédique	-11.2752
▁poursuivre	-11.2752
Huissier	-11.2752
Hugues	-11.2753
▁donnés	-11.2757
impose	-11.2757
oni	-11.2758
▁condamnée	-11.2775
DRE	-11.2777
inscrit	-11.2777
conseil	-11.2778
▁meilleure	-11.2781
▁rapportant	-11.2782
XII	-11.2786
IQUES	-11.2788
Grégory	-11.2807
verbaux	-11.2807
▁dimension	-11.2807
▁suffrages	-11.2807
▁plastique	-11.2807
▁adolescents	-11.2812
▁repose	-11.2822
composante	-11.2823
▁mutuelle	-11.2825
▁autant	-11.283
Organisation	-11.2833
▁formateurs	-11.2848
NAT	-11.2853
3.1	-11.2856
▁Belle	-11.2857
COM	-11.2861
Frédérique	-11.2861
extinction	-11.2861
▁Spécialité	-11.2861
▁corrective	-11.2861
▁faculté	-11.2861
▁ophtalmologie	-11.2861
ACTIVITÉ	-11.2861
▁démontable	-11.2861
Meurthe	-11.2861
Yannick	-11.2861
▁Petit	-11.2861
▁exercée	-11.2861
▁guide	-11.2862
ISSE	-11.2869
HEN	-11.287
inclusion	-11.287
/2013	-11.2874
Landes	-11.2879
▁1998	-11.2881
▁assortie	-11.2884
mann	-11.2888
▁minimal	-11.2891
▁puni	-11.2895
▁intra	-11.2903
▁gérés	-11.2905
▁SERVICE	-11.2906
▁couverts	-11.2911
épargne	-11.2916
▁déclarant	-11.2916
▁indéterminée	-11.2916
▁Mission	-11.2916
▁présidence	-11.2916
▁appliquée	-11.2916
▁consignes	-11.2917
atte	-11.2922
▁131-1	-11.2924
▁préavis	-11.2924
▁thème	-11.2929
▁exigées	-11.2934
VES	-11.2936
▁Pont	-11.2941
▁1962	-11.2944
▁confér	-11.2944
Christine	-11.2945
12-4	-11.2949
▁sang	-11.2951
▁retenus	-11.2956
▁Fabrice	-11.2957
▁déclarées	-11.2963
ILI	-11.2965
THE	-11.2967
▁vacations	-11.2968
imposition	-11.297
▁hépato	-11.2971
▁accrédité	-11.2971
▁dirigé	-11.2971
▁propagation	-11.2971
▁rénovation	-11.2971
▁mesuré	-11.2971
▁âgé	-11.2974
▁remplit	-11.2976
▁mécanique	-11.2986
exposé	-11.3002
Gabriel	-11.3002
éléments	-11.3007
homme	-11.301
▁représentés	-11.3013
4.1	-11.3013
ège	-11.3016
▁Bien	-11.3018
▁coopérative	-11.3027
▁dimanche	-11.3027
▁gouvernance	-11.3027
▁mesurage	-11.3027
▁vacance	-11.3027
pal	-11.3027
impression	-11.3027
▁opéré	-11.3034
▁BOUR	-11.3035
▁(4)	-11.3036
ime	-11.3038
ENCE	-11.305
ILLET	-11.3051
▁affectées	-11.3057
▁retenu	-11.3058
▁accueilli	-11.3077
▁Cam	-11.3081
▁bataillon	-11.3083
▁hébergé	-11.3083
▁superficie	-11.3083
écran	-11.3083
▁associative	-11.3083
▁messagerie	-11.3084
▁immobilisations	-11.3084
▁Cf	-11.3094
équi	-11.3094
Rémy	-11.31
métr	-11.3101
▁formateur	-11.3104
▁rétabli	-11.3104
Art	-11.3104
▁proposée	-11.3104
0000	-11.3106
▁MOU	-11.3107
off	-11.311
▁passé	-11.3114
Christian	-11.3116
▁Base	-11.3119
▁détenus	-11.3123
▁pli	-11.3129
▁condamnées	-11.3132
CFDT	-11.3139
entérologie	-11.3139
▁expresse	-11.3139
▁sauvegarde	-11.3139
▁substitue	-11.3139
▁2241-8	-11.3139
▁pérenn	-11.3139
▁froid	-11.314
▁250	-11.3142
gon	-11.3148
Tarn	-11.3149
rog	-11.3154
▁vaccin	-11.3157
ban	-11.3157
▁1979	-11.3169
Vu	-11.3178
recrutement	-11.3178
▁étapes	-11.3183
▁réservés	-11.3185
▁Méditerranée	-11.3189
rel	-11.3193
Loir	-11.3194
▁restitution	-11.3195
▁ruraux	-11.3195
▁destruction	-11.3196
▁dérogatoire	-11.3196
annonce	-11.3196
Bastien	-11.3196
▁ép	-11.32
▁piste	-11.3206
▁familial	-11.321
▁Tri	-11.3217
▁demandent	-11.322
▁RAEP	-11.3221
ava	-11.3223
actualisation	-11.3227
▁repos	-11.3227
MET	-11.324
▁décide	-11.3244
▁respectent	-11.3246
▁pourvus	-11.325
▁cinéma	-11.3252
acquérir	-11.3252
emballage	-11.3252
▁centralisateur	-11.3252
▁management	-11.3252
▁souterrain	-11.3252
▁Gestion	-11.3252
▁révisé	-11.3253
armateur	-11.3253
▁amené	-11.3253
Aurore	-11.3254
cq	-11.3264
bail	-11.3274
Manuel	-11.3282
Var	-11.3288
EAUX	-11.3293
épidémie	-11.3309
▁Objectif	-11.3309
▁aménagé	-11.3309
▁historiques	-11.3309
▁incluant	-11.3309
▁nominative	-11.3309
▁pneumologie	-11.3309
▁significative	-11.3309
Orléans	-11.3309
▁SY	-11.331
▁vache	-11.3311
▁Ti	-11.3313
▁Karine	-11.332
▁créance	-11.3331
astreinte	-11.3343
▁doté	-11.3343
indiqué	-11.3344
▁qualifiés	-11.3346
▁géo	-11.3346
▁énergies	-11.3357
▁1333-	-11.336
▁Formation	-11.3367
▁combattants	-11.3367
▁contestation	-11.3367
▁déléguer	-11.3367
▁déterminant	-11.3367
▁développé	-11.3367
▁contient	-11.3367
▁renforcer	-11.3367
arthrite	-11.3369
▁convenu	-11.337
▁14-10-	-11.3371
▁Léon	-11.3386
▁tonnes	-11.3386
▁1999	-11.3389
▁coordonne	-11.3396
▁Carole	-11.34
▁Syndicat	-11.3401
▁2027	-11.3404
▁élevée	-11.3405
radiologie	-11.3408
▁anticipée	-11.3411
formation	-11.3411
orm	-11.342
▁Ko	-11.3422
ssez	-11.3423
asthme	-11.3425
éclairage	-11.3425
▁Limite	-11.3425
▁engins	-11.3425
Henry	-11.3425
▁planification	-11.3428
▁boue	-11.3429
PRMG	-11.3435
▁Blanc	-11.3436
bout	-11.3445
▁réutilisation	-11.3449
▁212-1	-11.3449
▁1976	-11.3452
accomplir	-11.3457
avocat	-11.3463
Bernard	-11.3466
ow	-11.3467
▁XV	-11.3471
▁municipale	-11.3472
▁saisir	-11.3478
▁visuelle	-11.3479
reau	-11.3481
Myriam	-11.3483
▁Défense	-11.3483
▁recyclage	-11.3483
▁desquels	-11.3483
▁intégralement	-11.3483
▁décharge	-11.3483
▁reversement	-11.3484
▁dixième	-11.3485
▁manuel	-11.3487
▁Jan	-11.3489
otre	-11.3495
/2022-10	-11.3504
▁pathologie	-11.3506
▁additionnel	-11.3508
▁précisés	-11.3514
▁peu	-11.3514
ssemblée	-11.3516
▁411-1	-11.3519
Aurélie	-11.3522
aba	-11.3523
Sylvain	-11.3525
SION	-11.3528
▁PROFESSIONNEL	-11.3529
▁couple	-11.353
▁correspondante	-11.3532
▁Trans	-11.3541
▁Marguerite	-11.3541
Arcueil	-11.3541
▁conflit	-11.3541
▁Dotation	-11.3541
TIF	-11.3543
ouch	-11.355
José	-11.355
struc	-11.3559
▁complét	-11.3559
▁électorale	-11.356
▁respectant	-11.3576
Céline	-11.3585
▁constate	-11.3586
▁rattaché	-11.3597
employé	-11.3597
ambulancier	-11.36
insaisissabilité	-11.36
▁Evaluation	-11.36
▁réflexion	-11.36
▁couleur	-11.36
▁servant	-11.36
▁PAC	-11.3603
▁SPORT	-11.3606
DIC	-11.361
TTE	-11.3614
ETTE	-11.3618
▁intermédiaires	-11.3622
▁fournies	-11.3625
▁Gre	-11.363
agir	-11.3632
▁214-1	-11.3637
associé	-11.3645
Four	-11.3652
▁suspendu	-11.3654
COU	-11.3655
▁Denise	-11.3658
interprétation	-11.3659
▁déduction	-11.3659
▁délimité	-11.3659
▁marquage	-11.3659
▁navigant	-11.3659
▁octroyé	-11.3659
▁rapide	-11.3659
OFF	-11.3663
émetteur	-11.3667
▁majeurs	-11.3678
auto	-11.3683
iii	-11.369
▁insaisissables	-11.3691
▁subir	-11.3694
PF	-11.3695
sco	-11.3696
▁suffisant	-11.3697
▁mobiliser	-11.3699
▁votée	-11.37
priseur	-11.3701
/2022-01-	-11.3712
mel	-11.3713
recrute	-11.3714
▁contribuer	-11.3718
▁standard	-11.3719
Alsace	-11.3719
emprisonnement	-11.3719
▁délibérative	-11.3719
▁navigables	-11.3719
▁prévisible	-11.3719
▁loisirs	-11.3719
▁faune	-11.372
▁table	-11.3733
▁Sciences	-11.3742
métrique	-11.3743
▁entrera	-11.375
Bois	-11.3753
IF	-11.3759
▁constatées	-11.3761
▁renouvelée	-11.3765
900	-11.3771
ulation	-11.3775
ÉTABLISSEMENT	-11.3779
▁confiance	-11.3779
▁raccordé	-11.3779
▁Zone	-11.378
▁écarts	-11.3784
▁devenue	-11.379
CQ	-11.3793
▁Cro	-11.3798
stat	-11.38
ommercialisation	-11.3802
▁traitées	-11.3804
usager	-11.3804
▁2022-8	-11.3806
▁sélectionn	-11.3806
AVE	-11.3819
▁renvoyé	-11.382
▁psychologique	-11.3823
Maur	-11.3832
bor	-11.3836
▁similaires	-11.3837
zon	-11.3837
Jérémy	-11.3839
▁effectuant	-11.3839
▁prospective	-11.3839
▁téléchargeable	-11.3839
▁Blessé	-11.3839
▁machine	-11.3839
▁causé	-11.3839
▁diffuse	-11.3839
▁tendant	-11.384
▁contrepartie	-11.3841
▁mouvements	-11.3858
▁mené	-11.3859
llant	-11.3863
REAU	-11.3866
▁terrestres	-11.3868
▁THO	-11.387
-9,	-11.3878
▁redevances	-11.3891
▁communautaire	-11.3891
▁Pou	-11.3895
▁Bal	-11.3899
alcool	-11.3899
isolement	-11.39
Nathan	-11.3901
▁2022-9	-11.3914
▁GH	-11.3915
▁débiteur	-11.3917
▁411-2	-11.3922
▁TOU	-11.3923
faire	-11.3924
▁habilitées	-11.3928
UY	-11.393
▁consommateur	-11.3931
NIS	-11.3932
ALY	-11.394
▁ARMÉE	-11.3951
Guadeloupe	-11.3952
corps	-11.3952
▁recto	-11.3954
importation	-11.3961
▁Adjoint	-11.3961
▁Créteil	-11.3961
▁AFIS	-11.3961
▁photocopie	-11.3961
▁prérempli	-11.3961
▁appliquer	-11.3962
▁Tableau	-11.3962
lic	-11.3962
▁appareils	-11.3965
▁large	-11.397
Roman	-11.3984
Lisa	-11.3987
▁adéquat	-11.3996
▁créer	-11.3999
bé	-11.4007
IDE	-11.4008
vic	-11.4011
tribunaux	-11.4014
léments	-11.4016
ouvrier	-11.4019
insuline	-11.4022
▁Coefficient	-11.4022
▁alphabétique	-11.4022
▁consécutive	-11.4022
▁copropriété	-11.4022
▁revalorisation	-11.4022
▁volailles	-11.4022
obi	-11.4023
▁chasse	-11.4023
ANE	-11.4027
fic	-11.4027
OUD	-11.4027
▁Fondation	-11.4029
▁aérodromes	-11.4031
▁syndicat	-11.4036
zin	-11.4037
gui	-11.4046
▁Gir	-11.406
taire	-11.4062
6-6	-11.4062
ALLE	-11.4067
Rou	-11.4069
▁issu	-11.4076
▁San	-11.4079
▁défaillance	-11.4084
▁réalisant	-11.4084
▁traumatologique	-11.4084
▁flore	-11.4084
▁énoncées	-11.4084
▁civique	-11.4084
Acheteur	-11.4084
douane	-11.4085
Armor	-11.4086
▁levée	-11.4091
composantes	-11.4104
7-5	-11.4107
▁convoqués	-11.4135
▁certifi	-11.4136
▁contenue	-11.4141
▁principalement	-11.4144
cot	-11.4144
observance	-11.4146
▁Fernand	-11.4146
▁agrégé	-11.4146
▁dermatologie	-11.4146
▁possession	-11.4146
▁proclam	-11.4146
▁préfectoral	-11.4146
▁transparence	-11.4146
▁déficit	-11.4146
▁Fort	-11.4148
GES	-11.4161
▁antérieurement	-11.4169
▁amont	-11.418
fond	-11.4181
▁source	-11.4181
apprécie	-11.4185
mane	-11.4203
TREP	-11.4206
met	-11.4208
▁conservateur	-11.4208
▁vieillesse	-11.4208
▁Critère	-11.4208
annulation	-11.4209
long	-11.4209
▁National	-11.4212
connect	-11.4213
▁matérielles	-11.4219
▁longueur	-11.4224
loy	-11.4229
uschwi	-11.4237
▁suffisante	-11.4239
liste	-11.4241
▁731	-11.4247
MENE	-11.4259
NARD	-11.4261
ède	-11.4261
ORI	-11.4261
Didier	-11.4268
équipage	-11.4268
architecte	-11.4271
▁médias	-11.4271
▁ouvrable	-11.4271
▁culturelle	-11.4271
bach	-11.4273
Morgane	-11.4275
DEL	-11.4287
MANN	-11.4287
Bo	-11.4297
itre	-11.4312
▁photo	-11.4334
▁aquatique	-11.4334
▁comprimé	-11.4334
▁dépouillement	-11.4334
▁habitants	-11.4334
▁hybride	-11.4334
▁immunologie	-11.4334
▁sauvage	-11.4334
▁transversale	-11.4334
▁violence	-11.4334
Magali	-11.4335
▁concentration	-11.4336
assiette	-11.4336
▁6111	-11.4338
estimation	-11.4339
1.1	-11.4347
uch	-11.4351
▁Roche	-11.4352
ieur	-11.4372
adresser	-11.4377
CHET	-11.4383
▁CRE	-11.4384
▁Fre	-11.4392
▁indirecte	-11.4393
titulaire	-11.4397
instructeur	-11.4398
▁Suzanne	-11.4398
▁intégrant	-11.4398
Laetitia	-11.4399
▁professionnalis	-11.44
▁manœuvr	-11.4401
▁prorat	-11.4402
NAUD	-11.4406
▁réemploi	-11.4407
▁541-1	-11.4409
▁Magistrate	-11.4429
ick	-11.443
▁1977	-11.4431
ost	-11.4438
▁propos	-11.4455
agglomération	-11.4462
expédition	-11.4462
▁médiateur	-11.4462
▁télépéage	-11.4462
▁joign	-11.4462
Doubs	-11.4462
conditionnement	-11.4463
▁bateaux	-11.4464
LOT	-11.448
▁intervenue	-11.448
nal	-11.4489
compte	-11.4492
▁systématique	-11.4509
RR	-11.451
▁formulée	-11.4512
▁apporte	-11.4519
.2.1.	-11.4522
▁promus	-11.4525
▁carbone	-11.4527
▁couvre	-11.4527
▁idiopathique	-11.4527
▁récépissé	-11.4527
▁énumérés	-11.4527
jonction	-11.4527
▁fermeture	-11.4527
▁RCP	-11.4527
Président	-11.4529
▁confirmation	-11.4533
▁classifiés	-11.4534
insuffisance	-11.4535
▁feux	-11.4537
▁statue	-11.4537
▁Ang	-11.4542
lette	-11.4547
ITE	-11.4551
fip	-11.4561
KO	-11.4568
▁adressent	-11.4571
ENH	-11.4575
TY	-11.4577
OST	-11.4586
adhérent	-11.4589
▁Ernest	-11.4592
embryon	-11.4592
▁NOTARIAL	-11.4592
▁Professionnelle	-11.4592
▁centraux	-11.4592
▁complexe	-11.4592
▁radioactifs	-11.4592
Vendée	-11.4592
▁télécopie	-11.4592
OIRE	-11.4592
▁serre	-11.4593
finances	-11.4595
SSAH	-11.46
▁pacte	-11.46
Centre	-11.4613
▁installée	-11.4616
▁prolongée	-11.4626
▁clé	-11.463
Bri	-11.4634
▁consulaire	-11.464
tru	-11.4643
▁insuffisa	-11.4644
▁bateau	-11.4656
FranceAgriMer	-11.4657
▁Département	-11.4657
▁commerciaux	-11.4657
▁cultivées	-11.4657
▁fourrage	-11.4657
▁naturalisation	-11.4657
▁spécifications	-11.4657
▁coulée	-11.4658
aéronautique	-11.4661
▁conservatoire	-11.4663
lieu	-11.4671
▁Pri	-11.4672
Ange	-11.4672
Del	-11.4678
▁reçues	-11.4688
▁modéré	-11.4695
active	-11.4696
▁mouvement	-11.4702
▁BEAU	-11.4703
▁Gi	-11.471
▁exclusive	-11.472
▁citoyen	-11.4723
appartenance	-11.4723
évènement	-11.4723
▁Signature	-11.4723
▁diplômé	-11.4723
▁débarquement	-11.4723
▁glace	-11.4723
▁grâce	-11.4723
▁métallurgiques	-11.4723
▁redevable	-11.4723
▁semences	-11.4723
▁stationnement	-11.4723
aéroport	-11.4723
Aisne	-11.4723
LOG	-11.4724
CGC	-11.4727
▁commissariat	-11.4727
CCL	-11.4748
ASSE	-11.4751
500	-11.4761
▁perçue	-11.4769
▁Général	-11.4789
authentification	-11.4789
▁administré	-11.4789
▁cardiaque	-11.4789
▁diligence	-11.4789
▁synthétique	-11.4789
▁transitoire	-11.4789
▁dangereuses	-11.4789
amiante	-11.4789
istant	-11.4791
▁notion	-11.4791
Florence	-11.4797
▁huissiers	-11.4798
▁pont	-11.48
▁332-2	-11.4805
MAT	-11.481
▁justifiée	-11.4811
Robin	-11.4811
▁Christiane	-11.4824
▁provenan	-11.4835
▁chimique	-11.4837
▁prévision	-11.4855
Vaucluse	-11.4856
amortissement	-11.4856
interruption	-11.4856
▁digestive	-11.4856
Essonne	-11.4856
▁photographie	-11.4856
▁mieux	-11.4859
▁envisage	-11.4863
Liban	-11.4864
elui	-11.4864
Valérie	-11.4865
▁Rose	-11.487
Jeanne	-11.4889
mul	-11.4891
illard	-11.4895
▁pluri	-11.4902
gor	-11.4903
oncernant	-11.4915
ILLARD	-11.4919
▁RELATIVE	-11.4923
▁annulée	-11.4923
▁aéroportuaire	-11.4923
▁biogaz	-11.4923
▁corvette	-11.4923
▁gestationnel	-11.4923
▁reclassement	-11.4923
DIER	-11.4924
Cyr	-11.4924
▁clos	-11.4925
▁renvoi	-11.4926
Alex	-11.4932
Bertrand	-11.4933
ENI	-11.4938
▁maintenue	-11.4941
SIEC	-11.4944
igné	-11.4949
▁traiter	-11.4952
▁cible	-11.4957
▁1942	-11.496
▁attend	-11.4963
▁permettra	-11.4973
VIN	-11.4981
▁122-2	-11.4982
ologue	-11.4983
Maine	-11.4986
inaptitude	-11.4986
examinateur	-11.4987
▁comptabilisé	-11.499
▁rectificative	-11.499
▁servitudes	-11.499
▁payer	-11.499
▁ambassadeur	-11.499
▁Médecine	-11.4991
▁400	-11.4991
JOU	-11.4992
▁mairie	-11.4992
▁validée	-11.4994
RAY	-11.4996
▁motivé	-11.5
Service	-11.5001
▁menées	-11.5003
arrière	-11.5006
Eva	-11.5011
avec	-11.5017
▁On	-11.5022
▁afférent	-11.5033
▁compatible	-11.5043
tron	-11.5049
Stratégique	-11.5058
attractivité	-11.5058
▁Catégorie	-11.5058
▁Vaccination	-11.5058
▁intensifs	-11.5058
▁littoral	-11.5058
▁pollution	-11.5058
▁respiratoire	-11.5058
▁stable	-11.5059
▁voyageurs	-11.506
▁Guer	-11.506
huile	-11.5061
Solène	-11.5065
▁décor	-11.5069
▁Opération	-11.507
▁cotation	-11.5071
SAPE	-11.5082
▁Simone	-11.5083
▁estimé	-11.5086
ALES	-11.509
ICH	-11.5108
attester	-11.5113
Jonathan	-11.5127
couvrant	-11.5127
▁Garantie	-11.5127
▁approuvant	-11.5127
▁monnaie	-11.5127
▁végétal	-11.5127
▁filiale	-11.5127
Micka	-11.5128
▁641	-11.513
ECH	-11.5132
Substitute	-11.5137
identifiant	-11.5141
oz	-11.5146
ial	-11.5148
▁réparties	-11.5152
▁BRI	-11.5161
Char	-11.5162
▁1945	-11.5165
indiquer	-11.5166
7-4	-11.517
ONI	-11.5176
bois	-11.5184
activation	-11.5196
▁effluents	-11.5196
▁indispensable	-11.5196
▁licenciement	-11.5196
Constance	-11.5196
▁gardien	-11.5196
▁master	-11.5196
Sarthe	-11.5196
▁Seule	-11.5196
▁SOU	-11.5198
▁543-2	-11.52
▁ouvre	-11.5202
▁FOR	-11.5202
uelle	-11.5208
Concours	-11.5212
ainsi	-11.5213
(1)	-11.5226
▁communal	-11.5231
▁alloué	-11.524
▁FORMATION	-11.5249
ICE	-11.5256
▁(5)	-11.526
GUILL	-11.5262
Thibaut	-11.5265
▁2016/679	-11.5265
▁descriptif	-11.5265
▁démonstration	-11.5265
ivacaftor	-11.5265
▁zéro	-11.5265
▁Italie	-11.5265
Amandine	-11.5266
▁INTER	-11.5266
▁passeport	-11.5266
▁SIRET	-11.5266
▁bande	-11.5267
▁serment	-11.5267
ivité	-11.5272
▁académies	-11.528
▁Har	-11.5284
▁histo	-11.529
gy	-11.5292
Terre	-11.5302
willer	-11.5303
DAM	-11.5314
plan	-11.5321
▁assimilé	-11.5324
▁corporel	-11.5335
Joséphine	-11.5335
▁comparaison	-11.5335
▁douzième	-11.5335
▁négatif	-11.5335
▁petits	-11.5335
INSEE	-11.5335
Margot	-11.5336
▁apparaître	-11.5337
▁spécialisation	-11.5339
▁94-6	-11.5342
▁brute	-11.5342
▁filet	-11.5342
MENTS	-11.5343
▁Thi	-11.5344
logue	-11.535
GT	-11.5351
Fabrice	-11.5354
Section	-11.5354
▁nominale	-11.5356
gro	-11.5356
ettre	-11.5359
CHON	-11.5364
aucune	-11.5372
acteur	-11.5385
▁criminel	-11.5406
▁régulier	-11.5406
William	-11.5406
▁acquitté	-11.5406
èvre	-11.5406
▁commentaire	-11.5406
▁Certificat	-11.5407
invite	-11.5411
▁collaborateur	-11.5413
▁162-22	-11.5416
omie	-11.5422
DRH	-11.5424
commissaire	-11.5426
▁gouvernement	-11.5427
7.6	-11.5428
construction	-11.5429
Andre	-11.5432
AMP	-11.5432
engagent	-11.544
▁importante	-11.5442
▁notifier	-11.5446
COURT	-11.5448
4-9	-11.5465
▁respective	-11.5471
▁empêch	-11.5472
HUISSIER	-11.5477
▁Gustave	-11.5477
▁boulevard	-11.5477
▁circuit	-11.5477
▁phyto	-11.5477
▁sergent	-11.5477
ÉTAT	-11.5477
Sandra	-11.5477
▁lecture	-11.5477
▁muté	-11.5477
▁usées	-11.5477
▁foyer	-11.5479
dine	-11.5479
product	-11.5484
▁Groupement	-11.5484
26-1	-11.5484
▁162-3	-11.5502
▁commence	-11.5507
HAR	-11.5511
ANNE	-11.5513
▁garant	-11.5514
LLO	-11.5517
ROUX	-11.552
AZA	-11.5523
NEL	-11.5535
Clémentine	-11.5537
.2.3.	-11.5538
▁jeune	-11.5541
original	-11.5548
▁Définition	-11.5548
▁impliqué	-11.5548
▁légère	-11.5548
▁milliard	-11.5548
▁plainte	-11.5548
▁positif	-11.5548
▁recourir	-11.5548
▁réservation	-11.5548
▁siéger	-11.5548
▁notation	-11.5548
▁242-7	-11.5549
▁couvrir	-11.5551
▁répondent	-11.5553
Fait	-11.5554
▁dépassement	-11.5555
▁Maison	-11.5557
Océane	-11.5558
AYE	-11.557
suppléant	-11.5571
utiliser	-11.5572
donnent	-11.5573
▁1995	-11.5576
▁1971	-11.558
009	-11.5584
▁postérieur	-11.5599
▁The	-11.5608
▁parcs	-11.5614
▁2022-12	-11.5616
▁Chirurgie	-11.562
▁compatibilité	-11.562
▁cyber	-11.562
▁planning	-11.562
Ghislain	-11.562
▁nautique	-11.562
▁TRANS	-11.562
▁Musée	-11.5621
▁Française	-11.5623
▁équivalences	-11.5626
▁classifiées	-11.5626
▁gain	-11.5626
AST	-11.5628
▁Conseiller	-11.5637
cteurs	-11.5641
▁contr	-11.5644
Daniel	-11.5645
▁GRA	-11.5648
édic	-11.5654
▁seulement	-11.5656
OLLE	-11.5668
ifier	-11.5682
Valentine	-11.5682
▁revêt	-11.5684
omp	-11.5686
▁conférence	-11.5689
▁collectées	-11.5692
▁succès	-11.5692
hôtel	-11.5692
▁multiplié	-11.5692
abandon	-11.5693
▁litige	-11.5693
Orient	-11.5693
▁navale	-11.5693
▁médicamenteux	-11.5696
Cyrille	-11.5701
▁Guill	-11.5706
Henri	-11.5719
page	-11.5722
▁servi	-11.5725
▁semi	-11.5729
ADI	-11.5731
▁figurer	-11.5737
Yo	-11.5752
.1.1.	-11.5759
NEAU	-11.5759
▁difficulté	-11.576
/2022-08-3	-11.5765
▁JUSTICE	-11.5765
▁différend	-11.5765
▁dérivé	-11.5765
▁linguistique	-11.5765
▁conçu	-11.5765
ÉDUCATION	-11.5765
Orientales	-11.5766
▁CMG	-11.5766
▁Emplois	-11.5768
▁chien	-11.5769
PIERRE	-11.5772
nondations	-11.5774
efficience	-11.5775
▁HAS	-11.5783
▁mort	-11.5785
508	-11.579
lieutenant	-11.5794
och	-11.581
LAR	-11.5814
▁314-1	-11.5819
▁conclure	-11.582
▁déclare	-11.583
entend	-11.5835
ARCH	-11.5838
exactitude	-11.5839
▁navigabilité	-11.5839
▁personnalisé	-11.5839
▁viscérale	-11.5839
▁6232-1	-11.5839
▁prorogé	-11.5839
▁remontée	-11.5839
▁dangereux	-11.584
Johann	-11.5842
▁décrite	-11.5842
NAV	-11.5847
▁certifiée	-11.5848
▁351-1	-11.5855
▁choisir	-11.5863
▁1997	-11.5866
ivre	-11.5868
Aux	-11.5871
▁feu	-11.5877
dépendance	-11.5884
▁Aline	-11.5892
▁associ	-11.5897
2.1	-11.5902
cadastr	-11.5913
▁Système	-11.5913
▁chaude	-11.5913
▁latérales	-11.5913
▁maquette	-11.5913
▁regroupement	-11.5913
▁téléchargement	-11.5913
▁vitae	-11.5913
▁poursuivi	-11.5913
ANAH	-11.5916
▁invalid	-11.5918
ogne	-11.5921
prêté	-11.5923
OZ	-11.5928
DECO	-11.5929
zy	-11.5932
▁Za	-11.5934
ANGE	-11.594
▁repris	-11.594
▁ultérieure	-11.5943
Hervé	-11.5945
onze	-11.5946
étiques	-11.5951
▁cardio	-11.5954
▁identifié	-11.5955
▁CODE	-11.5962
▁signalé	-11.5964
modalit	-11.5965
alli	-11.5972
serve	-11.5973
▁GALL	-11.5974
▁dématérialisé	-11.5984
accessibilité	-11.5988
▁curriculum	-11.5988
▁spectacle	-11.5988
▁terrorisme	-11.5988
▁comparable	-11.5988
▁nominatif	-11.5988
Pontoise	-11.5988
▁virement	-11.5988
PTP	-11.5988
ONE	-11.5988
▁correcte	-11.5989
▁institutionnel	-11.5992
▁grammes	-11.5992
▁mobilisation	-11.5995
POV	-11.5995
▁Somme	-11.5997
▁essentielle	-11.5998
23-8	-11.5999
▁urbaine	-11.6014
▁élue	-11.6016
hom	-11.6017
améliorer	-11.6021
Santé	-11.6023
(2)	-11.6036
EHPAD	-11.6063
▁6123-9	-11.6063
▁annulés	-11.6063
▁dispensation	-11.6063
▁générique	-11.6063
▁inadéquate	-11.6063
▁mobilier	-11.6063
▁sauvetage	-11.6063
▁chances	-11.6063
▁listés	-11.6063
▁menace	-11.6063
▁biais	-11.6063
▁amiable	-11.6063
Marianne	-11.6063
▁Nadine	-11.6063
▁résidentiel	-11.6064
▁Mesure	-11.6067
ffi	-11.6072
▁apporté	-11.6073
▁ciblée	-11.6082
indépendance	-11.6092
▁6122-	-11.6101
▁GIP	-11.6108
tta	-11.6109
▁identifie	-11.6112
environnementaux	-11.6114
NER	-11.6125
VET	-11.6131
▁ressource	-11.6139
filtrage	-11.6139
▁Catalogue	-11.6139
▁contemporain	-11.6139
▁copropriétaires	-11.6139
▁embarqué	-11.6139
▁instruit	-11.6139
▁mérite	-11.6139
▁méthodologie	-11.6139
▁perception	-11.6139
▁reconduit	-11.6139
▁Trois	-11.6139
▁augmenté	-11.6139
▁fruits	-11.6139
▁Poste	-11.6143
▁tolérée	-11.6149
▁accueillir	-11.6151
Administration	-11.6166
vention	-11.6166
▁chiffrement	-11.6167
Qu	-11.6172
Auvergne	-11.6175
▁Sam	-11.6176
Orientation	-11.6179
▁homologu	-11.6193
gno	-11.6199
emplacement	-11.6214
Gauthier	-11.6215
diabétologie	-11.6215
▁Cayenne	-11.6215
▁intellectuelle	-11.6215
▁introduit	-11.6215
rhino	-11.6215
▁Colette	-11.6216
▁représentative	-11.6216
▁examinateurs	-11.6218
▁aller	-11.6219
▁organes	-11.6221
gni	-11.6225
Noémie	-11.6228
2020	-11.623
iche	-11.6235
▁libellé	-11.6236
▁troupeau	-11.624
▁immédiate	-11.6246
▁5121-	-11.625
vaux	-11.6262
▁1635	-11.6264
nf	-11.628
▁SOUS	-11.6289
diplomatie	-11.6292
intégrer	-11.6292
▁endocrinologie	-11.6292
▁hectare	-11.6292
▁individualisé	-11.6292
▁metformine	-11.6292
▁pondéré	-11.6292
▁sujétion	-11.6292
▁précoce	-11.6292
emprise	-11.6292
▁pompe	-11.6292
▁percevoir	-11.6292
▁docteur	-11.6292
effort	-11.6293
▁stade	-11.6293
▁convient	-11.6294
▁admissible	-11.6294
▁adhérents	-11.6295
▁résine	-11.6296
▁posé	-11.6296
▁carré	-11.6297
géomètre	-11.6302
▁avantages	-11.6307
▁exécutée	-11.6311
▁114-1	-11.6311
élu	-11.632
▁clair	-11.6329
▁substitut	-11.6332
sset	-11.6339
internationales	-11.6339
exercent	-11.6341
▁fondée	-11.6342
▁dirige	-11.6343
infection	-11.6347
▁souhait	-11.6349
▁appréciée	-11.6353
ALD	-11.6354
▁bâti	-11.6364
education	-11.6369
▁chaudière	-11.6369
▁domestique	-11.6369
▁fragilisée	-11.6369
▁hémorragique	-11.6369
▁interrompu	-11.6369
▁perspective	-11.6369
▁précédé	-11.6369
▁locatif	-11.6369
Kévin	-11.6369
▁interarmées	-11.637
pdf	-11.637
Corentin	-11.637
▁téléservice	-11.637
▁demandant	-11.637
▁chirurgicale	-11.6371
▁Personnel	-11.6373
▁pourvu	-11.6374
▁gazeux	-11.6381
épi	-11.6392
▁314-2	-11.6399
▁321-2	-11.6404
.1.2.	-11.641
▁détachée	-11.6411
enseignant	-11.6411
Gilles	-11.6412
Stéphanie	-11.6412
▁BAT	-11.6416
etti	-11.6416
▁précisée	-11.643
▁132-1	-11.6433
▁dépasse	-11.6442
elly	-11.6445
▁Compétences	-11.6448
▁Numéro	-11.6448
▁SESAM	-11.6448
▁polluant	-11.6448
▁programmé	-11.6448
▁syndrome	-11.6448
▁Maladie	-11.6448
▁Bastia	-11.6448
Sèvres	-11.6448
▁délit	-11.6448
affecte	-11.645
▁saisit	-11.6456
TFP	-11.6468
▁émises	-11.6475
ROY	-11.648
▁contrôleuse	-11.6483
▁retirée	-11.6483
▁111-1	-11.6486
ling	-11.6493
RAEP	-11.6496
chard	-11.6498
ige	-11.6506
Com	-11.6507
1-3-1	-11.651
TOR	-11.6514
TRET	-11.6515
▁Kh	-11.6517
▁242-1	-11.6521
▁déten	-11.6525
Adjudant	-11.6526
Capitaine	-11.6526
IAHP	-11.6526
RÉFÉRENTIEL	-11.6526
assemblage	-11.6526
épisode	-11.6526
▁Médicament	-11.6526
▁Séverine	-11.6526
▁bénévole	-11.6526
▁ouvrière	-11.6526
▁Situation	-11.6526
▁observé	-11.6526
▁référencé	-11.6526
▁tarification	-11.6526
▁marge	-11.6526
▁progressive	-11.6527
▁investigations	-11.6531
▁214-2	-11.6533
.2.2.	-11.6541
▁définitivement	-11.655
antenne	-11.6551
▁actuelle	-11.6553
BLANC	-11.6555
▁métropolitain	-11.6556
▁chirurgien	-11.6559
Marseille	-11.6572
EFF	-11.6575
▁BRA	-11.6577
▁immatriculée	-11.658
▁0,5	-11.6605
▁PUBLIC	-11.6606
▁franchise	-11.6606
▁problématique	-11.6606
▁recouvré	-11.6606
Assurance	-11.6606
▁Fabienne	-11.6606
▁recharge	-11.6607
interne	-11.6609
Sud	-11.6613
▁requête	-11.6613
▁bordereau	-11.6614
▁substantielle	-11.6628
▁Chacun	-11.663
▁Unité	-11.6658
▁souscrite	-11.6661
gouvernementale	-11.6662
Alix	-11.6667
▁3.2.	-11.6672
▁préparer	-11.6673
MEND	-11.6682
Drôme	-11.6686
INSCRIPTION	-11.6686
infirmière	-11.6686
rectificatif	-11.6686
ysfonctionnement	-11.6686
ÉVALUATION	-11.6686
▁Analyse	-11.6686
▁chaîne	-11.6686
▁citoyenneté	-11.6686
▁concédé	-11.6686
▁construire	-11.6686
▁exécutif	-11.6686
▁scénario	-11.6686
▁valorisé	-11.6686
▁gérant	-11.6686
énoncé	-11.6686
▁Demande	-11.6686
▁septies	-11.6686
13-8	-11.6687
Phil	-11.6696
▁envisagé	-11.6698
asso	-11.6713
▁1973	-11.672
▁PAS	-11.6723
▁attribu	-11.6723
kWh	-11.6728
LBC	-11.6728
▁passée	-11.6733
informer	-11.6736
ECOB	-11.6738
onnier	-11.6759
anu	-11.6759
excéd	-11.6763
Dôme	-11.6766
ématérialisation	-11.6766
▁dénonciation	-11.6766
▁encadré	-11.6766
▁injectable	-11.6766
▁maintenir	-11.6766
▁plaisance	-11.6766
▁portefeuille	-11.6766
▁promulgation	-11.6766
▁siégeant	-11.6766
▁séparation	-11.6766
▁traduit	-11.6766
▁télépilote	-11.6766
COFRAC	-11.6766
▁SANTÉ	-11.6766
oxyde	-11.6766
▁boissons	-11.6766
▁envoyer	-11.6766
animateur	-11.6767
▁parlementaire	-11.6767
▁pénétration	-11.6767
SNIA	-11.6768
▁déconcentré	-11.6776
▁résultent	-11.6777
ouille	-11.6777
▁Arm	-11.6778
Elsa	-11.6782
▁dérog	-11.6784
▁Comp	-11.6788
aume	-11.6798
▁ration	-11.6798
PONT	-11.6802
RAUD	-11.6808
Sonia	-11.6809
▁extra	-11.6818
Sylvie	-11.6818
Article	-11.6818
▁justifié	-11.6821
dix	-11.6842
affiliation	-11.6848
▁2015/1998	-11.6848
▁plénière	-11.6848
▁renforcement	-11.6848
▁SPÉCIALITÉ	-11.6848
▁rhumatologie	-11.6848
▁téléversé	-11.6848
▁maternel	-11.6848
▁item	-11.6848
pathie	-11.6849
ignon	-11.6855
▁municipal	-11.6863
php	-11.6865
▁7534	-11.6877
ello	-11.6882
nois	-11.6888
interface	-11.6889
▁analyser	-11.689
▁certificateur	-11.6895
▁anime	-11.6895
Ou	-11.6895
▁541-10	-11.6907
0-4	-11.6909
Hel	-11.6911
▁Colomb	-11.6912
azi	-11.6925
▁traite	-11.6928
▁combustion	-11.693
▁détient	-11.693
▁infectieuses	-11.693
▁vitale	-11.693
▁162-22-6	-11.693
▁MINIST	-11.693
TNF	-11.693
▁baisse	-11.693
▁Annie	-11.693
hématologie	-11.6931
/2022-05-2	-11.6963
adéquation	-11.6969
▁2.4.	-11.6974
éducatif	-11.6986
▁distribué	-11.699
▁préside	-11.7007
effacement	-11.7012
▁créancier	-11.7012
▁inclut	-11.7012
▁autoriser	-11.7012
▁montagne	-11.7012
▁quorum	-11.7012
écrou	-11.7012
▁PDF	-11.7012
▁préparé	-11.7012
▁covoiturage	-11.7014
géographie	-11.7014
EMPLOIS	-11.7015
▁informée	-11.7017
zan	-11.7018
▁412-1	-11.7024
▁convoqué	-11.7026
▁auteurs	-11.7027
▁argument	-11.7028
▁CDC	-11.7033
▁333-1	-11.7037
▁intercommunal	-11.7043
▁NON	-11.7048
▁conféré	-11.7052
CHARD	-11.7053
▁1970	-11.7057
rive	-11.706
atant	-11.7085
▁mutualis	-11.7092
▁renouve	-11.7094
▁DIRECTION	-11.7096
▁Identification	-11.7096
▁pathogène	-11.7096
▁perçoit	-11.7096
▁vénéréologie	-11.7096
avertissement	-11.7096
édition	-11.7096
▁explosifs	-11.7097
▁suspendre	-11.7097
conventionnement	-11.7098
optique	-11.7103
▁préserv	-11.7116
▁dépasser	-11.7119
anda	-11.7119
▁1975	-11.7136
▁initialement	-11.7137
▁174-1	-11.7141
Delphine	-11.7156
appartenant	-11.7156
▁DOM	-11.7163
24-4	-11.7167
Emmanuelle	-11.7169
▁PROFESSIONNELLE	-11.717
▁diminu	-11.7178
GLEMENT	-11.718
kinésithérapeute	-11.718
▁Examen	-11.718
▁Gascogne	-11.718
▁Métropole	-11.718
▁Nanterre	-11.718
▁Notarial	-11.718
▁Objet	-11.718
▁concubin	-11.718
▁dynamique	-11.718
▁défavorable	-11.718
▁férié	-11.718
▁incompatible	-11.718
▁flotte	-11.718
Gautier	-11.718
▁provenance	-11.7181
▁revient	-11.7183
8-3	-11.7186
▁543-1	-11.7188
▁SERVICES	-11.7195
▁nonies	-11.7195
▁recueillir	-11.7195
sibilité	-11.7196
affaire	-11.7201
▁géré	-11.7202
▁Jac	-11.7205
GUY	-11.7206
NIE	-11.7208
Lise	-11.7215
▁1972	-11.7217
▁611-1	-11.7221
régisseu	-11.7221
fondateur	-11.723
quand	-11.724
Joseph	-11.7242
»	-11.7242
oussa	-11.7245
Communes	-11.7254
sistance	-11.7261
ordonnancement	-11.7262
articulaire	-11.7264
endettement	-11.7264
▁Assurer	-11.7264
▁absolue	-11.7264
▁calendaire	-11.7264
▁verticales	-11.7264
▁GRDF	-11.7264
▁Option	-11.7264
▁impliquant	-11.7264
▁Frais	-11.7264
▁sigle	-11.7265
Mayenne	-11.7265
▁DIPL	-11.7265
▁repas	-11.7265
▁connecté	-11.7267
▁visuel	-11.727
▁vacant	-11.7283
ALIS	-11.7287
▁enregistrements	-11.7287
▁librement	-11.7289
ARENH	-11.7291
▁urgences	-11.73
tar	-11.7301
vez	-11.7303
▁(75)	-11.7306
▁coordonner	-11.7306
externe	-11.7329
▁mère	-11.7333
▁cumulée	-11.7338
exécuter	-11.7345
▁Production	-11.735
▁diffusé	-11.735
▁gravité	-11.735
▁imposable	-11.735
▁inutile	-11.735
▁médaille	-11.735
▁négoce	-11.735
▁modulation	-11.735
Félix	-11.735
▁2019-144	-11.735
▁souches	-11.735
Aube	-11.7365
▁Ferr	-11.7368
▁étape	-11.7369
exploiter	-11.7407
journée	-11.7417
arra	-11.7417
Maurice	-11.7418
Emploi	-11.7433
▁chèque	-11.7436
▁considère	-11.7436
▁contradictoire	-11.7436
ajustement	-11.7436
appuyant	-11.7436
▁DROIT	-11.7436
▁Organismes	-11.7436
▁Stratégie	-11.7436
▁compétition	-11.7436
▁hiérarchie	-11.7436
▁listées	-11.7436
▁remboursé	-11.7436
▁réquisition	-11.7436
▁sensibilisation	-11.7436
▁urgente	-11.7436
Coralie	-11.7436
▁Régie	-11.7437
▁apte	-11.7441
vous	-11.7442
▁GÉNÉRALE	-11.7444
▁soin	-11.7458
disciplinaire	-11.7468
▁2224-	-11.747
▁1963	-11.7474
entendent	-11.7482
▁assorti	-11.7487
▁BAL	-11.7514
▁MENTION	-11.7523
autoconsommation	-11.7523
▁Engagement	-11.7523
▁alternatives	-11.7523
▁métallique	-11.7523
▁tentative	-11.7523
▁SOCIAL	-11.7523
▁gérer	-11.7523
Energie	-11.7524
Elisa	-11.7524
▁Rochelle	-11.7524
Lucile	-11.7525
▁TERRE	-11.7525
Bains	-11.7528
▁ISO	-11.7542
asser	-11.7542
▁remplies	-11.7545
pot	-11.755
▁BTS	-11.755
Guy	-11.7552
andi	-11.757
CHAL	-11.7575
▁change	-11.7606
▁133-1	-11.7608
▁logis	-11.761
▁incombe	-11.7611
chevalier	-11.7611
▁OFFICIERS	-11.7611
▁Présentation	-11.7611
▁fréquent	-11.7611
▁rythme	-11.7611
▁traduction	-11.7611
▁visible	-11.7611
▁détenir	-11.7612
▁souscription	-11.7614
▁préservation	-11.7614
▁Gabrielle	-11.7621
Rachel	-11.7624
▁partiellement	-11.7625
Chau	-11.7633
▁beaux	-11.7633
Force	-11.7639
▁explicite	-11.764
roche	-11.7649
▁plateau	-11.7654
▁intervenu	-11.7683
Tom	-11.7686
vironnementales	-11.7691
Augustin	-11.7699
▁imputable	-11.7699
▁possède	-11.7699
▁préemption	-11.7699
▁cursus	-11.7699
▁consistant	-11.7699
▁proportionnelle	-11.77
medic	-11.77
▁Palais	-11.7701
erreur	-11.7704
▁investie	-11.7707
▁TVA	-11.7713
▁FRANCE	-11.7715
▁84-5	-11.7716
▁CHAU	-11.7723
▁Gué	-11.7723
▁Etre	-11.7731
TERB	-11.7742
▁incorpor	-11.775
▁Opérat	-11.7773
▁détenu	-11.7778
▁insuffisant	-11.7778
0000465109	-11.7788
Ardèche	-11.7788
archéologie	-11.7788
▁2017/745	-11.7788
▁diététicien	-11.7788
▁déontologiques	-11.7788
▁légumes	-11.7788
▁mélange	-11.7788
Clotilde	-11.7788
INRAE	-11.7788
▁6124-177-	-11.7788
▁golf	-11.7789
▁garantit	-11.7791
▁Prix	-11.7793
Champagne	-11.7799
REY	-11.78
▁supportés	-11.7809
Abdel	-11.7811
▁prenantes	-11.7816
▁Notaire	-11.7817
enheim	-11.7838
recteur	-11.784
▁travailler	-11.7841
acompte	-11.7849
tations	-11.7856
jan	-11.7877
laryngologie	-11.7879
▁Procédure	-11.7879
▁glycémie	-11.7879
▁notariat	-11.7879
▁tierce	-11.7879
▁sulf	-11.7879
outillage	-11.7879
▁crime	-11.7879
▁SCP	-11.788
traitance	-11.7881
▁ARMÉES	-11.7893
EMBRE	-11.7894
▁PRÉ	-11.7897
attache	-11.7898
TOIRE	-11.7898
▁syndic	-11.7905
uk	-11.7907
/2022-05-	-11.7913
▁commercialisé	-11.7914
▁FSE	-11.7921
four	-11.7922
examiner	-11.7936
▁THI	-11.7939
SKI	-11.7949
onservatoire	-11.7962
illot	-11.7964
acquitte	-11.7969
▁délibère	-11.7969
Perpignan	-11.7969
immigration	-11.7969
interlocuteur	-11.7969
▁Nîmes	-11.7969
▁bagages	-11.7969
▁chancellerie	-11.7969
▁construit	-11.7969
▁supervision	-11.7969
▁sèche	-11.7969
▁inhalé	-11.797
▁livré	-11.797
▁corticothérapie	-11.797
▁directoire	-11.797
colite	-11.797
▁561-3	-11.7973
▁laissé	-11.7974
▁Niveau	-11.7974
▁établissent	-11.7975
▁chauffé	-11.7975
▁journalier	-11.7977
export	-11.7981
▁francis	-11.7986
▁621-1	-11.799
ERO	-11.7993
6-33	-11.7993
▁facilit	-11.8037
inondation	-11.8051
▁organisationnel	-11.8052
Malo	-11.8055
Jura	-11.8061
ambassade	-11.8061
OPÉRATION	-11.8061
ADMINISTRATION	-11.8061
hélicoptère	-11.8061
▁86-442	-11.8061
▁GENDARMERIE	-11.8061
▁monuments	-11.8061
▁néphrologie	-11.8061
▁spécificités	-11.8061
ECCF	-11.8061
▁hyper	-11.8061
▁étudié	-11.8061
isolant	-11.8061
▁caporal	-11.8062
▁collaboration	-11.8064
▁Terres	-11.8065
Alexia	-11.807
login	-11.8071
▁voirie	-11.8076
▁oto	-11.8082
Jouy	-11.8085
▁recruté	-11.8094
avantage	-11.8099
▁Magistrat	-11.811
▁jeu	-11.8111
▁privilégié	-11.8111
▁additionnelle	-11.8114
gou	-11.8121
21-6	-11.8127
Véronique	-11.8148
orthoptiste	-11.8154
Immobilisations	-11.8154
Stanislas	-11.8154
▁JEUNESSE	-11.8154
▁député	-11.8154
▁universel	-11.8154
▁élargie	-11.8154
▁ventilé	-11.8154
▁isolé	-11.8154
▁TLC	-11.8154
▁teneur	-11.8154
▁Composition	-11.8154
▁Mention	-11.8154
DDPP	-11.8155
▁décompte	-11.8156
seize	-11.8158
▁rente	-11.8161
▁indirectement	-11.8162
Franc	-11.8168
▁réserviste	-11.8188
Tristan	-11.819
▁structur	-11.8199
ied	-11.82
▁sanctionné	-11.8219
▁toléré	-11.8235
ROCHE	-11.8241
Sandrine	-11.8243
joint	-11.8243
Observatoire	-11.8247
Ukraine	-11.8247
▁POPULAIRE	-11.8247
▁côté	-11.8247
▁football	-11.8247
▁télécharger	-11.8247
▁violation	-11.8247
▁contesté	-11.8247
▁généré	-11.8247
Erwan	-11.8247
▁Paiement	-11.8247
▁DEMANDE	-11.8247
Maxence	-11.8247
▁Louvre	-11.8247
▁gestes	-11.8247
▁Yvonne	-11.8247
▁BERNARD	-11.8248
▁Région	-11.8248
▁démissionnaire	-11.8248
temps	-11.8249
▁Douai	-11.8249
venance	-11.8249
▁ADS	-11.8251
▁Heure	-11.8252
▁aliments	-11.8256
▁offert	-11.8272
Yonne	-11.8273
▁recueille	-11.8274
▁cinématographi	-11.828
▁CONTR	-11.8303
AISE	-11.8305
▁structuré	-11.833
lectricité	-11.8335
notamment	-11.8339
▁expressément	-11.8342
▁prépondérante	-11.8342
▁prétendre	-11.8342
▁rédactrice	-11.8342
▁transfèrement	-11.8342
▁témoin	-11.8342
▁remarque	-11.8342
▁oncologique	-11.8342
▁NSF	-11.8342
medicaments	-11.8342
▁pouss	-11.8342
▁soumettre	-11.8342
▁allée	-11.8344
ccession	-11.8344
▁muni	-11.8363
ILLOT	-11.8366
▁hoc	-11.8393
▁joue	-11.843
▁Règle	-11.8431
UFF	-11.8434
INRIA	-11.8436
Bretagne	-11.8436
rvico	-11.8437
Angélique	-11.8437
▁Evelyne	-11.8437
▁RELATIF	-11.8437
▁dimensionnement	-11.8437
▁douanière	-11.8437
▁pavillon	-11.8437
▁promoteur	-11.8437
▁rayonnement	-11.8437
▁opposable	-11.8437
isolation	-11.8437
▁FICHE	-11.8437
MWh	-11.8438
▁6153-1	-11.8443
▁32,4	-11.8448
.1.3.	-11.8469
Vallée	-11.8474
▁formalis	-11.8491
adalimumab	-11.8495
ionne	-11.8512
ORG	-11.8528
nia	-11.8531
allemand	-11.8532
▁FONCTION	-11.8533
▁prescrire	-11.8533
▁préférence	-11.8533
▁puériculture	-11.8533
entreposage	-11.8533
▁tension	-11.8533
▁traditionnel	-11.8533
▁profonde	-11.8533
▁malade	-11.8533
systématiquement	-11.8559
2.2	-11.8563
CHAMP	-11.8594
ZY	-11.8617
▁retourné	-11.8625
région	-11.8629
TECHNIQUE	-11.863
▁TITULAIRE	-11.863
▁Type	-11.863
▁collectés	-11.863
▁conservatrice	-11.863
▁démantèlement	-11.863
▁juvénile	-11.863
▁meubles	-11.863
▁onéreux	-11.863
▁polyvalent	-11.863
▁psoriasis	-11.863
▁renonciation	-11.863
▁préparateur	-11.863
ASMR	-11.863
▁Droit	-11.863
▁aviaire	-11.863
CFTC	-11.863
▁CCF	-11.863
▁télétravail	-11.863
▁clientèle	-11.8631
▁subordonné	-11.8632
cabinet	-11.8633
Virginie	-11.8633
Guyane	-11.8634
▁confier	-11.8637
▁km	-11.8637
IMI	-11.8641
▁couvertes	-11.8651
file	-11.8662
▁examine	-11.8666
Brun	-11.8673
▁trouble	-11.8674
▁Jam	-11.8691
Quel	-11.8694
▁sexuelle	-11.8714
▁remplacer	-11.8725
exonération	-11.8725
Aucun	-11.8726
Eléonore	-11.8728
▁Domaine	-11.8728
▁Volaille	-11.8728
▁recevabilité	-11.8728
interprété	-11.8728
▁animée	-11.8728
▁Langue	-11.8728
connaitre	-11.8729
▁Melun	-11.8729
Laurence	-11.8734
▁plage	-11.8736
influence	-11.8743
▁kit	-11.875
▁élémentaire	-11.8755
aillard	-11.8761
OTTE	-11.877
Antoinette	-11.8775
▁référ	-11.8819
▁SPÉCIFIQUES	-11.8827
▁australes	-11.8827
▁efficace	-11.8827
▁flottant	-11.8827
▁implique	-11.8827
▁kilomètres	-11.8827
▁modulé	-11.8827
▁quelconque	-11.8827
▁stylo	-11.8827
Technicien	-11.8827
Barbara	-11.8827
incitation	-11.8827
▁COMMUN	-11.8827
extraction	-11.8827
▁diminution	-11.8829
animaux	-11.8834
élaborer	-11.8836
vait	-11.8848
▁immatriculé	-11.886
▁prolongé	-11.8874
▁Barr	-11.8881
8-4	-11.8908
Far	-11.8909
▁organis	-11.8914
▁journal	-11.892
▁recouvre	-11.8922
▁Coût	-11.8927
▁Eiffel	-11.8927
▁efficient	-11.8927
▁lucratif	-11.8927
▁manipulateur	-11.8927
▁privilège	-11.8927
Astrid	-11.8927
▁6123-3	-11.8927
▁Projet	-11.8927
▁positionnement	-11.8927
▁consigné	-11.8927
▁moderne	-11.8927
Blandine	-11.8927
Syrie	-11.8927
▁soussigné	-11.8927
enceinte	-11.8927
▁munitions	-11.8928
▁Prénom	-11.8928
▁radiothérapie	-11.8928
nombre	-11.8947
▁apprécié	-11.8948
▁541-10-1	-11.8952
thy	-11.899
ETTI	-11.8992
Orne	-11.8998
OW	-11.9005
ILLI	-11.9024
▁Annick	-11.9028
▁CPDLC	-11.9028
▁dégagement	-11.9028
▁phénomène	-11.9028
▁posséd	-11.9028
▁batterie	-11.9028
CEREMA	-11.9028
▁lancement	-11.903
acheteur	-11.9031
▁6124-13	-11.9035
ajoutent	-11.9035
▁interviennent	-11.9036
▁déclarer	-11.9041
crise	-11.9042
▁réhabilitation	-11.9044
habit	-11.9049
ock	-11.905
Ville	-11.9056
IGNE	-11.906
▁constitutionnel	-11.907
▁restreint	-11.9085
78-17	-11.9115
EPMSP	-11.913
ameublement	-11.913
ergothérapeute	-11.913
▁Méthode	-11.913
▁fondamentaux	-11.913
▁libéraux	-11.913
▁minérales	-11.913
océan	-11.913
amiral	-11.913
▁légaux	-11.913
▁fabriqu	-11.913
▁paix	-11.913
_5267	-11.913
▁détaillant	-11.9131
▁montage	-11.9132
▁LIVRE	-11.9132
▁sécurisation	-11.9132
EMI	-11.9136
▁Jour	-11.9146
ousseau	-11.9153
▁Chev	-11.9154
▁Fiche	-11.9154
▁Amélior	-11.9155
▁confort	-11.9164
OCH	-11.9164
▁terrestre	-11.9184
▁dommage	-11.9184
neuf	-11.9187
mène	-11.9193
viendra	-11.9203
▁localisé	-11.9221
▁hospital	-11.9223
europa	-11.9227
DDETS	-11.9233
émargement	-11.9233
▁CNPMEM	-11.9233
▁antarctiques	-11.9233
▁marchande	-11.9233
▁recense	-11.9233
▁textile	-11.9233
Mehdi	-11.9233
▁basket	-11.9233
▁franco	-11.9233
Vanessa	-11.9233
▁constant	-11.9233
▁Météo	-11.9234
Arménie	-11.9234
▁substitution	-11.9235
onglet	-11.9235
▁vigne	-11.9236
herbe	-11.9237
▁répondu	-11.9239
dentiste	-11.9246
TOUR	-11.9246
▁trop	-11.9248
courrier	-11.925
Grand	-11.9259
Nous	-11.9269
stéro	-11.9273
Adam	-11.9286
▁plate	-11.9287
jon	-11.9304
gny	-11.9316
▁ratio	-11.933
▁instaur	-11.9332
▁quotidien	-11.9334
Olivia	-11.9337
Victoire	-11.9337
accompagnant	-11.9337
▁affectant	-11.9337
▁dégradé	-11.9337
▁harcèlement	-11.9337
▁judo	-11.9337
▁ordinaire	-11.9337
▁seringue	-11.9337
▁significatif	-11.9337
▁Généralités	-11.9337
▁roulant	-11.9337
▁recul	-11.9337
▁anatomi	-11.9338
▁Crohn	-11.9338
Renan	-11.9338
▁quotité	-11.9338
▁carence	-11.934
▁fermé	-11.9341
▁162-23-	-11.9341
▁sortir	-11.9346
Occitanie	-11.9355
▁terminal	-11.9371
▁astreint	-11.9382
▁CHEV	-11.94
Sami	-11.9435
graphe	-11.9439
Andorre	-11.9443
Corrèze	-11.9443
uvéite	-11.9443
▁2022-2027	-11.9443
▁Protection	-11.9443
▁métaux	-11.9443
▁psychiatrique	-11.9443
▁Beauvais	-11.9443
▁Chambéry	-11.9443
Dordogne	-11.9443
▁emporte	-11.9443
▁stabilité	-11.9443
▁adopte	-11.9444
▁fédérale	-11.9444
▁panneaux	-11.9444
▁rédige	-11.9445
▁GRAND	-11.9451
▁étudiante	-11.9455
vasculaire	-11.9457
intention	-11.9462
Agnès	-11.9463
tenu	-11.949
face	-11.951
TEURS	-11.9516
▁transfér	-11.9532
▁supplément	-11.9547
▁panneau	-11.9548
▁reportée	-11.9548
Médecin	-11.9548
▁Principau	-11.9549
▁Protocole	-11.9549
▁ambulatoire	-11.9549
▁continental	-11.9549
▁manutention	-11.9549
▁pratiqué	-11.9549
▁prévoient	-11.9549
▁rétention	-11.9549
▁PFMP	-11.9549
▁rhumato	-11.9549
▁Prévention	-11.9549
Martial	-11.9549
▁viande	-11.955
▁Programme	-11.955
▁léger	-11.955
▁pathologiques	-11.955
▁4231-2-	-11.955
▁satisfaction	-11.9551
▁Marthe	-11.9551
▁exonérations	-11.9552
▁Règlement	-11.9555
▁ateliers	-11.9556
▁gazières	-11.9558
sujet	-11.9571
rubrique	-11.9571
Nadia	-11.9578
▁vérifi	-11.9586
▁7124-	-11.9589
Maroc	-11.9626
animal	-11.9647
▁prudentiel	-11.9657
Hôpital	-11.9657
espagnol	-11.9657
▁Déclaration	-11.9657
▁PMCB	-11.9657
▁chancelier	-11.9657
▁olympique	-11.9657
▁prévoyant	-11.9657
▁restrictives	-11.9657
▁tolérance	-11.9657
▁télématique	-11.9657
▁samedi	-11.9657
▁produis	-11.9657
▁MICHEL	-11.9657
▁Suisse	-11.9658
▁clairement	-11.9658
▁boxe	-11.9658
▁entièrement	-11.9661
▁gère	-11.9673
santé	-11.969
Chez	-11.9702
AOUI	-11.9706
▁formalisée	-11.9712
▁moral	-11.9754
▁soumet	-11.9761
▁brigadier	-11.9765
aéromodèle	-11.9765
encadrant	-11.9765
▁Barbet	-11.9765
▁Participation	-11.9765
▁capitaux	-11.9765
▁magasin	-11.9765
▁prescriv	-11.9765
▁professorat	-11.9765
▁réfugiés	-11.9765
▁typologie	-11.9765
▁Parcours	-11.9765
▁radioprotection	-11.9765
▁club	-11.9765
croix	-11.9765
▁publie	-11.9766
▁CONTRAT	-11.9766
ILLY	-11.9767
▁donation	-11.9767
▁Moyen	-11.9768
▁533-1	-11.9779
▁2021-190	-11.9785
▁intérimaire	-11.9786
▁numérisée	-11.9802
▁Villa	-11.9837
OUCHE	-11.9851
▁satisf	-11.9872
Espagne	-11.9875
Eugénie	-11.9875
Vosges	-11.9875
jujitsu	-11.9875
▁APPLICABLE	-11.9875
▁CATÉGORIE	-11.9875
▁Eugène	-11.9875
▁Subventions	-11.9875
▁cérébral	-11.9875
▁grevée	-11.9875
▁incomplète	-11.9875
▁prorogation	-11.9875
▁précède	-11.9875
▁rugby	-11.9875
▁rédacteur	-11.9875
▁sexies	-11.9875
▁RNCP	-11.9875
OLOGIE	-11.9875
▁Charges	-11.9875
▁2021-2022	-11.9875
▁tracteur	-11.9875
DDETSPP	-11.9876
▁Alger	-11.9878
▁sollicitent	-11.9883
▁liquidateur	-11.9888
▁revêtement	-11.9888
Tous	-11.9898
connexion	-11.9905
imagerie	-11.9907
▁7501	-11.9928
▁ferme	-11.9934
Victoria	-11.9936
BOURG	-11.9942
▁Médaill	-11.9958
Dispos	-11.9969
▁Antilles	-11.9986
Formulaire	-11.9986
Principe	-11.9986
agriculteur	-11.9986
▁Notification	-11.9986
▁manipulation	-11.9986
▁pulmonaire	-11.9986
▁récidive	-11.9986
Jocelyn	-11.9986
Jérémie	-11.9986
Tanguy	-11.9986
▁guichet	-11.9986
▁Mérite	-11.9986
▁interfère	-11.9986
▁convoque	-11.9986
▁Bourges	-11.9986
▁parisienne	-11.9986
jsp	-11.9987
metiers	-11.9987
▁anomalies	-11.9989
▁nous	-12.0006
département	-12.0009
▁décoll	-12.0028
hiver	-12.0067
▁déclin	-12.0074
amide	-12.0076
▁RÉGION	-12.0093
24-7	-12.0096
communication	-12.0096
enouvellement	-12.0098
▁pécuniaire	-12.0099
interprète	-12.0099
▁Bernadette	-12.0099
▁Communauté	-12.0099
▁Vendôme	-12.0099
▁cédant	-12.0099
▁dégradation	-12.0099
▁francophonie	-12.0099
▁génère	-12.0099
▁prélevé	-12.0099
importateur	-12.0099
▁motorisation	-12.0099
▁suisse	-12.0099
▁prud	-12.0099
▁borne	-12.0099
intervalle	-12.0102
▁minière	-12.0102
▁DURAND	-12.0102
▁Nations	-12.0103
▁infections	-12.0103
Euro	-12.013
accusé	-12.0133
▁poursuit	-12.0172
gnon	-12.0176
▁tonne	-12.0191
▁collabor	-12.0197
évaluateur	-12.0209
APPLICATION	-12.0212
Assesseur	-12.0212
Rodolphe	-12.0212
abrogation	-12.0212
appuyer	-12.0212
articulation	-12.0212
intensité	-12.0212
▁Calcul	-12.0212
▁DOSSIER	-12.0212
▁Document	-12.0212
▁boîte	-12.0212
▁matérialis	-12.0212
▁mécanicien	-12.0212
▁prairies	-12.0212
▁redressement	-12.0212
▁référendaire	-12.0212
▁mégawatt	-12.0212
▁motorisé	-12.0212
▁dressé	-12.0213
▁chasseurs	-12.0214
esthétique	-12.022
▁446-1	-12.0221
▁519-1	-12.0223
▁échangeuse	-12.0223
entraîne	-12.0246
intranet	-12.0249
▁assiste	-12.0253
▁auditive	-12.0255
▁législative	-12.029
▁recommandation	-12.029
▁approfondi	-12.0327
▁2017/746	-12.0327
▁CONVENTION	-12.0327
▁cohérent	-12.0327
▁expérimenté	-12.0327
▁promouvoir	-12.0327
▁Cergy	-12.0327
▁indépendamment	-12.0327
▁SPORTIF	-12.0327
▁émana	-12.0329
CNAM	-12.0331
▁médicamenteuse	-12.0331
▁7343-1	-12.0332
▁lésion	-12.0335
▁matrice	-12.0335
▁graphiques	-12.0336
▁consolidé	-12.0361
bstant	-12.0374
remise	-12.0377
INFORMATION	-12.0391
écrit	-12.0402
▁majeur	-12.0407
▁loué	-12.041
alidation	-12.0416
▁apparaît	-12.044
▁Dénomination	-12.0443
▁analytique	-12.0443
▁inchangé	-12.0443
Rectificatif	-12.0443
▁Montreuil	-12.0443
▁Nouméa	-12.0443
▁confidentiel	-12.0443
▁désignant	-12.0443
▁générateur	-12.0443
▁paramédical	-12.0443
▁reproduction	-12.0443
▁végétaux	-12.0443
▁Colmar	-12.0444
Clarisse	-12.0444
▁artistes	-12.0444
▁score	-12.0444
▁Trè	-12.0444
▁associatif	-12.0444
▁reconnaît	-12.0445
▁fournissent	-12.0445
▁mutualisation	-12.0448
▁largeur	-12.045
▁élevages	-12.0452
▁sursis	-12.0458
surveillance	-12.046
Nor	-12.0469
IEUX	-12.0473
LLEC	-12.0478
▁trimestrielle	-12.0481
accéder	-12.0486
organisateur	-12.0486
logie	-12.0516
▁favorise	-12.0517
Carine	-12.0536
chauff	-12.0554
Commissaire	-12.0561
Ajaccio	-12.0561
appoint	-12.0561
odontologie	-12.0561
opposé	-12.0561
▁radicalisation	-12.0561
▁trajectoire	-12.0561
▁tropicales	-12.0561
▁volley	-12.0561
▁Membres	-12.0561
▁méconnaissance	-12.0561
▁prévenues	-12.0561
esprit	-12.0561
▁Recherche	-12.0561
▁barrage	-12.0561
▁accueillant	-12.0561
▁onzième	-12.0562
▁DDF	-12.0562
Adeline	-12.0563
▁facilités	-12.0564
▁New	-12.0565
italien	-12.0571
Durant	-12.0576
▁renvoy	-12.0598
rapprochement	-12.0605
Thérèse	-12.0607
secrétariat	-12.0607
dalimumab	-12.0608
▁dispensé	-12.0614
apprenti	-12.0647
▁facteur	-12.065
▁contractualis	-12.0657
lière	-12.0666
ERON	-12.0668
Rodrigue	-12.068
expropriation	-12.068
▁COMPÉTENCES	-12.068
▁Développement	-12.068
▁Indemnité	-12.068
▁Moldavie	-12.068
▁configuration	-12.068
▁corrigé	-12.068
▁triennal	-12.068
Emeline	-12.068
échelonnement	-12.068
▁bourse	-12.068
Evry	-12.068
▁légion	-12.068
▁journaliste	-12.0681
▁urologie	-12.0681
immuno	-12.0688
Célia	-12.0696
fortement	-12.0697
IGNON	-12.0698
Perrine	-12.0705
économique	-12.0728
régional	-12.073
ADR	-12.073
Francis	-12.0731
▁kW	-12.074
Blanc	-12.0761
▁affranchi	-12.0769
ommissariat	-12.0793
▁simultané	-12.0795
immobilisation	-12.0798
arrondissement	-12.0801
isproportionnées	-12.0801
tabilisation	-12.0801
▁2021/2115	-12.0801
▁Bobigny	-12.0801
▁chimiothérapie	-12.0801
▁conciliation	-12.0801
▁constructeur	-12.0801
▁cytologie	-12.0801
▁décimale	-12.0801
▁représentatif	-12.0801
▁relever	-12.0801
▁combiné	-12.0801
▁ordonne	-12.0801
▁subdivision	-12.0801
▁financer	-12.0801
▁simplification	-12.0801
▁2019/6	-12.0801
▁douleur	-12.0802
▁2008-36	-12.0803
▁concept	-12.0804
Elisabeth	-12.0852
▁actuel	-12.0873
▁contrainte	-12.0893
ordonnées	-12.0893
▁essentiel	-12.0906
ISSON	-12.0908
▁intégral	-12.0921
▁déclench	-12.0921
▁inéligible	-12.0923
▁psychomotricien	-12.0923
opportunité	-12.0923
▁PERSONNEL	-12.0923
▁adressant	-12.0923
▁délibérer	-12.0923
▁exigible	-12.0923
▁fondamentale	-12.0923
▁inadapté	-12.0923
▁originaux	-12.0923
▁perçoivent	-12.0923
▁procréation	-12.0923
▁revue	-12.0923
▁semestriel	-12.0923
▁violente	-12.0923
▁parallèle	-12.0923
▁retentisse	-12.0923
fluor	-12.0923
values	-12.0923
▁respectifs	-12.0923
▁cendres	-12.0923
Zoé	-12.0923
▁Transport	-12.0924
assises	-12.0924
Afrique	-12.0925
▁acomptes	-12.0927
nclu	-12.0939
▁Forme	-12.0952
Carole	-12.0977
intérim	-12.0977
▁5126-	-12.1001
▁PARTIE	-12.1005
▁NATIONAL	-12.1015
obs	-12.1037
▁Personne	-12.1041
Ludivine	-12.1046
affiliés	-12.1046
▁Capacité	-12.1046
▁GROUPE	-12.1046
▁Pyramide	-12.1046
▁illicite	-12.1046
▁métallurgie	-12.1046
▁régularité	-12.1046
▁signaux	-12.1046
investigateur	-12.1046
▁chenal	-12.1046
▁Etude	-12.1046
▁Filière	-12.1046
▁vecteur	-12.1046
nnuité	-12.1047
▁Havre	-12.1047
▁déclenchement	-12.1047
▁détecte	-12.1047
Leclerc	-12.105
télétransmission	-12.1068
▁renfor	-12.1072
Orange	-12.108
Orly	-12.1084
▁Sauv	-12.1085
▁hémato	-12.1096
responsable	-12.1103
;	-12.1104
▁vaccinal	-12.1124
▁Tunis	-12.1166
▁fédér	-12.1166
anomalie	-12.1168
Environnement	-12.1171
▁blanchi	-12.1171
Extension	-12.1171
GOUVERNEMENT	-12.1171
Pacifique	-12.1171
adoptant	-12.1171
introduction	-12.1171
intéressement	-12.1171
▁Auguste	-12.1171
▁Connaissance	-12.1171
▁Dépenses	-12.1171
▁Jacky	-12.1171
▁Secrétaire	-12.1171
▁grève	-12.1171
▁littérature	-12.1171
▁Modification	-12.1171
ESPACE	-12.1171
▁fracture	-12.1171
▁réglé	-12.1171
▁CHARGES	-12.1171
▁Justifi	-12.1172
▁1261-1	-12.1173
MOBIL	-12.1173
articule	-12.1187
impartialité	-12.1196
oubli	-12.12
aucun	-12.1202
Commandant	-12.1232
▁Délai	-12.1238
Substitut	-12.1279
▁NOTAIRE	-12.1288
implication	-12.1298
évacuation	-12.1298
▁Suivi	-12.1298
▁coordinateur	-12.1298
▁déclarative	-12.1298
Jessica	-12.1298
▁2012-124	-12.1298
▁fluid	-12.1298
▁BVEC	-12.1298
investisseur	-12.1298
▁densité	-12.1298
▁désinfection	-12.1298
▁Accompagnement	-12.1298
▁Contenu	-12.1298
▁vision	-12.1301
Ronan	-12.1301
▁83-63	-12.1303
EVANT	-12.1303
▁mentale	-12.1305
LABA	-12.1336
PROFESSIONNELLES	-12.134
▁GUER	-12.1341
policier	-12.1362
Gérard	-12.1362
Robert	-12.1364
assistent	-12.137
▁ouvré	-12.1402
ETAM	-12.1422
▁Danièle	-12.1426
Histoire	-12.1426
appréhender	-12.1426
interopérabilité	-12.1426
irrecevabilité	-12.1426
traînant	-12.1426
▁Assistant	-12.1426
▁RÉPUBLIQUE	-12.1426
▁classique	-12.1426
▁complications	-12.1426
▁piscine	-12.1426
▁Odette	-12.1426
▁souvent	-12.1426
▁Agrément	-12.1426
▁PREMI	-12.1426
Adèle	-12.1426
▁Belfort	-12.1427
▁Varenne	-12.1427
▁passif	-12.1427
▁antécédents	-12.1427
▁212-10-1	-12.1427
▁Eliane	-12.1428
pierre	-12.1432
Dorian	-12.1458
OYER	-12.1461
▁touch	-12.1486
travail	-12.1493
explicit	-12.1513
SSAR	-12.1514
prendra	-12.1524
dresser	-12.1541
titia	-12.1555
individu	-12.1556
éclairer	-12.1556
▁Dérogation	-12.1556
▁Inscription	-12.1556
▁PARTICULI	-12.1556
▁SUPÉRIEUR	-12.1556
▁Surveillance	-12.1556
▁appartiennent	-12.1556
▁apposé	-12.1556
▁repérage	-12.1556
▁saisonnière	-12.1556
▁Gisèle	-12.1556
▁digital	-12.1556
▁moniteur	-12.1556
Sabrina	-12.1556
▁toile	-12.1556
▁01/01/	-12.1557
▁3131-1	-12.1559
▁Secteur	-12.1596
ONNIER	-12.1601
Ariane	-12.1625
portail	-12.1627
▁dépass	-12.1647
▁précis	-12.1648
▁sapeur	-12.1667
▁science	-12.1667
▁coordonné	-12.1676
000045458	-12.1687
▁horticole	-12.1687
▁météorologique	-12.1687
appropriation	-12.1687
▁MODALIT	-12.1687
▁apparent	-12.1687
▁circulant	-12.1687
▁moléculaire	-12.1687
▁participatif	-12.1687
▁réglage	-12.1687
▁scellé	-12.1687
▁évidence	-12.1687
Prescription	-12.1687
▁recourant	-12.1687
▁marqué	-12.1687
Nièvre	-12.1687
▁fioul	-12.1687
▁signifie	-12.1687
▁déduit	-12.1687
▁OUVRA	-12.1687
Velay	-12.1688
▁INFORMATIONS	-12.1688
▁COMITÉ	-12.1688
EPEF	-12.1689
▁gratuitement	-12.169
OLIN	-12.1693
-728	-12.1706
▁occasionnel	-12.1715
Cantal	-12.172
calendrier	-12.1762
écologique	-12.1762
Commission	-12.1762
quoi	-12.18
▁GÉNÉRAL	-12.1809
Mathias	-12.1821
abattement	-12.1821
incertitude	-12.1821
opposer	-12.1821
▁2023-2024	-12.1821
▁PERSONNES	-12.1821
▁apatrides	-12.1821
▁biomasse	-12.1821
▁cynotechnique	-12.1821
▁distinguant	-12.1821
▁délégant	-12.1821
▁participé	-12.1821
▁privative	-12.1821
▁pâturage	-12.1821
▁quantitative	-12.1821
▁recevr	-12.1821
▁simulation	-12.1821
▁électronicien	-12.1821
Natacha	-12.1821
▁Londres	-12.1821
▁Sénat	-12.1821
▁SIMON	-12.1821
▁Réalisation	-12.1822
▁culte	-12.1822
▁carnet	-12.1822
Yvon	-12.1822
Lambert	-12.1823
artisan	-12.1833
▁distribu	-12.1855
bureau	-12.1902
▁paramètre	-12.194
solidarites	-12.1956
▁objective	-12.1956
▁positive	-12.1956
EXAMEN	-12.1956
optimisation	-12.1956
▁Exigence	-12.1956
▁Gendarmerie	-12.1956
▁PROGRAMME	-12.1956
▁Volume	-12.1956
▁badminton	-12.1956
▁blâme	-12.1956
▁impératif	-12.1956
▁jurisprudence	-12.1956
▁requérant	-12.1956
▁scléro	-12.1956
▁stupéfiants	-12.1956
▁thoracique	-12.1956
▁urinaire	-12.1956
▁émérite	-12.1956
▁appliquant	-12.1956
▁quantification	-12.1956
▁Irène	-12.1956
Cependant	-12.1956
▁cardiologie	-12.1956
▁transverse	-12.1956
Jordan	-12.1956
▁Qualité	-12.1959
▁Soldat	-12.1964
écoute	-12.1972
▁indexé	-12.1975
ADJ	-12.1979
RCS	-12.1981
fondatrice	-12.1998
Ministère	-12.2038
▁condamné	-12.2051
▁classifié	-12.2067
▁exempt	-12.2073
▁confie	-12.2086
▁Boulogne	-12.2093
Territoire	-12.2093
Informatique	-12.2093
Télécom	-12.2093
acquéreur	-12.2093
▁agronomique	-12.2093
▁nettoyage	-12.2093
▁télévision	-12.2093
Amaury	-12.2093
▁minimis	-12.2093
Ariège	-12.2093
Nadège	-12.2093
anticiper	-12.2093
interrogation	-12.2093
▁renseigner	-12.2093
▁2008-94	-12.2093
Lozère	-12.2093
Kevin	-12.2093
liquant	-12.2093
▁résiduelle	-12.2093
▁quote	-12.21
▁exécute	-12.2101
Ordre	-12.2105
cutanée	-12.2136
Karim	-12.215
utter	-12.2173
Sciences	-12.2178
▁paie	-12.2227
▁réclam	-12.2228
Ahmed	-12.2232
Timothée	-12.2232
harmonisation	-12.2232
humatisme	-12.2232
itinéraire	-12.2232
▁Edmond	-12.2232
▁Muséum	-12.2232
▁Référentiel	-12.2232
▁approuve	-12.2232
▁axiale	-12.2232
▁conséquent	-12.2232
▁détecté	-12.2232
▁familiaux	-12.2232
▁prothèse	-12.2232
▁révèle	-12.2232
▁Travail	-12.2232
▁littéraire	-12.2232
usinage	-12.2232
▁GESTION	-12.2232
UNCAM	-12.2232
▁tumeur	-12.2232
▁web	-12.2232
▁RICHARD	-12.2232
Salomé	-12.2232
▁Gaston	-12.2232
▁affiche	-12.2232
▁zonale	-12.2232
Gaulle	-12.2232
▁allemande	-12.2233
Conseillère	-12.2238
ABLE	-12.2245
attribuer	-12.2265
MENB	-12.2278
ameli	-12.228
▁plantation	-12.2295
Coline	-12.2303
▁considér	-12.2304
international	-12.231
pression	-12.2311
sciences	-12.2322
Armelle	-12.2327
▁exécuté	-12.2338
podologue	-12.2372
EXIGENCE	-12.2372
Ordonnance	-12.2372
abonnement	-12.2372
▁Autorisation	-12.2372
▁CICTA	-12.2372
▁Diffusion	-12.2372
▁Indicateur	-12.2372
▁MILITAIRE	-12.2372
▁Ressources	-12.2372
▁SPÉCIALISÉE	-12.2372
▁SÉCURITÉ	-12.2372
▁bibliothécaire	-12.2372
▁concevoir	-12.2372
▁favorisant	-12.2372
▁inapproprié	-12.2372
▁maréchal	-12.2372
▁mucoviscidose	-12.2372
▁myélo	-12.2372
▁nullité	-12.2372
▁quinquies	-12.2372
▁symptômes	-12.2372
▁94749	-12.2373
Thibaud	-12.2373
▁présumé	-12.2373
▁CFTR	-12.2373
accise	-12.2373
▁graines	-12.2373
▁nourrisson	-12.2373
▁NICOL	-12.2373
▁voile	-12.2373
▁entraine	-12.2373
▁Sexe	-12.2373
▁photothérapie	-12.2373
Yoann	-12.2373
enseignementsup	-12.2373
autrui	-12.2374
avaient	-12.2374
▁occasionné	-12.2375
rthrite	-12.2385
texte	-12.2465
▁évit	-12.2466
▁amélior	-12.2468
Guillem	-12.247
Serge	-12.2473
▁simplifi	-12.2512
▁physico	-12.2515
▁souffr	-12.2515
Tiphaine	-12.2515
audioprothésiste	-12.2515
▁Hospitali	-12.2515
▁MATHIEU	-12.2515
▁PASSCOG	-12.2515
▁PNGMDR	-12.2515
▁PROPARCO	-12.2515
▁Rémunération	-12.2515
▁UNITÉS	-12.2515
▁accuse	-12.2515
▁affiliées	-12.2515
▁confinement	-12.2515
▁doctorale	-12.2515
▁homogène	-12.2515
▁manquant	-12.2515
▁ordinateur	-12.2515
▁paramédicaux	-12.2515
▁psychique	-12.2515
▁ultramarin	-12.2515
NUCALA	-12.2515
owski	-12.2515
▁voiture	-12.2515
sauveteur	-12.2515
▁enchères	-12.2515
▁locative	-12.2515
orienter	-12.2515
▁Détail	-12.2516
▁récente	-12.2516
▁pause	-12.2516
attributaire	-12.2522
hydr	-12.2526
Anjou	-12.2528
▁proportionné	-12.2531
▁rayon	-12.2539
▁converti	-12.2599
coefficient	-12.2613
septième	-12.2613
quatrième	-12.2614
sécurité	-12.2614
▁patrimonial	-12.2649
chercheur	-12.2654
pompier	-12.2654
▁connaît	-12.2657
▁progress	-12.2658
▁entière	-12.266
▁Alphonse	-12.266
orthopédie	-12.266
▁ajusté	-12.266
▁chaussure	-12.266
▁dividende	-12.266
▁divulgation	-12.266
▁facturables	-12.266
▁kilométrique	-12.266
▁limitrophe	-12.266
▁sinistre	-12.266
▁vulnérabilité	-12.266
▁édictée	-12.266
Capucine	-12.266
▁résumé	-12.266
Instance	-12.266
▁provoqu	-12.266
▁242-21	-12.266
▁Liliane	-12.266
Brevet	-12.266
/1139	-12.266
Flavie	-12.2661
Hélo	-12.2661
▁logique	-12.2661
2022-1726	-12.2662
instauration	-12.2667
▁2151-	-12.271
produits	-12.2755
troisième	-12.2763
▁cabine	-12.2802
inscriv	-12.2805
Aveyron	-12.2807
Caractéristiques	-12.2807
Jennifer	-12.2807
anticipation	-12.2807
éanmoins	-12.2807
▁combinaison	-12.2807
▁indicatif	-12.2807
▁informatisé	-12.2807
▁modélis	-12.2807
▁notariaux	-12.2807
▁psoriasique	-12.2807
▁pupille	-12.2807
▁reclassés	-12.2807
▁résilience	-12.2807
▁usagés	-12.2807
▁GIRARD	-12.2807
▁ramené	-12.2807
▁convenances	-12.2807
▁parisiens	-12.2807
▁tampon	-12.2807
Avignon	-12.2807
pprofondissement	-12.2807
▁dignité	-12.2808
▁bêta	-12.2808
▁MENTIONNÉ	-12.2808
Enfant	-12.2816
système	-12.2914
droit	-12.2915
▁lauréat	-12.2955
▁substance	-12.2955
▁justificative	-12.2955
▁consigne	-12.2955
Aymeric	-12.2957
EPLEFPA	-12.2957
Ingénieur	-12.2957
hydrocarbures	-12.2957
éosinophiles	-12.2957
▁assignataire	-12.2957
▁ciclosporine	-12.2957
▁façade	-12.2957
▁incombant	-12.2957
▁portfolio	-12.2957
▁restitue	-12.2957
▁fenêtre	-12.2957
defense	-12.2957
▁céder	-12.2957
Constantin	-12.2957
▁ÉPREUVES	-12.2957
▁artisanale	-12.2957
▁suppos	-12.2957
▁palier	-12.2957
Garcia	-12.2957
Morgan	-12.2981
avon	-12.2988
transmission	-12.3041
CAPES	-12.3065
réponse	-12.3067
copie	-12.3068
fonction	-12.3103
▁maxillo	-12.3108
accélér	-12.3108
observatoire	-12.3108
▁Papeete	-12.3108
▁Statut	-12.3108
▁Trouble	-12.3108
▁décompose	-12.3108
▁essences	-12.3108
▁expire	-12.3108
▁optimal	-12.3108
▁protéger	-12.3108
▁préliminaire	-12.3108
▁périphérique	-12.3108
▁regroupé	-12.3108
▁vœux	-12.3108
annuaire	-12.3108
▁Entretien	-12.3108
▁illégal	-12.3108
▁Internet	-12.3108
▁assigné	-12.3108
▁ratification	-12.3108
▁6232-2	-12.3108
▁nantissement	-12.3108
▁Tumeur	-12.3108
▁1424-2	-12.3108
entourage	-12.311
Sofia	-12.3125
Exp	-12.3128
exemption	-12.3131
▁habituel	-12.3187
▁attesté	-12.3187
▁massif	-12.3209
défense	-12.3224
gestion	-12.3226
enregistrer	-12.3251
admissio	-12.3258
ENFiP	-12.3262
Geoffroy	-12.3262
Ophélie	-12.3262
Préalablement	-12.3262
Psoriasis	-12.3262
altération	-12.3262
assignation	-12.3262
inflation	-12.3262
▁Alimentation	-12.3262
▁CAPITALISABLE	-12.3262
▁CONDITION	-12.3262
▁Dispositif	-12.3262
▁diabétique	-12.3262
▁difficile	-12.3262
▁discours	-12.3262
▁glycémique	-12.3262
▁multilatéral	-12.3262
▁nuisances	-12.3262
▁procédant	-12.3262
▁reconversion	-12.3262
▁terdecies	-12.3262
▁formulation	-12.3262
html	-12.3262
alouette	-12.3262
▁prononç	-12.3262
▁fiabilité	-12.3262
▁CERTIFICATION	-12.3262
▁radon	-12.3262
▁géotechnique	-12.3262
▁Collège	-12.3262
▁CNRS	-12.3263
Léger	-12.3267
▁MODIFI	-12.3275
▁ballon	-12.3287
▁EURO	-12.329
▁numéris	-12.3366
numéro	-12.3383
natura	-12.3389
place	-12.3394
▁modifie	-12.3409
▁stipul	-12.3418
▁Préambule	-12.3418
▁Remboursement	-12.3418
▁York	-12.3418
▁algérien	-12.3418
▁cocontractant	-12.3418
▁discussion	-12.3418
▁poursuivra	-12.3418
▁projection	-12.3418
▁supprimer	-12.3418
Honoré	-12.3418
▁atomique	-12.3418
▁senior	-12.3418
▁échangé	-12.3418
00004651089	-12.3418
▁chinois	-12.3418
▁battant	-12.3418
▁réacteurs	-12.3418
▁présélection	-12.3418
▁terminé	-12.3419
▁denrée	-12.3419
▁marié	-12.342
▁traction	-12.342
▁marche	-12.3421
▁similaire	-12.3423
HLM	-12.3431
(1°	-12.348
ça	-12.3503
▁réuniss	-12.3527
▁humain	-12.3542
:	-12.3544
exemple	-12.3544
adopter	-12.3575
Contribuer	-12.3577
Enseignement	-12.3577
INDEMNITÉ	-12.3577
dexaméthasone	-12.3577
élargissement	-12.3577
▁Collaborateur	-12.3577
▁contraventions	-12.3577
▁dactylographié	-12.3577
▁plafonné	-12.3577
▁refroidissement	-12.3577
▁remplissage	-12.3577
▁témoign	-12.3577
▁frigorifique	-12.3577
▁Quatre	-12.3577
▁imputé	-12.3577
▁bruit	-12.3577
▁pouce	-12.3577
▁Copie	-12.3577
Brieuc	-12.3577
▁rénale	-12.3577
Cindy	-12.3577
▁SSR	-12.3578
▁marchandise	-12.3585
COMPTES	-12.3618
Corn	-12.3686
méthyl	-12.3687
ouvrir	-12.37
médecin	-12.3708
Karine	-12.3708
chambres	-12.371
▁rapproch	-12.3712
graphie	-12.3726
▁sceau	-12.3737
Gwena	-12.3738
▁pédicure	-12.3738
▁lympho	-12.3738
COSENTYX	-12.3738
FONTAINE	-12.3738
actualité	-12.3738
▁Calendrier	-12.3738
▁Natixis	-12.3738
▁PRÉALABLES	-12.3738
▁Réglementation	-12.3738
▁Sylvia	-12.3738
▁botanique	-12.3738
▁chrétiens	-12.3738
▁cognitive	-12.3738
▁inclure	-12.3738
▁junior	-12.3738
▁odontologiques	-12.3738
▁tacite	-12.3738
▁volontariat	-12.3738
▁Cherbourg	-12.3738
▁herbeux	-12.3738
economie	-12.3738
▁DSND	-12.3738
Lydie	-12.3738
▁Atelier	-12.3738
▁2020-169	-12.3738
▁Raoul	-12.3738
▁lisible	-12.3739
▁détrui	-12.3739
HOMME	-12.374
▁délivr	-12.3747
▁vacation	-12.3749
PACTE	-12.3838
prescription	-12.3874
▁cibl	-12.3877
ompagnie	-12.3895
▁humide	-12.3902
Entreprise	-12.3902
Madagascar	-12.3902
Marjorie	-12.3902
Philippine	-12.3902
Technique	-12.3902
américain	-12.3902
tezacaftor	-12.3902
▁Concession	-12.3902
▁Reprise	-12.3902
▁Responsable	-12.3902
▁SOCIETE	-12.3902
▁contracté	-12.3902
▁déclassement	-12.3902
▁prérogatives	-12.3902
▁recherché	-12.3902
▁valoriser	-12.3902
▁analogue	-12.3902
▁Respect	-12.3902
▁minoré	-12.3902
▁Avec	-12.3902
▁Kunst	-12.3902
▁encouru	-12.3907
Expertise	-12.3915
ométrie	-12.3921
argumentation	-12.4038
▁Franco	-12.4064
▁concert	-12.4066
upload	-12.4069
Industrie	-12.4069
Mohammed	-12.4069
exacerbation	-12.4069
▁CONSEIL	-12.4069
▁Communication	-12.4069
▁Doivent	-12.4069
▁Fourniture	-12.4069
▁Indications	-12.4069
▁Intérêts	-12.4069
▁Matériel	-12.4069
▁biométhane	-12.4069
▁chômage	-12.4069
▁compartiment	-12.4069
▁conduisent	-12.4069
▁contentieuse	-12.4069
▁doctorant	-12.4069
▁défaillant	-12.4069
▁délinquance	-12.4069
▁hormis	-12.4069
▁hypoglycémiant	-12.4069
▁infantile	-12.4069
▁inhérent	-12.4069
▁labellisation	-12.4069
▁négative	-12.4069
▁peloton	-12.4069
▁posteriori	-12.4069
▁rattrapage	-12.4069
▁remédier	-12.4069
▁synonyme	-12.4069
▁trouvant	-12.4069
▁émoluments	-12.4069
▁brefs	-12.4069
▁gamme	-12.4069
▁posologie	-12.4069
▁comptage	-12.4069
▁décalage	-12.4069
▁tertiaire	-12.4069
Charlène	-12.4069
▁Cognac	-12.4069
▁CROUS	-12.4069
▁thèse	-12.4069
▁opter	-12.4069
Dupont	-12.407
▁Aimé	-12.4075
2-7,	-12.4084
niveau	-12.4111
▁chrono	-12.4154
budgétaires	-12.4186
division	-12.4217
inspectrice	-12.4217
pôle	-12.4225
▁162-34-	-12.4227
▁reconstruct	-12.4232
▁concentr	-12.4238
Bibliothèque	-12.4238
archivage	-12.4238
idrosadénite	-12.4238
échargée	-12.4238
édiathèque	-12.4238
▁CERFA	-12.4238
▁Candidat	-12.4238
▁Délibération	-12.4238
▁Intitulé	-12.4238
▁MERCIER	-12.4238
▁Prestations	-12.4238
▁TOULOUSE	-12.4238
▁Utilisation	-12.4238
▁archéologique	-12.4238
▁démolition	-12.4238
▁juriste	-12.4238
▁législatif	-12.4238
▁mobilières	-12.4238
▁métastatique	-12.4238
▁particularité	-12.4238
▁percepteur	-12.4238
▁péréquation	-12.4238
▁rectrice	-12.4238
▁remarquable	-12.4238
▁singulières	-12.4238
▁téléchargé	-12.4238
▁déployé	-12.4238
▁optimisé	-12.4238
▁éliminé	-12.4238
▁hydrographique	-12.4238
▁Maryse	-12.4238
▁Régime	-12.4238
Belgique	-12.4238
Roxane	-12.4238
Mylène	-12.4238
▁Josette	-12.4238
▁segment	-12.4238
▁bouées	-12.4239
▁tracé	-12.4239
▁HAUTE	-12.4239
▁ménagers	-12.4239
flex	-12.4239
drone	-12.4281
Rayer	-12.4283
▁privilégi	-12.4317
ommant	-12.4325
nématographiques	-12.4351
▁nominal	-12.436
héberge	-12.4406
ersailles	-12.4408
Cameroun	-12.4411
ENSEIGNEMENT	-12.4411
Lefebvre	-12.4411
accumulateurs	-12.4411
extrémité	-12.4411
iabby	-12.4411
indisponibilité	-12.4411
musculation	-12.4411
observateur	-12.4411
observer	-12.4411
▁Alfred	-12.4411
▁Identifier	-12.4411
▁Vendeur	-12.4411
▁aléatoire	-12.4411
▁assermenté	-12.4411
▁côtière	-12.4411
▁distingue	-12.4411
▁déféré	-12.4411
▁frauduleuse	-12.4411
▁halieutique	-12.4411
▁indemnisé	-12.4411
▁navigateur	-12.4411
▁recevable	-12.4411
▁remorqueur	-12.4411
▁touristique	-12.4411
▁treize	-12.4411
▁perpétuel	-12.4411
▁suppurée	-12.4411
Dimitri	-12.4411
▁paraît	-12.4411
▁visibilité	-12.4411
▁échu	-12.4411
▁cumac	-12.4411
▁inapte	-12.4411
agoniste	-12.4411
augmenter	-12.4411
encaissement	-12.4411
acuité	-12.4411
▁répété	-12.4411
▁Complément	-12.4412
▁bleu	-12.4414
▁trace	-12.4416
▁divisé	-12.4417
▁primo	-12.4434
▁ordonné	-12.445
rgin	-12.4459
▁illustr	-12.446
▁rattach	-12.449
▁TARIF	-12.4509
▁6113-	-12.4511
▁mutuel	-12.4527
▁trimestriel	-12.453
occupant	-12.4571
MARTIN	-12.4572
▁CERTIFICAT	-12.4586
Alzheimer	-12.4586
Annabelle	-12.4586
MEDTRONIC	-12.4586
PHILIPPE	-12.4586
RÉPARTITION	-12.4586
altitude	-12.4586
appendice	-12.4586
haltérophilie	-12.4586
influenza	-12.4586
▁Mérignac	-12.4586
▁THÉRAPEUTIQUE	-12.4586
▁contribuable	-12.4586
▁fibros	-12.4586
▁générer	-12.4586
▁magnétique	-12.4586
▁peinture	-12.4586
▁pintade	-12.4586
▁requiert	-12.4586
▁réfractaire	-12.4586
▁télémédecine	-12.4586
éloignement	-12.4586
▁VINCENT	-12.4586
▁bâtonnier	-12.4586
▁pelliculé	-12.4586
▁siècle	-12.4586
▁Quimper	-12.4586
▁fractionnement	-12.4586
▁FINANCI	-12.4586
▁raisonnement	-12.4586
▁Crédit	-12.4586
▁Antenne	-12.4586
▁géologique	-12.4586
Frank	-12.4586
▁6225-1	-12.4586
▁TOTAL	-12.4586
Branche	-12.4587
ÉCOLE	-12.4589
▁quoti	-12.4617
▁scanné	-12.4657
charge	-12.4673
civile	-12.4753
Attention	-12.4765
EXPÉRIMENTATION	-12.4765
Maximilien	-12.4765
Nolwenn	-12.4765
amorçage	-12.4765
hypothèque	-12.4765
inflammatoire	-12.4765
ÉNERGIE	-12.4765
▁Georgette	-12.4765
▁Mamoudzou	-12.4765
▁Ministre	-12.4765
▁Organiser	-12.4765
▁acoustique	-12.4765
▁aquacole	-12.4765
▁catalogue	-12.4765
▁corruption	-12.4765
▁freinage	-12.4765
▁manufacturé	-12.4765
▁pondération	-12.4765
▁reconduction	-12.4765
▁restitué	-12.4765
▁retenir	-12.4765
▁démographiques	-12.4765
▁écosystèmes	-12.4765
▁Villefranche	-12.4765
▁linéaire	-12.4765
▁égaux	-12.4765
▁chute	-12.4765
▁potable	-12.4765
génique	-12.4765
▁balise	-12.4767
▁frappé	-12.477
Olympique	-12.4793
▁Vérifi	-12.4811
DROM	-12.4826
▁neuropsychologi	-12.4863
Patricia	-12.4938
Première	-12.4938
personne	-12.494
▁PRÉSENT	-12.4947
BPJEPS	-12.4947
Guilhem	-12.4947
Pierrick	-12.4947
Yohann	-12.4947
atmosphère	-12.4947
évasion	-12.4947
▁Conduite	-12.4947
▁Healthcare	-12.4947
▁Libellé	-12.4947
▁Restreinte	-12.4947
▁Tarbes	-12.4947
▁complexité	-12.4947
▁différencié	-12.4947
▁légitime	-12.4947
▁patronale	-12.4947
▁préconisations	-12.4947
▁résoudre	-12.4947
▁trésorier	-12.4947
▁volumique	-12.4947
▁Covid	-12.4947
▁cependant	-12.4947
▁chemins	-12.4947
▁décompté	-12.4947
▁31/12/	-12.4947
▁centimes	-12.4947
▁Francine	-12.4947
▁compromettr	-12.4947
▁fausse	-12.4947
▁cadastrale	-12.4947
PÉRIM	-12.4949
▁proroge	-12.495
dorf	-12.4955
▁mathématique	-12.4978
ctionnaires	-12.4997
▁ponctuel	-12.5038
▁polyarthrit	-12.5107
▁maxima	-12.511
http	-12.5126
Béatrice	-12.5126
bulletin	-12.5126
infanterie	-12.5126
▁NOUVELLE	-12.5132
Diplôme	-12.5132
FORMULAIRE	-12.5132
TRIBUTION	-12.5132
aliénation	-12.5132
atterrissage	-12.5132
▁BÉNÉFIC	-12.5132
▁Connexions	-12.5132
▁Période	-12.5132
▁Ségur	-12.5132
▁ambassadrice	-12.5132
▁domicilié	-12.5132
▁déplacer	-12.5132
▁désormais	-12.5132
▁fourragère	-12.5132
▁physicien	-12.5132
▁radiologique	-12.5132
▁régulateur	-12.5132
▁souple	-12.5132
Yasmine	-12.5132
▁BREVET	-12.5132
▁SECTION	-12.5132
▁Fournier	-12.5132
▁Mobile	-12.5132
▁confront	-12.5132
▁5547-3	-12.5132
Marlène	-12.5132
▁labellisé	-12.5132
▁assume	-12.5132
alignement	-12.5132
▁Nicol	-12.5139
Bénin	-12.514
ZZO	-12.5168
fontaine	-12.5196
donnees	-12.5201
▁averti	-12.5204
Born	-12.523
▁group	-12.5262
équation	-12.5311
technicien	-12.5318
physique	-12.5318
énétration	-12.5318
Normandie	-12.5319
Nouvelle	-12.5319
nzième	-12.532
ÉPREUVE	-12.532
▁Collectivité	-12.532
▁réciproque	-12.532
▁étroite	-12.532
Innovation	-12.532
administrer	-12.532
azathioprine	-12.532
humidité	-12.532
récurrente	-12.532
▁160-8	-12.532
▁Dunkerque	-12.532
▁POSTES	-12.532
▁ankylosante	-12.532
▁biologiste	-12.532
▁biomédecine	-12.532
▁brochure	-12.532
▁municipaux	-12.532
▁méningocoque	-12.532
▁palliatifs	-12.532
▁partenarial	-12.532
▁prolonger	-12.532
▁regroupant	-12.532
▁relogement	-12.532
▁DUBOIS	-12.532
▁Facture	-12.532
▁récepteur	-12.532
Mélissa	-12.532
Fontaine	-12.5321
▁orienté	-12.5321
▁nourri	-12.5321
▁maitrise	-12.5321
▁ROUSSEL	-12.5323
▁anticipé	-12.5366
▁strict	-12.54
incorporation	-12.5403
▁Expert	-12.5497
▁investi	-12.5497
remboursable	-12.551
Patrimoine	-12.5513
aumônier	-12.5513
instruire	-12.5513
▁Accueil	-12.5513
▁RECRUTEMENT	-12.5513
▁biosimilaires	-12.5513
▁découlant	-12.5513
▁dépourvue	-12.5513
▁jauge	-12.5513
▁mannequin	-12.5513
▁taxi	-12.5513
Alençon	-12.5513
▁immunosuppress	-12.5513
▁Provision	-12.5513
▁Soutien	-12.5513
▁probabilité	-12.5513
▁Tchad	-12.5513
▁hausse	-12.5513
▁Jeannine	-12.5513
▁thermo	-12.5513
Arabie	-12.5513
écoulement	-12.5513
Certain	-12.5514
attaque	-12.5514
▁découle	-12.5515
officiel	-12.5515
dispositifs	-12.5517
volution	-12.5528
▁plaque	-12.5555
CORPS	-12.5571
▁exploite	-12.5579
▁immédiat	-12.5614
▁suspend	-12.568
Avocat	-12.5709
arpentier	-12.5709
pâtisserie	-12.5709
étanercept	-12.5709
▁CRCDC	-12.5709
▁Duquesne	-12.5709
▁JANVIER	-12.5709
▁alternatif	-12.5709
▁céréales	-12.5709
▁discrétion	-12.5709
▁duplicata	-12.5709
▁déficience	-12.5709
▁lumineux	-12.5709
▁parachutisme	-12.5709
▁piéton	-12.5709
▁pyrotechnique	-12.5709
▁spontané	-12.5709
Ingrid	-12.5709
▁preneur	-12.5709
▁habitable	-12.5709
▁comptant	-12.5709
▁saurait	-12.5709
OUVERT	-12.5711
▁numérotation	-12.5712
obstacle	-12.5715
influe	-12.5879
onférence	-12.5901
▁rembourse	-12.5904
CNFPT	-12.5909
arbitre	-12.5909
infectieux	-12.5909
orthophoniste	-12.5909
téléconsultation	-12.5909
étiquetage	-12.5909
▁Aménagement	-12.5909
▁Constructions	-12.5909
▁DONNÉES	-12.5909
▁IMPRIM	-12.5909
▁Maîtrise	-12.5909
▁Volontaires	-12.5909
▁château	-12.5909
▁citernes	-12.5909
▁coopératif	-12.5909
▁déclinaison	-12.5909
▁délibéré	-12.5909
▁démontage	-12.5909
▁entraîné	-12.5909
▁pauvreté	-12.5909
▁questionnement	-12.5909
▁recouru	-12.5909
▁spécimen	-12.5909
▁tronçon	-12.5909
▁tunnel	-12.5909
▁CGFP	-12.5909
▁journaux	-12.5909
▁revente	-12.5909
▁122-9	-12.5909
androst	-12.5909
▁526-2	-12.5909
paraissent	-12.5909
greffe	-12.5919
préciser	-12.592
▁silenc	-12.5953
▁transfusion	-12.6093
explosif	-12.611
aspect	-12.611
ATTESTATION	-12.6113
Irlande	-12.6113
“	-12.7007
<	-13.7992
