<unk>	0
<s>	0
</s>	0
▁de	-3.02736
'	-3.24898
,	-3.43475
▁l	-3.83978
▁la	-3.87006
▁du	-3.87112
▁	-4.02134
.	-4.09095
▁et	-4.14416
▁des	-4.15584
▁à	-4.27492
▁d	-4.30295
s	-4.31669
▁"	-4.43816
▁les	-4.61025
▁le	-4.64556
."	-4.71236
-	-4.72811
▁au	-4.74939
▁en	-4.81636
▁(	-4.82187
▁:	-4.88656
▁par	-5.05844
)	-5.06499
▁est	-5.09043
▁;	-5.09612
"	-5.19811
▁«	-5.25582
/	-5.25836
—	-5.31663
article	-5.42121
▁ou	-5.42346
▁dans	-5.4626
▁»	-5.5381
▁L	-5.55837
▁pour	-5.59774
▁sont	-5.71782
▁aux	-5.74957
▁2022	-5.81025
e	-5.90759
▁un	-5.93818
▁sur	-6.03588
),	-6.05934
▁M	-6.06826
▁Le	-6.08391
A	-6.09312
▁arrêté	-6.14497
▁1	-6.16679
er	-6.18948
▁ministre	-6.19582
un	-6.21401
▁présent	-6.21855
▁une	-6.24772
▁qui	-6.27984
▁Mme	-6.31524
▁Les	-6.34037
▁code	-6.35117
▁R	-6.39767
une	-6.40468
▁date	-6.4337
▁fr	-6.49181
▁mots	-6.49357
°	-6.49626
▁n	-6.49771
lr	-6.5111
▁"«	-6.54058
▁que	-6.54344
▁ainsi	-6.54651
M	-6.56086
▁portant	-6.65195
▁La	-6.6582
▁dispositions	-6.67136
▁décret	-6.68376
▁A	-6.71788
arrete	-6.73116
▁services	-6.78699
▁alinéa	-6.7888
▁D	-6.81245
▁titre	-6.81681
▁être	-6.83349
▁2	-6.86044
▁française	-6.86451
▁République	-6.87177
▁conditions	-6.87443
▁Arrêté	-6.88695
▁officiel	-6.89238
▁général	-6.89903
▁leur	-6.91459
administration	-6.91769
▁Journal	-6.93995
▁sera	-6.94608
▁avec	-6.94752
▁cas	-6.95483
▁I	-6.9636
▁nationale	-6.97303
▁santé	-6.98919
▁a	-6.99854
a	-6.99865
▁ne	-7.0132
S	-7.01615
▁son	-7.02116
▁ce	-7.024
▁décembre	-7.02427
▁sécurité	-7.02515
es	-7.03653
▁2022,	-7.04885
▁directeur	-7.06128
▁sous	-7.07394
▁même	-7.07648
C	-7.07852
▁compter	-7.0929
▁Au	-7.10319
Mme	-7.10669
▁service	-7.11449
▁générale	-7.11603
Le	-7.12008
▁II	-7.12307
▁pas	-7.13209
▁concours	-7.13268
▁ans	-7.13695
Par	-7.14455
Etat	-7.15223
▁travail	-7.16431
▁publique	-7.16601
▁peut	-7.16659
▁chargé	-7.16918
▁publié	-7.1755
de	-7.1816
arrêté	-7.18382
▁3	-7.19381
).	-7.1939
▁-	-7.21089
▁c	-7.22575
▁4	-7.22825
▁dont	-7.23469
▁formation	-7.2392
▁s	-7.24543
▁susvisé	-7.26384
r	-7.27503
▁C	-7.2769
▁ses	-7.27733
▁professionnelle	-7.28661
▁qu	-7.28667
▁janvier	-7.28864
▁articles	-7.29012
1	-7.30022
▁relatif	-7.30876
▁1°	-7.31886
▁<	-7.33176
>	-7.33376
TABLE	-7.33633
D	-7.33957
▁candidats	-7.34353
▁demande	-7.34377
▁sa	-7.35482
▁5	-7.36002
▁2°	-7.38246
▁société	-7.38526
près	-7.38571
▁durée	-7.39196
▁juillet	-7.39421
2	-7.41584
▁prévues	-7.41657
▁mars	-7.41696
▁sociale	-7.42071
▁B	-7.42154
▁gestion	-7.42826
3	-7.42993
L	-7.4323
▁personnes	-7.43409
cette	-7.43762
▁application	-7.46385
▁liste	-7.46575
▁6	-7.46847
▁national	-7.47437
▁modifié	-7.47861
▁premier	-7.48273
▁fonction	-7.48739
▁ministère	-7.49272
il	-7.49296
c	-7.49308
▁juin	-7.49767
▁il	-7.50708
▁plus	-7.50934
▁remplacés	-7.51675
▁avril	-7.5274
▁justice	-7.52837
▁Il	-7.52948
▁titulaire	-7.53079
▁novembre	-7.53121
▁qualité	-7.53189
B	-7.53525
▁direction	-7.53779
▁ces	-7.54888
ant	-7.55413
▁publics	-7.55428
▁classe	-7.55762
Les	-7.55797
▁chef	-7.55811
é	-7.56069
▁entre	-7.56204
▁candidat	-7.56206
▁Art	-7.56321
▁suivantes	-7.5722
▁Paris	-7.57353
La	-7.57566
▁compte	-7.57663
I	-7.57751
▁mise	-7.58119
▁finances	-7.58245
▁septembre	-7.59005
▁se	-7.59413
▁mai	-7.59513
▁7	-7.59785
exécution	-7.59822
▁octobre	-7.60532
▁2021	-7.60897
▁DE	-7.61492
▁nomination	-7.61748
4	-7.62276
▁CHU	-7.62311
T	-7.62319
▁après	-7.63467
▁février	-7.63667
▁notaire	-7.64083
application	-7.6588
▁dossier	-7.66134
▁convention	-7.66594
5	-7.66614
▁cadre	-7.66823
▁fonctions	-7.66866
ment	-7.67607
b	-7.6886
▁»,	-7.68891
l	-7.69008
▁professionnel	-7.6909
▁conseil	-7.69797
6	-7.69917
▁public	-7.7019
▁8	-7.7036
▁peuvent	-7.70507
▁Marie	-7.71105
▁31	-7.71571
▁tous	-7.71676
▁modalités	-7.71919
▁9	-7.71937
▁30	-7.72505
▁non	-7.7317
7	-7.73419
▁mentionnés	-7.74161
haque	-7.74317
▁mois	-7.74425
▁août	-7.75427
▁deux	-7.75547
9	-7.75867
▁21	-7.75954
année	-7.76009
▁charge	-7.76474
▁III	-7.76618
▁12	-7.7681
et	-7.77225
▁médecine	-7.77423
▁président	-7.77676
▁P	-7.78996
▁moins	-7.79427
d	-7.79466
▁sein	-7.79597
▁10	-7.79729
▁S	-7.799
au	-7.79934
P	-7.8008
établissement	-7.8035
▁électronique	-7.8051
▁montant	-7.80716
inscription	-7.81255
▁membres	-7.81626
▁nombre	-7.8287
▁b	-7.83046
▁délai	-7.83519
▁remplacé	-7.84137
▁mentionnées	-7.84659
nt	-7.84901
en	-7.85268
▁13	-7.8549
221	-7.85555
▁loi	-7.85739
▁14	-7.85871
le	-7.85887
▁3°	-7.85905
8	-7.86038
exercice	-7.86241
▁recherche	-7.86289
▁20	-7.86573
▁centre	-7.86958
▁leurs	-7.87864
▁15	-7.87993
222	-7.88435
0	-7.88609
▁épreuves	-7.88757
E	-7.89011
▁11	-7.89425
n	-7.89557
▁civile	-7.90425
▁22	-7.9066
▁Pour	-7.90965
économie	-7.91027
▁16	-7.91167
▁Un	-7.91386
▁contrôle	-7.91619
▁23	-7.92235
▁commission	-7.92425
▁données	-7.92623
220	-7.93561
▁supérieur	-7.94811
▁corps	-7.959
▁traitement	-7.95912
▁bureau	-7.96636
▁France	-7.96677
▁née	-7.96979
▁17	-7.97143
▁personne	-7.98117
▁établissements	-7.98766
▁œuvre	-7.99242
▁partir	-7.99692
in	-8.00236
▁Conseil	-8.0025
▁prise	-8.0032
selon	-8.00369
▁droit	-8.00529
▁V	-8.00643
y	-8.01195
▁concerne	-8.01256
▁Jean	-8.01767
enseignement	-8.01946
▁voie	-8.02326
▁ci	-8.02576
▁doit	-8.02645
▁soit	-8.02879
▁IV	-8.02978
▁avant	-8.03018
▁période	-8.03448
▁tout	-8.0349
▁N	-8.04296
▁conformément	-8.0442
▁F	-8.04423
▁notamment	-8.04461
▁chargés	-8.04617
se	-8.04877
▁cours	-8.05383
emploi	-8.05749
▁échéant	-8.05799
▁limite	-8.06157
▁comme	-8.06169
▁agents	-8.0635
▁19	-8.06471
▁affaires	-8.06787
▁2023	-8.06905
▁nom	-8.07228
▁résidence	-8.07243
▁mentionné	-8.07636
t	-8.07642
▁25	-8.07675
▁représentant	-8.07741
information	-8.07844
▁situation	-8.08025
est	-8.0835
annexe	-8.08459
▁vigueur	-8.09071
▁garde	-8.0923
▁site	-8.09771
▁réserve	-8.09881
ci	-8.09905
▁En	-8.10151
▁chacun	-8.10292
▁fin	-8.10588
fr	-8.11081
▁tableau	-8.11084
▁membre	-8.1134
▁ligne	-8.1149
objet	-8.11789
▁28	-8.11991
▁mentionnée	-8.1224
▁prévue	-8.12323
▁grade	-8.12483
▁personnel	-8.1273
▁trois	-8.12811
cret	-8.12993
re	-8.13055
G	-8.13179
ation	-8.13876
▁hors	-8.13995
▁décision	-8.14142
▁ayant	-8.14219
▁deuxième	-8.14311
▁applicables	-8.15164
▁règlement	-8.15186
▁Saint	-8.1554
▁social	-8.15787
F	-8.15866
▁été	-8.16379
ou	-8.16781
▁judiciaire	-8.1737
▁lieu	-8.17474
à	-8.17749
▁numérique	-8.17884
En	-8.1794
▁section	-8.1829
accès	-8.1844
R	-8.18601
▁rédigé	-8.18651
▁collective	-8.18676
▁fixant	-8.19201
▁26	-8.19643
mer	-8.19743
N	-8.20209
▁responsabilité	-8.20342
▁relatives	-8.20814
▁comité	-8.20979
▁18	-8.21555
▁nature	-8.22113
▁publiques	-8.22233
épreuve	-8.22243
▁sceaux	-8.22403
▁24	-8.22721
éducation	-8.22724
▁article	-8.22913
▁2020	-8.23065
▁directrice	-8.23418
▁27	-8.24025
accord	-8.24417
▁protection	-8.24575
▁droits	-8.24584
▁certificat	-8.24897
activité	-8.24984
intérieur	-8.25019
▁29	-8.25356
▁recrutement	-8.25972
ensemble	-8.26583
▁tard	-8.26658
▁E	-8.267
▁annexe	-8.2689
évaluation	-8.27163
JUS	-8.27226
▁référence	-8.27288
▁jusqu	-8.27748
▁médical	-8.27822
▁première	-8.27858
▁sans	-8.28059
▁G	-8.2808
▁mission	-8.28164
▁mot	-8.29007
▁niveau	-8.29621
▁Décret	-8.29954
▁relevant	-8.29997
▁actes	-8.30197
environnement	-8.30299
▁ANNEXE	-8.30325
organisation	-8.30784
▁nommée	-8.31109
agriculture	-8.31127
▁médecin	-8.31309
▁heures	-8.31686
223	-8.31698
▁fait	-8.31832
▁nommé	-8.32738
f	-8.32772
état	-8.32842
▁techniques	-8.33055
▁4°	-8.33653
▁opérations	-8.33809
i	-8.33855
▁"1°	-8.33925
▁contrat	-8.34056
▁si	-8.34077
▁produits	-8.34282
▁région	-8.34497
▁autres	-8.34552
▁entreprises	-8.3466
▁partie	-8.3466
▁ressources	-8.34821
▁faire	-8.3483
▁dernier	-8.34991
▁Elle	-8.3521
o	-8.3524
aide	-8.35768
▁présente	-8.36262
▁activités	-8.36471
▁compétences	-8.37062
▁jours	-8.37115
la	-8.37182
▁"2°	-8.37189
▁collectivités	-8.3724
▁T	-8.37244
H	-8.37255
▁“	-8.3748
ent	-8.3818
▁suivant	-8.38779
▁né	-8.38819
▁transition	-8.38827
▁publication	-8.39038
▁défense	-8.39047
▁chapitre	-8.40123
▁tribunal	-8.40435
▁H	-8.40441
▁page	-8.40873
▁mis	-8.41416
eau	-8.41474
▁prévu	-8.41594
▁outre	-8.41751
▁suivante	-8.4188
▁bas	-8.42091
▁informations	-8.42118
▁comptes	-8.42467
▁toute	-8.42772
▁technique	-8.42837
autorité	-8.4303
p	-8.43048
▁également	-8.43296
▁délégué	-8.43416
▁pièces	-8.4353
▁police	-8.43601
▁effet	-8.44388
nd	-8.44435
▁lors	-8.44838
▁accessible	-8.44856
▁travaux	-8.45092
▁doivent	-8.45125
V	-8.4539
▁représentants	-8.45797
▁projet	-8.46003
▁autre	-8.46231
examen	-8.46247
▁fixée	-8.46333
Pour	-8.46353
▁remplacement	-8.47007
▁modifiant	-8.47404
▁poste	-8.4807
▁susvisée	-8.48093
▁retraite	-8.4826
▁souveraineté	-8.48344
▁pris	-8.4836
▁suit	-8.48757
ur	-8.49002
▁texte	-8.49043
▁secrétaire	-8.49796
▁mesures	-8.49861
▁administrative	-8.49964
office	-8.50071
▁adjoint	-8.50137
▁mention	-8.50717
adresse	-8.51136
és	-8.512
▁chargée	-8.51347
▁soins	-8.51759
▁procédure	-8.51922
▁fixé	-8.52243
appel	-8.52316
▁troisième	-8.52416
énergie	-8.52488
▁spécialité	-8.52556
▁compris	-8.5283
▁prend	-8.53069
▁DES	-8.53259
▁écologique	-8.53406
▁suivants	-8.53783
▁jour	-8.54714
▁épou	-8.54965
▁territoriale	-8.55322
▁matière	-8.55429
▁budget	-8.55982
u	-8.55992
▁territoires	-8.56257
▁«-	-8.5669
▁ont	-8.56742
al	-8.56891
ils	-8.57126
▁actions	-8.5719
▁humaines	-8.5774
▁consulter	-8.57784
admission	-8.57816
▁médicale	-8.57843
▁lorsque	-8.57975
▁Dans	-8.58066
▁accord	-8.58121
▁2019	-8.58506
▁LA	-8.58773
extrait	-8.58798
▁postes	-8.58803
▁Cette	-8.58828
▁prévention	-8.58864
Arrêté	-8.58915
▁”	-8.58924
assurance	-8.5899
▁armées	-8.5902
organisme	-8.59021
▁contre	-8.59033
K	-8.59388
▁jury	-8.59389
▁rapport	-8.59468
les	-8.59616
▁industrielle	-8.59666
▁o	-8.59907
ne	-8.60082
▁développement	-8.60283
▁interne	-8.60503
11	-8.60536
▁inter	-8.60625
10	-8.60748
▁fixées	-8.60808
g	-8.61048
▁respect	-8.61048
▁y	-8.6115
▁avis	-8.61161
▁financement	-8.61176
intégralité	-8.61329
▁département	-8.6134
mi	-8.61852
▁associés	-8.62137
▁images	-8.62142
▁personnels	-8.62244
ra	-8.62375
▁internet	-8.62483
▁charges	-8.62488
▁professionnels	-8.62655
▁nécessaires	-8.62742
▁délégation	-8.63582
▁base	-8.63602
▁""	-8.63638
▁pénitentiaire	-8.64082
▁régionale	-8.64126
12	-8.64493
▁place	-8.64682
Vous	-8.64887
▁documents	-8.6499
▁pouvez	-8.65047
▁organismes	-8.65344
▁suivi	-8.6555
IN	-8.65629
▁phrase	-8.65646
entreprise	-8.65659
▁authentifié	-8.65847
▁donnée	-8.65982
ée	-8.65985
▁responsable	-8.65998
▁définies	-8.66124
▁ministériels	-8.66217
officiers	-8.66476
▁permettant	-8.67265
▁ré	-8.67404
▁Après	-8.6755
30	-8.67588
▁réception	-8.67661
▁plusieurs	-8.687
▁missions	-8.68816
▁part	-8.6887
▁cabinet	-8.68937
▁gaz	-8.69359
Pierre	-8.69921
▁relative	-8.6993
insertion	-8.70015
▁attributions	-8.70043
▁remplacée	-8.70058
▁pêche	-8.70144
on	-8.70154
▁préfet	-8.70184
▁décisions	-8.70196
▁règles	-8.70304
effet	-8.7035
▁DU	-8.70504
▁disposition	-8.70568
ouverture	-8.70703
▁modifiée	-8.70942
autorisation	-8.70991
▁champ	-8.71139
▁pendant	-8.71172
▁six	-8.71303
▁salariés	-8.71322
▁Ce	-8.71348
Il	-8.71376
13	-8.71495
▁limitée	-8.715
▁transports	-8.71566
▁cet	-8.71719
▁maladie	-8.72155
▁5°	-8.72189
▁production	-8.7245
action	-8.72753
UE	-8.72847
▁faisant	-8.73225
▁supérieure	-8.73458
-1	-8.73557
m	-8.7422
après	-8.74276
▁vice	-8.74357
▁toutes	-8.74377
▁Nige	-8.74711
▁principal	-8.75004
O	-8.75291
▁vote	-8.75715
▁complété	-8.75812
▁Pierre	-8.75885
▁territoire	-8.76187
▁livre	-8.76428
Au	-8.76506
ordre	-8.76534
is	-8.76695
▁000	-8.76805
▁ET	-8.76877
▁inscriptions	-8.76998
h	-8.77029
15	-8.77511
▁diplôme	-8.77541
▁zone	-8.77709
▁lui	-8.77814
▁plan	-8.78481
▁insérés	-8.78534
▁exercer	-8.78684
Assistance	-8.79381
▁colonne	-8.79658
▁titulaires	-8.79703
▁inséré	-8.79712
exploitation	-8.79812
▁prendre	-8.79835
▁emplois	-8.79846
14	-8.80041
▁gendarmerie	-8.80059
ot	-8.80552
▁modification	-8.80668
▁risques	-8.80688
▁temps	-8.80766
or	-8.80781
Institut	-8.808
Sont	-8.80935
▁paiement	-8.811
▁emploi	-8.81184
ine	-8.81206
▁centrale	-8.81458
aux	-8.81787
▁salariée	-8.81852
▁m	-8.82108
v	-8.82963
Agence	-8.83163
▁signer	-8.83238
▁étrangères	-8.83602
▁supprimés	-8.83625
▁handicap	-8.83671
▁dépenses	-8.83814
▁afin	-8.83927
▁transport	-8.83959
▁re	-8.84042
▁système	-8.84379
▁éléments	-8.84709
20	-8.84856
▁laquelle	-8.84963
ch	-8.84965
▁établissement	-8.85013
▁programme	-8.85308
▁celles	-8.85328
▁établi	-8.85552
te	-8.85674
▁territoriales	-8.85688
▁patients	-8.8593
▁régional	-8.86114
▁maritime	-8.86301
▁adjointe	-8.8657
▁rédaction	-8.86779
▁libéral	-8.87028
▁siège	-8.87158
▁cohésion	-8.87177
▁prestations	-8.87214
-2	-8.87298
gouv	-8.8763
Z	-8.87967
▁LE	-8.88137
▁commissaire	-8.88345
▁relatifs	-8.88374
ol	-8.88475
▁conclu	-8.88546
▁moyen	-8.88655
▁économique	-8.88855
▁spécialités	-8.88903
▁douanes	-8.89188
▁p	-8.89392
▁De	-8.89513
absence	-8.89593
z	-8.89754
avenant	-8.8978
▁cheffe	-8.89856
▁tant	-8.89978
16	-8.90043
▁avoir	-8.90327
▁bis	-8.90522
▁celle	-8.90775
aptitude	-8.9079
ont	-8.90854
▁Centre	-8.90872
ées	-8.90964
▁sens	-8.91269
▁K	-8.91287
▁communes	-8.9132
x	-8.91428
France	-8.9144
▁comptable	-8.91547
di	-8.91856
▁jeunesse	-8.91868
▁frais	-8.9197
▁surveillance	-8.91992
▁vue	-8.92024
us	-8.92125
▁dispositif	-8.9259
▁elle	-8.92728
▁réalisation	-8.92752
▁création	-8.9307
32	-8.93199
▁taux	-8.93284
▁associé	-8.93352
aviation	-8.93387
inspection	-8.93519
RE	-8.93636
Y	-8.93639
age	-8.9384
▁figurant	-8.93885
▁cahier	-8.93914
▁Ces	-8.93929
▁forme	-8.93941
expérimentation	-8.93994
1-1	-8.94344
18	-8.94355
▁type	-8.94489
▁systèmes	-8.94621
▁européenne	-8.94654
24	-8.94684
25	-8.94923
31	-8.9505
ac	-8.95139
▁Nouvelle	-8.95196
19	-8.95764
elle	-8.95817
▁communication	-8.9587
▁abrogé	-8.96137
▁secteur	-8.96263
▁euros	-8.96303
▁2.	-8.96606
ir	-8.96607
▁commerce	-8.96611
▁culture	-8.96705
▁celui	-8.9711
▁cinq	-8.97237
21	-8.97267
ie	-8.97386
▁1.	-8.97503
▁fonctionnement	-8.97987
▁"3°	-8.98273
▁nommés	-8.98407
▁européen	-8.98434
▁français	-8.98563
▁solidarités	-8.98571
exception	-8.98821
▁point	-8.98904
Jean	-8.98908
▁document	-8.98998
▁2016	-8.99204
://	-8.99295
el	-8.99407
MTR	-8.9947
▁relance	-8.99494
U	-8.99495
▁conseiller	-8.99943
▁prévus	-8.99985
aménagement	-9.0014
II	-9.00164
▁déclaration	-9.00332
J	-9.00453
▁dépôt	-9.00563
▁secrétariat	-9.00711
▁domaine	-9.00735
▁foi	-9.00761
it	-9.00793
Marie	-9.00903
▁note	-9.01143
▁seront	-9.01217
▁cour	-9.01263
▁unique	-9.01384
▁catégorie	-9.01575
an	-9.01607
▁numéro	-9.01662
▁recours	-9.02001
▁2023,	-9.02276
23	-9.02461
▁régime	-9.02466
▁administratif	-9.02628
22	-9.02673
▁Commission	-9.02715
35	-9.02821
▁mesure	-9.02836
▁études	-9.03072
▁obligatoires	-9.03214
▁VI	-9.03268
▁mer	-9.03274
▁compétente	-9.034
ul	-9.03497
▁6°	-9.03602
▁second	-9.03839
17	-9.03845
▁caractère	-9.03923
▁0	-9.04058
▁patient	-9.04286
▁défaut	-9.04335
Union	-9.04492
▁activité	-9.04493
É	-9.04509
▁32	-9.04591
hôpitaux	-9.04622
chef	-9.04627
▁paragraphe	-9.04634
▁2017	-9.04676
▁structure	-9.04713
▁2018	-9.04794
▁33	-9.04976
▁externe	-9.05044
▁recettes	-9.05166
▁in	-9.05455
usage	-9.05484
▁fonctionnaires	-9.05497
▁office	-9.05837
▁physique	-9.06003
33	-9.06161
▁certification	-9.06271
▁examens	-9.06502
▁réseau	-9.06531
▁admis	-9.06543
▁administratives	-9.06627
alimentation	-9.06669
▁Par	-9.0707
ité	-9.07349
Dans	-9.07383
26	-9.07421
▁concernant	-9.07522
▁applicable	-9.07849
▁précise	-9.07911
▁eaux	-9.08094
utilisation	-9.08227
▁alinéas	-9.08512
▁restant	-9.08557
ér	-9.08716
▁profession	-9.08777
▁an	-9.08859
▁concernés	-9.08976
▁f	-9.08986
▁chambre	-9.09286
▁juge	-9.09315
▁aides	-9.09379
exclusion	-9.09617
▁2006	-9.09708
▁groupement	-9.09894
01	-9.09979
▁minutes	-9.10234
▁suppléant	-9.10336
▁h	-9.10457
ré	-9.10535
ES	-9.10612
▁sociales	-9.10629
▁candidature	-9.10638
entrée	-9.10644
ar	-9.10725
▁état	-9.10747
▁territorial	-9.10812
▁quatre	-9.10873
ique	-9.10986
(	-9.11041
50	-9.11093
▁correspondant	-9.11238
▁logement	-9.11255
55	-9.1141
40	-9.11596
▁Lorsque	-9.11748
▁2022.	-9.11793
que	-9.11912
▁total	-9.12273
▁agréé	-9.12312
origine	-9.12322
am	-9.12556
EN	-9.12625
▁Si	-9.12721
ard	-9.12728
▁chez	-9.129
▁moyens	-9.12968
▁"«-	-9.13151
27	-9.13515
opération	-9.13575
▁Président	-9.13594
52	-9.13953
lo	-9.13964
▁dernière	-9.13986
▁marché	-9.14116
extension	-9.14234
▁inscription	-9.14322
43	-9.14346
▁rémunération	-9.14382
Calédonie	-9.1439
▁sanctions	-9.14637
34	-9.14681
▁rue	-9.14918
▁fonds	-9.15084
du	-9.15137
▁dossiers	-9.15213
Europe	-9.15309
intérêt	-9.15331
▁comprend	-9.15355
▁équipements	-9.15416
▁transmission	-9.15526
▁Lyon	-9.15696
▁particulier	-9.15714
▁effets	-9.15912
28	-9.16007
▁Première	-9.16034
▁Article	-9.16049
02	-9.16197
▁rang	-9.16324
3-1	-9.16385
36	-9.16466
▁administrateur	-9.1655
▁employeurs	-9.16592
51	-9.16894
▁commune	-9.16953
▁année	-9.16971
60	-9.17017
57	-9.1739
▁aérienne	-9.17458
▁administratifs	-9.17624
art	-9.1792
▁principale	-9.17977
▁résultats	-9.18431
▁3.	-9.18615
k	-9.18673
41	-9.1871
accueil	-9.18723
▁proposition	-9.18777
▁relations	-9.18864
44	-9.18889
45	-9.18991
▁normale	-9.19047
▁sanitaire	-9.19054
▁Ier	-9.1908
▁W	-9.19087
im	-9.19411
agrément	-9.19621
▁Toulouse	-9.19824
▁délais	-9.19913
▁session	-9.20124
▁vie	-9.20283
29	-9.2034
avis	-9.20356
▁notaires	-9.20402
ET	-9.20537
▁obligations	-9.20603
▁Etat	-9.20756
▁Cour	-9.20829
▁maximum	-9.20933
▁politique	-9.21154
▁lorsqu	-9.21371
▁temporaire	-9.21394
dessous	-9.21429
at	-9.21455
unité	-9.21474
▁renouvellement	-9.21703
▁cachet	-9.21722
▁Polynésie	-9.21966
▁ceux	-9.21983
Ecole	-9.22031
ri	-9.22082
▁avenant	-9.22363
▁orale	-9.2237
urgence	-9.2281
▁postale	-9.22922
▁pénitentiaires	-9.22927
▁g	-9.2301
▁minimum	-9.23047
▁statut	-9.23075
▁centres	-9.23115
▁financier	-9.23156
69	-9.23259
▁installations	-9.23603
47	-9.23748
▁groupe	-9.23843
mettre	-9.23861
▁dérogation	-9.23884
2-2	-9.23939
▁dé	-9.23964
▁plein	-9.23977
▁ingénieur	-9.23988
▁Michel	-9.24109
61	-9.24157
70	-9.24178
▁François	-9.24222
▁paritaire	-9.2424
▁tenu	-9.24304
▁O	-9.24311
▁consommation	-9.2435
▁demandes	-9.24513
lle	-9.24795
77	-9.24893
▁Sont	-9.24932
té	-9.25019
▁procédures	-9.25034
46	-9.25066
42	-9.251
▁rubrique	-9.25109
identification	-9.25133
▁sociaux	-9.25135
▁militaire	-9.25273
53	-9.25348
05	-9.25373
agent	-9.25607
▁sport	-9.25757
dessus	-9.25799
62	-9.25838
▁clôture	-9.26009
président	-9.26215
▁locaux	-9.26377
▁valeur	-9.26386
79	-9.26552
▁simplifiée	-9.26599
38	-9.26787
▁adresse	-9.26811
▁défini	-9.27012
▁agricole	-9.2706
90	-9.27114
▁transmis	-9.27129
68	-9.27129
▁biens	-9.27164
58	-9.27188
▁références	-9.27198
54	-9.27259
▁parcours	-9.27266
▁Anne	-9.27491
ro	-9.27826
37	-9.27872
48	-9.28
▁permettre	-9.28017
autre	-9.28103
▁lesquelles	-9.28312
▁égal	-9.28456
▁déroulement	-9.28509
▁écrite	-9.28515
89	-9.28607
▁_	-9.2869
ma	-9.2884
4-1	-9.28886
04	-9.29061
Délégation	-9.29246
▁crédits	-9.29301
56	-9.2936
admissibilité	-9.29442
)"	-9.29455
▁Des	-9.29463
section	-9.29864
65	-9.29902
▁courir	-9.29915
▁signature	-9.29974
39	-9.30109
autres	-9.30203
93	-9.30208
direction	-9.3033
▁Comité	-9.30435
▁calcul	-9.30492
aud	-9.30714
être	-9.30732
▁Gouvernement	-9.3074
▁Partie	-9.30812
▁délivrance	-9.31049
81	-9.31102
▁points	-9.31321
▁dispose	-9.31351
▁composition	-9.31512
OU	-9.31673
▁épreuve	-9.31729
75	-9.31755
issue	-9.31823
▁examen	-9.31852
▁construction	-9.31941
00	-9.31988
▁connaissance	-9.32363
▁nouvelle	-9.32394
80	-9.32435
▁extension	-9.32477
49	-9.32515
me	-9.32555
▁exerçant	-9.32603
espace	-9.32647
ON	-9.32669
▁départemental	-9.32701
▁désignés	-9.32808
2-1	-9.32958
▁coopération	-9.33006
88	-9.33012
06	-9.33092
▁courrier	-9.3329
▁retrait	-9.33399
08	-9.33548
▁mandat	-9.33569
ordonnance	-9.33626
▁désigné	-9.33695
▁années	-9.33715
▁position	-9.33742
▁2023.	-9.33743
▁Philippe	-9.33764
▁scientifique	-9.33898
▁34	-9.34044
84	-9.34227
▁marchés	-9.34278
▁nécessaire	-9.34299
▁organisations	-9.34558
▁navigation	-9.34661
▁complémentaire	-9.34709
exploitant	-9.34797
▁hospitalière	-9.34858
▁devra	-9.34937
▁raison	-9.35032
5-1	-9.35124
76	-9.35156
▁choix	-9.35383
ut	-9.35449
▁attachée	-9.3547
▁offerts	-9.35495
elles	-9.35502
59	-9.35525
▁adjudant	-9.35544
engagement	-9.35731
▁rendues	-9.35736
▁cadres	-9.35866
▁naturel	-9.35958
87	-9.35989
07	-9.36064
67	-9.36109
▁risque	-9.36174
▁parties	-9.36176
alinéa	-9.36191
▁quatrième	-9.3621
▁agent	-9.3625
▁2015	-9.36271
▁produit	-9.36329
▁résultant	-9.36354
▁prix	-9.36354
RI	-9.36399
▁stipulations	-9.36517
▁capacité	-9.36587
▁2007	-9.36747
▁lien	-9.36817
▁J	-9.36992
▁volume	-9.37003
▁valoir	-9.37171
EL	-9.372
03	-9.37267
SPR	-9.37278
92	-9.37316
aire	-9.37574
▁Sous	-9.37609
▁devront	-9.37829
▁compétence	-9.37833
▁bénéficier	-9.37889
▁admission	-9.37923
▁2011	-9.37947
▁exigences	-9.38001
▁font	-9.38241
installation	-9.38319
▁pôle	-9.38329
▁telle	-9.38526
71	-9.38652
▁manière	-9.38658
▁concerné	-9.38733
78	-9.38753
▁pourront	-9.3896
▁autorités	-9.38992
▁35	-9.39002
um	-9.39066
▁projets	-9.39067
/20	-9.39174
09	-9.39335
63	-9.39526
▁pré	-9.39574
▁fois	-9.39594
▁prises	-9.3963
intervention	-9.39645
▁heure	-9.39657
▁modèle	-9.39662
▁sûreté	-9.39662
▁début	-9.39911
66	-9.40361
▁justificatives	-9.40411
▁séance	-9.40463
▁conduite	-9.40528
▁2014	-9.40636
▁7°	-9.40724
▁ledit	-9.40827
▁déchets	-9.41016
enfant	-9.41018
▁Bordeaux	-9.41101
▁Wallis	-9.41101
étranger	-9.41191
▁départementale	-9.41244
▁exceptionnelle	-9.41551
▁40	-9.416
entretien	-9.42308
▁autorisée	-9.4239
ion	-9.4252
▁validation	-9.42562
▁36	-9.42805
▁Premier	-9.42875
▁femmes	-9.42884
▁performance	-9.42896
▁contrats	-9.42905
▁port	-9.42952
agence	-9.42954
▁visioconférence	-9.42995
▁coûts	-9.43033
▁41	-9.43075
91	-9.43311
▁formulaire	-9.43338
▁soumis	-9.43432
sur	-9.43441
▁lieutenant	-9.43468
74	-9.43545
▁Cedex	-9.43606
▁(1)	-9.44001
▁fixe	-9.44378
▁procureur	-9.44477
instruction	-9.4455
▁moment	-9.44838
III	-9.44846
▁autorisation	-9.44909
accompagnement	-9.44918
▁militaires	-9.45022
▁comporte	-9.45033
86	-9.45101
▁division	-9.45195
-3	-9.45224
CE	-9.45254
tion	-9.45287
▁médicaments	-9.45316
www	-9.45449
▁terme	-9.45484
▁transformation	-9.45638
▁permet	-9.4564
▁co	-9.4585
▁réglementation	-9.45906
colonel	-9.45967
85	-9.46059
▁étendu	-9.46115
▁"4°	-9.46186
▁tiers	-9.46279
outre	-9.46505
▁pharmaceutiques	-9.46506
analyse	-9.46559
ab	-9.46648
▁salarié	-9.46748
▁conseillère	-9.46804
82	-9.46821
▁alimentaire	-9.47029
▁transfert	-9.4712
▁regard	-9.47166
▁gestionnaire	-9.47224
▁périmètre	-9.47257
▁financière	-9.47302
▁garantie	-9.47595
obligation	-9.47747
ME	-9.47871
offre	-9.48162
▁critères	-9.48259
▁copie	-9.48459
attribution	-9.48517
▁acquis	-9.48621
▁budgétaire	-9.48693
▁aménagements	-9.48705
▁hospitalier	-9.48809
▁chacune	-9.48968
▁bâtiment	-9.48977
▁reconnaissance	-9.48996
▁Réunion	-9.48996
▁cycle	-9.48996
▁énergétique	-9.4918
études	-9.49184
83	-9.49415
▁1989	-9.49497
▁présentation	-9.49669
64	-9.49692
IS	-9.49754
▁promotion	-9.49829
▁Rennes	-9.49852
AL	-9.49935
▁notification	-9.50109
4.	-9.50147
▁Est	-9.50154
▁annexé	-9.50216
▁con	-9.50262
égard	-9.50298
▁1990	-9.50434
▁autorisant	-9.50483
▁Parlement	-9.50488
▁titres	-9.50525
▁Marseille	-9.506
IER	-9.50625
94	-9.50662
▁attaché	-9.50713
1-2	-9.50809
th	-9.50995
▁inférieur	-9.51078
tte	-9.51082
▁collège	-9.51141
▁vente	-9.5134
▁désignation	-9.51519
213	-9.51521
▁métiers	-9.51564
▁Paul	-9.51957
▁soutien	-9.51979
▁arrêtés	-9.52033
▁objectifs	-9.52161
▁créé	-9.52239
▁André	-9.52275
▁suite	-9.52281
W	-9.52308
▁dès	-9.52331
72	-9.52372
▁enfants	-9.52374
▁remboursement	-9.52377
▁Lille	-9.5255
expérience	-9.52597
▁50	-9.52616
▁délivré	-9.52911
▁certain	-9.53071
indemnité	-9.53084
ti	-9.53137
ay	-9.53367
avancement	-9.53422
▁définie	-9.53424
▁stage	-9.53586
▁commandant	-9.5372
▁bilan	-9.5372
▁définis	-9.5374
ance	-9.53753
▁répartition	-9.53819
▁Re	-9.53916
▁bien	-9.54018
eur	-9.54184
▁économiques	-9.54208
▁63	-9.5421
▁préparation	-9.54302
▁coefficient	-9.54325
TRE	-9.54367
▁commun	-9.54368
▁versement	-9.54553
François	-9.54769
▁dix	-9.55026
IV	-9.55041
po	-9.55082
▁bénéficiaires	-9.5528
▁sports	-9.5528
▁ajouté	-9.55533
▁1986	-9.55539
association	-9.55553
LE	-9.55797
assurer	-9.55838
▁comportant	-9.55872
AN	-9.55947
▁supprimé	-9.55979
▁tel	-9.56031
▁civil	-9.5607
▁maître	-9.56076
/2022-12-2	-9.561
AU	-9.56192
Conformément	-9.56367
▁entretien	-9.56448
▁SA	-9.56646
▁rédigée	-9.56721
▁besoins	-9.56772
ER	-9.56867
▁vol	-9.56909
▁conventions	-9.56965
▁dispositifs	-9.57062
▁Ma	-9.57079
96	-9.57087
▁conformité	-9.57106
▁2013	-9.57167
▁accès	-9.57197
▁inférieure	-9.57232
▁durable	-9.57415
▁physiques	-9.57459
▁Du	-9.5746
▁véhicules	-9.57584
▁ministres	-9.57587
3-2	-9.57626
▁demandeur	-9.57647
-10	-9.57674
▁technicien	-9.5777
73	-9.5777
inscrire	-9.57779
autonomie	-9.5797
▁Louis	-9.57988
▁départements	-9.57996
97	-9.58054
▁patrimoine	-9.58069
▁44	-9.58154
▁bénéficiaire	-9.58273
▁précédent	-9.58462
▁présenter	-9.58477
▁chirurgie	-9.58587
ECO	-9.58621
▁questions	-9.5886
▁places	-9.58997
▁distribution	-9.59087
présidente	-9.59232
▁pratiques	-9.59241
▁ni	-9.59304
▁maritimes	-9.5936
ag	-9.59373
lé	-9.59564
▁collectivité	-9.59616
▁local	-9.5965
électricité	-9.59703
▁discipline	-9.5972
▁association	-9.59816
▁propre	-9.59826
▁commissions	-9.59912
▁lesquels	-9.60009
appliquent	-9.60048
▁1988	-9.60051
▁civils	-9.60556
▁académique	-9.6063
▁compétent	-9.60826
▁2008	-9.60877
Rhône	-9.60922
▁coordination	-9.61153
99	-9.61188
▁détachement	-9.61254
▁annexes	-9.61287
Autorité	-9.61347
▁préalable	-9.61353
▁bénéfice	-9.61358
▁pouvant	-9.61358
intéressé	-9.61376
▁43	-9.61529
ARD	-9.61573
▁2012	-9.61629
▁concession	-9.6167
▁noms	-9.61754
âge	-9.6178
▁engagements	-9.6185
▁ouvert	-9.61917
indication	-9.61985
air	-9.6206
▁pratique	-9.62074
▁51	-9.62138
applique	-9.62262
CH	-9.6229
▁fixés	-9.62352
▁37	-9.62503
▁circulation	-9.62513
▁déléguée	-9.62627
isation	-9.62665
j	-9.62683
adaptation	-9.6279
engage	-9.62928
OT	-9.62995
▁liées	-9.63099
▁îles	-9.63149
X	-9.632
▁scrutin	-9.63256
▁met	-9.63306
AS	-9.63329
▁rural	-9.63351
▁cause	-9.63363
ologie	-9.63443
98	-9.63551
▁égale	-9.63564
▁catégories	-9.63566
▁annuel	-9.63588
▁visées	-9.63951
▁support	-9.63953
▁individuel	-9.63975
▁généraux	-9.64004
▁Mayotte	-9.64111
▁remplacées	-9.64164
▁condition	-9.64191
▁EN	-9.6421
va	-9.64237
AT	-9.64312
▁lequel	-9.64327
7.	-9.64601
95	-9.64699
▁financières	-9.64704
▁ministériel	-9.64802
expertise	-9.6481
▁réglementaires	-9.64848
innovation	-9.65082
▁université	-9.65165
caractéristiques	-9.65191
▁fins	-9.65193
équipe	-9.65214
ad	-9.65359
▁lettre	-9.65405
ANT	-9.65417
▁assure	-9.6542
able	-9.65425
directeur	-9.65805
▁Futuna	-9.65819
▁officiers	-9.65891
▁spécifiques	-9.65896
▁comptables	-9.65929
ry	-9.65963
attestation	-9.66025
our	-9.66031
▁faveur	-9.66062
▁réalisé	-9.66142
enregistrement	-9.66168
▁capitaine	-9.66172
▁présidente	-9.66173
▁4.	-9.66206
▁devant	-9.66262
▁domicile	-9.66281
▁informe	-9.66333
puis	-9.66359
▁https	-9.66363
▁complémentaires	-9.66554
▁nouveau	-9.66708
▁organisme	-9.66718
▁porte	-9.66735
UR	-9.66976
▁détenues	-9.6702
▁42	-9.67048
▁Toute	-9.67111
▁traitements	-9.67132
ic	-9.67171
▁formations	-9.6732
▁major	-9.67503
▁AU	-9.67552
appui	-9.676
▁papier	-9.67607
▁sauf	-9.67734
▁Tout	-9.67879
des	-9.68204
▁inscrits	-9.68206
▁maîtrise	-9.68207
▁réalisée	-9.68238
▁pénale	-9.68387
na	-9.6845
bi	-9.68451
-19	-9.68455
▁simple	-9.68612
▁précisant	-9.68616
ire	-9.68637
▁réaliser	-9.68668
ia	-9.68739
▁liés	-9.68807
▁brevet	-9.68837
▁nucléaire	-9.68872
emplois	-9.68903
id	-9.68973
▁congé	-9.6899
▁initiale	-9.69064
heure	-9.69135
ier	-9.69239
▁vers	-9.69326
▁lignes	-9.6933
cu	-9.69652
▁refus	-9.69814
▁médecins	-9.69876
▁susceptibles	-9.69963
▁www	-9.69982
▁impôts	-9.70095
Alpes	-9.7012
▁associée	-9.70142
▁concernées	-9.70151
che	-9.70179
▁marine	-9.70203
mb	-9.70206
▁sciences	-9.70226
UT	-9.70234
égalité	-9.70277
RA	-9.70302
professionnel	-9.70327
▁1984	-9.70357
▁participation	-9.70366
▁vingt	-9.70574
to	-9.706
▁certificats	-9.7068
▁financiers	-9.70707
▁Aux	-9.70729
▁maintien	-9.70747
▁branche	-9.70769
▁Martinique	-9.71002
▁langue	-9.71064
▁médicaux	-9.7146
▁format	-9.7152
▁pharmacien	-9.71565
lu	-9.71576
▁inspecteur	-9.71663
DE	-9.71665
▁connaissances	-9.71674
tique	-9.71742
▁demander	-9.71982
▁fiche	-9.72003
▁Cité	-9.72058
▁indiquée	-9.72096
▁universitaire	-9.72106
ge	-9.72192
habitation	-9.72408
▁honoraire	-9.72474
▁respectivement	-9.72513
▁préfecture	-9.72622
▁vendredi	-9.72622
▁38	-9.72732
▁tarifs	-9.72773
6-1	-9.7292
2-4	-9.7297
▁géographique	-9.72993
UC	-9.73023
▁décrets	-9.73027
▁ouverts	-9.73037
▁Jacques	-9.73067
OR	-9.73083
▁VII	-9.73163
▁politiques	-9.73189
▁Sud	-9.73284
▁responsables	-9.73289
▁2010	-9.73337
▁unités	-9.73378
encadrement	-9.73455
▁conforme	-9.73475
▁seule	-9.7368
▁autorisé	-9.7378
▁qualification	-9.73782
▁crédit	-9.73867
abilité	-9.73911
▁8°	-9.73973
▁lutte	-9.73986
▁Caisse	-9.74037
▁établie	-9.74076
▁2024	-9.7424
IT	-9.74339
▁besoin	-9.74383
▁référentiel	-9.74384
envoi	-9.74393
▁programmes	-9.74503
▁négociation	-9.7451
ement	-9.74587
AC	-9.74638
▁Sa	-9.74677
▁contrôles	-9.74696
▁Société	-9.74748
▁haut	-9.74782
▁propriété	-9.74868
▁espace	-9.74927
▁écrit	-9.74941
▁autorisées	-9.74988
▁signé	-9.75025
ale	-9.75084
Après	-9.75087
os	-9.75091
▁phase	-9.7511
▁professeur	-9.75127
lin	-9.75176
▁75	-9.75185
▁Con	-9.752
ence	-9.75281
▁familles	-9.75565
3-3	-9.75762
▁pédagogique	-9.75963
op	-9.75966
acquisition	-9.7597
co	-9.76026
▁organisation	-9.76221
be	-9.76256
ce	-9.76286
ère	-9.76465
▁préinscription	-9.76493
▁matériels	-9.76502
▁pourra	-9.76524
▁procéder	-9.76556
▁individuelle	-9.76563
▁Claude	-9.76637
▁administratrice	-9.76799
▁informatique	-9.76941
▁validité	-9.77043
▁maximale	-9.77072
ey	-9.771
▁réalisées	-9.77239
iques	-9.77301
▁prêt	-9.77303
▁figurent	-9.77438
▁Loire	-9.77456
▁http	-9.77561
con	-9.77596
▁façon	-9.77656
▁adressée	-9.77749
▁zones	-9.77793
2-6	-9.77795
▁spécial	-9.78072
as	-9.78093
Est	-9.78301
▁Z	-9.78314
▁pouvoir	-9.78317
▁consultative	-9.78318
ez	-9.78358
▁2021,	-9.78364
▁Guyane	-9.78377
▁changement	-9.7845
▁option	-9.78466
▁entreprise	-9.7853
▁contrôleur	-9.7872
li	-9.78836
▁61	-9.7905
▁fonctionnaire	-9.7909
▁Sur	-9.7912
▁certaines	-9.79231
ct	-9.79308
Si	-9.79309
adulte	-9.79368
ca	-9.79456
▁concernée	-9.79604
▁montants	-9.79691
ois	-9.79732
expiration	-9.79768
▁convocation	-9.79768
▁sociétés	-9.79785
▁affectés	-9.79799
▁milieu	-9.7988
▁spécifique	-9.79916
ter	-9.80373
Lorsque	-9.8039
▁considérée	-9.80408
▁registre	-9.80472
▁Nicolas	-9.80494
▁directement	-9.8055
concours	-9.80637
Un	-9.80645
▁moyenne	-9.80647
▁pro	-9.80733
▁forêts	-9.80737
▁Section	-9.80846
▁Haute	-9.80925
▁devient	-9.81084
▁45	-9.81104
iv	-9.8111
▁listes	-9.81211
▁2005	-9.81223
▁usage	-9.81233
▁thérapeutique	-9.81243
▁intérieure	-9.81319
tra	-9.81347
▁objet	-9.81403
▁candidates	-9.81419
▁réponse	-9.81653
▁navires	-9.81756
ex	-9.81818
▁taxe	-9.81893
▁périodes	-9.81915
▁tome	-9.82184
par	-9.822
▁1987	-9.82232
▁rédigés	-9.82485
▁totale	-9.82517
obtention	-9.82569
investissement	-9.82674
▁permis	-9.82691
▁ajoutés	-9.82744
▁requises	-9.82757
▁pharmacie	-9.8279
IE	-9.82796
▁véhicule	-9.82805
ina	-9.82975
industrie	-9.83062
▁travailleurs	-9.83074
▁Strasbourg	-9.83086
▁stratégie	-9.83087
▁Bernard	-9.83108
min	-9.83232
Philippe	-9.8325
Martin	-9.83252
▁effectuée	-9.83257
évolution	-9.83262
▁consultation	-9.83331
▁transmet	-9.83394
vi	-9.83559
ins	-9.83617
▁caisse	-9.83727
ig	-9.83734
/2022-07-2	-9.83738
▁Montpellier	-9.83738
ville	-9.8382
▁médico	-9.83868
/2022-04-2	-9.83909
▁assurer	-9.83934
▁Cha	-9.84146
SE	-9.84168
TE	-9.84219
▁seconde	-9.84291
▁différents	-9.84325
1-4	-9.84365
ron	-9.84367
▁présence	-9.84393
ph	-9.84415
exercer	-9.84469
▁près	-9.84529
ix	-9.84614
bo	-9.84704
apprentissage	-9.85053
▁Autres	-9.85054
▁particulières	-9.85089
▁statuts	-9.85116
▁interrégionale	-9.85171
Université	-9.85255
Loire	-9.85476
▁Olivier	-9.85476
▁obligatoire	-9.85497
▁précité	-9.85513
dé	-9.85539
gissant	-9.8559
▁indirects	-9.85638
armée	-9.85693
hi	-9.85694
ap	-9.85706
▁voix	-9.85718
▁Parties	-9.85864
▁élèves	-9.85876
▁contractuel	-9.85893
▁remboursables	-9.85985
▁universités	-9.86018
▁autorisations	-9.8604
▁Chevalier	-9.86251
▁ex	-9.86507
▁rend	-9.86515
JORF	-9.8652
▁mobilité	-9.86546
▁structures	-9.86558
▁Isabelle	-9.86565
animation	-9.86625
w	-9.86643
▁suivent	-9.86654
▁secours	-9.86654
▁pièce	-9.86682
▁100	-9.86804
▁t	-9.86836
▁constituée	-9.86839
▁syndicales	-9.86866
▁Grand	-9.87037
▁locale	-9.87127
▁2,	-9.87131
▁usagers	-9.87199
ha	-9.87342
▁réseaux	-9.87359
▁scolaire	-9.87504
▁notarial	-9.876
▁54	-9.87661
5.	-9.87671
SA	-9.87695
▁comprenant	-9.87735
▁cessation	-9.87739
▁ingénieurs	-9.87815
VI	-9.87821
1-3	-9.87899
do	-9.87902
▁1991	-9.87933
▁attestation	-9.87933
▁intérieur	-9.87942
hospitalisation	-9.88016
ais	-9.88041
État	-9.88144
▁télé	-9.8822
Miquelon	-9.88281
réanimation	-9.88421
▁générales	-9.88462
▁détenue	-9.88512
▁psychiatrie	-9.88765
ing	-9.88815
▁professeurs	-9.88828
▁ressort	-9.88828
▁réalisés	-9.88831
port	-9.88862
▁détention	-9.88969
▁situations	-9.88993
▁53	-9.89076
IOM	-9.89209
▁suppléants	-9.89244
2.	-9.89246
8.	-9.89357
ver	-9.89375
▁inclus	-9.89448
▁pilotage	-9.89519
and	-9.89619
2-3	-9.89723
Paul	-9.89808
▁divers	-9.89834
▁surface	-9.899
▁accordée	-9.89943
ables	-9.90084
▁interrégional	-9.90099
▁modifications	-9.90103
▁Se	-9.90109
ib	-9.90184
▁situé	-9.90217
-4	-9.90248
▁Nord	-9.903
▁nationalité	-9.90343
▁maintenance	-9.90353
mo	-9.90468
Nicolas	-9.90666
/2022-02-1	-9.90772
▁médicament	-9.90849
▁Marc	-9.90862
▁carte	-9.90866
▁Co	-9.90912
▁"5°	-9.9093
affectation	-9.90951
Marne	-9.90982
▁prime	-9.91003
▁annuelle	-9.91004
▁prescription	-9.9101
OL	-9.91123
ly	-9.91158
1-5	-9.91196
▁limites	-9.91232
▁46	-9.91284
▁ponts	-9.91332
▁régionales	-9.91364
▁agréés	-9.91414
▁cinquième	-9.91441
▁peines	-9.91511
▁Laurent	-9.91555
▁alors	-9.91617
▁renseignements	-9.91671
▁tarif	-9.91845
ront	-9.91885
▁(1	-9.91955
▁supprimée	-9.91958
LA	-9.92078
▁ma	-9.92141
val	-9.92152
identité	-9.92247
ta	-9.9225
tre	-9.92266
▁contractuels	-9.92307
pa	-9.92311
▁Nantes	-9.92335
▁crise	-9.92436
▁termes	-9.92438
▁ouvrant	-9.92468
rie	-9.92574
▁dénommé	-9.92743
▁chiffre	-9.9285
IL	-9.92984
▁courriel	-9.93
allocation	-9.9304
aires	-9.93177
▁conservation	-9.93186
▁autorisés	-9.93203
▁elles	-9.93264
▁protégé	-9.93315
▁bord	-9.93339
▁adultes	-9.93355
▁2009	-9.93367
▁distance	-9.93471
▁procès	-9.93471
ru	-9.93696
cr	-9.93697
eux	-9.93717
▁directeurs	-9.93763
▁délivrée	-9.93858
▁associations	-9.93885
▁exercées	-9.93996
académie	-9.94025
▁tribunaux	-9.94035
mar	-9.94057
▁83	-9.94072
▁contenu	-9.94121
▁veille	-9.94132
onfédération	-9.94194
▁Ile	-9.94227
▁remise	-9.94337
▁transmettre	-9.94349
Anne	-9.9459
▁Tribuna	-9.9463
▁inspectrice	-9.94637
▁visée	-9.94831
ba	-9.94949
NE	-9.94966
▁Mo	-9.95075
▁exerce	-9.95131
mé	-9.95168
io	-9.95204
▁reste	-9.95266
▁Bou	-9.95321
▁équivalent	-9.95415
urs	-9.95421
▁indications	-9.95459
▁Lorsqu	-9.95537
IR	-9.95537
▁bonne	-9.95544
▁5.	-9.95672
AR	-9.95753
/2022-1	-9.95776
▁grande	-9.95845
▁Mar	-9.96065
▁suppléante	-9.96075
Christophe	-9.96084
▁semaines	-9.96101
▁Christophe	-9.9611
AUD	-9.96141
▁conjoint	-9.96161
▁magistrats	-9.96356
▁handicapées	-9.96436
▁information	-9.96588
opérateur	-9.96687
/2022-03-1	-9.9669
▁Joseph	-9.96705
ure	-9.96719
em	-9.9682
3-4	-9.96888
▁Aucun	-9.96906
▁Ga	-9.96983
AY	-9.97181
▁agricoles	-9.9725
préfet	-9.97295
ign	-9.97372
▁expérience	-9.97387
▁vérification	-9.97408
▁lieux	-9.97493
▁droite	-9.977
ATION	-9.97736
▁diplômes	-9.97753
▁fournir	-9.97902
objectif	-9.98058
▁nécessite	-9.983
▁nationaux	-9.9834
▁plateforme	-9.98384
▁voies	-9.98425
go	-9.98434
/2022-03-0	-9.98491
▁gauche	-9.98491
▁continue	-9.98549
▁définition	-9.98571
RO	-9.98587
▁navire	-9.98691
st	-9.98886
dûment	-9.98902
▁collecte	-9.98947
▁résultat	-9.98999
hébergement	-9.99102
▁Epreuve	-9.9918
▁probatoire	-9.99251
▁disponibles	-9.99324
▁salaires	-9.99399
gu	-9.99426
TI	-9.99446
pi	-9.99457
da	-9.99505
7-1	-9.9952
▁Val	-9.99764
habitat	-9.99843
▁lycée	-9.99863
ang	-10
assemblée	-10.0004
”	-10.0008
▁(2)	-10.0009
ouvrage	-10.0015
▁X	-10.0015
interministériel	-10.0016
▁matériel	-10.0018
▁fond	-10.003
▁interdite	-10.0031
▁recommandé	-10.0036
▁39	-10.0044
NA	-10.0049
▁correspond	-10.0054
▁classement	-10.0055
armement	-10.0057
étude	-10.0061
▁placée	-10.0066
▁Henri	-10.007
employeur	-10.007
▁rendu	-10.007
▁enveloppe	-10.0074
▁sécurisé	-10.0088
▁mais	-10.0089
▁Dominique	-10.0091
▁déjà	-10.0094
▁quinze	-10.0094
▁commissaires	-10.0097
▁j	-10.0106
▁obtenu	-10.0113
▁Antoine	-10.0116
pe	-10.012
▁organisé	-10.013
sse	-10.0131
.1.	-10.0132
▁pays	-10.0143
om	-10.0144
▁placé	-10.0145
▁vu	-10.0145
▁terre	-10.0148
GE	-10.015
▁somme	-10.0153
fin	-10.0154
▁9°	-10.0174
▁spéciale	-10.0189
intitulé	-10.0213
▁régulation	-10.0219
Rhin	-10.022
Michel	-10.0229
Décret	-10.0229
▁enseignants	-10.0233
▁agrément	-10.0234
▁préjudice	-10.0235
▁cession	-10.0238
.2.	-10.0251
/2022-10-2	-10.0257
▁visés	-10.0262
Marc	-10.0265
▁justifiant	-10.0266
SI	-10.0267
0-1	-10.0268
▁"1.	-10.0268
élection	-10.027
▁Alain	-10.0275
pompiers	-10.0281
Louis	-10.0288
▁Commandant	-10.0289
/2022-10-1	-10.0312
trent	-10.0313
▁comités	-10.0316
▁préalablement	-10.0321
▁Nancy	-10.0326
▁Vi	-10.0329
CA	-10.0336
▁anti	-10.0341
▁Ch	-10.0342
▁Institut	-10.0343
▁conduire	-10.0346
▁métropole	-10.0346
2-8	-10.0352
ton	-10.0354
▁garanties	-10.0354
▁contentieux	-10.0362
no	-10.0362
Guillaume	-10.0374
vis	-10.0374
▁autorité	-10.0375
3.	-10.0388
.3.	-10.0394
▁opérationnelle	-10.0399
▁privé	-10.0402
▁puis	-10.0406
▁possible	-10.0406
ah	-10.0412
▁internationale	-10.0418
▁1983	-10.0447
environnementale	-10.0449
6.	-10.0451
▁Bo	-10.0451
▁clinique	-10.0455
▁disciplinaire	-10.0457
▁Sophie	-10.0465
▁protocole	-10.0474
▁sélection	-10.0475
activités	-10.0476
if	-10.048
▁bon	-10.0493
eu	-10.0499
▁U	-10.0499
UN	-10.05
habilitation	-10.0503
▁proximité	-10.0506
rou	-10.0508
CO	-10.0511
▁sites	-10.0514
/2022-12-1	-10.0519
euse	-10.0522
▁trente	-10.0523
EC	-10.0531
▁hôpitaux	-10.0541
▁industries	-10.0541
/2022-05-1	-10.0556
▁élus	-10.0556
AND	-10.0561
▁lundi	-10.0572
▁observations	-10.0588
▁groupements	-10.0589
▁route	-10.0603
honneur	-10.0604
▁64	-10.0607
▁hommes	-10.0607
▁écrites	-10.0608
TA	-10.0616
▁versée	-10.0618
▁instances	-10.0619
▁NOTAIRES	-10.0621
assure	-10.0626
▁sportives	-10.0642
▁ordre	-10.0642
▁unité	-10.0643
▁No	-10.0651
▁dénomination	-10.0653
Antoine	-10.0654
▁62	-10.0655
▁spécialisée	-10.0656
ill	-10.066
▁organisateur	-10.0662
▁Car	-10.0663
▁sapeurs	-10.0669
▁infrastructures	-10.0671
up	-10.0674
▁justifier	-10.0675
▁composé	-10.0678
▁jeudi	-10.0686
▁Notaires	-10.0693
▁consul	-10.0699
▁éligibles	-10.0703
1-6	-10.0704
Thomas	-10.0705
major	-10.0705
▁radiation	-10.0719
▁complément	-10.0734
▁respecter	-10.0742
acte	-10.0747
▁diagnostic	-10.0747
▁Catherine	-10.0759
▁différentes	-10.076
ub	-10.0765
▁compétentes	-10.0774
▁ville	-10.0779
Accè	-10.0785
▁collectif	-10.0786
tier	-10.0787
▁visant	-10.0788
▁sol	-10.0798
▁ancienne	-10.0808
▁COUR	-10.0812
▁participer	-10.0819
▁offertes	-10.082
▁soient	-10.0835
▁procédé	-10.0852
INT	-10.0855
▁Jo	-10.0859
▁permanente	-10.0861
orientation	-10.0866
urbanisme	-10.0868
/2022-12-0	-10.0871
▁1985	-10.0874
Ma	-10.0883
▁techniciens	-10.0886
▁étudiants	-10.0887
_	-10.0897
▁fonctionnelle	-10.0899
intégration	-10.09
▁chaleur	-10.0902
▁connaître	-10.0903
▁ajoutée	-10.0903
▁sportif	-10.0906
Baptiste	-10.0919
▁bénéficiant	-10.0919
▁durant	-10.0921
▁famille	-10.0922
▁types	-10.0929
tri	-10.0932
▁saisie	-10.0934
qu	-10.0935
▁Fédération	-10.0942
MA	-10.0945
▁"2.	-10.0946
▁affectation	-10.0948
▁biologie	-10.0953
▁juridique	-10.0956
ette	-10.0966
▁60	-10.0967
▁É	-10.0972
▁forfaitaire	-10.0989
▁Mont	-10.0994
ve	-10.0998
▁aide	-10.1
▁active	-10.1002
▁renouvelable	-10.1003
▁magistrat	-10.1007
▁dérogations	-10.1009
▁Ecole	-10.1011
▁évaluation	-10.1016
ive	-10.1027
▁seules	-10.1032
▁Chapitre	-10.1037
ARM	-10.1038
▁central	-10.1043
▁BOU	-10.1048
▁précisées	-10.1053
9.	-10.106
▁duquel	-10.1072
▁bénéficient	-10.1074
▁musée	-10.1077
▁établit	-10.1083
▁conseils	-10.1089
▁secret	-10.1091
▁Chef	-10.1098
Alexandre	-10.1099
vant	-10.1109
▁possibilité	-10.1111
▁uniquement	-10.112
▁ministères	-10.1125
Saint	-10.1134
▁licence	-10.1146
imp	-10.1148
▁derniers	-10.1149
▁opération	-10.1149
dit	-10.1151
émission	-10.1154
▁valeurs	-10.1155
ari	-10.1155
▁sixième	-10.1158
▁habilités	-10.1161
PE	-10.1167
Ce	-10.1171
▁grossesse	-10.1175
▁Robert	-10.1182
▁"(	-10.1183
ue	-10.1187
▁seul	-10.1195
oc	-10.1196
▁divisionnaire	-10.121
occasion	-10.1223
CHE	-10.1241
▁Guadeloupe	-10.1243
▁présentant	-10.1243
▁prescriptions	-10.1251
▁statistique	-10.1252
oy	-10.126
▁judiciaires	-10.1261
▁version	-10.1266
▁anesthésie	-10.127
▁réunion	-10.127
▁produire	-10.1279
appellation	-10.1279
▁Charles	-10.1283
▁obligatoirement	-10.1285
▁régionaux	-10.1288
/2022-06-1	-10.1292
▁nationales	-10.1295
▁assurés	-10.1303
/2022-03-2	-10.1314
impossibilité	-10.1314
▁solidarité	-10.1323
▁praticien	-10.1324
res	-10.1328
▁Frédéric	-10.133
▁Ro	-10.1337
▁figure	-10.134
▁facturation	-10.1349
▁disponible	-10.1358
▁Etats	-10.1359
eurs	-10.1371
LI	-10.1373
▁aéronefs	-10.1375
▁aérien	-10.1389
▁dotation	-10.1412
Denis	-10.1418
MO	-10.1419
▁baccalauréat	-10.142
▁Concours	-10.143
ille	-10.1443
▁voté	-10.1448
▁morale	-10.1452
▁coût	-10.1455
▁définitive	-10.147
▁aucun	-10.1471
▁Toutefois	-10.1472
ect	-10.1488
▁Stéphane	-10.1513
▁séjour	-10.1527
▁v	-10.1529
▁aéronautique	-10.1532
▁réduction	-10.1538
▁procède	-10.1541
ingénieur	-10.1541
▁minuit	-10.1544
UL	-10.1547
▁MA	-10.1548
▁inscrit	-10.1561
▁suspension	-10.1562
▁compatibles	-10.1579
-1.	-10.1584
▁internes	-10.1591
▁Pascal	-10.1592
▁sportive	-10.1594
▁3,	-10.1598
assistance	-10.1599
▁écoles	-10.1605
▁René	-10.1609
...)	-10.1609
▁détermine	-10.1612
▁disponibilité	-10.1616
▁acteurs	-10.162
▁RE	-10.1621
▁effectuer	-10.1623
ENT	-10.1629
▁CO	-10.1635
man	-10.1636
▁72	-10.1636
▁utilisés	-10.1638
▁tenir	-10.1653
▁accompagné	-10.1653
▁affecté	-10.1667
▁accompagnée	-10.1675
EAE	-10.1675
▁sommes	-10.1679
▁assistant	-10.1684
▁90	-10.1689
▁stockage	-10.169
AIS	-10.169
agit	-10.1694
iste	-10.1699
▁concurrence	-10.1725
AGRT	-10.1727
▁définit	-10.1728
▁commande	-10.1745
US	-10.1745
▁prestataire	-10.1759
▁adressé	-10.176
ST	-10.176
chi	-10.1766
▁taxes	-10.1767
avances	-10.1768
Julien	-10.1769
amélioration	-10.177
lon	-10.1779
▁acceptée	-10.178
SC	-10.178
onne	-10.18
▁commandement	-10.1803
Seine	-10.1804
▁assurée	-10.1817
▁excéder	-10.1817
mm	-10.182
▁identifiée	-10.1822
▁VIII	-10.1826
▁méthode	-10.1833
▁ter	-10.1838
int	-10.1841
voir	-10.1842
▁effectué	-10.1853
▁profit	-10.1854
▁mines	-10.1857
▁libre	-10.1868
▁relève	-10.1869
verbal	-10.1873
IC	-10.1887
Camille	-10.1898
▁tels	-10.1899
bert	-10.1901
▁analyse	-10.1909
▁répertoire	-10.191
▁intitulée	-10.1913
▁Ca	-10.1913
▁individuels	-10.1915
▁Université	-10.1919
▁Marcel	-10.192
▁producteurs	-10.1924
▁59	-10.1928
▁capital	-10.1928
/2022-02-0	-10.1947
▁normales	-10.1955
équipement	-10.1965
▁effectués	-10.1968
he	-10.1974
▁colonel	-10.1984
▁paritaires	-10.199
▁désigne	-10.1996
architecture	-10.1997
ien	-10.1998
▁locales	-10.2015
▁disciplines	-10.2018
▁substances	-10.202
Office	-10.2032
affaires	-10.2044
▁Guillaume	-10.2045
▁conception	-10.2053
▁démission	-10.2054
ali	-10.2058
▁probation	-10.206
▁subvention	-10.206
▁immédiatement	-10.2061
uc	-10.2064
ga	-10.2065
Sophie	-10.207
/2022-11-0	-10.2095
▁mandataire	-10.2112
/2022-07-0	-10.2117
/2022-08-1	-10.2117
▁Georges	-10.2117
AP	-10.2122
▁vérifier	-10.2124
ative	-10.2126
achat	-10.2134
audit	-10.2135
Cette	-10.2138
▁antérieure	-10.2142
▁Nathalie	-10.2144
1.	-10.2147
▁52	-10.215
▁considéré	-10.2158
agents	-10.2161
▁dite	-10.2167
▁admise	-10.2174
▁Rouen	-10.2176
▁chambres	-10.2179
▁indemnités	-10.2187
inspecteur	-10.2187
az	-10.219
▁départ	-10.2193
▁sévère	-10.2193
▁puissance	-10.2193
▁international	-10.2193
▁Vincent	-10.2194
▁aucune	-10.2198
▁complétée	-10.2199
lan	-10.2205
RES	-10.2226
ait	-10.2226
/2022-07-1	-10.2231
▁Y	-10.2245
incendie	-10.225
▁concourir	-10.2251
▁compensation	-10.2251
▁El	-10.2252
▁réglementaire	-10.2253
▁filière	-10.2273
ux	-10.2276
▁constitué	-10.2282
SS	-10.2288
▁grand	-10.2291
▁placement	-10.2292
école	-10.2293
▁directive	-10.231
EP	-10.2312
▁déroule	-10.2321
▁administrateurs	-10.2326
tin	-10.2328
arrêt	-10.2337
▁sanction	-10.2339
Olivier	-10.2343
▁visite	-10.2352
▁CA	-10.2352
ens	-10.2356
▁matériaux	-10.2367
▁administrations	-10.2373
▁métropolitaine	-10.2378
ingénieurs	-10.2387
▁domaines	-10.2388
▁prestation	-10.2391
▁cotisations	-10.2392
▁adjoints	-10.2397
/2022-06-2	-10.2398
▁statutaires	-10.24
▁Dijon	-10.2406
▁Cet	-10.2407
▁juridiction	-10.241
8-1	-10.2418
▁In	-10.2424
▁vertu	-10.2426
ner	-10.2429
-1640	-10.2432
/2022-04-0	-10.2436
▁Françoise	-10.2441
mont	-10.2445
élaboration	-10.2445
▁délibération	-10.245
tu	-10.2457
indemnisation	-10.2464
VA	-10.2468
__	-10.2477
▁preuve	-10.2484
▁susmentionné	-10.2486
▁huit	-10.2488
▁73	-10.2492
▁long	-10.2492
▁capacités	-10.2507
▁visé	-10.2517
▁6.	-10.252
PP	-10.2522
/2022-08-0	-10.2524
université	-10.2543
▁obtenir	-10.2545
▁"6°	-10.2546
▁ANNEXES	-10.255
ze	-10.2552
▁propres	-10.2559
▁Ar	-10.2562
RMH	-10.2564
▁accessibles	-10.2569
QUE	-10.257
pt	-10.2571
▁effectuées	-10.2576
▁sections	-10.2578
▁Grenoble	-10.2583
▁SE	-10.2586
▁exceptionnel	-10.2598
▁Patrick	-10.2601
▁pourvoir	-10.2603
▁i	-10.2604
ger	-10.2617
▁principaux	-10.2623
▁routière	-10.2623
opposition	-10.2623
▁placés	-10.2632
fa	-10.2633
▁radié	-10.264
▁BAR	-10.2644
4-2	-10.2646
▁mode	-10.2651
▁contribution	-10.2652
▁2000	-10.2652
ud	-10.2661
▁Guy	-10.2665
▁haute	-10.2674
▁Julien	-10.2681
infrastructure	-10.2681
▁quater	-10.2683
PH	-10.2695
EAU	-10.2714
▁synthèse	-10.2723
LIN	-10.273
4-3	-10.2737
▁contribuant	-10.2744
ris	-10.2747
▁organisée	-10.2748
▁bâtiments	-10.2749
▁Daniel	-10.2749
▁ordonnance	-10.2749
▁Corse	-10.2754
ck	-10.276
▁abrogés	-10.2767
iz	-10.277
/2022-01-2	-10.2772
▁Valérie	-10.2777
▁principes	-10.2781
▁cent	-10.2783
▁internationales	-10.2784
▁portail	-10.2791
CI	-10.2793
od	-10.2798
▁appel	-10.2808
▁recteur	-10.2809
▁Clermont	-10.2825
▁2004	-10.2828
vers	-10.2828
▁requis	-10.283
/2022-10-0	-10.2831
▁mètres	-10.2841
▁indemnité	-10.2843
ardi	-10.2851
▁espèces	-10.2867
▁effectifs	-10.2867
actions	-10.2873
▁victimes	-10.2873
vé	-10.2874
▁mal	-10.2876
ort	-10.288
▁aménagement	-10.288
▁Christian	-10.2883
▁populaire	-10.2886
▁LES	-10.2888
▁naturelle	-10.2889
▁maire	-10.2896
gra	-10.2913
▁aériens	-10.2916
▁diverses	-10.292
▁imprimé	-10.2924
▁protégée	-10.2929
PR	-10.2929
▁70	-10.2929
BERT	-10.2935
ques	-10.2936
Claire	-10.2938
▁perte	-10.2941
▁renseignement	-10.2944
Haute	-10.2949
2-5	-10.296
▁exploitation	-10.2964
PRM	-10.2965
IX	-10.2967
Algérie	-10.2969
▁rouge	-10.2969
▁tenant	-10.2969
▁56	-10.2969
APPEL	-10.2969
▁MAR	-10.2973
▁associées	-10.2974
EU	-10.2975
ten	-10.298
â	-10.2989
za	-10.2989
▁appartenant	-10.2992
▁minima	-10.2999
22-1	-10.3001
▁orales	-10.3002
▁recommandée	-10.3006
▁liaison	-10.301
▁Hélène	-10.3015
7°	-10.3023
tes	-10.3029
aquaculture	-10.3031
▁ferroviaire	-10.3031
▁fixation	-10.3031
élève	-10.3032
▁donc	-10.3036
▁Tours	-10.3036
▁tenue	-10.3051
▁retour	-10.3057
▁institué	-10.3058
▁congés	-10.3066
▁Eric	-10.3066
▁normes	-10.3068
qui	-10.3072
/2022-04-1	-10.308
▁10°	-10.3081
EUR	-10.3087
-1,	-10.3087
DI	-10.3093
▁décrites	-10.3096
lot	-10.3099
▁contrôlée	-10.31
aérodrome	-10.3112
RY	-10.3117
don	-10.3125
▁47	-10.3133
▁mon	-10.3133
▁Thierry	-10.3133
aff	-10.3139
▁séances	-10.3146
▁déconcentrés	-10.3148
BO	-10.315
▁participant	-10.3151
▁peine	-10.3151
▁hiérarchique	-10.3156
▁adaptations	-10.3161
nelle	-10.3162
éco	-10.317
▁Yves	-10.3171
3-5	-10.3173
▁espaces	-10.3184
Etienne	-10.3189
Laurent	-10.3193
▁composer	-10.3195
▁David	-10.3195
▁stagiaires	-10.3198
Vice	-10.3201
▁globale	-10.3205
2022	-10.3207
▁ouverture	-10.3209
▁supplémentaire	-10.3215
mat	-10.3217
huissier	-10.3217
ière	-10.3219
▁dématérialisée	-10.3219
▁intervenant	-10.3222
▁candidatures	-10.3222
hé	-10.3224
ret	-10.3232
▁volontaires	-10.3241
▁occupant	-10.3241
▁issus	-10.3244
Côte	-10.325
▁nouvelles	-10.326
▁règlements	-10.3261
▁contact	-10.3263
▁Jeanne	-10.3272
▁faits	-10.328
▁via	-10.3283
pé	-10.3284
rin	-10.3289
ô	-10.3297
/2022-02-2	-10.3305
▁croissance	-10.3305
-17	-10.3308
delà	-10.3308
eaux	-10.3312
Val	-10.3313
▁Per	-10.3316
▁acte	-10.3317
ayant	-10.3319
ai	-10.3322
▁laboratoire	-10.3323
▁donne	-10.3326
mment	-10.3327
▁contributions	-10.3339
▁démarche	-10.3345
▁garantissant	-10.3348
▁500	-10.335
▁contraire	-10.335
ka	-10.3355
▁71	-10.3356
▁résid	-10.3365
▁existant	-10.337
▁thérapeutiques	-10.3377
▁groupes	-10.338
▁minimale	-10.3381
euros	-10.3384
option	-10.3385
sy	-10.3389
▁consiste	-10.3391
INE	-10.3394
fi	-10.34
▁opérateurs	-10.341
per	-10.3412
▁coordonnées	-10.3414
11-3	-10.3423
▁éligible	-10.3432
▁échelon	-10.3449
impôt	-10.3454
▁BO	-10.3454
▁campagne	-10.3456
▁CON	-10.3461
▁spécialisé	-10.3463
▁calculé	-10.3471
hospice	-10.3478
échéance	-10.3478
▁valorisation	-10.3478
▁Poitiers	-10.3478
▁répondre	-10.3479
▁Alexandre	-10.3487
so	-10.3488
itu	-10.3491
TION	-10.3499
efficacité	-10.3499
▁législation	-10.3499
ID	-10.3519
▁Maurice	-10.3523
INS	-10.3528
▁contractuelle	-10.3539
bar	-10.3541
▁tient	-10.3544
▁sortie	-10.3546
ff	-10.3551
GER	-10.3553
▁précitée	-10.3555
EZ	-10.356
▁guerre	-10.3565
▁logistique	-10.3565
ines	-10.3567
▁PAR	-10.3567
▁Ba	-10.357
oul	-10.357
ateur	-10.3578
ELLE	-10.3579
▁représentation	-10.3587
ui	-10.3593
ESR	-10.3594
ÉS	-10.3609
▁biodiversité	-10.3609
▁stagiaire	-10.361
ran	-10.361
▁qualifications	-10.3612
▁POUR	-10.3613
▁salaire	-10.3613
tz	-10.3615
nes	-10.3624
mon	-10.3625
▁pédiatrie	-10.3631
▁présentée	-10.3633
▁mg	-10.364
anc	-10.3649
Vincent	-10.3652
▁naissance	-10.3653
▁Fa	-10.3654
EX	-10.3664
▁reprise	-10.3665
né	-10.3668
isse	-10.3669
▁inscrites	-10.367
▁disposant	-10.3675
▁Reims	-10.3675
▁ouvriers	-10.3676
née	-10.3682
▁suivie	-10.3684
▁Bar	-10.3686
▁choisie	-10.3692
▁valable	-10.3693
▁prévoit	-10.3698
1-7	-10.3703
ler	-10.371
teur	-10.3713
▁Bruno	-10.3715
▁avenue	-10.372
▁SI	-10.3726
nel	-10.3731
▁ouvrages	-10.3746
▁ingénieure	-10.3751
ANS	-10.3752
étudiant	-10.376
groupe	-10.3765
▁Pro	-10.3766
▁degré	-10.3782
effectuer	-10.3783
très	-10.3787
amende	-10.3788
▁matières	-10.3792
ages	-10.3798
▁Modalités	-10.381
oux	-10.3811
▁déclarations	-10.3813
▁fer	-10.3814
ord	-10.3814
EY	-10.3815
issement	-10.383
ni	-10.383
Ferrand	-10.3834
▁portée	-10.384
IOMA	-10.3847
▁fera	-10.3856
▁éventuellement	-10.3857
Frédéric	-10.3857
▁propositions	-10.3861
▁professions	-10.3861
ach	-10.3869
▁relevé	-10.3877
▁greffe	-10.3885
/2022-11-2	-10.3886
▁aussi	-10.3887
Juge	-10.3888
Luc	-10.3889
rait	-10.3891
éli	-10.3892
▁vérifications	-10.3895
▁fondement	-10.3901
▁norme	-10.3905
apprécier	-10.3907
▁morales	-10.3911
▁étant	-10.3911
erie	-10.3915
▁maladies	-10.3916
▁représentatives	-10.3916
▁2025	-10.3917
▁bassin	-10.3924
asile	-10.3924
inter	-10.3926
De	-10.3927
▁client	-10.3927
▁exposé	-10.3928
▁déclarés	-10.3938
▁logements	-10.394
Ile	-10.3942
▁contexte	-10.3946
▁agréées	-10.3947
▁garantir	-10.3947
▁entraîne	-10.3948
▁relèvent	-10.395
▁actifs	-10.3951
▁hospitaliers	-10.3952
▁versées	-10.3956
1-8	-10.397
▁Qu	-10.3972
▁partiel	-10.399
Amiens	-10.3992
votre	-10.3993
▁CHA	-10.3998
▁PER	-10.4
▁demandé	-10.4003
venant	-10.4014
▁employés	-10.4015
Barthélemy	-10.4037
▁Brest	-10.4037
▁issue	-10.4046
▁situés	-10.4048
▁seuil	-10.4048
▁diffusion	-10.4053
pro	-10.4053
▁choisi	-10.4089
▁Po	-10.4097
cadre	-10.4108
▁justificatifs	-10.4111
▁adaptée	-10.4111
▁forêt	-10.4114
▁test	-10.4122
tel	-10.4127
▁destination	-10.413
▁modifier	-10.4131
▁constitue	-10.4137
ite	-10.4138
▁brut	-10.4139
FR	-10.4139
avant	-10.4143
▁médicales	-10.4145
▁55	-10.4146
▁territoriaux	-10.4153
Vilaine	-10.4153
▁action	-10.4153
ed	-10.4156
▁Christine	-10.4158
Claude	-10.4161
▁états	-10.4169
▁effective	-10.4172
LAN	-10.4173
cher	-10.4183
AG	-10.4183
▁régimes	-10.4192
▁auquel	-10.42
▁attachés	-10.4203
gi	-10.421
enquête	-10.4211
▁PA	-10.4215
MER	-10.4222
Azur	-10.4223
gré	-10.4224
▁dépôts	-10.4226
approbation	-10.4232
▁numériques	-10.4237
ient	-10.4238
▁annexée	-10.4243
▁Bour	-10.4249
▁totalité	-10.4251
TO	-10.4252
accréditation	-10.427
▁mutation	-10.427
▁reçu	-10.427
▁méthodes	-10.4273
▁Dé	-10.4274
▁destinés	-10.4279
▁Nice	-10.4294
Tout	-10.43
let	-10.4302
assuré	-10.4304
▁Ben	-10.4308
▁participe	-10.4312
▁assistante	-10.4316
OIS	-10.4328
▁r	-10.4331
ise	-10.4332
▁propose	-10.4339
administrateur	-10.4341
magistrature	-10.4352
▁remis	-10.4354
▁Constitution	-10.4365
▁schéma	-10.4365
▁partenaires	-10.438
nier	-10.4382
SSA	-10.4383
sta	-10.4384
▁Seine	-10.4384
▁pédagogiques	-10.4386
▁douze	-10.4388
▁dénommée	-10.439
éta	-10.4396
▁attribuée	-10.4399
▁tour	-10.4405
BA	-10.4405
Ille	-10.441
▁(3)	-10.4413
▁Luc	-10.4419
/2022-09-0	-10.4428
▁jugement	-10.443
▁recherches	-10.4431
▁nécessité	-10.4436
▁indicateurs	-10.4437
▁bénéficie	-10.4439
▁supports	-10.4443
évaluer	-10.4449
gé	-10.4454
▁Thomas	-10.4456
▁CE	-10.4472
▁coordonnateur	-10.4473
Sébastien	-10.4474
▁donner	-10.4474
▁publiée	-10.4476
anne	-10.4478
▁location	-10.4484
Garonne	-10.4485
▁déterminé	-10.4485
ASS	-10.4486
si	-10.4489
▁1992	-10.4495
▁approuvé	-10.4497
▁longue	-10.4505
▁indique	-10.4507
▁Associés	-10.4508
▁"3.	-10.4512
▁Caen	-10.4514
all	-10.4516
▁parts	-10.4517
▁al	-10.4519
▁textes	-10.4523
▁plateformes	-10.4525
▁conduit	-10.4526
▁dédié	-10.4527
▁Claire	-10.4529
viennent	-10.4531
▁CS	-10.4532
▁Conditions	-10.4532
▁directe	-10.4534
tions	-10.4539
IG	-10.454
emp	-10.4545
AZ	-10.4546
▁loyer	-10.4546
BR	-10.4555
▁précédant	-10.4557
▁libertés	-10.4571
▁rendus	-10.4572
▁per	-10.4575
immatriculation	-10.4581
▁fourniture	-10.4585
▁An	-10.4592
INTA	-10.4593
▁validé	-10.4594
éra	-10.4598
venir	-10.4604
▁formes	-10.4604
▁élections	-10.4609
▁sanitaires	-10.4611
▁réalise	-10.4618
▁terrain	-10.462
▁11°	-10.4626
▁covid	-10.463
▁Versailles	-10.463
ara	-10.4631
Ro	-10.4636
▁assurant	-10.4645
▁présenté	-10.465
▁outils	-10.4656
▁secteurs	-10.4659
▁conseillers	-10.466
▁intercommunale	-10.4668
▁complet	-10.4669
échange	-10.4671
octroi	-10.4679
pprovisionnement	-10.4679
▁complète	-10.4679
▁intérêts	-10.4692
▁imagerie	-10.4694
▁solution	-10.4694
DA	-10.4697
▁mineurs	-10.471
ano	-10.4715
▁transmises	-10.4718
tif	-10.4721
▁installation	-10.4725
▁téléphone	-10.4728
▁cassation	-10.4729
exposition	-10.4731
▁Délégation	-10.4742
▁déplacement	-10.4744
Stéphane	-10.475
▁soumises	-10.4751
▁poids	-10.4753
▁FA	-10.4755
▁Emmanuel	-10.4768
LO	-10.4771
▁Bretagne	-10.4774
Espace	-10.4777
▁processus	-10.4777
▁Sylvie	-10.4782
ARTI	-10.4783
apport	-10.4784
ana	-10.4792
invalidité	-10.4797
Charles	-10.4798
▁personnalités	-10.48
VE	-10.4806
ani	-10.4809
▁vins	-10.481
mand	-10.4811
▁ordres	-10.4816
▁régie	-10.4819
▁48	-10.4819
▁cotisation	-10.482
GUE	-10.4821
/2022-08-2	-10.4827
▁CONCOURS	-10.4827
lement	-10.4828
▁recommandations	-10.4831
épreuves	-10.4833
isé	-10.4841
▁sort	-10.4842
▁Ber	-10.4848
▁rigueur	-10.4852
Mar	-10.4853
▁Rhône	-10.4856
▁déposé	-10.4859
▁donné	-10.4859
▁localement	-10.4862
▁magistrature	-10.4866
CCP	-10.4871
tan	-10.4872
5-3	-10.4873
Ga	-10.4875
/2022-11-1	-10.4882
▁description	-10.4895
▁vétérinaire	-10.4896
▁Accord	-10.4896
▁juridiques	-10.4897
▁candidate	-10.4897
uve	-10.4901
▁consultable	-10.4902
Angers	-10.4902
▁éco	-10.4903
EG	-10.4904
▁Ha	-10.4904
AGRS	-10.4905
adoption	-10.4906
IP	-10.4908
quelles	-10.492
▁nouvel	-10.4921
▁concessionnaire	-10.4928
▁externes	-10.493
AUX	-10.494
▁200	-10.4943
▁Al	-10.4949
▁gynécologie	-10.4952
▁recevoir	-10.4952
▁112	-10.4955
ja	-10.4956
▁annuels	-10.496
ste	-10.4974
cha	-10.498
TU	-10.4984
▁demeure	-10.4987
ons	-10.4989
Lorsqu	-10.5001
yn	-10.5001
utilité	-10.5003
▁utilisé	-10.5013
▁BA	-10.5023
ible	-10.5027
Quentin	-10.5028
TEXT	-10.5028
RON	-10.503
hou	-10.5033
▁2002	-10.5033
HA	-10.5034
▁pensions	-10.5038
▁maximal	-10.505
▁électriques	-10.5053
▁Disposition	-10.5054
▁cancer	-10.5054
enfance	-10.5054
assi	-10.5063
▁Gérard	-10.5064
▁FS	-10.5065
ures	-10.5066
▁plans	-10.5073
▁proposer	-10.5081
ert	-10.5082
▁précédente	-10.5084
▁calendrier	-10.5088
comp	-10.5096
▁automatisé	-10.5105
▁affectée	-10.5113
ec	-10.5121
ip	-10.5124
▁conducteur	-10.5127
▁infanterie	-10.5129
Or	-10.5137
▁spécialisées	-10.5142
▁porter	-10.5147
▁Ré	-10.5149
chercheurs	-10.5154
▁troupe	-10.5156
achèvement	-10.5156
hors	-10.5162
vo	-10.5171
ult	-10.5175
ault	-10.5177
BI	-10.5188
▁majoration	-10.5189
▁tir	-10.5189
ki	-10.5191
non	-10.5191
men	-10.5196
▁émissions	-10.5203
▁certifications	-10.5205
▁Di	-10.5207
▁thermique	-10.5208
▁Durée	-10.5208
▁Roger	-10.5208
▁presse	-10.5209
▁électeurs	-10.521
Etablissement	-10.521
▁49	-10.5216
cent	-10.5219
▁calculée	-10.5222
▁préalables	-10.5223
▁maison	-10.5232
▁Ex	-10.5232
▁âgées	-10.5238
▁détaché	-10.5245
▁OU	-10.5245
▁Besançon	-10.526
▁report	-10.5268
9-1	-10.5274
▁régis	-10.5287
▁fraction	-10.5288
▁ultérieurement	-10.5288
▁détail	-10.5288
▁NO	-10.5298
▁eu	-10.5304
avance	-10.5305
ho	-10.5308
Q	-10.5315
échelon	-10.5316
Provence	-10.5316
David	-10.5316
directrice	-10.5316
▁privés	-10.5318
▁biologiques	-10.5318
▁niveaux	-10.5324
▁auxquel	-10.5335
aragraphe	-10.5338
mes	-10.5345
sante	-10.5354
▁Etablissement	-10.5362
line	-10.5367
Maxime	-10.5369
▁forces	-10.5375
▁atteint	-10.5382
son	-10.5383
ANI	-10.5386
▁Haut	-10.5387
han	-10.5388
▁comprise	-10.5389
▁relation	-10.5391
▁liquidation	-10.5391
▁immobilier	-10.5397
bu	-10.5398
form	-10.54
com	-10.5413
▁Nombre	-10.5416
Laura	-10.5416
▁tutelle	-10.5417
▁passagers	-10.5417
▁1982	-10.5426
cl	-10.5433
▁motivée	-10.5436
▁porté	-10.5436
11-1	-10.5441
▁Trésor	-10.5443
▁instituant	-10.5443
▁provisoire	-10.5443
▁concertation	-10.5444
ces	-10.5444
▁propriétaire	-10.5444
▁signalement	-10.5444
▁référent	-10.5445
▁déc	-10.5447
TER	-10.545
QU	-10.545
▁approbation	-10.546
▁opérationnel	-10.5462
▁comptabilité	-10.547
▁réparation	-10.547
▁prénom	-10.5472
▁DÉ	-10.5475
/2022-06-	-10.5475
▁experts	-10.5476
▁technologies	-10.5481
▁Pa	-10.5494
▁conversion	-10.5496
▁susceptible	-10.5498
▁cité	-10.55
▁partage	-10.5501
▁Hauts	-10.5502
▁Caroline	-10.5511
▁tri	-10.5512
▁commerciale	-10.5513
▁cm	-10.5515
▁pénal	-10.552
▁notifiée	-10.5525
▁personnalité	-10.5525
▁électroniques	-10.5526
▁revenus	-10.5532
effectue	-10.5535
particulièrement	-10.5535
cour	-10.5536
Laure	-10.5541
OS	-10.5542
▁pu	-10.5543
/2022-09-2	-10.5546
▁radiologie	-10.5557
indice	-10.5559
▁Date	-10.5561
▁aura	-10.5565
ong	-10.5574
▁catastrophe	-10.5577
▁accords	-10.5577
▁soumise	-10.5581
assistant	-10.5586
▁établis	-10.5589
▁compétents	-10.5595
OUR	-10.5597
▁instance	-10.5597
▁livraison	-10.5604
▁réforme	-10.5604
▁réglementés	-10.5613
▁74	-10.5616
Pauline	-10.5616
▁chargées	-10.5621
ane	-10.5622
ienne	-10.5646
iel	-10.5646
▁Ne	-10.5649
▁admissibles	-10.565
▁dispense	-10.5651
▁sus	-10.5654
▁reconnue	-10.5656
▁définitif	-10.5659
▁justifie	-10.566
▁étrangers	-10.566
▁partenariat	-10.5661
nat	-10.5672
▁équipes	-10.5677
▁rémunérations	-10.5688
van	-10.569
Elle	-10.5693
▁faite	-10.5697
PO	-10.5699
▁masse	-10.5702
8°	-10.5703
▁Commune	-10.5713
informations	-10.5723
TS	-10.5724
officier	-10.5731
▁audit	-10.5731
▁Ver	-10.5733
OP	-10.5733
▁déroulera	-10.5742
▁exemple	-10.5742
ART	-10.5743
▁étrangère	-10.5744
ILLE	-10.5747
dite	-10.5751
▁Sébastien	-10.5751
▁veiller	-10.5751
▁enregistrées	-10.5752
▁millions	-10.5752
3-6	-10.5754
▁populations	-10.5759
▁exclusivement	-10.5768
▁CAR	-10.5776
▁GA	-10.5782
/2022-05-0	-10.5783
MIC	-10.5794
▁vous	-10.5797
▁Xavier	-10.5799
▁80	-10.5801
▁obtenus	-10.5807
ini	-10.5808
▁clients	-10.5815
atteindre	-10.5821
▁producteur	-10.5827
/2022-06-0	-10.5833
▁165-1	-10.5835
▁sujet	-10.5845
Al	-10.5845
▁ad	-10.5848
▁notes	-10.5848
▁BEN	-10.5852
▁consommateurs	-10.5853
▁donneur	-10.5862
▁inspecteurs	-10.5863
cdg	-10.5866
▁PI	-10.5874
▁prononcée	-10.5874
Chloé	-10.5876
▁enseignements	-10.588
NI	-10.5888
/2022-01-1	-10.5889
ante	-10.5904
000	-10.5905
▁recouvrement	-10.5905
▁organise	-10.5922
land	-10.5925
▁particuliers	-10.5928
ici	-10.5929
ales	-10.5929
▁individuelles	-10.5932
ng	-10.5937
Atlantique	-10.5939
▁stratégique	-10.5939
▁accepté	-10.594
/2022-12-3	-10.594
▁recueil	-10.5944
▁Jérôme	-10.5946
21-1	-10.5949
▁78	-10.5952
quet	-10.5954
▁Véronique	-10.5958
expert	-10.5958
▁AL	-10.5959
▁suivre	-10.596
▁jeux	-10.5961
mor	-10.5962
RET	-10.5965
▁dommages	-10.5967
▁population	-10.5968
éro	-10.597
atif	-10.5972
▁praticiens	-10.5976
▁Provence	-10.5983
▁décrit	-10.5986
ies	-10.5987
▁attribué	-10.5989
21-2	-10.5994
▁RO	-10.6007
▁jeunes	-10.6008
▁attestant	-10.6016
▁fédération	-10.6025
tr	-10.6031
▁régions	-10.6033
▁So	-10.6037
▁sols	-10.6042
départemental	-10.6046
▁continu	-10.605
CIP	-10.605
raient	-10.6065
▁Julie	-10.6071
▁Bulletin	-10.6072
▁satisfaisant	-10.6072
▁grave	-10.6072
▁greffier	-10.6073
▁constaté	-10.6078
▁sièges	-10.6083
▁renouvelé	-10.6085
▁désignées	-10.6085
▁appelé	-10.6095
der	-10.6098
▁bulletin	-10.6099
▁passer	-10.61
▁Convention	-10.61
▁com	-10.6102
▁classes	-10.6104
▁compléter	-10.6108
▁portées	-10.611
▁fournisseur	-10.611
▁motif	-10.6114
▁valider	-10.6119
▁élevé	-10.612
▁légale	-10.6124
▁évaluateurs	-10.6129
ARS	-10.6138
▁plafond	-10.6139
ture	-10.6139
▁quantité	-10.6139
intermédiaire	-10.6148
ZE	-10.6152
GA	-10.6156
hygiène	-10.6157
▁fabrication	-10.6157
▁multi	-10.6157
▁réputé	-10.6163
ants	-10.6172
▁exercent	-10.6173
▁Deux	-10.6181
▁acheminé	-10.6185
▁exercice	-10.619
▁art	-10.6192
Maritime	-10.6196
▁Florence	-10.6205
préfète	-10.6207
▁Sal	-10.6211
iers	-10.6211
▁rappel	-10.6213
▁brigade	-10.6214
▁consentement	-10.6214
empêchement	-10.6215
▁transporteur	-10.6227
▁accusé	-10.623
ole	-10.6231
▁moteurs	-10.6234
▁horaires	-10.6236
Ouest	-10.6237
ECOE	-10.6238
auteur	-10.624
accomplissement	-10.6243
▁compagnie	-10.6244
▁AUX	-10.6247
▁déterminer	-10.6249
-2,	-10.6255
tor	-10.6263
▁ensemble	-10.6263
▁destinées	-10.6264
Mathilde	-10.6265
▁conférences	-10.6266
Co	-10.6267
▁solde	-10.6268
▁monétaire	-10.6271
▁série	-10.6276
▁proposé	-10.6278
télésurveillance	-10.6278
▁1978	-10.6283
▁syndicale	-10.6284
▁2001	-10.6289
3-7	-10.629
Xavier	-10.6295
▁permanent	-10.6296
▁théorique	-10.63
▁variété	-10.63
▁régi	-10.6311
Marion	-10.6325
▁organique	-10.6329
▁chronique	-10.6329
▁reçoivent	-10.6329
▁Corps	-10.6329
▁législatives	-10.6333
▁hauteur	-10.6336
▁capitalisable	-10.6342
DO	-10.6346
▁etc	-10.6349
▁expert	-10.635
▁déontologie	-10.6358
▁Côte	-10.6375
att	-10.6375
▁correspondance	-10.6389
▁référentiels	-10.6389
ts	-10.6392
▁12°	-10.6395
▁Pointe	-10.6402
asse	-10.6402
▁comportement	-10.6402
▁régies	-10.6405
Julie	-10.6408
▁représente	-10.641
▁trans	-10.6415
ologique	-10.6416
î	-10.6416
▁permettent	-10.6417
▁nouveaux	-10.642
▁forfait	-10.6426
PS	-10.6426
▁refusé	-10.6427
Ar	-10.6434
▁312-1	-10.6443
▁Arnaud	-10.6445
▁restructuration	-10.6446
0000467683	-10.6446
▁souhaite	-10.645
FO	-10.645
Hugo	-10.6451
▁mentionne	-10.6452
▁Stéphanie	-10.6454
▁réunions	-10.6462
è	-10.6466
▁rapports	-10.6468
TH	-10.6468
▁dehors	-10.6473
cf	-10.6473
▁prénoms	-10.6474
ak	-10.6474
▁Affectation	-10.6475
▁décès	-10.6475
▁formule	-10.6476
TR	-10.6476
▁spécialisés	-10.6477
bon	-10.6479
▁Ville	-10.648
12-1	-10.6482
not	-10.6485
▁Cécile	-10.6491
▁équipe	-10.6493
oire	-10.6497
Clément	-10.6501
HE	-10.6516
ROU	-10.6524
▁fiscale	-10.6527
▁Limoges	-10.6534
pré	-10.6544
NO	-10.6544
4-4	-10.6546
fort	-10.6546
gue	-10.655
ives	-10.655
lie	-10.6551
▁Officier	-10.6563
▁reçoit	-10.6563
▁accordé	-10.6569
▁indication	-10.6574
▁Lo	-10.6576
▁composée	-10.6576
év	-10.6578
▁statistiques	-10.658
▁Pas	-10.6583
vent	-10.6585
▁signée	-10.6588
SP	-10.6592
▁magistrate	-10.6593
▁réadaptation	-10.6598
▁signe	-10.6599
▁naturels	-10.6601
▁infirmiers	-10.6606
▁consulté	-10.6606
▁main	-10.6609
social	-10.6615
▁meilleur	-10.6618
amp	-10.6618
exigence	-10.6621
Clémence	-10.6623
Savoie	-10.6623
▁intervient	-10.6624
202	-10.6629
▁PO	-10.6632
▁expertise	-10.664
▁maîtres	-10.6645
nés	-10.665
▁DEL	-10.6651
opticien	-10.6653
inventaire	-10.6653
▁Pays	-10.6653
Arnaud	-10.6653
Tunisie	-10.6654
▁extérieur	-10.6654
▁conjointement	-10.6657
▁scientifiques	-10.667
▁pension	-10.6671
▁force	-10.6671
resse	-10.6676
adolescent	-10.668
▁ailleurs	-10.6683
▁dialogue	-10.6683
cardiovasculaire	-10.6684
oir	-10.6689
tré	-10.6693
igne	-10.67
▁65	-10.6701
-2.	-10.6701
▁Camille	-10.6701
▁réparti	-10.6702
▁Cor	-10.6707
▁étendue	-10.6708
Pascal	-10.6718
▁savoir	-10.6721
écu	-10.6725
FF	-10.6726
▁gestionnaires	-10.6728
▁voir	-10.6732
OM	-10.6736
▁2003	-10.6736
▁pilote	-10.6743
ières	-10.6744
même	-10.6745
ati	-10.6748
▁transmise	-10.675
af	-10.6754
▁Raymond	-10.6757
Lieutenant	-10.6773
ès	-10.6776
▁of	-10.6777
▁conventionnelle	-10.6778
▁secondaire	-10.6779
net	-10.678
▁sept	-10.6781
▁Gilles	-10.6782
/2022-01-0	-10.6785
FI	-10.6785
Ces	-10.6786
ateurs	-10.6792
▁revenu	-10.6794
▁Didier	-10.6798
▁contrôleurs	-10.6799
Saône	-10.6803
▁majorité	-10.6806
Charlotte	-10.6807
▁Service	-10.6811
zi	-10.6815
▁Mor	-10.6817
▁socio	-10.6817
▁trésorerie	-10.6834
▁supplémentaires	-10.684
Florian	-10.6844
▁rejet	-10.6847
▁éventuelles	-10.6849
▁adapté	-10.6849
▁Go	-10.6852
11-2	-10.6853
▁LO	-10.6861
▁arrête	-10.6861
▁dissolution	-10.6864
▁chauffage	-10.6864
▁désignée	-10.6866
Romain	-10.6869
▁76	-10.687
▁ancien	-10.6873
lis	-10.6874
▁SAINT	-10.6875
court	-10.6876
▁électorales	-10.688
avoir	-10.689
▁Normandie	-10.6893
▁Fond	-10.6894
▁atteints	-10.6895
artisanat	-10.6895
/2022-09-1	-10.6896
▁Char	-10.6897
▁01	-10.6898
▁charte	-10.6898
lier	-10.6905
ys	-10.6906
SSAS	-10.6909
ifi	-10.6914
▁cohérence	-10.6925
▁dépistage	-10.6925
▁LISTE	-10.6927
leur	-10.6927
▁infractions	-10.6927
end	-10.6933
▁disposent	-10.6941
▁Ta	-10.6945
▁motifs	-10.6946
▁répartis	-10.6955
▁Mouvement	-10.6956
▁répondant	-10.696
Jacques	-10.6963
▁dernières	-10.6963
▁particulière	-10.6965
▁Serge	-10.6968
▁vise	-10.6969
▁but	-10.6972
▁IX	-10.6973
▁dose	-10.6978
/2022-04-	-10.6979
▁pluridisciplina	-10.6981
▁marchandises	-10.6982
escadron	-10.6987
▁enjeux	-10.6987
▁Directeur	-10.6987
Manon	-10.699
Emmanuel	-10.699
ich	-10.6993
impact	-10.6995
ange	-10.7002
▁liée	-10.7003
▁dépense	-10.701
▁dés	-10.7012
TIER	-10.7016
▁Sécurité	-10.7018
oud	-10.702
iane	-10.7021
▁culturels	-10.7022
▁inscrite	-10.7026
Emma	-10.7038
▁publicité	-10.7041
▁informé	-10.7046
▁utilisation	-10.7051
▁assuré	-10.7056
eille	-10.706
▁préciser	-10.7061
ENS	-10.7069
▁habilité	-10.7071
▁prélèvement	-10.7073
▁123-2	-10.7077
4)	-10.7082
▁officier	-10.7088
app	-10.7089
▁anciens	-10.7092
▁thèmes	-10.7092
éré	-10.7098
▁stages	-10.71
ancienneté	-10.7104
▁Sandrine	-10.7108
Académie	-10.7111
attention	-10.7111
▁2020-523	-10.7111
▁solidaire	-10.7111
▁reconnues	-10.7116
ssent	-10.7117
▁Port	-10.712
▁7.	-10.7131
▁couverture	-10.7136
▁qualifiées	-10.7138
lia	-10.714
expression	-10.7144
▁150	-10.7148
▁intitulé	-10.715
▁déplacements	-10.7153
▁détermination	-10.7157
▁bureaux	-10.7164
▁juridictions	-10.7166
▁respectives	-10.7172
▁conséquences	-10.7178
histoire	-10.7178
can	-10.7182
PA	-10.7185
Yves	-10.7186
ministérielle	-10.7186
▁seuls	-10.7194
électeur	-10.7203
▁Action	-10.7206
▁prolongation	-10.7206
▁rôle	-10.7206
▁sexe	-10.7206
▁utilisées	-10.7227
▁assimilés	-10.7233
▁Ou	-10.7235
▁programmation	-10.7237
endant	-10.7238
▁conformes	-10.7243
respect	-10.7249
Eric	-10.7252
▁courant	-10.726
▁Louise	-10.7267
ball	-10.7267
▁sécheresse	-10.7269
▁secrétaires	-10.7277
▁intérim	-10.7279
▁consécutifs	-10.7279
attaché	-10.7279
▁bois	-10.728
ison	-10.7286
▁exemplaires	-10.7297
lant	-10.73
existence	-10.7307
ty	-10.7314
▁recrutés	-10.7315
nce	-10.7316
▁interdit	-10.732
▁GI	-10.732
rac	-10.733
▁conclusion	-10.733
ii	-10.733
isée	-10.7331
▁ASSOCIES	-10.7334
▁conventionnel	-10.7338
▁615	-10.7345
entraînement	-10.7351
▁77	-10.7359
7-2	-10.7364
▁bloc	-10.7364
occupation	-10.7365
▁différence	-10.7365
▁favorable	-10.7365
▁déterminée	-10.7365
TRA	-10.7367
pr	-10.7368
ros	-10.7372
êt	-10.7377
Lo	-10.7388
▁susmentionnée	-10.7395
▁déploiement	-10.7397
▁suppression	-10.7397
onc	-10.7401
Caroline	-10.7412
▁expérimentation	-10.7414
▁génie	-10.7429
▁remplaçant	-10.7429
▁trimestre	-10.7429
▁pourcentage	-10.743
date	-10.7431
▁continuité	-10.7431
cation	-10.7437
▁exploitants	-10.7439
▁k	-10.7441
interdiction	-10.7445
enne	-10.745
vin	-10.745
▁classé	-10.745
▁départementales	-10.7451
ALL	-10.7454
HO	-10.7457
thérapie	-10.7461
intolérance	-10.7462
▁614	-10.7463
▁couronne	-10.7464
▁journée	-10.7467
Jo	-10.7468
itaire	-10.7469
▁universitaires	-10.7473
▁accompli	-10.7474
lais	-10.7477
▁Tous	-10.7477
▁label	-10.7481
Aix	-10.7487
▁agences	-10.7493
éligibilité	-10.7494
▁autonome	-10.7494
▁flux	-10.7494
▁moitié	-10.7494
▁élu	-10.7495
OC	-10.7504
onnant	-10.7509
▁délivrés	-10.7518
cc	-10.7524
▁régularisation	-10.7527
▁dérouleront	-10.7528
▁caisses	-10.7529
zo	-10.7536
▁Santé	-10.754
5-4	-10.7543
▁734	-10.7558
DC	-10.7563
▁saisi	-10.7565
▁Rou	-10.7565
LET	-10.7568
▁remet	-10.7569
MICC	-10.757
Oise	-10.7572
▁prévisionnel	-10.7577
▁Or	-10.7578
oli	-10.7579
ène	-10.7586
péri	-10.7589
▁reconnu	-10.7589
▁extraordinaire	-10.7592
▁déposer	-10.7594
▁saisine	-10.7597
▁supprimées	-10.7599
▁résident	-10.7599
▁versé	-10.7604
▁étude	-10.7605
▁07	-10.7606
▁développer	-10.761
▁assurances	-10.7613
cinq	-10.7614
▁appelée	-10.7621
uz	-10.7623
▁bancaire	-10.7625
▁circonscription	-10.7625
▁volontaire	-10.7625
▁2241-1	-10.7626
▁Monique	-10.7626
▁achats	-10.7629
ian	-10.763
the	-10.7641
▁notifie	-10.7645
▁composant	-10.7655
▁ensuite	-10.7658
▁limitation	-10.7658
▁tirage	-10.7661
gar	-10.7669
▁électrique	-10.767
▁situées	-10.7673
▁salle	-10.769
adopté	-10.7691
▁Annexe	-10.7692
▁Ka	-10.7697
▁nucléaires	-10.7714
▁bio	-10.772
Considérant	-10.7725
implantation	-10.7725
▁Denis	-10.7735
lor	-10.7735
car	-10.774
▁personnelle	-10.7742
œuvre	-10.7745
▁émis	-10.7745
▁prescrit	-10.7749
MP	-10.7751
▁Laurence	-10.7752
▁ultérieur	-10.7754
perfectionnement	-10.7758
▁or	-10.7762
▁513	-10.7768
credi	-10.7788
▁confidentialité	-10.7791
▁facultative	-10.7791
21-3	-10.7792
cy	-10.7794
▁Gar	-10.7794
▁ponctuelle	-10.7807
▁Pr	-10.7811
▁fournis	-10.7812
dire	-10.7813
▁Bas	-10.7814
9°	-10.7815
nom	-10.7819
▁postal	-10.7819
▁Gui	-10.782
▁environnement	-10.782
▁indiqué	-10.7827
▁orientations	-10.783
▁septième	-10.7833
22-3	-10.7833
▁atteinte	-10.7841
▁initial	-10.7843
▁impact	-10.7851
▁car	-10.7851
▁neuf	-10.7856
▁électoral	-10.7856
▁tourisme	-10.7859
4-5	-10.786
▁travailleur	-10.787
▁âgés	-10.7871
▁300	-10.7872
▁SP	-10.7873
atrice	-10.7881
▁collectifs	-10.789
ordonnateur	-10.7892
PI	-10.7893
STE	-10.7895
▁Franck	-10.7905
▁constitution	-10.7906
▁atteste	-10.791
ann	-10.7911
▁traitant	-10.7913
▁intention	-10.7915
▁délibérations	-10.7916
▁cellules	-10.7918
▁personnelles	-10.7919
▁contractante	-10.7919
LIER	-10.7921
rat	-10.7923
faciale	-10.7926
▁lendemain	-10.7926
▁échanges	-10.793
▁PRO	-10.7932
▁issues	-10.7932
AGE	-10.7947
alerte	-10.7948
▁vivante	-10.7951
▁nomenclature	-10.7953
ide	-10.7955
BE	-10.7956
ém	-10.7957
▁réintégration	-10.7964
entité	-10.7964
▁routier	-10.7965
▁culturelles	-10.7965
▁accompagnement	-10.7966
▁dates	-10.7973
▁Cas	-10.7976
▁petites	-10.7977
Du	-10.798
▁commercial	-10.7982
Mathieu	-10.7986
Hélène	-10.7986
Marine	-10.7989
rain	-10.799
▁radio	-10.7994
Arthur	-10.7995
▁sessions	-10.7997
▁communique	-10.7999
▁principe	-10.7999
▁radiée	-10.8
▁posté	-10.8004
▁Mou	-10.8005
▁enseignant	-10.8008
▁Réaliser	-10.8011
▁Nom	-10.8014
hy	-10.8019
▁Je	-10.8027
appréciation	-10.8029
session	-10.8029
▁publiés	-10.8036
▁classées	-10.8038
▁méthotrexate	-10.804
HI	-10.8044
nis	-10.8046
▁Taux	-10.8047
▁retenue	-10.8051
Association	-10.8056
▁périodicité	-10.8063
▁abroge	-10.8063
▁chefs	-10.8067
hommes	-10.8068
▁SAS	-10.807
▁RÉ	-10.807
▁déterminées	-10.808
▁Da	-10.8082
Lors	-10.8086
initiative	-10.8091
▁Banque	-10.8097
▁périodique	-10.8097
▁quarante	-10.8097
▁considération	-10.8098
ny	-10.8099
vier	-10.8106
12-3	-10.8107
ARR	-10.8109
▁humaine	-10.811
▁quantités	-10.812
▁communiqués	-10.812
entre	-10.8123
▁Bri	-10.8123
gent	-10.8126
▁BE	-10.813
▁directions	-10.8131
assainissement	-10.8132
▁géographiques	-10.814
ug	-10.8148
ANCE	-10.8148
INI	-10.8151
▁DI	-10.8152
Re	-10.8152
dy	-10.8161
praticien	-10.8162
usqu	-10.8162
euvent	-10.8166
▁artistique	-10.8167
▁éventuels	-10.8168
▁classés	-10.8169
▁final	-10.8169
▁constat	-10.8176
▁post	-10.818
▁participations	-10.8185
IM	-10.8193
▁notifié	-10.82
RÉ	-10.8201
▁Pôle	-10.8202
▁SELARL	-10.8202
ente	-10.8209
▁manquement	-10.8209
BRE	-10.821
dj	-10.8216
▁utiles	-10.8217
▁Be	-10.8219
outil	-10.8226
▁PE	-10.8234
▁Financement	-10.8237
▁classification	-10.8237
échelle	-10.8237
▁Albert	-10.8237
ZI	-10.824
▁cellule	-10.8245
22-5	-10.825
▁GO	-10.8255
▁extérieure	-10.8255
▁Ja	-10.8256
Gu	-10.8259
éno	-10.8268
audition	-10.827
ification	-10.827
Sous	-10.8271
▁indexation	-10.8272
▁mentionnant	-10.8274
▁utiliser	-10.8275
bre	-10.8277
▁intéressés	-10.828
▁dédiée	-10.828
pin	-10.8282
▁bons	-10.8286
▁horaire	-10.8289
▁St	-10.8292
▁mobilités	-10.83
▁mensuel	-10.8301
pri	-10.8303
ira	-10.8304
▁appartient	-10.8307
▁indiciaire	-10.8307
▁manifestation	-10.8307
▁résolution	-10.8307
▁vidéo	-10.8307
▁tuteur	-10.8307
▁Cyclades	-10.8308
tant	-10.8314
▁tenus	-10.8316
LON	-10.8324
▁Sch	-10.8326
cor	-10.8331
▁Bureau	-10.8335
Cha	-10.8336
▁supérieurs	-10.8338
6-3	-10.8338
hal	-10.8339
aéronef	-10.834
▁intervention	-10.834
AH	-10.8341
▁dirigeant	-10.8349
ili	-10.835
▁modifiées	-10.8352
ttes	-10.8366
▁face	-10.8367
41-2	-10.8373
durée	-10.8377
▁modernisation	-10.8378
▁simultanément	-10.8379
Justine	-10.8381
▁Na	-10.8381
▁constituent	-10.8384
▁effectivement	-10.8385
▁important	-10.8409
▁contribue	-10.8409
▁Charlotte	-10.8409
institut	-10.841
chet	-10.8412
informatique	-10.8413
▁précédemment	-10.8413
▁fabricant	-10.8413
▁111	-10.8417
▁ministérielle	-10.8417
VO	-10.8418
communications	-10.8419
aient	-10.8425
ième	-10.843
▁circonstances	-10.843
▁accident	-10.8433
▁retraits	-10.8436
▁di	-10.8445
▁paramètres	-10.8448
▁pédiatrique	-10.8449
attente	-10.845
▁remplir	-10.8451
RH	-10.8451
Calais	-10.8452
▁MOR	-10.8455
▁déclaré	-10.8461
▁constatation	-10.8463
▁221-14	-10.8466
11-4	-10.8471
CGT	-10.8472
▁arme	-10.8472
organe	-10.8474
ave	-10.8477
▁résulte	-10.8481
▁verser	-10.8484
TREL	-10.8485
Aquitaine	-10.8485
▁interventions	-10.8486
▁Céline	-10.8486
dernier	-10.8486
▁contraintes	-10.8488
lat	-10.8489
Ch	-10.8489
gen	-10.8492
▁homologué	-10.8492
▁parents	-10.8495
▁mobile	-10.8497
▁majoré	-10.8499
▁1994	-10.8499
mp	-10.8501
▁familiales	-10.8504
▁quelle	-10.8505
Clara	-10.8507
mine	-10.8511
▁lié	-10.8512
▁visites	-10.8513
▁Direction	-10.8514
▁fraudes	-10.8515
▁réel	-10.8516
▁partielle	-10.8516
SON	-10.8518
équilibre	-10.8521
▁réussite	-10.8521
▁prochain	-10.8521
▁CNIL	-10.8521
▁Metz	-10.8523
Léa	-10.8524
▁Emmanuelle	-10.8531
Aude	-10.8533
GN	-10.8545
▁prenant	-10.8548
▁indiquant	-10.8557
▁mémoire	-10.8557
▁scolarité	-10.8557
Moselle	-10.8559
Pitre	-10.8561
ions	-10.8564
ov	-10.8564
▁pharmaceutique	-10.8568
▁partenaire	-10.857
▁obstétrique	-10.8574
▁Légifrance	-10.8593
▁intéressant	-10.8593
▁qualifiée	-10.8593
▁répression	-10.8594
ain	-10.8595
▁apportées	-10.8598
▁livret	-10.8599
classe	-10.8601
Valentin	-10.8603
▁libellée	-10.8605
pp	-10.8613
site	-10.8614
part	-10.8616
▁LF	-10.8616
EST	-10.862
▁conservé	-10.862
▁Su	-10.8623
▁133	-10.8626
utilisateur	-10.8627
MAN	-10.8629
▁internationaux	-10.863
▁différentiel	-10.863
▁entendu	-10.863
infirmier	-10.8633
▁passage	-10.8633
▁consultations	-10.8634
éna	-10.8641
▁avocat	-10.8645
je	-10.8648
▁délivrer	-10.865
OUL	-10.865
fe	-10.8651
NET	-10.866
pose	-10.866
▁ventes	-10.8663
TON	-10.8666
▁Del	-10.8667
▁objectif	-10.867
▁Sans	-10.867
Thierry	-10.867
ssa	-10.8671
▁423	-10.8681
▁NF	-10.8681
plénipotentiaire	-10.8703
▁travers	-10.8703
▁virus	-10.8703
▁chantier	-10.8703
221-15	-10.8707
▁performances	-10.8708
▁ouverte	-10.8712
ieux	-10.8712
TES	-10.8716
▁tâches	-10.8725
tt	-10.8725
▁prêts	-10.873
encontre	-10.8733
▁respecte	-10.8736
▁semestre	-10.8739
igue	-10.8741
▁automatiquement	-10.8744
territorial	-10.8745
▁Th	-10.8747
▁prélèvements	-10.8748
▁Bi	-10.8751
PL	-10.8759
eg	-10.8763
▁temporairement	-10.8764
No	-10.8767
▁majeure	-10.8772
use	-10.8773
RN	-10.8773
AIRE	-10.8776
œ	-10.8776
tal	-10.8778
pour	-10.8783
▁règlementaires	-10.8784
ALE	-10.8785
▁conservées	-10.8786
▁réservée	-10.8787
▁Agence	-10.8789
▁MO	-10.8789
organismes	-10.8791
▁exclu	-10.8793
▁envoyé	-10.8795
▁COM	-10.8809
▁climat	-10.8812
▁exprimée	-10.8812
▁foncier	-10.8813
▁équipé	-10.8813
ESS	-10.8816
▁cliniques	-10.882
▁certificative	-10.8823
▁valide	-10.8826
endre	-10.884
▁Château	-10.8845
▁faible	-10.8851
▁profil	-10.8851
pon	-10.8852
▁utilisateurs	-10.8853
▁ST	-10.8855
uy	-10.8855
▁quel	-10.8855
▁fondation	-10.8858
Pyrénées	-10.8858
document	-10.8858
culture	-10.8858
▁eux	-10.8867
▁organisés	-10.8868
▁13°	-10.887
gène	-10.8879
▁JA	-10.8886
▁maintenu	-10.8889
▁décider	-10.8892
▁affranchie	-10.8896
Futuna	-10.8896
▁fourni	-10.8896
21-16	-10.8898
▁langues	-10.8904
éné	-10.8908
▁civiles	-10.8912
one	-10.8914
▁rapporteur	-10.8917
mou	-10.8917
▁Beau	-10.8919
▁DÉPARTEMENT	-10.8925
▁Décision	-10.8925
▁correction	-10.8925
▁financé	-10.8926
excédent	-10.8926
arch	-10.8926
Germain	-10.8927
▁destinée	-10.8932
▁tableaux	-10.8948
out	-10.8951
▁institutions	-10.8957
▁armes	-10.8961
Thibault	-10.8963
▁connexes	-10.8963
▁treizième	-10.8963
▁Museum	-10.8963
▁fiscalité	-10.8964
▁Titre	-10.8965
▁Soit	-10.8968
Alban	-10.8969
▁représentante	-10.8972
▁insérée	-10.8975
▁créée	-10.8976
LER	-10.8981
Lucas	-10.8981
▁stricte	-10.8981
▁régisseur	-10.8982
▁constituer	-10.8983
▁mathématiques	-10.899
▁net	-10.8992
nant	-10.8993
ADE	-10.8996
Suppléant	-10.9001
▁2022-2023	-10.9001
▁bonification	-10.9001
cou	-10.9005
▁participent	-10.9007
DU	-10.9011
▁Com	-10.9011
ARTICLE	-10.9011
instance	-10.9011
▁(2	-10.9013
▁métier	-10.902
▁fournisseurs	-10.9025
q	-10.9026
▁Patricia	-10.9038
Pologne	-10.9039
▁audioprothèse	-10.9039
▁facturé	-10.9039
▁Sociale	-10.9039
▁intervenir	-10.9041
▁préfète	-10.9048
Benjamin	-10.905
SSE	-10.9051
▁psychologue	-10.9059
isson	-10.9061
agne	-10.9064
▁automatique	-10.9072
▁FR	-10.9074
équivalence	-10.9074
oi	-10.9078
▁rendre	-10.9085
tro	-10.9091
▁Ab	-10.9101
▁HA	-10.9106
hu	-10.9109
▁confiées	-10.911
oris	-10.9112
ox	-10.9114
officine	-10.9115
▁révision	-10.9115
illy	-10.9118
22-4	-10.9122
▁utile	-10.9136
▁terminale	-10.9137
▁Bertrand	-10.914
▁contenant	-10.9153
▁titularisation	-10.9153
▁téléversement	-10.9153
▁téléprocédure	-10.9153
▁vaut	-10.9153
▁modes	-10.9158
▁légal	-10.9162
SSI	-10.9165
ê	-10.9167
UV	-10.9171
▁européennes	-10.9174
▁manifeste	-10.9175
▁technologie	-10.9175
LU	-10.9176
▁polytechnique	-10.9192
▁Français	-10.9194
▁conventionnels	-10.9196
▁Bouches	-10.9209
▁proche	-10.9211
isme	-10.9214
▁identifiant	-10.9214
▁message	-10.9229
▁restauration	-10.923
▁mixte	-10.9232
▁insuffisante	-10.9234
▁prestataires	-10.9237
dia	-10.9241
dou	-10.9241
▁engagement	-10.9247
▁double	-10.9249
▁limiter	-10.925
illon	-10.9256
▁animaux	-10.9261
▁informatiques	-10.9263
ata	-10.9265
AUT	-10.9267
Ana	-10.9268
arr	-10.9269
Mélanie	-10.9269
▁cavalerie	-10.9269
▁nécessitant	-10.9269
▁minier	-10.9269
▁20.	-10.9274
▁éducatif	-10.9275
▁NATIONALE	-10.9279
ven	-10.9279
ore	-10.928
eng	-10.9291
traitant	-10.9294
▁destiné	-10.9296
▁finalité	-10.9297
ition	-10.9302
▁66	-10.9306
▁consenti	-10.9308
▁prévoir	-10.931
▁familiale	-10.9311
▁privées	-10.9313
▁afférentes	-10.9317
▁Alpes	-10.9319
administratif	-10.9324
▁dotations	-10.9325
▁puisse	-10.9325
ncé	-10.9331
tour	-10.9333
▁postérieure	-10.9335
mod	-10.9336
ches	-10.9341
▁entend	-10.9346
▁signalisation	-10.9347
▁instituts	-10.9353
▁211-1	-10.9356
ham	-10.9358
▁Pi	-10.9361
▁reçus	-10.937
▁consignations	-10.937
naire	-10.9371
▁Vu	-10.9371
▁victime	-10.9372
▁auto	-10.9372
IQUE	-10.9373
▁plaques	-10.9373
professionnelle	-10.938
RIN	-10.9384
Lucie	-10.9385
▁décédé	-10.9386
▁Bourgogne	-10.9386
▁exercé	-10.939
▁prononcé	-10.939
▁BP	-10.9394
▁TABLEAU	-10.9399
▁BI	-10.9399
Uni	-10.9401
Sarah	-10.9404
Cécile	-10.9404
VEN	-10.9409
▁environnemental	-10.941
▁fiscales	-10.9413
▁intégré	-10.9413
▁court	-10.942
▁serait	-10.9422
▁adaptées	-10.9425
▁caractéris	-10.9425
▁mutualité	-10.9426
▁quartier	-10.9429
100	-10.9436
laire	-10.9436
IEN	-10.9438
▁substitute	-10.9442
▁recrutements	-10.9442
▁Cl	-10.9444
Jérôme	-10.9444
▁BER	-10.9445
▁réglementé	-10.9452
▁signataires	-10.9461
berg	-10.9463
excède	-10.9465
▁blindé	-10.9465
▁satisfait	-10.9465
édaillé	-10.9465
acceptation	-10.9466
ajout	-10.9466
▁réunit	-10.9466
▁91	-10.9468
▁jointe	-10.9471
▁for	-10.9471
FA	-10.9472
▁industriel	-10.9479
/2022-11-	-10.9493
▁utilisée	-10.9494
▁élabore	-10.9498
▁communiquer	-10.9499
▁GR	-10.9501
▁SUR	-10.9501
▁cortico	-10.9504
▁4111-2	-10.9506
▁contractant	-10.9509
▁daté	-10.9514
▁rattachés	-10.9514
▁moyennes	-10.9523
nalité	-10.9528
tur	-10.953
▁obstacle	-10.9541
importance	-10.9544
▁comprennent	-10.9544
▁prépare	-10.9555
téri	-10.9568
▁passe	-10.957
▁requêtes	-10.957
▁appui	-10.9571
▁identifiés	-10.9575
▁déposée	-10.9575
axe	-10.9579
▁CAP	-10.9579
élimination	-10.9584
▁permanence	-10.9584
▁bailleur	-10.9585
LOU	-10.9586
▁appliqué	-10.9589
▁Bu	-10.9593
▁lire	-10.9594
HER	-10.9595
DON	-10.9595
adi	-10.9604
▁fiscal	-10.9604
▁Laure	-10.9606
▁Gra	-10.9607
URE	-10.9611
▁Pe	-10.9611
▁accidents	-10.9615
▁mineur	-10.9616
▁Bon	-10.9617
▁assisté	-10.9625
▁incomplet	-10.9625
▁Jacqueline	-10.9625
▁Mon	-10.9638
équipements	-10.9644
▁Benoît	-10.9648
▁acquises	-10.966
adapter	-10.9665
▁Bpifrance	-10.9665
▁récolte	-10.9665
▁ventilation	-10.9665
▁mensuelle	-10.9667
▁Part	-10.9668
▁organisées	-10.9669
▁Var	-10.967
▁Chi	-10.9674
▁Auvergne	-10.9679
▁Hervé	-10.9681
▁envoi	-10.9682
▁déterminés	-10.9684
▁documentation	-10.9686
5-5	-10.969
roy	-10.9691
▁destinataire	-10.9695
▁suffisa	-10.9702
▁Contrôle	-10.9705
▁foncière	-10.9705
▁Plan	-10.9705
▁rattachement	-10.9706
▁prévenir	-10.9707
▁361-4	-10.9708
▁œuvres	-10.9708
info	-10.971
iser	-10.9713
iff	-10.9715
▁cumul	-10.9719
▁troubles	-10.9719
CU	-10.9721
▁Produits	-10.9724
MS	-10.9724
▁pouvoirs	-10.9731
▁Am	-10.9733
▁bail	-10.9736
▁biologique	-10.9736
image	-10.974
Franche	-10.9746
▁Mise	-10.975
▁Autorité	-10.9751
rit	-10.9752
UM	-10.9754
cyc	-10.9763
▁1981	-10.9763
durable	-10.9771
IGN	-10.9783
NOR	-10.9783
▁Toulon	-10.9787
▁démocratique	-10.9787
▁Information	-10.9787
▁capable	-10.979
▁approprié	-10.9792
▁214	-10.9796
aille	-10.9802
Matthieu	-10.9813
▁CCH	-10.9814
▁délégués	-10.9815
▁Bru	-10.9823
dan	-10.9824
▁Capitole	-10.9828
▁utilisant	-10.9828
▁marins	-10.983
▁OFFIC	-10.9831
▁transférée	-10.9832
▁"4.	-10.9833
▁Mathieu	-10.9838
vre	-10.984
▁321-1	-10.9842
▁72-3	-10.9845
bilité	-10.986
▁adresser	-10.9866
iot	-10.9866
Toute	-10.9867
LES	-10.9868
developpement	-10.9869
adhésion	-10.9869
▁SNCF	-10.9869
▁indemnitaire	-10.9869
▁modificative	-10.9869
▁résiliation	-10.9869
▁2241-5	-10.9869
▁souhaitant	-10.9872
my	-10.9874
▁1993	-10.989
▁notée	-10.9894
▁tests	-10.9897
Conseil	-10.9897
▁débit	-10.9901
ves	-10.9902
▁justificatif	-10.9903
▁marque	-10.9904
▁carrière	-10.9907
7-3	-10.9908
har	-10.9908
▁DISPOSITION	-10.991
▁transmettent	-10.9911
ditrice	-10.9913
▁225	-10.9913
Sur	-10.9914
▁régulièrement	-10.9914
▁instituée	-10.9914
▁placées	-10.9914
▁cabinets	-10.9916
CHER	-10.9919
omme	-10.9924
▁coup	-10.9925
ans	-10.9928
uit	-10.9933
oui	-10.9934
▁équivalente	-10.9937
▁global	-10.9939
accident	-10.9939
immobilier	-10.9939
▁scolaires	-10.994
▁521	-10.994
AULT	-10.994
RIE	-10.9946
Des	-10.9946
▁proportion	-10.9948
illet	-10.9948
uel	-10.9948
▁présentent	-10.9949
ries	-10.9949
▁demandée	-10.9951
▁éducative	-10.9952
▁Royaume	-10.9952
ric	-10.9952
▁vo	-10.9953
▁formé	-10.9961
▁faciliter	-10.9961
▁Organisation	-10.9963
▁détection	-10.9965
▁annuellement	-10.9967
▁JU	-10.9972
▁signal	-10.9976
▁Gr	-10.9978
cité	-10.998
▁répond	-10.9981
5-6	-10.9985
uff	-10.9987
▁facture	-10.9987
▁communauté	-10.9994
▁impérativement	-10.9994
▁renseigné	-10.9994
▁socle	-10.9994
▁danger	-10.9995
avi	-10.9999
▁école	-10.9999
ussi	-11
▁existe	-11.0004
▁nuit	-11.0009
▁Lucien	-11.001
lès	-11.0011
▁aptitudes	-11.0013
aval	-11.0015
ya	-11.003
din	-11.0032
▁Victor	-11.0032
▁qualifié	-11.0035
▁retard	-11.0035
▁vaccination	-11.0038
▁conclue	-11.0039
nie	-11.0042
▁occurrence	-11.0043
▁établir	-11.0047
▁cartes	-11.0052
▁ét	-11.0054
NOT	-11.0057
▁disposer	-11.0059
Adrien	-11.0067
▁Maxime	-11.0069
DES	-11.0072
▁réintégré	-11.0075
établir	-11.0075
acheminement	-11.0077
alternance	-11.0077
▁justification	-11.0077
▁primaire	-11.0077
▁entrant	-11.0078
MAR	-11.008
▁vétérinaires	-11.0088
iti	-11.0089
lage	-11.0091
▁rejets	-11.0091
▁réservistes	-11.0095
▁handicapés	-11.0096
▁visa	-11.0102
▁Mé	-11.0109
hen	-11.0112
Unis	-11.0113
▁conséquence	-11.0115
▁Pré	-11.0116
individuellement	-11.0116
▁notice	-11.012
▁pertinence	-11.012
▁toutefois	-11.012
▁tôt	-11.012
▁présidents	-11.0123
Comté	-11.0123
▁poursuite	-11.0125
▁commerciales	-11.0128
EMENT	-11.0131
FE	-11.0132
Inter	-11.0138
▁culturel	-11.0141
▁Titulaire	-11.0145
mettant	-11.0151
▁Van	-11.0153
▁cela	-11.016
▁rejeté	-11.0162
▁motivation	-11.0162
▁raccordement	-11.0162
▁Description	-11.0162
▁patrimoines	-11.0163
EUX	-11.0165
▁détaillée	-11.017
▁Simon	-11.017
mettent	-11.017
▁Association	-11.017
▁Clément	-11.0175
GO	-11.0176
▁Te	-11.0179
▁principales	-11.0181
pre	-11.0184
▁eau	-11.0191
justice	-11.0196
▁prioritaire	-11.02
GU	-11.0202
▁occupé	-11.0204
▁trouve	-11.0207
▁dispensés	-11.0209
her	-11.021
▁déposés	-11.0216
▁analyses	-11.0221
aine	-11.0221
effectif	-11.0239
quatre	-11.024
▁contacter	-11.0246
/2022-03-3	-11.0247
▁fusion	-11.0247
▁libération	-11.0247
▁satisfaire	-11.0248
audience	-11.0248
CHI	-11.0248
tage	-11.0254
▁porteur	-11.0255
▁UE	-11.0256
ust	-11.0261
▁premiers	-11.0274
▁déclarée	-11.0276
▁Madeleine	-11.0277
Aurélien	-11.028
Eure	-11.0283
atteinte	-11.0283
▁7500	-11.0285
▁suspendue	-11.0288
élevage	-11.0288
huit	-11.029
▁tranche	-11.029
▁taille	-11.0291
▁potentiel	-11.0293
▁diversité	-11.0294
▁consultée	-11.0295
▁syndicats	-11.0296
▁favoriser	-11.0304
▁équipement	-11.0313
2021	-11.032
affichage	-11.0333
entrepreneur	-11.0333
▁cinquante	-11.0333
▁vitesse	-11.0333
▁vaisseau	-11.0333
▁futur	-11.0333
▁organisatrice	-11.0333
▁feuille	-11.0338
▁Gabriel	-11.0339
actif	-11.0343
▁assurent	-11.0349
212	-11.0352
SER	-11.0359
RIER	-11.0363
▁SU	-11.0363
▁Pauline	-11.0368
tom	-11.0369
▁Martine	-11.0374
rage	-11.0374
▁67	-11.0375
▁expérimental	-11.0377
▁rectification	-11.0377
▁Emilie	-11.0378
▁Sol	-11.0378
▁journalière	-11.0379
▁communications	-11.0384
▁précisé	-11.0384
économies	-11.0385
▁To	-11.0387
▁vivant	-11.0389
▁cré	-11.039
▁réductions	-11.0392
▁Services	-11.0393
alité	-11.04
▁patientes	-11.04
▁vacants	-11.04
Maritimes	-11.0403
▁VER	-11.0408
NT	-11.0411
duc	-11.0413
extérieur	-11.0415
▁Hu	-11.0417
▁établies	-11.0418
▁arrêt	-11.0418
▁subventions	-11.0419
▁semaine	-11.0419
électro	-11.042
Anthony	-11.042
hôpital	-11.042
▁forestière	-11.042
dits	-11.0423
▁effectif	-11.0425
UD	-11.0426
UP	-11.0426
aut	-11.0434
▁rempli	-11.0438
loi	-11.0439
▁Elisabeth	-11.044
▁accéder	-11.0443
▁Lucie	-11.0443
vel	-11.0451
effectuent	-11.0454
▁cap	-11.0458
▁SO	-11.0459
▁313-1	-11.046
▁Ho	-11.0462
Ludovic	-11.0464
▁432-13	-11.0464
▁spéciaux	-11.0464
▁CDG	-11.0464
▁Nicole	-11.0466
▁parental	-11.0468
▁échange	-11.0468
▁mille	-11.0469
▁conclusions	-11.0469
▁233	-11.047
ères	-11.0473
ppe	-11.0474
▁interventionnel	-11.0475
▁requise	-11.0477
▁DA	-11.0477
▁412	-11.0479
▁68	-11.0485
éni	-11.0488
mission	-11.0495
▁légales	-11.0503
obtenir	-11.0505
Cyril	-11.0506
exportation	-11.0507
▁titularisé	-11.0508
▁éliminatoire	-11.0508
Margaux	-11.0508
venu	-11.0509
▁subi	-11.0509
▁cultures	-11.0509
Vienne	-11.0511
lou	-11.0514
▁enregistré	-11.0516
▁obligation	-11.0523
▁pharmaciens	-11.0524
-2-1	-11.053
▁proposés	-11.0534
bri	-11.0534
▁Occitanie	-11.0539
▁vari	-11.0543
eff	-11.0545
UNE	-11.0547
del	-11.0547
▁estime	-11.0548
Traitement	-11.0549
▁6123-1	-11.0552
EF	-11.0552
juridictionnelle	-11.0552
▁Liste	-11.0557
▁destinataires	-11.0563
ond	-11.0564
agri	-11.0564
▁adaptés	-11.0566
▁Pé	-11.0577
ada	-11.0579
▁indépendante	-11.0581
▁attendu	-11.0589
sociaux	-11.0595
Alexis	-11.0595
▁musique	-11.0596
▁Chargé	-11.0596
▁définissant	-11.0597
▁priorité	-11.0597
▁retirer	-11.0597
▁instruments	-11.0598
▁MARTIN	-11.0598
▁tarifaire	-11.06
▁investissements	-11.0604
ema	-11.0605
▁CHAR	-11.0607
isant	-11.0615
▁86	-11.0618
rom	-11.0621
Olympiques	-11.0628
▁afférents	-11.0628
▁paysage	-11.0635
▁fixes	-11.0636
euil	-11.0639
▁prévoyance	-11.064
OUX	-11.0642
Théo	-11.0643
▁Avant	-11.0648
▁confié	-11.0649
ium	-11.0653
bra	-11.0653
▁2014-	-11.0655
▁délivre	-11.0657
▁minimales	-11.0657
▁inv	-11.0657
Bas	-11.0664
▁apporter	-11.0673
uf	-11.0677
▁captures	-11.0678
indicateur	-11.0683
▁GU	-11.0684
▁dissoute	-11.0685
Emilie	-11.0685
▁audiovisuelle	-11.0685
▁adressées	-11.0694
og	-11.0699
▁Fi	-11.0701
▁monde	-11.0703
▁BON	-11.0705
Micha	-11.0706
CES	-11.0713
▁Mi	-11.0713
▁portent	-11.0713
étend	-11.0722
▁Virginie	-11.0722
▁gratuit	-11.0729
▁voyage	-11.0729
▁trafic	-11.073
▁démontr	-11.073
▁Sou	-11.0736
▁localisation	-11.0736
▁valablement	-11.0739
▁Ministère	-11.0743
union	-11.0748
dg	-11.0755
abri	-11.0756
▁plafonds	-11.0759
VILLE	-11.0766
▁équipage	-11.0767
▁évalue	-11.0768
▁attestations	-11.077
▁retenues	-11.0775
intégrité	-11.0775
▁abrégée	-11.0775
▁thon	-11.0775
▁train	-11.0776
Inès	-11.0782
▁2352-	-11.0783
▁station	-11.0785
▁possibles	-11.0785
▁2261-	-11.0786
▁présentées	-11.0788
▁départementaux	-11.0792
tiennent	-11.0794
▁transaction	-11.0796
euro	-11.0796
Mohamed	-11.082
▁forestier	-11.082
▁raisonnable	-11.082
Toutefois	-11.0823
▁Mal	-11.0828
▁pêches	-11.0829
ACT	-11.0832
KER	-11.0838
bou	-11.0843
▁évolutions	-11.0846
▁évaluées	-11.0849
▁Agnès	-11.0851
▁réputée	-11.0856
▁dit	-11.0858
exerce	-11.0858
▁détaillé	-11.0859
▁installé	-11.0861
▁constitutive	-11.0866
▁cédé	-11.0866
▁transféré	-11.0866
▁distributeur	-11.0866
Vitale	-11.0866
▁progression	-11.0866
▁exclusif	-11.0866
▁péage	-11.0866
Lionel	-11.0866
gr	-11.0867
écologie	-11.0868
▁signataire	-11.087
▁pluriannuel	-11.0878
▁Montant	-11.0882
▁distinct	-11.0886
oral	-11.0893
▁aigu	-11.0894
approche	-11.0904
Hérault	-11.0911
▁Gilbert	-11.0911
Patrick	-11.0916
▁exemplaire	-11.0917
▁détenteur	-11.0917
ANC	-11.0918
▁factures	-11.0919
▁Tra	-11.0922
essai	-11.0925
▁solutions	-11.0928
▁raisons	-11.0928
Léo	-11.0934
iens	-11.0934
▁attribués	-11.0945
Mo	-11.0951
▁fil	-11.0952
▁constituant	-11.0957
▁Paralympiques	-11.0957
rh	-11.0962
▁pose	-11.0966
▁quelque	-11.0966
▁consommations	-11.0967
▁disciplinaires	-11.0967
ieu	-11.0967
▁gros	-11.0971
▁85	-11.0979
▁essais	-11.0986
ERT	-11.0992
DER	-11.0992
▁fournit	-11.1
observation	-11.1001
gastro	-11.1003
incidence	-11.1003
▁locataire	-11.1003
▁récapitulatif	-11.1003
▁encore	-11.1004
Audrey	-11.1009
▁capture	-11.101
▁poursuites	-11.1012
11.	-11.1014
bin	-11.1018
▁82	-11.102
PORT	-11.1023
▁entrée	-11.1025
▁consultatives	-11.1033
tou	-11.1034
▁fichiers	-11.1036
rine	-11.1038
▁TA	-11.104
▁retiré	-11.104
▁statu	-11.1041
▁attribuées	-11.1043
▁HT	-11.1047
▁frégate	-11.1049
▁vocation	-11.105
▁passation	-11.1051
▁6124-	-11.1052
▁habilitation	-11.1052
ALI	-11.1057
Juliette	-11.1057
▁GUI	-11.1059
▁fraude	-11.106
▁limité	-11.106
ori	-11.1061
marin	-11.1063
Cher	-11.1064
nard	-11.1064
▁desquelles	-11.1075
PN	-11.1077
▁connexion	-11.1078
ssé	-11.1079
uses	-11.1082
QUI	-11.1085
▁comporter	-11.1088
▁Romain	-11.1089
bel	-11.1093
gie	-11.1096
▁francs	-11.1096
actes	-11.1097
▁instruction	-11.1103
thé	-11.1109
▁Ouest	-11.1112
▁intermédiaire	-11.1114
AMM	-11.1116
▁rattachée	-11.1121
éviter	-11.1121
▁interdiction	-11.1121
Ra	-11.1132
jour	-11.1134
▁étranger	-11.1135
▁collectives	-11.1138
▁entités	-11.114
▁implanté	-11.1143
▁rupture	-11.1143
▁monothérapie	-11.1143
▁traité	-11.1144
ico	-11.1145
▁immobiliers	-11.1145
▁2.2.	-11.1147
▁Son	-11.1147
▁Patrice	-11.1149
▁dispensée	-11.115
HU	-11.115
bourg	-11.115
▁Leur	-11.1155
▁créances	-11.1156
▁modérée	-11.1157
BOU	-11.1162
▁prévisionnelle	-11.1165
▁Office	-11.1166
42-1	-11.1168
▁réserves	-11.117
▁correspondantes	-11.1176
intéressée	-11.1177
sch	-11.1178
▁Martin	-11.1182
▁Juliette	-11.1184
Louise	-11.1184
ORD	-11.1186
atelier	-11.1188
▁arts	-11.1189
Yvelines	-11.119
hydratation	-11.119
▁Registre	-11.119
▁balisage	-11.119
▁clés	-11.1191
▁Sylvain	-11.1192
service	-11.1199
▁versés	-11.1199
▁pression	-11.1202
Dès	-11.1208
▁Francis	-11.1212
▁Brigitte	-11.1219
▁effectue	-11.122
ND	-11.1226
▁champs	-11.123
▁auditeur	-11.1233
espèce	-11.1234
audiovisuel	-11.1236
▁gériatrie	-11.1237
▁maternité	-11.1237
▁mécanisme	-11.1237
▁grille	-11.1237
▁FRAN	-11.1237
▁Ap	-11.1238
ath	-11.1238
ita	-11.124
▁ouvrir	-11.1242
Gironde	-11.1247
nomenclature	-11.1247
Dominique	-11.1247
André	-11.1247
▁332-1	-11.1249
▁intégrée	-11.1251
ancien	-11.1251
▁114	-11.1254
▁collections	-11.1259
▁évaluer	-11.1266
ANG	-11.1266
▁évaluations	-11.1266
AMI	-11.127
ssin	-11.1273
gede	-11.1274
▁soixante	-11.1275
▁masses	-11.1277
▁lauréats	-11.1278
4-6	-11.1284
▁carburant	-11.1284
▁diabète	-11.1284
▁médiation	-11.1284
▁prennent	-11.1284
▁établissant	-11.1286
▁faites	-11.1286
23-2	-11.129
IO	-11.1291
▁située	-11.1291
▁joint	-11.1292
▁Cla	-11.1295
▁question	-11.1296
▁exprimé	-11.1297
▁immeubles	-11.1299
▁2.1.	-11.131
trait	-11.1315
▁laboratoires	-11.1319
ION	-11.1325
GNE	-11.1325
investigation	-11.1329
▁dévolues	-11.1332
▁interacadémique	-11.1332
▁aspects	-11.1332
▁certaine	-11.1333
inscrivent	-11.1333
Indre	-11.1333
gel	-11.1335
▁plantes	-11.1336
▁huitième	-11.1342
▁technologique	-11.1343
▁sé	-11.1346
▁Pascale	-11.1346
TEL	-11.1348
▁ROU	-11.1349
Anton	-11.1353
cho	-11.1354
/2022-09-	-11.1355
▁déposées	-11.1363
MES	-11.1367
▁vis	-11.1376
▁exploité	-11.138
▁salariale	-11.138
▁température	-11.138
▁conduisa	-11.138
▁payé	-11.138
▁avenants	-11.1382
çant	-11.1388
MENT	-11.139
enveloppe	-11.1393
ino	-11.1393
oyer	-11.1394
▁comportent	-11.1401
FP	-11.1402
▁221-1	-11.1404
olo	-11.1405
adjoint	-11.1408
▁direct	-11.1416
▁sujets	-11.1418
▁opératoire	-11.142
argent	-11.1425
Jules	-11.1426
▁nommées	-11.1426
▁examiné	-11.1428
SGCD	-11.1428
riat	-11.1432
▁perçues	-11.1432
lig	-11.1434
▁opérateur	-11.1434
éducateur	-11.1442
vie	-11.1444
▁désigner	-11.1446
▁pertes	-11.1447
ANO	-11.1458
NC	-11.146
▁proposées	-11.146
▁options	-11.1463
▁UC	-11.1467
▁consomm	-11.1473
arrivée	-11.1476
ray	-11.1481
▁milieux	-11.1481
DDT	-11.1487
▁on	-11.1492
▁spécialement	-11.1493
VAL	-11.1499
▁définir	-11.15
aides	-11.15
▁consultés	-11.15
▁Thérèse	-11.15
▁162-1	-11.1501
▁Sarah	-11.1503
rand	-11.1508
exige	-11.1511
▁Bel	-11.1514
émissions	-11.152
▁542	-11.1523
log	-11.1524
▁contingent	-11.1525
▁identique	-11.1525
▁primitif	-11.1525
▁traçabilité	-11.1525
Agathe	-11.1525
▁enfant	-11.1525
▁Civil	-11.1525
▁était	-11.1525
▁ouvrés	-11.1526
▁variation	-11.1528
▁COR	-11.153
▁CAS	-11.1533
▁adressés	-11.1534
▁Hubert	-11.1534
▁stock	-11.1535
▁remettre	-11.1536
ié	-11.1536
SSAN	-11.1537
▁fichier	-11.1539
infraction	-11.154
▁habituelle	-11.1543
▁situe	-11.1549
Bruno	-11.155
▁Alice	-11.1555
▁informer	-11.1555
ola	-11.1556
▁Benjamin	-11.1559
▁pertinent	-11.1564
▁exploitations	-11.1568
▁Groupe	-11.1569
idé	-11.1569
rot	-11.157
PIN	-11.1572
▁signalements	-11.1572
▁téléphonique	-11.1573
▁enquêtes	-11.1577
/2014	-11.1582
▁carrières	-11.1583
▁portion	-11.1589
▁policier	-11.1593
Bou	-11.1597
▁agence	-11.1598
▁indépendant	-11.1605
▁2026	-11.1607
▁vasculaire	-11.1607
rm	-11.1611
▁unitaire	-11.1614
enseigne	-11.1619
▁Moselle	-11.162
▁multiple	-11.1622
▁162-17	-11.1624
▁emprunts	-11.1624
▁facteurs	-11.1627
émie	-11.1633
▁variable	-11.1636
ève	-11.1645
▁14°	-11.1646
lla	-11.1648
▁sécurisée	-11.165
▁demandées	-11.1651
VER	-11.1653
ren	-11.1659
▁humains	-11.1663
▁grands	-11.1664
▁INRIA	-11.1665
▁absence	-11.1671
▁pratiquant	-11.1672
▁tabac	-11.1672
▁volonté	-11.1672
assesseur	-11.1672
▁Total	-11.1672
▁6152-3	-11.1672
▁actuellement	-11.1675
▁Delphine	-11.1678
▁Mathilde	-11.1683
aye	-11.1686
▁mécaniques	-11.169
Alice	-11.1691
▁communiqué	-11.1702
RIS	-11.171
elli	-11.1712
UF	-11.1714
index	-11.1715
spec	-11.1717
▁Béatrice	-11.1719
▁JO	-11.172
▁consultatif	-11.1721
▁recevant	-11.1721
▁élaboré	-11.1721
▁neurologie	-11.1721
▁remplissent	-11.1721
DIN	-11.1724
▁volumes	-11.1724
EV	-11.1728
▁intéressée	-11.1729
examens	-11.1729
▁demeurent	-11.1729
Benoit	-11.173
▁évalué	-11.1735
▁constatée	-11.1738
▁1996	-11.174
Flor	-11.174
Rapha	-11.1741
▁conjointe	-11.1743
Nota	-11.1743
▁statutaire	-11.1745
▁versements	-11.1745
PER	-11.1746
GEN	-11.1749
ITÉ	-11.1755
▁dû	-11.1761
rop	-11.1766
LÉ	-11.1767
▁nette	-11.1769
▁recueilli	-11.177
▁énumérées	-11.1771
▁oncologie	-11.1771
▁consulaires	-11.1773
▁impositions	-11.1773
▁forte	-11.1773
▁kg	-11.1774
partie	-11.1778
Julia	-11.1781
MONT	-11.1785
AFD	-11.1786
▁séquence	-11.1789
Benoît	-11.1792
gues	-11.1793
▁vérifié	-11.1794
ACC	-11.1796
VII	-11.1804
▁Seuls	-11.1808
SO	-11.1813
▁urbain	-11.1813
ouche	-11.1816
▁normal	-11.1816
▁artillerie	-11.1821
▁circulaire	-11.1821
▁trajet	-11.1821
éthique	-11.1821
▁Nature	-11.1821
▁Code	-11.1821
▁souten	-11.1821
Samuel	-11.1824
▁dangers	-11.1829
▁représenter	-11.1831
ession	-11.1831
▁311-1	-11.1833
Estelle	-11.1837
▁1980	-11.1841
▁514	-11.1843
qué	-11.1843
▁comprendre	-11.1844
tic	-11.1846
▁agréée	-11.1848
▁européens	-11.1849
▁souscrit	-11.1849
BEL	-11.1853
▁mail	-11.1856
▁créés	-11.1863
▁Pièce	-11.1871
▁SDAGE	-11.1871
▁rémunéré	-11.1871
▁Activ	-11.1874
▁délivrées	-11.1874
▁Représentant	-11.1875
▁séparé	-11.1876
départementale	-11.1877
▁composantes	-11.1877
▁Prise	-11.1877
▁événements	-11.1877
ographie	-11.1879
nais	-11.1881
▁garantis	-11.1881
▁allouée	-11.1882
5.1	-11.1887
▁conserver	-11.1891
▁ouvertes	-11.1894
▁servir	-11.1896
13-1	-11.1902
AIRES	-11.1903
▁lois	-11.1906
égi	-11.1908
▁exprimés	-11.191
mier	-11.1915
▁ressortissants	-11.1919
▁propriétaires	-11.192
▁Chorus	-11.1922
▁diagnostique	-11.1922
▁irrecevable	-11.1922
▁181	-11.1922
ld	-11.1924
▁rentrée	-11.1925
▁animale	-11.1926
6-4	-11.1934
▁Adrien	-11.1935
nage	-11.1937
ECOT	-11.1937
▁attestée	-11.194
▁barème	-11.1942
Mont	-11.1943
Simon	-11.1947
ements	-11.1948
dites	-11.1954
34009	-11.1956
▁indépendants	-11.1957
▁concernent	-11.1965
gh	-11.1966
22-7	-11.1969
arg	-11.1971
ENNE	-11.1972
soignant	-11.1972
▁Justice	-11.1972
▁anonyme	-11.1972
▁cautionnement	-11.1972
▁doctorat	-11.1972
▁prescripteur	-11.1972
▁banque	-11.1973
▁Voie	-11.1973
CNR	-11.1974
▁patrimoniales	-11.1976
apprentis	-11.1978
▁justifient	-11.198
▁porteurs	-11.1981
rim	-11.1982
igny	-11.1985
▁réponses	-11.1988
▁transferts	-11.1999
▁conserve	-11.2
REL	-11.2002
ELLI	-11.2003
kh	-11.2008
▁123-1	-11.2014
▁prononce	-11.2017
▁Mes	-11.202
▁surveillant	-11.2023
▁unilatérale	-11.2023
▁SIREN	-11.2023
▁avancé	-11.2023
▁standardisée	-11.2024
▁PARIS	-11.2026
▁réduite	-11.2029
▁liberté	-11.203
▁"64	-11.2032
nou	-11.2035
▁XI	-11.2036
▁confirm	-11.2038
▁Aurélie	-11.2041
▁améliorer	-11.205
otte	-11.2051
▁élément	-11.2052
UIS	-11.2053
OY	-11.2053
Bar	-11.2059
Nord	-11.2067
▁conclus	-11.2072
▁précédents	-11.2073
▁vérifie	-11.2075
Finistère	-11.2075
Morbihan	-11.2075
▁préparant	-11.2075
▁TITRE	-11.2075
▁conservent	-11.2079
▁instructions	-11.208
rier	-11.208
▁sources	-11.208
▁obtenues	-11.2085
cal	-11.2087
ssant	-11.2088
▁Réseau	-11.2091
▁courante	-11.2092
▁Orientation	-11.2092
▁terrains	-11.2095
▁volet	-11.2097
▁modalité	-11.2098
OND	-11.2099
▁613	-11.2107
▁HU	-11.2109
▁SCH	-11.2112
position	-11.2112
▁correspondants	-11.2113
sson	-11.2116
▁difficultés	-11.2116
QUET	-11.2117
vient	-11.2118
HT	-11.2121
▁Maître	-11.2126
▁Natura	-11.2126
▁remplissant	-11.2126
hn	-11.2128
▁laitière	-11.2129
vir	-11.2139
▁préfets	-11.2143
ANSM	-11.2144
yl	-11.2145
gli	-11.2146
▁sub	-11.215
▁BRU	-11.2151
lay	-11.2151
appuie	-11.2153
Cédric	-11.2154
recherche	-11.2155
Bouches	-11.2155
▁Léa	-11.2158
femme	-11.2159
vet	-11.2162
BER	-11.2162
▁MONT	-11.2163
gna	-11.2163
▁moteur	-11.2164
phon	-11.2175
▁Her	-11.2177
▁hydraulique	-11.2178
▁GAR	-11.2179
▁précision	-11.218
IF	-11.2183
▁prononcer	-11.2185
zone	-11.2188
▁antérieur	-11.2194
▁solliciter	-11.2196
technique	-11.2207
Nathalie	-11.2208
Catherine	-11.2208
▁Rapha	-11.2209
oit	-11.2216
600	-11.2217
VIII	-11.2221
olle	-11.2227
▁chimiques	-11.2229
/2022-07-3	-11.223
▁Données	-11.223
▁délégataire	-11.223
▁récupération	-11.223
▁Emile	-11.223
▁archives	-11.223
▁consolidation	-11.2231
▁quotidienne	-11.2232
▁revers	-11.2233
▁formulaires	-11.2234
▁dépendantes	-11.2234
▁assister	-11.2237
▁industriels	-11.2247
▁restreinte	-11.2251
ENER	-11.2252
▁Etienne	-11.2254
▁Pau	-11.2255
▁diplomatique	-11.2255
Corse	-11.2261
conformité	-11.2261
▁Michèle	-11.2261
Chef	-11.2261
▁changements	-11.2263
▁finale	-11.2266
8-2	-11.2273
Alain	-11.2275
CEE	-11.2276
éventuel	-11.2278
gramme	-11.228
mbre	-11.2282
Calvados	-11.2283
Gérald	-11.2283
Contrat	-11.2283
aliment	-11.2291
▁souhaitent	-11.2291
▁2.3.	-11.2292
FS	-11.2292
BDS	-11.2292
▁fixer	-11.2298
▁couvert	-11.2298
wa	-11.2301
0-2	-11.2303
ache	-11.2303
▁registres	-11.2304
▁communs	-11.2309
▁sollicités	-11.231
type	-11.2316
pal	-11.2316
NP	-11.2323
▁imposée	-11.2326
▁transmissions	-11.2329
▁spécifi	-11.2334
▁bibliothèques	-11.2335
Saclay	-11.2335
▁162-22-7	-11.2335
▁Adresse	-11.2342
▁Ham	-11.235
DD	-11.235
▁objets	-11.2353
TÉ	-11.2357
▁règle	-11.2357
oni	-11.2359
▁petite	-11.2362
▁documentaire	-11.2363
FT	-11.2364
▁distincte	-11.2365
10°	-11.2365
▁indiquées	-11.2366
▁formalités	-11.2367
Victor	-11.2368
▁appliquées	-11.2368
Franck	-11.2369
▁stratégiques	-11.2374
▁122-1	-11.2379
▁bénéficié	-11.2388
▁exécutoire	-11.2388
▁vigilance	-11.2388
▁Légion	-11.2388
▁micro	-11.2388
▁correspondent	-11.2396
▁pathologies	-11.2401
▁ports	-11.2406
métr	-11.2407
▁intranet	-11.2418
21-4	-11.2419
▁TRA	-11.2422
ILLON	-11.2425
▁AR	-11.243
▁95	-11.2437
▁Champ	-11.2437
incapacité	-11.2441
▁condamnation	-11.2441
▁préventive	-11.2441
▁mener	-11.2442
Isère	-11.2443
▁59,	-11.2446
▁15°	-11.2457
XX	-11.2459
▁redevance	-11.247
▁annuelles	-11.2471
▁mandats	-11.2474
▁approuvée	-11.2475
Isabelle	-11.2477
Fabien	-11.2477
ÉES	-11.2481
ida	-11.2482
▁canal	-11.2483
▁réduit	-11.2489
▁subordonnée	-11.249
lée	-11.2494
▁accessoires	-11.2495
▁réduire	-11.2495
5-8	-11.2499
▁formulées	-11.2499
çon	-11.2499
▁budgétaires	-11.2503
▁recueillies	-11.2505
comptable	-11.2509
IGP	-11.251
▁exclus	-11.2516
▁éventuelle	-11.252
▁Ag	-11.2521
▁créées	-11.2521
ILLA	-11.2524
dre	-11.2525
▁usages	-11.2534
▁temporaires	-11.2535
ONNE	-11.2539
In	-11.254
▁régulière	-11.2544
▁exercices	-11.2546
▁prononcées	-11.2548
▁hebdomadaire	-11.2548
▁compréhension	-11.2549
▁questionnaire	-11.2549
▁Roland	-11.2549
RS	-11.2558
▁donnés	-11.2563
▁réservé	-11.2563
▁saison	-11.2566
▁Marine	-11.257
▁autant	-11.2576
vingt	-11.2586
KA	-11.2586
▁Pyrénées	-11.2592
▁COL	-11.2592
DRE	-11.2593
Grégoire	-11.2603
▁intensive	-11.2603
▁orthopédique	-11.2603
▁poursuivre	-11.2603
impose	-11.2606
Hugues	-11.2609
▁meilleure	-11.2612
KI	-11.2619
▁"73	-11.2621
▁rapportant	-11.2624
▁spécialiste	-11.2635
NY	-11.2637
dier	-11.2638
inscrit	-11.2641
conseil	-11.2642
▁condamnée	-11.2644
▁Ko	-11.2652
Grégory	-11.2657
verbaux	-11.2657
▁dimension	-11.2657
▁plastique	-11.2657
▁suffrages	-11.2657
▁adolescents	-11.2661
▁rencontr	-11.2665
off	-11.2668
▁mutuelle	-11.267
ef	-11.2673
▁primes	-11.2677
▁formateurs	-11.2678
ING	-11.2679
▁repose	-11.2689
▁climatique	-11.269
pli	-11.2691
mann	-11.2693
Organisation	-11.2697
Yann	-11.2699
inclusion	-11.2703
▁BOUR	-11.2709
ACTIVITÉ	-11.2712
extinction	-11.2712
▁faculté	-11.2712
▁ophtalmologie	-11.2712
▁démontable	-11.2712
Meurthe	-11.2712
▁guide	-11.2712
Yannick	-11.2714
été	-11.2723
▁exercée	-11.2727
▁assortie	-11.2729
▁Spécialité	-11.2731
▁1998	-11.2731
ime	-11.2734
Loir	-11.2737
▁couverts	-11.2739
▁puni	-11.2741
▁gérés	-11.2742
▁pli	-11.2743
▁minimal	-11.2743
▁aéronef	-11.2744
▁intra	-11.2745
ISSE	-11.2748
▁indice	-11.2749
▁supérieures	-11.2749
èle	-11.2752
auto	-11.2752
identifier	-11.2752
▁représentés	-11.2753
▁accomplis	-11.2756
▁SERVICE	-11.2757
▁Petit	-11.2758
▁consignes	-11.276
▁131-1	-11.2761
ll	-11.2763
écri	-11.2765
épargne	-11.2766
▁déclarant	-11.2766
▁indéterminée	-11.2766
▁Mission	-11.2766
▁Pont	-11.2767
▁présidence	-11.2767
▁préavis	-11.2773
▁évolution	-11.2777
▁appliquée	-11.2782
▁déclarées	-11.2784
▁retenus	-11.2786
▁1962	-11.279
HOU	-11.2792
▁concour	-11.2795
▁Fabrice	-11.2796
atte	-11.2799
▁thème	-11.28
MET	-11.2807
▁confér	-11.2808
Christine	-11.2809
▁vacations	-11.2811
nutrition	-11.2818
imposition	-11.282
▁accrédité	-11.2822
▁dirigé	-11.2822
▁hépato	-11.2822
▁propagation	-11.2822
▁rénovation	-11.2822
▁remplit	-11.2826
XII	-11.2828
ena	-11.2836
▁Pou	-11.2837
▁fonctionnel	-11.2837
▁âgé	-11.2847
.6.	-11.2855
▁mécanique	-11.2857
bor	-11.2857
▁affectées	-11.2858
▁Bien	-11.2859
▁exigées	-11.2863
▁Gironde	-11.2865
exposé	-11.2865
Gabriel	-11.2866
ama	-11.2872
homme	-11.2874
▁coopérative	-11.2877
▁dimanche	-11.2877
▁gouvernance	-11.2877
▁mesurage	-11.2877
▁vacance	-11.2877
impression	-11.2878
ILLET	-11.288
▁avance	-11.2881
▁opéré	-11.2882
cq	-11.2886
▁(4)	-11.289
▁231	-11.2891
▁air	-11.2891
ROS	-11.2894
mel	-11.2896
▁Belle	-11.2897
JE	-11.2898
▁Cf	-11.2903
ENCE	-11.2904
▁infirmier	-11.2905
Art	-11.2905
▁mobilis	-11.2906
gon	-11.2906
elon	-11.291
▁Base	-11.2911
opérations	-11.2914
ral	-11.2918
Laboratoire	-11.2922
▁neuro	-11.2925
▁Audrey	-11.2926
éléments	-11.2926
▁accueilli	-11.2929
▁bataillon	-11.2933
▁hébergé	-11.2933
▁superficie	-11.2933
écran	-11.2933
▁associative	-11.2933
▁messagerie	-11.2934
▁immobilisations	-11.2934
▁retenu	-11.2934
équi	-11.2935
▁rétabli	-11.2938
IERE	-11.2941
Rémy	-11.2945
▁détenus	-11.296
▁condamnées	-11.2961
▁proposée	-11.2966
▁passé	-11.2968
▁formateur	-11.2973
▁Ti	-11.2975
12-7	-11.2978
immeuble	-11.2979
Christian	-11.2979
VEL	-11.2981
NS	-11.2984
CFDT	-11.2989
entérologie	-11.2989
▁expresse	-11.2989
▁sauvegarde	-11.2989
▁substitue	-11.2989
▁2241-8	-11.2989
▁froid	-11.299
Vu	-11.2993
▁lettres	-11.2997
rice	-11.3003
actualisation	-11.3005
nal	-11.3007
▁vaccin	-11.3011
NAT	-11.3013
▁réservés	-11.3014
▁1979	-11.3015
▁étapes	-11.3019
ban	-11.3021
▁Cou	-11.3021
▁250	-11.3023
▁demandent	-11.3024
▁Méditerranée	-11.3036
Amélie	-11.3036
recrutement	-11.3041
▁restitution	-11.3046
▁ruraux	-11.3046
▁destruction	-11.3046
▁dérogatoire	-11.3046
annonce	-11.3046
Bastien	-11.3046
▁piste	-11.305
▁XV	-11.3053
▁repos	-11.3059
▁RAEP	-11.3061
RAT	-11.3065
▁exigé	-11.3067
▁familial	-11.3067
installations	-11.3068
vol	-11.3075
otre	-11.308
loc	-11.3081
▁pourvus	-11.3085
▁respectent	-11.3086
▁seuils	-11.3087
▁décide	-11.3096
▁cinéma	-11.3103
acquérir	-11.3103
▁centralisateur	-11.3103
▁management	-11.3103
▁Gestion	-11.3103
armateur	-11.3103
▁amené	-11.3103
Aurore	-11.3104
▁contenus	-11.3107
▁révisé	-11.3112
ardin	-11.3118
HEN	-11.3128
900	-11.3133
antes	-11.3135
Var	-11.3138
bail	-11.3142
stre	-11.3154
arthrite	-11.3156
Orléans	-11.316
épidémie	-11.316
▁Objectif	-11.316
▁aménagé	-11.316
▁historiques	-11.316
▁incluant	-11.316
▁nominative	-11.316
▁pneumologie	-11.316
▁significative	-11.316
▁vache	-11.3161
▁Karine	-11.3166
intérêts	-11.3168
▁qualifiés	-11.3168
écl	-11.3169
▁poly	-11.3172
▁utilise	-11.3179
▁doté	-11.3184
▁1333-	-11.3189
JA	-11.3192
sco	-11.3193
bout	-11.3198
▁énergies	-11.3198
▁créance	-11.3201
ARI	-11.3205
PF	-11.3206
indiqué	-11.3211
appareil	-11.3215
▁Formation	-11.3217
▁combattants	-11.3217
▁contestation	-11.3217
▁contient	-11.3217
▁déléguer	-11.3217
▁développé	-11.3217
▁renforcer	-11.3217
▁déterminant	-11.3217
sous	-11.3218
▁convenu	-11.3218
▁14-10-	-11.3221
▁tonnes	-11.3226
▁quant	-11.3229
▁élevée	-11.3234
▁Léon	-11.3235
administrateurs	-11.3238
▁1999	-11.3239
▁savoirs	-11.324
▁Carole	-11.3244
▁coordonne	-11.3248
▁Syndicat	-11.3249
▁2027	-11.3253
▁Elise	-11.3253
▁anticipée	-11.3258
tori	-11.326
▁sportifs	-11.3265
Damien	-11.327
aba	-11.3272
formation	-11.3273
asthme	-11.3275
éclairage	-11.3275
▁engins	-11.3275
Henry	-11.3275
▁Limite	-11.3275
▁planification	-11.3278
zon	-11.3278
▁boue	-11.3279
ith	-11.328
jo	-11.3281
PRMG	-11.3283
quin	-11.3284
onnet	-11.3284
▁réanimation	-11.3286
llant	-11.3287
▁réutilisation	-11.3291
▁Sainte	-11.3298
▁1976	-11.3298
▁échec	-11.3301
▁capitalisables	-11.3307
▁Man	-11.3309
Four	-11.3312
4.1	-11.3313
▁municipale	-11.3318
▁saisir	-11.3322
▁peu	-11.3323
▁immeuble	-11.3326
6-5	-11.3326
▁visuelle	-11.3327
avocat	-11.3329
atoire	-11.3329
Bernard	-11.3329
VES	-11.333
▁correspondante	-11.3331
Myriam	-11.3333
▁recyclage	-11.3333
▁desquels	-11.3333
▁intégralement	-11.3333
▁décharge	-11.3334
▁reversement	-11.3334
▁dixième	-11.3334
▁précisés	-11.3336
▁manuel	-11.3337
▁blocs	-11.334
ETTE	-11.3342
gre	-11.3346
urne	-11.3348
/2022-10	-11.335
▁Tour	-11.3356
▁additionnel	-11.3358
▁contenue	-11.3359
Bois	-11.3359
ssemblée	-11.336
voi	-11.336
▁411-1	-11.3362
code	-11.3363
▁PAC	-11.3368
ik	-11.3379
▁couple	-11.338
▁PROFESSIONNEL	-11.3381
▁FER	-11.3383
José	-11.3385
Aurélie	-11.3386
ingénierie	-11.3388
Sylvain	-11.3389
Arcueil	-11.3392
▁conflit	-11.3392
attachés	-11.3393
▁Dotation	-11.3395
élèves	-11.3395
▁Traitement	-11.3395
NG	-11.3402
▁participants	-11.3407
▁Jan	-11.3408
▁pathologie	-11.3412
▁respectant	-11.3414
▁aéronautiques	-11.3415
▁Marguerite	-11.3419
vert	-11.3423
ek	-11.3424
▁électorale	-11.3424
▁...	-11.3428
▁musées	-11.3433
▁214-1	-11.3435
ica	-11.3436
EAUX	-11.3442
▁homologation	-11.3442
▁Ger	-11.3445
▁intermédiaires	-11.3445
▁pan	-11.3446
employé	-11.3448
Céline	-11.3449
ambulancier	-11.3451
insaisissabilité	-11.3451
▁Evaluation	-11.3451
▁réflexion	-11.3451
▁couleur	-11.3451
▁servant	-11.3451
COU	-11.3457
▁démarches	-11.3459
fection	-11.3461
▁commandes	-11.3461
agir	-11.3471
quer	-11.3476
gan	-11.3481
▁alimentaires	-11.3481
▁sélectionn	-11.3482
▁rattaché	-11.3483
CQ	-11.3486
▁Do	-11.3486
OFF	-11.3488
ssez	-11.3489
▁possibilités	-11.349
iii	-11.3492
▁Denise	-11.35
associé	-11.3509
interprétation	-11.351
▁déduction	-11.351
▁marquage	-11.351
▁navigant	-11.351
▁octroyé	-11.351
▁rapide	-11.351
▁contribuer	-11.351
émetteur	-11.3514
▁majeurs	-11.3517
▁suspendu	-11.352
cept	-11.3524
▁subir	-11.353
▁mobiliser	-11.3532
▁votée	-11.3535
issa	-11.3536
▁vin	-11.3537
▁insaisissables	-11.3537
MIN	-11.3542
TTE	-11.3543
▁identité	-11.3544
priseur	-11.3544
usager	-11.3544
ech	-11.3549
▁fournies	-11.3555
lic	-11.3558
▁Cro	-11.3559
▁suffisant	-11.3562
▁délimité	-11.3565
recrute	-11.3565
▁Annexes	-11.3568
▁standard	-11.3569
emprisonnement	-11.3569
▁délibérative	-11.3569
Alsace	-11.3569
▁prévisible	-11.3569
▁constatées	-11.357
▁faune	-11.357
vic	-11.3576
▁table	-11.3579
▁entrera	-11.3584
▁MOU	-11.3586
▁Sciences	-11.3586
▁navigables	-11.359
▁présentés	-11.3591
métrique	-11.3594
▁renouvelée	-11.3602
▁imparti	-11.3614
▁fréquence	-11.3617
▁confiance	-11.3629
▁raccordé	-11.3629
▁loisirs	-11.363
▁Zone	-11.363
ATIONS	-11.3631
ites	-11.3632
▁devenue	-11.3634
abi	-11.3635
bé	-11.3637
LY	-11.3637
ALA	-11.3638
▁traitées	-11.3641
▁employeur	-11.3642
alisation	-11.3649
▁2022-8	-11.3652
▁auxiliaire	-11.3655
▁renvoyé	-11.3668
▁psychologique	-11.367
AIR	-11.3671
▁similaires	-11.3679
▁actif	-11.3684
▁GH	-11.3685
instrument	-11.3687
autoroute	-11.3687
▁mouvements	-11.3689
Jérémy	-11.3689
▁Blessé	-11.3689
▁effectuant	-11.3689
▁téléchargeable	-11.3689
▁machine	-11.3689
▁diffuse	-11.3689
▁prospective	-11.369
▁tendant	-11.369
▁contrepartie	-11.3692
▁extérieures	-11.3693
Pa	-11.3693
Je	-11.3694
ATI	-11.3698
▁Edouard	-11.3703
▁mené	-11.3705
▁terrestres	-11.3706
▁fiches	-11.3709
▁redevances	-11.3718
▁psychologues	-11.3718
usse	-11.3721
▁"72	-11.3727
▁Cam	-11.3729
▁541-1	-11.373
▁éducateur	-11.3732
ast	-11.3733
/2022-01-	-11.3734
▁communautaire	-11.3737
▁écarts	-11.3745
isolement	-11.375
Nathan	-11.3751
▁San	-11.3759
▁Charente	-11.3762
▁débiteur	-11.3764
fic	-11.3765
▁411-2	-11.377
ost	-11.377
RAN	-11.3777
▁surfaces	-11.3779
▁Blanc	-11.3785
▁consommateur	-11.3802
▁ARMÉE	-11.3802
Car	-11.3806
▁2022-9	-11.3808
▁Richard	-11.381
importation	-11.3811
▁Adjoint	-11.3811
▁Créteil	-11.3811
▁AFIS	-11.3811
▁photocopie	-11.3811
▁recto	-11.3811
▁appliquer	-11.3812
▁Tableau	-11.3812
tran	-11.3812
▁appareils	-11.3813
Guadeloupe	-11.3816
corps	-11.3816
▁large	-11.3819
▁THO	-11.3822
pha	-11.3825
Lisa	-11.3826
cart	-11.3827
COM	-11.3839
▁créer	-11.3841
zin	-11.3841
▁EDF	-11.3849
▁adéquat	-11.3851
▁habilitées	-11.3851
▁naturelles	-11.3852
▁ARTICLE	-11.3856
▁constatés	-11.3856
arme	-11.3856
▁technologiques	-11.3858
faire	-11.3858
▁SY	-11.3859
▁filières	-11.3862
CON	-11.3864
léments	-11.3867
▁considérés	-11.3867
▁identifier	-11.3869
ouvrier	-11.387
insuline	-11.3872
▁alphabétique	-11.3872
▁consécutive	-11.3872
▁copropriété	-11.3872
▁revalorisation	-11.3872
▁volailles	-11.3872
▁chasse	-11.3874
6-6	-11.3875
composantes	-11.3876
▁pénales	-11.3877
▁Fondation	-11.3878
tribunaux	-11.3878
▁aérodromes	-11.3879
nti	-11.3882
▁informés	-11.3887
ski	-11.3888
▁Coefficient	-11.3893
3.1	-11.3902
▁contrôlé	-11.3906
▁syndicat	-11.3908
▁blanc	-11.3911
▁Fre	-11.3917
issant	-11.3921
▁For	-11.3923
èse	-11.3929
▁AB	-11.393
▁731	-11.3932
NARD	-11.3934
▁défaillance	-11.3934
▁réalisant	-11.3934
▁traumatologique	-11.3934
▁flore	-11.3934
▁énoncées	-11.3934
▁civique	-11.3934
Acheteur	-11.3934
douane	-11.3935
Armor	-11.3936
nay	-11.3939
▁remplace	-11.3939
▁levée	-11.3939
▁KA	-11.3941
▁issu	-11.3953
▁Gir	-11.3956
liste	-11.3957
▁6111	-11.3957
IDE	-11.3963
▁convoqués	-11.397
▁réelle	-11.3971
▁Et	-11.3982
ORI	-11.3982
▁VAL	-11.3984
▁"5.	-11.3985
▁principalement	-11.3985
▁Fort	-11.3985
7-5	-11.3989
ko	-11.3991
▁PC	-11.3992
▁proclam	-11.3996
observance	-11.3996
▁Fernand	-11.3996
▁agrégé	-11.3996
▁dermatologie	-11.3996
▁possession	-11.3996
▁préfectoral	-11.3996
▁transparence	-11.3996
▁déficit	-11.3996
reau	-11.4001
▁Puy	-11.4003
éga	-11.4005
ERS	-11.4008
▁...)	-11.4009
▁antérieurement	-11.4012
▁Fabien	-11.4016
TY	-11.402
REAU	-11.4023
▁amont	-11.4026
TREP	-11.4037
apprécie	-11.4039
▁fédérations	-11.404
▁Maria	-11.4044
▁automobile	-11.4045
▁source	-11.4052
▁conservateur	-11.4059
▁vieillesse	-11.4059
▁Critère	-11.4059
▁National	-11.4061
▁certifi	-11.4068
homologation	-11.4068
▁organiser	-11.4068
▁longueur	-11.407
▁fréquences	-11.4071
▁suffisante	-11.4072
▁Gi	-11.4073
écart	-11.4073
ète	-11.4073
mul	-11.4073
annulation	-11.4074
Bo	-11.4087
▁ép	-11.4088
ède	-11.409
▁demandeurs	-11.4092
bach	-11.4102
uschwi	-11.411
▁institut	-11.4112
▁partenariats	-11.4113
architecte	-11.4121
▁médias	-11.4121
gui	-11.4125
Elodie	-11.4132
équipage	-11.4132
Didier	-11.4132
▁120	-11.4132
met	-11.4136
▁Bal	-11.4136
MANN	-11.4137
▁culturelle	-11.4138
▁matérielles	-11.4147
Morgane	-11.4148
▁événement	-11.4148
rist	-11.4148
ella	-11.4151
▁FL	-11.4153
▁diplomatiques	-11.4154
MENE	-11.416
OLI	-11.4166
NAUD	-11.4174
ell	-11.4174
▁neuvième	-11.4179
▁photo	-11.4184
▁aquatique	-11.4185
▁comprimé	-11.4185
▁dépouillement	-11.4185
▁habitants	-11.4185
▁hybride	-11.4185
▁immunologie	-11.4185
▁transversale	-11.4185
▁violence	-11.4185
assiette	-11.4186
▁concentration	-11.4186
▁CRE	-11.4187
▁Alexis	-11.4187
estimation	-11.4189
▁Roche	-11.4191
▁environ	-11.4195
Magali	-11.4197
adresser	-11.4198
associations	-11.4202
OUSS	-11.4204
▁Yann	-11.4206
ague	-11.4207
GES	-11.4212
élé	-11.4213
▁Geneviève	-11.4217
pét	-11.4218
AVE	-11.4221
▁Pri	-11.4222
▁faute	-11.4224
▁réemploi	-11.4235
CHET	-11.4236
▁équivalentes	-11.4236
▁routiers	-11.424
uch	-11.4246
▁opérationnels	-11.4247
instructeur	-11.4248
▁Suzanne	-11.4248
▁intégrant	-11.4248
Laetitia	-11.4249
▁provenan	-11.4249
-9,	-11.425
▁professionnalis	-11.425
▁manœuvr	-11.4251
▁prorat	-11.4251
500	-11.426
RR	-11.4261
titulaire	-11.4262
ick	-11.4263
▁Marion	-11.4264
▁TOU	-11.4268
▁promus	-11.4271
KO	-11.4275
▁Magistrate	-11.4276
▁1977	-11.4277
▁communiquée	-11.4279
▁logiciels	-11.4292
Vi	-11.4294
▁traités	-11.4301
▁approuvées	-11.4303
▁systémiques	-11.4303
▁indirecte	-11.431
▁indiqués	-11.431
agglomération	-11.4313
expédition	-11.4313
▁médiateur	-11.4313
▁télépéage	-11.4313
▁bateaux	-11.4314
Doubs	-11.4315
uge	-11.4316
▁intervenue	-11.4316
▁Bre	-11.4318
logue	-11.4321
▁Gou	-11.4326
▁offres	-11.4329
Maine	-11.4335
cale	-11.4342
aj	-11.4342
▁licences	-11.4354
gne	-11.4356
▁constate	-11.4357
THE	-11.4357
▁apporte	-11.4364
▁Can	-11.4365
emprunt	-11.437
▁systématique	-11.4374
▁classifiés	-11.4374
▁phases	-11.4376
lli	-11.4376
▁certifiés	-11.4376
▁carbone	-11.4377
▁couvre	-11.4377
▁idiopathique	-11.4377
▁récépissé	-11.4377
▁énumérés	-11.4377
jonction	-11.4377
▁fermeture	-11.4377
▁RCP	-11.4378
▁confirmation	-11.4381
▁formulée	-11.4382
ate	-11.4383
▁feux	-11.4384
insuffisance	-11.4386
ENH	-11.439
has	-11.439
fip	-11.4391
Président	-11.4393
▁honoraires	-11.4395
▁124	-11.4396
ALY	-11.4404
▁Cédric	-11.4407
▁coordonnateurs	-11.4408
uelle	-11.4412
▁préparatoires	-11.4412
▁adressent	-11.4413
ç	-11.4421
heures	-11.4423
Atlantiques	-11.4425
Lou	-11.4426
▁Corinne	-11.4433
▁UN	-11.4434
itre	-11.4439
▁Ernest	-11.4442
embryon	-11.4442
▁NOTARIAL	-11.4442
▁centraux	-11.4442
▁complexe	-11.4442
▁radioactifs	-11.4442
▁Professionnelle	-11.4442
Vendée	-11.4442
▁télécopie	-11.4442
▁serre	-11.4443
▁installée	-11.4448
▁pacte	-11.4449
SSAH	-11.4449
Del	-11.445
finances	-11.4459
lieu	-11.446
.2.1.	-11.446
ROT	-11.4462
▁Tri	-11.4469
▁extérieurs	-11.4472
1.1	-11.4473
▁prolongée	-11.4473
Centre	-11.4475
mane	-11.4477
▁permanents	-11.4479
▁infraction	-11.4482
▁constatations	-11.4487
▁clé	-11.4488
▁acceptés	-11.449
graphique	-11.4495
▁insuffisa	-11.4496
orm	-11.4503
▁bateau	-11.4506
FranceAgriMer	-11.4507
▁Département	-11.4507
▁commerciaux	-11.4507
▁cultivées	-11.4507
▁fourrage	-11.4507
▁naturalisation	-11.4507
▁spécifications	-11.4507
▁coulée	-11.4508
▁consulaire	-11.451
ITE	-11.4512
▁conservatoire	-11.4513
▁Tarif	-11.4516
▁provisions	-11.4522
▁pluri	-11.4523
aéronautique	-11.4526
▁BEAU	-11.4532
▁reçues	-11.4533
ASSE	-11.4536
RAND	-11.4537
▁Cre	-11.4539
DEL	-11.4544
▁modéré	-11.4553
El	-11.4557
IQUES	-11.4561
▁engagées	-11.4564
fond	-11.4569
▁exclusive	-11.4571
ria	-11.4572
appartenance	-11.4573
▁Signature	-11.4573
▁citoyen	-11.4573
▁diplômé	-11.4573
▁débarquement	-11.4573
▁glace	-11.4573
▁grâce	-11.4573
▁métallurgiques	-11.4573
▁redevable	-11.4573
▁semences	-11.4573
▁stationnement	-11.4573
▁mouvement	-11.4573
aéroport	-11.4573
Aisne	-11.4573
CGC	-11.4576
▁commissariat	-11.4577
▁statue	-11.458
CCL	-11.4594
▁incident	-11.4598
▁Q	-11.4607
Bri	-11.4613
JOU	-11.463
▁Général	-11.4639
authentification	-11.4639
▁administré	-11.4639
▁cardiaque	-11.4639
▁diligence	-11.4639
▁intègre	-11.4639
▁synthétique	-11.4639
amiante	-11.4639
▁dangereuses	-11.4639
▁transitoire	-11.464
▁notion	-11.4641
▁routes	-11.4644
▁huissiers	-11.4647
▁compose	-11.4647
ava	-11.4648
▁justifiée	-11.4649
▁332-2	-11.4651
adhérent	-11.4651
▁liquides	-11.4652
▁Ros	-11.4655
Robin	-11.4658
▁pont	-11.4661
ECH	-11.4661
Florence	-11.4661
▁Christiane	-11.4661
organiser	-11.4662
▁perçue	-11.4663
▁Christelle	-11.4666
▁Ju	-11.4672
▁SOU	-11.4676
ow	-11.4678
▁instituées	-11.4681
11°	-11.4687
▁Chantal	-11.4689
▁Coll	-11.4692
tron	-11.4704
▁prévision	-11.4705
Vaucluse	-11.4706
amortissement	-11.4706
▁digestive	-11.4706
Essonne	-11.4706
▁photographie	-11.4706
interruption	-11.4707
▁chimique	-11.4708
▁coll	-11.4709
DIER	-11.4709
elui	-11.4709
▁mieux	-11.4709
▁envisage	-11.4712
Liban	-11.4714
ANN	-11.4717
/2013	-11.4719
SANT	-11.472
▁Gre	-11.4723
▁autour	-11.4726
▁critère	-11.4727
Valérie	-11.4728
▁Ana	-11.4729
abord	-11.4732
LOT	-11.4736
ala	-11.4737
▁réclamations	-11.474
ILLARD	-11.4751
▁On	-11.4753
TREA	-11.4757
ENI	-11.4763
oncernant	-11.4766
▁maintenue	-11.4772
▁RELATIVE	-11.4773
▁aéroportuaire	-11.4773
▁biogaz	-11.4773
▁corvette	-11.4773
▁gestationnel	-11.4773
▁reclassement	-11.4773
▁clos	-11.4775
▁annulée	-11.4775
▁renvoi	-11.4776
Jeanne	-11.4778
▁marques	-11.4786
11-5	-11.4787
inaptitude	-11.4787
SIEC	-11.479
▁communiquées	-11.479
Do	-11.4792
▁attend	-11.4794
Bertrand	-11.4797
▁traiter	-11.4798
▁réelles	-11.48
ème	-11.4801
▁invités	-11.4801
▁1942	-11.4803
▁débats	-11.4803
▁aspirant	-11.4804
▁certifié	-11.4805
▁MON	-11.4805
▁validée	-11.4805
▁641	-11.481
▁122-2	-11.4818
SION	-11.4818
issi	-11.483
▁détenteurs	-11.4833
▁permettra	-11.4834
▁1.1.	-11.4834
rel	-11.4838
examinateur	-11.4838
▁comptabilisé	-11.4841
▁rectificative	-11.4841
▁servitudes	-11.4841
▁ambassadeur	-11.4841
▁Médecine	-11.4841
▁cible	-11.4841
▁payer	-11.4844
▁mairie	-11.4846
▁enquête	-11.4848
▁menées	-11.4851
▁motivé	-11.4859
▁400	-11.4861
Service	-11.4866
▁Matthieu	-11.4866
pens	-11.4872
attester	-11.4874
▁forfaits	-11.4876
SN	-11.4876
avec	-11.4878
hydro	-11.4878
▁dentaire	-11.4879
Stratégique	-11.4909
attractivité	-11.4909
▁Catégorie	-11.4909
▁Vaccination	-11.4909
▁fluvial	-11.4909
▁intensifs	-11.4909
▁littoral	-11.4909
▁pollution	-11.4909
▁respiratoire	-11.4909
▁stable	-11.4909
▁voyageurs	-11.491
▁Guer	-11.491
huile	-11.4911
▁communal	-11.4911
▁immobilière	-11.4913
▁compatible	-11.4914
Solène	-11.4914
TIF	-11.4914
logie	-11.4917
▁Opération	-11.4918
▁cotation	-11.4919
dine	-11.4922
▁invalidité	-11.4924
Eva	-11.4924
SAPE	-11.4929
MON	-11.493
▁estimé	-11.4932
augmentation	-11.4935
EDF	-11.4935
▁envisagée	-11.4936
▁Simone	-11.4936
▁partagé	-11.4936
▁Har	-11.494
arrière	-11.4941
▁accompagnées	-11.496
▁nul	-11.4966
UY	-11.4973
▁GOU	-11.4975
Jonathan	-11.4977
couvrant	-11.4977
▁Garantie	-11.4977
▁approuvant	-11.4977
▁monnaie	-11.4977
▁filiale	-11.4977
Micka	-11.4978
bois	-11.4979
▁renforcé	-11.4979
▁chimie	-11.4982
Substitute	-11.4983
▁contractantes	-11.4985
LOG	-11.4985
▁échelons	-11.4989
▁Laboratoire	-11.4991
▁composante	-11.4992
PC	-11.4995
▁réparties	-11.4998
identifiant	-11.5005
Elise	-11.5005
OIRE	-11.5006
ILI	-11.5009
▁1945	-11.501
GT	-11.5017
obi	-11.5018
▁parvenir	-11.5019
▁astreinte	-11.5022
▁manquements	-11.5031
12-4	-11.5037
VIN	-11.5043
trice	-11.5043
▁effluents	-11.5046
▁indispensable	-11.5046
▁licenciement	-11.5046
Constance	-11.5046
▁master	-11.5046
Char	-11.5048
▁543-2	-11.505
experts	-11.505
▁ouvre	-11.5052
▁Damien	-11.5053
Sarthe	-11.5053
OUD	-11.5061
forme	-11.5067
Concours	-11.5076
ainsi	-11.5077
▁VAN	-11.5084
essais	-11.5087
AST	-11.5088
(1)	-11.509
ettre	-11.5095
ÉE	-11.5097
▁alloué	-11.51
▁FORMATION	-11.5109
▁(5)	-11.511
12-5	-11.5111
ivacaftor	-11.5116
Lorraine	-11.5116
Thibaut	-11.5116
▁2016/679	-11.5116
▁descriptif	-11.5116
▁démonstration	-11.5116
▁zéro	-11.5116
▁Italie	-11.5116
Amandine	-11.5116
ANGE	-11.5116
▁SIRET	-11.5117
▁passeport	-11.5117
▁serment	-11.5117
▁bande	-11.5117
▁envisagées	-11.5118
ial	-11.512
▁combustible	-11.5123
▁académies	-11.5127
willer	-11.5129
▁histo	-11.5134
▁climatiques	-11.5146
Terre	-11.515
▁psycho	-11.515
▁brute	-11.5157
▁Dou	-11.5161
▁accomplir	-11.5165
▁problèmes	-11.5177
▁écart	-11.5181
INSEE	-11.5186
Joséphine	-11.5186
▁comparaison	-11.5186
▁douzième	-11.5186
▁négatif	-11.5186
▁petits	-11.5186
Margot	-11.5186
▁acquise	-11.5187
▁apparaître	-11.5187
▁spécialisation	-11.5189
DRH	-11.5191
▁94-6	-11.5192
▁filet	-11.5192
▁problème	-11.5194
▁assimilé	-11.5195
▁commis	-11.5198
Pas	-11.5199
▁nominale	-11.5204
événement	-11.5218
Fabrice	-11.5218
Section	-11.5218
▁agente	-11.522
▁Seule	-11.5231
▁perçus	-11.5232
aucune	-11.5234
ouch	-11.5238
▁302	-11.5244
RAY	-11.5246
udi	-11.525
▁acquitté	-11.5256
▁criminel	-11.5256
▁régulier	-11.5256
William	-11.5256
▁commentaire	-11.5256
▁Certificat	-11.5257
▁BAP	-11.5259
▁gouvernement	-11.5262
▁collaborateur	-11.5263
009	-11.5264
▁importante	-11.5265
▁entité	-11.528
acteur	-11.5281
▁notifier	-11.5284
engagent	-11.5284
LLO	-11.5287
ICH	-11.5287
▁162-22	-11.5289
Rémi	-11.529
commissaire	-11.529
construction	-11.529
AZA	-11.5294
▁126	-11.5301
COURT	-11.5304
édic	-11.5305
0000	-11.5308
▁Anna	-11.5308
gor	-11.531
Con	-11.5311
org	-11.5319
▁empêch	-11.5324
donnent	-11.5324
hypothèse	-11.5325
cid	-11.5325
▁commence	-11.5327
HUISSIER	-11.5327
imprimer	-11.5327
▁Gustave	-11.5327
▁boulevard	-11.5327
▁circuit	-11.5327
▁sergent	-11.5327
ÉTAT	-11.5327
▁lecture	-11.5327
▁usées	-11.5327
▁muté	-11.5327
▁foyer	-11.5329
▁Rose	-11.533
Sandra	-11.533
product	-11.5331
▁Groupement	-11.5334
▁BRI	-11.5334
7-4	-11.5335
▁systémique	-11.5337
▁The	-11.5339
▁respective	-11.5341
▁susviséest	-11.5346
▁Outre	-11.5351
▁choisis	-11.5353
▁certifiée	-11.5355
MAT	-11.5362
gy	-11.5364
we	-11.5364
illi	-11.5376
▁directs	-11.538
▁162-3	-11.5381
Clémentine	-11.5383
Fait	-11.5384
▁clauses	-11.5388
▁impliqué	-11.5398
▁Définition	-11.5398
▁légère	-11.5398
▁milliard	-11.5398
▁plainte	-11.5398
▁positif	-11.5398
▁recourir	-11.5398
▁réservation	-11.5398
▁siéger	-11.5398
▁notation	-11.5399
▁242-7	-11.5399
▁couvrir	-11.5402
▁répondent	-11.5402
▁détachés	-11.5404
▁dépassement	-11.5404
▁Maison	-11.5404
ALES	-11.5405
ICE	-11.5407
Océane	-11.5407
▁jeune	-11.5412
▁initiative	-11.5412
▁RH	-11.5413
200	-11.5416
cot	-11.5417
▁Alexandra	-11.5419
struc	-11.542
▁complét	-11.5424
▁1995	-11.5425
▁fonctionnels	-11.5426
▁1971	-11.5426
page	-11.5435
utiliser	-11.5435
suppléant	-11.5435
ncer	-11.5437
ado	-11.5443
HIER	-11.5444
▁parcs	-11.5446
▁gain	-11.5447
▁Française	-11.5465
mus	-11.5466
▁2022-12	-11.5468
▁Trans	-11.547
▁thématiques	-11.547
▁Chirurgie	-11.547
▁compatibilité	-11.547
▁planning	-11.547
▁nautique	-11.547
▁Musée	-11.5471
▁équivalences	-11.5475
▁classifiées	-11.5475
▁antérieures	-11.5477
.2.3.	-11.5478
den	-11.5478
▁Conseiller	-11.5482
▁Amélie	-11.5482
JUST	-11.5487
tta	-11.5495
▁finalités	-11.5499
vu	-11.5499
▁seulement	-11.5501
ivre	-11.5502
Fa	-11.5507
CHON	-11.5508
OG	-11.5509
2.1	-11.5509
Daniel	-11.5509
opér	-11.5511
▁institution	-11.5519
4-9	-11.5519
▁CLA	-11.5523
Valentine	-11.5524
▁douaniers	-11.5526
IRA	-11.5527
▁rectorat	-11.553
▁Elodie	-11.5531
NEAU	-11.5533
▁revêt	-11.5535
sset	-11.5536
procureure	-11.5537
AGR	-11.5539
▁sang	-11.5541
▁collectées	-11.5543
▁succès	-11.5543
hôtel	-11.5543
▁litige	-11.5543
▁navale	-11.5544
Orient	-11.5544
▁médicamenteux	-11.5545
entend	-11.5547
Cyrille	-11.5549
DEC	-11.555
508	-11.5551
▁Za	-11.5555
▁conférence	-11.556
activation	-11.5564
▁postérieur	-11.5565
hor	-11.5566
▁Fanny	-11.5567
▁semi	-11.5567
lette	-11.5568
nondations	-11.5572
7.6	-11.5573
ennes	-11.5573
▁Guill	-11.5574
▁figurer	-11.5575
omie	-11.5578
NAV	-11.5582
▁arrondi	-11.5582
▁servi	-11.5582
échec	-11.5583
Henri	-11.5583
▁contrôler	-11.5586
▁GRA	-11.5588
accompagne	-11.5602
Avant	-11.5604
▁émet	-11.5612
/2022-08-3	-11.5616
▁JUSTICE	-11.5616
▁conçu	-11.5616
▁différend	-11.5616
▁dérivé	-11.5616
▁linguistique	-11.5616
ÉDUCATION	-11.5616
Orientales	-11.5616
▁CMG	-11.5616
▁Emplois	-11.5618
▁chien	-11.5618
PIERRE	-11.5621
▁212-1	-11.5622
efficience	-11.5624
▁HAS	-11.563
▁difficulté	-11.5631
▁JEAN	-11.5633
▁mort	-11.5635
▁engagée	-11.5643
▁Sauf	-11.5643
▁complets	-11.5644
▁choisir	-11.5653
lieutenant	-11.5658
▁conclure	-11.5659
Huissiers	-11.5662
▁314-1	-11.5664
▁mobiles	-11.5665
ROUX	-11.5669
▁Frédérique	-11.5677
▁déclare	-11.5682
George	-11.5687
▁rendue	-11.5687
▁priorités	-11.5688
zy	-11.5689
comptables	-11.5689
exactitude	-11.5689
▁navigabilité	-11.5689
▁personnalisé	-11.5689
▁viscérale	-11.5689
▁prorogé	-11.5689
▁remontée	-11.5689
▁6232-1	-11.5689
ommercialisation	-11.569
▁dangereux	-11.569
dépendance	-11.5691
▁Thi	-11.5692
Aux	-11.5692
▁351-1	-11.5702
ANE	-11.5702
▁décrite	-11.5702
gno	-11.5705
▁feu	-11.5714
▁critiques	-11.5722
▁Aline	-11.5731
▁1997	-11.5732
▁associ	-11.575
modalit	-11.575
ÉRI	-11.5752
▁Système	-11.5763
▁chaude	-11.5763
▁latérales	-11.5763
▁maquette	-11.5763
▁poursuivi	-11.5763
▁regroupement	-11.5763
▁téléchargement	-11.5763
▁vitae	-11.5763
▁ultérieure	-11.5765
ANAH	-11.5766
▁huissière	-11.5768
prêté	-11.5773
▁occurrences	-11.5775
▁invalid	-11.5788
▁signalé	-11.5793
▁repris	-11.5799
▁cardio	-11.5806
▁CODE	-11.5807
incident	-11.5808
Hervé	-11.5808
▁333	-11.5811
LAR	-11.5835
▁identifié	-11.5837
23-8	-11.5837
accessibilité	-11.5838
▁curriculum	-11.5838
▁nominatif	-11.5838
▁spectacle	-11.5838
▁terrorisme	-11.5838
▁comparable	-11.5838
Pontoise	-11.5838
▁virement	-11.5838
PTP	-11.5838
▁essentielle	-11.5839
▁tarifaires	-11.5839
▁dématérialisé	-11.584
ALLE	-11.5841
▁grammes	-11.5841
▁mobilisation	-11.5842
POV	-11.5845
▁Somme	-11.5846
▁conducteurs	-11.5848
▁urbaine	-11.5849
soit	-11.5852
▁élue	-11.5856
▁professeure	-11.5857
Johann	-11.586
▁mètre	-11.5862
▁Bra	-11.5863
NEL	-11.5865
▁Sam	-11.5865
DECO	-11.5874
laine	-11.5875
nf	-11.5877
▁barèmes	-11.5883
▁représenté	-11.5884
améliorer	-11.5885
Santé	-11.5886
Qu	-11.589
OZ	-11.5894
(2)	-11.5899
▁engagés	-11.59
▁interrégion	-11.5909
ONE	-11.5911
▁contr	-11.5913
EHPAD	-11.5913
▁6123-9	-11.5913
▁chances	-11.5913
▁dispensation	-11.5913
▁générique	-11.5913
▁inadéquate	-11.5913
▁mobilier	-11.5913
▁sauvetage	-11.5913
▁listés	-11.5913
▁menace	-11.5913
▁biais	-11.5913
▁amiable	-11.5913
Marianne	-11.5913
▁Nadine	-11.5913
▁résidentiel	-11.5914
▁annulés	-11.5914
gro	-11.5914
▁ingénierie	-11.5917
oz	-11.5918
▁SPORT	-11.592
DIC	-11.592
▁Florent	-11.5921
▁apporté	-11.5922
▁vert	-11.5924
▁ciblée	-11.593
▁Mesure	-11.5938
indépendance	-11.5939
Ri	-11.5939
▁6122-	-11.5942
▁spécialistes	-11.5946
▁GIP	-11.5953
emballages	-11.5956
ifier	-11.5959
▁correctives	-11.5963
2020	-11.5969
▁institutionnel	-11.597
▁spatial	-11.598
cteurs	-11.598
.1.1.	-11.5988
filtrage	-11.5989
▁Catalogue	-11.5989
▁contemporain	-11.5989
▁copropriétaires	-11.5989
▁embarqué	-11.5989
▁instruit	-11.5989
▁mérite	-11.5989
▁perception	-11.5989
▁reconduit	-11.5989
▁Trois	-11.5989
▁augmenté	-11.5989
▁méthodologie	-11.5989
▁fruits	-11.5989
▁géo	-11.5992
▁Poste	-11.5992
▁tolérée	-11.5993
▁Ang	-11.5997
▁accueillir	-11.5998
▁BU	-11.6004
▁Mans	-11.6004
▁présidé	-11.6005
056	-11.6007
vention	-11.6009
▁ressource	-11.601
▁chiffrement	-11.6014
igné	-11.6014
Administration	-11.6014
ige	-11.602
▁détachée	-11.6027
VET	-11.6027
26-1	-11.6035
Auvergne	-11.6039
Orientation	-11.6042
▁homologu	-11.6049
▁5121-	-11.6052
teau	-11.6054
▁sollicit	-11.6055
KE	-11.6063
emplacement	-11.6065
▁intellectuelle	-11.6065
▁introduit	-11.6065
Gauthier	-11.6065
diabétologie	-11.6065
▁Cayenne	-11.6065
rhino	-11.6066
▁troupeau	-11.6066
▁Colette	-11.6066
▁Muriel	-11.6067
▁aller	-11.6068
▁examinateurs	-11.6068
ivité	-11.607
▁organes	-11.607
Noémie	-11.6078
long	-11.6081
▁cesse	-11.6081
▁représentative	-11.6087
▁Arm	-11.6087
vaux	-11.6088
▁libellé	-11.6092
adjoints	-11.6094
▁immédiate	-11.6095
▁114-1	-11.6105
▁SOUS	-11.6112
▁1635	-11.6115
Fanny	-11.6117
élu	-11.612
épi	-11.6121
AYE	-11.6123
Sal	-11.6125
▁appropriée	-11.6138
▁délibérant	-11.6139
environnementaux	-11.6142
intégrer	-11.6142
▁endocrinologie	-11.6142
▁individualisé	-11.6142
▁metformine	-11.6142
▁pondéré	-11.6142
▁précoce	-11.6142
diplomatie	-11.6142
▁hectare	-11.6142
▁sujétion	-11.6142
emprise	-11.6142
▁pompe	-11.6142
▁percevoir	-11.6142
▁docteur	-11.6143
▁stade	-11.6143
effort	-11.6143
▁convient	-11.6143
▁résine	-11.6144
▁posé	-11.6145
▁adhérents	-11.6145
▁carré	-11.6145
géomètre	-11.6145
▁Rémi	-11.6149
▁exécutée	-11.6155
▁avantages	-11.6156
▁Kh	-11.616
▁fondée	-11.6161
▁admissible	-11.6165
▁Pin	-11.6165
▁180	-11.6167
▁Allemagne	-11.6167
▁Régis	-11.6168
▁Sta	-11.6172
▁Compte	-11.6179
jou	-11.6179
infection	-11.618
Andre	-11.6183
▁substitut	-11.6187
▁souhait	-11.6191
▁appréciée	-11.6192
critère	-11.6196
internationales	-11.6201
exercent	-11.6203
▁57-	-11.621
▁bâti	-11.6215
tar	-11.6216
Axel	-11.6216
aidant	-11.6218
▁chaudière	-11.622
▁domestique	-11.622
▁fragilisée	-11.622
▁hémorragique	-11.622
▁interrompu	-11.622
▁perspective	-11.622
▁précédé	-11.622
agroalimentaire	-11.622
▁locatif	-11.622
Kévin	-11.622
education	-11.622
▁interarmées	-11.622
pdf	-11.622
Corentin	-11.622
▁demandant	-11.6221
▁téléservice	-11.6221
▁chirurgicale	-11.6221
▁BAT	-11.6222
▁Personnel	-11.6223
▁Maur	-11.6227
▁Bénédicte	-11.6228
▁gazeux	-11.6229
▁BRA	-11.6232
▁restrictions	-11.6237
▁Gard	-11.6242
▁314-2	-11.6246
▁242	-11.6251
▁321-2	-11.6251
▁conditionnement	-11.6257
elly	-11.6264
▁Cu	-11.6267
urie	-11.6268
LAT	-11.6269
▁Cap	-11.6271
▁132-1	-11.6273
Alexandra	-11.6275
enseignant	-11.6275
Gilles	-11.6276
Stéphanie	-11.6276
▁111-1	-11.6277
▁pourvu	-11.6283
▁logiciel	-11.629
▁précisée	-11.6294
▁Renaud	-11.6296
▁SESAM	-11.6298
▁Compétences	-11.6298
▁Maladie	-11.6298
▁Numéro	-11.6298
▁polluant	-11.6298
▁programmé	-11.6298
▁syndrome	-11.6298
▁Bastia	-11.6298
Sèvres	-11.6298
▁délit	-11.6298
affecte	-11.63
TRET	-11.6301
▁saisit	-11.6305
▁dépasse	-11.6305
▁Manuel	-11.6307
GUILL	-11.6313
TFP	-11.6314
▁retirée	-11.6314
▁émises	-11.6319
ROY	-11.6322
▁débute	-11.6324
▁PAS	-11.6324
▁contrôleuse	-11.6327
▁1.2.	-11.6336
1-3-1	-11.6342
▁augmentation	-11.6346
SCH	-11.6347
▁indu	-11.6347
▁avocats	-11.635
heim	-11.6351
▁ÉTABLISSEMENT	-11.6353
▁FOR	-11.6353
RAEP	-11.6358
▁affiché	-11.6367
▁214-2	-11.6368
▁confiée	-11.6371
och	-11.6374
Adjudant	-11.6377
Capitaine	-11.6377
IAHP	-11.6377
RÉFÉRENTIEL	-11.6377
assemblage	-11.6377
épisode	-11.6377
▁Médicament	-11.6377
▁Séverine	-11.6377
▁bénévole	-11.6377
▁observé	-11.6377
▁référencé	-11.6377
▁tarification	-11.6377
▁Situation	-11.6377
▁ouvrière	-11.6377
▁marge	-11.6377
▁GALL	-11.6377
▁progressive	-11.6377
NER	-11.6378
▁investigations	-11.6381
NES	-11.6392
▁définitivement	-11.6397
▁identifie	-11.6401
▁actuelle	-11.6404
▁chirurgien	-11.6406
▁métropolitain	-11.6411
BLANC	-11.6416
▁immatriculée	-11.6422
▁0,5	-11.6428
ONI	-11.6431
▁stocks	-11.6433
radiologie	-11.6436
Marseille	-11.6436
▁encadrer	-11.6438
▁Mag	-11.6439
institution	-11.644
nois	-11.6441
▁perçu	-11.6447
▁85-	-11.6452
▁franchise	-11.6456
▁problématique	-11.6456
▁recouvré	-11.6456
Assurance	-11.6456
▁génétique	-11.6456
▁recharge	-11.6457
▁Fabienne	-11.6458
zan	-11.6459
▁bordereau	-11.6464
armes	-11.6467
interne	-11.6468
▁contrôlés	-11.6468
Sud	-11.647
▁Chacun	-11.6474
▁substantielle	-11.6477
▁requête	-11.6484
▁souscrite	-11.6491
986	-11.6492
ERE	-11.6494
▁Unité	-11.6504
▁3.2.	-11.6507
▁femme	-11.6509
▁Non	-11.6515
▁préparer	-11.6515
Phil	-11.6516
Edouard	-11.6517
stat	-11.6523
MEND	-11.6524
▁informée	-11.6524
Alix	-11.6529
gouvernementale	-11.6529
▁Col	-11.6534
▁valorisé	-11.6536
INSCRIPTION	-11.6536
infirmière	-11.6536
rectificatif	-11.6536
ysfonctionnement	-11.6536
ÉVALUATION	-11.6536
▁chaîne	-11.6536
▁citoyenneté	-11.6536
▁concédé	-11.6536
▁exécutif	-11.6536
▁scénario	-11.6536
▁gérant	-11.6536
Drôme	-11.6536
énoncé	-11.6536
▁Demande	-11.6536
▁septies	-11.6537
▁construire	-11.6538
PONT	-11.6542
13-8	-11.6543
tru	-11.6543
antenne	-11.6556
▁passée	-11.6561
▁1973	-11.6561
alli	-11.6563
LBC	-11.6566
Com	-11.6569
aume	-11.6571
▁ouvrables	-11.6572
rive	-11.6573
▁régisseurs	-11.6576
ECOB	-11.6579
kWh	-11.6579
nin	-11.6589
▁quotas	-11.6589
ège	-11.6594
▁extra	-11.6595
ling	-11.6596
informer	-11.6603
DAM	-11.6605
▁Andrée	-11.6605
ignon	-11.6608
▁déten	-11.6609
▁quart	-11.6611
▁immobilières	-11.6611
▁quota	-11.6612
excéd	-11.6614
alcool	-11.6616
COFRAC	-11.6617
ématérialisation	-11.6617
▁encadré	-11.6617
▁injectable	-11.6617
▁maintenir	-11.6617
▁plaisance	-11.6617
▁portefeuille	-11.6617
▁promulgation	-11.6617
▁siégeant	-11.6617
▁traduit	-11.6617
▁télépilote	-11.6617
oxyde	-11.6617
▁boissons	-11.6617
▁envoyer	-11.6617
▁SANTÉ	-11.6617
▁parlementaire	-11.6617
animateur	-11.6617
▁dénonciation	-11.6617
▁pénétration	-11.6617
SNIA	-11.6618
▁séparation	-11.6618
Dôme	-11.6624
▁résultent	-11.6625
▁produites	-11.6627
5.2	-11.6627
▁dérog	-11.663
Alex	-11.663
Elsa	-11.6635
▁ration	-11.6638
▁module	-11.6647
▁déconcentré	-11.6647
ALD	-11.6648
Sonia	-11.6655
▁5.2	-11.6663
Di	-11.6666
Chau	-11.6666
▁occuper	-11.6673
iche	-11.6673
▁(«	-11.6677
▁joindre	-11.668
Charente	-11.6682
Sylvie	-11.6682
Article	-11.6682
Cour	-11.6685
▁justifié	-11.6686
▁certificateur	-11.6687
Rou	-11.669
affiliation	-11.6698
▁2015/1998	-11.6698
▁plénière	-11.6698
▁renforcement	-11.6698
▁SPÉCIALITÉ	-11.6698
▁téléversé	-11.6698
▁rhumatologie	-11.6698
▁maternel	-11.6698
▁item	-11.6698
ADI	-11.6703
▁obtenue	-11.6706
atant	-11.6709
Mor	-11.6711
php	-11.6712
HAR	-11.6719
▁municipal	-11.6719
▁accompagner	-11.6722
▁7534	-11.6726
▁analyser	-11.6729
.1.2.	-11.6733
▁anime	-11.6735
dix	-11.6737
interface	-11.6741
▁parcelles	-11.6742
/2022-05-2	-11.6748
▁intéressées	-11.6757
OST	-11.6759
aw	-11.6769
▁combustibles	-11.6771
▁traite	-11.6774
▁appropriées	-11.6775
▁Gal	-11.6776
onnier	-11.6778
▁MINIST	-11.678
▁combustion	-11.678
▁constitutif	-11.678
▁détient	-11.678
▁infectieuses	-11.678
TNF	-11.678
▁162-22-6	-11.678
▁baisse	-11.678
▁Annie	-11.678
▁vitale	-11.6781
▁incidents	-11.6782
hématologie	-11.6782
▁Colomb	-11.6786
gni	-11.6789
▁412-1	-11.6796
▁impartis	-11.6797
adéquation	-11.6812
▁anglais	-11.6812
▁2.4.	-11.6816
IAN	-11.6818
.2.2.	-11.6818
ieur	-11.6819
▁abrogée	-11.6823
Ou	-11.6826
▁distribué	-11.6828
▁242-1	-11.6828
llier	-11.6831
▁séquences	-11.6833
RAUD	-11.6846
Hel	-11.6846
éducatif	-11.6849
Po	-11.6855
hon	-11.6856
quand	-11.6857
▁préside	-11.6858
Tom	-11.6859
effacement	-11.6863
▁créancier	-11.6863
▁inclut	-11.6863
▁autoriser	-11.6863
▁quorum	-11.6863
▁montagne	-11.6863
écrou	-11.6863
▁PDF	-11.6863
▁préparé	-11.6863
▁covoiturage	-11.6864
géographie	-11.6864
EMPLOIS	-11.6865
▁NON	-11.6871
▁auteurs	-11.6874
▁Manche	-11.688
▁CDC	-11.6881
▁conféré	-11.6882
▁argument	-11.6883
24-4	-11.6885
▁injection	-11.6892
▁convoqué	-11.6897
▁intercommunal	-11.6898
▁1970	-11.69
▁envisagé	-11.691
neau	-11.6929
CHARD	-11.6931
gou	-11.6934
▁exigée	-11.6937
▁mutualis	-11.6943
▁DIRECTION	-11.6946
▁Identification	-11.6946
▁pathogène	-11.6946
▁perçoit	-11.6946
▁vénéréologie	-11.6946
avertissement	-11.6946
édition	-11.6946
▁explosifs	-11.6947
▁suspendre	-11.6947
conventionnement	-11.6948
▁Tarn	-11.6949
▁privée	-11.6954
▁préserv	-11.6959
régisseu	-11.6966
▁dépasser	-11.6966
vironnementales	-11.6971
▁Ligne	-11.6976
▁1975	-11.698
▁initialement	-11.6982
cel	-11.6982
▁174-1	-11.6987
▁sauvages	-11.6988
RAM	-11.6992
EFF	-11.6997
Lise	-11.7
mètre	-11.7017
Delphine	-11.702
appartenant	-11.702
▁casier	-11.7026
▁DOM	-11.7027
Communes	-11.7027
taire	-11.7029
▁férié	-11.703
kinésithérapeute	-11.703
▁Examen	-11.703
▁Gascogne	-11.703
▁Métropole	-11.703
▁Nanterre	-11.703
▁Notarial	-11.703
▁Objet	-11.703
▁concubin	-11.703
▁dynamique	-11.703
▁défavorable	-11.703
▁flotte	-11.703
▁incompatible	-11.703
Gautier	-11.703
▁PROFESSIONNELLE	-11.703
Emmanuelle	-11.703
▁provenance	-11.7031
▁revient	-11.7032
disciplinaire	-11.7035
▁543-1	-11.7037
▁Sar	-11.7041
▁recueillir	-11.7042
ulation	-11.7043
▁Ainsi	-11.7043
▁SERVICES	-11.7044
sibilité	-11.7044
▁nonies	-11.7044
▁Gall	-11.7045
▁ménages	-11.7052
bat	-11.7054
▁1972	-11.7058
▁611-1	-11.7062
▁géré	-11.7071
affaire	-11.7071
poli	-11.7076
chard	-11.708
ordonnancement	-11.7092
8-3	-11.7092
▁évolu	-11.7092
▁BAL	-11.71
Joseph	-11.7106
»	-11.7106
Florent	-11.711
endettement	-11.7115
▁GRDF	-11.7115
▁absolue	-11.7115
▁calendaire	-11.7115
▁impliquant	-11.7115
▁Assurer	-11.7115
▁Option	-11.7115
▁Frais	-11.7115
Mayenne	-11.7115
▁sigle	-11.7115
▁DIPL	-11.7115
▁repas	-11.7115
▁connecté	-11.7116
▁verticales	-11.7119
▁visuel	-11.7124
Yo	-11.7126
▁Landes	-11.7129
▁enregistrements	-11.7133
nia	-11.7134
▁librement	-11.7136
▁mère	-11.714
ANNE	-11.7142
▁333-1	-11.7142
▁urgences	-11.7143
0-4	-11.7145
ARENH	-11.7148
NIS	-11.715
bal	-11.715
▁préparatoire	-11.7153
▁vacant	-11.7154
▁Que	-11.7154
▁coordonner	-11.7155
▁(75)	-11.7156
exécuter	-11.7159
▁Odile	-11.7175
externe	-11.7193
pel	-11.7197
▁Production	-11.72
▁diffusé	-11.72
▁gravité	-11.72
▁imposable	-11.72
▁inutile	-11.72
▁modulation	-11.72
▁médaille	-11.72
▁négoce	-11.72
Félix	-11.72
▁2019-144	-11.72
▁souches	-11.72
Hauts	-11.72
vez	-11.7204
▁Ferr	-11.7207
oussa	-11.7213
Ange	-11.7215
▁sollicite	-11.722
exploiter	-11.7229
lain	-11.7237
ALIS	-11.7237
▁étape	-11.724
▁parcelle	-11.7241
▁244	-11.7245
ouille	-11.7252
▁modules	-11.7254
▁causés	-11.7256
BAR	-11.7259
optique	-11.7263
▁sise	-11.7269
OUS	-11.7271
▁CAL	-11.7272
▁cumulée	-11.7276
chimie	-11.728
Maurice	-11.7281
journée	-11.7281
Aube	-11.7281
lard	-11.7282
Emploi	-11.7284
▁indiquer	-11.7284
▁chèque	-11.7286
▁remboursé	-11.7286
ajustement	-11.7286
appuyant	-11.7286
▁DROIT	-11.7286
▁Stratégie	-11.7286
▁compétition	-11.7286
▁considère	-11.7286
▁contradictoire	-11.7286
▁hiérarchie	-11.7286
▁listées	-11.7286
▁réquisition	-11.7286
▁sensibilisation	-11.7286
▁urgente	-11.7286
Coralie	-11.7286
▁Régie	-11.7287
▁Organismes	-11.7287
▁2224-	-11.729
▁apte	-11.729
vous	-11.7299
▁GÉNÉRALE	-11.7302
▁pénalités	-11.7308
▁pieds	-11.7315
▁1963	-11.732
▁CAM	-11.7326
entendent	-11.7328
ram	-11.7337
▁soin	-11.7339
▁représentée	-11.7341
▁assorti	-11.7346
▁référencement	-11.7348
Cyr	-11.7351
MENTS	-11.7351
sheim	-11.7358
▁vendeur	-11.7358
▁Muse	-11.7361
▁Ya	-11.7361
▁All	-11.7366
pharmaceutique	-11.7373
▁MENTION	-11.7373
▁Engagement	-11.7373
▁alternatives	-11.7373
▁métallique	-11.7373
▁tentative	-11.7373
autoconsommation	-11.7373
▁gérer	-11.7373
Energie	-11.7374
Elisa	-11.7374
▁Rochelle	-11.7375
Lucile	-11.7375
Bains	-11.7377
AINE	-11.7384
▁ISO	-11.7391
▁fournie	-11.7391
▁remplies	-11.7392
▁BTS	-11.7394
Guy	-11.74
gal	-11.7415
▁réclamation	-11.7418
▁Renée	-11.742
▁125-1	-11.7421
asser	-11.7423
azi	-11.7423
oin	-11.7424
▁251-1	-11.7426
▁133-1	-11.7429
▁Bro	-11.7431
enheim	-11.7433
ok	-11.7436
▁TERRE	-11.7448
iller	-11.7456
▁change	-11.7457
dra	-11.7458
▁logis	-11.746
▁fréquent	-11.7461
▁OFFICIERS	-11.7461
▁incombe	-11.7461
▁rythme	-11.7461
▁traduction	-11.7461
▁phyto	-11.7461
▁visible	-11.7462
▁Présentation	-11.7462
▁détenir	-11.7462
▁préservation	-11.7464
▁souscription	-11.7464
▁Gabrielle	-11.7469
▁199	-11.7472
▁partiellement	-11.7474
▁CHAU	-11.7474
chevalier	-11.7474
Rachel	-11.7474
▁explicite	-11.7477
▁beaux	-11.7478
▁541-10	-11.748
Force	-11.7482
▁plateau	-11.7483
▁sollicité	-11.7484
pot	-11.7485
▁Pal	-11.7489
Pro	-11.7495
▁rév	-11.7504
▁envoyée	-11.7504
CY	-11.7509
▁FRA	-11.7521
étiques	-11.7529
mal	-11.7538
hom	-11.7542
▁Défense	-11.7545
roche	-11.7547
▁intervenu	-11.7548
istant	-11.7549
Augustin	-11.7549
▁imputable	-11.7549
▁possède	-11.7549
▁préemption	-11.7549
▁consistant	-11.7549
▁cursus	-11.7549
medic	-11.755
▁proportionnelle	-11.755
▁Palais	-11.7551
▁investie	-11.7552
erreur	-11.7553
▁FRANCE	-11.7557
▁différent	-11.7559
four	-11.756
▁TVA	-11.7561
▁agro	-11.7561
▁84-5	-11.7565
▁compens	-11.7565
▁700	-11.7565
▁Gué	-11.7568
▁Etre	-11.757
▁Celle	-11.7571
CHAL	-11.7581
TERB	-11.7582
plan	-11.7589
jan	-11.7591
▁THI	-11.7598
▁conformer	-11.7602
anda	-11.7603
REY	-11.7606
acompte	-11.7622
▁unions	-11.7625
▁Opérat	-11.7627
▁insuffisant	-11.7634
bro	-11.7638
0000465109	-11.7639
archéologie	-11.7639
▁diététicien	-11.7639
▁déontologiques	-11.7639
▁légumes	-11.7639
Ardèche	-11.7639
Clotilde	-11.7639
INRAE	-11.7639
▁2017/745	-11.7639
▁golf	-11.7639
▁mélange	-11.7639
▁6124-177-	-11.7639
▁garantit	-11.7641
▁Prix	-11.7642
ECOI	-11.7642
nager	-11.7645
Champagne	-11.7649
▁détenu	-11.7654
▁supportés	-11.7656
▁rejetée	-11.7661
▁évoluer	-11.7661
▁prenantes	-11.7662
▁Comp	-11.7664
Abdel	-11.7667
▁travailler	-11.7675
GUY	-11.768
û	-11.7683
illot	-11.7688
▁frontières	-11.7688
▁Notaire	-11.7688
recteur	-11.77
▁sollicitée	-11.7701
▁présidée	-11.771
2.2	-11.7714
▁Cho	-11.7719
▁Ass	-11.772
asso	-11.7729
laryngologie	-11.7729
▁Procédure	-11.7729
▁glycémie	-11.7729
▁notariat	-11.7729
▁tierce	-11.7729
outillage	-11.7729
▁crime	-11.7729
▁SCP	-11.773
traitance	-11.773
Richard	-11.7731
▁évaluée	-11.7736
▁Ur	-11.774
▁PRÉ	-11.774
▁ARMÉES	-11.7742
andi	-11.7745
▁113-1	-11.7745
EMBRE	-11.775
examiner	-11.7752
▁syndic	-11.7753
GR	-11.7761
loy	-11.7762
attache	-11.7765
▁FSE	-11.7765
▁SG	-11.7766
▁3.1.	-11.7774
arra	-11.7778
TOIRE	-11.7782
▁rééducation	-11.7789
export	-11.7791
onservatoire	-11.7812
Perpignan	-11.782
acquitte	-11.782
immigration	-11.782
interlocuteur	-11.782
▁Nîmes	-11.782
▁bagages	-11.782
▁chancellerie	-11.782
▁construit	-11.782
▁délibère	-11.782
▁indésirables	-11.782
▁supervision	-11.782
▁inhalé	-11.782
colite	-11.782
▁livré	-11.782
▁directoire	-11.782
▁corticothérapie	-11.782
▁561-3	-11.7822
▁laissé	-11.7823
▁Niveau	-11.7824
▁établissent	-11.7824
▁chauffé	-11.7825
▁sèche	-11.7825
▁journalier	-11.7826
SKI	-11.7832
▁621-1	-11.7833
▁francis	-11.7834
▁commercialis	-11.7834
GH	-11.7843
Jura	-11.7847
rog	-11.785
TOR	-11.785
▁réinsertion	-11.7858
▁nos	-11.7867
Alexia	-11.7869
▁critique	-11.7871
Malo	-11.7872
▁débat	-11.7872
▁décidée	-11.7885
6-33	-11.7886
▁facilit	-11.7889
Ni	-11.7889
old	-11.7889
▁Ob	-11.7891
▁av	-11.7899
doc	-11.79
illard	-11.7905
ambassade	-11.7911
OPÉRATION	-11.7912
ADMINISTRATION	-11.7912
hélicoptère	-11.7912
▁86-442	-11.7912
▁GENDARMERIE	-11.7912
▁monuments	-11.7912
▁néphrologie	-11.7912
▁spécificités	-11.7912
▁étudié	-11.7912
ECCF	-11.7912
▁hyper	-11.7912
isolant	-11.7912
▁caporal	-11.7912
▁PRI	-11.7912
▁collaboration	-11.7914
▁Terres	-11.7915
login	-11.7918
▁décor	-11.7923
▁organisationnel	-11.7924
▁voirie	-11.7926
▁oto	-11.7928
avantage	-11.7934
▁privilégié	-11.7952
▁jeu	-11.7954
▁connu	-11.7956
▁structur	-11.7959
Jouy	-11.7959
▁additionnelle	-11.7964
▁Magistrat	-11.7965
▁recruté	-11.7965
5-9	-11.7966
inondation	-11.7966
▁anglaise	-11.7967
/2022-05-	-11.7975
anu	-11.7979
Franc	-11.7991
▁différente	-11.7993
Immobilisations	-11.8004
Stanislas	-11.8004
▁JEUNESSE	-11.8004
▁député	-11.8004
▁ventilé	-11.8004
▁élargie	-11.8004
▁isolé	-11.8004
▁TLC	-11.8004
▁teneur	-11.8004
▁Composition	-11.8004
▁Mention	-11.8005
▁décompte	-11.8005
DDPP	-11.8006
▁universel	-11.8006
seize	-11.8007
active	-11.8008
▁rente	-11.8008
▁indirectement	-11.8011
Véronique	-11.8011
connect	-11.8014
etti	-11.8015
guet	-11.8022
Tristan	-11.8028
tti	-11.8033
sociale	-11.8033
▁800	-11.8035
ied	-11.8038
ORT	-11.8052
▁réserviste	-11.8059
▁invité	-11.8062
▁sanctionné	-11.8063
▁incluses	-11.8066
var	-11.8078
ionne	-11.8079
▁toléré	-11.8093
▁courte	-11.8097
Observatoire	-11.8098
Ukraine	-11.8098
▁POPULAIRE	-11.8098
▁contesté	-11.8098
▁côté	-11.8098
▁football	-11.8098
▁généré	-11.8098
▁télécharger	-11.8098
▁violation	-11.8098
▁Paiement	-11.8098
Maxence	-11.8098
▁Louvre	-11.8098
Erwan	-11.8098
▁gestes	-11.8098
▁DEMANDE	-11.8098
▁Yvonne	-11.8098
▁Région	-11.8098
▁BERNARD	-11.8098
▁démissionnaire	-11.8098
AISE	-11.8099
venance	-11.8099
▁Heure	-11.8101
▁ADS	-11.8101
GÉ	-11.8102
▁aliments	-11.8102
AMP	-11.8103
Sandrine	-11.8107
ello	-11.8107
temps	-11.8112
Yonne	-11.8114
▁recueille	-11.8121
LARD	-11.8123
▁Douai	-11.8125
▁dépend	-11.8131
ORG	-11.814
▁offert	-11.8145
TOUR	-11.8149
▁cinématographi	-11.8157
▁CONTR	-11.8167
▁Dom	-11.8168
HY	-11.817
▁structuré	-11.8174
COT	-11.8183
▁survenu	-11.819
medicaments	-11.8192
▁expressément	-11.8192
▁oncologique	-11.8192
▁prépondérante	-11.8192
▁prétendre	-11.8192
▁remarque	-11.8192
▁rédactrice	-11.8192
▁transfèrement	-11.8192
▁témoin	-11.8192
▁NSF	-11.8192
▁pouss	-11.8192
▁soumettre	-11.8192
▁TRANS	-11.8193
▁allée	-11.8193
ccession	-11.8194
HÉ	-11.8196
▁joue	-11.8201
notamment	-11.8203
IGNE	-11.821
▁muni	-11.8211
ffi	-11.8213
▁Bert	-11.8214
ROCHE	-11.8226
▁1974	-11.8227
21-6	-11.8242
▁connue	-11.8242
▁partagée	-11.8249
▁parentale	-11.8251
TRER	-11.8252
▁212-3	-11.8253
EPA	-11.8266
UFF	-11.8275
▁souterrain	-11.8278
▁Règle	-11.8282
▁formuler	-11.8283
rvico	-11.8287
Angélique	-11.8287
isolation	-11.8287
▁Evelyne	-11.8287
▁RELATIF	-11.8287
▁dimensionnement	-11.8287
▁douanière	-11.8287
▁opposable	-11.8287
▁pavillon	-11.8287
▁promoteur	-11.8287
▁rayonnement	-11.8287
▁FICHE	-11.8288
MWh	-11.8289
▁6153-1	-11.8292
▁32,4	-11.8298
INRIA	-11.83
Bretagne	-11.83
exprimer	-11.8301
▁Jac	-11.8302
▁dispenser	-11.8312
▁Ali	-11.8314
Vallée	-11.8315
devenir	-11.8324
ILLOT	-11.8324
▁1967	-11.8325
▁1969	-11.833
▁213-1	-11.8333
▁223-1	-11.8333
file	-11.834
▁formalis	-11.8342
AIL	-11.8343
▁DGA	-11.8344
▁maîtriser	-11.8346
▁Barr	-11.8351
adalimumab	-11.8352
drh	-11.8366
aillard	-11.8369
onze	-11.8373
rière	-11.8383
allemand	-11.8383
èvre	-11.8383
▁FONCTION	-11.8383
▁prescrire	-11.8383
▁préférence	-11.8383
▁puériculture	-11.8383
▁traditionnel	-11.8383
entreposage	-11.8383
▁tension	-11.8383
▁malade	-11.8384
systématiquement	-11.8388
▁CHO	-11.8398
dri	-11.8411
colonelle	-11.8415
▁Analyse	-11.8417
▁spécifiquement	-11.8419
uk	-11.842
thy	-11.8427
ABE	-11.8431
▁habilitée	-11.8432
CHAMP	-11.8432
ZY	-11.8434
▁généraliste	-11.8437
ERO	-11.8449
▁retourné	-11.8459
▁Parc	-11.8466
▁TITULAIRE	-11.848
▁collectés	-11.848
▁conservatrice	-11.848
▁démantèlement	-11.848
▁juvénile	-11.848
▁meubles	-11.848
▁onéreux	-11.848
▁polyvalent	-11.848
▁psoriasis	-11.848
▁Type	-11.848
▁préparateur	-11.848
ASMR	-11.848
▁Droit	-11.848
▁aviaire	-11.848
▁CCF	-11.8481
CFTC	-11.8481
▁télétravail	-11.8481
▁renonciation	-11.8481
▁clientèle	-11.8481
▁délibérante	-11.8485
▁confier	-11.8485
▁km	-11.8486
▁subordonné	-11.8489
▁promu	-11.849
ERI	-11.8494
Virginie	-11.8497
cabinet	-11.8497
▁couvertes	-11.8497
Guyane	-11.8497
région	-11.85
▁commercialisé	-11.8515
▁123-3	-11.8516
▁jugé	-11.8528
/2022-12	-11.8533
OLLE	-11.8534
▁trouble	-11.8545
▁examine	-11.8553
▁remplacer	-11.8557
▁sexuelle	-11.8559
CFE	-11.8561
▁Langue	-11.8576
exonération	-11.8576
▁2017-1	-11.8577
Eléonore	-11.8578
▁Volaille	-11.8578
▁recevabilité	-11.8578
interprété	-11.8578
▁animée	-11.8578
connaitre	-11.8578
▁Domaine	-11.8579
ENE	-11.8579
▁Melun	-11.8579
▁plage	-11.8582
Em	-11.8584
▁Jam	-11.8585
Aucun	-11.8589
influence	-11.8592
▁1300	-11.8594
▁312-7	-11.8595
élaborer	-11.8595
▁kit	-11.8595
rectorat	-11.8597
Laurence	-11.8598
▁élémentaire	-11.86
cat	-11.8603
▁décidé	-11.8607
▁131-3	-11.8608
▁claire	-11.862
NU	-11.8629
Antoinette	-11.863
INTE	-11.8635
▁312-2	-11.8642
▁pied	-11.8646
▁débutant	-11.8649
mani	-11.866
▁référ	-11.867
Technicien	-11.8677
▁australes	-11.8677
▁efficace	-11.8677
▁flottant	-11.8677
▁implique	-11.8677
▁modulé	-11.8677
▁quelconque	-11.8677
▁stylo	-11.8677
incitation	-11.8678
extraction	-11.8678
▁COMMUN	-11.8678
▁diminution	-11.8678
▁kilomètres	-11.8678
▁SPÉCIFIQUES	-11.8679
Barbara	-11.8687
ssou	-11.8688
NIE	-11.8697
▁LOI	-11.8697
animaux	-11.8698
admin	-11.8709
▁immatriculé	-11.872
▁213-2	-11.8724
▁républicaine	-11.8726
▁prolongé	-11.8729
ELLES	-11.8731
Far	-11.8736
PÉ	-11.8739
▁014	-11.8741
ETTI	-11.8744
▁5.1.	-11.8747
TAL	-11.8762
▁journal	-11.8771
▁recouvre	-11.8773
▁gardien	-11.8777
▁Coût	-11.8777
▁Eiffel	-11.8777
▁efficient	-11.8777
▁lucratif	-11.8777
▁manipulateur	-11.8777
▁privilège	-11.8777
Astrid	-11.8777
▁Projet	-11.8777
▁consigné	-11.8777
▁positionnement	-11.8777
▁6123-3	-11.8777
▁moderne	-11.8777
Syrie	-11.8778
Blandine	-11.8778
▁soussigné	-11.8778
enceinte	-11.8778
▁munitions	-11.8778
▁Prénom	-11.8778
▁radiothérapie	-11.8778
mène	-11.8798
▁541-10-1	-11.8799
joindre	-11.88
invite	-11.88
nombre	-11.8806
▁apprécié	-11.8813
QUES	-11.8815
▁511-1	-11.8824
IMI	-11.8827
Orne	-11.8843
▁SOL	-11.8844
▁constater	-11.8848
raf	-11.8859
PAR	-11.8867
ILE	-11.887
CAT	-11.8871
échantillon	-11.8876
▁Annick	-11.8878
▁CPDLC	-11.8878
▁dégagement	-11.8878
▁phénomène	-11.8878
▁posséd	-11.8878
▁batterie	-11.8878
CEREMA	-11.8878
LAIN	-11.8879
▁lancement	-11.888
acheteur	-11.888
ajoutent	-11.8884
▁interviennent	-11.8886
▁char	-11.8887
▁déclarer	-11.8888
▁réhabilitation	-11.8889
habit	-11.8893
vait	-11.8904
crise	-11.8905
ILLI	-11.8911
Ville	-11.8917
▁Tal	-11.8919
8-4	-11.8928
▁Aide	-11.8932
chant	-11.8932
▁constitutionnel	-11.8938
▁restreint	-11.894
▁Jour	-11.8943
▁précisent	-11.8945
78-17	-11.8951
OCH	-11.8958
▁réuni	-11.8964
_5267	-11.898
EPMSP	-11.898
ameublement	-11.898
ergothérapeute	-11.898
océan	-11.898
▁Méthode	-11.898
▁fondamentaux	-11.898
▁libéraux	-11.898
▁légaux	-11.898
▁fabriqu	-11.8981
amiral	-11.8981
▁paix	-11.8981
▁détaillant	-11.8981
▁montage	-11.8982
▁LIVRE	-11.8982
▁sécurisation	-11.8982
▁minérales	-11.8983
▁6124-1	-11.8987
▁Chev	-11.8994
compte	-11.8995
▁confort	-11.8999
▁pertinentes	-11.9
▁Fiche	-11.9002
▁612-1	-11.9014
deux	-11.9018
▁matérielle	-11.9036
tenu	-11.9037
roux	-11.9038
▁Barb	-11.9041
ologue	-11.9041
jon	-11.9048
▁dommage	-11.9055
▁terrestre	-11.9056
Nous	-11.9058
▁cumulé	-11.9061
rome	-11.9062
viendra	-11.9063
▁Bio	-11.9069
▁hospital	-11.9075
▁Dia	-11.9075
▁localisé	-11.9075
neuf	-11.9076
▁mesurer	-11.9079
Quel	-11.9083
DDETS	-11.9083
émargement	-11.9084
▁CNPMEM	-11.9084
▁antarctiques	-11.9084
▁basket	-11.9084
▁marchande	-11.9084
▁textile	-11.9084
Mehdi	-11.9084
▁franco	-11.9084
Vanessa	-11.9084
▁constant	-11.9084
▁Météo	-11.9084
▁sulf	-11.9084
Arménie	-11.9084
▁substitution	-11.9085
onglet	-11.9085
▁vigne	-11.9085
herbe	-11.9088
▁répondu	-11.9088
▁trop	-11.909
▁réintégrée	-11.909
dentiste	-11.909
▁Dela	-11.909
▁consacrée	-11.9104
stéro	-11.9111
courrier	-11.9113
mn	-11.9115
▁712-1	-11.9116
▁enregistrée	-11.9119
Grand	-11.9119
ousseau	-11.912
▁respectées	-11.9121
▁pérenne	-11.9123
TEAU	-11.9135
▁Amélior	-11.9136
▁214-3	-11.9137
Adam	-11.9142
rev	-11.9149
▁plate	-11.9161
▁ménage	-11.9163
GRE	-11.9165
mart	-11.917
OUN	-11.9176
▁ratio	-11.9179
▁Chan	-11.918
▁instaur	-11.9183
▁quotidien	-11.9184
Olivia	-11.9188
accompagnant	-11.9188
▁affectant	-11.9188
▁dégradé	-11.9188
▁harcèlement	-11.9188
▁judo	-11.9188
▁ordinaire	-11.9188
▁seringue	-11.9188
▁significatif	-11.9188
Victoire	-11.9188
▁Généralités	-11.9188
▁roulant	-11.9188
▁recul	-11.9188
abandon	-11.9188
▁anatomi	-11.9188
▁Crohn	-11.9188
▁quotité	-11.9188
▁carence	-11.919
▁fermé	-11.919
Renan	-11.9191
▁162-23-	-11.9191
▁sortir	-11.9193
▁Danielle	-11.9208
Anna	-11.9219
Occitanie	-11.9219
▁Jou	-11.922
IGI	-11.923
▁terminal	-11.9232
▁lits	-11.924
europa	-11.9242
▁Michelle	-11.9245
amy	-11.925
▁pratiquer	-11.9257
▁CIE	-11.9257
CCI	-11.9268
orge	-11.9268
any	-11.9268
▁pénalité	-11.9271
▁commise	-11.9274
Hu	-11.9276
graphe	-11.9289
Corrèze	-11.9293
uvéite	-11.9293
▁2022-2027	-11.9293
▁Chambéry	-11.9293
▁Protection	-11.9293
▁métaux	-11.9293
▁psychiatrique	-11.9293
Andorre	-11.9293
Dordogne	-11.9293
▁Beauvais	-11.9293
▁emporte	-11.9293
▁stabilité	-11.9293
▁fédérale	-11.9294
▁rédige	-11.9294
▁panneaux	-11.9294
▁mesuré	-11.9297
▁GRAND	-11.9299
▁étudiante	-11.9304
▁3.3.	-11.9314
▁compenser	-11.9318
▁attribu	-11.932
vasculaire	-11.932
AOP	-11.932
Agnès	-11.9326
intention	-11.9326
CARD	-11.9335
▁survenue	-11.9353
▁adopte	-11.9354
▁organis	-11.9355
Sami	-11.9358
face	-11.9366
▁reportée	-11.9376
▁transfér	-11.9389
OW	-11.9394
▁Bonne	-11.9395
2019	-11.9396
▁renforcée	-11.9397
▁supplément	-11.9398
▁panneau	-11.9398
▁rhumato	-11.9399
▁continental	-11.9399
▁pratiqué	-11.9399
▁Principau	-11.9399
▁Protocole	-11.9399
▁ambulatoire	-11.9399
▁manutention	-11.9399
▁prévoient	-11.9399
▁rétention	-11.9399
▁PFMP	-11.9399
Martial	-11.94
▁Prévention	-11.94
gny	-11.94
▁viande	-11.94
▁Programme	-11.94
▁léger	-11.94
▁4231-2-	-11.94
▁pathologiques	-11.94
▁satisfaction	-11.9401
▁Marthe	-11.9401
▁exonérations	-11.9402
▁Règlement	-11.9405
▁ateliers	-11.9405
▁gazières	-11.9405
▁réunies	-11.9409
▁4231-1	-11.9409
▁collégiale	-11.9426
Nadia	-11.9426
nan	-11.9426
▁7124-	-11.9434
sujet	-11.9435
rubrique	-11.9435
▁1966	-11.944
Maroc	-11.9454
▁jugée	-11.9454
▁promue	-11.9458
illier	-11.947
▁restriction	-11.9483
▁provision	-11.9483
OTTE	-11.9492
▁6124-13	-11.9497
animal	-11.9498
Chez	-11.9505
Hôpital	-11.9507
espagnol	-11.9507
▁Déclaration	-11.9507
▁PMCB	-11.9507
▁chancelier	-11.9507
▁olympique	-11.9507
▁prudentiel	-11.9507
▁prévoyant	-11.9507
▁restrictives	-11.9507
▁tolérance	-11.9507
▁télématique	-11.9507
▁samedi	-11.9507
▁produis	-11.9507
▁MICHEL	-11.9508
▁Suisse	-11.9508
▁boxe	-11.9509
▁entièrement	-11.951
▁clairement	-11.9512
▁gère	-11.9516
Cast	-11.9517
.1.3.	-11.9517
▁imposé	-11.9525
Maur	-11.9533
YON	-11.9541
5042	-11.9546
santé	-11.9551
▁formalisée	-11.9556
«	-11.9563
hia	-11.9574
Allier	-11.9578
Brun	-11.958
▁241-1	-11.9584
TEURS	-11.9594
▁007	-11.9594
▁moral	-11.9595
AOUI	-11.9613
aéromodèle	-11.9616
encadrant	-11.9616
▁Participation	-11.9616
▁brigadier	-11.9616
▁capitaux	-11.9616
▁magasin	-11.9616
▁prescriv	-11.9616
▁professorat	-11.9616
▁réfugiés	-11.9616
▁typologie	-11.9616
▁Parcours	-11.9616
▁club	-11.9616
▁radioprotection	-11.9616
croix	-11.9616
▁publie	-11.9616
▁CONTRAT	-11.9617
▁donation	-11.9617
ILLY	-11.9619
▁Basse	-11.9619
▁Moyen	-11.9623
▁533-1	-11.9627
▁pêcheurs	-11.9629
▁FOUR	-11.9631
▁Barbet	-11.9631
▁2021-190	-11.9632
▁intérimaire	-11.9632
▁nécessitent	-11.9644
▁soumet	-11.9646
▁numérisée	-11.9648
lière	-11.965
ARML	-11.9653
ARCH	-11.9659
▁1965	-11.9662
Nor	-11.9677
▁extraits	-11.9685
VERS	-11.9688
▁confirmé	-11.9689
OUCHE	-11.9693
▁sortant	-11.9694
▁actualisée	-11.9701
▁trouver	-11.9709
éditeur	-11.9719
▁afférente	-11.972
original	-11.9721
▁satisf	-11.9723
TRAT	-11.9725
Espagne	-11.9726
Eugénie	-11.9726
Vosges	-11.9726
jujitsu	-11.9726
▁APPLICABLE	-11.9726
▁CATÉGORIE	-11.9726
▁Eugène	-11.9726
▁Subventions	-11.9726
▁cérébral	-11.9726
▁incomplète	-11.9726
▁prorogation	-11.9726
▁précède	-11.9726
▁rugby	-11.9726
▁rédacteur	-11.9726
▁sexies	-11.9726
▁RNCP	-11.9726
▁grevée	-11.9726
▁Charges	-11.9726
OLOGIE	-11.9726
▁2021-2022	-11.9726
▁tracteur	-11.9726
DDETSPP	-11.9726
▁Alger	-11.9727
▁liquidateur	-11.9728
▁sollicitent	-11.9734
▁revêtement	-11.9737
Tous	-11.9762
▁512-1	-11.9766
connexion	-11.9768
imagerie	-11.977
▁7501	-11.9774
▁131-2	-11.9775
Victoria	-11.9777
▁ferme	-11.978
MAND	-11.9784
▁verte	-11.9787
▁multipliée	-11.9803
iana	-11.9813
serve	-11.9826
Mary	-11.9827
▁plu	-11.983
▁occupe	-11.983
Formulaire	-11.9837
Tanguy	-11.9837
agriculteur	-11.9837
▁Antilles	-11.9837
▁Notification	-11.9837
▁interfère	-11.9837
▁manipulation	-11.9837
▁pulmonaire	-11.9837
▁récidive	-11.9837
Jérémie	-11.9837
▁Mérite	-11.9837
▁guichet	-11.9837
▁convoque	-11.9837
▁parisienne	-11.9837
▁Bourges	-11.9837
jsp	-11.9837
metiers	-11.9837
tout	-11.9837
▁anomalies	-11.9839
▁communiquent	-11.9849
▁nous	-11.9851
▁conventionné	-11.9851
Dispos	-11.9853
département	-11.9874
▁décoll	-11.9879
quota	-11.9882
▁quai	-11.9897
GENT	-11.9897
▁déclin	-11.9913
ENSA	-11.9913
chon	-11.9914
GUEN	-11.9915
ELLA	-11.992
amide	-11.9928
LLEC	-11.9932
Euro	-11.994
▁vérifi	-11.9943
▁RÉGION	-11.9944
enouvellement	-11.9949
▁prélevé	-11.9949
importateur	-11.9949
interprète	-11.9949
▁Bernadette	-11.9949
▁Communauté	-11.9949
▁Vendôme	-11.9949
▁cédant	-11.9949
▁dégradation	-11.9949
▁francophonie	-11.9949
▁génère	-11.9949
▁motorisation	-11.9949
▁pécuniaire	-11.9949
▁prud	-11.9949
▁borne	-11.995
▁minière	-11.9951
▁DURAND	-11.9952
intervalle	-11.9952
▁Nations	-11.9952
▁suisse	-11.9952
▁infections	-11.9952
format	-11.9955
▁hoc	-11.9957
aza	-11.9961
▁mensuellement	-11.9963
▁attendues	-11.9972
▁préremplie	-11.9973
▁4.1.	-11.9974
communication	-11.9981
▁Pic	-11.9991
reux	-11.9991
accusé	-11.9997
Romane	-12
▁2.5.	-12.0004
JON	-12.0007
▁vend	-12.0013
écrit	-12.0014
▁BRO	-12.0016
▁poursuit	-12.0028
24-7	-12.0032
▁collabor	-12.0048
▁tonne	-12.0058
évaluateur	-12.006
▁Médaill	-12.0061
APPLICATION	-12.0063
Rodolphe	-12.0063
abrogation	-12.0063
appuyer	-12.0063
articulation	-12.0063
intensité	-12.0063
▁Calcul	-12.0063
▁DOSSIER	-12.0063
▁Document	-12.0063
▁boîte	-12.0063
▁matérialis	-12.0063
▁mécanicien	-12.0063
▁prairies	-12.0063
▁redressement	-12.0063
▁référendaire	-12.0063
Assesseur	-12.0063
▁motorisé	-12.0063
cadastr	-12.0063
▁dressé	-12.0063
▁chasseurs	-12.0064
esthétique	-12.0069
▁446-1	-12.0071
▁519-1	-12.0071
ça	-12.0071
▁échangeuse	-12.0072
DAN	-12.0087
▁Seul	-12.0096
▁auditive	-12.0105
intranet	-12.0113
gnon	-12.0114
▁assiste	-12.0128
ssier	-12.0152
▁législative	-12.0161
▁recommandation	-12.0162
BAP	-12.0165
assujetti	-12.0169
▁CONVENTION	-12.0178
▁expérimenté	-12.0178
▁2017/746	-12.0178
▁cohérent	-12.0178
▁promouvoir	-12.0178
▁Cergy	-12.0178
▁indépendamment	-12.0178
▁SPORTIF	-12.0178
▁émana	-12.0179
INO	-12.0179
CNAM	-12.0181
▁médicamenteuse	-12.0181
▁7343-1	-12.0182
▁graphiques	-12.0182
▁lésion	-12.0182
▁matrice	-12.0184
/2009	-12.0189
▁contribuent	-12.019
bstant	-12.0208
▁consolidé	-12.0208
tations	-12.0215
ERON	-12.0217
▁informent	-12.0219
▁1959	-12.0224
OCK	-12.0226
INFORMATION	-12.0233
remise	-12.0241
▁224-1	-12.0244
▁loué	-12.0246
orel	-12.0249
alidation	-12.026
Elo	-12.0275
▁liquide	-12.0276
EMI	-12.0284
▁mesurée	-12.0289
▁apparaît	-12.0291
▁majeur	-12.0291
SSAR	-12.0293
▁inchangé	-12.0294
▁paramédical	-12.0294
Rectificatif	-12.0294
▁Dénomination	-12.0294
▁Montreuil	-12.0294
▁Nouméa	-12.0294
▁analytique	-12.0294
▁confidentiel	-12.0294
▁désignant	-12.0294
▁générateur	-12.0294
▁reproduction	-12.0294
▁végétaux	-12.0294
Clarisse	-12.0294
▁score	-12.0294
▁associatif	-12.0294
▁Colmar	-12.0295
▁fournissent	-12.0295
▁artistes	-12.0296
▁renoncer	-12.0296
▁mutualisation	-12.0298
▁largeur	-12.0299
▁élevages	-12.03
▁sursis	-12.0304
▁choisit	-12.031
▁régissant	-12.031
▁COV	-12.0311
IEUX	-12.0313
VAN	-12.0316
▁procèdent	-12.0319
surveillance	-12.0321
▁trimestrielle	-12.033
▁421-1	-12.0341
▁1958	-12.0345
▁inspections	-12.0346
Carine	-12.0348
accéder	-12.035
organisateur	-12.035
hiver	-12.0353
ISSON	-12.0358
▁Villa	-12.0361
▁masseur	-12.0366
▁favorise	-12.0373
ACHE	-12.0378
fact	-12.0386
Brice	-12.0391
GON	-12.0395
chauff	-12.0405
Ajaccio	-12.0411
Commissaire	-12.0411
appoint	-12.0411
odontologie	-12.0411
opposé	-12.0411
▁Membres	-12.0411
▁prévenues	-12.0411
▁radicalisation	-12.0411
▁trajectoire	-12.0411
▁tropicales	-12.0411
▁volley	-12.0411
▁méconnaissance	-12.0411
esprit	-12.0412
▁Recherche	-12.0412
▁barrage	-12.0412
▁accueillant	-12.0412
▁DDF	-12.0412
▁onzième	-12.0413
Adeline	-12.0413
▁New	-12.0414
▁facilités	-12.0414
italien	-12.0417
Durant	-12.0421
▁174-2	-12.0444
▁prescrites	-12.0444
▁312-8	-12.0445
dalimumab	-12.045
rapprochement	-12.045
▁renvoy	-12.0454
Thérèse	-12.047
secrétariat	-12.0471
accept	-12.0481
▁dispensé	-12.05
Haut	-12.0506
▁BUR	-12.0515
blanc	-12.0515
apprenti	-12.0518
▁facteur	-12.052
omp	-12.0521
▁réunir	-12.0523
fortement	-12.0529
▁corrigé	-12.0531
apprenant	-12.0531
expropriation	-12.0531
▁COMPÉTENCES	-12.0531
▁Développement	-12.0531
▁Indemnité	-12.0531
▁Moldavie	-12.0531
▁configuration	-12.0531
▁triennal	-12.0531
Rodrigue	-12.0531
Emeline	-12.0531
▁bourse	-12.0531
Evry	-12.0531
échelonnement	-12.0531
▁légion	-12.0531
PAT	-12.0531
Loi	-12.0531
▁urologie	-12.0531
▁journaliste	-12.0531
▁contractualis	-12.0532
Célia	-12.0542
IGNON	-12.0543
Perrine	-12.0554
▁422-5	-12.056
7.5	-12.057
▁147-1	-12.0573
régional	-12.0585
▁kW	-12.0589
économique	-12.0593
Francis	-12.0595
AGRE	-12.0605
▁affranchi	-12.0624
ommissariat	-12.0644
DIR	-12.0645
▁simultané	-12.0646
▁Coup	-12.0647
immobilisation	-12.0649
▁cesser	-12.0649
tabilisation	-12.0651
▁2021/2115	-12.0651
▁chimiothérapie	-12.0651
▁conciliation	-12.0651
▁constructeur	-12.0651
▁cytologie	-12.0651
▁décimale	-12.0651
▁représentatif	-12.0651
▁Bobigny	-12.0651
▁relever	-12.0651
arrondissement	-12.0651
▁combiné	-12.0651
▁ordonne	-12.0651
▁subdivision	-12.0651
▁financer	-12.0651
▁simplification	-12.0651
▁concept	-12.0652
▁2019/6	-12.0652
▁douleur	-12.0652
▁2008-36	-12.0653
▁proposant	-12.0655
▁réalité	-12.0656
Axelle	-12.0658
▁rappelle	-12.0669
▁321-12	-12.0671
▁rétablissement	-12.0681
BERG	-12.0684
▁Eco	-12.0687
prop	-12.0691
nclu	-12.0698
▁logicielle	-12.0701
Elisabeth	-12.0716
ordonnées	-12.0719
▁actuel	-12.0723
ADR	-12.0724
ono	-12.0739
Sans	-12.0746
ock	-12.0749
FER	-12.0754
▁contrainte	-12.0764
évènement	-12.0771
▁essentiel	-12.0772
▁intégral	-12.0772
▁déclench	-12.0772
▁inadapté	-12.0773
▁semestriel	-12.0773
▁PERSONNEL	-12.0773
▁adressant	-12.0773
▁délibérer	-12.0773
▁exigible	-12.0773
▁fondamentale	-12.0773
▁inéligible	-12.0773
▁originaux	-12.0773
▁parallèle	-12.0773
▁perçoivent	-12.0773
▁procréation	-12.0773
▁psychomotricien	-12.0773
▁violente	-12.0773
fluor	-12.0773
▁retentisse	-12.0773
▁revue	-12.0773
values	-12.0773
▁respectifs	-12.0773
▁cendres	-12.0773
EVE	-12.0773
Zoé	-12.0773
assises	-12.0774
▁Transport	-12.0774
Afrique	-12.0775
▁acomptes	-12.0776
opportunité	-12.0779
isproportionnées	-12.0779
ichon	-12.0779
▁332-8	-12.0782
chy	-12.081
451-8	-12.0811
▁continuent	-12.0815
artiste	-12.0824
▁Forme	-12.0835
aspirant	-12.0841
intérim	-12.0841
public	-12.0841
Carole	-12.0841
▁Gour	-12.0844
▁5126-	-12.0845
▁pérenn	-12.0849
▁PARTIE	-12.0852
Laurie	-12.0853
▁NATIONAL	-12.0865
meur	-12.0871
IOME	-12.089
▁Personne	-12.0892
Ludivine	-12.0896
affiliés	-12.0896
▁Capacité	-12.0896
▁GROUPE	-12.0896
▁Pyramide	-12.0896
▁métallurgie	-12.0896
▁régularité	-12.0896
▁illicite	-12.0896
▁signaux	-12.0896
investigateur	-12.0896
▁chenal	-12.0896
▁Etude	-12.0896
▁Filière	-12.0897
nnuité	-12.0897
▁vecteur	-12.0897
▁déclenchement	-12.0897
▁Havre	-12.0897
▁détecte	-12.0898
Leclerc	-12.09
parole	-12.0901
▁561-2	-12.0902
▁prioritairement	-12.091
▁renfor	-12.0914
télétransmission	-12.092
Orly	-12.0926
▁HAM	-12.0932
▁hémato	-12.0934
hem	-12.0936
Orange	-12.0945
▁vaccinal	-12.0966
auxiliaire	-12.0967
responsable	-12.0968
;	-12.0968
OIT	-12.0969
coût	-12.0969
IENNE	-12.0978
GOU	-12.0993
Roman	-12.101
oubli	-12.1012
▁potentielle	-12.1013
▁Tunis	-12.1016
▁fédér	-12.1017
anomalie	-12.1019
obs	-12.102
Environnement	-12.1021
Extension	-12.1021
GOUVERNEMENT	-12.1021
Pacifique	-12.1021
adoptant	-12.1021
introduction	-12.1021
intéressement	-12.1021
▁Auguste	-12.1021
▁Connaissance	-12.1021
▁Dépenses	-12.1021
▁Jacky	-12.1021
▁Modification	-12.1021
▁Secrétaire	-12.1021
▁littérature	-12.1021
▁grève	-12.1021
ESPACE	-12.1021
▁fracture	-12.1021
▁réglé	-12.1021
▁CHARGES	-12.1022
▁Justifi	-12.1022
▁joignent	-12.1024
▁1261-1	-12.1025
▁rétro	-12.1027
impartialité	-12.1028
▁CASF	-12.1029
▁végétales	-12.1029
▁mix	-12.1029
▁finition	-12.1032
▁spatiales	-12.1037
ONNET	-12.1038
LAV	-12.1045
▁blanchi	-12.1049
▁Délai	-12.1051
ôme	-12.1054
EMA	-12.1057
aucun	-12.107
Commandant	-12.1096
INTN	-12.1104
main	-12.1121
Substitut	-12.1138
▁NOTAIRE	-12.1139
▁vit	-12.114
▁situ	-12.1143
▁cyber	-12.1147
Jessica	-12.1148
implication	-12.1148
évacuation	-12.1148
▁Suivi	-12.1148
▁déclarative	-12.1148
▁fluid	-12.1148
▁2012-124	-12.1148
▁BVEC	-12.1148
investisseur	-12.1148
▁densité	-12.1148
▁désinfection	-12.1148
▁Accompagnement	-12.1148
▁Contenu	-12.1149
▁coordinateur	-12.115
▁dépendent	-12.1151
oiseaux	-12.1151
EVANT	-12.1153
▁83-63	-12.1153
▁mentale	-12.1153
▁Plaine	-12.1155
▁Voir	-12.1163
Ronan	-12.1166
PROFESSIONNELLES	-12.117
prendra	-12.1173
▁vision	-12.1184
assistent	-12.1196
FORT	-12.12
▁GUER	-12.1201
Fili	-12.1202
QUIN	-12.1206
Maria	-12.121
▁Vert	-12.1217
Blanc	-12.1223
Christelle	-12.1225
policier	-12.1225
Gérard	-12.1226
Robert	-12.1228
HEL	-12.1241
wan	-12.1242
▁garant	-12.1248
auditeur	-12.1252
▁ouvré	-12.1273
▁Danièle	-12.1276
▁Télé	-12.1276
Histoire	-12.1276
appréhender	-12.1276
interopérabilité	-12.1276
irrecevabilité	-12.1276
traînant	-12.1276
▁Odette	-12.1276
▁RÉPUBLIQUE	-12.1276
▁classique	-12.1276
▁complications	-12.1276
▁piscine	-12.1276
▁souvent	-12.1276
▁Agrément	-12.1276
▁PREMI	-12.1276
▁Assistant	-12.1276
Adèle	-12.1277
▁Belfort	-12.1277
▁passif	-12.1277
▁délimitation	-12.1277
▁212-10-1	-12.1277
▁antécédents	-12.1277
▁Eliane	-12.1278
OLIN	-12.1278
pierre	-12.1279
▁reprendre	-12.1279
▁Varenne	-12.1279
range	-12.128
▁6152-2	-12.128
▁préval	-12.1284
ETAM	-12.1288
procureur	-12.1297
▁artificielle	-12.1297
dresser	-12.1297
Dorian	-12.1301
▁dépendant	-12.1301
étant	-12.1304
▁341-1	-12.1304
entraîner	-12.1314
▁342-1	-12.1326
▁touch	-12.1329
ext	-12.133
travail	-12.1357
▁114-4	-12.1368
ffaires	-12.1391
utter	-12.1394
Eve	-12.14
titia	-12.1405
individu	-12.1406
▁SUPÉRIEUR	-12.1406
▁apposé	-12.1406
▁digital	-12.1406
éclairer	-12.1406
▁Dérogation	-12.1406
▁Gisèle	-12.1406
▁Inscription	-12.1406
▁Surveillance	-12.1406
▁appartiennent	-12.1406
▁repérage	-12.1406
▁saisonnière	-12.1406
▁moniteur	-12.1406
Sabrina	-12.1406
▁PARTICULI	-12.1406
▁toile	-12.1406
▁01/01/	-12.1407
▁3131-1	-12.1409
▁détiennent	-12.1409
▁loisir	-12.141
▁concourent	-12.1412
▁Bern	-12.1413
Arche	-12.1413
▁affichées	-12.1421
▁BORD	-12.1428
▁vérifiées	-12.1431
EPS	-12.1439
▁Secteur	-12.1446
Ariane	-12.145
▁312-5	-12.145
xx	-12.1468
NEMENT	-12.1473
▁dépass	-12.1482
injection	-12.149
Compte	-12.149
Sauf	-12.149
portail	-12.149
quoi	-12.1493
élément	-12.1502
ij	-12.1509
ting	-12.1514
ossi	-12.1523
-1721	-12.1524
▁coordonné	-12.1529
▁joign	-12.1535
-114	-12.1536
appropriation	-12.1538
▁MODALIT	-12.1538
▁apparent	-12.1538
▁circulant	-12.1538
▁horticole	-12.1538
▁moléculaire	-12.1538
▁météorologique	-12.1538
▁participatif	-12.1538
▁recourant	-12.1538
▁réglage	-12.1538
▁évidence	-12.1538
▁scellé	-12.1538
Prescription	-12.1538
▁marqué	-12.1538
000045458	-12.1538
▁fioul	-12.1538
▁signifie	-12.1538
▁OUVRA	-12.1538
▁déduit	-12.1538
Velay	-12.1538
Nièvre	-12.1538
▁INFORMATIONS	-12.1538
▁thématique	-12.1538
▁COMITÉ	-12.1538
▁sapeur	-12.1538
▁science	-12.1538
EPEF	-12.1539
▁gratuitement	-12.1539
▁Poly	-12.1541
▁ZIT	-12.1546
-728	-12.1553
Cantal	-12.1557
▁CFP	-12.1558
▁occasionnel	-12.1566
ILLER	-12.157
▁412-2	-12.1595
▁approfondi	-12.1595
▁diminué	-12.1608
▁INTER	-12.1612
calendrier	-12.1626
écologique	-12.1626
Commission	-12.1626
composante	-12.1629
▁pluriannuelle	-12.1633
Enfin	-12.1637
ALLET	-12.1639
▁prérempli	-12.1643
▁GÉNÉRAL	-12.1646
▁recevr	-12.1671
Mathias	-12.1671
abattement	-12.1671
incertitude	-12.1671
opposer	-12.1671
▁2023-2024	-12.1671
▁PERSONNES	-12.1671
▁apatrides	-12.1671
▁biomasse	-12.1671
▁cynotechnique	-12.1671
▁distinguant	-12.1671
▁délégant	-12.1671
▁participé	-12.1671
▁privative	-12.1671
▁pâturage	-12.1671
▁quantitative	-12.1671
▁simulation	-12.1671
▁électronicien	-12.1671
Natacha	-12.1671
▁Londres	-12.1671
▁Sénat	-12.1671
Yvon	-12.1671
▁Réalisation	-12.1672
▁SIMON	-12.1672
▁culte	-12.1672
▁carnet	-12.1672
▁Chambre	-12.1672
Lambert	-12.1673
▁retourner	-12.1673
▁assujettis	-12.1674
▁fondateurs	-12.1675
▁SIIV	-12.1676
▁diriger	-12.1676
artisan	-12.1678
▁utilisent	-12.168
▁accepter	-12.1715
▁distribu	-12.1726
▁mono	-12.1728
Institution	-12.1748
▁actualisé	-12.1753
joint	-12.1762
verso	-12.1762
Allemagne	-12.1762
Régis	-12.1762
Outre	-12.1763
bureau	-12.1765
abus	-12.1783
▁dépose	-12.1799
ampus	-12.1806
solidarites	-12.1806
EXAMEN	-12.1806
optimisation	-12.1806
▁Exigence	-12.1806
▁Gendarmerie	-12.1806
▁PROGRAMME	-12.1806
▁Volume	-12.1806
▁appliquant	-12.1806
▁badminton	-12.1806
▁blâme	-12.1806
▁impératif	-12.1806
▁jurisprudence	-12.1806
▁objective	-12.1806
▁positive	-12.1806
▁requérant	-12.1806
▁scléro	-12.1806
▁stupéfiants	-12.1806
▁thoracique	-12.1806
▁urinaire	-12.1806
▁émérite	-12.1806
▁Irène	-12.1806
Cependant	-12.1806
▁transverse	-12.1806
Jordan	-12.1806
▁cardiologie	-12.1806
▁quantification	-12.1807
▁Qualité	-12.1807
▁correcte	-12.1809
▁paramètre	-12.181
▁FGRE	-12.181
OYER	-12.1811
IGNY	-12.1812
RCS	-12.1813
▁Soldat	-12.1816
51-3	-12.1818
▁agencement	-12.182
▁422-2	-12.1823
▁indexé	-12.1823
écoute	-12.1824
▁précis	-12.1834
▁Bell	-12.1839
YER	-12.1842
fondatrice	-12.1847
▁enquêteur	-12.1852
attribuer	-12.1882
Ministère	-12.1901
▁condamné	-12.1907
▁confie	-12.1938
▁classifié	-12.194
Territoire	-12.1943
Informatique	-12.1943
acquéreur	-12.1943
▁agronomique	-12.1943
▁minimis	-12.1943
▁nettoyage	-12.1943
▁télévision	-12.1943
Amaury	-12.1943
Ariège	-12.1943
Nadège	-12.1943
anticiper	-12.1943
interrogation	-12.1943
▁Boulogne	-12.1943
▁renseigner	-12.1943
Lozère	-12.1943
▁2008-94	-12.1943
Kevin	-12.1943
▁résiduelle	-12.1944
▁consultant	-12.1945
▁corporelles	-12.1945
Télécom	-12.1948
▁quote	-12.1949
▁ressortissant	-12.195
▁campus	-12.1951
Ordre	-12.1951
▁612-2	-12.1955
▁Stade	-12.1957
INDI	-12.1974
▁exempt	-12.1978
cutanée	-12.1986
Karim	-12.1987
▁CHAN	-12.1988
LIO	-12.1989
RAULT	-12.2006
▁513-1	-12.2007
▁exécute	-12.2009
LABA	-12.2018
astreinte	-12.2042
Sciences	-12.2042
trois	-12.2051
graphie	-12.2072
▁paie	-12.2078
▁réclam	-12.2079
Ghislain	-12.2082
Ahmed	-12.2082
Timothée	-12.2082
UNCAM	-12.2082
harmonisation	-12.2082
humatisme	-12.2082
itinéraire	-12.2082
▁Edmond	-12.2082
▁Muséum	-12.2082
▁Référentiel	-12.2082
▁approuve	-12.2082
▁axiale	-12.2082
▁conséquent	-12.2082
▁détecté	-12.2082
▁familiaux	-12.2082
▁prothèse	-12.2082
▁littéraire	-12.2082
usinage	-12.2082
▁GESTION	-12.2082
▁tumeur	-12.2082
▁RICHARD	-12.2082
Salomé	-12.2082
▁Gaston	-12.2082
▁affiche	-12.2082
▁Travail	-12.2082
▁révèle	-12.2082
▁zonale	-12.2082
Gaulle	-12.2082
▁Obligations	-12.2083
▁web	-12.2083
▁allemande	-12.2083
▁émettre	-12.2085
▁échantillons	-12.2085
▁recensées	-12.2086
▁aidants	-12.2086
Conseillère	-12.2087
▁FIA	-12.2091
▁TRO	-12.2092
/2004	-12.2098
arbre	-12.2114
MENB	-12.2123
ameli	-12.2125
guin	-12.2134
▁1.1.3	-12.2137
▁plantation	-12.214
fondateur	-12.2153
Armelle	-12.2172
international	-12.2176
pression	-12.2177
Coline	-12.2184
sciences	-12.2185
cachet	-12.2188
essi	-12.219
▁considér	-12.2194
accompagner	-12.2198
▁exécuté	-12.2199
▁coexiste	-12.2199
▁liquid	-12.221
EXIGENCE	-12.2223
Ordonnance	-12.2223
abonnement	-12.2223
podologue	-12.2223
▁Autorisation	-12.2223
▁CICTA	-12.2223
▁Diffusion	-12.2223
▁Indicateur	-12.2223
▁MILITAIRE	-12.2223
▁Ressources	-12.2223
▁SPÉCIALISÉE	-12.2223
▁SÉCURITÉ	-12.2223
▁bibliothécaire	-12.2223
▁concevoir	-12.2223
▁favorisant	-12.2223
▁maréchal	-12.2223
▁mucoviscidose	-12.2223
▁myélo	-12.2223
▁nullité	-12.2223
▁quinquies	-12.2223
▁symptômes	-12.2223
▁94749	-12.2223
▁inapproprié	-12.2223
▁présumé	-12.2223
Thibaud	-12.2223
▁CFTR	-12.2223
accise	-12.2223
▁graines	-12.2223
▁nourrisson	-12.2223
▁voile	-12.2223
▁Sexe	-12.2223
▁NICOL	-12.2223
Yoann	-12.2223
▁entraine	-12.2223
enseignementsup	-12.2223
▁photothérapie	-12.2223
autrui	-12.2224
GUIN	-12.2224
▁Éric	-12.2224
▁occasionné	-12.2225
▁MARINE	-12.2225
▁patientèle	-12.2226
▁PEPS	-12.2228
▁remplacent	-12.2232
avaient	-12.2234
▁trouvent	-12.2236
▁souterraines	-12.2236
▁réuniss	-12.2253
Laye	-12.2261
nageur	-12.2267
▁évit	-12.2301
Guillem	-12.2305
hydr	-12.2315
urier	-12.2318
▁amélior	-12.2321
Exp	-12.2324
texte	-12.233
existe	-12.2334
allet	-12.2334
Serge	-12.2336
exprim	-12.2346
horaire	-12.2356
▁simplifi	-12.2363
▁corporel	-12.2364
▁Trè	-12.2364
▁physico	-12.2366
▁Hospitali	-12.2366
▁manquant	-12.2366
▁ultramarin	-12.2366
Tiphaine	-12.2366
▁MATHIEU	-12.2366
▁PASSCOG	-12.2366
▁PNGMDR	-12.2366
▁PROPARCO	-12.2366
▁Rémunération	-12.2366
▁accuse	-12.2366
▁affiliées	-12.2366
▁confinement	-12.2366
▁doctorale	-12.2366
▁homogène	-12.2366
▁ordinateur	-12.2366
▁paramédicaux	-12.2366
▁psychique	-12.2366
▁souffr	-12.2366
NUCALA	-12.2366
▁cercle	-12.2366
▁voiture	-12.2366
sauveteur	-12.2366
▁enchères	-12.2366
▁locative	-12.2366
orienter	-12.2366
▁UNITÉS	-12.2366
▁récente	-12.2366
▁pause	-12.2366
owski	-12.2366
▁durabilité	-12.2368
▁évènements	-12.2368
attributaire	-12.237
▁Détail	-12.2372
Anjou	-12.2373
▁PUBLICS	-12.2373
▁proportionné	-12.2378
▁rendement	-12.2379
▁ruralité	-12.2381
olsheim	-12.2386
▁SOCIALE	-12.2387
▁rayon	-12.2391
▁converti	-12.2391
▁NOTA	-12.2394
Gui	-12.2402
rthrite	-12.2406
▁MAUR	-12.2411
Annecy	-12.2417
▁compensée	-12.2448
grand	-12.2454
▁induit	-12.2455
coefficient	-12.2477
septième	-12.2477
quatrième	-12.2477
sécurité	-12.2477
informe	-12.2494
▁patrimonial	-12.2501
▁connaît	-12.2508
▁progress	-12.2508
▁entière	-12.2509
orthopédie	-12.2511
▁Alphonse	-12.2511
▁ajusté	-12.2511
▁chaussure	-12.2511
▁dividende	-12.2511
▁divulgation	-12.2511
▁facturables	-12.2511
▁kilométrique	-12.2511
▁limitrophe	-12.2511
▁sinistre	-12.2511
▁vulnérabilité	-12.2511
▁édictée	-12.2511
Capucine	-12.2511
Instance	-12.2511
▁provoqu	-12.2511
▁242-21	-12.2511
/1139	-12.2511
Flavie	-12.2511
▁résumé	-12.2511
▁Liliane	-12.2511
Hélo	-12.2511
▁logique	-12.2511
▁vitro	-12.2512
2022-1726	-12.2512
▁1/25	-12.2514
▁rachat	-12.2514
▁Henriette	-12.2515
231-1	-12.2516
▁ROME	-12.2517
instauration	-12.2517
Brevet	-12.252
chercheur	-12.2525
pompier	-12.2525
▁632-1	-12.2529
RIAN	-12.2576
Cham	-12.2589
produits	-12.2619
▁2151-	-12.262
troisième	-12.2627
▁propos	-12.2645
▁cabine	-12.2654
inscriv	-12.2655
GLEMENT	-12.2657
Aveyron	-12.2658
Jennifer	-12.2658
anticipation	-12.2658
éanmoins	-12.2658
▁GIRARD	-12.2658
▁combinaison	-12.2658
▁indicatif	-12.2658
▁informatisé	-12.2658
▁modélis	-12.2658
▁notariaux	-12.2658
▁psoriasique	-12.2658
▁pupille	-12.2658
▁reclassés	-12.2658
▁résilience	-12.2658
▁usagés	-12.2658
▁convenances	-12.2658
▁ramené	-12.2658
immuno	-12.2658
▁parisiens	-12.2658
▁tampon	-12.2658
▁Place	-12.2658
pprofondissement	-12.2658
Avignon	-12.2658
▁bêta	-12.2658
Caractéristiques	-12.2658
▁dignité	-12.2658
▁MENTIONNÉ	-12.2658
▁résistance	-12.2659
▁déposent	-12.2662
▁hypothèses	-12.2663
▁payeur	-12.2663
▁autoroutes	-12.2664
Enfant	-12.2664
▁composent	-12.2666
▁concourt	-12.267
ako	-12.2676
JEAN	-12.2724
BOURG	-12.2726
▁RIB	-12.2741
traitement	-12.2744
6-8	-12.2745
▁doute	-12.2754
ical	-12.2768
Manche	-12.2778
système	-12.2778
Hubert	-12.2778
huitième	-12.2779
droit	-12.2779
étendue	-12.278
▁MOREAU	-12.2789
Aymeric	-12.2807
EPLEFPA	-12.2807
Ingénieur	-12.2807
hydrocarbures	-12.2807
éosinophiles	-12.2807
▁assignataire	-12.2807
▁ciclosporine	-12.2807
▁façade	-12.2807
▁incombant	-12.2807
▁portfolio	-12.2807
▁restitue	-12.2807
▁fenêtre	-12.2807
defense	-12.2807
▁céder	-12.2807
Constantin	-12.2807
▁ÉPREUVES	-12.2807
▁suppos	-12.2807
▁artisanale	-12.2807
▁palier	-12.2807
Garcia	-12.2807
▁Ghislaine	-12.2807
▁compli	-12.2808
▁contamination	-12.2809
▁cessionnaire	-12.2809
OLLET	-12.2809
Morgan	-12.2811
▁psychosocial	-12.2813
▁lauréat	-12.2826
▁consigne	-12.2826
▁substance	-12.2826
▁justificative	-12.2826
▁transit	-12.2828
ESSE	-12.2833
▁Sauv	-12.2839
transmission	-12.2903
CAPES	-12.2916
exemption	-12.292
ansm	-12.292
réponse	-12.2932
copie	-12.2932
▁végétal	-12.2949
9-5	-12.2953
fonction	-12.2956
liquant	-12.2958
accélér	-12.2958
observatoire	-12.2958
▁Entretien	-12.2958
▁Papeete	-12.2958
▁Statut	-12.2958
▁Trouble	-12.2958
▁assigné	-12.2958
▁décompose	-12.2958
▁essences	-12.2958
▁expire	-12.2958
▁illégal	-12.2958
▁maxillo	-12.2958
▁optimal	-12.2958
▁protéger	-12.2958
▁préliminaire	-12.2958
▁périphérique	-12.2958
▁regroupé	-12.2958
▁vœux	-12.2958
annuaire	-12.2958
▁Internet	-12.2958
▁ratification	-12.2958
▁6232-2	-12.2958
▁nantissement	-12.2959
▁Tumeur	-12.2959
▁1424-2	-12.2959
▁russe	-12.296
entourage	-12.296
▁minimaux	-12.2961
▁Biologie	-12.2961
▁mobilisés	-12.2964
▁laitier	-12.2966
Sofia	-12.2971
▁dento	-12.2973
CoV	-12.2987
▁Angel	-12.3013
▁massif	-12.3053
▁habituel	-12.3054
▁attesté	-12.3058
enregistrer	-12.3073
Ainsi	-12.3088
Landes	-12.3088
défense	-12.3088
gestion	-12.3089
rendu	-12.3092
crédit	-12.3094
admissio	-12.3109
ogne	-12.3111
html	-12.3112
ENFiP	-12.3112
Geoffroy	-12.3112
Ophélie	-12.3112
Préalablement	-12.3112
Psoriasis	-12.3112
altération	-12.3112
assignation	-12.3112
inflation	-12.3112
▁Alimentation	-12.3112
▁CAPITALISABLE	-12.3112
▁Dispositif	-12.3112
▁diabétique	-12.3112
▁difficile	-12.3112
▁discours	-12.3112
▁glycémique	-12.3112
▁multilatéral	-12.3112
▁nuisances	-12.3112
▁procédant	-12.3112
▁reconversion	-12.3112
▁terdecies	-12.3112
▁CONDITION	-12.3112
▁formulation	-12.3112
alouette	-12.3112
▁fiabilité	-12.3112
▁prononç	-12.3112
▁CERTIFICATION	-12.3112
▁Collège	-12.3113
▁radon	-12.3113
▁géotechnique	-12.3113
▁CNRS	-12.3113
▁passible	-12.3113
▁jaune	-12.3114
▁carton	-12.3116
Léger	-12.3116
▁325-5	-12.3117
jean	-12.3118
UNION	-12.3118
▁MODIFI	-12.312
▁exportations	-12.3121
▁ballon	-12.3133
▁clause	-12.3136
▁EURO	-12.3137
▁consacré	-12.3142
andri	-12.3185
▁numéris	-12.3222
numéro	-12.3247
place	-12.3248
▁modifie	-12.3262
▁stipul	-12.3269
Honoré	-12.3269
▁Préambule	-12.3269
▁Remboursement	-12.3269
▁York	-12.3269
▁cocontractant	-12.3269
▁discussion	-12.3269
▁poursuivra	-12.3269
▁projection	-12.3269
▁supprimer	-12.3269
▁échangé	-12.3269
▁algérien	-12.3269
▁atomique	-12.3269
▁senior	-12.3269
00004651089	-12.3269
▁chinois	-12.3269
▁battant	-12.3269
▁réacteurs	-12.3269
▁présélection	-12.3269
▁terminé	-12.3269
▁denrée	-12.3269
▁Médecins	-12.327
▁marié	-12.327
▁traction	-12.327
▁marche	-12.3271
▁recensement	-12.3271
ADJ	-12.3278
HLM	-12.3283
▁similaire	-12.3294
avion	-12.3308
champ	-12.3311
▁CHEV	-12.3322
adopter	-12.3336
▁garanti	-12.3377
▁BERTH	-12.3392
:	-12.3408
exemple	-12.3408
dentaire	-12.3409
▁sépar	-12.3411
APHA	-12.3418
▁engagé	-12.3419
▁humain	-12.3419
▁renouve	-12.3426
▁reprend	-12.3427
articulaire	-12.3427
Contribuer	-12.3427
Enseignement	-12.3427
INDEMNITÉ	-12.3427
dexaméthasone	-12.3427
élargissement	-12.3427
▁Collaborateur	-12.3427
▁Quatre	-12.3427
▁contraventions	-12.3427
▁dactylographié	-12.3427
▁frigorifique	-12.3427
▁plafonné	-12.3427
▁refroidissement	-12.3427
▁remplissage	-12.3427
▁témoign	-12.3427
▁imputé	-12.3427
▁bruit	-12.3427
▁pouce	-12.3427
Brieuc	-12.3427
▁Copie	-12.3427
▁rénale	-12.3427
échantillonnage	-12.3427
Cindy	-12.3428
▁SSR	-12.3428
▁immunités	-12.3429
OPCI	-12.3429
▁vide	-12.3433
▁chaire	-12.3437
UNITÉ	-12.3438
▁accepte	-12.3439
(1°	-12.3447
▁fasse	-12.3454
▁marchandise	-12.3456
COMPTES	-12.3461
Corn	-12.3464
Face	-12.347
▁mél	-12.3494
7-8	-12.3514
0-9	-12.3541
méthyl	-12.3542
▁rapproch	-12.3561
ouvrir	-12.3564
Bénédicte	-12.3572
Karine	-12.3572
médecin	-12.3572
chambres	-12.3573
▁paye	-12.358
▁suis	-12.3585
▁sceau	-12.3588
Gwena	-12.3589
COSENTYX	-12.3589
FONTAINE	-12.3589
actualité	-12.3589
▁Calendrier	-12.3589
▁Natixis	-12.3589
▁PRÉALABLES	-12.3589
▁Réglementation	-12.3589
▁Sylvia	-12.3589
▁botanique	-12.3589
▁chrétiens	-12.3589
▁cognitive	-12.3589
▁inclure	-12.3589
▁junior	-12.3589
▁odontologiques	-12.3589
▁pédicure	-12.3589
▁tacite	-12.3589
▁volontariat	-12.3589
▁herbeux	-12.3589
▁lympho	-12.3589
▁Cherbourg	-12.3589
Lydie	-12.3589
▁DSND	-12.3589
economie	-12.3589
▁Atelier	-12.3589
▁2020-169	-12.3589
▁Raoul	-12.3589
▁lisible	-12.3589
▁prévaloir	-12.3589
▁détrui	-12.3589
▁mégawattheure	-12.3589
▁délivr	-12.359
HOMME	-12.359
▁parvenue	-12.3592
ENTRÉ	-12.3592
▁douce	-12.3592
▁assujettie	-12.3597
emprunteur	-12.3602
▁chrono	-12.3606
pathie	-12.3613
▁vacation	-12.362
▁cibl	-12.3626
tente	-12.3658
▁CARRI	-12.3658
acide	-12.3679
▁clair	-12.3707
opathie	-12.3728
prescription	-12.3739
ompagnie	-12.3745
avon	-12.3748
▁Christ	-12.3751
tezacaftor	-12.3752
Madagascar	-12.3752
▁contracté	-12.3752
▁recherché	-12.3752
Entreprise	-12.3753
Marjorie	-12.3753
Philippine	-12.3753
Technique	-12.3753
américain	-12.3753
embarquement	-12.3753
▁Concession	-12.3753
▁Reprise	-12.3753
▁Responsable	-12.3753
▁SOCIETE	-12.3753
▁déclassement	-12.3753
▁humide	-12.3753
▁prérogatives	-12.3753
▁valoriser	-12.3753
▁analogue	-12.3753
▁minoré	-12.3753
▁Respect	-12.3753
▁Avec	-12.3753
▁Kunst	-12.3753
▁chaussées	-12.3754
▁orthoptistes	-12.3754
▁6211-4	-12.3755
▁921-	-12.3755
▁interrégionaux	-12.3756
▁encouru	-12.3756
▁rencontrées	-12.3757
MOBIL	-12.3758
▁1470-	-12.3778
Expertise	-12.3779
internat	-12.3794
Hors	-12.3803
▁Prad	-12.3805
▁719-	-12.3845
argumentation	-12.3879
huissière	-12.3908
assister	-12.3908
Metz	-12.3909
qualité	-12.391
niveau	-12.3915
▁concert	-12.3916
▁inhérent	-12.3919
Industrie	-12.3919
Mohammed	-12.3919
exacerbation	-12.3919
▁Communication	-12.3919
▁Doivent	-12.3919
▁Fourniture	-12.3919
▁Indications	-12.3919
▁Intérêts	-12.3919
▁Matériel	-12.3919
▁biométhane	-12.3919
▁brefs	-12.3919
▁chômage	-12.3919
▁compartiment	-12.3919
▁conduisent	-12.3919
▁contentieuse	-12.3919
▁doctorant	-12.3919
▁défaillant	-12.3919
▁délinquance	-12.3919
▁gamme	-12.3919
▁hormis	-12.3919
▁hypoglycémiant	-12.3919
▁infantile	-12.3919
▁labellisation	-12.3919
▁négative	-12.3919
▁peloton	-12.3919
▁posologie	-12.3919
▁posteriori	-12.3919
▁rattrapage	-12.3919
▁remédier	-12.3919
▁synonyme	-12.3919
▁trouvant	-12.3919
▁émoluments	-12.3919
▁décalage	-12.3919
▁tertiaire	-12.3919
Charlène	-12.3919
▁comptage	-12.3919
▁CROUS	-12.3919
▁Cognac	-12.3919
▁thèse	-12.3919
▁CONSEIL	-12.3919
▁opter	-12.3919
upload	-12.3919
▁Creuses	-12.392
▁correcteurs	-12.392
Dupont	-12.392
▁6211-5	-12.392
▁cyberespace	-12.392
▁Club	-12.3921
▁langage	-12.3921
▁Aimé	-12.3924
▁Franco	-12.3926
▁lanceur	-12.3927
▁0,1	-12.3943
PACTE	-12.397
▁faut	-12.3992
▁162-34-	-12.4005
drone	-12.403
établit	-12.4075
division	-12.4081
inspectrice	-12.4081
pôle	-12.4082
éventuelles	-12.4087
▁concentr	-12.4088
▁reconstruct	-12.4088
Bibliothèque	-12.4089
archivage	-12.4089
idrosadénite	-12.4089
échargée	-12.4089
édiathèque	-12.4089
▁CERFA	-12.4089
▁Candidat	-12.4089
▁Délibération	-12.4089
▁Intitulé	-12.4089
▁Prestations	-12.4089
▁TOULOUSE	-12.4089
▁Utilisation	-12.4089
▁archéologique	-12.4089
▁déployé	-12.4089
▁juriste	-12.4089
▁législatif	-12.4089
▁mobilières	-12.4089
▁particularité	-12.4089
▁percepteur	-12.4089
▁péréquation	-12.4089
▁rectrice	-12.4089
▁remarquable	-12.4089
▁singulières	-12.4089
▁téléchargé	-12.4089
▁MERCIER	-12.4089
▁démolition	-12.4089
▁hydrographique	-12.4089
▁métastatique	-12.4089
▁optimisé	-12.4089
▁éliminé	-12.4089
▁Régime	-12.4089
Belgique	-12.4089
Mylène	-12.4089
▁Josette	-12.4089
Roxane	-12.4089
▁neurochirurgie	-12.4089
▁segment	-12.4089
▁Maryse	-12.4089
▁TECHNIQUES	-12.4089
▁bouées	-12.4089
▁ménagers	-12.4089
▁tracé	-12.4089
▁HAUTE	-12.4089
flex	-12.4089
▁CAHIER	-12.409
▁explications	-12.409
▁profondeur	-12.4091
▁mobilisées	-12.4093
▁1225-	-12.4098
▁Défenseur	-12.4098
LISTE	-12.41
▁3314-	-12.4107
èche	-12.4112
Rayer	-12.4124
▁douanier	-12.4128
issage	-12.4141
interentreprises	-12.4147
ommant	-12.4151
nématographiques	-12.4152
▁privilégi	-12.4184
rgin	-12.4188
2-7,	-12.4211
▁nominal	-12.4216
▁0,7	-12.4217
ersailles	-12.4221
▁6113-	-12.4251
Tarn	-12.4256
deuxième	-12.4257
héberge	-12.4257
délais	-12.426
Cameroun	-12.4261
ENSEIGNEMENT	-12.4261
Lefebvre	-12.4261
accumulateurs	-12.4261
extrémité	-12.4261
iabby	-12.4261
indisponibilité	-12.4261
musculation	-12.4261
observateur	-12.4261
observer	-12.4261
▁Identifier	-12.4261
▁Vendeur	-12.4261
▁aléatoire	-12.4261
▁assermenté	-12.4261
▁côtière	-12.4261
▁distingue	-12.4261
▁déféré	-12.4261
▁halieutique	-12.4261
▁indemnisé	-12.4261
▁navigateur	-12.4261
▁perpétuel	-12.4261
▁recevable	-12.4261
▁remorqueur	-12.4261
▁suppurée	-12.4261
▁touristique	-12.4261
▁treize	-12.4261
▁Alfred	-12.4261
▁frauduleuse	-12.4261
▁cumac	-12.4261
▁paraît	-12.4261
▁visibilité	-12.4261
▁échu	-12.4261
Dimitri	-12.4261
agoniste	-12.4261
▁inapte	-12.4261
augmenter	-12.4261
encaissement	-12.4261
▁répété	-12.4261
acuité	-12.4261
▁SMR	-12.4262
▁Installations	-12.4262
▁Principes	-12.4262
▁reconnaître	-12.4263
▁Complément	-12.4263
▁roues	-12.4263
▁Electricité	-12.4263
▁bleu	-12.4263
▁trace	-12.4265
▁divisé	-12.4266
▁MARIE	-12.4268
▁primo	-12.4282
Albi	-12.4288
René	-12.4298
▁rattach	-12.4315
▁illustr	-12.4319
▁ordonné	-12.4335
▁Point	-12.4347
▁TARIF	-12.4371
▁trimestriel	-12.4383
▁LIB	-12.439
▁mutuel	-12.4395
Andra	-12.4422
▁vertical	-12.4428
occupant	-12.4435
DENIS	-12.4435
MARTIN	-12.4436
▁CERTIFICAT	-12.4436
Alzheimer	-12.4437
MEDEF	-12.4437
MEDTRONIC	-12.4437
RÉPARTITION	-12.4437
altitude	-12.4437
appendice	-12.4437
haltérophilie	-12.4437
influenza	-12.4437
éloignement	-12.4437
▁Mérignac	-12.4437
▁THÉRAPEUTIQUE	-12.4437
▁VINCENT	-12.4437
▁bâtonnier	-12.4437
▁contribuable	-12.4437
▁fibros	-12.4437
▁générer	-12.4437
▁magnétique	-12.4437
▁peinture	-12.4437
▁pelliculé	-12.4437
▁pintade	-12.4437
▁requiert	-12.4437
▁réfractaire	-12.4437
▁siècle	-12.4437
▁télémédecine	-12.4437
▁FINANCI	-12.4437
▁Quimper	-12.4437
▁fractionnement	-12.4437
▁raisonnement	-12.4437
Annabelle	-12.4437
▁géologique	-12.4437
▁Antenne	-12.4437
▁Crédit	-12.4437
Frank	-12.4437
▁6225-1	-12.4437
▁TOTAL	-12.4437
▁renouveler	-12.4437
Branche	-12.4437
▁incorporelles	-12.4437
ÉCOLE	-12.4438
▁accueille	-12.4439
PHILIPPE	-12.4446
charge	-12.4459
▁quoti	-12.4468
▁scanné	-12.4501
▁neuropsychologi	-12.4543
▁TERR	-12.4577
▁PUBLIC	-12.4606
Attention	-12.4615
EXPÉRIMENTATION	-12.4615
Maximilien	-12.4615
Nolwenn	-12.4615
amorçage	-12.4615
hypothèque	-12.4615
inflammatoire	-12.4615
ÉNERGIE	-12.4615
▁Mamoudzou	-12.4615
▁Ministre	-12.4615
▁Organiser	-12.4615
▁acoustique	-12.4615
▁aquacole	-12.4615
▁catalogue	-12.4615
▁corruption	-12.4615
▁démographiques	-12.4615
▁freinage	-12.4615
▁manufacturé	-12.4615
▁pondération	-12.4615
▁reconduction	-12.4615
▁restitué	-12.4615
▁retenir	-12.4615
▁écosystèmes	-12.4615
▁linéaire	-12.4615
▁égaux	-12.4615
▁Georgette	-12.4615
▁Villefranche	-12.4615
▁chute	-12.4615
▁instrumentation	-12.4615
▁émettrice	-12.4615
▁potable	-12.4615
▁liquidatif	-12.4615
génique	-12.4615
▁Décompte	-12.4616
civile	-12.4617
▁Recettes	-12.4617
▁Siège	-12.4618
▁frappé	-12.4618
▁logo	-12.4619
▁balise	-12.462
▁afférent	-12.4628
▁Vérifi	-12.466
Olympique	-12.4664
DROM	-12.4668
▁incorpor	-12.4759
-1691	-12.4774
▁trésorier	-12.4797
BPJEPS	-12.4797
Guilhem	-12.4797
Pierrick	-12.4797
Yohann	-12.4797
atmosphère	-12.4797
évasion	-12.4797
▁Conduite	-12.4797
▁Covid	-12.4797
▁Healthcare	-12.4797
▁Libellé	-12.4797
▁PRÉSENT	-12.4797
▁Restreinte	-12.4797
▁Tarbes	-12.4797
▁chemins	-12.4797
▁complexité	-12.4797
▁différencié	-12.4797
▁décompté	-12.4797
▁légitime	-12.4797
▁patronale	-12.4797
▁préconisations	-12.4797
▁résoudre	-12.4797
▁volumique	-12.4797
▁cependant	-12.4797
▁31/12/	-12.4797
▁centimes	-12.4797
▁Francine	-12.4797
▁compromettr	-12.4797
▁polyarticulaire	-12.4797
▁fausse	-12.4797
▁cadastrale	-12.4797
▁Caporal	-12.4797
▁technicité	-12.4798
▁combat	-12.4798
▁Bâtiments	-12.4798
PÉRIM	-12.4798
▁Ardennes	-12.4798
▁Cadre	-12.4798
▁proroge	-12.4799
▁intentionnelle	-12.4799
Renaud	-12.4801
environ	-12.4801
Patricia	-12.4802
Première	-12.4802
dorf	-12.4802
personne	-12.4803
ctionnaires	-12.482
Guinée	-12.4848
▁mathématique	-12.4849
▁6324-	-12.4865
Born	-12.4886
▁ponctuel	-12.4893
▁polyarthrit	-12.4941
▁dirige	-12.4942
▁maxima	-12.4962
Diplôme	-12.4982
FORMULAIRE	-12.4982
TRIBUTION	-12.4982
aliénation	-12.4982
atterrissage	-12.4982
▁Connexions	-12.4982
▁NOUVELLE	-12.4982
▁Période	-12.4982
▁SECTION	-12.4982
▁Ségur	-12.4982
▁ambassadrice	-12.4982
▁domicilié	-12.4982
▁déplacer	-12.4982
▁désormais	-12.4982
▁fourragère	-12.4982
▁physicien	-12.4982
▁radiologique	-12.4982
▁régulateur	-12.4982
▁souple	-12.4982
▁BREVET	-12.4982
▁BÉNÉFIC	-12.4982
▁confront	-12.4982
▁Fournier	-12.4982
▁Mobile	-12.4982
Marlène	-12.4982
▁5547-3	-12.4982
▁assume	-12.4982
▁labellisé	-12.4982
alignement	-12.4982
Yasmine	-12.4982
▁billets	-12.4982
▁parution	-12.4982
▁FAURE	-12.4984
▁Cannes	-12.4984
▁convoi	-12.4985
▁2012-43	-12.4987
Béatrice	-12.499
http	-12.499
bulletin	-12.499
infanterie	-12.499
Nombre	-12.4991
Bénin	-12.4991
▁averti	-12.5008
Johan	-12.5012
GRU	-12.5022
fontaine	-12.5029
donnees	-12.5029
ZZO	-12.5029
2-9-1	-12.5034
▁group	-12.5115
audioprothésiste	-12.513
Jade	-12.5136
ecod	-12.5159
▁Nicol	-12.5163
équation	-12.5163
▁0,2	-12.5169
énétration	-12.5169
nzième	-12.517
ÉPREUVE	-12.5171
Innovation	-12.5171
▁Dunkerque	-12.5171
▁partenarial	-12.5171
administrer	-12.5171
azathioprine	-12.5171
humidité	-12.5171
▁160-8	-12.5171
▁Collectivité	-12.5171
▁POSTES	-12.5171
▁ankylosante	-12.5171
▁biologiste	-12.5171
▁biomédecine	-12.5171
▁brochure	-12.5171
▁municipaux	-12.5171
▁méningocoque	-12.5171
▁palliatifs	-12.5171
▁prolonger	-12.5171
▁regroupant	-12.5171
▁relogement	-12.5171
▁récepteur	-12.5171
▁réciproque	-12.5171
▁étroite	-12.5171
▁DUBOIS	-12.5171
▁Facture	-12.5171
Mélissa	-12.5171
Fontaine	-12.5171
▁orienté	-12.5171
▁Thème	-12.5171
▁Lognes	-12.5171
▁maitrise	-12.5171
▁nourri	-12.5172
▁genre	-12.5172
▁ROUSSEL	-12.5173
▁montée	-12.5173
entraîne	-12.5175
Normandie	-12.5183
technicien	-12.5183
physique	-12.5183
Nouvelle	-12.5183
ABLE	-12.5192
▁abordé	-12.5194
incorporation	-12.5209
▁anticipé	-12.5226
▁astreint	-12.5294
▁Expert	-12.5332
volution	-12.5342
▁investi	-12.536
remboursable	-12.5361
Joan	-12.5363
▁immunosuppress	-12.5363
Patrimoine	-12.5363
aumônier	-12.5363
instruire	-12.5363
▁Provision	-12.5363
▁RECRUTEMENT	-12.5363
▁biosimilaires	-12.5363
▁découlant	-12.5363
▁dépourvue	-12.5363
▁mannequin	-12.5363
▁probabilité	-12.5363
▁taxi	-12.5363
Alençon	-12.5363
▁Accueil	-12.5363
▁Soutien	-12.5363
▁jauge	-12.5363
▁Tchad	-12.5363
▁hausse	-12.5363
▁timbre	-12.5363
▁Jeannine	-12.5363
Arabie	-12.5363
▁gardé	-12.5363
▁GERARD	-12.5363
▁thermo	-12.5363
▁marais	-12.5363
écoulement	-12.5363
CPME	-12.5363
Certain	-12.5364
Orsay	-12.5364
▁connecter	-12.5364
attaque	-12.5364
▁découle	-12.5365
▁CHAMB	-12.5366
▁créneau	-12.5374
indiquer	-12.5378
dispositifs	-12.5379
officiel	-12.5379
ométrie	-12.5387
CORPS	-12.5412
▁plaque	-12.5426
▁INTERNE	-12.545
▁strict	-12.5463
▁immédiat	-12.5471
▁SEIN	-12.5473
▁Bleu	-12.5475
▁2314-	-12.5484
ULLE	-12.5486
▁exploite	-12.5493
▁suspend	-12.5534
▁CLASSE	-12.5552
Ingrid	-12.5559
arpentier	-12.5559
pâtisserie	-12.5559
étanercept	-12.5559
▁CRCDC	-12.5559
▁Duquesne	-12.5559
▁JANVIER	-12.5559
▁alternatif	-12.5559
▁céréales	-12.5559
▁discrétion	-12.5559
▁duplicata	-12.5559
▁déficience	-12.5559
▁lumineux	-12.5559
▁parachutisme	-12.5559
▁piéton	-12.5559
▁preneur	-12.5559
▁pyrotechnique	-12.5559
▁spontané	-12.5559
Avocat	-12.5559
▁habitable	-12.5559
▁comptant	-12.5559
▁vallée	-12.5559
▁balance	-12.5559
▁saurait	-12.5559
▁RÉGLEMENT	-12.5559
▁garantissent	-12.556
▁natation	-12.556
appareillage	-12.556
▁maillage	-12.556
OUVERT	-12.5561
▁nappe	-12.5562
▁numérotation	-12.5562
neuvième	-12.5578
obstacle	-12.5579
universitaire	-12.5579
▁Serv	-12.5586
02-22	-12.5588
▁corrective	-12.5626
OMBE	-12.5647
▁noté	-12.565
natura	-12.5683
tricie	-12.5714
influe	-12.5731
▁Andr	-12.575
onférence	-12.5752
ocalisation	-12.5753
sistance	-12.5754
▁rembourse	-12.5754
CNFPT	-12.5759
arbitre	-12.5759
infectieux	-12.5759
orthophoniste	-12.5759
téléconsultation	-12.5759
étiquetage	-12.5759
▁Aménagement	-12.5759
▁Constructions	-12.5759
▁DONNÉES	-12.5759
▁DÉCRET	-12.5759
▁IMPRIM	-12.5759
▁Maîtrise	-12.5759
▁Volontaires	-12.5759
▁château	-12.5759
▁citernes	-12.5759
▁déclinaison	-12.5759
▁démontage	-12.5759
▁entraîné	-12.5759
▁pauvreté	-12.5759
▁questionnement	-12.5759
▁recouru	-12.5759
▁spécimen	-12.5759
▁coopératif	-12.5759
▁délibéré	-12.5759
▁tunnel	-12.5759
▁CGFP	-12.5759
▁tronçon	-12.5759
▁journaux	-12.5759
▁revente	-12.5759
▁122-9	-12.5759
▁solvants	-12.5759
▁vélo	-12.5759
▁poulets	-12.5759
androst	-12.5759
paraissent	-12.576
▁Jocelyne	-12.576
▁526-2	-12.576
▁apportant	-12.576
▁ROUSSEAU	-12.576
Laurine	-12.5762
accomplir	-12.5782
greffe	-12.5783
préciser	-12.5783
commission	-12.5784
▁silenc	-12.5801
▁causé	-12.5831
2000).	-12.5833
▁Wei	-12.5838
▁grad	-12.586
▁transfusion	-12.5944
explosif	-12.5961
aspect	-12.5961
▁percev	-12.5963
ATTESTATION	-12.5963
Irlande	-12.5963
obésité	-12.5963
ontournement	-12.5963
▁Bangladesh	-12.5963
▁Inspecteur	-12.5963
▁RESPONSABILITÉ	-12.5963
▁Sanctions	-12.5963
▁avérée	-12.5963
▁conchyliculture	-12.5963
▁didactique	-12.5963
▁déposant	-12.5963
▁employer	-12.5963
▁horizontale	-12.5963
▁hétérozygote	-12.5963
▁inhibiteur	-12.5963
▁invasive	-12.5963
▁irrégulière	-12.5963
▁mauvais	-12.5963
▁perturb	-12.5963
▁plâtre	-12.5963
▁psychiatre	-12.5963
▁scellement	-12.5963
▁socioculturelle	-12.5963
Jimmy	-12.5963
épuration	-12.5963
▁maniement	-12.5963
▁TRAVAIL	-12.5963
▁expriment	-12.5963
▁dissous	-12.5963
▁Consult	-12.5963
▁fauteuil	-12.5963
▁canard	-12.5963
▁Dossier	-12.5963
Alicia	-12.5964
▁SIGNÉ	-12.5964
▁postulé	-12.5964
uniforme	-12.5964
▁radiographique	-12.5964
▁PRÉVU	-12.5964
▁sondage	-12.5964
pneumo	-12.5966
▁originale	-12.5971
▁actualis	-12.5975
organise	-12.5984
Corinne	-12.5991
contrôle	-12.5991
Lyon	-12.5991
budgétaires	-12.5992
Amir	-12.6008
ANNÉE	-12.6017
Huissier	-12.6039
ONNIER	-12.6061
FORMATIONS	-12.6092
29-7	-12.6129
interprofession	-12.6131
▁sécuris	-12.6135
ccessible	-12.6162
lectricité	-12.6164
▁Présent	-12.617
▁ÉDUCAT	-12.6171
▁patrouille	-12.6172
AUTORITÉ	-12.6172
Ambassade	-12.6172
Angoulême	-12.6172
ENVIRONNEMENT	-12.6172
Matthias	-12.6172
QUISES	-12.6172
agronomie	-12.6172
habillement	-12.6172
mercaptopurine	-12.6172
optimiser	-12.6172
▁AGIRC	-12.6172
▁CIVILE	-12.6172
▁COMMISSAIRE	-12.6172
▁CRPMEM	-12.6172
▁Compiègne	-12.6172
▁FOURNIER	-12.6172
▁Fonctionnement	-12.6172
▁International	-12.6172
▁Maintenance	-12.6172
▁Mobilier	-12.6172
▁PRODUITS	-12.6172
▁Plateforme	-12.6172
▁ROLLAND	-12.6172
▁SOCIAUX	-12.6172
▁agissent	-12.6172
▁chiffré	-12.6172
▁céramique	-12.6172
▁dramatique	-12.6172
▁fluviaux	-12.6172
▁incluent	-12.6172
▁matelot	-12.6172
▁pétrole	-12.6172
▁quatorze	-12.6172
▁régulariser	-12.6172
▁répercut	-12.6172
▁réévalué	-12.6172
▁sanguins	-12.6172
▁signification	-12.6172
▁spéléologie	-12.6172
▁viticole	-12.6172
▁MISSION	-12.6172
▁filiation	-12.6172
▁particules	-12.6172
▁sénateur	-12.6172
▁BERTRAND	-12.6172
▁gibier	-12.6172
▁protéine	-12.6172
▁payable	-12.6172
ccèdent	-12.6172
Education	-12.6172
▁MHz	-12.6172
▁Lorient	-12.6172
2022-529	-12.6172
aération	-12.6172
fosse	-12.6173
Lemoine	-12.6173
COURS	-12.6174
Arras	-12.6176
▁topo	-12.6181
▁nutritionnel	-12.6184
Château	-12.6204
candidat	-12.6204
imprimé	-12.6204
Manuel	-12.6204
opératoire	-12.6204
▁sexuel	-12.6213
récurrente	-12.6226
▁multiplié	-12.6235
▁rassembl	-12.6251
Stéphan	-12.6356
orthoptiste	-12.6382
▁concurre	-12.6384
LEFEBVRE	-12.6384
Montbéliard	-12.6384
Turquie	-12.6384
anniversaire	-12.6384
atmosphérique	-12.6384
harmacovigilance	-12.6384
pidémiologie	-12.6384
représentativité	-12.6384
échafaudage	-12.6384
étanchéité	-12.6384
▁ASSOCIÉ	-12.6384
▁Monnaie	-12.6384
▁RECHERCHE	-12.6384
▁Référence	-12.6384
▁aluminium	-12.6384
▁authentique	-12.6384
▁centimètres	-12.6384
▁correctrice	-12.6384
▁domanial	-12.6384
▁fiscaux	-12.6384
▁humanitaire	-12.6384
▁interruptible	-12.6384
▁manuscrite	-12.6384
▁minéraux	-12.6384
▁modificatif	-12.6384
▁neutralité	-12.6384
▁promeut	-12.6384
▁prototypage	-12.6384
▁simulateur	-12.6384
▁vêtement	-12.6384
▁électoraux	-12.6384
▁équilibré	-12.6384
Nazaire	-12.6384
▁Attestation	-12.6384
▁Infections	-12.6384
▁armés	-12.6384
▁Fontenay	-12.6384
▁Amiable	-12.6384
▁facile	-12.6384
▁sucre	-12.6384
CAFEP	-12.6384
invitation	-12.6384
enthésite	-12.6384
▁IPEP	-12.6384
▁Avance	-12.6385
▁sexistes	-12.6385
▁canaux	-12.6385
▁supervise	-12.6385
opinion	-12.6385
▁ROBIN	-12.6385
▁conteste	-12.6385
▁Villers	-12.6385
échauffement	-12.6385
▁acheté	-12.6385
▁cadastrée	-12.6386
▁choc	-12.6393
▁enregistre	-12.6398
Mika	-12.6414
procédure	-12.6421
Frédérique	-12.6421
Méditerranée	-12.6421
maître	-12.6421
République	-12.6422
Petit	-12.6422
▁formalité	-12.6469
▁adhér	-12.6495
DOTATION	-12.6498
▁Radio	-12.653
▁COMPTE	-12.6558
accalauréat	-12.6598
▁super	-12.6602
Geoffrey	-12.6602
ORGANISMES	-12.6602
Romuald	-12.6602
allégean	-12.6602
hépatite	-12.6602
intermédiation	-12.6602
introduire	-12.6602
▁Dépôt	-12.6602
▁Economie	-12.6602
▁Forfait	-12.6602
▁Influenza	-12.6602
▁Luxembourg	-12.6602
▁Qatar	-12.6602
▁Syndrome	-12.6602
▁Viviane	-12.6602
▁activé	-12.6602
▁chapons	-12.6602
▁croisement	-12.6602
▁démarrage	-12.6602
▁dépréciation	-12.6602
▁numéraire	-12.6602
▁privation	-12.6602
Panthéon	-12.6602
▁Béziers	-12.6602
▁Sfax	-12.6602
▁chalut	-12.6602
▁traducteur	-12.6602
Evreux	-12.6602
▁dégager	-12.6602
▁évoqu	-12.6602
▁scène	-12.6602
GARNIER	-12.6602
▁Josiane	-12.6602
aboutit	-12.6602
▁soulign	-12.6602
▁neuroradiologie	-12.6602
soixante	-12.6643
Direction	-12.6643
maladie	-12.6644
équivalent	-12.6644
Steve	-12.6647
Sacha	-12.6669
IFICATION	-12.6688
▁consignation	-12.6691
▁tâche	-12.6691
▁annul	-12.6762
▁subisse	-12.6766
▁œuvr	-12.6769
▁SOCIAL	-12.6791
oordination	-12.6817
▁profonde	-12.6821
▁Accompagn	-12.6823
anonymat	-12.6824
irrigation	-12.6824
restaurant	-12.6824
▁2017/373	-12.6824
▁CANDIDAT	-12.6824
▁COMMISSION	-12.6824
▁Distribution	-12.6824
▁Genève	-12.6824
▁Valenciennes	-12.6824
▁ascendant	-12.6824
▁atopique	-12.6824
▁autoroutier	-12.6824
▁cavité	-12.6824
▁conscience	-12.6824
▁contigu	-12.6824
▁coproduction	-12.6824
▁génération	-12.6824
▁lumineuse	-12.6824
▁procuration	-12.6824
▁pêché	-12.6824
▁successifs	-12.6824
museum	-12.6824
agression	-12.6824
▁Sophia	-12.6824
▁stimul	-12.6824
▁diligent	-12.6824
Violaine	-12.6824
Vianney	-12.6824
▁juste	-12.6824
▁promotionnels	-12.6824
▁gardiennage	-12.6824
▁priori	-12.6824
▁captation	-12.6824
▁émerge	-12.6824
Katia	-12.6825
▁acceptable	-12.6825
▁446-2	-12.6825
1/2005	-12.6828
▁combl	-12.6833
▁WEI	-12.6836
AMOUR	-12.6837
communautaire	-12.687
Nancy	-12.6871
“	-12.6871
connaissance	-12.6886
▁cheval	-12.7017
▁Cinq	-12.7022
▁retire	-12.7044
univers	-12.7046
ésumé	-12.7051
TECHNIQUE	-12.7051
Cassandre	-12.7051
Egypte	-12.7051
Youssef	-12.7051
décentralisation	-12.7051
onsistoire	-12.7051
épuisement	-12.7051
▁LEFEVRE	-12.7051
▁SGFGAS	-12.7051
▁TRAITEMENT	-12.7051
▁contenir	-12.7051
▁câble	-12.7051
▁dépistée	-12.7051
▁liquéfié	-12.7051
▁musicale	-12.7051
▁mégots	-12.7051
▁poursuivent	-12.7051
▁satellite	-12.7051
▁transbordement	-12.7051
▁tutorat	-12.7051
▁veillant	-12.7051
▁zzz	-12.7051
▁évolutive	-12.7051
▁Commerce	-12.7051
▁PUBLIQUE	-12.7051
▁Physique	-12.7051
▁Adapt	-12.7051
FRANCOIS	-12.7051
▁tribune	-12.7051
▁fragment	-12.7051
▁2019-147	-12.7051
inciter	-12.7051
Carbone	-12.7052
Mathis	-12.7052
▁Blois	-12.7052
▁probant	-12.7052
▁Collecte	-12.7052
Rolland	-12.7052
▁statine	-12.7052
2022-479	-12.7054
▁Recto	-12.7054
▁inviter	-12.7059
encadrer	-12.7103
automobile	-12.7103
octobre	-12.7104
cription	-12.7108
emballage	-12.7151
▁diminu	-12.7159
secteur	-12.7251
Océan	-12.7257
▁Trinité	-12.7284
▁étanche	-12.7284
Cynthia	-12.7284
Déborah	-12.7284
OFPRA	-12.7284
différemment	-12.7284
installateur	-12.7284
intéresser	-12.7284
▁Béthune	-12.7284
▁CASANOVA	-12.7284
▁CERTIFICATIVE	-12.7284
▁Cévennes	-12.7284
▁Désiré	-12.7284
▁Impact	-12.7284
▁PATIENT	-12.7284
▁Paramètre	-12.7284
▁Rambouillet	-12.7284
▁SPSTI	-12.7284
▁Tolbiac	-12.7284
▁Téléphone	-12.7284
▁allergologie	-12.7284
▁cancérologie	-12.7284
▁comparative	-12.7284
▁faisabilité	-12.7284
▁menuisier	-12.7284
▁négocié	-12.7284
▁paternité	-12.7284
▁plomb	-12.7284
▁printemps	-12.7284
▁radar	-12.7284
▁revanche	-12.7284
▁rituximab	-12.7284
▁trouvé	-12.7284
▁urbaniste	-12.7284
▁Bayonne	-12.7284
Hôtel	-12.7284
horizon	-12.7284
▁Logement	-12.7284
▁nuire	-12.7284
GEORGE	-12.7284
▁fuite	-12.7284
▁enterré	-12.7284
▁chose	-12.7284
avère	-12.7284
Vidal	-12.7286
Marchand	-12.7288
▁162-7	-12.7289
▁PRAD	-12.7292
▁212-52	-12.73
transfusionnelle	-12.7306
Accord	-12.7341
Bureau	-12.7341
cinquième	-12.7342
vendeur	-12.7342
adhérer	-12.7349
ISTAN	-12.7362
rempli	-12.7374
▁Aristide	-12.7522
Gaspard	-12.7522
Hippolyte	-12.7522
Ibrahim	-12.7522
Répartition	-12.7522
apparition	-12.7522
arrangement	-12.7522
hélisurface	-12.7522
▁Branly	-12.7522
▁Centrale	-12.7522
▁Draguignan	-12.7522
▁EXTERNE	-12.7522
▁Monaco	-12.7522
▁SUIVI	-12.7522
▁boulangerie	-12.7522
▁cartographiques	-12.7522
▁confère	-12.7522
▁dermatite	-12.7522
▁doctrine	-12.7522
▁déplacé	-12.7522
▁fréquemment	-12.7522
▁kilowattheure	-12.7522
▁minoration	-12.7522
▁négligence	-12.7522
▁néonatologie	-12.7522
[...]
