<unk>	0
<s>	0
</s>	0
▁de	-3.02848
'	-3.23255
,	-3.42751
▁l	-3.82823
▁du	-3.85808
▁la	-3.88036
.	-4.06388
▁et	-4.14337
▁des	-4.15294
▁	-4.21113
▁à	-4.2444
▁d	-4.28704
▁"	-4.43942
s	-4.47678
▁les	-4.49621
▁le	-4.60765
-	-4.69636
▁au	-4.75845
▁(	-4.83194
▁en	-4.85041
."	-4.86853
▁:	-5.05561
▁est	-5.06755
▁par	-5.06849
/	-5.18508
▁«	-5.34065
article	-5.34395
▁ou	-5.34662
—	-5.37442
)	-5.38623
▁L	-5.4402
▁dans	-5.46013
▁pour	-5.61011
▁»	-5.61737
▁;	-5.64405
▁sont	-5.70904
▁aux	-5.74003
▁2021	-5.84212
▁un	-5.90064
),	-5.90777
▁;"	-5.924
▁Le	-5.97647
▁sur	-5.97827
e	-6.08579
A	-6.10516
un	-6.15555
▁1	-6.15913
▁M	-6.19769
▁arrêté	-6.19843
▁présent	-6.2099
▁une	-6.21043
er	-6.24663
°	-6.29914
▁Les	-6.30257
▁code	-6.31408
▁ministre	-6.33004
▁qui	-6.3532
une	-6.37923
▁Mme	-6.39147
▁R	-6.39194
▁"«	-6.3941
▁ainsi	-6.42607
▁mots	-6.43554
▁date	-6.43675
▁n	-6.49647
▁que	-6.49829
▁fr	-6.54249
lr	-6.55706
▁La	-6.58404
)."	-6.58788
▁A	-6.60147
▁alinéa	-6.60692
M	-6.61097
▁services	-6.61219
▁:"	-6.64785
"	-6.71117
▁décret	-6.72993
▁portant	-6.73424
▁dispositions	-6.73738
▁être	-6.76085
arrete	-6.77177
▁titre	-6.77945
▁officiel	-6.81957
▁avec	-6.82603
▁I	-6.8433
▁française	-6.84883
▁Journal	-6.87178
▁conditions	-6.88324
▁ans	-6.8983
▁République	-6.90678
▁2	-6.90875
▁leur	-6.91686
▁ne	-6.93486
▁Arrêté	-6.93816
▁santé	-6.9603
▁cas	-6.98541
▁décembre	-6.98788
▁sera	-6.99155
▁concours	-6.99187
▁son	-6.99859
▁a	-6.9992
▁travail	-7.01434
▁D	-7.02142
S	-7.03721
▁pas	-7.04369
▁sous	-7.06355
▁service	-7.07647
▁nationale	-7.08371
D	-7.10197
▁ce	-7.10458
▁Au	-7.10931
▁peut	-7.11135
▁II	-7.11412
a	-7.11452
▁2021,	-7.11472
▁fixant	-7.11521
▁même	-7.12885
Mme	-7.13286
▁ses	-7.13517
▁s	-7.13702
▁2020	-7.14587
C	-7.16006
arrêté	-7.16439
▁janvier	-7.16471
▁générale	-7.16976
▁3	-7.17763
▁dont	-7.18241
Par	-7.18558
▁applicables	-7.18615
▁compter	-7.19664
▁1°	-7.19895
▁sécurité	-7.20179
▁général	-7.2111
administration	-7.21583
▁qu	-7.22423
▁Décret	-7.22533
▁publié	-7.22836
es	-7.22953
1	-7.23206
Le	-7.23271
▁formation	-7.2465
▁directeur	-7.24745
▁professionnelle	-7.249
▁contre	-7.25596
▁2°	-7.26481
▁4	-7.27116
de	-7.27735
▁publique	-7.27912
Etat	-7.2887
▁juillet	-7.30775
▁chargé	-7.31321
▁sa	-7.32862
▁articles	-7.32881
2	-7.33238
▁susvisé	-7.33445
▁demande	-7.3374
).	-7.3383
▁N	-7.35179
▁mars	-7.35562
▁candidats	-7.35894
▁5	-7.36096
▁cette	-7.36846
▁modifié	-7.37245
il	-7.3781
▁société	-7.37848
▁premier	-7.38184
▁relatif	-7.39229
r	-7.398
▁liste	-7.40494
▁ces	-7.40507
▁gestion	-7.40639
▁après	-7.40787
▁titulaire	-7.41126
▁durée	-7.41801
3	-7.41816
L	-7.43673
▁prévues	-7.43674
▁-	-7.44221
6	-7.44752
▁<	-7.45372
TABLE	-7.45568
>	-7.45776
▁6	-7.47024
▁février	-7.47068
▁juin	-7.47114
que	-7.47143
▁DE	-7.4814
▁octobre	-7.48494
▁novembre	-7.48832
▁plus	-7.49494
▁entre	-7.49898
▁application	-7.50631
ant	-7.50702
▁septembre	-7.50891
▁C	-7.51019
▁convention	-7.51396
▁il	-7.5198
▁avril	-7.52421
▁publics	-7.52665
▁notaire	-7.52877
étendue	-7.53227
▁mai	-7.54405
8	-7.54591
Les	-7.54726
▁suivantes	-7.54737
▁remplacés	-7.55017
T	-7.55711
▁Art	-7.55937
▁Il	-7.56024
4	-7.57546
▁qualité	-7.58092
▁chef	-7.58216
▁servitudes	-7.58218
7	-7.58616
▁candidat	-7.5909
▁30	-7.5935
▁compte	-7.5981
▁cadre	-7.59838
▁personnes	-7.6057
▁se	-7.60791
c	-7.61107
▁""	-7.61341
▁national	-7.61849
▁sociale	-7.62411
5	-7.62751
9	-7.62877
▁classe	-7.63256
▁8	-7.64181
▁public	-7.64346
▁Marie	-7.64947
▁mise	-7.66077
La	-7.66149
▁auprès	-7.66186
▁justice	-7.66355
▁ministère	-7.66573
▁10	-7.66609
▁peuvent	-7.66626
▁Paris	-7.66687
▁électronique	-7.67113
▁dossier	-7.67716
▁août	-7.67828
▁mentionnés	-7.67851
application	-7.67933
▁7	-7.68079
l	-7.68337
▁zones	-7.68379
▁III	-7.69032
▁31	-7.6928
▁finances	-7.69415
▁mois	-7.69451
▁12	-7.69566
▁direction	-7.7072
▁nomination	-7.70856
▁15	-7.71134
▁22	-7.71248
▁p	-7.71302
▁CHU	-7.71945
▁modalités	-7.72513
année	-7.72879
▁épreuves	-7.73013
▁non	-7.73149
▁partir	-7.73461
▁fonction	-7.73719
n	-7.73724
▁centre	-7.73799
0	-7.74214
▁»,	-7.7436
▁président	-7.75121
▁9	-7.75354
▁3°	-7.75585
▁20	-7.75908
▁deux	-7.76341
▁délai	-7.76452
exécution	-7.76543
▁B	-7.76668
▁fonctions	-7.76698
B	-7.76984
et	-7.77449
▁16	-7.77969
▁moins	-7.78182
▁montant	-7.78276
▁conseil	-7.78368
é	-7.78863
inscription	-7.7965
▁mentionnées	-7.8059
▁station	-7.8073
▁13	-7.80952
▁tous	-7.8097
▁23	-7.81032
▁membres	-7.81208
▁21	-7.81268
▁civile	-7.81668
▁Pour	-7.82512
▁loi	-7.83979
▁professionnel	-7.84302
▁voisinage	-7.84888
▁médecine	-7.84945
▁ANFR	-7.8509
▁données	-7.86281
▁remplacé	-7.86286
▁obstacles	-7.86291
▁collective	-7.86336
au	-7.87281
b	-7.87523
▁cha	-7.87874
établissement	-7.88007
I	-7.88385
▁b	-7.8871
▁17	-7.88973
▁recherche	-7.89297
▁soit	-7.90343
▁doit	-7.90448
▁11	-7.90558
exercice	-7.90924
▁née	-7.91135
▁protection	-7.9177
▁leurs	-7.91958
▁19	-7.92006
▁tout	-7.92381
▁nombre	-7.92422
▁14	-7.92728
▁mentionné	-7.92836
▁charge	-7.93045
▁sein	-7.93555
▁référence	-7.93793
nt	-7.93855
▁rédigé	-7.94326
▁article	-7.95031
▁résidence	-7.95378
▁droit	-7.95802
▁établissements	-7.95909
▁Conseil	-7.96387
enseignement	-7.96398
▁V	-7.96404
en	-7.96789
▁deuxième	-7.96833
▁mentionnée	-7.9697
▁18	-7.97012
▁réserve	-7.97546
économie	-7.9772
▁Saint	-7.9805
emploi	-7.9806
d	-7.98521
▁avant	-7.98828
ment	-7.99789
▁notamment	-7.99993
▁personne	-8.00063
▁24	-8.00152
▁%	-8.01036
▁Jean	-8.01252
annexe	-8.01354
le	-8.015
▁conformément	-8.01517
▁période	-8.02063
▁contrôle	-8.02096
▁selon	-8.02274
▁supérieur	-8.03015
▁corps	-8.03169
▁œuvre	-8.03271
▁25	-8.03367
▁comme	-8.03396
▁France	-8.0378
▁situation	-8.03999
E	-8.04016
est	-8.04987
▁voie	-8.06542
▁26	-8.07029
▁accessible	-8.07304
▁fin	-8.07314
P	-8.07413
▁cours	-8.07438
▁prévue	-8.07814
▁S	-8.08202
▁29	-8.08311
▁membre	-8.0918
▁texte	-8.09262
▁prise	-8.0932
y	-8.09684
▁limite	-8.09736
▁bureau	-8.09813
extrait	-8.0989
▁été	-8.10266
objet	-8.10593
▁partie	-8.10933
▁page	-8.11782
▁2019	-8.11929
▁vigueur	-8.12109
▁échéant	-8.12175
▁c	-8.12207
▁bas	-8.12223
▁traitement	-8.12822
ci	-8.12881
▁En	-8.12988
▁2022	-8.13065
▁consulter	-8.13174
près	-8.13225
▁“	-8.1339
▁droits	-8.13893
▁agents	-8.14011
t	-8.14271
accès	-8.15311
▁trois	-8.15334
▁IV	-8.15972
▁grade	-8.16181
intégralité	-8.16228
▁ayant	-8.16229
▁règlement	-8.16311
éducation	-8.16321
▁28	-8.16682
▁contrat	-8.16749
▁site	-8.17461
▁représentant	-8.17495
▁mot	-8.17667
▁4°	-8.17955
▁lieu	-8.18118
▁images	-8.18435
▁garde	-8.18506
▁judiciaire	-8.1854
▁Vou	-8.18937
▁27	-8.19024
▁ci	-8.19308
▁P	-8.19364
ouvez	-8.19664
▁authentifié	-8.19687
▁nom	-8.19728
▁relatives	-8.1991
▁heures	-8.19927
▁sans	-8.20351
▁entreprises	-8.20543
à	-8.20659
▁commission	-8.20698
▁zone	-8.20899
épreuve	-8.21336
▁produits	-8.21391
re	-8.21455
▁hors	-8.21811
▁jury	-8.22436
F	-8.22465
JUS	-8.22466
▁chapitre	-8.23053
R	-8.23071
cret	-8.23645
▁décision	-8.23847
▁si	-8.23955
▁section	-8.24471
▁"1°	-8.25168
▁collectivités	-8.26234
activité	-8.26552
▁fait	-8.27108
▁annexe	-8.27194
fr	-8.27413
▁sceaux	-8.27449
▁"2°	-8.27635
accord	-8.27653
▁activités	-8.27727
▁première	-8.28245
▁relance	-8.2882
autorité	-8.29191
▁chargés	-8.29304
▁niveau	-8.29542
▁jusqu	-8.29684
▁tard	-8.29795
▁suivant	-8.29916
▁faire	-8.30186
▁troisième	-8.30607
▁responsabilité	-8.30742
▁travaux	-8.30874
admission	-8.32071
évaluation	-8.32264
information	-8.32566
▁toute	-8.32763
ensemble	-8.3314
▁recrutement	-8.33244
▁concerne	-8.33343
▁dernier	-8.33355
En	-8.33852
▁respect	-8.34147
▁jours	-8.34222
organisation	-8.34341
▁certificat	-8.34789
▁personnel	-8.34893
▁Elle	-8.34901
ou	-8.35071
▁chacun	-8.35361
▁relevant	-8.35362
▁doivent	-8.35441
▁présente	-8.3548
o	-8.35521
épouse	-8.35641
▁Un	-8.35668
▁région	-8.35962
▁autre	-8.36659
▁marché	-8.36928
environnement	-8.37177
▁autres	-8.37519
▁directrice	-8.37632
▁techniques	-8.37889
▁publiques	-8.3854
▁publication	-8.38706
▁LA	-8.38733
in	-8.39159
▁parcours	-8.39187
▁modifiant	-8.39248
▁nature	-8.39424
H	-8.40943
▁mis	-8.41192
▁prévu	-8.41583
▁informations	-8.42368
▁ont	-8.42542
▁également	-8.42706
▁avis	-8.42715
▁actes	-8.43276
▁défense	-8.43285
▁lorsque	-8.43375
▁effet	-8.43415
211	-8.43506
▁projet	-8.43709
▁technique	-8.43815
▁y	-8.43973
▁lors	-8.43998
▁médecin	-8.44254
UE	-8.44327
▁nommé	-8.44489
▁né	-8.44786
▁nommée	-8.45228
▁médical	-8.45236
▁mesures	-8.45246
office	-8.45249
▁ANNEXE	-8.45284
i	-8.45296
▁comptes	-8.46123
11	-8.46422
ent	-8.46701
▁mission	-8.46832
▁ré	-8.46978
▁compris	-8.47054
LE	-8.47686
▁suivante	-8.48689
▁F	-8.48748
G	-8.4875
▁ressources	-8.48778
▁compétences	-8.4885
▁documents	-8.4904
▁insérés	-8.49133
▁affaires	-8.49351
▁poste	-8.49811
▁territoriale	-8.50052
examen	-8.50395
▁phrase	-8.5071
▁armées	-8.50865
▁Dans	-8.50949
▁tableau	-8.51082
▁permettant	-8.51216
▁DU	-8.51843
12	-8.52067
▁prestations	-8.52163
▁fixée	-8.5223
▁postes	-8.52321
10	-8.52373
énergie	-8.52579
▁actions	-8.52786
▁G	-8.52812
▁comité	-8.53051
officiers	-8.53183
▁interne	-8.53538
▁fixé	-8.53628
▁ligne	-8.5384
▁nécessaires	-8.54095
▁disposition	-8.54498
▁Confédération	-8.54791
▁organisations	-8.5499
aide	-8.55012
nd	-8.55175
▁livre	-8.55594
▁pris	-8.55785
▁DES	-8.55834
▁opérations	-8.55971
▁accord	-8.55976
▁inséré	-8.55991
▁complété	-8.56499
eau	-8.56962
▁ministériels	-8.57142
▁suit	-8.57148
▁transport	-8.5785
Arrêté	-8.57923
▁tribunal	-8.57924
▁retraite	-8.57949
▁remplacée	-8.58038
Pour	-8.5846
▁procédure	-8.58881
V	-8.59291
▁jour	-8.5934
▁supprimés	-8.59442
▁plusieurs	-8.60038
▁suivants	-8.60182
▁chargée	-8.60387
▁département	-8.60394
la	-8.60623
▁5°	-8.60817
▁adjoint	-8.60982
▁territoire	-8.61338
▁réception	-8.61494
▁règles	-8.61515
N	-8.6169
▁administrative	-8.6182
intérieur	-8.62069
▁associés	-8.62071
▁prend	-8.62442
▁fixées	-8.62446
▁relative	-8.62584
adresse	-8.62653
▁développement	-8.62703
mi	-8.62754
▁définies	-8.63657
▁matière	-8.63704
▁professionnels	-8.64124
▁police	-8.64144
▁médicale	-8.64232
▁T	-8.64546
m	-8.64714
▁2017	-8.64732
ils	-8.65452
▁susvisée	-8.65554
30	-8.65567
▁rapport	-8.65665
appel	-8.6597
Au	-8.65998
▁pièces	-8.66005
-1	-8.66198
organisme	-8.66391
▁bis	-8.66691
▁spécialité	-8.67013
on	-8.67057
▁pendant	-8.67277
▁spéciale	-8.67376
▁lui	-8.67665
-2	-8.67683
▁représentants	-8.67794
▁salariés	-8.6799
entreprise	-8.68361
▁préfet	-8.68698
▁régionale	-8.68791
▁E	-8.68958
état	-8.69522
▁place	-8.69629
▁remplacement	-8.69637
▁internet	-8.69682
agriculture	-8.69792
▁champ	-8.7008
és	-8.7085
▁vice	-8.71017
Pierre	-8.71023
insertion	-8.71095
▁000	-8.71254
▁système	-8.71274
▁sens	-8.71329
LA	-8.71519
▁dispositif	-8.71521
▁faisant	-8.72014
14	-8.72396
▁Ce	-8.72397
les	-8.72497
f	-8.72628
▁externe	-8.72668
▁salariée	-8.72679
13	-8.72682
exploitation	-8.72775
▁limitée	-8.73093
▁soins	-8.73752
▁Cett	-8.73813
▁six	-8.7391
▁m	-8.74029
21	-8.74234
ur	-8.744
assurance	-8.74724
▁inter	-8.7499
▁production	-8.75319
▁Pierre	-8.75638
▁territoriales	-8.75642
▁temps	-8.75858
▁transition	-8.75944
▁part	-8.75965
▁humaines	-8.7598
▁cet	-8.76127
▁organismes	-8.76232
▁abrogé	-8.76266
▁LE	-8.76388
al	-8.76729
Union	-8.76973
elle	-8.77331
▁o	-8.77545
mer	-8.77691
▁établi	-8.7774
▁personnels	-8.778
▁représentatives	-8.77862
▁secrétaire	-8.77932
213	-8.78548
▁européenne	-8.7859
ouverture	-8.78661
▁euros	-8.78866
autorisation	-8.79168
▁maladie	-8.79384
▁établissement	-8.79458
▁prendre	-8.79502
▁celles	-8.79586
▁éléments	-8.7961
▁social	-8.79663
▁risques	-8.79793
▁suivi	-8.80001
▁principal	-8.80219
▁responsable	-8.80291
utilisation	-8.80297
▁missions	-8.80537
▁délégué	-8.80667
▁transports	-8.81031
▁inscriptions	-8.81048
▁base	-8.81102
▁construction	-8.81566
19	-8.82079
▁programme	-8.82135
▁modifiée	-8.82166
aux	-8.82575
▁laquelle	-8.82723
▁alinéas	-8.82748
▁décisions	-8.82887
▁celui	-8.82946
▁Ces	-8.83411
▁VI	-8.8391
effet	-8.84563
▁supérieure	-8.84566
accueil	-8.84931
▁déclaration	-8.84937
▁charges	-8.85061
u	-8.85129
▁spécialités	-8.85212
▁liaison	-8.85485
ra	-8.85679
▁diplôme	-8.8568
▁plan	-8.85815
Dans	-8.86389
Agence	-8.86483
▁afin	-8.86539
▁sanitaire	-8.86602
▁modification	-8.86647
▁communication	-8.86721
2-1	-8.87007
Y	-8.87091
▁écologique	-8.87268
▁domaine	-8.87521
Sont	-8.87637
▁année	-8.8769
▁Lorsque	-8.877
ordre	-8.87995
▁maître	-8.88145
É	-8.88224
▁financement	-8.88363
Une	-8.8842
1-1	-8.8855
▁"3°	-8.88572
Assistance	-8.88705
MTR	-8.88725
▁avoir	-8.88801
▁De	-8.88888
18	-8.89467
▁frais	-8.89651
▁solidarités	-8.89839
▁conclu	-8.89954
▁2018	-8.89979
31	-8.90175
▁donnée	-8.90432
▁économique	-8.90538
▁handicap	-8.90592
▁quatre	-8.90762
▁point	-8.90819
▁toutes	-8.91098
20	-8.91237
▁pêche	-8.91241
Il	-8.91344
▁régional	-8.91439
h	-8.91506
aptitude	-8.91761
▁6°	-8.918
22	-8.91841
▁commerce	-8.91905
▁activité	-8.92435
▁libéral	-8.92658
▁Article	-8.92938
ation	-8.93121
▁réalisation	-8.93319
▁obligations	-8.93387
▁résultats	-8.93432
▁Par	-8.93516
▁figurant	-8.93714
alimentation	-8.93819
▁celle	-8.93942
▁taux	-8.93966
▁admis	-8.94069
▁«-	-8.94088
▁Nige	-8.94121
▁vue	-8.9413
▁examens	-8.94386
▁délégation	-8.94484
ée	-8.94637
▁moyen	-8.94641
Jean	-8.94861
▁Premier	-8.94902
▁budget	-8.94943
▁applicable	-8.95173
▁prévus	-8.95191
▁paiement	-8.95442
▁unique	-8.9547
(	-8.95513
▁co	-8.95598
exception	-8.96187
▁tant	-8.963
O	-8.96378
▁attributions	-8.966
▁ET	-8.96778
▁études	-8.96883
▁cadres	-8.96884
▁groupement	-8.96961
▁mention	-8.97056
▁seront	-8.97121
▁document	-8.97224
▁elle	-8.97249
16	-8.97521
▁mer	-8.97705
▁moyens	-8.97786
▁relatifs	-8.97926
action	-8.97987
▁mesure	-8.98136
▁temporaire	-8.98374
▁dérogation	-8.98505
g	-8.98617
▁territorial	-8.98775
▁hospitalier	-8.98823
▁perturbation	-8.99096
▁dépôt	-8.99144
▁concernant	-8.99199
▁cheffe	-8.99497
or	-8.99549
▁2016	-8.99935
▁précise	-8.99958
ès	-8.9997
▁outre	-9.00094
II	-9.00275
▁secteur	-9.00681
gouv	-9.00747
▁tenu	-9.00784
▁physique	-9.01063
24	-9.01077
)"	-9.0118
50	-9.0123
Institut	-9.0131
▁numérique	-9.0135
z	-9.01419
▁note	-9.01447
▁patients	-9.01482
▁dégagement	-9.01595
dit	-9.01692
▁prévention	-9.01703
avenant	-9.02053
▁Partie	-9.02113
▁chiffre	-9.02245
absence	-9.0231
▁exercer	-9.02371
▁centrale	-9.02561
IN	-9.02678
▁Ier	-9.02785
▁cinq	-9.02833
Marie	-9.02861
▁reconnues	-9.03087
▁K	-9.03179
▁hertzienne	-9.03227
▁création	-9.0353
▁H	-9.03533
▁Nouvelle	-9.03594
▁type	-9.03615
▁second	-9.03694
▁inscription	-9.03694
▁défaut	-9.03722
▁procédures	-9.03749
admissibilité	-9.03887
15	-9.03922
23	-9.03937
après	-9.04174
RE	-9.04189
▁signer	-9.04284
▁jeunesse	-9.04499
▁Centre	-9.04599
▁nommés	-9.04738
▁paragraphe	-9.0476
▁européen	-9.04888
EN	-9.04976
▁office	-9.05088
▁titulaires	-9.05096
▁installations	-9.051
origine	-9.05109
installation	-9.05161
▁douanes	-9.05334
51	-9.05455
▁français	-9.05616
▁foi	-9.05619
▁Si	-9.05671
32	-9.05823
usage	-9.05913
J	-9.05957
▁2022,	-9.06043
it	-9.06117
▁syndicales	-9.06275
▁adjointe	-9.06441
▁recours	-9.0646
K	-9.06507
▁biens	-9.06674
▁centres	-9.0683
▁épreuve	-9.0687
ont	-9.06889
at	-9.06894
▁équipements	-9.07221
France	-9.07234
▁lorsqu	-9.0727
▁catégorie	-9.07399
▁rédaction	-9.07427
▁2014	-9.07448
ot	-9.07536
▁dernière	-9.07699
▁minutes	-9.07737
41	-9.07749
▁1989	-9.0791
▁PTTT	-9.08115
▁notaires	-9.08261
LES	-9.08415
▁dépenses	-9.08433
▁cahier	-9.08519
▁forme	-9.08575
▁33	-9.08725
▁compétente	-9.0892
▁culture	-9.08968
▁dossiers	-9.09047
17	-9.09076
el	-9.09094
extension	-9.09149
▁ceux	-9.09198
entrée	-9.0929
▁caractère	-9.0939
25	-9.09424
▁fonctionnaires	-9.09739
-5	-9.09791
34	-9.09927
▁salarié	-9.1001
▁systèmes	-9.10378
an	-9.10413
ri	-9.10598
ne	-9.10808
40	-9.10879
ET	-9.11091
▁régime	-9.11323
▁groupe	-9.1141
sur	-9.11617
urgence	-9.11675
▁associé	-9.11904
▁32	-9.11918
▁communes	-9.1223
210	-9.12422
▁bâtiment	-9.1295
▁territoires	-9.12996
▁fonctionnement	-9.13022
▁surveillance	-9.1335
▁parties	-9.13369
▁pôle	-9.13369
age	-9.13421
▁emplois	-9.13667
▁civil	-9.13972
p	-9.13974
35	-9.14101
27	-9.1461
▁maximum	-9.1466
aviation	-9.14662
26	-9.14975
exclusion	-9.15095
▁valeur	-9.15113
33	-9.15237
▁prises	-9.1532
▁particulier	-9.15407
▁obligatoires	-9.15465
▁Président	-9.15509
ées	-9.15619
Calédonie	-9.15648
▁fonds	-9.15727
▁conseiller	-9.15988
▁transmission	-9.16104
▁Commune	-9.16166
agent	-9.16311
▁Des	-9.16386
70	-9.166
28	-9.1666
▁administratives	-9.16934
▁ingénieur	-9.17359
▁candidature	-9.1746
▁rang	-9.1756
▁proposition	-9.17627
▁juge	-9.17748
▁locaux	-9.17909
ine	-9.18011
▁concernés	-9.1803
-19	-9.18381
▁association	-9.18781
us	-9.18792
▁numéro	-9.19104
60	-9.19206
▁an	-9.19461
▁correspondant	-9.19555
▁effets	-9.19581
▁déroulement	-9.19646
▁logement	-9.19695
Z	-9.19761
ette	-9.19915
k	-9.19916
▁employeurs	-9.20027
te	-9.20076
▁comprend	-9.20324
▁maritime	-9.20443
▁demandes	-9.20506
▁raison	-9.20554
▁gaz	-9.20608
▁enfants	-9.20622
42	-9.2064
://	-9.20648
29	-9.20697
▁siège	-9.20758
chef	-9.20819
▁quatrième	-9.20917
▁eaux	-9.21067
▁manière	-9.21202
▁vie	-9.21203
alinéa	-9.21446
▁2.	-9.21465
61	-9.21472
▁examen	-9.21521
▁(1),	-9.21543
▁relations	-9.2165
ES	-9.21699
▁Michel	-9.21812
▁cour	-9.21846
43	-9.21982
ouvrage	-9.22042
▁sanctions	-9.22137
▁terme	-9.22213
▁recettes	-9.22257
▁défini	-9.22292
▁permettre	-9.22328
37	-9.22433
hôpitaux	-9.22458
autres	-9.22523
dessus	-9.22556
intérêt	-9.22849
▁rue	-9.22858
elles	-9.22871
▁départemental	-9.22888
Ecole	-9.22931
▁total	-9.22996
00	-9.22997
▁résultant	-9.23526
▁cabinet	-9.23738
38	-9.23786
▁risque	-9.23831
36	-9.23857
U	-9.23958
▁rémunération	-9.23971
80	-9.24128
47	-9.24378
67	-9.24394
▁véhicules	-9.24434
▁François	-9.24581
ordonnance	-9.25238
▁restant	-9.25288
▁stipulations	-9.25312
▁congé	-9.25486
▁h	-9.25579
▁notification	-9.25768
issue	-9.26109
79	-9.26173
▁étendu	-9.26232
ré	-9.26262
Autorité	-9.26377
▁Philippe	-9.26389
45	-9.26481
▁points	-9.26519
affaires	-9.26543
▁début	-9.26551
▁f	-9.26558
▁produit	-9.26572
▁étrangères	-9.26582
▁déchets	-9.2659
▁financier	-9.26596
▁aides	-9.2666
v	-9.26701
▁pénitentiaires	-9.26746
ro	-9.26829
▁Polynésie	-9.26841
▁comptable	-9.2685
▁2021.	-9.2703
▁suppléant	-9.27071
is	-9.27196
▁Cha	-9.27542
▁Lyon	-9.27641
▁avenant	-9.27666
▁gendarmerie	-9.2767
52	-9.27753
▁scientifique	-9.27866
▁0	-9.2793
57	-9.27969
4-1	-9.28156
▁cachet	-9.28212
▁adresse	-9.28302
▁aérienne	-9.28308
▁dispositifs	-9.28395
▁administratif	-9.28415
▁tiers	-9.2842
entretien	-9.28451
▁inférieure	-9.28493
46	-9.28535
▁simplifiée	-9.2857
▁7°	-9.28915
aménagement	-9.28933
section	-9.29076
▁ils	-9.29094
direction	-9.29149
72	-9.29436
CE	-9.29691
▁renouvellement	-9.29826
▁Anne	-9.29913
▁(2)	-9.30162
▁égal	-9.30296
acheteur	-9.30338
du	-9.30418
ie	-9.30543
▁militaires	-9.30567
▁navigation	-9.30624
▁délais	-9.30762
▁commune	-9.3089
▁Mouvement	-9.30913
▁réseau	-9.3098
▁Commission	-9.30986
▁mettre	-9.31075
▁administrateur	-9.31107
▁terrain	-9.31112
▁références	-9.31144
▁autorisation	-9.31519
1-3	-9.31609
▁session	-9.31628
▁militaire	-9.3177
autre	-9.31832
39	-9.31868
▁écrite	-9.32277
▁pharmaceutiques	-9.32548
▁vote	-9.32764
71	-9.32823
▁regard	-9.3296
88	-9.32962
69	-9.32979
▁désigné	-9.33112
55	-9.33131
dessous	-9.33148
▁sols	-9.33226
▁coopération	-9.33271
▁2015	-9.3332
ion	-9.3338
art	-9.33434
44	-9.33525
rant	-9.33578
▁patient	-9.3375
▁sécheresse	-9.33775
▁état	-9.33859
▁complémentaire	-9.3386
▁emploi	-9.33881
▁objectifs	-9.33889
01	-9.3403
Pologne	-9.34073
▁chez	-9.34148
▁statut	-9.34152
▁désignés	-9.34447
▁rubrique	-9.34549
▁prix	-9.34597
56	-9.3462
▁J	-9.34752
▁soumis	-9.34829
▁SAINT	-9.34875
▁clôture	-9.34973
▁50	-9.35149
▁pouvant	-9.35199
▁retrait	-9.35223
▁agréé	-9.35233
▁heure	-9.35293
▁réalisé	-9.35395
62	-9.35396
▁extension	-9.35437
▁choix	-9.35501
▁sports	-9.35517
54	-9.35559
engagement	-9.35645
▁présentation	-9.35692
▁re	-9.35729
obligation	-9.35938
90	-9.35999
▁tel	-9.362
▁SA	-9.36212
▁présenter	-9.36215
▁compétence	-9.3622
87	-9.36226
73	-9.36409
▁fois	-9.36493
▁fins	-9.36553
▁Cour	-9.36684
203	-9.36713
▁rédigée	-9.36872
▁principale	-9.36895
▁1990	-9.36911
avis	-9.36918
▁prêt	-9.36959
▁1.	-9.37114
49	-9.37156
▁Lille	-9.37187
59	-9.37238
▁lutte	-9.3727
▁consommation	-9.37328
être	-9.37344
65	-9.37435
▁critères	-9.37533
emplois	-9.37631
▁"4°	-9.37658
W	-9.37782
▁sociales	-9.3779
▁exigences	-9.37804
94	-9.37816
58	-9.37967
▁courir	-9.38119
ard	-9.38155
▁secrétariat	-9.3816
habitation	-9.38268
▁calcul	-9.38394
▁universitaire	-9.38405
ON	-9.38421
▁W	-9.38552
▁postale	-9.38651
▁consécutifs	-9.38656
▁pénitentiaire	-9.38798
lle	-9.38979
▁"«-	-9.38999
▁3.	-9.39121
▁font	-9.39123
▁projets	-9.39252
ol	-9.39259
ch	-9.39294
07	-9.39419
77	-9.39446
▁places	-9.39462
85	-9.39494
▁transmis	-9.39541
76	-9.39626
▁administratifs	-9.39658
▁connaissance	-9.39666
▁égale	-9.39725
▁nécessaire	-9.39832
lo	-9.39968
▁composition	-9.39993
▁moment	-9.40072
encadrement	-9.40073
▁rendues	-9.40087
▁35	-9.40168
02	-9.40341
▁2022.	-9.40428
53	-9.40512
▁bénéficier	-9.40522
▁différentiel	-9.40549
48	-9.40618
74	-9.40632
▁registre	-9.40801
▁ouvert	-9.41131
▁commissaire	-9.41185
agrément	-9.41242
▁honoraire	-9.41289
▁définis	-9.41329
▁agent	-9.41352
ac	-9.41509
▁covid	-9.41509
▁bien	-9.41711
appliquent	-9.41783
▁inférieur	-9.41902
▁lesquelles	-9.41908
▁économiques	-9.4199
innovation	-9.41993
63	-9.42031
▁lien	-9.42036
▁définie	-9.42042
▁normale	-9.42273
expérimentation	-9.42479
CGT	-9.4248
▁Gouvernement	-9.4256
▁délivrance	-9.42561
▁certification	-9.42863
▁profession	-9.42887
81	-9.42955
▁conformité	-9.42956
04	-9.43087
2-2	-9.43157
05	-9.4323
▁civils	-9.43389
DE	-9.43402
▁navire	-9.43415
▁orale	-9.43585
▁fixe	-9.43602
64	-9.43629
3-1	-9.43711
78	-9.43803
▁exerçant	-9.43952
ER	-9.43999
68	-9.44006
75	-9.44186
▁comporte	-9.44257
▁mandat	-9.44326
86	-9.44389
92	-9.44396
▁politique	-9.45002
▁copie	-9.45009
▁pré	-9.4504
▁admission	-9.45052
▁précédent	-9.45093
▁vente	-9.45093
▁offerts	-9.45096
▁autorités	-9.45177
▁34	-9.45183
▁devra	-9.45184
identification	-9.45195
▁Sont	-9.45271
▁autorisant	-9.45446
▁sauf	-9.45446
▁devront	-9.4553
président	-9.45546
hydratation	-9.45614
▁courrier	-9.4568
▁attachée	-9.45718
▁suite	-9.45742
▁supprimé	-9.45806
▁1984	-9.45816
▁années	-9.45846
▁sport	-9.45953
▁transfert	-9.46023
ar	-9.46773
ut	-9.46808
▁acquis	-9.46924
▁O	-9.47107
▁complémentaires	-9.47125
89	-9.47198
▁dispose	-9.47259
▁Parlement	-9.47306
▁sociaux	-9.47346
▁nouvelle	-9.47426
/20	-9.47472
▁pourront	-9.47504
inspection	-9.47543
▁départementale	-9.47692
III	-9.47712
▁fonctionnaire	-9.47742
▁44	-9.47764
▁40	-9.47817
ir	-9.47911
▁marchés	-9.48086
ia	-9.48105
▁concerné	-9.48132
03	-9.48181
▁préparation	-9.48188
▁coefficient	-9.48275
▁Cedex	-9.48417
caractéristiques	-9.48514
93	-9.48662
▁industrie	-9.48695
▁07	-9.48751
agence	-9.48771
▁autorisée	-9.489
▁g	-9.48937
▁soutien	-9.492
▁secours	-9.49202
▁capacité	-9.49305
Délégation	-9.49387
▁2012	-9.49609
▁délivré	-9.49629
▁conventions	-9.49767
▁adjudant	-9.49806
▁dix	-9.49811
83	-9.49939
-4	-9.49998
th	-9.50037
66	-9.50073
CH	-9.50147
▁minimum	-9.50156
espace	-9.50181
air	-9.50248
▁crise	-9.5028
▁valoir	-9.50332
▁crédits	-9.50723
Europe	-9.50949
assurer	-9.51015
▁Tout	-9.51284
li	-9.51449
▁titres	-9.51497
▁métiers	-9.51606
▁1986	-9.51786
EL	-9.51813
▁Bordeaux	-9.51836
▁Etat	-9.51978
84	-9.51983
▁bord	-9.52029
▁André	-9.52195
▁garantie	-9.52272
▁transformation	-9.52283
06	-9.52351
▁versement	-9.52441
▁36	-9.52456
▁générales	-9.52607
▁langue	-9.52614
82	-9.52663
09	-9.52665
▁in	-9.52792
indication	-9.52806
▁signature	-9.52912
études	-9.53117
▁promotion	-9.53195
▁41	-9.533
08	-9.53382
association	-9.53437
AT	-9.53653
5-1	-9.53682
▁Louis	-9.54236
▁entreprise	-9.54291
▁financière	-9.54352
▁arrêtés	-9.54435
▁DÉPARTEMENT	-9.54456
96	-9.54474
▁besoins	-9.54533
▁reconnaissance	-9.54548
▁Wallis	-9.54731
6-1	-9.54767
▁remboursement	-9.54824
▁structure	-9.54903
▁académique	-9.54937
▁1988	-9.5496
unité	-9.55094
97	-9.55179
industrie	-9.55202
Martin	-9.55215
▁8°	-9.5524
▁ajouté	-9.55256
▁Réunion	-9.55283
▁navires	-9.55332
j	-9.55385
▁permet	-9.55492
▁plein	-9.55561
▁performance	-9.55566
▁gestionnaire	-9.55576
▁autorisé	-9.5564
▁Toute	-9.55711
▁programmes	-9.55744
▁position	-9.55967
opération	-9.55968
▁Epreuve	-9.56075
▁support	-9.56111
▁certain	-9.56195
▁fixés	-9.56315
▁connaissances	-9.56402
▁hospitalière	-9.56415
▁annuel	-9.56452
enregistrement	-9.56616
▁catégories	-9.56808
98	-9.56976
▁aménagements	-9.5732
▁ni	-9.574
▁rédigés	-9.57402
▁cycle	-9.57455
ad	-9.5748
applique	-9.57606
▁seconde	-9.57625
▁2010	-9.57667
▁remplacées	-9.57705
▁répartition	-9.57807
investissement	-9.5798
▁pratiques	-9.58025
▁consul	-9.58162
▁37	-9.58287
▁assure	-9.58387
▁circulation	-9.5857
▁aérien	-9.58783
▁élèves	-9.5891
▁procureur	-9.59029
95	-9.59052
▁désignation	-9.5909
▁Marseille	-9.59164
▁38	-9.59298
▁diplômes	-9.5934
ta	-9.59381
▁attaché	-9.59427
▁présidente	-9.59622
me	-9.59704
IV	-9.59727
▁Concours	-9.59803
expérience	-9.59897
▁travailleurs	-9.5996
ul	-9.60034
puis	-9.60095
▁Est	-9.60161
▁universités	-9.60336
▁1987	-9.60442
▁scolaire	-9.60454
▁négociation	-9.60492
▁objet	-9.60604
▁bon	-9.60612
co	-9.60723
▁usage	-9.60736
RI	-9.60834
2200	-9.60922
▁chambre	-9.60946
accompagnement	-9.60986
Est	-9.61053
▁financières	-9.6109
François	-9.61154
▁lequel	-9.61277
exploitant	-9.61279
▁pratique	-9.61342
▁Chevalier	-9.61764
▁Fédération	-9.61764
▁42	-9.61823
▁contrats	-9.61847
▁spécifique	-9.61908
▁coordination	-9.61962
▁Aux	-9.62
intervention	-9.62074
▁condition	-9.62282
▁cinquième	-9.62337
▁départements	-9.62356
AL	-9.62402
/2021-12-1	-9.62432
▁boue	-9.62458
▁modèle	-9.62642
tte	-9.62669
▁établie	-9.62762
instruction	-9.62784
99	-9.62803
▁réseaux	-9.62962
x	-9.63162
ire	-9.63178
té	-9.63212
▁papier	-9.63253
▁chacune	-9.63357
▁participation	-9.6345
▁51	-9.63579
ement	-9.63664
▁distribution	-9.63754
▁matériel	-9.63766
▁informe	-9.63792
▁réalisée	-9.63847
▁Du	-9.6404
▁ouverts	-9.6404
▁formations	-9.64177
▁physiques	-9.64324
▁VII	-9.64523
ti	-9.6463
▁entretien	-9.64801
▁Claude	-9.64818
di	-9.64867
▁réglementation	-9.64867
▁lieutenant	-9.65151
▁branche	-9.65187
étranger	-9.65338
▁Jacques	-9.65429
ANT	-9.65521
▁visées	-9.65576
▁Paul	-9.65803
tre	-9.65871
▁2007	-9.65875
▁géographique	-9.66012
▁EN	-9.661
▁visioconférence	-9.66194
intéressé	-9.6624
▁impôts	-9.66304
▁conforme	-9.66625
▁séance	-9.66742
▁lesquels	-9.66793
▁organisme	-9.66851
▁susceptibles	-9.66961
▁Cité	-9.66967
▁accès	-9.67032
▁réaliser	-9.67062
▁2011	-9.67181
▁validation	-9.67229
▁bénéfice	-9.6727
▁Mayotte	-9.67342
▁comportant	-9.67542
,"	-9.6762
NE	-9.6782
▁nouveau	-9.67848
▁Montpellier	-9.67855
▁généraux	-9.68066
▁sciences	-9.68365
▁façon	-9.68379
▁inscrits	-9.68529
2-3	-9.68559
employeurs	-9.68584
▁ministres	-9.68655
aire	-9.68664
▁directement	-9.68817
▁justificatives	-9.68828
▁Nantes	-9.68919
▁local	-9.68925
▁coûts	-9.68968
▁simple	-9.69013
2021	-9.69123
coulées	-9.69132
▁collectivité	-9.69175
▁régulation	-9.69225
▁directeurs	-9.69243
www	-9.69244
▁demander	-9.69257
▁véhicule	-9.69283
91	-9.69433
▁bénéficiaires	-9.69488
▁pédagogique	-9.69499
▁Université	-9.69499
▁agricole	-9.69929
nondations	-9.69967
▁porte	-9.70011
▁2009	-9.7002
-3	-9.7007
▁périodes	-9.70112
▁durable	-9.70346
▁conduite	-9.70411
adaptation	-9.70417
SSAS	-9.70428
▁AU	-9.70441
▁4.	-9.70479
▁Toulouse	-9.70613
Lorsque	-9.70653
am	-9.70821
IL	-9.70835
▁02	-9.70949
▁réglementaires	-9.71001
▁statuts	-9.71461
▁conservation	-9.71586
▁rural	-9.71587
022000	-9.7162
▁taxe	-9.71674
outre	-9.71821
hésion	-9.71871
▁préalable	-9.71972
▁respectivement	-9.72024
▁déléguée	-9.72062
▁conseillère	-9.72131
▁Ma	-9.72149
▁www	-9.72221
▁informatique	-9.72262
▁1982	-9.72285
▁opérateurs	-9.72299
▁assurer	-9.72364
▁commun	-9.72425
AU	-9.72433
▁format	-9.72636
▁con	-9.72647
▁faveur	-9.72679
▁met	-9.72797
▁figurent	-9.7292
directeur	-9.73089
▁femmes	-9.73099
▁détachement	-9.73119
œuvre	-9.73209
▁consultation	-9.73229
▁Guyane	-9.73307
▁(1)	-9.73569
▁maximale	-9.73599
▁01	-9.73614
▁équivalent	-9.73715
analyse	-9.73766
▁liées	-9.73855
indemnité	-9.73874
▁accords	-9.73888
▁bilan	-9.73895
▁médicaments	-9.73993
ay	-9.73996
▁organisation	-9.73998
▁électroniques	-9.74032
▁forêts	-9.74041
fin	-9.74103
▁autorisés	-9.74113
OT	-9.74279
▁refus	-9.74314
▁1983	-9.74387
▁mises	-9.74387
▁officiers	-9.74439
TRE	-9.74469
/2021-12-2	-9.74589
▁médecins	-9.74603
▁annexé	-9.74621
▁Lorsqu	-9.74631
▁médicament	-9.74685
▁sociétés	-9.74731
attribution	-9.74782
▁vérification	-9.74801
w	-9.74817
7-1	-9.74874
colonel	-9.74983
inscrire	-9.75014
opérateur	-9.75131
ME	-9.75166
0-1	-9.7521
académie	-9.75221
▁maintien	-9.75225
▁vingt	-9.75238
▁tarif	-9.75407
▁compétent	-9.75531
présidente	-9.75623
Rhône	-9.75698
▁budgétaire	-9.75715
▁adressée	-9.7573
▁naturel	-9.75748
▁pharmacie	-9.75756
▁procéder	-9.75803
▁cause	-9.75916
▁bâtiments	-9.75954
▁naissance	-9.76029
▁périmètre	-9.76029
▁2013	-9.76095
▁près	-9.76188
VI	-9.76234
▁surface	-9.76386
FO	-9.76411
▁contenu	-9.76461
âge	-9.76487
▁propre	-9.76518
avancement	-9.76519
▁pouvoir	-9.76633
▁distance	-9.76713
▁Martinique	-9.76715
▁maîtrise	-9.76882
▁politiques	-9.77093
▁usagers	-9.77107
▁stage	-9.77114
des	-9.7713
ter	-9.773
vient	-9.77344
um	-9.77414
▁concernée	-9.77511
égalité	-9.77563
▁Re	-9.77575
▁haut	-9.77869
▁pourra	-9.78065
ique	-9.78094
▁agricoles	-9.78139
▁continue	-9.78176
▁étudiants	-9.78279
IS	-9.78304
▁montants	-9.78328
▁Haute	-9.78401
▁visée	-9.78415
▁particuliers	-9.7843
▁2020,	-9.78479
▁vers	-9.78499
▁trente	-9.78559
▁patrimoine	-9.78619
▁associations	-9.78909
▁fiche	-9.79029
▁conjoint	-9.79189
▁communications	-9.79216
▁vendredi	-9.79261
▁45	-9.79321
▁hospitaliers	-9.79391
▁vol	-9.79458
▁elles	-9.79469
offre	-9.79479
▁pays	-9.79526
▁référentiel	-9.79566
orientation	-9.79577
▁divers	-9.79654
ité	-9.79667
université	-9.79679
▁commandant	-9.7969
▁réalisées	-9.79733
▁certaines	-9.79762
gissant	-9.79773
▁totale	-9.79782
▁international	-9.7988
▁devant	-9.79886
▁effectuée	-9.79955
▁unités	-9.8001
▁spécifiques	-9.80115
id	-9.80185
▁prescriptions	-9.80192
na	-9.80222
▁modifications	-9.80302
▁demandeur	-9.8035
▁collège	-9.80448
▁inspecteur	-9.8046
▁2008	-9.80514
▁résultat	-9.80519
▁annexes	-9.80671
ce	-9.80733
▁carte	-9.80832
ph	-9.80834
▁Section	-9.80842
/2021-02-1	-9.80917
▁domicile	-9.80917
▁médico	-9.80918
▁préinscription	-9.80976
ma	-9.81058
▁intérieur	-9.81068
4-2	-9.81098
se	-9.8116
enfant	-9.81233
Miquelon	-9.81395
▁information	-9.81403
ure	-9.81511
▁Auschwitz	-9.81515
▁mobilité	-9.8173
▁"5°	-9.81775
lin	-9.81796
▁associée	-9.81813
▁quinze	-9.81875
ance	-9.81902
▁utilisés	-9.82008
▁Etats	-9.82021
▁major	-9.82134
onformément	-9.82206
▁39	-9.82276
OU	-9.82332
UR	-9.82364
concours	-9.82469
▁moyenne	-9.82505
▁écrit	-9.82509
heure	-9.82549
ville	-9.82631
▁capitaine	-9.82708
▁Tribuna	-9.82722
▁initiale	-9.82722
▁justifier	-9.8276
▁2005	-9.82792
▁situé	-9.82979
▁remboursables	-9.8302
Philippe	-9.83085
▁réduction	-9.83089
▁espace	-9.83136
▁transmet	-9.8315
▁réalisés	-9.83172
▁présence	-9.83209
▁séjour	-9.8321
1-4	-9.83228
po	-9.83314
▁https	-9.83448
▁Sud	-9.83452
eur	-9.83593
▁Mont	-9.83661
▁chirurgie	-9.83695
ron	-9.8373
▁telle	-9.83762
▁43	-9.83768
▁2,	-9.83986
▁signé	-9.84059
▁ponts	-9.84084
▁obtenu	-9.84143
iv	-9.84264
▁traitements	-9.84274
équipe	-9.84294
▁Bernard	-9.84299
▁préjudice	-9.84313
employeur	-9.84475
▁renseignements	-9.84485
▁maritimes	-9.84565
▁Sous	-9.84612
▁sûreté	-9.84691
▁08	-9.84786
▁médicaux	-9.84808
Alpes	-9.84833
ig	-9.8485
▁100	-9.84894
▁2006	-9.84897
▁Olivier	-9.85017
▁lettre	-9.85163
▁dé	-9.85212
ARD	-9.85281
▁qualification	-9.85444
incendie	-9.85465
im	-9.85593
envoi	-9.85594
▁décrets	-9.85594
▁lieux	-9.85655
INTA	-9.85685
▁stratégie	-9.857
▁Nicolas	-9.85765
▁familles	-9.85827
Nicolas	-9.85844
▁formulaire	-9.85932
▁énergétique	-9.85952
▁Rennes	-9.8596
▁particulières	-9.85964
▁noms	-9.85995
▁recteur	-9.85996
TE	-9.86009
X	-9.86011
▁propriété	-9.8608
qu	-9.86082
évolution	-9.86354
▁décédé	-9.86399
▁questions	-9.86411
▁professeur	-9.86529
▁matériels	-9.86564
▁05	-9.86684
▁suspension	-9.86685
Université	-9.86738
RO	-9.86777
013000	-9.86803
▁notarial	-9.86812
▁Caisse	-9.86813
expertise	-9.86841
▁exceptionnelle	-9.86963
▁individuelle	-9.86965
▁thérapeutique	-9.86969
lé	-9.86985
▁Parties	-9.87245
▁9°	-9.87453
▁marine	-9.87498
▁précisant	-9.87707
▁Dominique	-9.87931
▁fournir	-9.88181
to	-9.8826
▁ordre	-9.88353
▁réponse	-9.8855
▁créé	-9.88615
▁responsables	-9.88648
▁requises	-9.88726
▁comptables	-9.88727
Anne	-9.88812
hors	-9.88872
▁technicien	-9.88947
▁Henri	-9.88963
▁Alain	-9.89083
/2021-01-2	-9.89115
▁ajoutés	-9.89117
▁intérieure	-9.89147
▁poids	-9.89244
ry	-9.89449
3-3	-9.89471
▁annuelle	-9.89578
▁enseignants	-9.89589
▁contractuel	-9.89611
▁indications	-9.89714
▁écoles	-9.89893
▁soient	-9.89901
▁possible	-9.89962
as	-9.90128
▁bénéficiaire	-9.90224
▁paritaire	-9.9024
▁attestation	-9.90329
▁52	-9.90357
ces	-9.90446
▁Joseph	-9.9049
▁crédit	-9.90495
▁Co	-9.90647
▁Nord	-9.90872
Paul	-9.90923
ha	-9.90943
électricité	-9.90944
▁visant	-9.90978
▁candidates	-9.91114
▁précisées	-9.91456
▁75	-9.91572
▁maire	-9.91611
▁port	-9.91662
▁1985	-9.91667
ey	-9.91718
acte	-9.9178
▁validité	-9.91871
▁interrégionale	-9.92125
-17	-9.92352
▁diagnostic	-9.92405
da	-9.92707
Loire	-9.92743
▁liés	-9.92822
▁e	-9.92837
▁Isabelle	-9.9287
attestation	-9.92955
▁administratrice	-9.92976
▁considérée	-9.93066
▁mètres	-9.93073
▁Z	-9.93195
▁Marc	-9.93215
▁seule	-9.93358
022001	-9.93377
▁précité	-9.93389
▁collecte	-9.93516
▁structures	-9.93624
▁perte	-9.93729
▁puis	-9.93745
▁milieu	-9.93745
▁régionales	-9.9375
▁différents	-9.93771
/2021-12-0	-9.93907
▁Y	-9.9414
ba	-9.94222
va	-9.94275
▁LES	-9.94368
obtention	-9.94432
hébergement	-9.94707
▁61	-9.94712
▁requis	-9.94822
▁organisé	-9.94949
▁délivrée	-9.95046
ab	-9.95076
▁ingénieurs	-9.95115
▁maintenance	-9.95117
Si	-9.95307
▁Christophe	-9.95379
▁matériaux	-9.95435
▁03	-9.95462
▁obligatoire	-9.9549
▁privé	-9.95647
ier	-9.95672
▁lignes	-9.95685
identité	-9.95728
▁prime	-9.95809
ologie	-9.95834
allocation	-9.96067
▁vu	-9.96157
▁VIII	-9.96297
▁pénale	-9.96357
achat	-9.96361
▁Car	-9.96412
▁changement	-9.96515
AC	-9.96551
ly	-9.96632
▁voix	-9.96641
▁îles	-9.96642
▁inclus	-9.96647
▁http	-9.96734
ardi	-9.96858
▁commande	-9.96868
▁propres	-9.9688
▁remise	-9.96978
▁préalablement	-9.97249
▁division	-9.97258
▁prescription	-9.97344
▁démocratique	-9.97482
▁rendu	-9.9752
▁Sur	-9.97567
▁prestataire	-9.97642
▁évaluation	-9.97706
▁termes	-9.97725
eurs	-9.9773
▁volume	-9.97785
▁écrites	-9.97864
▁Sa	-9.97874
▁contribution	-9.97926
▁Futuna	-9.98046
Marne	-9.98047
▁cessation	-9.98048
▁besoin	-9.98069
▁disponibles	-9.98182
▁Strasbourg	-9.98329
▁immédiatement	-9.98338
▁plateforme	-9.98357
▁participer	-9.98395
▁sixième	-9.98478
armée	-9.98626
▁internationale	-9.98679
▁Val	-9.98712
▁Laurent	-9.98764
▁concurrence	-9.98899
▁contrôles	-9.98927
▁tarifs	-9.99017
-15	-9.99063
▁agrément	-9.99089
▁supprimée	-9.9917
▁test	-9.99248
Rhin	-9.99297
▁certificats	-9.99316
▁électriques	-9.99325
Communes	-9.99379
▁destination	-9.99471
▁grande	-9.99513
▁concernées	-9.99538
▁Guadeloupe	-9.99636
▁morale	-9.99691
▁respecter	-9.99724
▁ouvrant	-9.99759
vis	-9.99833
min	-9.9986
▁télé	-10.0008
▁tels	-10.0013
RA	-10.0016
▁biologie	-10.0019
▁(3)	-10.0019
▁1991	-10.0024
honneur	-10.0034
▁sécurisé	-10.0042
professionnel	-10.0054
▁Georges	-10.0056
▁agréés	-10.0058
▁1992	-10.0084
able	-10.0086
▁sportives	-10.0093
▁aide	-10.0095
étude	-10.0098
▁René	-10.0116
▁ressort	-10.0121
CFDT	-10.0121
▁rend	-10.0122
▁situations	-10.0123
▁réglementaire	-10.0127
▁autorisations	-10.013
if	-10.013
▁Bpifrance	-10.0143
▁1942	-10.0144
▁financiers	-10.0179
▁500	-10.018
▁juridique	-10.0186
ingénieur	-10.0188
▁collectifs	-10.0192
/2021-03-1	-10.0209
▁offertes	-10.021
▁professeurs	-10.0221
▁pilotage	-10.0224
Christophe	-10.0225
aud	-10.0227
▁phase	-10.0231
▁installation	-10.0242
▁stockage	-10.0246
huissier	-10.0255
3-2	-10.0261
▁bois	-10.0265
▁comprenant	-10.0268
▁ministériel	-10.0269
▁transmettre	-10.027
▁possibilité	-10.0276
expiration	-10.0283
affectation	-10.0285
▁53	-10.0287
▁Mar	-10.0288
con	-10.0289
▁ter	-10.0297
Barthélemy	-10.0298
▁spécial	-10.0315
▁clinique	-10.0336
▁élus	-10.0341
ing	-10.0347
om	-10.0349
man	-10.0359
exercer	-10.0364
ens	-10.0384
▁seul	-10.0389
▁71	-10.0397
▁excéder	-10.0403
réanimation	-10.0407
▁seules	-10.0413
▁bonne	-10.0416
▁suivent	-10.0417
▁mandataire	-10.0423
▁permis	-10.0442
▁Vi	-10.0449
▁courriel	-10.0457
▁justifiant	-10.0463
▁normes	-10.0471
▁Ga	-10.0476
ge	-10.0478
ca	-10.048
▁06	-10.0488
MONT	-10.0503
assemblée	-10.0509
▁préfecture	-10.0513
Antoine	-10.0514
Marc	-10.0514
rou	-10.0527
▁limites	-10.0527
▁domaines	-10.0533
AS	-10.0536
▁Financement	-10.0539
▁alors	-10.0539
isation	-10.0542
ale	-10.0545
▁présentant	-10.0552
▁Charles	-10.0554
▁jeux	-10.0554
▁nationales	-10.0555
▁04	-10.0564
▁interdite	-10.0592
ait	-10.0599
▁conception	-10.0606
ag	-10.0606
▁recommandé	-10.0608
▁Catherine	-10.0614
IER	-10.0624
▁dotation	-10.0627
activités	-10.0631
▁forfaitaire	-10.0633
▁subvention	-10.0658
▁hôpitaux	-10.0662
▁duquel	-10.0663
▁2004	-10.0667
▁degré	-10.0677
▁espèces	-10.0684
▁route	-10.069
▁ville	-10.0694
▁uniquement	-10.0702
▁dénomination	-10.0716
Seine	-10.0716
école	-10.0719
▁aéronefs	-10.072
CHE	-10.0722
▁Jo	-10.0734
▁émissions	-10.0736
ver	-10.0738
Louis	-10.0751
▁200	-10.0754
▁CHA	-10.0754
▁nationalité	-10.0761
eux	-10.0764
▁vertu	-10.077
▁taxes	-10.0773
▁ouverture	-10.0774
UN	-10.0776
▁COUR	-10.0776
gu	-10.078
SUR	-10.0793
▁Grand	-10.0793
EP	-10.08
▁nationaux	-10.0801
▁divisionnaire	-10.0801
▁Con	-10.0805
▁X	-10.0809
INT	-10.0815
▁option	-10.0815
▁sommes	-10.0825
▁accompagnée	-10.0827
ct	-10.0837
▁déjà	-10.0848
préfet	-10.0859
hi	-10.0861
▁3,	-10.0867
za	-10.0868
1"	-10.0881
▁sélection	-10.0883
▁définition	-10.0884
▁Guillaume	-10.089
ez	-10.0896
▁ancien	-10.0904
▁proximité	-10.0911
▁constituée	-10.0913
mé	-10.0919
▁versée	-10.0927
▁protocole	-10.0927
▁bénéficient	-10.0945
▁brevet	-10.0959
▁minuit	-10.0959
▁semaines	-10.0967
hospitalisation	-10.0975
▁BOU	-10.098
▁effectuées	-10.0988
▁disponible	-10.0991
▁dérogations	-10.0993
▁directive	-10.1007
▁90	-10.1009
agit	-10.101
bo	-10.1017
▁Comité	-10.1023
▁prélèvement	-10.1023
urs	-10.1043
ois	-10.1048
▁Ch	-10.1055
▁disciplines	-10.1058
6°	-10.1067
ub	-10.1073
▁garanties	-10.1078
▁relève	-10.1083
▁métropole	-10.1097
▁convocation	-10.1105
▁2000	-10.1109
rie	-10.1113
▁monétaire	-10.1119
▁territoriaux	-10.1119
▁praticien	-10.1119
▁indirects	-10.1129
apprentissage	-10.1133
▁collectif	-10.1137
▁producteur	-10.1137
▁anti	-10.1138
▁Société	-10.1141
2"	-10.1145
CO	-10.1147
▁adultes	-10.1152
▁tenant	-10.1167
ARM	-10.1168
▁accordée	-10.117
""	-10.1174
▁Loire	-10.118
Décret	-10.1183
▁exercées	-10.1184
bi	-10.1184
▁lundi	-10.1184
▁observations	-10.1184
▁disponibilité	-10.12
▁colonne	-10.12
▁dénommé	-10.1204
▁Jeanne	-10.1207
▁active	-10.1214
▁tient	-10.1216
US	-10.1226
▁10°	-10.1228
infrastructure	-10.1231
▁grand	-10.1231
ux	-10.1239
IE	-10.1243
▁solidarité	-10.1252
2-5	-10.1255
2.	-10.1263
IR	-10.127
▁inspectrice	-10.1271
Force	-10.1271
▁enveloppe	-10.1273
-1.	-10.1273
-1,	-10.1277
▁profit	-10.1281
▁62	-10.1282
Michel	-10.1283
amélioration	-10.1284
ix	-10.1285
▁affectés	-10.1288
▁72	-10.1296
▁NOTAIRES	-10.1299
▁destinés	-10.1304
appui	-10.1304
▁précitée	-10.1307
▁Antoine	-10.1308
▁radiation	-10.1314
▁techniciens	-10.1324
▁1981	-10.1338
▁classes	-10.1347
▁ouvrages	-10.1351
Saint	-10.1355
▁fabrication	-10.1364
▁différentes	-10.1366
UC	-10.1371
▁Sophie	-10.1374
▁agréées	-10.1383
ner	-10.1388
▁ordonnance	-10.1389
▁Toutefois	-10.1396
▁probatoire	-10.1397
▁classement	-10.1405
▁établit	-10.1421
▁é	-10.1423
▁Notaires	-10.143
urbanisme	-10.143
IX	-10.1439
▁valeurs	-10.1446
022002	-10.1448
Thomas	-10.1451
▁Robert	-10.1455
▁libre	-10.146
ru	-10.1462
▁baccalauréat	-10.1464
RMH	-10.1469
ais	-10.147
ana	-10.1486
▁jeudi	-10.1497
▁veille	-10.15
/2021-10-2	-10.1505
▁listes	-10.1507
tier	-10.1517
▁compatibles	-10.1519
Ma	-10.1521
▁Eric	-10.1521
intitulé	-10.1536
environnementale	-10.1541
▁commissions	-10.1545
▁aucune	-10.1546
dé	-10.1547
▁psychiatrie	-10.1547
▁étant	-10.1548
▁inscrites	-10.1551
Olivier	-10.1553
dûment	-10.1563
▁dépistage	-10.1564
▁organisatrice	-10.1564
▁garantir	-10.1567
mo	-10.1567
Guillaume	-10.157
▁jeunes	-10.157
▁départ	-10.1581
▁bénéficiant	-10.1581
▁populaire	-10.1581
▁"1.	-10.1584
▁mais	-10.1589
▁sol	-10.1596
▁demeure	-10.1606
▁CA	-10.1611
ons	-10.1614
▁caisse	-10.1615
▁Pascal	-10.1619
os	-10.1623
épidémie	-10.1632
Ce	-10.1636
▁produire	-10.1649
▁Constitution	-10.1649
ATION	-10.1651
▁somme	-10.1661
hapitre	-10.1663
▁ouvrière	-10.1666
FF	-10.1668
▁telles	-10.1671
▁diffusion	-10.1674
▁engagements	-10.168
État	-10.1682
▁désigne	-10.1685
em	-10.1687
▁Haut	-10.1694
ène	-10.1705
▁Pro	-10.1711
éco	-10.1714
RY	-10.1722
▁magistrats	-10.1724
▁Stéphane	-10.1726
vi	-10.173
▁Ca	-10.1734
▁expérience	-10.1737
▁requise	-10.1737
▁aucun	-10.1738
▁46	-10.1742
▁propriétaire	-10.1761
▁motif	-10.1765
▁tribunaux	-10.1772
IT	-10.1774
▁régionaux	-10.1778
▁minimale	-10.1793
ka	-10.1796
▁visés	-10.181
▁règlements	-10.1818
/2021-11-1	-10.182
▁exerce	-10.182
AR	-10.1822
▁Cet	-10.1837
▁déclarés	-10.1847
Alexandre	-10.1848
▁éligibles	-10.185
▁démission	-10.185
▁effectuer	-10.1852
▁inscrit	-10.1852
▁concourir	-10.1855
élève	-10.1868
▁affecté	-10.1872
▁donne	-10.1874
▁opération	-10.1875
▁associées	-10.188
▁1979	-10.1882
▁procédé	-10.1884
▁effectué	-10.1891
▁Ile	-10.1897
8-1	-10.19
▁contentieux	-10.1908
▁Hélène	-10.1925
▁indemnités	-10.1929
OR	-10.1959
▁MONT	-10.1962
▁Yves	-10.1976
▁visé	-10.1981
▁spécialisée	-10.1989
/2021-06-0	-10.1995
▁"2.	-10.1999
▁détermine	-10.2
▁principes	-10.2005
▁Françoise	-10.2006
▁É	-10.2006
▁normales	-10.201
▁matières	-10.2011
▁procès	-10.2013
avances	-10.2025
▁douze	-10.203
▁colonel	-10.2035
▁pro	-10.2036
ère	-10.2042
▁In	-10.2043
lu	-10.2045
▁grossesse	-10.2048
▁stagiaires	-10.2051
▁complétée	-10.2051
EC	-10.2059
isé	-10.206
CGC	-10.2066
▁discipline	-10.208
ien	-10.2082
▁Frédéric	-10.2083
▁université	-10.2085
▁derniers	-10.2092
ic	-10.2094
/2021-03-2	-10.2102
ence	-10.2103
tra	-10.2109
ah	-10.211
armement	-10.2113
▁analyse	-10.2117
/2021-04-2	-10.2126
4-3	-10.2131
▁groupes	-10.2132
▁vétérinaire	-10.2134
▁fond	-10.2136
▁acteurs	-10.2138
4"	-10.2142
▁diverses	-10.2148
▁60	-10.2152
ga	-10.2154
essai	-10.2184
▁échelon	-10.2185
▁nécessite	-10.2188
occasion	-10.2188
val	-10.2189
/2021-07-2	-10.2191
mar	-10.2197
ton	-10.2202
ler	-10.2204
▁Durée	-10.2209
▁hauteur	-10.2215
▁correspond	-10.2237
▁statistique	-10.2243
▁vérifier	-10.225
▁Christian	-10.2252
▁reconnue	-10.226
▁unité	-10.226
▁détention	-10.2263
▁tenir	-10.2263
▁types	-10.2266
▁Daniel	-10.2266
ables	-10.2268
AGR	-10.228
▁autorité	-10.2282
▁sortie	-10.2283
▁presse	-10.2283
▁internes	-10.2284
▁congés	-10.2284
▁retour	-10.2292
do	-10.2296
▁suppléants	-10.2298
SA	-10.2299
▁individuel	-10.23
ob	-10.2304
▁située	-10.2315
administrateur	-10.2317
LI	-10.2321
/2021-08-0	-10.2323
par	-10.2326
▁œuvres	-10.2326
▁autorisées	-10.2328
▁acceptée	-10.2334
ière	-10.2338
1.	-10.2339
ran	-10.2345
SE	-10.2346
5"	-10.2349
be	-10.2359
▁anesthésie	-10.2363
CFE	-10.2367
élaboration	-10.2372
▁long	-10.2378
TI	-10.238
▁1978	-10.2381
▁issus	-10.2383
▁conseillers	-10.2387
▁renouvelable	-10.239
AN	-10.2398
▁faite	-10.2402
▁Nancy	-10.2406
▁locale	-10.2407
▁déplacement	-10.2408
▁sportive	-10.2409
son	-10.2416
Laurent	-10.2431
pe	-10.2432
▁globale	-10.2432
▁placé	-10.2435
▁Thierry	-10.2448
▁No	-10.2449
engage	-10.2451
▁détail	-10.2464
▁plans	-10.2465
Cha	-10.2467
▁BAR	-10.2477
▁précédant	-10.2483
▁Rouen	-10.2484
▁nouvelles	-10.2485
▁imprimé	-10.2495
▁scrutin	-10.2501
3.	-10.2508
Val	-10.251
▁suppléante	-10.2511
▁figure	-10.2515
/2021-02-2	-10.252
▁contribuant	-10.252
▁nécessité	-10.252
4.	-10.2524
▁thérapeutiques	-10.2534
/2021-07-0	-10.2539
.3.	-10.254
▁répondre	-10.2541
▁universitaires	-10.2542
▁Se	-10.2543
▁U	-10.2544
▁délibération	-10.2558
▁logements	-10.2559
▁mines	-10.2561
EAU	-10.2563
arrêt	-10.2575
▁reste	-10.2578
▁64	-10.2593
▁cotisations	-10.2596
▁mode	-10.26
▁notes	-10.2604
euros	-10.2605
▁locales	-10.2608
6-2	-10.2611
inventaire	-10.2613
asile	-10.262
▁1994	-10.2622
▁CAR	-10.2623
▁Ben	-10.2624
▁Autres	-10.2632
▁prestation	-10.2634
▁Bou	-10.2634
res	-10.2635
3-4	-10.2645
NA	-10.2647
▁acte	-10.2654
/2021-11-2	-10.2657
▁47	-10.2662
▁CO	-10.2681
▁reprise	-10.2687
▁complément	-10.2709
▁Marcel	-10.2711
impossibilité	-10.2726
▁composé	-10.2733
OS	-10.2734
objectif	-10.2736
8"	-10.2744
Confédération	-10.2751
▁fera	-10.2751
/2021-05-2	-10.2769
▁continu	-10.278
ét	-10.2781
ina	-10.2786
▁relation	-10.2787
▁sites	-10.2792
▁conseils	-10.2795
OL	-10.2804
audit	-10.2813
CI	-10.2813
▁fourniture	-10.2826
▁définit	-10.2827
élection	-10.2829
▁calculé	-10.2832
▁contrôleur	-10.284
ins	-10.2847
▁Vincent	-10.285
che	-10.2876
acquisition	-10.2878
▁mineurs	-10.288
lon	-10.2884
▁central	-10.2885
Denis	-10.2887
CCP	-10.2888
▁conformes	-10.2893
▁Patrick	-10.29
major	-10.2906
▁CE	-10.2906
Sophie	-10.2906
▁Date	-10.2907
mment	-10.2913
▁permanente	-10.2915
▁Fa	-10.2926
APPEL	-10.2938
▁protégé	-10.2944
▁Alexandre	-10.2945
▁groupements	-10.2946
▁adressé	-10.2952
▁organisée	-10.2954
▁prévoit	-10.2956
▁placés	-10.2957
AUX	-10.2967
▁entraîne	-10.2969
▁Nathalie	-10.2973
▁biodiversité	-10.2976
▁disposant	-10.2976
GE	-10.2985
▁habilités	-10.2989
▁obligatoirement	-10.3
▁accessibles	-10.3001
auquel	-10.3005
▁organisateur	-10.3005
▁antérieure	-10.3007
▁pièce	-10.3009
OIS	-10.3009
▁procède	-10.3011
▁contributions	-10.3012
lan	-10.3013
NI	-10.3019
QUE	-10.302
▁1993	-10.3023
▁partiel	-10.3025
▁considéré	-10.3031
▁hommes	-10.3035
▁privés	-10.3035
▁éventuellement	-10.3036
▁saisie	-10.3036
▁comités	-10.3039
no	-10.3043
pompiers	-10.3048
▁candidatures	-10.3067
▁huit	-10.307
▁déclarations	-10.3077
▁ajoutée	-10.3079
AGRT	-10.3079
▁sanitaires	-10.3089
▁dématérialisée	-10.3095
ani	-10.3103
...)	-10.3106
▁exposé	-10.3108
▁modifier	-10.3114
▁constitué	-10.3131
▁effectués	-10.314
oc	-10.3158
AUD	-10.316
▁70	-10.3162
ve	-10.3167
▁aménagement	-10.3168
▁statutaires	-10.317
/2021-08-1	-10.3171
▁décrites	-10.3182
▁coordonnées	-10.3194
▁calendrier	-10.3195
▁coût	-10.32
▁appartenant	-10.3201
▁sportif	-10.3201
▁55	-10.3207
▁affectation	-10.3209
▁administrateurs	-10.321
/2021-06-1	-10.3211
ingénieurs	-10.3213
▁personnalités	-10.3221
hygiène	-10.3232
▁campagne	-10.3232
▁livraison	-10.3232
/2021-08-2	-10.3243
▁dite	-10.3246
▁exclusivement	-10.3253
▁norme	-10.3261
▁réunion	-10.3261
▁donné	-10.3263
/2021-04-1	-10.327
▁fondement	-10.3272
RES	-10.3277
▁maison	-10.3278
▁producteurs	-10.3289
▁POUR	-10.3299
▁nucléaire	-10.3301
ult	-10.3306
▁individuels	-10.3314
▁1996	-10.332
▁pourvoir	-10.3322
▁déc	-10.3324
▁voies	-10.3325
▁SE	-10.3341
Camille	-10.3347
▁réputé	-10.3351
ign	-10.3359
▁Julien	-10.336
▁victimes	-10.3361
/2021-03-0	-10.3372
▁hiérarchique	-10.3372
▁capital	-10.3372
▁bénéficie	-10.3376
delà	-10.338
gé	-10.3387
eaux	-10.3392
/2021-02-0	-10.3393
▁MAR	-10.3397
▁11°	-10.3409
Julien	-10.3412
▁complète	-10.3413
▁"3.	-10.3418
▁Bar	-10.3423
tion	-10.3425
▁contrôlée	-10.3428
▁capacités	-10.3428
▁connexes	-10.3433
▁valorisation	-10.3433
▁pensions	-10.3433
▁connaître	-10.3434
▁numériques	-10.3444
/2021-04-0	-10.3445
verbal	-10.3454
▁déterminé	-10.3456
▁visite	-10.3465
▁5.	-10.3466
-2.	-10.347
op	-10.3479
▁soumises	-10.3482
▁susceptible	-10.3486
▁judiciaires	-10.3489
▁définitive	-10.3492
▁consiste	-10.3494
▁méthodes	-10.3495
▁composer	-10.3501
5.	-10.3519
▁via	-10.3521
▁indicateurs	-10.3522
si	-10.3532
▁résolution	-10.3535
.1.	-10.3537
▁abrogés	-10.3541
▁renseignement	-10.3551
né	-10.3552
▁référent	-10.3556
AV	-10.3563
▁(1	-10.3567
▁Claire	-10.3573
▁intervient	-10.3579
mont	-10.3585
RON	-10.3589
CA	-10.3591
▁urbain	-10.3592
▁partielle	-10.3596
/2021-07-1	-10.3597
▁déterminée	-10.3633
▁constitue	-10.3634
habilitation	-10.3636
▁huissier	-10.3636
▁espaces	-10.3645
3-6	-10.3656
option	-10.3658
▁Grenoble	-10.366
▁attestant	-10.366
▁cent	-10.3682
▁laboratoire	-10.3695
ff	-10.3703
▁j	-10.3706
▁Institut	-10.3711
▁obtenir	-10.3714
vo	-10.3717
▁54	-10.3718
Luc	-10.372
▁trésorerie	-10.3722
▁greffe	-10.3723
▁ultérieurement	-10.3724
▁Autorité	-10.3725
eu	-10.3728
▁orales	-10.3733
st	-10.374
▁faits	-10.3741
▁dates	-10.3746
and	-10.3757
▁disciplinaire	-10.3789
▁administrations	-10.3803
animation	-10.3803
BE	-10.3805
▁conduire	-10.3807
▁PA	-10.3812
▁preuve	-10.3827
▁réparation	-10.3827
▁répertoire	-10.3827
▁salaires	-10.3833
▁Ro	-10.3836
EY	-10.3838
▁v	-10.3838
▁tests	-10.3843
▁représentation	-10.3844
▁Roger	-10.3845
▁sujet	-10.3859
▁ma	-10.386
Un	-10.3863
▁audiovisuelle	-10.3865
épreuves	-10.3866
▁médicales	-10.3871
▁Maurice	-10.3877
égard	-10.3878
▁Bo	-10.3879
▁165-1	-10.388
ap	-10.388
▁Gérard	-10.3882
▁outils	-10.3894
2-8	-10.3907
pi	-10.3909
Haute	-10.391
▁tenue	-10.3911
▁garantiss	-10.3913
Baptiste	-10.3915
ec	-10.3924
ed	-10.3925
▁terre	-10.3929
▁licence	-10.393
▁schéma	-10.3934
ris	-10.3943
▁Bureau	-10.3945
▁sanction	-10.3948
ille	-10.3951
▁famille	-10.3951
PE	-10.3952
▁contenant	-10.3955
go	-10.3961
EZ	-10.3964
▁présentée	-10.3971
▁contractante	-10.3973
▁aéronautique	-10.3975
▁Guy	-10.3976
▁Dijon	-10.3977
▁atteints	-10.3986
▁tour	-10.399
▁haute	-10.3991
▁animaux	-10.3992
▁80	-10.3992
▁annuels	-10.3995
▁étrangers	-10.3998
▁avenue	-10.3998
▁interrégional	-10.4002
/2021-10-0	-10.4009
▁PAR	-10.4014
Accès	-10.4022
▁contact	-10.4022
Etienne	-10.4024
▁chambres	-10.4029
▁recommandations	-10.403
▁opérationnel	-10.4037
▁Emmanuel	-10.4047
cdg	-10.4048
rin	-10.4051
▁quantité	-10.4061
Claire	-10.4061
2)	-10.4076
com	-10.4076
▁ANNEXES	-10.4081
Vilaine	-10.4085
TA	-10.4088
▁relèvent	-10.409
équipement	-10.4096
▁justificatifs	-10.4096
▁utilisé	-10.4097
▁sus	-10.4097
AY	-10.4099
ive	-10.4101
▁spectacle	-10.4104
▁Convention	-10.4106
ifi	-10.4116
▁souhait	-10.4125
institut	-10.4129
br	-10.4132
9-1	-10.4142
▁Po	-10.4145
▁antérieures	-10.4147
▁régie	-10.4147
▁appel	-10.4149
ancienneté	-10.4157
pprovisionnement	-10.416
▁proposer	-10.4168
▁enseignements	-10.4169
exposition	-10.4171
▁compensation	-10.4172
▁RE	-10.4183
8900	-10.419
▁artistique	-10.4193
▁donner	-10.4205
▁compétentes	-10.4209
▁méthode	-10.4215
▁indemnité	-10.4215
▁portabilité	-10.4216
▁mineur	-10.4231
4)	-10.4231
ex	-10.4235
immatriculation	-10.4238
▁recouvrement	-10.4238
▁El	-10.4258
don	-10.4262
▁placée	-10.4264
fa	-10.4266
approbation	-10.4268
▁Seine	-10.4271
autonomie	-10.4282
/2021-06-2	-10.4283
▁AL	-10.4284
▁MA	-10.4284
▁juridiction	-10.4287
▁63	-10.429
EX	-10.429
ESR	-10.4296
▁accepté	-10.4297
ang	-10.4299
▁ingénieure	-10.4304
Garonne	-10.4305
▁Corse	-10.431
▁mg	-10.4315
▁ensemble	-10.4321
▁processus	-10.4326
Atlantique	-10.4327
▁décédée	-10.4332
▁résiliation	-10.4349
▁électrique	-10.4349
▁indique	-10.4366
▁répartis	-10.4366
▁mixte	-10.4371
▁provisoire	-10.4371
▁cession	-10.4371
avant	-10.4374
▁pédagogiques	-10.438
▁partage	-10.4392
▁employés	-10.4394
De	-10.4404
▁juridiques	-10.4406
UL	-10.4406
▁Sylvie	-10.4412
VILLE	-10.4416
/2021-09-2	-10.4417
▁auxquel	-10.4421
▁57	-10.4427
▁Christine	-10.4429
GUE	-10.4434
TRA	-10.4436
▁Clermont	-10.4438
▁sapeurs	-10.4443
▁déterminer	-10.445
pa	-10.445
ible	-10.4453
ques	-10.4453
▁conduit	-10.4454
Claude	-10.4462
9000	-10.4473
interministériel	-10.4474
▁assurée	-10.4476
EUR	-10.4483
efficacité	-10.4483
▁rouge	-10.4483
▁recharge	-10.4484
▁2001	-10.4498
▁actifs	-10.45
ni	-10.45
▁libertés	-10.4505
▁supplémentaires	-10.4505
/2021-05-1	-10.4512
tri	-10.4513
Vincent	-10.4518
AND	-10.4528
▁consultative	-10.4529
▁organisés	-10.453
▁vétérinaires	-10.4533
▁partenaires	-10.4534
▁PO	-10.4534
▁aura	-10.4534
▁133	-10.4534
▁radié	-10.4535
▁2002	-10.4536
▁Ba	-10.4539
▁répond	-10.4541
▁naturels	-10.4547
▁assurés	-10.4551
effectue	-10.4561
▁Disposition	-10.4562
▁naturelle	-10.4564
▁fournisseur	-10.4577
▁fiscales	-10.4578
tu	-10.4587
oul	-10.459
▁circonstances	-10.4596
architecture	-10.4597
▁portée	-10.4598
▁majorité	-10.4598
▁filière	-10.4601
▁présenté	-10.4604
Ille	-10.4609
▁décès	-10.461
▁Per	-10.4612
▁Thomas	-10.4615
▁concession	-10.462
venant	-10.4624
▁handicapées	-10.4625
nel	-10.4626
▁biologiques	-10.4637
▁principaux	-10.4643
ger	-10.465
tal	-10.4652
▁utilisation	-10.4654
3)	-10.4661
▁morales	-10.4661
▁élevé	-10.4664
ib	-10.4667
▁déplacements	-10.4667
quelles	-10.467
▁Valérie	-10.4678
intégration	-10.4678
▁prononcée	-10.4679
▁59	-10.468
▁synthèse	-10.4689
▁aussi	-10.469
▁face	-10.4707
ST	-10.471
21-2	-10.4711
agents	-10.4714
▁série	-10.4715
▁annexée	-10.4716
▁commerciale	-10.4723
vers	-10.4725
ELLE	-10.4726
▁vérifications	-10.4732
▁reconnu	-10.4734
BO	-10.4736
▁déterminées	-10.4751
1)	-10.4752
tes	-10.4759
lier	-10.4763
▁effectifs	-10.4764
cu	-10.4767
▁désignées	-10.4768
▁fonctionnelle	-10.4774
particulièrement	-10.4777
▁valable	-10.478
▁justifie	-10.4794
anne	-10.4794
oux	-10.4803
▁Al	-10.4805
▁i	-10.4805
▁solution	-10.4811
NOR	-10.4823
▁sévère	-10.4828
chi	-10.4838
INE	-10.484
ten	-10.4849
Amiens	-10.4852
▁Ha	-10.4853
officier	-10.4854
▁plafond	-10.4858
magistrature	-10.487
impôt	-10.4874
▁biologique	-10.4877
▁participant	-10.4882
▁contractuels	-10.4887
▁candidate	-10.4892
▁automatisé	-10.4899
Espace	-10.4899
▁Service	-10.4901
▁"7°	-10.4903
iste	-10.4908
▁1980	-10.4911
David	-10.4917
Ga	-10.4919
▁CS	-10.4922
▁brut	-10.4934
let	-10.4935
▁habilité	-10.4948
▁éligible	-10.4953
▁informé	-10.4955
qui	-10.4955
▁peine	-10.4977
EMENT	-10.498
▁1977	-10.4981
ys	-10.4983
Eric	-10.4992
▁programmation	-10.4993
▁totalité	-10.4995
ai	-10.4999
auteur	-10.5009
▁portail	-10.5012
gue	-10.5014
▁infrastructures	-10.502
DU	-10.5023
ART	-10.5023
▁infirmiers	-10.5025
▁détection	-10.5025
▁destinées	-10.5027
LO	-10.5031
ari	-10.5031
▁ministères	-10.5039
adulte	-10.5039
▁satisfaire	-10.5041
uv	-10.5047
▁48	-10.5054
Sébastien	-10.5062
▁cohérence	-10.5065
▁séquence	-10.5066
▁transmises	-10.5067
▁exceptionnel	-10.5074
▁maladies	-10.5078
▁affectée	-10.508
▁publiée	-10.5083
▁protégée	-10.5087
lot	-10.5088
/2021-01-0	-10.5089
▁permettent	-10.5089
▁âgées	-10.5093
/2021-09-0	-10.5094
▁indiquée	-10.5094
▁téléphone	-10.5095
▁substances	-10.5097
Vice	-10.5111
▁Xavier	-10.5117
▁notifiée	-10.5125
▁2024	-10.5132
▁cm	-10.5133
ali	-10.5135
session	-10.5135
ô	-10.5137
▁Bulletin	-10.5137
tique	-10.5142
onne	-10.5154
▁Trésor	-10.5161
expression	-10.5164
▁internationales	-10.5165
▁textes	-10.5165
▁spécialisé	-10.5167
▁Mo	-10.5167
▁Cécile	-10.5182
tif	-10.519
▁musée	-10.5196
▁aériens	-10.52
▁opérationnelle	-10.52
Tout	-10.5201
▁maximal	-10.5201
▁Gilles	-10.5205
▁magistrature	-10.5216
Juge	-10.5217
▁versées	-10.5219
échelon	-10.5233
assistance	-10.5234
intégrité	-10.5234
tro	-10.5241
▁Cor	-10.5253
▁premiers	-10.5254
▁quel	-10.5255
▁Poitiers	-10.5258
Futuna	-10.5258
▁49	-10.5264
▁Dé	-10.5268
▁admissibles	-10.5269
▁justificatif	-10.527
ég	-10.5271
▁peines	-10.5275
▁Bruno	-10.5278
artisanat	-10.5285
▁David	-10.5288
▁externes	-10.5291
▁Aucune	-10.5297
▁porter	-10.53
▁An	-10.5302
▁contractuelle	-10.5307
▁niveaux	-10.5314
aires	-10.5316
.4.	-10.5321
MI	-10.5324
▁scientifiques	-10.5326
202	-10.5329
Charles	-10.5334
▁orientations	-10.5335
▁"(	-10.5337
BI	-10.5339
▁éventuelles	-10.534
▁certifications	-10.5346
▁Ou	-10.5352
▁confidentialité	-10.5357
▁suppression	-10.5357
▁génie	-10.5357
fi	-10.5365
NT	-10.5368
▁instances	-10.5368
voir	-10.5369
tan	-10.5372
.2.	-10.5375
▁culturels	-10.5376
PI	-10.5376
▁validé	-10.5377
▁hospi	-10.5381
vent	-10.5381
▁Ar	-10.5382
Frédéric	-10.5383
▁Caen	-10.5386
▁contraire	-10.5394
▁intervenant	-10.5396
ISS	-10.5397
▁praticiens	-10.5398
▁vivante	-10.5399
▁régi	-10.54
ise	-10.5403
/2021-01-1	-10.5406
▁SARS	-10.5408
préfète	-10.5408
▁intercommunale	-10.5415
erie	-10.5419
▁complet	-10.5419
▁pharmacien	-10.5429
▁précédente	-10.543
▁dépôts	-10.5431
credi	-10.544
▁conférences	-10.5444
▁12°	-10.5449
▁abroge	-10.5456
▁sections	-10.5462
▁Camille	-10.5462
▁susmentionné	-10.5464
▁mensuel	-10.5477
▁PTTS	-10.5481
▁télétravail	-10.5481
vé	-10.5481
▁coordonnateur	-10.5482
TERB	-10.5485
▁Associés	-10.5489
▁atteint	-10.549
QU	-10.5496
▁versé	-10.5499
▁définitif	-10.5507
Moselle	-10.5509
ane	-10.551
▁consommateur	-10.552
▁désignée	-10.552
▁agences	-10.5527
assistant	-10.5531
▁propose	-10.5536
/2021-11-0	-10.5536
▁reçu	-10.5541
▁IX	-10.5542
▁82	-10.5543
▁arrête	-10.5553
argent	-10.5555
▁législation	-10.5556
▁Reims	-10.5556
▁nouveaux	-10.5557
RÉ	-10.5564
▁organise	-10.5568
▁soumise	-10.5569
▁magistrat	-10.5571
ain	-10.5573
▁2023	-10.5579
▁description	-10.5581
▁quater	-10.5581
Maxime	-10.5586
è	-10.5586
mu	-10.5587
Ile	-10.5597
▁approbation	-10.5597
▁pénal	-10.5604
▁rendus	-10.5605
▁pharmaceutique	-10.5605
▁brigade	-10.5606
▁2003	-10.5609
▁localement	-10.5613
▁marchandises	-10.5614
BA	-10.5614
IC	-10.562
▁Lo	-10.5621
ud	-10.5628
▁établis	-10.5631
▁accompagné	-10.5631
▁auront	-10.5636
▁liée	-10.5643
▁évaluations	-10.5645
ze	-10.5645
▁Tous	-10.5649
▁Sal	-10.5649
▁dénommée	-10.5651
ies	-10.5652
SI	-10.5653
▁souhaite	-10.5655
accréditation	-10.5657
DI	-10.5658
▁adjoints	-10.5659
▁GR	-10.5661
gi	-10.5672
▁rejet	-10.5676
▁individuelles	-10.5678
▁infanterie	-10.5694
▁adapté	-10.5695
▁puissance	-10.5708
émission	-10.5715
ASS	-10.5717
▁régies	-10.5717
▁choisi	-10.573
7-2	-10.5731
Quentin	-10.5734
▁admise	-10.5736
ECOP	-10.5738
▁attachés	-10.5749
▁débit	-10.5754
actions	-10.5755
/2021-05-0	-10.5758
▁pédiatrie	-10.5759
accomplissement	-10.5759
CoV	-10.576
▁ex	-10.5762
▁PER	-10.5763
▁adaptations	-10.5764
ARTI	-10.5766
▁minima	-10.5768
line	-10.5768
▁scolaires	-10.5769
▁motifs	-10.5771
▁attribuée	-10.5772
▁forfait	-10.5772
VA	-10.5779
Ferrand	-10.5785
▁fer	-10.5788
ov	-10.5791
▁documentation	-10.5794
▁régularisation	-10.5811
▁élections	-10.5813
▁retenue	-10.5814
up	-10.5818
▁millions	-10.5833
▁assurant	-10.5851
habitat	-10.5854
▁révision	-10.5862
NIER	-10.5864
▁intérêts	-10.5881
opposition	-10.5888
▁vivant	-10.5895
invalidité	-10.5898
avoir	-10.5898
▁Stéphanie	-10.5899
▁prénom	-10.5908
▁salaire	-10.591
▁notée	-10.5911
ières	-10.592
▁issue	-10.5921
Lorsqu	-10.5929
▁retard	-10.5933
▁volontaire	-10.5934
▁donc	-10.5941
▁prévoir	-10.5941
iz	-10.5943
Julie	-10.5946
▁indiqué	-10.5946
▁savoir	-10.5951
▁of	-10.5958
mb	-10.5958
MO	-10.5967
21-4	-10.5974
intermédiaire	-10.5977
van	-10.5979
teur	-10.5981
zi	-10.5982
▁maîtres	-10.5985
▁obligation	-10.5988
/2021-10-1	-10.5988
tin	-10.5991
▁trè	-10.5993
VE	-10.5995
▁signée	-10.5999
ho	-10.6004
TER	-10.6017
▁Fonds	-10.6019
▁régions	-10.6027
inspecteur	-10.6027
▁exploitation	-10.6032
int	-10.6039
ateur	-10.604
▁placement	-10.6042
▁greffier	-10.6046
cadre	-10.6048
Oise	-10.6052
INS	-10.6054
Jacques	-10.6058
TION	-10.6058
LET	-10.6063
AIS	-10.6065
▁cassation	-10.6073
tation	-10.6074
pt	-10.6076
▁directe	-10.6081
▁Caroline	-10.6081
▁sept	-10.6086
Stéphane	-10.6087
▁métropolitaine	-10.6094
▁Luc	-10.6101
az	-10.6111
▁73	-10.6113
▁Di	-10.6114
enne	-10.6116
▁favorable	-10.6125
io	-10.6139
▁utilisateurs	-10.6141
▁stagiaire	-10.6148
▁classés	-10.615
▁formule	-10.615
▁comprise	-10.615
▁répondant	-10.6158
▁Arnaud	-10.6161
Office	-10.6166
▁transmise	-10.6169
▁routier	-10.6175
Laure	-10.6175
▁report	-10.6176
départemental	-10.6176
mes	-10.6177
▁clients	-10.6179
▁petites	-10.6185
▁formes	-10.6187
▁1995	-10.6189
▁Com	-10.6191
Or	-10.6195
od	-10.62
▁directions	-10.6203
TO	-10.6204
▁eu	-10.6212
▁NO	-10.6217
▁1976	-10.6218
euse	-10.6219
▁équipe	-10.6219
▁conséquences	-10.6221
▁communiqués	-10.6223
▁notifie	-10.6224
ept	-10.6229
AP	-10.6231
Angers	-10.6232
▁seuil	-10.6235
▁motivée	-10.624
RET	-10.6253
iques	-10.6256
▁facturation	-10.6259
▁ST	-10.6259
▁Nice	-10.6259
▁solde	-10.626
EAE	-10.6264
nelle	-10.6265
▁Groupement	-10.6274
organe	-10.6278
nés	-10.6279
000	-10.6281
octroi	-10.6286
▁gynécologie	-10.6286
▁valider	-10.6291
ront	-10.6296
▁donneur	-10.6302
acc	-10.6306
▁Tours	-10.6307
TS	-10.6312
▁obtenus	-10.6313
▁achats	-10.6317
▁Véronique	-10.6317
▁91	-10.6317
Romain	-10.633
avance	-10.6336
▁proposé	-10.6337
▁attribué	-10.6337
▁Sébastien	-10.6344
▁SAS	-10.6344
▁DEL	-10.6354
RIE	-10.6355
mon	-10.6359
▁ferroviaire	-10.6366
▁population	-10.6366
▁renouvelé	-10.6367
▁rétention	-10.6368
▁populations	-10.637
▁09	-10.6376
nement	-10.638
▁puisse	-10.638
▁professions	-10.6384
▁serait	-10.6387
▁occupant	-10.639
port	-10.6391
▁20.	-10.6394
▁cotisation	-10.6394
▁commandement	-10.6402
iers	-10.6403
▁Florence	-10.6403
ange	-10.6405
▁préciser	-10.6408
▁veiller	-10.6412
av	-10.6416
▁fourni	-10.6418
▁56	-10.642
occupation	-10.6423
▁virus	-10.6423
▁lié	-10.6426
ts	-10.6431
ki	-10.6431
Elle	-10.6432
VAL	-10.6433
▁enregistrées	-10.6433
▁recommandée	-10.6436
entre	-10.644
appellation	-10.6442
cher	-10.6447
▁recevoir	-10.645
Ces	-10.6464
NO	-10.6464
AF	-10.647
▁fiscale	-10.6471
▁septième	-10.6475
▁démarche	-10.6477
nes	-10.6484
▁masse	-10.6488
▁infractions	-10.6491
Etablissement	-10.6497
0"	-10.6502
ven	-10.6505
▁liquidation	-10.6505
▁version	-10.6507
▁ouverte	-10.6509
013001	-10.6532
▁pension	-10.6533
▁SI	-10.6534
our	-10.6551
iel	-10.6552
▁industrielle	-10.6566
▁Ver	-10.6566
▁tâches	-10.6579
▁suivre	-10.6589
▁situés	-10.659
▁Louise	-10.659
▁utilisées	-10.6596
200	-10.6597
lès	-10.6603
informations	-10.6607
▁longue	-10.6613
▁remis	-10.6616
▁nomenclature	-10.6616
PL	-10.6617
▁MARTIN	-10.6618
▁porté	-10.6625
▁chefs	-10.6632
aérodrome	-10.6643
ret	-10.6644
▁Commandant	-10.6645
Lo	-10.6658
▁Da	-10.6659
▁passagers	-10.6665
▁exercent	-10.6675
EU	-10.6676
ny	-10.6679
▁BO	-10.6681
▁détermination	-10.6684
▁exercice	-10.6684
▁Bas	-10.6686
▁Char	-10.6689
▁ordres	-10.6701
▁trimestre	-10.6701
IDCC	-10.6701
▁65	-10.6703
▁supplémentaire	-10.6703
▁participe	-10.6712
▁nouvel	-10.6716
▁objectif	-10.672
▁troupe	-10.6724
exigence	-10.6727
3-7	-10.6729
▁moitié	-10.6729
▁location	-10.6729
▁contexte	-10.6729
▁Jérôme	-10.673
▁perçues	-10.6734
▁qualifiées	-10.6739
▁seuls	-10.674
▁disposent	-10.6741
▁livret	-10.6744
LIN	-10.6745
uc	-10.6747
Xavier	-10.6753
▁rigueur	-10.6757
▁double	-10.6757
▁dérouleront	-10.6758
Maritime	-10.676
ini	-10.676
oy	-10.6775
▁prévisionnel	-10.6775
gra	-10.6783
â	-10.6785
▁déposé	-10.6788
BERT	-10.6788
▁vins	-10.6791
▁débiteur	-10.6791
▁propositions	-10.6799
▁culturelles	-10.6801
▁prenant	-10.6807
▁contraintes	-10.6814
infection	-10.6815
▁constaté	-10.6819
▁enfant	-10.682
▁supérieurs	-10.6822
ll	-10.6824
▁rémunérations	-10.6825
▁Ré	-10.6826
ENS	-10.6839
Thierry	-10.6839
▁Albert	-10.6842
accessibilité	-10.6843
▁croissance	-10.6843
▁2021-2022	-10.6843
▁Laurence	-10.6848
▁Affectation	-10.6852
▁appelé	-10.6857
▁assimilés	-10.6863
▁Assesseur	-10.6871
sp	-10.6882
▁vols	-10.6885
▁Russie	-10.6892
▁composants	-10.6894
▁OU	-10.69
▁Conditions	-10.69
Ch	-10.6905
AIRE	-10.6907
ANS	-10.691
▁identifiée	-10.6913
▁déroule	-10.6914
▁proportion	-10.6918
ak	-10.692
IF	-10.6923
▁commissaires	-10.6925
/2021-09-1	-10.6926
▁chargées	-10.6927
Ukraine	-10.6929
ste	-10.6932
▁rendre	-10.6935
▁portées	-10.6935
ja	-10.6935
itaire	-10.6936
▁courant	-10.6943
per	-10.6948
▁anciennement	-10.6948
ayant	-10.6953
assuré	-10.6956
même	-10.6956
▁adaptée	-10.6959
▁respecte	-10.6966
▁technologies	-10.6977
cha	-10.6982
ÉS	-10.6985
▁Brest	-10.6987
apprécier	-10.6988
▁humaine	-10.6996
▁Ville	-10.6998
ienne	-10.7002
▁restauration	-10.7016
▁ouvriers	-10.7016
UT	-10.7017
▁étrangère	-10.7021
▁organisées	-10.7023
use	-10.7027
ILLE	-10.7027
▁Julie	-10.7028
▁saisi	-10.7029
▁BA	-10.7035
▁communauté	-10.7045
▁réforme	-10.7047
▁Pa	-10.7047
IG	-10.706
▁gestionnaires	-10.7073
▁constituer	-10.7075
▁statistiques	-10.7079
igny	-10.708
BOIS	-10.708
▁inscrite	-10.7089
▁réunions	-10.7091
▁pêches	-10.7092
▁insérée	-10.7094
▁global	-10.7096
nant	-10.7101
▁Ecole	-10.7103
▁métallurgiques	-10.7104
▁correspondance	-10.7105
ev	-10.7106
▁cellules	-10.7125
▁Besançon	-10.7133
▁Corps	-10.7133
▁Syndicat	-10.7133
interdiction	-10.7134
Hélène	-10.7134
▁déroulera	-10.7136
▁subi	-10.7141
EST	-10.7147
ateurs	-10.7155
▁Museum	-10.7163
▁résidant	-10.7163
▁personnelles	-10.7163
site	-10.7166
▁délibérations	-10.7191
▁fixation	-10.7192
100	-10.7193
▁Qu	-10.7196
ano	-10.72
igne	-10.72
▁conclusion	-10.7201
▁fraude	-10.7201
▁74	-10.7204
MP	-10.7204
inistère	-10.7215
▁Monique	-10.7232
Q	-10.7232
▁6.	-10.724
▁utiliser	-10.7242
▁CON	-10.7246
23-1	-10.7249
▁refusé	-10.725
▁signalement	-10.7252
▁Mou	-10.7252
ures	-10.7254
Mathilde	-10.7254
▁adaptées	-10.7255
▁fraction	-10.7258
▁manifestation	-10.726
IQUE	-10.7266
assure	-10.727
LAN	-10.7274
▁CH	-10.7281
empêchement	-10.7282
évaluer	-10.7284
Yves	-10.7286
▁eux	-10.7289
▁terrains	-10.7289
yn	-10.729
▁permanent	-10.7295
▁secteurs	-10.7301
ue	-10.7303
▁probation	-10.7311
▁guerre	-10.7311
▁St	-10.7313
▁imagerie	-10.7314
▁fournis	-10.7318
▁exemplaires	-10.7324
▁traité	-10.7325
ik	-10.7328
▁ancienne	-10.7333
▁Ka	-10.7337
▁passage	-10.7337
▁action	-10.7338
▁commerciales	-10.7341
▁Hauts	-10.7342
GA	-10.7345
▁Pi	-10.7353
mat	-10.7354
▁intervenir	-10.7361
8°	-10.7366
21-5	-10.7368
▁légale	-10.7369
▁résident	-10.7372
▁législatives	-10.7377
-523	-10.738
▁RO	-10.7388
▁FA	-10.7389
ification	-10.7397
OUX	-10.7399
▁routière	-10.7402
existence	-10.7406
▁agence	-10.7406
▁chantier	-10.7412
ach	-10.7416
▁contenus	-10.7421
▁interdit	-10.7422
▁tri	-10.7426
▁difficultés	-10.7426
▁sources	-10.7427
implantation	-10.7433
▁ladite	-10.7435
▁recherches	-10.7435
▁volontaires	-10.744
ttes	-10.7442
▁Ta	-10.7443
▁manquement	-10.7443
▁françaises	-10.7444
mm	-10.7444
▁mentions	-10.7444
zone	-10.745
amp	-10.7461
indemnisation	-10.7462
▁2232-6	-10.7462
▁considération	-10.7463
RU	-10.7464
PA	-10.7468
cinq	-10.7469
CR	-10.7471
▁PI	-10.7472
MES	-10.7482
DO	-10.7483
▁Je	-10.7484
▁enseignant	-10.7488
▁comprennent	-10.7493
▁solidaire	-10.7493
▁éliminatoire	-10.7493
▁apportées	-10.7495
exposé	-10.7498
▁stricte	-10.7502
OM	-10.7505
▁but	-10.7507
attaché	-10.7512
▁respectives	-10.7514
▁séances	-10.7514
▁représente	-10.7519
CFTC	-10.7524
▁température	-10.7524
▁satisfait	-10.7524
▁envoyé	-10.7525
▁limiter	-10.7525
Côte	-10.753
AIN	-10.7535
▁Didier	-10.7554
▁prudentiel	-10.7554
▁restructuration	-10.7554
▁Del	-10.7555
DON	-10.7555
▁immeubles	-10.7558
▁Sans	-10.7561
JORF	-10.7561
durée	-10.7562
der	-10.7563
▁assurances	-10.7566
▁recev	-10.7567
SSAH	-10.7567
DES	-10.7569
▁Serge	-10.7574
▁régis	-10.7576
▁forces	-10.7578
▁intention	-10.7579
▁consentement	-10.7585
MAR	-10.7589
SP	-10.759
▁états	-10.7594
effectuer	-10.7594
▁technologique	-10.7597
▁revenus	-10.7602
▁tenus	-10.7604
▁124	-10.7604
▁HA	-10.7605
TH	-10.7609
▁Cyclades	-10.7616
▁GA	-10.7619
échange	-10.7625
▁13°	-10.7634
SSAN	-10.7634
▁municipale	-10.7635
court	-10.7636
tent	-10.7639
▁76	-10.7646
▁tutelle	-10.7647
▁détaché	-10.765
initiative	-10.7655
▁recueil	-10.7656
▁destinataire	-10.766
▁électorale	-10.7676
▁vaut	-10.7679
▁7,	-10.7681
bar	-10.7685
▁équipes	-10.7686
GER	-10.7687
Provence	-10.7687
sta	-10.7692
▁revenu	-10.7692
▁maintenu	-10.7697
▁délivrés	-10.7699
▁radio	-10.7703
▁Raymond	-10.7704
organismes	-10.7704
ici	-10.7712
▁justifient	-10.7714
abilité	-10.7714
▁214	-10.7716
Clément	-10.7718
▁Gra	-10.7718
▁principe	-10.7723
▁minimal	-10.7725
▁consulté	-10.7727
▁marins	-10.7731
GU	-10.7738
▁chrétiens	-10.774
▁extraordinaire	-10.774
▁AUX	-10.7743
▁traitant	-10.7743
▁clauses	-10.7744
respect	-10.775
▁78	-10.7756
▁déclaré	-10.7757
IA	-10.7757
▁vot	-10.7761
utilité	-10.7772
▁relevé	-10.7772
▁motivation	-10.7772
▁mécaniques	-10.7777
directrice	-10.7782
▁mandats	-10.7783
▁éco	-10.7783
▁constatation	-10.7787
▁demandé	-10.7789
sante	-10.7794
isse	-10.7806
▁créances	-10.7808
▁Charlotte	-10.7809
▁Pe	-10.7814
lation	-10.7833
▁Pôle	-10.7835
▁ensuite	-10.7835
MICC	-10.7835
TEXT	-10.7835
Pauline	-10.7849
▁mille	-10.785
▁300	-10.7854
ian	-10.7854
▁essais	-10.7861
mor	-10.7861
▁Denis	-10.7863
accise	-10.7867
▁Versailles	-10.7867
▁inspecteurs	-10.7892
rat	-10.7895
quet	-10.7896
gr	-10.7896
▁magistrate	-10.7897
tor	-10.7897
lia	-10.7897
▁prennent	-10.7898
▁vaccination	-10.79
▁ad	-10.7902
▁secondaire	-10.7911
▁Ja	-10.7911
▁retraits	-10.7918
▁légal	-10.7918
▁etc	-10.792
003	-10.792
4-4	-10.7926
▁vise	-10.7927
▁passer	-10.7929
élimination	-10.793
▁Pays	-10.7931
he	-10.7936
▁parents	-10.7937
▁quelle	-10.7937
assi	-10.7939
han	-10.7942
dernier	-10.7943
▁suivie	-10.795
cy	-10.7951
mettant	-10.7954
ert	-10.7957
▁expertise	-10.7957
▁auto	-10.7961
éducateur	-10.7962
▁électeurs	-10.7963
▁Jacqueline	-10.7978
▁personnalité	-10.7979
▁Nom	-10.7989
▁Association	-10.7991
▁obtenues	-10.7993
▁fragilisée	-10.7994
▁huissière	-10.8001
▁TA	-10.8004
▁publicité	-10.8007
▁départementaux	-10.8007
▁1974	-10.8009
iane	-10.8024
▁reçoivent	-10.8026
amiante	-10.8026
▁pilote	-10.8026
▁treizième	-10.8026
▁continuité	-10.8027
AULT	-10.803
▁requérante	-10.8035
▁dommages	-10.8044
▁équipage	-10.8051
Pascal	-10.8051
▁court	-10.8055
observation	-10.8057
▁serre	-10.8059
▁interventions	-10.8059
▁habilitation	-10.806
▁classées	-10.806
▁faciliter	-10.8061
No	-10.8067
▁Spécialité	-10.8068
Marion	-10.8074
▁k	-10.8075
▁spécialisés	-10.8077
oir	-10.8084
▁simultanément	-10.8092
▁énoncée	-10.8092
lie	-10.8093
del	-10.8094
asse	-10.8097
▁312	-10.8099
cité	-10.8105
▁délivrer	-10.8107
my	-10.8109
▁conducteur	-10.8109
▁PRO	-10.8119
▁offre	-10.8119
Du	-10.8119
▁civiles	-10.812
acceptation	-10.8123
▁LISTE	-10.8123
▁jeu	-10.8123
▁personnelle	-10.8126
recteur	-10.8131
▁indication	-10.8141
▁exemple	-10.8143
chercheurs	-10.8146
▁Be	-10.8148
▁automatique	-10.8152
SSA	-10.8155
appréciation	-10.8156
▁créées	-10.8161
▁important	-10.8164
▁Franck	-10.8164
▁dialogue	-10.8165
▁déconcentrés	-10.8171
car	-10.8171
▁régimes	-10.8175
▁localisation	-10.8176
▁terminale	-10.8176
net	-10.8176
▁jeune	-10.8177
social	-10.8182
▁SP	-10.8185
classe	-10.8193
▁afférentes	-10.8194
ANI	-10.8201
▁613	-10.8213
▁JORF	-10.8214
CN	-10.8214
▁qualifications	-10.8217
▁Française	-10.8218
▁constitutive	-10.8221
▁cancer	-10.8221
▁concertation	-10.8221
AG	-10.8236
▁remet	-10.824
▁utile	-10.8242
▁logistique	-10.8242
▁horaires	-10.8246
▁direct	-10.8254
dy	-10.8256
▁intéressés	-10.8259
pré	-10.8262
▁opérateur	-10.8268
▁pu	-10.827
▁effective	-10.8271
▁spécialisées	-10.8274
▁exclu	-10.828
▁compléter	-10.8287
▁tirage	-10.8289
not	-10.8293
▁entend	-10.8293
imp	-10.8296
▁réalise	-10.8311
▁destiné	-10.8312
▁intitulé	-10.8314
ite	-10.8315
ault	-10.8317
▁posté	-10.8319
▁accueillir	-10.8321
▁trans	-10.8322
▁fournit	-10.8323
▁syndicats	-10.8323
ck	-10.8324
▁Bretagne	-10.8325
▁dernières	-10.8328
▁arme	-10.8331
Emmanuel	-10.8336
▁jugement	-10.8338
impact	-10.834
ères	-10.8342
▁issues	-10.8342
▁initial	-10.8343
land	-10.8346
▁élaboré	-10.8353
▁Soit	-10.8355
▁établir	-10.8365
▁expert	-10.8369
▁audit	-10.8369
▁arts	-10.8373
▁radiologie	-10.8374
EM	-10.8377
MER	-10.8378
▁Ex	-10.8383
▁moyennes	-10.8393
SON	-10.8406
histoire	-10.8407
▁forêt	-10.8409
illon	-10.841
/2014	-10.8412
▁83	-10.8413
▁mon	-10.8415
▁variétés	-10.8415
▁repos	-10.8415
▁secret	-10.8421
▁moteurs	-10.8422
je	-10.8424
omp	-10.8427
OUR	-10.8434
▁cliniques	-10.8434
▁Sch	-10.8437
RIN	-10.8441
informatique	-10.8441
▁lycée	-10.8443
▁émis	-10.8447
▁appartient	-10.8454
▁titularisation	-10.8454
▁donnant	-10.8454
▁déposer	-10.8459
▁prénoms	-10.8462
professionnelle	-10.8465
▁Gu	-10.8467
▁net	-10.8472
AI	-10.8475
Caroline	-10.8476
▁fédération	-10.8477
PP	-10.8481
▁approuvé	-10.8482
groupe	-10.8485
▁construire	-10.8487
▁différence	-10.8487
▁162-22-7	-10.8487
zo	-10.8491
▁conjointement	-10.8492
▁Deux	-10.8494
▁7.	-10.8498
▁PE	-10.8499
▁final	-10.8502
NET	-10.8502
▁correction	-10.8502
▁réalis	-10.8503
endant	-10.8505
Jo	-10.8508
Arnaud	-10.851
▁familiales	-10.8515
MICB	-10.8521
▁Modalités	-10.8521
▁indiquant	-10.8521
▁Titre	-10.8522
▁Nombre	-10.8522
▁adressées	-10.8526
▁sessions	-10.8529
▁vi	-10.8533
▁contribue	-10.8535
non	-10.8537
Nord	-10.8546
▁liquide	-10.8546
▁susvisés	-10.8546
éro	-10.8548
▁compétents	-10.8548
▁conservées	-10.8549
entité	-10.8551
▁libellée	-10.8553
▁particulière	-10.8553
ECO	-10.8553
▁ultérieur	-10.8555
▁déclarant	-10.8555
▁indiciaire	-10.8555
▁provenance	-10.8555
▁t	-10.8568
▁quelque	-10.8571
PO	-10.8572
▁Information	-10.8573
tel	-10.8575
▁appareils	-10.8576
illy	-10.8581
Eure	-10.8581
CD	-10.8584
cardiovasculaire	-10.859
▁BP	-10.859
▁PARIS	-10.859
ino	-10.8592
▁DA	-10.8597
ép	-10.8597
Ca	-10.8604
ative	-10.8605
pression	-10.8608
Ouest	-10.8614
▁fréquence	-10.8616
▁expérimentation	-10.8623
▁circonscription	-10.8623
▁comptabilité	-10.8623
▁incomplet	-10.8623
▁annuellement	-10.8633
▁Victor	-10.8634
▁Aucun	-10.8635
▁daté	-10.8638
ric	-10.864
▁Mor	-10.864
aff	-10.8646
▁étude	-10.8647
▁pouvoirs	-10.8647
AGE	-10.8648
-19,	-10.8651
Uni	-10.8651
▁atteinte	-10.8653
▁déposés	-10.8654
▁Crimée	-10.8657
▁consignations	-10.8657
▁déploiement	-10.8657
▁périodicité	-10.8657
▁accordé	-10.8662
41-1	-10.8666
Florian	-10.8683
▁entités	-10.8683
▁résulte	-10.8688
ty	-10.8691
▁catastrophe	-10.8692
▁raisonnable	-10.8692
▁couronne	-10.8693
Aix	-10.8693
éné	-10.8695
▁effectivement	-10.8695
▁Organisation	-10.8696
▁Pré	-10.8696
▁"4.	-10.8715
▁établies	-10.872
FE	-10.8721
201	-10.8723
Assemblée	-10.8726
enfance	-10.8727
▁appelée	-10.8727
▁consultations	-10.8727
▁électoral	-10.8728
▁rejeté	-10.8729
vet	-10.8729
▁446-1	-10.8734
▁GI	-10.8736
▁BI	-10.8741
CHER	-10.875
amende	-10.8754
▁r	-10.8754
▁piste	-10.8755
tic	-10.8756
▁effectif	-10.876
▁Limoges	-10.8761
▁lendemain	-10.8761
▁scolarité	-10.8761
▁communiquer	-10.8761
▁marque	-10.8761
▁régulièrement	-10.8763
▁constituent	-10.8767
▁réadaptation	-10.8768
/2021-10-	-10.8772
▁constitution	-10.8775
HI	-10.8778
wa	-10.8779
ième	-10.8783
▁règle	-10.8785
▁agréée	-10.8786
type	-10.8788
▁équivalente	-10.8789
▁HT	-10.8789
▁carrière	-10.879
▁échanges	-10.8794
▁anonyme	-10.8796
▁bénéficié	-10.8796
▁quantités	-10.88
▁Or	-10.8802
▁indépendante	-10.8804
▁joint	-10.8809
▁alimentaires	-10.881
TIER	-10.8813
▁éventuels	-10.8814
▁immobilier	-10.8815
can	-10.8817
nier	-10.8828
▁modes	-10.8828
▁signalisation	-10.8831
▁finale	-10.8833
▁Bel	-10.8835
▁méthotrexate	-10.8836
▁environnement	-10.8837
▁recrutés	-10.8844
▁Pascale	-10.8846
▁destinée	-10.8848
▁neuf	-10.8857
Charlotte	-10.8859
▁remplir	-10.8859
Bas	-10.8863
▁UE	-10.8865
Algérie	-10.8865
▁facultative	-10.8865
▁génétique	-10.8865
▁ASSOCIES	-10.8866
avi	-10.8868
ren	-10.8876
ANGE	-10.8877
sse	-10.8881
▁demandée	-10.8884
échéance	-10.8892
Re	-10.8894
accident	-10.8894
▁repérage	-10.89
servant	-10.8901
Tunisie	-10.8902
▁proposés	-10.8904
ations	-10.8904
vous	-10.8904
▁exercé	-10.8906
▁muni	-10.8908
isée	-10.8912
▁extérieur	-10.8918
▁fabricant	-10.8926
▁post	-10.8928
▁dispense	-10.893
assistants	-10.893
▁stratégique	-10.893
TREL	-10.8932
EF	-10.8932
▁majoration	-10.8934
▁réintégration	-10.8939
ip	-10.894
vert	-10.8953
illet	-10.8954
▁glace	-10.8956
▁composée	-10.8958
▁Michèle	-10.8959
▁susmentionnée	-10.8959
ong	-10.896
FI	-10.8961
▁Sandrine	-10.8967
électeur	-10.8969
élevage	-10.8969
▁rénovation	-10.8971
▁mal	-10.8972
info	-10.8973
▁Martine	-10.8975
▁on	-10.8982
▁fournies	-10.8993
▁dés	-10.8997
▁formalités	-10.8998
Maritimes	-10.9003
▁était	-10.9006
▁fondation	-10.902
▁Madeleine	-10.9023
▁chronique	-10.9038
indice	-10.9038
▁Annexe	-10.9039
▁prélèvements	-10.904
▁ailleurs	-10.9042
▁impositions	-10.9043
ssent	-10.9044
aille	-10.9045
▁ZIT	-10.9045
▁affranchie	-10.9053
▁RÉ	-10.9054
out	-10.9055
▁confiées	-10.9057
▁puni	-10.9059
Calais	-10.9062
STE	-10.9062
▁Ne	-10.9064
EG	-10.9074
Patrick	-10.9074
▁communique	-10.9076
Azur	-10.9078
▁mentionne	-10.9079
▁rapports	-10.9082
Sur	-10.9083
▁dédié	-10.9083
all	-10.9084
▁cité	-10.9086
î	-10.9095
née	-10.9096
▁85	-10.9097
▁secrétaires	-10.9108
FR	-10.9113
ast	-10.9118
▁Hervé	-10.9119
▁Mon	-10.9121
▁sujets	-10.9122
▁sort	-10.9129
▁extérieure	-10.9133
af	-10.9139
▁123	-10.914
oud	-10.9148
▁soixante	-10.915
▁Sexe	-10.915
▁prévenir	-10.915
Pitre	-10.9152
end	-10.9153
PH	-10.9165
forme	-10.9167
▁stages	-10.9173
▁Emilie	-10.918
▁ES	-10.918
Hugo	-10.9181
éditeur	-10.9183
▁utilisant	-10.9186
ich	-10.9188
CL	-10.9199
uff	-10.9204
▁(1).	-10.9206
▁présentent	-10.9213
adi	-10.9213
▁travers	-10.9219
lou	-10.922
équivalence	-10.922
Jérôme	-10.9221
mettent	-10.9221
infirmier	-10.9221
▁alphabétique	-10.9222
Saône	-10.9222
▁Sou	-10.9224
▁automatiquement	-10.9226
ROU	-10.923
issement	-10.9232
▁prêts	-10.9236
▁solutions	-10.9249
▁raisons	-10.9255
Alsace	-10.9258
▁Emmanuelle	-10.9264
▁vaccins	-10.9264
▁visa	-10.9264
examens	-10.9266
▁Pas	-10.9266
▁langues	-10.927
▁Cap	-10.9271
▁sportifs	-10.928
cation	-10.9284
▁fonctionnel	-10.9289
▁éducatif	-10.9291
Chloé	-10.9294
▁homologué	-10.9295
▁primaire	-10.9295
▁150	-10.9296
ège	-10.93
▁subventions	-10.9302
▁cela	-10.9306
uis	-10.9307
▁âgés	-10.9309
leur	-10.9314
ole	-10.9315
iti	-10.9316
▁estime	-10.9319
▁afférents	-10.9319
ID	-10.9325
▁suffisa	-10.9328
TON	-10.9331
▁pourcentage	-10.9331
Pyrénées	-10.9331
importation	-10.9332
Ro	-10.9335
HA	-10.9342
▁calculée	-10.9342
EI	-10.9348
▁BEN	-10.9349
▁huitième	-10.936
21-8	-10.9362
SO	-10.9365
DOU	-10.9366
ef	-10.9367
▁cavalerie	-10.9368
▁plastique	-10.9368
▁redevable	-10.9368
▁remplissent	-10.9368
▁tableaux	-10.9376
▁composantes	-10.9388
▁déclarées	-10.9394
▁conclus	-10.9399
cf	-10.9401
▁intitulée	-10.9401
▁client	-10.9405
immeuble	-10.9407
/2021-04-	-10.9408
pro	-10.9409
▁Mi	-10.9412
▁liquides	-10.9415
▁Pr	-10.9415
▁Beau	-10.9416
▁demandées	-10.942
vre	-10.9422
▁Bi	-10.9435
▁quarante	-10.9442
▁organique	-10.9442
▁mutation	-10.9442
ines	-10.9448
ost	-10.9457
▁accéder	-10.9457
pri	-10.9467
▁Go	-10.9472
▁Céline	-10.9472
ration	-10.9475
▁Laure	-10.9475
▁engins	-10.9476
▁publiés	-10.9477
▁cinquante	-10.9479
index	-10.948
indépendance	-10.948
Toutefois	-10.9482
ves	-10.9482
▁médaille	-10.9483
▁Benoît	-10.9483
▁Me	-10.9483
▁institué	-10.9487
▁HU	-10.9491
vier	-10.9492
▁Pointe	-10.9492
illage	-10.9501
▁environnemental	-10.9503
▁GAR	-10.9504
loi	-10.9505
ché	-10.9516
▁voyage	-10.9516
▁rôle	-10.9517
▁obstacle	-10.9518
▁mensuelle	-10.9518
nom	-10.9518
Catherine	-10.952
▁réintégré	-10.952
expert	-10.9522
▁partagé	-10.9522
ages	-10.9523
Mar	-10.9525
▁présents	-10.9525
▁adaptés	-10.953
▁accusé	-10.9539
▁BE	-10.9544
▁ouvertes	-10.9551
attention	-10.9554
éligibilité	-10.9554
attente	-10.9554
assiette	-10.9555
Association	-10.9558
▁investissements	-10.9561
eg	-10.9562
ek	-10.9563
istes	-10.9565
▁collèges	-10.9567
▁mathématiques	-10.9572
effectuent	-10.9574
▁Ab	-10.9579
Al	-10.9581
▁employeur	-10.9583
▁car	-10.9586
LL	-10.9587
din	-10.9588
▁label	-10.9589
ata	-10.9589
économies	-10.959
embarquement	-10.9592
▁blindée	-10.9592
▁internationaux	-10.9592
▁circulaire	-10.9595
HO	-10.9596
▁informatiques	-10.9598
▁avocat	-10.9609
▁identifiant	-10.9614
▁Accord	-10.962
ye	-10.962
▁géographiques	-10.9621
▁équipement	-10.9624
-3,	-10.9624
▁pluriannuelle	-10.9624
▁lettres	-10.9628
ZE	-10.9629
faciale	-10.9629
▁liberté	-10.9632
Cécile	-10.9634
▁bases	-10.9638
▁exécution	-10.9638
▁123-1	-10.9642
▁Agnès	-10.9645
Des	-10.9646
▁portent	-10.9648
ati	-10.965
▁81	-10.9655
AUT	-10.9664
audiovisuel	-10.9666
▁passation	-10.9668
-3.	-10.967
▁utilisée	-10.9671
instance	-10.9672
Sarah	-10.9673
ann	-10.9673
▁favoriser	-10.9678
berg	-10.9683
▁comportent	-10.9684
▁intégrée	-10.9685
▁mère	-10.9692
9°	-10.9693
▁Martin	-10.9694
▁Sainte	-10.9694
▁Services	-10.9695
las	-10.9698
alité	-10.97
▁logiciels	-10.9705
▁vaisseau	-10.9705
pour	-10.9708
▁EPS	-10.9708
▁détenteur	-10.9708
▁Lucien	-10.9709
▁déchet	-10.971
AB	-10.9711
6-3	-10.9711
▁classé	-10.9717
▁assuré	-10.9717
▁décider	-10.9719
▁ressortissants	-10.9719
ARI	-10.9722
▁AR	-10.9725
▁vis	-10.9726
UNE	-10.9727
▁notifié	-10.9728
▁Délégation	-10.9736
▁Bu	-10.974
▁prolongation	-10.9743
▁toutefois	-10.9743
▁décompte	-10.9744
▁conclue	-10.9745
▁priorité	-10.9747
2136	-10.9755
NOT	-10.9757
▁111	-10.9758
huit	-10.976
▁modifiées	-10.9761
oni	-10.9769
▁conserver	-10.9771
▁pose	-10.9773
▁experts	-10.9773
▁dimanche	-10.9782
▁réduire	-10.9782
▁Coefficient	-10.9782
écran	-10.9783
▁Li	-10.9786
amb	-10.9788
▁officier	-10.9793
▁72-3	-10.9801
▁nucléaires	-10.9802
▁grave	-10.9803
Co	-10.9804
▁échange	-10.9811
france	-10.9816
▁Peuvent	-10.9819
▁rupture	-10.982
▁profil	-10.982
commissaire	-10.9828
Céline	-10.9828
Dominique	-10.9828
▁finalité	-10.9829
TES	-10.9829
▁commercial	-10.9831
▁Bri	-10.9839
▁élu	-10.9845
▁Avant	-10.9846
▁exploitants	-10.9849
/2021-09-	-10.9852
5-3	-10.9855
▁existant	-10.9857
gues	-10.9858
▁Normandie	-10.9858
achèvement	-10.9859
▁dissolution	-10.9859
▁enjeux	-10.9859
▁interacadémique	-10.9859
COM	-10.986
▁conventionnelle	-10.9861
▁Ri	-10.9861
▁réduit	-10.9861
▁fichier	-10.9864
administratif	-10.9867
▁Cl	-10.9872
▁servir	-10.9872
▁Bertrand	-10.9873
▁air	-10.9877
▁MOR	-10.9883
▁Plan	-10.9883
▁lauréats	-10.9889
ZI	-10.9893
LOT	-10.9897
▁choisie	-10.9898
▁auditrice	-10.9898
ARTICLE	-10.9898
HOU	-10.9909
▁comportement	-10.9914
élèves	-10.9917
▁substitute	-10.9918
▁expérimental	-10.992
8-2	-10.9925
▁intervention	-10.9926
▁couverture	-10.9927
▁journée	-10.9932
▁Rhône	-10.9934
aides	-10.9934
alcool	-10.9936
▁vocation	-10.9937
▁délégués	-10.9941
▁extérieurs	-10.9944
Bernard	-10.9946
▁droite	-10.9947
▁instruments	-10.995
▁Gilbert	-10.9952
date	-10.9953
▁élabore	-10.9957
▁caisses	-10.9958
▁Hu	-10.9961
lat	-10.9963
men	-10.9964
▁amende	-10.997
▁Natura	-10.9976
▁flux	-10.9976
▁évaluer	-10.9984
ieux	-10.9987
pin	-10.9988
▁moteur	-10.9991
▁qualifié	-10.9992
ante	-10.9993
▁632	-10.9995
▁source	-10.9998
002	-10.9999
oph	-11.0001
assujetti	-11.0007
▁légales	-11.0011
▁confér	-11.0015
▁Patricia	-11.0015
▁définissant	-11.0015
Compte	-11.0016
VEN	-11.0019
▁occurrence	-11.0022
▁question	-11.0022
▁Francis	-11.0023
21-6	-11.0028
▁étranger	-11.0029
▁Virginie	-11.0045
IO	-11.0048
▁FI	-11.0048
venu	-11.0054
▁établissant	-11.0054
essais	-11.0055
inter	-11.0056
▁postal	-11.0059
▁développer	-11.0061
▁théorique	-11.0061
dic	-11.0065
territorial	-11.0065
mou	-11.0068
▁comporter	-11.0072
▁Gar	-11.0076
aut	-11.0077
▁chimie	-11.0079
lay	-11.0079
AIR	-11.008
éra	-11.0085
▁meilleurs	-11.0086
▁mutualité	-11.0094
▁sauvetage	-11.0094
▁capitalisable	-11.0094
▁charte	-11.0094
tz	-11.0094
▁Nicole	-11.0095
▁disposer	-11.0098
▁conserve	-11.0101
▁proche	-11.0102
inc	-11.0104
▁14°	-11.0104
▁décrit	-11.0107
▁1999	-11.0108
-2,	-11.0111
▁pieds	-11.0111
cale	-11.0116
isme	-11.0121
▁ROU	-11.013
▁JU	-11.013
▁So	-11.0132
▁classification	-11.0133
▁Royaume	-11.0133
▁encore	-11.0134
UM	-11.0136
dits	-11.0136
▁Français	-11.0137
ECOT	-11.0137
▁Gi	-11.014
▁exclus	-11.0143
pé	-11.0145
Aude	-11.0147
SY	-11.0148
▁ME	-11.0148
▁rétabli	-11.0151
▁composant	-11.0152
▁définir	-11.0154
yl	-11.0156
▁2016/	-11.016
▁entrera	-11.0162
uz	-11.0167
▁rapide	-11.017
▁VAL	-11.0172
LON	-11.0172
▁instituant	-11.0173
▁maternité	-11.0173
▁rectificative	-11.0173
▁tourisme	-11.0174
▁diversité	-11.0175
▁départementales	-11.0176
▁restent	-11.0181
▁accomplis	-11.0188
entend	-11.0192
euil	-11.0195
▁SUR	-11.0195
▁PR	-11.0201
▁conventionnels	-11.0201
▁culturel	-11.021
▁INDP	-11.0213
▁retirer	-11.0214
▁thermique	-11.0222
▁normal	-11.0223
▁force	-11.0223
▁mobiles	-11.0224
Allemagne	-11.0227
OY	-11.0228
NON	-11.0231
▁LO	-11.0231
Centre	-11.0239
▁annuelles	-11.0241
pp	-11.0247
établissements	-11.0248
▁CENTRE	-11.0253
▁concentration	-11.0255
▁Officier	-11.0255
ray	-11.0256
Léa	-11.027
▁poursuite	-11.0271
SN	-11.0274
▁Chef	-11.0275
▁Can	-11.0277
▁Elisabeth	-11.0281
▁humains	-11.0284
établir	-11.0292
▁climat	-11.0293
▁magasin	-11.0294
▁primes	-11.0294
▁taille	-11.0294
▁faune	-11.0294
▁facteurs	-11.0295
▁constatée	-11.0296
dan	-11.0303
▁limitation	-11.0305
▁handicapés	-11.0308
entraînement	-11.0308
Ra	-11.0309
▁Gabriel	-11.031
CK	-11.0311
Unis	-11.0316
▁précisé	-11.0317
OC	-11.0318
▁historique	-11.0324
mand	-11.0329
▁engagées	-11.0332
officine	-11.0334
▁entrant	-11.0335
▁COU	-11.0335
▁premières	-11.034
▁valablement	-11.034
gon	-11.0341
▁bloc	-11.0345
▁terminal	-11.035
Mathieu	-11.035
Christine	-11.035
obtenir	-11.035
▁horaire	-11.0353
▁supprimées	-11.0359
▁Cas	-11.0366
▁Etienne	-11.0366
▁passe	-11.037
Anthony	-11.0375
▁SELARL	-11.0375
▁chauffage	-11.0375
▁raccordement	-11.0375
▁dépendantes	-11.0375
▁anciens	-11.0377
▁cellule	-11.0386
▁extérieures	-11.0387
▁utiles	-11.039
▁déterminés	-11.0393
398	-11.0395
rm	-11.0398
ente	-11.04
enquête	-11.0405
▁registres	-11.0409
épargne	-11.0416
▁reçoit	-11.0416
▁terrorisme	-11.0416
Désigné	-11.0416
▁dévolues	-11.0417
HE	-11.0417
▁préalables	-11.0422
ize	-11.0424
▁enregistré	-11.0427
▁facture	-11.0427
▁autonome	-11.0427
Benjamin	-11.0433
▁obstétrique	-11.0438
▁jointe	-11.0442
▁2025	-11.0446
▁contacter	-11.0453
▁loyer	-11.0456
▁4111-2	-11.0457
▁constituant	-11.0457
▁foncier	-11.0457
▁fusion	-11.0457
▁intellectuelle	-11.0457
▁musique	-11.0457
▁onze	-11.0457
▁principales	-11.0458
▁violation	-11.0458
AGNE	-11.046
ow	-11.0461
usqu	-11.0466
QUET	-11.0469
▁ponctuelle	-11.0474
▁syndicale	-11.0475
▁fixes	-11.0475
▁tarifaire	-11.0484
▁conventionnel	-11.0486
▁Provence	-11.0486
lement	-11.0495
▁management	-11.0498
vin	-11.0504
ives	-11.0514
document	-11.0516
TIN	-11.0518
▁pharmaciens	-11.0518
▁technologiques	-11.0523
▁carbone	-11.0523
ns	-11.0526
▁Na	-11.0526
étudiant	-11.0531
▁institutions	-11.0531
▁entendu	-11.0534
▁CHAR	-11.0536
LIER	-11.0537
▁foncière	-11.0539
▁juridictions	-11.0539
▁Vu	-11.0541
EV	-11.0554
▁Romain	-11.0555
▁appui	-11.0558
infraction	-11.0558
André	-11.0559
Simon	-11.0559
adoption	-11.056
Lucie	-11.056
mel	-11.0561
2130	-11.0563
Ana	-11.0566
▁ménages	-11.0574
▁rendue	-11.0577
▁250	-11.0579
▁satisfaisant	-11.0581
▁traçabilité	-11.0581
▁familiale	-11.0581
▁al	-11.0586
▁Rhin	-11.059
0-2	-11.0591
extérieur	-11.06
Gironde	-11.0601
Juliette	-11.0602
▁communiqué	-11.0607
ep	-11.0609
▁minimales	-11.0611
▁existe	-11.0613
ade	-11.0619
encontre	-11.0622
Hérault	-11.0622
▁radiée	-11.0625
▁conservent	-11.0626
▁recrutements	-11.0628
estimation	-11.0631
▁SO	-11.0631
▁adresser	-11.0632
viennent	-11.0636
▁for	-11.0638
ort	-11.0642
Matthieu	-11.0643
sociaux	-11.0643
associations	-11.0644
▁envoi	-11.065
Marine	-11.0652
▁indiquées	-11.066
Aquitaine	-11.0664
Mohamed	-11.0664
▁vitesse	-11.0664
▁Son	-11.0666
VII	-11.0667
▁(2	-11.0671
Ar	-11.0674
Laura	-11.0675
▁potentiel	-11.0675
apport	-11.0678
▁BER	-11.068
ARR	-11.068
ANCE	-11.0681
ETTE	-11.0684
▁Metz	-11.0687
▁Pauline	-11.0695
individuellement	-11.0699
CPE	-11.0702
▁nommées	-11.0702
13-1	-11.0703
▁unitaire	-11.0704
▁hebdomadaire	-11.0706
▁trafic	-11.0706
▁vacance	-11.0706
▁rappel	-11.0717
▁majoré	-11.0717
/2021-12-3	-11.0719
VIII	-11.0723
▁1975	-11.0725
▁accident	-11.0727
Isabelle	-11.0729
ban	-11.0731
▁Sylvain	-11.0735
▁95	-11.0736
▁San	-11.0738
Alain	-11.0739
▁Maxime	-11.074
Académie	-11.0748
insaisissabilité	-11.0748
DR	-11.0751
▁consulaires	-11.0751
LY	-11.0754
▁Ber	-11.0754
▁déposée	-11.0755
▁chimiques	-11.0759
CIP	-11.0763
▁consommateurs	-11.0766
enveloppe	-11.0771
▁di	-11.0774
▁européennes	-11.0777
▁COR	-11.0781
rée	-11.0786
adolescent	-11.0789
équilibre	-11.0791
▁savoirs	-11.0801
▁Patrice	-11.0804
▁dispensés	-11.0809
ug	-11.0814
durable	-11.0814
▁tôt	-11.0816
ros	-11.0821
▁Alpes	-11.0825
nay	-11.0826
▁commandes	-11.083
illa	-11.0831
veloppement	-11.0832
▁prévoyance	-11.0833
▁précoce	-11.0833
▁incluant	-11.0833
▁conduisa	-11.0833
TTE	-11.0836
sous	-11.0838
Clara	-11.0839
▁indépendant	-11.084
▁Liste	-11.0841
▁Port	-11.0846
▁laboratoires	-11.0847
CHA	-11.0848
▁prévisionnelle	-11.0849
▁comprendre	-11.0851
▁Lucie	-11.0853
for	-11.0854
ras	-11.0855
ION	-11.0862
mp	-11.0868
Lieu	-11.087
▁Groupe	-11.0873
▁tension	-11.0876
▁thon	-11.0876
Thibault	-11.0877
AZ	-11.0878
▁échéance	-11.0886
▁prescrit	-11.0887
▁Béatrice	-11.089
▁réparti	-11.0893
▁référentiels	-11.0894
hal	-11.0898
TRER	-11.0904
▁assurent	-11.0908
▁68	-11.0911
▁Sarah	-11.0913
ED	-11.0916
▁mail	-11.0916
▁consultatif	-11.0919
▁pollution	-11.0919
▁Ag	-11.092
21-7	-11.0925
ech	-11.0932
ath	-11.0937
▁engagement	-11.0941
illi	-11.0942
▁MO	-11.0943
▁Mathieu	-11.0945
Bruno	-11.0946
Renseignement	-11.0946
bre	-11.0953
▁issu	-11.0954
COURT	-11.0954
▁préparatoires	-11.0959
▁Justice	-11.0962
▁dissoute	-11.0962
▁remplissant	-11.0962
armateur	-11.0962
▁réunit	-11.0964
aval	-11.0964
BR	-11.0966
agri	-11.097
▁Bour	-11.0974
▁compagnie	-11.0981
▁conséquence	-11.0981
▁Suzanne	-11.0984
Manon	-11.0989
ber	-11.0989
▁6152	-11.0992
▁Che	-11.0993
▁majeure	-11.1
▁propagation	-11.1005
▁concessionnaire	-11.1006
▁gros	-11.1006
▁participent	-11.1011
oire	-11.1011
ENNE	-11.1011
▁exploitant	-11.1014
ILLON	-11.1017
bel	-11.1019
adhésion	-11.1022
41-8	-11.1033
▁Simon	-11.1034
équipements	-11.1034
▁Direction	-11.1034
▁162-17	-11.1035
inaptitude	-11.1036
▁passé	-11.1041
▁réduite	-11.1046
▁intermédiaire	-11.1048
▁OR	-11.1048
escadron	-11.1049
▁civique	-11.1049
▁remplit	-11.1051
▁MI	-11.1053
Mont	-11.1058
▁VER	-11.1065
.5.	-11.1066
çon	-11.1066
▁signal	-11.107
▁supports	-11.1087
▁électorales	-11.1092
nard	-11.1092
Yvelines	-11.1092
acheminement	-11.1092
▁contingent	-11.1092
▁mémoire	-11.1092
one	-11.1094
▁repris	-11.1097
mandant	-11.1098
GEN	-11.1098
ATI	-11.1109
▁ports	-11.111
▁régisseur	-11.111
▁distributeur	-11.1113
▁semaine	-11.1113
▁insuffisante	-11.1115
Lors	-11.1116
off	-11.1118
Adrien	-11.1121
Alexis	-11.1122
LOU	-11.1125
▁cinématographi	-11.1129
agne	-11.1131
▁gratuit	-11.1136
Germain	-11.1136
▁barème	-11.1136
▁efficace	-11.1136
▁présentés	-11.114
▁train	-11.1141
tru	-11.1143
intéressée	-11.1152
▁Sciences	-11.1152
eb	-11.1152
▁BU	-11.1157
▁représentative	-11.1157
ONNE	-11.1158
▁Juliette	-11.116
▁Thérèse	-11.1161
appuie	-11.1162
▁limité	-11.1162
▁dédiée	-11.117
▁détenus	-11.1172
▁fournisseurs	-11.1174
▁gouvernance	-11.118
gne	-11.1181
Isère	-11.1182
rait	-11.1182
▁pluriannuel	-11.1187
Toute	-11.1187
étend	-11.1188
▁FR	-11.1194
ko	-11.1195
▁dépense	-11.1202
VO	-11.1205
tour	-11.1209
▁culturelle	-11.1212
▁travailleur	-11.1213
ouche	-11.1214
THE	-11.1214
▁FOR	-11.1215
▁fournitures	-11.1216
▁sièges	-11.1218
▁Brigitte	-11.1218
▁voir	-11.1222
œ	-11.1225
aquaculture	-11.1225
▁contient	-11.1225
▁modernisation	-11.1225
▁fiscalité	-11.1225
▁réputée	-11.1226
▁dépassement	-11.1228
▁collectives	-11.1243
▁faute	-11.1244
rac	-11.1246
Lucas	-11.1248
omme	-11.1255
Victor	-11.1256
atteindre	-11.1256
▁loisirs	-11.1258
▁correspondante	-11.1266
▁lois	-11.1268
INCONNU	-11.1269
▁Ho	-11.127
▁couverts	-11.1273
▁prononce	-11.1273
gh	-11.1276
▁assistant	-11.1278
▁indu	-11.1279
PS	-11.1279
▁échelons	-11.128
▁Rou	-11.1284
nat	-11.1292
▁instituts	-11.1297
EUX	-11.1299
roy	-11.1299
ski	-11.13
▁"5.	-11.13
▁instructions	-11.1301
▁opératoire	-11.1302
▁certaine	-11.1309
▁Champ	-11.131
▁aptitude	-11.1313
▁CONCOURS	-11.1314
▁multi	-11.1314
dire	-11.1314
▁photo	-11.1315
mann	-11.1323
▁demeurent	-11.1323
▁vérifié	-11.1329
▁soi	-11.133
▁réutilisation	-11.1335
Nota	-11.1341
the	-11.1341
▁usages	-11.1342
atteinte	-11.1346
Rapha	-11.1346
cal	-11.1355
▁Pé	-11.1355
▁Clément	-11.1358
▁diagnostique	-11.1359
▁préparant	-11.1359
cour	-11.1359
▁bulletins	-11.1363
-6,	-11.1367
31-1	-11.1367
her	-11.1369
UG	-11.1374
uses	-11.1384
TÉ	-11.1385
▁315	-11.1385
lage	-11.1386
Eva	-11.1392
Franck	-11.1392
QUI	-11.1396
▁prestataires	-11.1397
atrice	-11.14
▁Delphine	-11.1402
importance	-11.1404
▁66	-11.1404
▁captures	-11.1404
▁infraction	-11.1405
▁bio	-11.1407
▁connexion	-11.1408
▁saisine	-11.1408
▁ouvrir	-11.1408
lis	-11.1411
▁Bon	-11.1412
▁standards	-11.1413
▁déclarée	-11.1415
▁financements	-11.1415
▁He	-11.1419
▁formé	-11.1425
▁constitutionnel	-11.1431
Louise	-11.1432
▁temporairement	-11.1433
LER	-11.1433
ache	-11.1433
▁événements	-11.1433
▁danger	-11.1437
▁présentées	-11.1438
PRM	-11.1439
NES	-11.1446
éclairage	-11.1449
▁Limite	-11.1449
ANC	-11.1451
ica	-11.1454
▁routiers	-11.1456
homme	-11.1463
▁fixer	-11.1466
▁Th	-11.1482
effectif	-11.1484
service	-11.1484
coefficient	-11.1484
▁va	-11.1487
▁gauche	-11.1494
▁prescriv	-11.1494
Indre	-11.1495
ALLE	-11.1502
▁thèmes	-11.1505
▁précédents	-11.1506
oral	-11.1507
▁versements	-11.1509
KER	-11.1511
▁Te	-11.1513
▁Emile	-11.1516
▁DI	-11.1522
▁transmissions	-11.1525
▁633	-11.1527
▁dirigeant	-11.1528
arrivée	-11.153
oli	-11.1532
échelle	-11.1533
▁coefficients	-11.1535
entreprises	-11.1537
▁déontologie	-11.154
▁nécessitant	-11.154
▁assisté	-11.154
▁kg	-11.1542
▁DANS	-11.1554
hy	-11.1558
▁instance	-11.1558
MENT	-11.156
▁métier	-11.1567
▁attribuées	-11.1567
RIS	-11.1567
▁bassin	-11.1568
▁comp	-11.158
ales	-11.1582
eille	-11.1583
RH	-11.1586
▁vidéo	-11.1586
pon	-11.1589
▁JO	-11.1594
▁67	-11.1596
fér	-11.16
▁MOU	-11.1607
▁offres	-11.1608
▁conjointe	-11.1608
nal	-11.1611
▁retiré	-11.1611
bert	-11.1612
4-6	-11.1613
▁alimentaire	-11.1613
▁Marine	-11.1617
▁foyer	-11.1619
▁120	-11.1621
▁quotidienne	-11.1621
CAP	-11.1622
Alice	-11.1624
émetteur	-11.1625
▁2.2.	-11.1626
▁formateurs	-11.1631
▁gériatrie	-11.1632
▁sauvegarde	-11.1632
▁2020-2021	-11.1632
▁auxiliaires	-11.1633
▁exemplaire	-11.1644
DER	-11.1644
5-4	-11.1644
▁GO	-11.1645
▁volet	-11.1649
▁BON	-11.165
▁proposées	-11.165
▁âgé	-11.1653
GI	-11.1653
▁technologie	-11.166
▁supérieures	-11.1661
▁fraudes	-11.1666
tou	-11.167
Var	-11.1672
300	-11.1673
▁77	-11.1674
▁Contrôle	-11.1678
▁capitaux	-11.1678
▁précédemment	-11.1678
▁grille	-11.1678
inscrivent	-11.1678
▁XI	-11.1679
▁rentrée	-11.168
igue	-11.1686
▁terres	-11.1688
naire	-11.1688
▁Hubert	-11.1689
▁Bois	-11.1692
▁documentaire	-11.17
▁dose	-11.1701
ord	-11.1704
▁consultables	-11.1705
▁musées	-11.1705
NY	-11.1707
lant	-11.1708
▁15°	-11.1709
app	-11.171
▁valide	-11.1717
IEN	-11.1721
▁Léon	-11.1722
▁rectification	-11.1725
▁indexation	-11.1725
▁banque	-11.1725
▁Légion	-11.1726
▁étapes	-11.1728
▁créer	-11.1732
▁Alice	-11.1733
FORT	-11.1735
▁221-14	-11.1739
ç	-11.1744
▁obtenue	-11.1744
composantes	-11.1745
▁1962	-11.1748
cyc	-11.175
ans	-11.1756
cent	-11.1758
▁dû	-11.1762
▁plateformes	-11.1762
Bou	-11.1763
▁Gui	-11.1768
▁déclassement	-11.1771
▁forestière	-11.1771
▁CNIL	-11.1771
▁respectant	-11.1772
erv	-11.1779
SSI	-11.178
▁instituée	-11.1782
▁urgences	-11.1784
ist	-11.1786
▁accordées	-11.1788
▁détenues	-11.1791
èle	-11.1793
venir	-11.1794
uch	-11.1796
▁BR	-11.1802
▁00	-11.1806
recherche	-11.1813
Organisation	-11.1813
Emma	-11.1818
▁côté	-11.1818
▁déléguer	-11.1818
▁flore	-11.1818
▁téléversement	-11.1818
▁futur	-11.1818
▁réglementés	-11.1819
▁2-2	-11.1825
PIN	-11.1825
endre	-11.1826
▁suspendue	-11.1827
▁subordonnée	-11.183
tur	-11.1831
▁or	-11.1832
▁contribuer	-11.1841
21-9	-11.1842
▁allouée	-11.1842
▁consultés	-11.1844
▁périodique	-11.1845
▁correspondantes	-11.1848
▁533	-11.185
▁faible	-11.1851
cur	-11.1852
ida	-11.1855
SAINT	-11.1857
▁finalités	-11.186
Benoît	-11.1861
TU	-11.1861
lla	-11.1865
extradition	-11.1866
▁différend	-11.1866
enfants	-11.1866
gouvernementale	-11.1877
▁apporter	-11.1882
▁adopté	-11.1883
▁2021-8	-11.1884
vironnementales	-11.1887
ira	-11.1888
-4,	-11.1888
▁sauvages	-11.189
▁Edouard	-11.1892
gie	-11.1895
▁entrée	-11.1896
▁signataire	-11.1897
▁TABLEAU	-11.1898
▁fil	-11.1899
▁plafonds	-11.19
▁grands	-11.1903
▁GUI	-11.1904
▁prescripteur	-11.1913
▁préventive	-11.1913
▁Directeur	-11.1913
▁dépasse	-11.1916
tions	-11.1916
ind	-11.192
▁retenus	-11.1922
▁antérieurement	-11.1922
RIER	-11.1922
▁souhaitent	-11.1924
2121	-11.1931
gede	-11.1935
▁crises	-11.1941
▁paysage	-11.1948
▁vasculaire	-11.1949
▁fonctionnelles	-11.1952
PR	-11.1955
écart	-11.1959
▁fermeture	-11.1961
▁tuteur	-11.1961
MENH	-11.1961
▁Nature	-11.1961
▁sé	-11.1967
CON	-11.1968
▁SU	-11.198
IERE	-11.1982
▁arrêt	-11.1988
▁vaccinal	-11.1988
ARS	-11.1991
nière	-11.1992
INDI	-11.1997
▁Cou	-11.2
▁convoqués	-11.2001
▁équivalentes	-11.2001
▁régulière	-11.2005
▁233	-11.2007
▁associative	-11.2008
▁permanence	-11.2008
Mo	-11.2009
excédent	-11.201
4-9	-11.2012
▁Mes	-11.2013
▁contrepartie	-11.2014
▁industriel	-11.2015
ral	-11.2016
▁enregistrement	-11.2016
▁FL	-11.2017
éré	-11.2019
logi	-11.2021
INI	-11.2024
osse	-11.2027
départementale	-11.2037
RAN	-11.2038
rot	-11.204
▁compatible	-11.2042
▁312-1	-11.2042
▁communiquées	-11.2051
Bouches	-11.2055
alerte	-11.2055
▁combattants	-11.2056
▁souveraineté	-11.2056
Essonne	-11.2056
▁infirmière	-11.2057
▁affectées	-11.2059
YS	-11.2059
▁devenue	-11.206
Sa	-11.2061
▁réservé	-11.2061
SSAP	-11.2064
▁exprimés	-11.2067
▁Meurthe	-11.2069
9-2	-11.2074
▁antérieur	-11.2075
▁Bre	-11.2075
▁effectue	-11.2083
▁significative	-11.209
AVE	-11.2091
▁trouve	-11.2096
▁Mathilde	-11.2101
▁Chantal	-11.2102
IP	-11.2103
▁photocopie	-11.2105
▁téléprocédure	-11.2105
IGNY	-11.2107
▁réemploi	-11.211
▁Bouches	-11.211
isson	-11.2114
cou	-11.2122
▁commerces	-11.2127
hou	-11.2127
uel	-11.2129
▁Benjamin	-11.2133
ommé	-11.2134
▁éventuelle	-11.2138
▁mouvement	-11.2139
▁qualifiés	-11.2145
rec	-11.2147
Loir	-11.2147
▁doté	-11.215
Savoie	-11.2153
vingt	-11.2153
▁pertinence	-11.2153
▁Roland	-11.2154
▁confirmation	-11.2154
dj	-11.2155
▁objets	-11.216
▁Fernand	-11.2164
▁invités	-11.2171
▁familial	-11.2173
▁rapportant	-11.2176
zy	-11.2176
nie	-11.2178
▁salle	-11.2181
▁poly	-11.2194
221-15	-11.2195
▁The	-11.2195
ya	-11.2197
▁délivrées	-11.2197
éna	-11.22
▁National	-11.22
▁NF	-11.2202
▁exclusif	-11.2203
▁221-16	-11.2207
part	-11.2209
FP	-11.221
▁carrières	-11.2212
▁préfets	-11.2218
▁Ti	-11.222
▁Légi	-11.2225
▁art	-11.2234
▁BEAU	-11.2235
▁infirmier	-11.2238
▁mobile	-11.2238
ria	-11.2239
▁fichiers	-11.2245
rel	-11.2248
emplacement	-11.2249
affichage	-11.2251
▁procuration	-11.2251
Didier	-11.2252
audition	-11.2253
▁prononcer	-11.2258
▁organiser	-11.2268
llo	-11.2269
▁procédés	-11.2269
▁1997	-11.2271
Théo	-11.2276
UF	-11.2276
▁décide	-11.2283
xi	-11.2286
ADE	-11.2289
▁habitants	-11.2291
én	-11.2293
dou	-11.2293
▁Auvergne	-11.2294
soit	-11.2295
▁femme	-11.2299
▁délibérant	-11.23
HAUT	-11.2301
▁capable	-11.2303
temps	-11.2303
▁suffisante	-11.2306
▁constatant	-11.2306
▁Agence	-11.2308
MIN	-11.2308
habitats	-11.2314
ena	-11.232
▁élevée	-11.2334
ALL	-11.2336
▁thème	-11.2338
▁petite	-11.2338
▁Mal	-11.234
imposition	-11.2349
▁confiance	-11.235
▁biogaz	-11.235
▁représenter	-11.2352
▁325	-11.2361
▁évolutions	-11.2362
Jeanne	-11.2363
▁min	-11.2363
▁accompli	-11.2368
▁détaillé	-11.2372
Car	-11.2372
▁possibilités	-11.2373
▁Huissier	-11.2374
▁Gestion	-11.2376
▁Audrey	-11.2385
▁vérifie	-11.239
▁SERVICE	-11.2391
rh	-11.2392
praticien	-11.2393
ches	-11.2393
▁2020-169	-11.2395
INTE	-11.2396
interprétation	-11.24
▁HOSPITALIER	-11.24
▁sexe	-11.24
faire	-11.24
géographie	-11.2401
image	-11.2401
%	-11.2403
quatre	-11.2403
▁plantes	-11.2403
▁CAP	-11.2403
3-9	-11.2406
▁Var	-11.2409
▁anticipée	-11.2409
▁exprimé	-11.2409
Art	-11.2417
▁possibles	-11.2424
▁destinataires	-11.2428
▁adressés	-11.2436
▁aéronef	-11.2437
▁subir	-11.2444
ôpitaux	-11.2447
▁Système	-11.245
▁indéterminée	-11.245
▁volonté	-11.245
▁légaux	-11.245
▁transitoire	-11.245
▁Civil	-11.245
▁cautionnement	-11.245
▁rempli	-11.2451
/2021-06-	-11.2452
inscrit	-11.2453
▁partenaire	-11.2458
▁SAP	-11.2459
▁fréquences	-11.2462
fort	-11.2463
fond	-11.2464
BOU	-11.2466
▁appellation	-11.2467
▁HO	-11.2473
FA	-11.2475
▁constat	-11.2483
gin	-11.2484
▁considérés	-11.2484
▁stock	-11.2485
▁quartier	-11.249
▁aurait	-11.2496
▁constatés	-11.2496
▁circuit	-11.25
▁recyclage	-11.25
▁portuaire	-11.25
▁Certificat	-11.25
▁impérativement	-11.25
▁Etablissement	-11.2502
Henri	-11.2505
▁Alexandra	-11.2508
çant	-11.2509
▁Mu	-11.2509
RN	-11.2519
▁échec	-11.252
elli	-11.2521
▁composante	-11.2522
▁saisir	-11.2522
▁socio	-11.2522
▁223	-11.2524
▁Office	-11.2524
▁réponses	-11.2531
▁coordonne	-11.2532
▁exploitations	-11.2532
▁Am	-11.2533
▁autonomes	-11.2536
▁Ju	-11.2542
appareil	-11.2543
▁requêtes	-11.2543
▁promus	-11.2544
▁responsabilités	-11.2549
BDS	-11.255
▁OFFICE	-11.255
▁régulier	-11.255
▁touristique	-11.2551
▁révisé	-11.2551
▁hoc	-11.2553
▁Adresse	-11.2554
Conseil	-11.2556
▁stationnement	-11.2558
ita	-11.2558
▁Terres	-11.256
arthrite	-11.2566
009	-11.2569
▁délivre	-11.2572
ori	-11.2575
▁gel	-11.2577
12-4	-11.2579
▁tonnes	-11.258
nce	-11.2581
▁conduites	-11.2582
▁réaction	-11.2587
▁exceptionnelles	-11.2592
gar	-11.2593
nalisation	-11.2597
▁rédacteur	-11.2601
▁spéciaux	-11.2601
Margaux	-11.2601
▁micro	-11.2601
Nathalie	-11.2607
▁parc	-11.2609
itu	-11.2609
▁dotations	-11.2612
▁majeur	-11.2613
▁retenu	-11.2614
GES	-11.2615
FPE	-11.262
▁qualifiée	-11.2621
CY	-11.2623
▁Marguerite	-11.2624
NP	-11.2624
▁69	-11.2626
▁conclure	-11.263
▁GRAND	-11.263
▁réel	-11.2635
▁imparti	-11.2639
opérations	-11.264
▁choisis	-11.2643
▁énergétiques	-11.2643
▁préfète	-11.2648
▁consignes	-11.265
▁Puy	-11.2651
▁dangereuses	-11.2652
▁répondent	-11.2657
ng	-11.2657
œuvres	-11.2663
▁Inter	-11.2664
▁SCH	-11.2665
▁462	-11.2668
cq	-11.267
▁Fabrice	-11.2672
ASSE	-11.2675
▁214-1	-11.2678
rine	-11.2686
PORT	-11.2686
▁regroup	-11.2688
▁évalué	-11.2689
ges	-11.2693
▁diplomatique	-11.2695
▁créance	-11.2695
▁mécanique	-11.2695
ate	-11.27
▁transporteur	-11.2703
sol	-11.2703
▁suffisant	-11.2703
▁accrédité	-11.2703
▁récapitulatif	-11.2704
▁sécurisation	-11.2704
▁évaluateurs	-11.2704
▁ministérielle	-11.2706
▁fiscal	-11.2706
▁avenants	-11.2707
gens	-11.2708
ISE	-11.2709
conformité	-11.2712
▁Christiane	-11.2716
.2.1.	-11.2717
DRH	-11.2717
▁analyses	-11.2723
ola	-11.2726
▁intérêt	-11.2727
otre	-11.2728
andra	-11.2728
BER	-11.2728
▁1944	-11.2729
OP	-11.2731
El	-11.2731
▁1961	-11.2732
▁intermédiaires	-11.2735
▁JA	-11.2737
GN	-11.2738
emp	-11.2738
▁cdg	-11.2746
▁péri	-11.2748
▁...	-11.2749
▁habilitées	-11.2749
emprunt	-11.275
▁331	-11.2751
oncernant	-11.2752
nutrition	-11.2752
▁contamination	-11.2755
▁dépourvu	-11.2755
▁indemnitaire	-11.2755
▁monnaie	-11.2755
▁transversale	-11.2755
nage	-11.2755
enc	-11.276
▁longueur	-11.2762
▁repose	-11.2763
▁couple	-11.2766
▁atteindre	-11.277
▁certifié	-11.2771
cro	-11.2773
rist	-11.2779
vel	-11.2782
▁1945	-11.2782
▁Fer	-11.2782
▁Man	-11.2783
dier	-11.2785
▁injection	-11.2787
ECH	-11.2791
▁apporte	-11.2792
rain	-11.2794
▁améliorer	-11.2795
disant	-11.2796
éno	-11.28
▁Code	-11.2805
▁(4)	-11.2806
plénipotentiaire	-11.2807
▁artillerie	-11.2807
▁dixième	-11.2808
▁dette	-11.2811
▁vacants	-11.2811
-4.	-11.2813
▁coopératives	-11.2814
code	-11.2814
▁Ham	-11.2816
Amélie	-11.2816
identifier	-11.2816
utiliser	-11.2816
Emilie	-11.2816
▁retenues	-11.283
log	-11.2834
▁Nationale	-11.2834
Ha	-11.2837
▁AV	-11.285
▁élément	-11.2851
ii	-11.2851
▁Numéro	-11.2859
▁jardin	-11.2859
▁voyageurs	-11.286
▁Santé	-11.286
▁83-63	-11.2861
uit	-11.2862
sch	-11.2862
▁attribués	-11.2863
ÉE	-11.2866
▁appliquées	-11.2868
▁mobilités	-11.287
mod	-11.2875
▁concernent	-11.2875
ara	-11.2876
▁DÉ	-11.2877
communications	-11.288
REK	-11.288
HU	-11.2893
▁proposée	-11.2896
ié	-11.2898
▁précisés	-11.2899
▁tranche	-11.2905
CU	-11.2906
▁appliquer	-11.2908
ROY	-11.2911
▁contrôler	-11.2911
▁nominative	-11.2911
CHI	-11.2913
▁BRI	-11.2913
▁absolue	-11.2914
▁AP	-11.2914
▁porteur	-11.2915
12-7	-11.2917
▁quart	-11.2921
ève	-11.2922
▁Van	-11.2925
▁évolution	-11.2932
▁1973	-11.2937
iser	-11.2937
▁instituées	-11.2941
raient	-11.2942
▁col	-11.2949
avantage	-11.2949
▁Sol	-11.2952
▁déposées	-11.2958
▁clause	-11.2958
-7,	-11.2958
▁ultérieure	-11.296
ERT	-11.2961
▁signes	-11.2963
odontologie	-11.2964
▁Recueil	-11.2964
▁constructeur	-11.2964
▁souscrit	-11.2964
▁tarification	-11.2964
▁ascenseurs	-11.2965
▁artistiques	-11.2967
▁bande	-11.2968
▁renouvelée	-11.2969
▁remplace	-11.2969
▁préavis	-11.2969
IGN	-11.2973
▁Bra	-11.2973
▁to	-11.2975
immobilier	-11.2976
praticiens	-11.2987
pér	-11.2991
▁1943	-11.2993
▁vin	-11.2993
▁Renée	-11.2993
idi	-11.3003
▁avancement	-11.3007
▁syndicat	-11.3012
▁bulletin	-11.3013
isolement	-11.3017
Agathe	-11.3017
▁australe	-11.3017
▁TITRE	-11.3017
▁chaude	-11.3017
TY	-11.3017
ROT	-11.303
Yann	-11.3031
Gilles	-11.3032
nic	-11.3032
▁541-1	-11.3033
▁salariale	-11.3034
▁approprié	-11.3036
▁1998	-11.3038
▁Leur	-11.3041
▁opérationnelles	-11.3051
31-5	-11.3057
resse	-11.3062
▁Moselle	-11.3062
▁212-1	-11.3064
▁sûretés	-11.3067
▁changements	-11.3067
▁parts	-11.3067
▁antarctiques	-11.307
▁construit	-11.307
▁frégate	-11.307
▁renseigné	-11.307
▁constatées	-11.3071
▁Corinne	-11.3076
▁TE	-11.3084
aine	-11.3084
ham	-11.3087
▁COMP	-11.3088
▁couvert	-11.3088
▁Christelle	-11.309
▁main	-11.3103
▁Manuel	-11.3103
▁immeuble	-11.3113
▁créancier	-11.3119
▁bancaire	-11.3119
▁blanchiment	-11.3123
▁faculté	-11.3123
audience	-11.3124
▁couvrir	-11.3125
▁bi	-11.3125
▁journalier	-11.3126
élé	-11.3132
GO	-11.3133
▁perçue	-11.3135
adjoint	-11.3136
▁substitut	-11.3144
▁Italie	-11.3147
▁envisagé	-11.3148
▁Allemagne	-11.3159
▁manquements	-11.3159
▁cycles	-11.3162
▁absence	-11.3166
ital	-11.3168
▁justification	-11.3174
agglomération	-11.3177
assainissement	-11.3177
▁bibliothèques	-11.3177
▁prévoient	-11.3177
▁radioprotection	-11.3177
▁transparence	-11.3177
▁manœuvre	-11.3177
▁académiques	-11.3178
UNSA	-11.3179
▁sonore	-11.318
utilisateur	-11.3192
Clémence	-11.3192
Damien	-11.3192
▁pression	-11.3193
▁appliquée	-11.3194
gère	-11.3198
▁annexées	-11.3201
▁combustibles	-11.3207
▁attestations	-11.3208
▁Marion	-11.3209
▁333	-11.3212
500	-11.3212
▁pli	-11.3213
▁européens	-11.3216
▁exploités	-11.3218
▁dit	-11.3219
▁professeure	-11.3219
▁faites	-11.3223
▁Toulon	-11.3231
Laboratoire	-11.3231
▁débarquement	-11.3231
▁milliard	-11.3231
▁superficie	-11.3231
▁master	-11.3231
3.2	-11.3232
exerce	-11.3233
▁adolescents	-11.3233
▁évaluées	-11.3239
▁311-1	-11.3239
oyer	-11.3241
▁Et	-11.3242
▁dispensée	-11.3244
▁constate	-11.3244
▁pénales	-11.3245
Audrey	-11.3247
▁notifier	-11.3248
axe	-11.3248
▁313-1	-11.3256
▁énergies	-11.3258
▁Richard	-11.3261
ING	-11.3263
▁évalue	-11.3266
▁HER	-11.3267
▁rayonnements	-11.3267
▁machines	-11.3269
▁importante	-11.3272
▁budgétaires	-11.3273
VES	-11.3275
▁accompagnement	-11.3285
▁modulation	-11.3286
▁métallurgie	-11.3286
▁Protocole	-11.3286
édition	-11.3286
▁pénalités	-11.3286
▁consulaire	-11.3287
▁temporaires	-11.3288
▁communs	-11.3289
▁FRAN	-11.3291
hen	-11.3293
▁librement	-11.3297
AMI	-11.3298
ell	-11.3298
ries	-11.3299
▁proven	-11.3303
Axel	-11.3303
culture	-11.3303
comptable	-11.3304
Sylvain	-11.3304
▁adaptation	-11.331
ick	-11.3315
BEL	-11.3323
▁existants	-11.3332
▁exercices	-11.3335
extinction	-11.334
incapacité	-11.334
▁réservation	-11.334
▁préparé	-11.334
Amandine	-11.334
IRA	-11.3343
▁TVA	-11.3344
Valentin	-11.3345
▁atteste	-11.3346
▁avantages	-11.3347
mbert	-11.3348
▁ventes	-11.3354
▁Gr	-11.3356
trait	-11.3359
fect	-11.3359
OV	-11.336
▁fluvi	-11.3366
auto	-11.3367
▁Sé	-11.3367
▁meilleure	-11.3368
▁Gironde	-11.3369
mus	-11.3379
ima	-11.3383
▁champs	-11.3385
nou	-11.3387
▁Su	-11.3392
▁partenariat	-11.3394
▁capture	-11.3394
▁descriptif	-11.3395
▁zéro	-11.3395
▁341	-11.3398
▁correspondants	-11.3398
▁choisir	-11.3399
▁parentale	-11.3399
▁chaleur	-11.3401
ANO	-11.3405
▁Karine	-11.3406
▁monde	-11.3408
22-4	-11.3408
▁collégiale	-11.3408
expédition	-11.3409
▁Rapha	-11.341
▁Simone	-11.3411
8700	-11.3413
hôpital	-11.3414
▁58	-11.3415
▁2.3.	-11.3436
▁Ko	-11.3436
▁similaires	-11.3444
▁Thi	-11.3444
▁attestée	-11.3448
▁RAEP	-11.3449
▁Aurélie	-11.345
▁intensive	-11.345
▁locataire	-11.345
▁manutention	-11.345
▁positif	-11.345
▁pénalité	-11.3451
▁digue	-11.3456
▁421-1	-11.346
ARN	-11.3464
▁SOU	-11.3465
▁bureaux	-11.3467
▁Manche	-11.3468
▁impact	-11.3471
onnet	-11.3471
▁contenue	-11.3481
▁NATIONALE	-11.3485
▁collections	-11.3486
▁approuvée	-11.3487
jou	-11.3488
rier	-11.3489
▁demandeurs	-11.3492
▁2023.	-11.3496
AYE	-11.3502
▁développé	-11.3506
▁ophtalmologie	-11.3506
exportation	-11.3507
ili	-11.3507
▁autant	-11.3508
▁équivalences	-11.3509
UP	-11.3512
▁Her	-11.3517
squels	-11.3518
▁Belle	-11.3523
▁parvenir	-11.3525
▁Adrien	-11.3526
chimie	-11.3527
▁éducative	-11.3528
ésignation	-11.3536
▁environ	-11.3538
▁For	-11.3539
▁privée	-11.354
▁basse	-11.3546
aison	-11.3546
▁paragraphes	-11.3548
▁BOURG	-11.3549
▁Chi	-11.356
Matériaux	-11.3562
▁poursuivre	-11.3562
▁recourir	-11.3562
▁acceptés	-11.3562
pul	-11.3562
▁notation	-11.3562
▁unilatérale	-11.3562
▁francs	-11.3563
▁climatique	-11.3563
▁organes	-11.3565
▁modifiés	-11.357
dia	-11.3572
▁logiciel	-11.3572
▁existantes	-11.3572
▁initialement	-11.3579
▁confié	-11.359
▁331-3	-11.359
▁postérieure	-11.3603
▁traités	-11.3603
territorialement	-11.3612
▁interdiction	-11.3616
AMM	-11.3616
▁sollicités	-11.3617
MAN	-11.3617
▁collectées	-11.3618
▁prothèse	-11.3618
▁récépissé	-11.3618
▁téléchargeable	-11.3618
▁énumérées	-11.3618
▁Gou	-11.3618
▁dopage	-11.3618
▁Données	-11.3618
▁polytechnique	-11.3618
▁SIREN	-11.3618
▁journalière	-11.362
gastro	-11.3622
ERE	-11.3622
AK	-11.3623
gan	-11.3627
▁signe	-11.3629
▁avances	-11.3639
Christian	-11.3641
ettre	-11.3641
KO	-11.3644
▁pluri	-11.3645
▁présentes	-11.3645
q	-11.3645
▁Andrée	-11.3647
été	-11.3671
▁incident	-11.3672
entérologie	-11.3675
▁antigénique	-11.3675
▁conversion	-11.3675
▁marquage	-11.3675
har	-11.3676
▁transmettent	-11.3676
▁commissariat	-11.3676
▁commence	-11.3679
▁envisage	-11.3679
Franche	-11.368
▁troupeau	-11.3682
▁MER	-11.3683
▁pourvus	-11.3684
▁métropolitain	-11.3685
▁immobiliers	-11.3687
▁recueilli	-11.3688
▁7500	-11.3696
▁explicite	-11.3696
▁pr	-11.3702
ème	-11.3709
▁accidents	-11.3713
▁initiative	-11.3716
▁Château	-11.3724
▁mètre	-11.373
Orléans	-11.3731
▁récupération	-11.3731
▁apparaître	-11.3731
Adjudant	-11.3731
▁démarches	-11.3733
assesseur	-11.3734
Motif	-11.3738
▁seuils	-11.3739
TEN	-11.3744
▁retraites	-11.3744
▁nuit	-11.3749
▁Pou	-11.3749
justice	-11.3752
▁armes	-11.3753
▁immédiate	-11.3754
▁Ouest	-11.3756
gis	-11.3756
émo	-11.3759
▁prononcé	-11.3759
▁paritaires	-11.3759
▁identifiés	-11.376
MAS	-11.3763
▁créés	-11.3765
▁231	-11.3766
▁GRA	-11.3768
RS	-11.377
▁trait	-11.377
chet	-11.3776
▁formulaires	-11.3779
▁filières	-11.378
▁dépasser	-11.3781
▁92	-11.3782
▁courante	-11.3783
VAR	-11.3783
olo	-11.3786
Morgane	-11.3786
▁conservés	-11.3787
▁Maria	-11.3787
▁troubles	-11.3788
aoui	-11.3788
aéroport	-11.3788
▁ventilation	-11.3789
▁bruit	-11.3789
▁Bourgogne	-11.3789
ico	-11.3789
▁réussite	-11.3789
gni	-11.3793
▁accessoires	-11.3794
▁modèles	-11.3796
lio	-11.3798
▁salles	-11.3805
bourg	-11.3808
24-4	-11.3809
1.2	-11.3812
interruption	-11.3814
Joseph	-11.3814
MET	-11.3817
▁1971	-11.3817
remise	-11.3819
▁publiées	-11.3819
▁plate	-11.3822
▁RH	-11.3826
ram	-11.3833
▁cor	-11.3841
ave	-11.3842
DJ	-11.3842
▁performances	-11.3842
taire	-11.3846
▁dirigé	-11.3846
▁percevoir	-11.3846
6-1640	-11.3846
Fa	-11.3847
▁préparatoire	-11.385
▁formateur	-11.3853
▁PAS	-11.3856
TREP	-11.3864
▁réservés	-11.3864
▁SAL	-11.3865
▁soin	-11.3865
▁intégration	-11.3867
▁POU	-11.3867
▁Bert	-11.3867
illes	-11.3871
11-8	-11.3873
▁Bé	-11.3883
ose	-11.3883
nin	-11.3894
laine	-11.3896
▁2.1.	-11.3901
▁attribution	-11.3903
Dôme	-11.3904
▁exonéré	-11.3904
▁masculin	-11.3904
▁perception	-11.3904
▁semestre	-11.3904
▁surveillant	-11.3904
▁restitution	-11.3904
.1.1	-11.3905
inclusion	-11.3905
▁bonification	-11.391
▁conformer	-11.391
▁contractantes	-11.3914
SIEC	-11.3914
KE	-11.3919
PAR	-11.3924
▁SER	-11.3928
organisateur	-11.3932
administrateurs	-11.3932
▁représentante	-11.3937
▁GIP	-11.3938
apprentis	-11.3939
▁indépendants	-11.3939
▁présidents	-11.3948
ESS	-11.3948
wi	-11.3948
▁Côte	-11.3952
tré	-11.3956
MENE	-11.3962
/2021-01-3	-11.3962
▁Tokyo	-11.3962
▁cursus	-11.3962
▁libéraux	-11.3962
▁présidence	-11.3962
▁remettre	-11.3963
▁voirie	-11.3965
Comté	-11.397
▁versera	-11.397
▁honoraires	-11.3972
▁quant	-11.3974
▁intervenue	-11.3975
IERS	-11.3975
objectifs	-11.3976
▁5.2	-11.3984
TEL	-11.3984
excède	-11.399
Valérie	-11.3991
Gabriel	-11.3992
▁1972	-11.3992
présidents	-11.3994
▁Bal	-11.3999
679	-11.3999
fip	-11.4002
ND	-11.4004
onnent	-11.4004
42-1	-11.4005
▁justifiée	-11.4006
12-6	-11.4006
▁Tarn	-11.4009
▁MON	-11.4013
mis	-11.4015
▁fondé	-11.4016
cho	-11.4018
▁désigner	-11.402
▁Objectif	-11.402
▁Ernest	-11.402
▁téléversé	-11.402
▁assistance	-11.4021
▁industrielles	-11.4022
avenir	-11.4023
▁indice	-11.4027
TNF	-11.4027
▁recueillies	-11.4028
lieu	-11.4028
▁Fi	-11.4029
▁engagée	-11.4037
ENCE	-11.404
TRI	-11.404
▁commandants	-11.4041
▁sub	-11.4042
▁modéré	-11.4045
▁CL	-11.4045
▁équipé	-11.4047
Cédric	-11.405
▁demandent	-11.4053
ANE	-11.4056
▁appliqué	-11.4056
▁Geneviève	-11.4057
400	-11.4058
▁conclusions	-11.4064
trice	-11.4067
▁consultée	-11.4069
▁cultures	-11.4077
ommercialisation	-11.4079
Jérémy	-11.4079
▁compréhension	-11.4079
▁navigant	-11.4079
▁sédiments	-11.4079
▁Règlement	-11.408
▁audition	-11.4081
▁217	-11.4088
.6.	-11.4089
▁urbaine	-11.4094
llier	-11.4094
▁Bien	-11.4097
▁peu	-11.4099
dio	-11.4103
REN	-11.4105
REAU	-11.4107
finances	-11.411
MU	-11.4114
ke	-11.4115
▁informer	-11.4115
▁314-1	-11.412
▁intérim	-11.4124
dr	-11.4126
QUES	-11.4134
▁13/03/2020	-11.4138
▁Formation	-11.4138
▁bénévole	-11.4138
▁radioélectrique	-11.4138
▁rattachement	-11.4138
▁samedi	-11.4138
▁critique	-11.4138
▁boissons	-11.4138
▁CMG	-11.4139
ECOI	-11.4139
▁JEAN	-11.4139
▁Zone	-11.4142
▁2023,	-11.4143
▁transferts	-11.4145
▁promu	-11.4148
▁rayon	-11.4148
▁insaisissables	-11.4154
quin	-11.4155
▁industriels	-11.4158
▁cortico	-11.4159
▁paramètres	-11.4161
▁maintenue	-11.4161
▁visites	-11.4164
URE	-11.4166
▁généraliste	-11.4167
▁2021-13	-11.4167
enseignant	-11.4169
▁Léa	-11.4172
Lisa	-11.4172
▁fériés	-11.4173
▁carburants	-11.4173
▁000)	-11.4173
▁historiques	-11.4183
▁Petit	-11.4188
▁subordonné	-11.4188
▁MAL	-11.4189
UX	-11.419
dap	-11.419
▁amiable	-11.4193
tiques	-11.4194
ESSE	-11.4194
▁prononcées	-11.4195
▁promulgation	-11.4198
▁examiné	-11.4198
KA	-11.4203
▁313	-11.4204
▁gouvernement	-11.4206
▁requête	-11.4206
▁convoqué	-11.4207
cor	-11.4211
▁BAP	-11.4212
LAS	-11.4216
hu	-11.422
lière	-11.4232
qué	-11.4234
gou	-11.4234
▁neuvième	-11.4236
▁guide	-11.4239
▁0,5	-11.4239
▁course	-11.4243
▁Vienne	-11.4244
▁feu	-11.4245
▁appropriées	-11.4245
NARD	-11.4252
▁assister	-11.4257
▁biais	-11.4258
CPT	-11.426
▁561-3	-11.426
actes	-11.426
▁mentionnant	-11.426
▁plancher	-11.4261
issa	-11.4263
▁mondiale	-11.4265
▁options	-11.4266
▁certifiés	-11.4266
▁16°	-11.4268
partie	-11.4269
▁2021-5	-11.4269
ORG	-11.427
▁statutaire	-11.4272
ECT	-11.4275
▁représentés	-11.4279
Vu	-11.4279
▁Pra	-11.428
▁Annie	-11.4285
▁VIH	-11.4286
maritime	-11.4292
dg	-11.4296
ui	-11.4299
inspecteurs	-11.4301
▁protégés	-11.4301
▁ép	-11.4311
LIS	-11.4314
iche	-11.4315
10°	-11.4315
hypothèse	-11.4316
intéressement	-11.4318
▁orthopédique	-11.4318
▁remboursé	-11.4318
▁reproduction	-11.4318
▁litige	-11.4318
▁Hautes	-11.4319
▁Jan	-11.432
▁table	-11.4321
▁figurer	-11.4323
▁auteurs	-11.4325
▁pôles	-11.4325
▁ménage	-11.4328
nées	-11.4334
antes	-11.4338
▁Culture	-11.434
GUES	-11.4343
Ain	-11.4345
bé	-11.4348
▁Sta	-11.4351
Stéphanie	-11.4354
▁17°	-11.4357
▁rattachés	-11.436
procureure	-11.4366
▁pourrait	-11.4372
GAN	-11.4373
▁démolition	-11.4379
▁mécanisme	-11.4379
▁progression	-11.4379
▁démissionnaire	-11.4379
▁amené	-11.438
▁matérielles	-11.4384
▁numéros	-11.4384
CROIX	-11.4385
▁variation	-11.4385
CHEM	-11.4393
▁"6.	-11.4395
pre	-11.4395
▁Lors	-11.4399
NF	-11.44
Administration	-11.44
arrière	-11.4403
obi	-11.4403
▁arrivée	-11.4403
▁propriétaires	-11.4405
experts	-11.441
Sous	-11.4412
échec	-11.4415
▁Pri	-11.4417
▁école	-11.4417
vol	-11.4424
étiques	-11.4425
▁Muriel	-11.4425
LS	-11.4429
▁BEL	-11.4429
ÉES	-11.4431
▁certificative	-11.4433
▁VAN	-11.4438
adhérent	-11.4438
rand	-11.4438
▁défaillance	-11.444
▁expresse	-11.444
▁froid	-11.444
▁maintenir	-11.444
▁déduction	-11.444
organ	-11.4446
▁VILLE	-11.4447
▁inv	-11.4448
▁stratégiques	-11.4449
▁message	-11.445
▁difficulté	-11.4451
HER	-11.4452
HT	-11.4456
pose	-11.4457
▁2021-6	-11.4458
▁préfectoral	-11.446
▁AB	-11.446
nis	-11.4461
▁cesse	-11.4469
Fabrice	-11.4477
▁automobile	-11.4482
▁transféré	-11.4483
▁détenu	-11.4483
traitants	-11.449
thérapie	-11.4492
isant	-11.4494
ANTE	-11.4495
▁insuffisa	-11.4497
Assurance	-11.4501
▁Identifier	-11.4501
▁douzième	-11.4501
▁comparaison	-11.4501
▁Musée	-11.4501
▁suspendre	-11.4502
ars	-11.4503
013002	-11.4503
▁planification	-11.4504
illard	-11.4504
▁outil	-11.4513
ella	-11.4513
▁polaire	-11.4513
DS	-11.4513
soignant	-11.4514
▁échelle	-11.4514
▁CRE	-11.4515
DIN	-11.4519
▁consommations	-11.4519
▁Trois	-11.4521
▁Signature	-11.4524
/2021-11	-11.4527
▁polluants	-11.4528
ède	-11.4528
▁Sauf	-11.4528
▁Cal	-11.4533
▁esthétique	-11.4534
▁certifiée	-11.4535
RAY	-11.4537
▁cumul	-11.4537
avocat	-11.4538
Mélanie	-11.4539
Bertrand	-11.454
Section	-11.454
bri	-11.4543
PRE	-11.4544
▁motivé	-11.4546
IDE	-11.4551
Léo	-11.4551
▁exercée	-11.4553
aucune	-11.4554
▁archives	-11.4556
▁contrôleurs	-11.4562
/2021-07-3	-11.4563
▁Publique	-11.4563
▁compatibilité	-11.4563
▁concourant	-11.4563
▁conflit	-11.4563
▁oncologie	-11.4563
▁télécopie	-11.4563
▁géotechnique	-11.4563
▁fruits	-11.4563
▁aspects	-11.4563
▁On	-11.4563
▁dangereux	-11.4563
▁Banque	-11.4566
▁221-1	-11.457
▁89	-11.4575
▁pathologie	-11.4575
fic	-11.4579
▁tir	-11.4584
alisation	-11.4588
▁perçus	-11.4591
▁Carole	-11.4591
▁contraires	-11.4593
▁demandés	-11.4596
▁appréciée	-11.4599
.3.1	-11.4599
▁réelle	-11.4602
▁survenu	-11.4603
Daniel	-11.4604
▁institution	-11.4607
▁acquise	-11.4614
▁ARMÉE	-11.4616
PN	-11.4617
excéd	-11.4624
archéologie	-11.4625
emprisonnement	-11.4625
▁2261-7	-11.4625
▁Meuble	-11.4625
▁incompatible	-11.4625
▁problématique	-11.4625
▁chemin	-11.4625
▁pénétration	-11.4626
▁clos	-11.4627
▁indirectement	-11.4628
tologie	-11.4637
▁BOIS	-11.4637
▁BOUR	-11.4653
▁phrases	-11.466
▁PETIT	-11.4661
ossi	-11.4663
actif	-11.4665
▁2021-9	-11.4686
▁intolérance	-11.4686
ule	-11.4686
▁doctorat	-11.4687
▁neurologie	-11.4687
anche	-11.4687
▁souches	-11.4688
▁collaboration	-11.4688
▁conditionnement	-11.4689
▁installés	-11.47
▁module	-11.4702
▁psychologue	-11.4702
▁situe	-11.4703
mas	-11.4704
▁FER	-11.4704
▁substantielle	-11.4705
▁libérale	-11.4705
PC	-11.4711
▁Maison	-11.4711
igné	-11.4717
ieu	-11.4718
invite	-11.4719
ona	-11.472
▁différé	-11.4721
▁identité	-11.4724
arme	-11.4724
▁Ge	-11.4731
▁effectu	-11.4735
BRE	-11.4741
SSAR	-11.4742
▁maternel	-11.4746
▁bateau	-11.475
▁mutuelle	-11.475
▁copropriété	-11.475
▁rédactrice	-11.475
▁spécifications	-11.475
▁questionnaire	-11.475
avaient	-11.4751
▁MIPP	-11.4751
▁reli	-11.4751
▁intégralement	-11.4752
▁2241-5	-11.4754
▁identifie	-11.4759
▁sang	-11.476
▁Méditerranée	-11.4765
▁occupé	-11.4765
▁commercialis	-11.4765
▁exploité	-11.4766
▁Produits	-11.4766
▁traitées	-11.4767
EAUX	-11.4768
▁auditeurs	-11.4769
▁solliciter	-11.477
VER	-11.4772
▁Ser	-11.4774
dor	-11.4781
Inès	-11.4782
▁HE	-11.4783
▁pluridisciplina	-11.4784
▁Fanny	-11.4787
▁publie	-11.479
▁restreinte	-11.479
▁Membres	-11.4792
▁étudiant	-11.4793
:	-11.4793
hon	-11.4795
▁Pau	-11.4795
ologue	-11.4795
▁admises	-11.4799
ROUX	-11.4803
▁engagés	-11.4805
▁égard	-11.4807
▁déclare	-11.4808
▁614	-11.4808
▁appar	-11.4813
Dimension	-11.4814
Grégory	-11.4814
▁Représentant	-11.4814
▁grâce	-11.4814
▁intéressant	-11.4814
CENTRAL	-11.4814
▁canton	-11.4814
▁Savoie	-11.4815
▁autour	-11.4815
TAL	-11.4817
▁2021-7	-11.4817
métr	-11.4819
8-4	-11.482
▁84	-11.4825
▁331-2	-11.4828
▁bovins	-11.4828
▁indiqués	-11.483
▁Table	-11.4835
▁couvre	-11.4839
▁animale	-11.4851
▁modérée	-11.4851
▁considérées	-11.4851
RTE	-11.4852
▁deviennent	-11.4853
Ri	-11.4854
▁envisagée	-11.4856
Florence	-11.4858
▁permanents	-11.4858
▁intégré	-11.4863
édaillé	-11.4872
▁Bourg	-11.4874
DEL	-11.4875
alternance	-11.4877
obésité	-11.4877
▁NOTARIAL	-11.4877
▁impliquant	-11.4877
▁littoral	-11.4877
▁notice	-11.4877
▁Programme	-11.4878
▁délimitation	-11.4878
▁précision	-11.4878
▁grades	-11.4878
▁marge	-11.4878
▁gérés	-11.4881
▁diplomatiques	-11.4888
RC	-11.489
▁Occitanie	-11.489
▁ii	-11.4899
▁Fort	-11.4905
zan	-11.4915
lig	-11.492
▁Rose	-11.4923
Justine	-11.4923
▁Denise	-11.4924
▁psychologues	-11.4927
▁imprimer	-11.4932
SNA	-11.4932
▁suspendu	-11.4933
▁REN	-11.4934
oin	-11.4938
ient	-11.494
▁pneumologie	-11.4941
Vaucluse	-11.4941
▁Evaluation	-11.4941
▁brigadier	-11.4941
▁renforcement	-11.4941
0000436184	-11.4941
▁fournissent	-11.4942
▁revers	-11.4943
▁1.1.	-11.4946
▁porteurs	-11.4954
Pas	-11.4958
▁tiré	-11.4958
oub	-11.4959
▁immobilière	-11.4959
▁mairie	-11.4961
▁cabinets	-11.4964
▁plaques	-11.4966
001	-11.4973
▁exécutée	-11.4975
▁Tri	-11.4975
▁122-2	-11.4978
▁versés	-11.4979
▁élève	-11.4979
▁Florent	-11.4982
▁Tra	-11.4987
Traitement	-11.4988
;	-11.4989
juridictionnelle	-11.4992
▁poursuites	-11.4994
▁Fre	-11.4995
OUT	-11.4996
▁certificateur	-11.4997
▁publications	-11.4998
▁analyser	-11.4999
apprécie	-11.4999
▁86	-11.4999
ulaire	-11.5
▁232-1	-11.5002
intérêts	-11.5003
▁distribu	-11.5003
assemblage	-11.5006
▁14/09/201	-11.5006
▁chômage	-11.5006
▁condamnation	-11.5006
▁cultivées	-11.5006
▁facturé	-11.5006
▁manifeste	-11.5006
▁puériculture	-11.5006
▁reclassement	-11.5006
▁SANTÉ	-11.5006
ÉTAT	-11.5006
▁supplément	-11.5006
OPS	-11.5008
▁SCP	-11.5008
ministérielle	-11.5009
oz	-11.5011
tiennent	-11.5015
▁routes	-11.5016
▁approuvées	-11.502
▁Description	-11.5021
▁Etablissements	-11.5023
▁Roche	-11.5024
esse	-11.5024
▁Cu	-11.5024
Aux	-11.5025
EVE	-11.5025
MAT	-11.5027
▁Chau	-11.5032
▁Chacun	-11.5034
SSIER	-11.5034
▁amont	-11.5035
▁Tour	-11.5042
▁substitue	-11.5044
▁the	-11.5044
nation	-11.5053
événement	-11.5054
journée	-11.5058
aient	-11.5059
▁communiquée	-11.5059
▁enquête	-11.506
USSE	-11.5062
▁informée	-11.5066
▁forte	-11.5067
▁compar	-11.5067
▁arrondi	-11.507
▁excavées	-11.5071
▁Mission	-11.5071
000042994	-11.5071
▁chevalier	-11.5071
Françoise	-11.5071
▁162-22-6	-11.5071
Laetitia	-11.5071
▁cocontractant	-11.5072
ANDE	-11.5073
▁Somme	-11.5075
▁pertinentes	-11.5077
heures	-11.5079
▁marin	-11.508
tage	-11.5082
ande	-11.5083
Bar	-11.5088
▁631-1	-11.509
pompier	-11.509
▁mm	-11.5091
▁59,	-11.5095
▁642	-11.5096
▁Epo	-11.5096
illé	-11.5105
11°	-11.5108
▁Gal	-11.5111
▁contractuelles	-11.5113
Corse	-11.5121
▁réanimation	-11.5125
▁imposé	-11.5129
▁Col	-11.513
iii	-11.5131
▁réparties	-11.5133
0-3	-11.5133
activation	-11.5136
▁Créteil	-11.5136
▁mérite	-11.5136
▁piscine	-11.5136
▁récolte	-11.5136
▁vigilance	-11.5136
▁monothérapie	-11.5136
▁citoyenneté	-11.5137
▁convenu	-11.5137
▁variable	-11.5143
▁Bru	-11.5147
▁majeurs	-11.5148
entendent	-11.5149
▁3-1	-11.5152
▁TOUR	-11.5153
▁caractéris	-11.5156
▁sépar	-11.5156
onique	-11.5159
▁reçues	-11.5162
▁1969	-11.5169
▁entité	-11.5174
▁actif	-11.5178
org	-11.5179
rice	-11.5181
▁thermiques	-11.5187
Description	-11.5187
éch	-11.519
▁précisée	-11.5194
▁rattaché	-11.5194
▁Mise	-11.5195
annulation	-11.5202
▁Décision	-11.5202
▁professora	-11.5202
▁ramené	-11.5202
▁énumérés	-11.5202
Considéra	-11.5202
▁passeport	-11.5202
UNITÉ	-11.5203
▁fermé	-11.5203
ILLY	-11.5204
▁garantit	-11.5205
HAN	-11.5205
▁capitaines	-11.5209
▁700	-11.5215
Allier	-11.5222
▁élargie	-11.5222
▁321-1	-11.5223
▁signataires	-11.5225
LÉ	-11.5225
Cour	-11.5235
uy	-11.5239
HÉ	-11.5239
▁Wa	-11.5239
actualisation	-11.5248
▁précisent	-11.5248
▁Q	-11.5248
▁prépare	-11.5251
augmentation	-11.5254
▁To	-11.5259
ITÉ	-11.5267
120	-11.5267
▁hépato	-11.5268
▁intégrant	-11.5268
▁lyonnais	-11.5268
▁renforcer	-11.5268
Marianne	-11.5268
▁dépend	-11.5269
▁renouvelables	-11.5271
Bastien	-11.5273
Doubs	-11.5274
▁locatifs	-11.5275
.2.2.	-11.5277
▁cible	-11.5278
▁TR	-11.5278
NAY	-11.5286
▁Traitement	-11.5286
alis	-11.5289
ACC	-11.5291
▁semences	-11.5293
Ba	-11.5301
353	-11.5302
mine	-11.5302
Bo	-11.5308
▁Pont	-11.5312
dd	-11.5313
▁informés	-11.5313
ssin	-11.5315
▁verser	-11.5318
Sonia	-11.532
tribunaux	-11.5322
Laurence	-11.5322
uri	-11.5326
▁étendus	-11.5326
priseur	-11.5331
JUST	-11.5333
▁boulev	-11.5335
▁immunologie	-11.5335
▁inadéquate	-11.5335
▁introduit	-11.5335
▁télécharger	-11.5335
▁Garantie	-11.5335
▁Mérite	-11.5335
éthique	-11.5335
▁mener	-11.5335
▁reportée	-11.5338
REL	-11.5341
▁correspondent	-11.5343
▁comparable	-11.5348
▁Gard	-11.5348
otte	-11.5348
▁promotions	-11.5349
▁émises	-11.5349
▁5126-6	-11.535
▁limit	-11.5352
▁implanté	-11.5355
▁privilège	-11.5358
▁Fl	-11.536
traitant	-11.5362
ANA	-11.5363
ousse	-11.537
SEINE	-11.5372
IAN	-11.5377
▁122-1	-11.5377
▁interdits	-11.5382
▁exigées	-11.5383
▁intégrés	-11.5385
▁appropriée	-11.5386
▁modules	-11.5387
▁réservée	-11.5389
Georges	-11.539
programme	-11.539
▁rectorat	-11.5392
recrutement	-11.5392
▁appliqués	-11.5394
▁EURO	-11.5396
Abd	-11.5401
▁Celui	-11.5402
▁contenir	-11.5402
▁gérer	-11.5402
▁parisienne	-11.5402
animateur	-11.5402
▁BRE	-11.5407
▁Har	-11.5408
▁aigu	-11.5412
▁Elise	-11.5414
2022	-11.5419
eutique	-11.542
▁parcelle	-11.5428
▁2021-10	-11.5431
▁intègre	-11.5433
▁formulée	-11.5433
GOU	-11.5434
▁voté	-11.5434
▁brute	-11.5437
▁fluvial	-11.5438
▁nette	-11.5438
▁autoriser	-11.5439
▁interruption	-11.5439
gnac	-11.544
▁exigée	-11.5442
ura	-11.5442
SU	-11.5453
▁polaires	-11.5456
▁extra	-11.5456
▁213-1	-11.5457
▁prolongée	-11.5457
échantillon	-11.5458
▁Ali	-11.5458
Alexandra	-11.5458
Elise	-11.5458
ama	-11.5463
Seuls	-11.5463
▁détenteurs	-11.5464
RIC	-11.5464
impose	-11.5467
seraient	-11.5468
▁perspective	-11.547
▁traumatologique	-11.547
▁Olympiques	-11.547
▁regroupement	-11.547
▁masque	-11.547
▁Professionnelle	-11.5473
▁Yann	-11.5478
fondateur	-11.5479
▁pertes	-11.5481
▁521-1	-11.5481
▁examine	-11.5482
▁consacrée	-11.5482
VIER	-11.5491
Vi	-11.5491
NG	-11.5493
▁cap	-11.5497
ignon	-11.5497
ESP	-11.5499
vic	-11.5502
▁astreinte	-11.5502
▁alloué	-11.5503
bou	-11.551
▁événement	-11.551
ium	-11.5514
bon	-11.5519
PIERRE	-11.5527
Elodie	-11.5527
Hervé	-11.5527
Guadeloupe	-11.5527
commission	-11.5528
oua	-11.5529
780	-11.5535
Atlantiques	-11.5537
▁RELATIVE	-11.5538
▁bataillon	-11.5538
▁refroidissement	-11.5538
▁denrées	-11.5538
▁endommagé	-11.5538
▁Aude	-11.5541
OSSE	-11.5543
mission	-11.5551
▁Fo	-11.5552
▁stocks	-11.5552
tis	-11.5554
▁attendu	-11.5556
▁Ana	-11.5558
arra	-11.5559
adresser	-11.556
▁Alexis	-11.5561
NER	-11.5565
▁comprises	-11.5569
ssez	-11.557
sociale	-11.5575
ILLARD	-11.5576
▁examinateurs	-11.5577
Ang	-11.5582
▁transit	-11.5583
usse	-11.5584
▁identifier	-11.5584
▁2026	-11.5585
▁participants	-11.5587
▁reconnus	-11.5591
RAT	-11.5592
soignants	-11.5592
ouvre	-11.5598
▁interrégion	-11.5602
▁kW	-11.5603
LAND	-11.5605
▁protocoles	-11.5606
endoprothèse	-11.5606
▁dépositaire	-11.5606
▁facturable	-11.5606
▁pavillon	-11.5606
▁prorogation	-11.5606
▁préservation	-11.5606
emprise	-11.5606
▁commentaire	-11.5606
▁participations	-11.5608
▁médias	-11.5608
▁suivies	-11.5615
eff	-11.5618
▁desquelles	-11.5618
mbr	-11.5619
adéquation	-11.5619
▁dynamique	-11.5624
▁approche	-11.5625
▁ISO	-11.5627
Robin	-11.5628
▁Gre	-11.5633
▁opéré	-11.5634
▁détachés	-11.5646
lic	-11.5651
▁Landes	-11.5653
▁communautaire	-11.5654
▁Damien	-11.5656
PME	-11.566
▁travaillé	-11.5663
▁volumes	-11.5664
Véronique	-11.5667
cachet	-11.5671
▁Collectivité	-11.5675
▁confidentiel	-11.5675
▁sergent	-11.5675
▁déficit	-11.5675
▁exclusive	-11.5676
Micka	-11.5676
▁DC	-11.5679
ITE	-11.569
▁faibles	-11.5697
train	-11.57
ctive	-11.5701
BON	-11.5702
mant	-11.5703
bat	-11.5708
USE	-11.5708
89004	-11.571
▁traiter	-11.5711
▁acquises	-11.572
ê	-11.5726
▁commis	-11.5727
▁effluents	-11.5731
▁2.1	-11.5733
Arthur	-11.5737
aéronautique	-11.5737
▁priorités	-11.5738
ONS	-11.5741
▁détect	-11.5744
▁administré	-11.5744
▁conséquent	-11.5744
▁député	-11.5744
▁irrecevable	-11.5744
▁navigables	-11.5744
Thibaut	-11.5744
▁Nadine	-11.5745
▁éviter	-11.5745
▁directoire	-11.5745
volta	-11.5745
▁numérotation	-11.5747
▁éditeurs	-11.5748
Na	-11.5748
Noémie	-11.5752
▁BAS	-11.5752
▁94-6	-11.5753
▁créée	-11.5753
AISE	-11.5757
Fait	-11.5763
composante	-11.5768
Nad	-11.577
▁placées	-11.5773
INTD	-11.5781
▁gain	-11.5786
▁infectieuses	-11.5788
▁paye	-11.5791
▁parcelles	-11.5791
TOUR	-11.5796
ull	-11.5796
gen	-11.5796
éléments	-11.5797
▁représentée	-11.5797
lée	-11.5797
▁PROFESSIONNEL	-11.5808
▁assemblée	-11.5811
▁assistante	-11.5811
introduction	-11.5814
▁Réaliser	-11.5814
▁agrégé	-11.5814
▁cardiaque	-11.5814
▁chancelier	-11.5814
▁délibérative	-11.5814
▁vendeur	-11.5814
▁vieillesse	-11.5814
▁volailles	-11.5814
▁Maladie	-11.5814
▁teneur	-11.5815
▁cédé	-11.5817
BAN	-11.5817
▁standardisée	-11.5822
poli	-11.5825
▁financer	-11.5826
ssé	-11.5833
▁125	-11.5838
▁habilitée	-11.5839
vie	-11.584
▁indirecte	-11.5842
▁Seul	-11.5842
apprenti	-11.5842
▁carburant	-11.5844
▁éman	-11.5846
agir	-11.5849
FRANC	-11.5849
met	-11.585
▁PRÉ	-11.586
▁manifestations	-11.5865
die	-11.5868
▁branches	-11.5873
Aurélie	-11.5875
ingénierie	-11.5879
Charente	-11.5879
▁assortie	-11.5882
atalogue	-11.5882
6-4	-11.5882
GME	-11.5883
évacuation	-11.5885
▁2241-17	-11.5885
▁exigible	-11.5885
▁mobilier	-11.5885
▁mélange	-11.5885
Gauthier	-11.5885
édé	-11.5885
▁bourse	-11.5885
▁remontée	-11.5885
▁téléservice	-11.5885
▁Colette	-11.5886
TRAT	-11.5886
nais	-11.5888
▁médiateur	-11.5889
▁gazeux	-11.5889
▁payer	-11.5891
▁utilisateur	-11.5893
1-2,	-11.5893
▁314	-11.5894
SCA	-11.5895
informer	-11.5895
▁Boul	-11.5896
▁convocations	-11.5896
▁définitivement	-11.5897
▁174-1	-11.5898
écl	-11.59
▁annulée	-11.5901
▁Pla	-11.5901
▁mouvements	-11.5905
GON	-11.5908
▁récipients	-11.5911
▁consultable	-11.5915
▁réuni	-11.5917
roux	-11.5921
▁chercheurs	-11.5922
▁psychologique	-11.5922
MON	-11.5926
techniques	-11.5929
mal	-11.5933
▁émet	-11.5936
▁constructions	-11.5938
Gu	-11.5941
▁541-10	-11.595
▁160	-11.5951
▁Fabien	-11.5952
bus	-11.5953
▁Chorus	-11.5956
▁chimiothérapie	-11.5956
▁Claudine	-11.5956
▁réglé	-11.5956
▁Examen	-11.5956
traitance	-11.5956
▁majoritaire	-11.5957
range	-11.5957
▁spécialisation	-11.5958
▁111-1	-11.5959
hab	-11.5962
▁Suppléant	-11.5963
▁résultent	-11.5963
nu	-11.5964
▁Elodie	-11.5967
arc	-11.5968
YON	-11.5972
rive	-11.5981
▁...)	-11.5984
▁combustible	-11.5987
▁critère	-11.5987
doc	-11.5989
▁rapporteur	-11.5998
UV	-11.5999
▁enquêtes	-11.6004
ANNE	-11.6006
▁pourraient	-11.6006
▁incendie	-11.6007
AIRES	-11.6007
▁TERRE	-11.6007
liste	-11.6021
jo	-11.6023
▁filiales	-11.6023
▁Pyrénées	-11.6027
▁Trans	-11.6027
▁aéroportuaire	-11.6027
▁conservatoire	-11.6027
▁licenciement	-11.6027
▁gravité	-11.6027
▁Chloé	-11.6028
▁générateur	-11.603
▁séparation	-11.6032
▁formuler	-11.6033
abri	-11.6039
arts	-11.6046
▁211-1	-11.6048
observatoire	-11.6048
ical	-11.6049
▁conférence	-11.606
▁intervenants	-11.6062
▁patrimoines	-11.6062
éry	-11.6064
▁prendra	-11.6064
attachés	-11.6066
▁1967	-11.6066
DEC	-11.607
▁Règles	-11.6074
▁Frédérique	-11.6076
hydro	-11.6077
▁blocs	-11.6079
Selon	-11.6079
écr	-11.6086
PIC	-11.6086
▁institut	-11.6087
▁quota	-11.6088
▁331-1	-11.6091
cours	-11.6092
emballage	-11.6097
▁instruction	-11.6098
▁1.2.	-11.6099
▁prépondérante	-11.6099
Jonathan	-11.6099
acquéreur	-11.6099
kinésithérapeute	-11.6099
▁Fonction	-11.6099
▁chaîne	-11.6099
illot	-11.6101
▁artistes	-11.6101
erreur	-11.6102
▁5.1	-11.6105
▁recueillir	-11.6107
IVE	-11.6107
▁ouvrés	-11.6107
▁titularisés	-11.6109
▁prévisions	-11.6113
▁quartiers	-11.6115
▁copies	-11.6116
len	-11.6119
CMA	-11.6119
▁Finistère	-11.6122
antenne	-11.6123
«	-11.6124
▁sexuelle	-11.6131
Durant	-11.6134
▁libellé	-11.6135
▁privées	-11.6136
abi	-11.6145
▁hôpital	-11.6147
Clémentine	-11.6152
▁pathologies	-11.6157
▁accompagnant	-11.6157
▁transférée	-11.6159
▁portes	-11.6163
BAR	-11.6165
▁journalières	-11.617
ssa	-11.617
Ludovic	-11.617
MARTIN	-11.6171
Constance	-11.6172
▁Fondation	-11.6172
▁dermatologie	-11.6172
▁détenir	-11.6172
▁expressément	-11.6172
▁ionisants	-11.6172
▁préliminaire	-11.6172
▁réflexion	-11.6172
▁mentale	-11.6172
▁vigne	-11.6173
▁compétition	-11.6173
PRMG	-11.6175
▁change	-11.6175
dix	-11.6177
▁communiquent	-11.6179
télésurveillance	-11.618
BU	-11.6182
guer	-11.6183
MOULIN	-11.619
▁561-2	-11.6191
▁joueurs	-11.6194
anciens	-11.6197
▁classant	-11.6197
OZ	-11.6198
▁dirigeants	-11.6202
SER	-11.6204
espèce	-11.6206
▁Cédric	-11.6208
POV	-11.6212
ouille	-11.6217
13-2	-11.6225
GR	-11.6229
▁Baptiste	-11.6235
ANG	-11.6237
JEAN	-11.6244
William	-11.6245
▁football	-11.6245
▁francisation	-11.6245
▁monument	-11.6245
▁ordinaire	-11.6245
▁parallèle	-11.6245
▁prorata	-11.6245
▁réquisition	-11.6245
▁souterrain	-11.6245
Saclay	-11.6245
▁PMIA	-11.6245
▁couleur	-11.6245
▁stabilité	-11.6245
▁lecture	-11.6245
▁121-2	-11.6245
▁consolidation	-11.6246
indicateur	-11.6246
▁assorti	-11.6248
Nathan	-11.6248
ps	-11.6249
ACH	-11.6249
▁déclarer	-11.6251
Emmanuelle	-11.6252
▁Régis	-11.6252
▁systémiques	-11.6254
NOU	-11.6254
bin	-11.6256
▁Pu	-11.6258
reux	-11.6258
▁aéronautiques	-11.6258
▁transactions	-11.6259
▁Land	-11.6264
▁INRIA	-11.6265
▁animal	-11.6266
mn	-11.6271
▁sorte	-11.6275
aéronef	-11.6282
▁445	-11.6284
▁Ru	-11.6288
▁121-3	-11.6293
▁MOD	-11.6293
▁armé	-11.6296
heim	-11.6296
▁2021-3	-11.63
▁Sau	-11.63
▁éventuel	-11.6314
formation	-11.6316
▁avancé	-11.6316
▁observé	-11.6318
▁docteur	-11.6318
Corentin	-11.6318
▁bateaux	-11.6319
▁180	-11.6321
▁vit	-11.6322
▁alerte	-11.6323
▁ingénierie	-11.6324
2020	-11.6325
▁saisit	-11.6325
MANN	-11.6327
four	-11.6327
IEUX	-11.6331
▁mort	-11.6332
▁revêt	-11.6335
▁sollicite	-11.6344
▁périodiques	-11.6344
▁illégale	-11.6347
hommes	-11.6351
INTN	-11.6354
engagent	-11.6356
▁spécialiste	-11.6356
/2021-05-	-11.6358
VIN	-11.6364
▁224-1	-11.6369
OTTE	-11.6369
▁factures	-11.6371
▁cy	-11.6371
EURS	-11.6375
▁311-2	-11.638
▁généré	-11.6383
▁détaillée	-11.6389
▁dimensions	-11.6389
▁Communauté	-11.6392
▁Département	-11.6392
▁délibère	-11.6392
▁paternité	-11.6392
▁télévision	-11.6392
88008	-11.6392
mètre	-11.6393
▁investigations	-11.6393
▁passée	-11.6394
▁fondée	-11.6394
intolérance	-11.6394
▁barre	-11.6395
RAEP	-11.6396
gui	-11.6398
▁1333-1	-11.6399
ager	-11.64
▁identifié	-11.64
▁élémentaire	-11.6403
ELLI	-11.6407
▁ACT	-11.6413
▁approuvés	-11.6414
▁restrictions	-11.6417
▁631	-11.6418
▁décrivant	-11.642
▁Mélanie	-11.642
▁Région	-11.642
▁redevances	-11.6423
alli	-11.6425
VRE	-11.6426
5-5	-11.6428
▁constatations	-11.6432
▁BAL	-11.6432
▁242-7	-11.644
▁Fabienne	-11.6441
▁rubriques	-11.6443
▁232-2	-11.6443
▁Réseau	-11.6454
508	-11.6455
▁lieutenants	-11.6456
▁systématique	-11.6459
▁rééducation	-11.6461
ock	-11.6463
▁Franc	-11.6466
▁DISPOSITION	-11.6467
▁métaux	-11.6467
▁renvoyé	-11.6467
▁détient	-11.6467
▁quotité	-11.6467
▁prélevé	-11.6467
▁natation	-11.6467
▁culte	-11.6467
▁SIRET	-11.6467
Fabien	-11.6469
algré	-11.6469
instrument	-11.6469
Delphine	-11.647
▁actuellement	-11.647
▁tranches	-11.6476
▁devrait	-11.6477
▁majorations	-11.6479
▁and	-11.6483
AINE	-11.6485
▁Cher	-11.6486
▁seulement	-11.6489
active	-11.6493
BAP	-11.6494
▁Benoit	-11.6497
7-4	-11.6501
cot	-11.6514
oma	-11.653
▁positions	-11.6534
acompte	-11.6536
LOIRE	-11.6536
▁accepte	-11.6536
OFF	-11.6538
auxiliaire	-11.654
▁225	-11.6541
▁collectés	-11.6542
▁quorum	-11.6542
Augustin	-11.6542
▁détaillant	-11.6543
▁stade	-11.6543
Je	-11.6543
▁livré	-11.6543
ivité	-11.6546
ête	-11.6548
▁appropriés	-11.6549
▁soutenu	-11.6549
▁rive	-11.6553
▁800	-11.6555
▁postérieur	-11.6557
▁aliment	-11.6558
▁chasse	-11.6558
▁cumulée	-11.656
8-3	-11.6561
▁Hou	-11.6561
▁réclamations	-11.6562
deux	-11.6572
TEAU	-11.6573
rim	-11.6576
environnementaux	-11.6577
▁tabac	-11.6582
▁multiple	-11.6582
▁tenues	-11.6583
▁privilèges	-11.6592
ennes	-11.6594
▁Titulaire	-11.6602
▁5126-	-11.6606
Ange	-11.6607
Cher	-11.6609
nor	-11.6614
exonération	-11.6616
▁Identification	-11.6618
▁digestive	-11.6618
▁négoce	-11.6618
▁paramédicaux	-11.6618
▁prétendre	-11.6618
▁délit	-11.6618
education	-11.6618
▁infecté	-11.6618
Expertise	-11.6618
▁remplies	-11.6622
OG	-11.6623
CQ	-11.6624
bor	-11.6625
écu	-11.6631
▁Dou	-11.6632
▁assujettis	-11.6633
eck	-11.6633
▁Jules	-11.6634
iculu	-11.6642
▁douaniers	-11.6651
1.3	-11.6653
ILLET	-11.6655
artiste	-11.6657
▁recommandation	-11.666
▁dentaire	-11.666
▁aériennes	-11.6666
neau	-11.6666
▁coordonné	-11.6667
enquêtes	-11.6676
cel	-11.6676
▁Odile	-11.6677
▁AN	-11.6678
NAC	-11.6679
▁équipés	-11.6685
Gr	-11.6688
600	-11.6692
ZY	-11.6693
OST	-11.6693
▁bout	-11.6694
Panthéon	-11.6694
perfectionnement	-11.6694
▁PUBLIC	-11.6694
▁divorcée	-11.6694
▁imputable	-11.6694
▁succès	-11.6694
▁aménagé	-11.6694
▁paramédical	-11.6694
▁menace	-11.6694
▁aidant	-11.6694
▁recul	-11.6694
▁Défense	-11.6694
▁curr	-11.6694
▁soutenir	-11.6694
▁messagerie	-11.6695
sset	-11.6695
bal	-11.6695
▁substitution	-11.6696
▁SG	-11.6696
bes	-11.6698
Aurélien	-11.6705
▁perçu	-11.6707
métrique	-11.6709
▁Myriam	-11.6712
▁132-1	-11.6713
▁justifié	-11.6713
▁institutionnel	-11.6713
▁préparer	-11.6714
lus	-11.6715
issant	-11.6716
offres	-11.672
RAS	-11.6721
▁1966	-11.6726
▁pacte	-11.6728
Pi	-11.673
▁phases	-11.6732
chard	-11.6733
ifier	-11.6742
▁Seule	-11.6751
▁calendaires	-11.6752
CHAU	-11.6753
▁engager	-11.6756
▁bâti	-11.676
▁parental	-11.6766
▁Neu	-11.6768
▁biométhane	-11.6771
▁hydraulique	-11.6771
▁pédiatrique	-11.6771
▁sensibilisation	-11.6771
▁téléchargement	-11.6771
▁Droit	-11.6771
▁isolé	-11.6771
▁hémato	-11.6771
▁frontière	-11.6771
▁achevé	-11.6771
▁antécédents	-11.6772
▁marbre	-11.6772
aller	-11.6774
▁feuille	-11.6776
NC	-11.6778
Sandrine	-11.6779
Rémi	-11.678
▁dispensé	-11.6785
▁Pin	-11.6786
û	-11.6787
ISSE	-11.6792
▁Entre	-11.6792
▁disciplinaires	-11.6792
céder	-11.6795
IERES	-11.6799
▁employ	-11.6812
▁victime	-11.6815
▁CAL	-11.6816
▁Bro	-11.6817
ancé	-11.6818
▁pied	-11.6819
Blanc	-11.6825
▁maires	-11.6826
Renan	-11.6828
IST	-11.6829
once	-11.6835
▁Pal	-11.684
Océane	-11.6848
aéromodélisme	-11.6848
▁naturalisation	-11.6848
▁téléphonique	-11.6848
Turquie	-11.6849
▁verre	-11.6849
▁exprimée	-11.685
▁recouvré	-11.6851
▁emprunts	-11.6851
ONE	-11.6852
▁expositions	-11.6854
Concours	-11.6858
JOU	-11.686
zin	-11.6861
exercent	-11.6863
tar	-11.6864
ALI	-11.6867
sseur	-11.6868
Elsa	-11.6877
▁respectées	-11.6879
▁2021-16	-11.6881
▁apprécié	-11.6881
▁1968	-11.6883
INFORMATION	-11.6886
hn	-11.6891
▁Morbihan	-11.6892
▁large	-11.6894
▁admissible	-11.6894
▁invalidité	-11.6898
▁permettra	-11.6899
HAM	-11.69
▁CHAMP	-11.6906
den	-11.6908
ICA	-11.691
▁Nation	-11.6914
▁Pre	-11.6915
▁référencement	-11.6915
▁envisagées	-11.6917
▁Laura	-11.692
Maine	-11.6923
INES	-11.6927
ivacaftor	-11.6927
▁Maître	-11.6927
▁canalisations	-11.6927
▁mobilisation	-11.6927
▁portefeuille	-11.6927
▁Généralités	-11.6927
▁ouvre	-11.6928
▁grammes	-11.6928
▁homologation	-11.6932
▁postérieurement	-11.6933
▁3.1	-11.6933
▁Charente	-11.6933
▁choisit	-11.6936
Auvergne	-11.6937
nto	-11.6937
corps	-11.6937
▁académies	-11.6938
▁activement	-11.6943
▁Ap	-11.6947
Grand	-11.6947
appliquer	-11.6947
▁PONT	-11.6947
▁dérivés	-11.6948
▁actuel	-11.695
▁intranet	-11.6951
▁accompagnés	-11.6956
▁dentaires	-11.6964
▁stockages	-11.6965
existe	-11.6967
▁0,7	-11.6971
▁redevance	-11.6973
▁occuper	-11.6982
15)	-11.6985
Mor	-11.6988
ADI	-11.699
▁131-1	-11.6991
▁Amélie	-11.6991
sg	-11.6993
▁annexés	-11.6994
exa	-11.6997
▁médi	-11.6998
▁cumulé	-11.6999
▁chirurgien	-11.7001
hypothèque	-11.7004
anomalie	-11.7004
▁investie	-11.7004
▁recto	-11.7005
ysfonctionnement	-11.7005
▁anaphylactique	-11.7005
▁conciliation	-11.7005
▁linguistique	-11.7005
▁octroyé	-11.7005
▁référendaire	-11.7005
▁causé	-11.7005
▁gérant	-11.7005
▁poursuivi	-11.7006
▁consolidés	-11.7007
▁Ludovic	-11.7007
▁541-4	-11.7008
▁visuel	-11.7008
▁engage	-11.7008
douane	-11.701
Li	-11.7011
▁MAN	-11.7012
▁portés	-11.7013
Char	-11.7013
▁imposées	-11.7014
rectorat	-11.7017
éviter	-11.7017
▁remises	-11.702
▁échantillons	-11.7026
hor	-11.7028
▁Bernadette	-11.7038
▁aient	-11.704
émettre	-11.7045
▁excède	-11.7047
▁implantables	-11.705
6-5	-11.7053
▁attendus	-11.7055
2019	-11.706
▁assemblées	-11.7061
gor	-11.7065
13-8	-11.7069
ext	-11.7077
▁psycho	-11.7081
gramme	-11.7082
INSCRIPTION	-11.7085
exactitude	-11.7085
▁Varsovie	-11.7085
▁attendre	-11.7085
▁complétant	-11.7085
▁inchangé	-11.7085
▁valorisé	-11.7085
▁virologique	-11.7085
abandon	-11.7085
▁2015/15	-11.7085
rhino	-11.7085
Armor	-11.7085
▁PLA	-11.7086
▁convient	-11.7089
▁Celle	-11.709
▁apprécier	-11.709
▁UC	-11.7094
▁rappelant	-11.7095
Service	-11.7097
Valentine	-11.7099
CHON	-11.7103
Euro	-11.7103
▁manuel	-11.711
Cyrille	-11.7114
▁val	-11.7115
cat	-11.7118
CAT	-11.712
tine	-11.7121
ame	-11.713
▁principalement	-11.7132
▁Za	-11.7135
utter	-11.7137
NTI	-11.7142
▁Ass	-11.7143
CIA	-11.715
univers	-11.7152
TOIRE	-11.7154
CAM	-11.7161
▁identique	-11.7162
▁Rémi	-11.7162
▁visuelle	-11.7162
graphie	-11.7163
autoroute	-11.7163
RP	-11.7164
▁éducatives	-11.7165
▁Gustave	-11.7165
▁bricolage	-11.7165
▁commerciaux	-11.7165
▁impliqué	-11.7165
▁toléré	-11.7165
▁consigné	-11.7165
▁vitae	-11.7165
▁nautique	-11.7165
▁supervision	-11.7165
▁Yvonne	-11.7165
▁configuration	-11.7165
▁résistance	-11.7166
▁LOI	-11.7168
Orient	-11.7169
NAUD	-11.7171
▁règlementaires	-11.7174
▁ARMÉES	-11.7176
▁prescrites	-11.7178
RRE	-11.7179
organiser	-11.718
Sylvie	-11.718
Cyril	-11.7182
▁représentations	-11.7183
▁Marcelle	-11.7189
▁THI	-11.7189
▁estimée	-11.719
CEE	-11.7192
AMA	-11.7196
▁mandataires	-11.7196
▁706	-11.7197
▁acceptées	-11.7197
▁Magistrate	-11.7198
▁conditionné	-11.7203
41-5	-11.7211
▁recruté	-11.7215
▁formulées	-11.722
ERIE	-11.7221
▁aptitudes	-11.7232
ison	-11.7236
ancien	-11.7236
zon	-11.7239
lav	-11.724
▁Médecine	-11.7245
▁nettoyage	-11.7245
▁remplaçant	-11.7245
▁trajet	-11.7245
▁verticales	-11.7245
▁viscérale	-11.7245
▁pécuniaire	-11.7245
hydrogène	-11.7245
ièvre	-11.7245
océan	-11.7245
▁déterminant	-11.7246
▁visible	-11.7246
▁marche	-11.7246
▁alternatives	-11.7247
cin	-11.7253
▁réhabilitation	-11.7254
▁assurées	-11.7254
Ver	-11.7259
▁Danielle	-11.726
▁quai	-11.7265
▁intra	-11.7269
roche	-11.7275
▁trace	-11.7278
anti	-11.728
▁421-2	-11.7287
▁débute	-11.7288
▁pertinent	-11.729
ORT	-11.7291
▁atteintes	-11.7291
gy	-11.7292
▁prioritaire	-11.7293
OLI	-11.7294
UNI	-11.7295
▁accompagne	-11.7295
▁ressortissant	-11.7297
QUIN	-11.73
▁123-3	-11.7304
▁remplacer	-11.7308
▁parcs	-11.7309
Lise	-11.7309
▁propriétés	-11.7311
étudiants	-11.7314
▁présidé	-11.7321
ourd	-11.7322
▁identifiées	-11.7323
▁déplacer	-11.7327
▁flottant	-11.7327
▁participé	-11.7327
▁siégeant	-11.7327
▁témoin	-11.7327
▁Organismes	-11.7327
OYER	-11.7329
▁impacts	-11.7331
▁SC	-11.7332
▁Gabrielle	-11.7333
▁Renaud	-11.7334
▁utilise	-11.7335
laire	-11.7341
intention	-11.7344
notamment	-11.7344
»	-11.7344
exemption	-11.7345
▁lycées	-11.7352
▁directs	-11.7357
azi	-11.7361
▁OP	-11.7361
JO	-11.7362
▁fournie	-11.7364
▁6323-	-11.7365
yan	-11.7367
▁gares	-11.7368
▁Matthieu	-11.7368
Alexia	-11.7374
▁244	-11.7377
▁invité	-11.738
▁FOUR	-11.7384
▁masseur	-11.7384
▁ROCHE	-11.7385
Drôme	-11.7409
FONTAINE	-11.7409
▁Objet	-11.7409
▁acquitté	-11.7409
▁dénonciation	-11.7409
▁côte	-11.7409
▁négatif	-11.7409
Mehdi	-11.7409
▁russe	-11.7409
▁recevabilité	-11.7409
▁soumettre	-11.7409
▁reprendre	-11.741
oiseaux	-11.7411
AILLE	-11.7412
▁bancaires	-11.7415
épi	-11.7416
▁confirmé	-11.7418
▁allocations	-11.7418
RAUD	-11.7423
▁SOUS	-11.7424
▁prolongé	-11.7424
/2013	-11.7424
Virginie	-11.7427
courrier	-11.7427
émissions	-11.743
format	-11.743
Assas	-11.7431
UZE	-11.7436
vy	-11.7437
raud	-11.7441
omie	-11.7441
▁Arcueil	-11.7444
▁533-2	-11.7446
▁interdites	-11.7449
UZ	-11.7453
atifs	-11.7453
▁442	-11.7455
▁connect	-11.7461
▁311-3	-11.7462
▁actuelle	-11.7463
affaire	-11.7465
hl	-11.7467
▁reporter	-11.7469
5349	-11.7469
reau	-11.747
reuse	-11.747
▁affection	-11.7471
▁conc	-11.7472
▁circul	-11.7477
Qu	-11.7478
▁dépose	-11.748
▁notifiés	-11.7484
▁600	-11.7489
arbitrage	-11.7491
embauche	-11.7491
▁Catégorie	-11.7491
▁Secrétaire	-11.7491
▁contradictoire	-11.7491
▁délégataire	-11.7491
▁hectare	-11.7491
▁protéine	-11.7491
ajustement	-11.7491
▁tentative	-11.7491
▁chances	-11.7491
Lucile	-11.7493
▁adhérents	-11.7494
UFR	-11.7495
LOGL	-11.7495
dites	-11.7496
▁renforcé	-11.7496
▁Calvados	-11.7497
▁bail	-11.7499
Solène	-11.7499
▁Cho	-11.75
▁rétablissement	-11.7505
▁décrite	-11.751
neuf	-11.7511
équipage	-11.7511
impression	-11.7512
BAT	-11.7514
▁Gh	-11.7515
Po	-11.752
▁1965	-11.7531
RAND	-11.7532
▁MAU	-11.7535
chant	-11.7537
Sud	-11.7539
▁1970	-11.754
▁Action	-11.7541
Bois	-11.7544
FOR	-11.7545
▁restriction	-11.7547
▁substance	-11.7547
hôtel	-11.7554
▁hospitalières	-11.7559
GUI	-11.7559
nia	-11.756
ied	-11.7562
▁insérées	-11.7565
▁représenté	-11.7567
▁BRU	-11.7567
▁saisies	-11.7568
▁Hor	-11.7568
▁AG	-11.7569
kh	-11.7571
VIGNE	-11.7572
KI	-11.7572
▁caution	-11.7574
▁CNPMEM	-11.7575
▁Secrétariat	-11.7575
▁concevoir	-11.7575
▁destruction	-11.7575
▁excessif	-11.7575
▁inclut	-11.7575
▁légumes	-11.7575
▁méthodologie	-11.7575
▁possession	-11.7575
▁taxable	-11.7575
▁montagne	-11.7575
achet	-11.7575
▁prud	-11.7575
▁malade	-11.7575
EMBRE	-11.7575
▁rente	-11.7577
▁médiation	-11.7577
Sal	-11.7578
GUY	-11.7578
uma	-11.7579
▁milieux	-11.7579
NIE	-11.758
useo	-11.7582
ouch	-11.7583
Champagne	-11.7585
▁distincts	-11.7585
▁2007-19	-11.7585
▁exécuter	-11.7591
olle	-11.7592
▁84-5	-11.7593
▁Dor	-11.7596
det	-11.7597
institution	-11.7599
internationales	-11.7601
Guy	-11.7602
▁constituées	-11.7605
▁agente	-11.761
▁Montant	-11.7613
835	-11.7614
ollet	-11.7616
▁adressent	-11.7619
▁561-1	-11.7624
▁soumet	-11.7626
▁connu	-11.7629
▁Coll	-11.763
▁requérant	-11.7634
12°	-11.7634
▁Valentin	-11.7637
▁265	-11.764
Max	-11.7643
▁vari	-11.7644
enseigne	-11.7654
prêtés	-11.7656
▁731	-11.7658
INSEE	-11.7659
▁Nîmes	-11.7659
▁Séverine	-11.7659
▁criminelle	-11.7659
▁participatif	-11.7659
▁possède	-11.7659
▁spécificités	-11.7659
▁Crédit	-11.7659
▁listés	-11.7659
▁Composition	-11.7659
▁préférence	-11.766
Adeline	-11.766
arrondissement	-11.766
▁positionnement	-11.7661
▁2261-19	-11.7661
▁interdictions	-11.7662
▁THE	-11.7662
▁1225-	-11.7663
▁Gen	-11.7664
HAR	-11.7664
▁levée	-11.7665
▁consultées	-11.7669
Blanche	-11.7669
lette	-11.767
▁glaces	-11.7672
ordonnateur	-11.7676
ECOD	-11.7678
gard	-11.7681
gent	-11.7682
dri	-11.7685
▁Annick	-11.7686
▁CAS	-11.7687
mani	-11.7689
▁détachée	-11.7694
▁neuro	-11.7694
REY	-11.7694
éni	-11.7697
élaborer	-11.7698
▁Anna	-11.7699
▁1958	-11.7699
▁Ker	-11.7702
ppe	-11.7703
pel	-11.7703
▁GUILL	-11.7703
▁Ol	-11.7703
▁sécurisée	-11.7706
/2021-12	-11.7707
▁instrument	-11.7708
aya	-11.7717
▁joueur	-11.7717
▁généralement	-11.7718
▁Clémence	-11.772
▁refuser	-11.7722
▁limitations	-11.7722
▁produite	-11.7734
▁Henry	-11.7734
hier	-11.7736
▁accomplir	-11.7739
interrogation	-11.7743
▁Chirurgie	-11.7743
▁centraux	-11.7743
▁embarqué	-11.7743
▁holding	-11.7743
▁injectable	-11.7743
▁jouets	-11.7743
▁perçoivent	-11.7743
▁synthétique	-11.7743
▁Ainsi	-11.7743
▁CONSEIL	-11.7743
▁photographie	-11.7744
0000435186	-11.7744
▁5132-1	-11.7744
▁contestation	-11.7747
▁cotation	-11.7748
▁détenue	-11.7748
▁carrés	-11.7749
old	-11.7754
▁2020-172	-11.7755
IRE	-11.7761
5-6	-11.7762
Samuel	-11.7767
Grégoire	-11.7767
▁GÉNÉRALE	-11.7768
CHAMP	-11.7768
atoire	-11.777
Tous	-11.777
dro	-11.777
AST	-11.777
▁Gall	-11.777
▁ARS	-11.7771
rez	-11.7772
▁Tro	-11.7772
ours	-11.7777
▁212-3	-11.7779
▁135	-11.7779
▁bassins	-11.778
GRAND	-11.7783
▁bénéfices	-11.7795
▁expose	-11.7797
▁indicateur	-11.7799
▁chantiers	-11.78
▁dérogatoire	-11.7803
▁081	-11.7803
CES	-11.7805
▁FOU	-11.7808
▁prévisibles	-11.781
examiner	-11.7813
ji	-11.7815
▁143	-11.7821
iot	-11.7826
▁satisf	-11.7826
ouvrier	-11.7828
Félix	-11.7829
▁Acajou	-11.7829
▁Odette	-11.7829
▁défavorable	-11.7829
▁Demande	-11.783
▁immobilisations	-11.783
▁aspirants	-11.783
▁unions	-11.7832
▁éducatifs	-11.7833
Ou	-11.7836
abord	-11.7837
▁Mass	-11.7837
▁confiée	-11.7838
ète	-11.7841
▁choisies	-11.7841
▁complexes	-11.7843
▁latérales	-11.7844
iac	-11.7846
ado	-11.7849
▁canal	-11.785
animaux	-11.7854
▁fédérations	-11.7855
▁Dela	-11.7856
▁histoire	-11.7862
hom	-11.7863
Oc	-11.7865
▁blanc	-11.7867
▁Cyril	-11.787
▁quotas	-11.7877
▁accueillis	-11.7878
ajoute	-11.7879
chy	-11.7883
▁Yannick	-11.7887
▁affranchi	-11.7888
MAND	-11.7889
▁essentielles	-11.789
▁144	-11.7894
▁Sam	-11.7895
fer	-11.7896
▁Dom	-11.7898
/2021-10	-11.79
▁occurrences	-11.79
▁sollicit	-11.7902
▁statue	-11.7904
▁consécutives	-11.7904
▁directives	-11.791
assesseurs	-11.7911
onnier	-11.7912
▁Antilles	-11.7915
▁Donetsk	-11.7915
▁comptabilisé	-11.7915
▁hébergé	-11.7915
▁onzième	-11.7915
▁privilégié	-11.7915
▁souscription	-11.7915
▁suffrages	-11.7915
▁tampon	-11.7915
▁seringue	-11.7915
horizon	-11.7915
▁approuve	-11.7916
▁infections	-11.792
▁Prise	-11.792
encadrer	-11.7922
▁fort	-11.7923
TOR	-11.7923
abon	-11.7927
▁universel	-11.7929
gli	-11.7934
ordonnancement	-11.7935
Elisabeth	-11.7942
Guyane	-11.7942
▁rejets	-11.7946
Andre	-11.7954
▁auditeur	-11.7955
▁dangers	-11.7955
▁domestiques	-11.7956
▁MARC	-11.7964
▁LAN	-11.7973
▁financé	-11.7975
▁distincte	-11.7975
▁GOU	-11.7977
▁ambassadeur	-11.7978
▁ressource	-11.7978
▁terrestre	-11.7979
clair	-11.798
urne	-11.798
▁542	-11.7984
▁stratégies	-11.7988
▁PLAN	-11.7988
▁CP	-11.7992
▁graves	-11.7995
▁Outre	-11.8001
isolation	-11.8002
▁octies	-11.8002
▁posséd	-11.8002
▁quinquies	-11.8002
▁parlementaire	-11.8002
▁bailleur	-11.8002
▁partenariats	-11.8004
▁logis	-11.8005
▁établissent	-11.8006
bach	-11.8006
▁FRE	-11.8007
▁socle	-11.8014
plan	-11.8015
▁proportionné	-11.8019
ONI	-11.8021
eng	-11.8023
modalit	-11.8026
Alex	-11.803
Yannick	-11.803
lieutenant	-11.803
▁Brun	-11.8031
Avant	-11.8031
▁pertinents	-11.8033
Haut	-11.8037
▁006	-11.8039
▁3.1.	-11.8043
▁Bor	-11.8044
▁Ray	-11.8047
.7.	-11.8048
ioxyde	-11.8051
▁Magistrat	-11.8053
▁Prépa	-11.8055
▁Vol	-11.8056
▁validée	-11.8057
LARD	-11.8062
▁apporté	-11.8063
RAIN	-11.8066
▁réclamation	-11.8066
dal	-11.8066
éo	-11.8068
▁transférés	-11.8073
▁garanti	-11.8073
▁22,9	-11.8077
recrute	-11.8079
▁réglementées	-11.8083
HIN	-11.809
EXAMEN	-11.809
intensité	-11.809
▁JUSTICE	-11.809
▁agroalimentaire	-11.809
▁anniversaire	-11.809
▁plaisance	-11.809
▁protéger	-11.809
▁significatif	-11.809
▁structuré	-11.809
▁syndrome	-11.809
▁siéger	-11.809
▁Villeneuve	-11.809
▁levage	-11.809
▁632-2	-11.809
▁tierce	-11.809
▁septies	-11.8091
▁architecte	-11.8093
▁HAUTE	-11.8094
▁aérodromes	-11.8095
▁mobiliser	-11.81
▁Elie	-11.8101
uge	-11.8102
▁DO	-11.8103
COL	-11.8108
/2021-08-	-11.8109
▁Magali	-11.8109
▁Don	-11.8109
▁audiovisuelles	-11.8109
idé	-11.811
fondatrice	-11.811
LLI	-11.8112
▁commise	-11.8112
etti	-11.8118
conseil	-11.8121
CAMP	-11.8121
▁thématiques	-11.8133
Estelle	-11.8133
Aube	-11.8134
▁Lionel	-11.8134
▁Tar	-11.8136
por	-11.815
▁immobilières	-11.8154
▁problème	-11.8155
▁exécutoire	-11.8156
▁chimique	-11.8156
▁impression	-11.8158
▁GH	-11.816
▁théoriques	-11.8162
itre	-11.8167
card	-11.817
▁autorise	-11.8172
▁délimité	-11.8173
▁installée	-11.8175
eve	-11.8176
évènement	-11.8177
▁Lieutenant	-11.8178
laryngologie	-11.8178
▁humanitaire	-11.8178
▁hybride	-11.8178
▁libération	-11.8178
Vosges	-11.8178
▁Mireille	-11.8178
▁Crohn	-11.8178
▁281	-11.8179
croix	-11.8179
PF	-11.818
▁mieux	-11.8182
▁Bénédicte	-11.8183
▁Général	-11.8183
▁241-1	-11.8186
▁étudiante	-11.8186
LONG	-11.8191
▁inspections	-11.8195
TRES	-11.8199
fo	-11.82
▁32,4	-11.8205
▁transporteurs	-11.8205
▁GRE	-11.8207
titulaire	-11.821
FPF	-11.821
IENNE	-11.8215
Maur	-11.8218
thi	-11.8219
▁lots	-11.8221
▁Sar	-11.8222
max	-11.8225
▁calculées	-11.8226
sibilité	-11.8227
▁compagnies	-11.8229
▁Manon	-11.823
▁textiles	-11.8231
CHARD	-11.8232
▁indiquer	-11.8232
ime	-11.8234
ORS	-11.8235
▁Sabine	-11.8235
érie	-11.8238
▁adopte	-11.824
lais	-11.8245
▁accordés	-11.8245
SION	-11.8245
▁bovin	-11.8247
VENT	-11.8254
effort	-11.8266
013003	-11.8267
▁RÉPUBLIQUE	-11.8268
▁didactique	-11.8268
▁préserver	-11.8268
▁prévoyant	-11.8268
▁psychomotricien	-11.8268
▁tunnel	-11.8268
▁évidence	-11.8268
▁Document	-11.8268
diplomatie	-11.8268
▁opposable	-11.8268
RNCP	-11.8268
Ordre	-11.8268
▁durabilité	-11.8268
▁Frais	-11.8268
▁remédier	-11.8272
▁nos	-11.8274
arn	-11.8278
ung	-11.8282
nématographiques	-11.8282
pot	-11.8283
▁affiché	-11.8283
▁précités	-11.8284
▁sujétions	-11.8286
voi	-11.8287
▁prenantes	-11.829
ILLOT	-11.8292
▁graphiques	-11.8293
▁KA	-11.8296
▁informent	-11.83
▁aires	-11.83
améliorer	-11.8301
▁Ni	-11.8301
Anna	-11.8302
▁énoncés	-11.8303
▁334	-11.8305
Vienne	-11.8307
▁multiples	-11.831
▁adapter	-11.8311
▁constitués	-11.8323
▁exécuté	-11.8328
▁joindre	-11.8332
OUD	-11.8335
▁occupés	-11.8336
▁Lu	-11.8337
émie	-11.8337
.2.1	-11.8343
gier	-11.8345
▁chargement	-11.8345
▁échantillon	-11.8346
IEL	-11.8357
immigration	-11.8358
▁mécanicien	-11.8358
▁pondéré	-11.8358
▁rhumatologie	-11.8358
▁traduit	-11.8358
▁trajectoire	-11.8358
▁Domaine	-11.8358
▁sigle	-11.8358
▁muté	-11.8358
istant	-11.8359
▁satisfaction	-11.8359
▁Poste	-11.836
Espagne	-11.8362
GNE	-11.8362
échelonnement	-11.8368
▁622	-11.8369
▁Que	-11.8369
opposer	-11.8373
▁discrimination	-11.838
▁exécutoires	-11.8381
▁terrestres	-11.8383
▁Public	-11.8392
indiqué	-11.8392
radiologie	-11.8393
injection	-11.8393
Florent	-11.8395
▁1901	-11.8403
▁spécialistes	-11.8404
anda	-11.8414
45-1	-11.8421
IBR	-11.8424
▁251-1	-11.8425
▁assimilées	-11.8427
▁Lang	-11.8427
ministérielles	-11.8428
.2.2	-11.8433
▁mondial	-11.8438
▁affiliés	-11.8438
hir	-11.8438
verbaux	-11.8449
▁Bâtiment	-11.8449
▁Géraldine	-11.8449
▁vénéréologie	-11.8449
▁consistant	-11.8449
▁subdivision	-11.8449
Erwan	-11.8449
Aisne	-11.8449
▁DEMANDE	-11.8449
▁caporal	-11.8449
▁légère	-11.8449
▁rhumato	-11.8449
▁Moyen	-11.8453
Bains	-11.8453
▁Ph	-11.8454
▁SPORT	-11.8454
attache	-11.8455
▁déroulent	-11.846
▁ml	-11.8465
▁adéquate	-11.8474
dont	-11.8475
▁513-1	-11.8478
▁enregistrée	-11.8478
MARNE	-11.8481
▁contraventions	-11.8482
▁121-1	-11.8484
POL	-11.8485
▁Hé	-11.8491
ORD	-11.8492
MEL	-11.8493
▁Michelle	-11.8494
BERG	-11.8498
▁400	-11.8499
clo	-11.8506
ary	-11.8512
gna	-11.8513
▁0,4	-11.8518
▁standard	-11.852
▁Bonn	-11.8521
chercheur	-11.8521
Lou	-11.8525
▁installé	-11.8525
▁animales	-11.8526
▁compléments	-11.8527
▁dématérialisé	-11.853
▁84-1	-11.8532
.1.2.	-11.8534
ox	-11.8534
zer	-11.8534
implant	-11.8536
▁incombe	-11.8537
▁GEN	-11.8537
ball	-11.8537
acquérir	-11.854
interopérabilité	-11.854
▁antidopage	-11.854
▁blanchisserie	-11.854
▁endocrinologie	-11.854
▁fréquent	-11.854
▁hiérarchie	-11.854
▁mobilisé	-11.854
▁rugby	-11.854
▁ruraux	-11.854
▁scénario	-11.854
▁corporel	-11.854
▁PARTIE	-11.8541
▁clientèle	-11.8541
▁gratuitement	-11.8542
▁clé	-11.8544
▁gazières	-11.8544
▁diffus	-11.8545
▁créanciers	-11.8547
▁revient	-11.8547
Micha	-11.8548
▁dispenser	-11.8556
▁3131-1	-11.856
IES	-11.8561
communication	-11.8561
▁receveur	-11.8565
rey	-11.8572
▁municipal	-11.8574
▁prioritaires	-11.8574
Fanny	-11.8578
identifiant	-11.8579
accusé	-11.8579
▁retirée	-11.8581
ssier	-11.8582
▁Fou	-11.859
appareils	-11.8591
OLLE	-11.8592
zac	-11.8597
▁compose	-11.8599
▁aptes	-11.8601
osi	-11.8611
ECOE	-11.8612
ling	-11.8612
▁prévision	-11.8614
▁sapeur	-11.8615
égi	-11.8615
▁menées	-11.8616
ema	-11.8619
Gir	-11.862
aéronefs	-11.8625
NEAU	-11.8629
nault	-11.8631
illo	-11.8632
▁dispensation	-11.8633
▁inutile	-11.8633
▁taxation	-11.8633
▁urgente	-11.8633
▁vendu	-11.8633
▁inégalités	-11.8633
▁traction	-11.8633
▁CDG	-11.8633
▁hypothèses	-11.8635
▁dépendent	-11.8636
mane	-11.8637
▁consolid	-11.8638
0000	-11.8638
▁rattachée	-11.8646
ICHE	-11.8648
▁exclues	-11.8653
▁"7.	-11.8654
▁643	-11.8657
nf	-11.8657
▁Barb	-11.8658
253-3	-11.8658
▁courses	-11.8661
▁identiques	-11.8669
gre	-11.867
▁reçus	-11.8672
TURE	-11.868
appliqu	-11.8682
▁BRO	-11.869
▁Aline	-11.8691
électro	-11.8695
▁préfectorale	-11.8696
▁cesser	-11.87
EUIL	-11.8704
▁(75)	-11.8706
▁législative	-11.8709
▁contrôlés	-11.8711
▁transaction	-11.8712
▁partagée	-11.8712
▁moral	-11.8714
eh	-11.8717
▁innovant	-11.8719
caisse	-11.8721
teau	-11.8723
▁Terre	-11.8723
▁tiroirs	-11.8723
▁Côtes	-11.8723
▁Mag	-11.8726
Angélique	-11.8726
Eugénie	-11.8726
▁Eugène	-11.8726
▁Yvette	-11.8726
▁chèque	-11.8726
▁kilomètre	-11.8726
▁modificative	-11.8726
▁promouvoir	-11.8726
▁SECTION	-11.8726
▁cervico	-11.8726
▁silence	-11.8726
▁ÉPREUVES	-11.8726
pdf	-11.8727
▁proportionnelle	-11.8727
▁actionnaires	-11.8728
▁34009	-11.8728
intervalle	-11.8729
▁crues	-11.8731
▁tendant	-11.8731
▁3.2.	-11.8732
mbo	-11.8732
▁programmée	-11.8735
352	-11.8735
▁CAM	-11.8735
drone	-11.8738
▁162-16-	-11.874
Ré	-11.8741
examinateurs	-11.8743
Substitute	-11.8745
rois	-11.8745
▁découverte	-11.8747
▁FRA	-11.8748
▁recueille	-11.8749
LAIS	-11.875
Del	-11.8753
▁dépendance	-11.8759
femmes	-11.8761
▁441-1	-11.8762
▁Gué	-11.8762
▁FORMATION	-11.8763
issi	-11.8766
Morbihan	-11.8768
Edouard	-11.8768
Thérèse	-11.8768
externe	-11.8768
Gérard	-11.8768
vir	-11.8772
Paris	-11.8773
▁enregistrements	-11.8774
▁exigé	-11.8774
▁SAINTE	-11.8776
▁reporté	-11.8776
ILI	-11.8779
▁prescrits	-11.878
▁transférées	-11.8788
mba	-11.879
13-3	-11.8791
▁potentielle	-11.8796
▁tha	-11.8799
▁SAN	-11.8801
arbi	-11.8803
▁latérale	-11.8804
▁logicielle	-11.8805
▁constater	-11.8807
ELLES	-11.8809
duc	-11.8809
▁Basse	-11.8814
▁voisin	-11.882
▁Aurélien	-11.882
Gérald	-11.8821
Sèvres	-11.8821
▁Métropole	-11.8821
▁OFFICIERS	-11.8821
▁Paragraphe	-11.8821
▁difficile	-11.8821
▁métastatique	-11.8821
▁Octro	-11.8821
Margot	-11.8821
Coralie	-11.8821
Ardenne	-11.8821
Energie	-11.8821
entourage	-11.8822
▁conviennent	-11.8822
istées	-11.8823
▁Palais	-11.8823
Barbara	-11.8827
▁financées	-11.8829
lard	-11.8831
▁légalement	-11.8833
Cor	-11.8834
Nadia	-11.8835
▁CODE	-11.8838
LAY	-11.8838
▁licences	-11.8838
ok	-11.8841
▁indésirables	-11.8846
▁accompagner	-11.8849
▁compromett	-11.8859
trans	-11.8861
▁normalement	-11.8862
éventuel	-11.8864
Richard	-11.8864
▁anglais	-11.8865
▁complets	-11.8866
7-5	-11.8869
▁adoption	-11.8873
▁trouver	-11.8877
Sans	-11.8885
GH	-11.8885
▁PIERRE	-11.8895
▁Alia	-11.8898
▁forestiers	-11.8899
▁complexe	-11.89
Lot	-11.8901
22-6	-11.8905
apporter	-11.8908
BOURG	-11.8908
▁Jou	-11.8908
▁5.3	-11.8908
éron	-11.891
/2020	-11.8911
▁syndic	-11.8913
érique	-11.8914
▁Paule	-11.8915
diabétologie	-11.8916
▁2018/858	-11.8916
▁agronomique	-11.8916
▁archéologique	-11.8916
▁favorisant	-11.8916
▁reconversion	-11.8916
▁tolérance	-11.8916
▁végétaux	-11.8916
▁roulant	-11.8916
▁gardien	-11.8916
▁PDF	-11.8916
▁Suisse	-11.8916
▁implique	-11.8916
▁passible	-11.8916
▁progressive	-11.8916
▁Havre	-11.8917
Afrique	-11.8917
▁pourvu	-11.8917
▁Classe	-11.8917
▁écarts	-11.8919
IGNE	-11.8925
product	-11.8925
actionnaire	-11.8928
▁All	-11.8929
▁multipliée	-11.8929
ATT	-11.893
ordonner	-11.8931
▁réelles	-11.8932
▁copropriétaires	-11.8935
▁désignent	-11.8938
▁actualisée	-11.8938
▁Hugues	-11.8938
▁Cass	-11.8943
▁BLANC	-11.8943
▁forfaits	-11.8946
▁recevable	-11.8949
▁quand	-11.895
▁Alban	-11.8955
2005	-11.8957
▁162-31	-11.8957
AZA	-11.896
▁4.1.	-11.8964
▁communale	-11.8967
mart	-11.8974
(2)	-11.8976
▁vaccin	-11.8978
ROME	-11.8982
Hauts	-11.8986
▁exploiter	-11.8989
▁compli	-11.8997
▁titularisé	-11.8998
guet	-11.8999
nouvellement	-11.9
▁Mans	-11.9004
▁Tableau	-11.9006
▁habituel	-11.901
360	-11.901
▁climatiques	-11.9011
adalimumab	-11.9012
▁cédant	-11.9012
amiral	-11.9012
▁certifie	-11.9012
agenda	-11.9012
▁EMPLOIS	-11.9012
Kévin	-11.9012
▁indépendamment	-11.9012
▁ratification	-11.9012
Maxence	-11.9012
▁160-8	-11.9015
obsta	-11.9016
ivier	-11.9017
▁journaliste	-11.9018
▁pourvues	-11.9019
▁accepter	-11.902
▁spectacles	-11.9022
nalité	-11.9022
DIS	-11.9023
▁accomplies	-11.9026
▁sollicitée	-11.9027
▁oto	-11.9029
▁annulés	-11.9034
▁TOU	-11.9041
▁REM	-11.9042
▁BUR	-11.9043
émont	-11.9044
6-33	-11.9045
midi	-11.9049
GARD	-11.9049
bout	-11.9054
▁chirurgicale	-11.9059
Robert	-11.906
▁différent	-11.9066
▁Ci	-11.9069
▁Armand	-11.9073
lain	-11.9087
▁réservées	-11.909
▁messages	-11.9091
ssen	-11.9092
▁contr	-11.9093
BOT	-11.9096
iri	-11.9102
▁afférente	-11.9108
▁bordereau	-11.9109
XI	-11.9109
approuvant	-11.9109
▁axiale	-11.9109
▁gamètes	-11.9109
▁tropicales	-11.9109
▁cépage	-11.9109
▁déduit	-11.9109
▁accueillant	-11.9109
▁montage	-11.911
▁navale	-11.911
▁attester	-11.9111
▁naturelles	-11.9111
▁clairement	-11.9112
6.2	-11.9112
Ka	-11.9112
▁gazole	-11.9113
▁élevages	-11.9114
trac	-11.9115
▁ateliers	-11.9116
▁Définitions	-11.9118
Sylv	-11.9119
▁(5)	-11.9124
▁713-1	-11.9127
▁coordonner	-11.913
▁511-1	-11.913
▁euro	-11.9132
▁prochain	-11.9135
aucun	-11.9137
▁333-1	-11.914
▁cessionnaire	-11.914
▁TO	-11.9141
naud	-11.9146
▁plu	-11.915
▁Pic	-11.9156
Pro	-11.9156
▁régisseurs	-11.9163
▁43°	-11.9167
▁PC	-11.9169
hel	-11.917
▁exceptionnels	-11.9171
▁pont	-11.9176
régional	-11.9177
OLE	-11.9178
▁casier	-11.918
▁GER	-11.9182
▁pathologiques	-11.9183
▁réorganisation	-11.9184
▁Première	-11.9187
▁612-1	-11.9188
▁distinct	-11.9188
▁transfusion	-11.919
▁additionnelles	-11.9193
▁systémique	-11.9194
▁coopérative	-11.9194
▁Tur	-11.9195
13-5	-11.9202
conomie	-11.9203
▁entrer	-11.9205
Ardèche	-11.9207
Industrie	-11.9207
Ordonnance	-11.9207
▁Méthode	-11.9207
▁lucratif	-11.9207
▁réservoir	-11.9207
▁vélo	-11.9207
▁DOSSIER	-11.9207
▁péage	-11.9208
0000445902	-11.9208
▁prospective	-11.9208
▁confort	-11.9208
▁psoriasis	-11.9209
pierre	-11.921
urie	-11.921
▁2016/16	-11.921
HAL	-11.9213
▁ferroviaires	-11.9214
▁dédiés	-11.9217
systématiquement	-11.9217
▁Arthur	-11.9218
▁chroniques	-11.9219
▁personnalisé	-11.9219
fu	-11.9222
▁Aurore	-11.9223
▁huiles	-11.9223
▁réalisent	-11.9224
exprimer	-11.9225
▁Protection	-11.9227
▁clés	-11.9228
NÉ	-11.9229
275	-11.9229
▁6122-	-11.9235
▁Voie	-11.9239
▁mineures	-11.924
▁2.5.	-11.924
▁effectives	-11.9243
▁logistiques	-11.9245
▁fixent	-11.925
position	-11.9255
▁fédérale	-11.9258
adapter	-11.9258
Julia	-11.9258
▁organisationnel	-11.9267
▁Julia	-11.9267
IMP	-11.927
ETTI	-11.9272
assa	-11.9277
▁violences	-11.9279
▁exécutées	-11.9287
▁républicaine	-11.9299
▁finance	-11.93
exige	-11.9303
MERM	-11.9306
▁Covid	-11.9306
appuyant	-11.9306
oeuvre	-11.9306
échéancier	-11.9306
▁Physique	-11.9306
▁abîmé	-11.9306
▁biomasse	-11.9306
▁corvette	-11.9306
▁traduction	-11.9306
▁scellé	-11.9306
▁segment	-11.9306
▁TTC	-11.9306
▁tête	-11.9306
Entretien	-11.9307
HLM	-11.931
▁Acte	-11.9311
▁Mode	-11.9312
dra	-11.9314
Cass	-11.9316
ogne	-11.9317
▁CHI	-11.9319
LAC	-11.9324
▁anime	-11.9325
▁Han	-11.9327
▁anglaise	-11.933
(1°)	-11.9331
ADA	-11.9332
rap	-11.935
▁Rémy	-11.9352
IGP	-11.9352
▁SAPA	-11.9354
▁travailler	-11.9356
Disposition	-11.936
élu	-11.936
comb	-11.9361
▁Far	-11.9361
▁exprimées	-11.9364
has	-11.9365
nent	-11.9366
ETE	-11.9369
ORNE	-11.9388
▁locatif	-11.9395
▁ouvré	-11.9395
ley	-11.9395
▁mutations	-11.9406
rectificatif	-11.9406
émargement	-11.9406
▁idiopathique	-11.9406
▁poissons	-11.9406
▁pressing	-11.9406
▁précarité	-11.9406
▁reclassés	-11.9406
▁référencé	-11.9406
▁cuir	-11.9407
▁correcteurs	-11.9407
owski	-11.9408
Rachel	-11.9408
Fontaine	-11.9413
ANTS	-11.9416
▁Niveau	-11.942
▁COLL	-11.9426
meur	-11.9427
▁augmentation	-11.9428
▁saison	-11.9432
Elisa	-11.9434
▁Justine	-11.9435
COUR	-11.9436
atant	-11.9437
▁rattachées	-11.9437
guin	-11.9443
▁SAU	-11.9445
▁conducteurs	-11.9449
▁entraîner	-11.945
bois	-11.9452
Nicol	-11.9454
euxième	-11.946
Rémy	-11.9461
appartenant	-11.9462
Lionel	-11.9462
▁ratio	-11.9467
Alix	-11.9469
▁inflammables	-11.9473
▁confirm	-11.9474
aume	-11.9477
▁LUN	-11.9477
▁Grégoire	-11.9479
▁favorise	-11.9479
▁reçue	-11.9485
▁accessoire	-11.9497
▁014	-11.9497
▁NOTAIRE	-11.9498
▁rémunérés	-11.9499
alternative	-11.9506
Ahmed	-11.9507
affectant	-11.9507
orthoptiste	-11.9507
respiratoire	-11.9507
▁atmosphérique	-11.9507
▁dépouillement	-11.9507
▁entièrement	-11.9507
▁modulé	-11.9507
▁radioactifs	-11.9507
appendice	-11.9507
entraide	-11.9507
▁moderne	-11.9507
▁genre	-11.9508
Acheteur	-11.9508
▁allant	-11.9508
▁notion	-11.9508
▁"(1)	-11.9509
▁112-1	-11.9516
BONNE	-11.9516
▁contribuent	-11.9518
Go	-11.9525
▁correct	-11.9525
ULT	-11.9526
prêt	-11.9529
.2.3.	-11.953
blanc	-11.9531
IAC	-11.9531
▁Douai	-11.9532
▁verse	-11.9534
ILLER	-11.9535
▁rémunérée	-11.9535
▁finals	-11.9537
▁coup	-11.9541
AME	-11.9542
Rou	-11.9543
▁distinctes	-11.9544
▁connecté	-11.9544
DENIS	-11.9545
HON	-11.9547
▁envoyer	-11.9548
amendement	-11.9549
▁2.4.	-11.9553
▁Grande	-11.9553
VIL	-11.9559
zé	-11.9563
travail	-11.9564
Carole	-11.9565
▁Tre	-11.9566
▁démarrage	-11.957
▁majeures	-11.9579
▁Base	-11.9581
OIRE	-11.9584
▁313-2	-11.9585
▁sinistre	-11.9588
Substitut	-11.9589
VERT	-11.9591
▁Définition	-11.96
▁vacant	-11.96
Brice	-11.9602
▁Non	-11.9606
chaud	-11.9608
Victoire	-11.9609
appartenance	-11.9609
▁Muséum	-11.9609
▁concourent	-11.9609
▁homologuant	-11.9609
▁suisse	-11.9609
Aymeric	-11.9609
▁instruit	-11.9609
petits	-11.9609
▁575/2013	-11.9609
École	-11.9609
▁Filière	-11.9609
Métiers	-11.9609
onglet	-11.961
tti	-11.9611
ovich	-11.9613
ographique	-11.9614
EVANT	-11.9615
espèces	-11.9617
▁5121-12	-11.9618
▁déf	-11.962
▁6232-1	-11.9628
▁minier	-11.9628
▁Sp	-11.963
▁présentiel	-11.963
▁financés	-11.9637
UGE	-11.9641
▁nord	-11.9643
▁MARCH	-11.9645
▁Technicien	-11.9648
▁MAZ	-11.9653
usagers	-11.9654
▁repas	-11.9656
APE	-11.9656
PUY	-11.9668
adjoints	-11.9674
illac	-11.968
▁implantée	-11.9683
▁audits	-11.9687
▁décrits	-11.9693
Orne	-11.9701
▁immatriculée	-11.9704
IONS	-11.9705
▁contest	-11.9708
disciplinaire	-11.9711
Informatique	-11.9712
affiliation	-11.9712
iminution	-11.9712
▁2022-2023	-11.9712
▁Travail	-11.9712
▁associatif	-11.9712
▁chute	-11.9712
▁dégradé	-11.9712
▁facilitateur	-11.9712
▁manipulateur	-11.9712
▁psoriasique	-11.9712
▁successives	-11.9712
▁transbordement	-11.9712
hématologie	-11.9712
oxygène	-11.9712
▁voile	-11.9712
▁appartiennent	-11.9712
▁règlementation	-11.9713
▁Réalisation	-11.9713
▁Colmar	-11.9713
▁RCP	-11.9713
▁reversement	-11.9713
▁Marthe	-11.9713
▁Personnel	-11.9715
▁plage	-11.9723
ellement	-11.9725
-935	-11.9726
VY	-11.9731
▁XII	-11.9732
▁veillent	-11.9735
thy	-11.9737
Quel	-11.9742
ERRI	-11.9745
▁Evelyne	-11.9747
Bon	-11.9748
▁Font	-11.9753
▁provisions	-11.9753
bili	-11.9757
▁électro	-11.9766
▁formée	-11.9768
quota	-11.9774
Agnès	-11.9774
accéder	-11.9775
▁collaborateurs	-11.9778
▁semi	-11.9783
▁ponctuelles	-11.9787
▁rencontr	-11.9787
▁hospital	-11.9788
▁étape	-11.9791
▁CHATEAU	-11.9799
UBERT	-11.9803
▁débats	-11.9803
influen	-11.9804
▁Bla	-11.9805
▁géré	-11.9813
▁ROS	-11.9813
▁simultané	-11.9813
dentiste	-11.9813
Emploi	-11.9815
enceinte	-11.9815
ambassade	-11.9815
▁RÉGION	-11.9817
▁contemporain	-11.9817
▁diminué	-11.9817
▁littéraire	-11.9817
▁réserviste	-11.9817
Amaury	-11.9817
▁Option	-11.9817
Clarisse	-11.9817
▁GOUVERN	-11.9817
▁Travaux	-11.9817
▁VHC	-11.9817
mail	-11.9817
▁désinfection	-11.9817
▁Entreprises	-11.9817
▁anomalies	-11.9819
/437	-11.9819
▁FRANCE	-11.9821
ajoutent	-11.9823
▁350	-11.9824
ZO	-11.9827
▁carré	-11.9833
▁exigés	-11.9835
▁Guill	-11.9838
▁autrement	-11.9839
▁BAU	-11.9845
▁mains	-11.9846
▁Four	-11.9852
▁produites	-11.9854
ope	-11.9855
▁gène	-11.986
PITRE	-11.9863
Jouy	-11.9864
lam	-11.9875
▁validées	-11.9876
pres	-11.9879
Thé	-11.9879
Benoit	-11.988
Article	-11.9881
Alban	-11.9881
pharmaceutique	-11.9882
▁Guer	-11.9882
stat	-11.9886
affecte	-11.989
▁515-	-11.9892
▁Samuel	-11.9893
▁Tal	-11.9896
/2021-03-3	-11.99
▁sise	-11.9905
▁avocats	-11.9916
▁insuffisance	-11.9918
▁incidence	-11.9921
▁CHO	-11.9921
▁13/03/2017	-11.9922
▁Danièle	-11.9922
▁Monaco	-11.9922
▁SNCF	-11.9922
▁cynotechnique	-11.9922
▁jurisprudence	-11.9922
▁néphrologie	-11.9922
▁onéreux	-11.9922
▁prérogatives	-11.9922
▁typologie	-11.9922
▁trousse	-11.9922
▁mariée	-11.9922
21256	-11.9922
▁densité	-11.9922
▁diriger	-11.9926
▁Kh	-11.9928
▁MASS	-11.993
▁atelier	-11.9935
▁renoncer	-11.9938
▁partiellement	-11.994
▁SERVICES	-11.994
▁rechercher	-11.9944
▁significatives	-11.9954
articul	-11.9955
MAL	-11.9957
▁Compétences	-11.9958
▁5221-	-11.9959
▁contrôleuse	-11.9962
▁démonstration	-11.9963
▁retourné	-11.9963
▁Acc	-11.9964
asser	-11.9965
▁MAY	-11.9966
▁sages	-11.9967
▁PUY	-11.9967
MERT	-11.9968
odo	-11.9978
▁distributeurs	-11.9979
▁471	-11.998
▁6113-	-11.998
jours	-11.998
▁Em	-11.9982
▁Joséphine	-11.9986
Christelle	-11.9988
▁Chan	-11.9994
▁payés	-11.9994
▁322	-11.9995
▁Vendée	-12
assurent	-12.0001
22-9	-12.0001
▁BRA	-12.0001
▁EDF	-12.0004
▁Vanessa	-12.0008
lina	-12.0009
▁BRUN	-12.0009
▁Estelle	-12.0009
▁Sarthe	-12.0015
AUDE	-12.0016
▁génér	-12.0018
▁bonifications	-12.002
▁Hel	-12.0025
annonce	-12.0027
duction	-12.0027
ÉPREUVE	-12.0028
AASQA	-12.0028
Eléonore	-12.0028
▁Matériel	-12.0028
▁Nanterre	-12.0028
▁apposé	-12.0028
▁chancellerie	-12.0028
▁lésions	-12.0028
▁polyvalent	-12.0028
▁vœux	-12.0028
▁Belfort	-12.0029
▁évènements	-12.003
▁48°	-12.0035
▁Hy	-12.0036
▁représentent	-12.0041
▁proposent	-12.0044
▁visent	-12.0047
▁impartis	-12.0047
▁différente	-12.0049
avec	-12.0052
▁intégrer	-12.0053
essi	-12.0056
▁"8.	-12.0062
tome	-12.0064
CNR	-12.0069
itz	-12.0069
ANN	-12.007
▁touch	-12.0075
chon	-12.0079
vor	-12.0092
▁0,3	-12.0092
▁Fin	-12.0094
Sciences	-12.0097
Tarn	-12.0103
▁optique	-12.0103
ACT	-12.0106
▁survie	-12.0107
▁citoyens	-12.0107
Perr	-12.0111
▁immatriculés	-12.0115
gène	-12.0125
▁voit	-12.0125
avancée	-12.0125
▁CRO	-12.0127
▁471-1	-12.0131
▁facteur	-12.0133
▁ambulatoire	-12.0136
▁perçoit	-12.0136
ÉVALUATION	-12.0136
▁86-442	-12.0136
▁CONVENTION	-12.0136
▁convenance	-12.0136
▁régularité	-12.0136
▁sanguins	-12.0136
▁ventilé	-12.0136
▁94749	-12.0136
ASMR	-12.0136
▁Recherche	-12.0136
▁Etude	-12.0136
Autriche	-12.0136
▁finition	-12.0136
Gwena	-12.0136
▁minoré	-12.0136
exprim	-12.0136
▁renvoi	-12.0136
▁Bastia	-12.0136
ague	-12.0136
▁essences	-12.0136
▁revalorisation	-12.0137
▁LANG	-12.0139
▁démontrer	-12.014
Bel	-12.0142
▁justifications	-12.0143
Gautier	-12.0147
▁Voir	-12.0147
influence	-12.0148
▁régissant	-12.0155
GIE	-12.0158
nac	-12.0162
▁problèmes	-12.0163
▁GAL	-12.0166
esson	-12.0167
▁dérogatoires	-12.0168
affecter	-12.0169
Fi	-12.0172
OUZE	-12.0172
▁restreint	-12.0176
ZON	-12.0176
neuve	-12.0178
écoute	-12.0183
▁Bio	-12.0185
▁tabacs	-12.0187
sans	-12.0189
▁attribuer	-12.0191
▁chiffrée	-12.0192
▁131-3	-12.0199
▁123-2	-12.02
▁Bonne	-12.0203
acquitte	-12.021
jonction	-12.0211
▁1.1	-12.0218
▁rejetée	-12.0223
ouz	-12.0229
▁Micha	-12.0233
▁242-1	-12.0236
▁renforcée	-12.0238
▁décharge	-12.0241
cadastr	-12.0244
Mulhouse	-12.0244
Olivia	-12.0244
Rodolphe	-12.0244
abrogation	-12.0244
accession	-12.0244
▁Cayenne	-12.0244
▁Londres	-12.0244
▁Vendôme	-12.0244
▁illicite	-12.0244
▁indemnisé	-12.0244
▁renseigner	-12.0244
▁électronicien	-12.0244
▁signaux	-12.0244
▁survenance	-12.0244
▁VHB	-12.0244
▁lisible	-12.0244
Orientales	-12.0245
Tristan	-12.0245
▁Rey	-12.0246
script	-12.0254
▁Parc	-12.0254
▁estimé	-12.0256
▁adoptées	-12.0258
▁dispensées	-12.026
evant	-12.0262
lum	-12.0263
Loi	-12.0266
interface	-12.027
▁spécifiquement	-12.0282
▁CARRI	-12.0284
▁Mayenne	-12.0284
▁ouvrables	-12.0285
ELLO	-12.0285
▁53-1	-12.0291
Durand	-12.0297
▁décidé	-12.0301
amen	-12.0302
BARD	-12.0312
▁Air	-12.0314
▁séparée	-12.0316
Béatrice	-12.0318
système	-12.0318
▁rapporteurs	-12.032
▁Notaria	-12.0324
euro	-12.0327
UTC	-12.033
bilité	-12.0333
Beau	-12.0338
▁traite	-12.0344
▁réintégrée	-12.0345
▁Maud	-12.035
▁confiés	-12.0352
▁conçus	-12.0353
hem	-12.0354
▁Blessé	-12.0354
indisponibilité	-12.0354
épuration	-12.0354
▁Accueil	-12.0354
▁Déclaration	-12.0354
▁Déplacements	-12.0354
▁Evaluer	-12.0354
▁Logement	-12.0354
▁boîte	-12.0354
▁comptant	-12.0354
▁considère	-12.0354
▁découlant	-12.0354
▁manipulation	-12.0354
▁maréchal	-12.0354
▁musicale	-12.0354
▁méconnaissance	-12.0354
▁psychique	-12.0354
▁relever	-12.0354
▁suspect	-12.0354
▁étudié	-12.0354
spatial	-12.0354
▁cuisine	-12.0354
▁Gaston	-12.0354
▁forcée	-12.0354
▁soussigné	-12.0354
▁Dotation	-12.0354
▁162-1-7	-12.0355
articulation	-12.0357
▁largeur	-12.0357
▁définissent	-12.0358
▁posées	-12.036
formant	-12.036
▁km	-12.0361
ECOG	-12.0361
▁incidences	-12.0362
▁présidée	-12.0362
/2008	-12.0364
▁trouvent	-12.0364
▁232-9	-12.0366
1-25	-12.0367
▁CFP	-12.0367
stein	-12.0368
▁Loiret	-12.0369
▁occasionnel	-12.037
▁fasse	-12.0374
▁géo	-12.0375
▁nécessitent	-12.0376
▁Ur	-12.0377
try	-12.0384
RAULT	-12.0386
CLOS	-12.0392
▁001	-12.0399
▁CHAN	-12.0399
▁continuent	-12.0401
▁signaler	-12.0404
mond	-12.0405
aillard	-12.0408
▁explosifs	-12.0415
▁Vern	-12.0421
▁Cout	-12.0426
▁143-1	-12.0427
Maurice	-12.043
▁FAU	-12.0431
bot	-12.0432
▁original	-12.0435
▁125-1	-12.0437
▁conservateurs	-12.0439
▁anticipé	-12.0445
▁Maz	-12.0445
GIP	-12.0453
▁Bouch	-12.0457
asso	-12.046
▁couvertes	-12.0463
investigation	-12.0464
mble	-12.0464
INRAE	-12.0465
Mathias	-12.0465
Territoire	-12.0465
étanchéité	-12.0465
▁Ministre	-12.0465
▁Médicament	-12.0465
▁réclamée	-12.0465
▁usagés	-12.0465
▁télésoin	-12.0465
21258	-12.0465
21259	-12.0465
PUECH	-12.0465
immun	-12.0465
▁Opération	-12.0465
Roy	-12.0466
▁raccordé	-12.0466
▁Régie	-12.0466
▁CONTRAT	-12.0466
▁Notaire	-12.0467
▁citoyenne	-12.0468
vez	-12.0472
▁519-1	-12.0472
ubert	-12.0473
ORE	-12.0473
MRA	-12.0474
▁422-2	-12.0475
IGNON	-12.0482
bonne	-12.0487
▁rencontre	-12.0496
▁Cro	-12.0504
▁Berg	-12.0504
▁plateau	-12.0511
Mary	-12.0512
▁évaluée	-12.0515
▁jugée	-12.0517
gal	-12.0519
▁DOM	-12.0521
▁conçu	-12.0524
▁adéquat	-12.0525
▁refusée	-12.0528
▁connue	-12.0529
RAP	-12.0532
▁Rouss	-12.0533
stéro	-12.0534
5-8	-12.0536
▁détaillées	-12.0538
Col	-12.0541
intranet	-12.0543
Tom	-12.0545
▁Villa	-12.0547
internet	-12.0547
▁exempt	-12.0552
▁XIII	-12.0566
▁José	-12.0575
entrepreneur	-12.0578
effacement	-12.0578
▁Edmond	-12.0578
▁biomédecine	-12.0578
▁caméra	-12.0578
▁céramique	-12.0578
▁décollage	-12.0578
▁individualisé	-12.0578
▁multilatéral	-12.0578
▁plénière	-12.0578
▁recherché	-12.0578
▁représentatif	-12.0578
▁satellite	-12.0578
▁usagées	-12.0578
▁réfaction	-12.0578
Belgique	-12.0578
Martial	-12.0578
▁Sénat	-12.0578
▁NSF	-12.0578
▁CDC	-12.0579
▁douleur	-12.0579
▁trouble	-12.0579
▁science	-12.058
installateur	-12.058
▁proposant	-12.058
Pontoise	-12.0582
▁Antoinette	-12.0582
▁133-5-	-12.0583
▁612-3	-12.0583
▁4139-	-12.0584
▁barrière	-12.0585
▁maternelle	-12.0586
▁approfondi	-12.0587
Gui	-12.0592
valeur	-12.06
▁quotidien	-12.0605
▁apportée	-12.0609
▁171-1	-12.061
▁Angel	-12.0615
▁Tu	-12.0629
Bru	-12.0637
▁opérés	-12.0646
▁4.2.	-12.0646
▁DÉC	-12.0646
▁Cre	-12.065
Sami	-12.0657
bservatoire	-12.0658
▁prorogé	-12.0658
get	-12.0661
▁Vallée	-12.0661
▁aquatiques	-12.0669
BAUD	-12.0675
Ol	-12.068
PRO	-12.0689
incinération	-12.0691
▁Bibliothèque	-12.0691
▁Indemnité	-12.0691
▁olympique	-12.0691
▁pratiquant	-12.0691
▁produisant	-12.0691
▁télématique	-12.0691
écoulement	-12.0691
▁Gisèle	-12.0691
Cependant	-12.0691
▁unifiée	-12.0691
extraction	-12.0692
régisseuse	-12.0692
expéditeur	-12.0693
véite	-12.0694
▁circonstance	-12.0695
▁confier	-12.0695
orge	-12.0695
ANDRE	-12.0696
▁PLOU	-12.0702
▁intégrale	-12.0702
▁émett	-12.0703
PAUL	-12.0712
▁7504	-12.0719
▁interrompue	-12.0723
wen	-12.0726
raf	-12.0729
DECO	-12.073
▁Recrutement	-12.0733
ajout	-12.0737
oppos	-12.074
▁expérimentale	-12.074
▁Jam	-12.0742
▁1963	-12.0744
▁aéro	-12.0746
VAN	-12.0746
▁Dordogne	-12.0747
▁adoptée	-12.0749
▁constitutifs	-12.075
▁maxi	-12.0757
▁hyper	-12.0761
outils	-12.0761
▁reconduite	-12.0769
ting	-12.077
INRIA	-12.0775
approche	-12.0775
▁1123-	-12.0775
▁prochaine	-12.0776
▁conservé	-12.0781
▁myélom	-12.0785
Institution	-12.0786
ller	-12.0789
▁dimension	-12.0801
▁recens	-12.0801
contractant	-12.0805
aspirant	-12.0805
The	-12.0806
abattement	-12.0806
▁DIRECTION	-12.0806
▁RECRUTEMENT	-12.0806
▁Responsable	-12.0806
▁ankylosante	-12.0806
▁assermenté	-12.0806
▁confinement	-12.0806
▁inhérent	-12.0806
▁météorologie	-12.0806
▁quelconque	-12.0806
▁rattrapage	-12.0806
▁régulariser	-12.0806
▁Type	-12.0806
▁web	-12.0806
ÉDUCATION	-12.0807
▁radiologique	-12.0807
Assistant	-12.0809
▁consigne	-12.0811
▁tiroir	-12.0811
▁payées	-12.0811
▁PREMI	-12.0815
impartialité	-12.0815
▁désaccord	-12.0816
artisan	-12.0819
ivre	-12.0822
▁mono	-12.0823
▁2030	-12.0823
▁soc	-12.0826
porte	-12.0831
▁sollicité	-12.0839
▁Gau	-12.0844
IZE	-12.0844
▁chirurgiens	-12.0856
▁132-2	-12.0865
13-7	-12.0871
rch	-12.0874
▁empêcher	-12.0875
▁indispensables	-12.0882
informe	-12.0884
▁Er	-12.0884
▁425	-12.089
Meurthe	-12.0892
Sauf	-12.0892
économique	-12.0892
▁poursuit	-12.0894
Gro	-12.0896
Patrice	-12.0901
BEAU	-12.0906
long	-12.0909
SAR	-12.091
▁consenties	-12.0913
▁père	-12.0914
fection	-12.0918
▁2.2	-12.0918
▁6.1	-12.0919
ommissariat	-12.092
▁spécifi	-12.092
Ville	-12.0921
▁"9.	-12.0922
▁Eiffel	-12.0923
▁Inscription	-12.0923
▁couvrant	-12.0923
▁façade	-12.0923
▁navigabilité	-12.0923
▁positive	-12.0923
▁restitue	-12.0923
▁retentissement	-12.0923
▁ÉTABLISSEMENTS	-12.0923
LIE	-12.0923
▁transcri	-12.0923
▁Météo	-12.0923
▁interarmées	-12.0923
▁correctives	-12.0923
employé	-12.0924
▁neige	-12.0924
▁Poly	-12.0925
file	-12.0928
Zoé	-12.0928
▁Varenne	-12.0929
▁réalité	-12.0929
▁plants	-12.093
dentistes	-12.0931
▁condamné	-12.0934
▁avancées	-12.0937
urier	-12.0939
▁compenser	-12.0941
▁BTS	-12.0942
engager	-12.0944
▁004	-12.0946
▁mesurée	-12.0951
drh	-12.0953
GAR	-12.0954
MONTAGNE	-12.0955
Yonne	-12.0957
▁sud	-12.0967
▁guid	-12.0968
gel	-12.0972
▁242-	-12.0976
▁commercialisé	-12.0977
▁télépilotes	-12.0984
▁variant	-12.0985
metier	-12.0988
▁Activités	-12.0999
réponse	-12.1011
Marseille	-12.1012
jon	-12.1014
femme	-12.102
Finistère	-12.1022
▁Ram	-12.1027
jan	-12.103
GUET	-12.1035
IMI	-12.1035
▁Tunis	-12.1037
▁162-2	-12.1039
▁cinéma	-12.104
Caractéristiques	-12.104
Corrèze	-12.104
▁123-30-14	-12.104
▁Pyramide	-12.104
▁Quatre	-12.104
▁imputé	-12.104
▁procédant	-12.104
▁symptomatique	-12.104
▁thoracique	-12.104
▁dignité	-12.104
▁Sorbonne	-12.104
▁Principauté	-12.1041
aorte	-12.1041
Nelly	-12.1041
▁allée	-12.1041
▁recensement	-12.1041
▁Jacky	-12.1042
▁filiale	-12.1047
Hélo	-12.1049
▁XX	-12.1053
ignac	-12.1054
▁130	-12.1067
ova	-12.1077
isproportionnées	-12.1081
▁Lorraine	-12.1089
DIE	-12.1089
ssac	-12.109
▁575	-12.1092
▁pratiquée	-12.1096
21000	-12.1097
▁008	-12.1097
GIS	-12.1098
▁substitu	-12.11
BES	-12.1103
ENTS	-12.1115
ghi	-12.1115
▁124-1	-12.1117
▁intercommunal	-12.1118
▁GÉNÉRAL	-12.1125
▁taxis	-12.1127
intégrer	-12.1132
Hugues	-12.1132
Myriam	-12.1132
huissière	-12.1132
loy	-12.1141
▁MAG	-12.1148
▁envoyée	-12.1154
connaitre	-12.1159
authentification	-12.1159
élévation	-12.1159
▁SUPÉRIEUR	-12.1159
▁Sébastopol	-12.1159
▁ambiant	-12.1159
▁fracture	-12.1159
▁immobilisé	-12.1159
▁juvénile	-12.1159
▁ordonné	-12.1159
▁outillages	-12.1159
▁transparent	-12.1159
▁CANDIDAT	-12.1159
▁biocide	-12.1159
▁fermier	-12.1159
▁optionnelles	-12.1159
▁85-98	-12.1159
▁procréation	-12.1159
▁2019-147	-12.1159
androst	-12.1159
▁habituellement	-12.1159
Kevin	-12.116
▁opposé	-12.1163
PRES	-12.1164
Chez	-12.1166
▁Rec	-12.1166
verso	-12.1168
▁réunies	-12.1171
▁Dar	-12.1171
▁répartir	-12.1176
▁rendent	-12.1177
uk	-12.118
▁Unité	-12.1184
BRI	-12.1184
▁meubles	-12.1184
▁Pan	-12.1186
▁512-1	-12.1189
AOP	-12.1195
▁174-2	-12.1199
jour	-12.12
Adam	-12.1205
▁1905	-12.1213
ALD	-12.1215
tot	-12.1216
dine	-12.1226
21091	-12.1227
GRA	-12.1236
▁câbles	-12.1236
HET	-12.1243
Magali	-12.1254
suppléant	-12.1254
▁rémunéré	-12.1256
Hubert	-12.1256
horaire	-12.1268
▁Cinq	-12.1271
ARRA	-12.1276
▁préside	-12.1276
Jérémie	-12.128
▁Tchad	-12.128
▁génère	-12.128
▁mauvais	-12.128
▁stylo	-12.128
▁simplification	-12.128
▁Avec	-12.128
▁SPÉCIALITÉ	-12.128
▁541-9	-12.128
21245	-12.128
-1246	-12.128
▁baisse	-12.128
▁photothérapie	-12.128
21244	-12.128
Indien	-12.1281
▁minimaux	-12.1282
archiv	-12.1282
▁occasionné	-12.1283
▁axes	-12.1284
▁Barbet	-12.1285
▁CHAMB	-12.1288
▁réglementée	-12.1291
▁511-4	-12.1293
ILLIER	-12.1294
login	-12.1299
▁réfugiés	-12.1302
Karim	-12.1309
▁précis	-12.1315
▁fondamentales	-12.132
▁PROFESSIONNELLE	-12.132
procureur	-12.1326
▁XV	-12.1327
▁"11.	-12.1333
Sainte	-12.1335
Ex	-12.1344
▁remplie	-12.1344
HARD	-12.1347
angle	-12.1348
▁221-3	-12.1358
marin	-12.1358
Maria	-12.1366
OUCHE	-12.1366
90000	-12.1369
▁journal	-12.1371
▁matérielle	-12.1372
13-9	-12.1375
Occitanie	-12.1377
texte	-12.1378
▁compens	-12.1379
▁HEN	-12.138
▁affichée	-12.1381
▁mené	-12.1381
▁assiste	-12.1383
clusion	-12.1387
bac	-12.139
udi	-12.1394
▁mesurer	-12.1395
APPLICATION	-12.1402
▁RELATIF	-12.1402
▁bronze	-12.1402
▁complexité	-12.1402
▁conservatrice	-12.1402
▁fondamentaux	-12.1402
▁odontologiques	-12.1402
Rodrigue	-12.1402
Education	-12.1402
Sabrina	-12.1402
▁aviaire	-12.1402
▁SNIA	-12.1402
▁2324-3	-12.1402
▁promoteur	-12.1402
▁munitions	-12.1402
▁Régime	-12.1402
avertissement	-12.1402
SAZ	-12.1405
▁neutr	-12.1407
yp	-12.1408
▁ciblées	-12.1409
▁Hi	-12.1409
IGE	-12.1412
oise	-12.1417
▁611-1	-12.1417
▁Ob	-12.1421
▁2141-1	-12.1423
Agen	-12.1426
évi	-12.1435
nois	-12.1442
▁PEN	-12.1448
▁Wi	-12.1451
TARD	-12.1452
Sch	-12.1455
▁décidée	-12.1462
▁212-2	-12.1465
ouri	-12.1469
▁recouvre	-12.1471
SERRE	-12.1474
▁sélectionnés	-12.1479
▁diplômés	-12.1487
▁former	-12.1488
OLS	-12.1491
▁réexamen	-12.1497
noy	-12.1499
Jules	-12.1502
Karine	-12.1502
atelier	-12.1503
▁Sup	-12.1505
exécuter	-12.1508
afa	-12.1509
ecto	-12.151
▁emporte	-12.1522
Jennifer	-12.1525
Ophélie	-12.1525
Télécom	-12.1525
attractivité	-12.1525
incorporation	-12.1525
inflammatoire	-12.1525
▁15/09/201	-12.1525
▁batterie	-12.1525
▁panneaux	-12.1525
▁puéricultrice	-12.1525
▁pédagogie	-12.1525
▁radioactives	-12.1525
▁redressement	-12.1525
▁éliminé	-12.1525
Thibaud	-12.1525
▁domicilié	-12.1525
▁phyto	-12.1525
▁viandes	-12.1525
▁décompos	-12.1525
▁Jeannine	-12.1525
▁avait	-12.1525
▁Kunst	-12.1525
méthyl	-12.1525
▁respectifs	-12.1525
chaussée	-12.1525
▁Prénom	-12.1526
▁décoration	-12.1527
▁New	-12.1527
▁parvenue	-12.1528
▁DURAND	-12.1528
opportunité	-12.1528
▁termine	-12.1532
▁Henriette	-12.1535
appuyer	-12.1536
▁Aimé	-12.1539
9330	-12.1539
tard	-12.1541
▁perd	-12.1542
ignan	-12.1548
▁Kar	-12.1549
▁cage	-12.155
anu	-12.1552
René	-12.1555
JON	-12.1558
▁tend	-12.156
▁motorisés	-12.156
ij	-12.1569
ulin	-12.1578
▁alimenté	-12.1586
▁344	-12.1599
Voies	-12.161
alais	-12.161
jean	-12.1612
ué	-12.1614
▁séparé	-12.1614
SSAC	-12.1615
▁211-2	-12.1619
ERY	-12.1639
▁diffuse	-12.1644
▁exploite	-12.1644
ascenseur	-12.1649
Clotilde	-12.165
▁Attribution	-12.165
▁Participation	-12.165
▁Situation	-12.165
▁anesthésiste	-12.165
▁charbon	-12.165
▁combiné	-12.165
▁diligence	-12.165
▁licencié	-12.165
▁manuscrite	-12.165
▁phénomène	-12.165
▁relogement	-12.165
▁rythme	-12.165
▁récidive	-12.165
anatomie	-12.165
▁MINIST	-12.165
53-2	-12.165
▁labellisé	-12.165
▁rénale	-12.165
▁224-25-	-12.165
▁visibilité	-12.165
▁menant	-12.1651
21260	-12.1651
Astrid	-12.1651
FER	-12.1651
▁amendements	-12.1652
88009	-12.1652
▁vitro	-12.1653
ANRU	-12.1653
▁incombent	-12.1655
▁CCAG	-12.1656
▁222-2	-12.1656
▁audiovisuels	-12.1656
▁originale	-12.1659
▁mensuellement	-12.1662
▁artificielle	-12.1664
▁affilié	-12.1665
▁similaire	-12.1665
▁semestrielle	-12.1665
▁513-2	-12.1667
▁BOI	-12.1671
▁0,1	-12.1673
VERS	-12.1674
MOND	-12.1674
▁déterminent	-12.1676
▁commandeur	-12.1676
Chamb	-12.1679
Thu	-12.1693
riat	-12.1694
▁sélectionn	-12.1695
LIEU	-12.17
▁0,2	-12.1702
Albi	-12.1716
▁tiret	-12.1716
DIC	-12.1718
▁solides	-12.1718
▁Tor	-12.172
Rose	-12.1727
▁DGA	-12.1736
▁classée	-12.1739
zel	-12.1747
ENCES	-12.1747
quier	-12.175
▁"10.	-12.1752
▁733	-12.1753
INO	-12.1754
▁consenti	-12.1756
SOUS	-12.1756
Aurore	-12.1757
astreinte	-12.1757
Bretagne	-12.1757
calendrier	-12.1757
TRU	-12.1758
Terre	-12.176
rendu	-12.1761
▁cardio	-12.1763
▁162-1	-12.1764
▁0,0	-12.177
EEE	-12.177
exécute	-12.177
▁additionnel	-12.1772
▁GROUPE	-12.1777
COFRAC	-12.1777
efficience	-12.1777
empreinte	-12.1777
▁2019/2033	-12.1777
▁PROGRAMME	-12.1777
▁analytique	-12.1777
▁biologiste	-12.1777
▁confront	-12.1777
▁cumulatives	-12.1777
▁discriminatoire	-12.1777
▁interfère	-12.1777
▁météorologique	-12.1777
▁tissus	-12.1777
Andorre	-12.1777
▁Contenu	-12.1777
▁souvent	-12.1777
▁stabilis	-12.1777
▁Edith	-12.1777
fluor	-12.1777
platine	-12.1777
▁ménagers	-12.1777
▁imposer	-12.1777
Adèle	-12.1777
▁DIPL	-12.1778
▁MAISON	-12.1778
▁MICHEL	-12.1779
▁habituelles	-12.1779
opère	-12.1779
▁moyennant	-12.1782
▁catalogue	-12.1782
▁811-1	-12.1783
▁encourage	-12.1787
▁Age	-12.1788
▁ACADÉMIE	-12.179
▁consécutive	-12.1793
▁débat	-12.1794
ECOO	-12.1795
Gard	-12.1796
▁décompté	-12.1797
isser	-12.1799
▁coté	-12.18
▁723-1	-12.1803
GRE	-12.1807
internat	-12.1812
▁symptômes	-12.1812
▁legs	-12.1813
Cyr	-12.1816
oué	-12.1817
ologiques	-12.1819
SIGNA	-12.1822
▁voter	-12.1834
▁gaine	-12.1837
▁221-2	-12.1839
▁PK	-12.184
▁1955	-12.184
ELLA	-12.1842
▁pratiqué	-12.1845
ormis	-12.1852
▁conclut	-12.1855
Just	-12.1859
▁557	-12.1869
▁1435-	-12.1873
▁735	-12.188
mettre	-12.1884
Guillem	-12.1886
Inter	-12.1888
prévu	-12.1888
Serge	-12.189
plus	-12.1891
santé	-12.1892
▁engagé	-12.1893
compte	-12.1895
▁végétal	-12.1898
▁augmentée	-12.1901
▁traditionnel	-12.1905
Aveyron	-12.1905
Marjorie	-12.1905
VINCENT	-12.1905
restaurant	-12.1905
▁Installations	-12.1905
▁Macédoine	-12.1905
▁Prévention	-12.1905
▁Recommandations	-12.1905
▁doctorant	-12.1905
▁hémorragique	-12.1905
▁préemption	-12.1905
▁répété	-12.1905
▁sanguine	-12.1905
▁viticole	-12.1905
▁451-8	-12.1905
▁ROUSSEL	-12.1905
▁DKC	-12.1905
▁exiger	-12.1905
archivage	-12.1907
▁valoriser	-12.1907
colite	-12.1907
▁4451-1	-12.1908
▁vision	-12.1908
▁psychosocial	-12.1911
▁existent	-12.1916
inger	-12.1917
FOND	-12.1917
▁421-3	-12.1918
▁évoluer	-12.1922
21049	-12.1923
▁variété	-12.1923
of	-12.1924
▁retraités	-12.1934
▁cumulable	-12.1938
21145	-12.1942
▁prorogée	-12.1943
▁consentie	-12.1946
▁1,5	-12.1947
CHATEL	-12.1967
hiver	-12.1969
▁BELLE	-12.1975
CAPES	-12.1976
Sara	-12.1977
Esther	-12.1979
SAN	-12.198
LOG	-12.1982
▁développe	-12.2007
▁5112-1	-12.2008
international	-12.2012
NAF	-12.2012
▁spécifié	-12.2023
▁patrimonial	-12.2028
réalablement	-12.203
▁Sab	-12.2033
atmosphère	-12.2035
interlocuteur	-12.2035
podologue	-12.2035
▁Chambéry	-12.2035
▁Ressources	-12.2035
▁Suivi	-12.2035
▁combinaison	-12.2035
▁continental	-12.2035
▁distingue	-12.2035
▁incorporé	-12.2035
▁remarque	-12.2035
▁tertiaire	-12.2035
▁volontariat	-12.2035
▁émérite	-12.2035
LAURENT	-12.2035
▁Conservatoire	-12.2035
▁diamètre	-12.2035
agissements	-12.2035
▁provoqu	-12.2035
▁saillant	-12.2035
▁transposition	-12.2035
▁MENTION	-12.2035
▁souffr	-12.2035
▁Mesures	-12.2036
Maud	-12.2036
▁6324-3	-12.2036
▁SOCI	-12.2036
▁543-2	-12.2038
▁séparément	-12.2038
▁aéroports	-12.2039
▁apports	-12.204
▁filles	-12.2042
▁plantation	-12.2042
▁préinscrire	-12.2044
élément	-12.2048
▁Paulette	-12.2049
Arc	-12.2051
▁million	-12.2055
▁réorientation	-12.2058
▁Active	-12.2061
vaux	-12.2062
cutanée	-12.2064
▁courte	-12.2066
IRM	-12.2066
COSTE	-12.2069
▁0,8	-12.2073
▁431-1	-12.2073
▁amélior	-12.2079
1232	-12.2082
Nous	-12.2083
boul	-12.2084
▁statuer	-12.2085
ZIN	-12.2088
▁162-22-1	-12.2092
GOT	-12.2092
Marin	-12.2093
▁Ceux	-12.2095
▁consacré	-12.2103
▁couverte	-12.211
ECON	-12.211
Van	-12.2115
▁162-22	-12.2128
▁Raymonde	-12.2131
▁CONTR	-12.2132
Pay	-12.2141
▁Porte	-12.2146
ouve	-12.215
CHEV	-12.2151
usager	-12.2152
Corinne	-12.2152
abattage	-12.2166
étiquetage	-12.2166
▁Critères	-12.2166
▁Pièce	-12.2166
▁Téléphone	-12.2166
▁compassionnel	-12.2166
▁concubin	-12.2166
▁disposé	-12.2166
▁inclure	-12.2166
▁incomplète	-12.2166
▁soupçon	-12.2166
▁toiture	-12.2166
▁transformé	-12.2166
afferm	-12.2166
▁Cergy	-12.2166
▁déroger	-12.2166
écologie	-12.2166
▁artisanale	-12.2167
remorque	-12.2167
▁BERNARD	-12.2167
ZAC	-12.2168
OCDE	-12.2169
burg	-12.2169
▁augmenté	-12.217
▁Lucienne	-12.2171
▁TROD	-12.2173
▁fortement	-12.2174
▁sollicitent	-12.2176
ouvrir	-12.2179
export	-12.2182
suiv	-12.2184
▁nominale	-12.2188
GUIN	-12.2188
▁supportés	-12.2191
▁additionnelle	-12.2191
▁Gri	-12.2191
▁BIO	-12.2193
91002	-12.2194
▁Gros	-12.2199
▁Lorient	-12.2199
▁Obligations	-12.2202
FIN	-12.2203
chin	-12.2205
UIT	-12.2207
▁NATIONAL	-12.2217
PCR	-12.2224
▁contrôlé	-12.2225
▁Baud	-12.2228
▁doute	-12.223
main	-12.2235
▁caractérisée	-12.224
▁CERTIFICAT	-12.224
1-5.	-12.2241
Pascale	-12.2245
trée	-12.2246
ométrie	-12.2246
voy	-12.2252
▁garant	-12.2255
droit	-12.226
▁collecteur	-12.2264
▁formalis	-12.2267
cap	-12.2271
interprétée	-12.2279
▁écoulé	-12.2283
▁évit	-12.2284
issu	-12.2286
Suppléant	-12.2287
Régis	-12.2287
CAG	-12.2287
Mayotte	-12.2287
connexion	-12.2288
outil	-12.229
ENSEIGNEMENT	-12.23
observateur	-12.23
quatorzième	-12.23
▁Médaille	-12.23
▁encourue	-12.23
▁guichet	-12.23
▁menuiserie	-12.23
▁quantitative	-12.23
▁recourant	-12.23
▁récupéré	-12.23
▁succursal	-12.23
▁marqué	-12.23
Emeline	-12.23
▁aortique	-12.23
ouff	-12.23
▁CNRS	-12.23
▁CHARGES	-12.23
▁PEPS	-12.23
abus	-12.2301
▁Prescriptions	-12.2301
▁surgelé	-12.2302
▁6232-	-12.2302
▁interrégionaux	-12.2303
▁acomptes	-12.2303
Ronan	-12.2303
▁claire	-12.2303
▁accueillies	-12.2305
échantillonnage	-12.2306
onville	-12.2307
interne	-12.2309
▁portion	-12.2309
▁remplacent	-12.2309
enheim	-12.231
/2006	-12.2311
/2009	-12.2311
php	-12.2311
▁interventionnel	-12.2314
▁servie	-12.2316
▁Ban	-12.2321
▁Pierrette	-12.2322
▁forestier	-12.2323
OUTRE	-12.2324
▁Principes	-12.2328
GAL	-12.2334
SSAA	-12.2336
ello	-12.234
bord	-12.2343
▁reconduit	-12.2344
kin	-12.2349
▁expliqu	-12.2349
Maroc	-12.2351
▁totalement	-12.2352
franc	-12.2361
ouk	-12.2364
▁conçue	-12.2366
▁maîtriser	-12.2371
0-9	-12.2372
▁insuffisant	-12.2374
ibert	-12.2376
COP	-12.238
▁AINS	-12.239
▁mesuré	-12.2402
gny	-12.2406
▁131-2	-12.2407
0.00	-12.2408
AGRE	-12.241
GUEN	-12.2418
GNOL	-12.2418
grain	-12.2419
ffaires	-12.2419
Renaud	-12.2424
chambres	-12.2425
imagerie	-12.2425
▁manquant	-12.2428
▁posé	-12.2429
▁démontre	-12.2429
Environnement	-12.2435
▁négociant	-12.2435
Capucine	-12.2435
apprenant	-12.2435
étanercept	-12.2435
▁CFTR	-12.2435
▁Conception	-12.2435
▁EHPAD	-12.2435
▁Nouméa	-12.2435
▁Prestations	-12.2435
▁Référentiel	-12.2435
▁addictologie	-12.2435
▁cohérent	-12.2435
▁consommables	-12.2435
▁convoque	-12.2435
▁dexaméthasone	-12.2435
▁délibérer	-12.2435
▁implicite	-12.2435
▁impossible	-12.2435
▁pathogène	-12.2435
▁plomb	-12.2435
▁sexies	-12.2435
▁signification	-12.2435
▁téléchargé	-12.2435
▁corrigé	-12.2435
▁métallique	-12.2435
▁dérogé	-12.2435
▁hasard	-12.2435
Avignon	-12.2435
cellulaire	-12.2435
▁présélection	-12.2435
Blandine	-12.2435
▁86-10	-12.2435
Session	-12.2435
OACI	-12.2435
harmonisation	-12.2435
▁Mention	-12.2435
▁carnet	-12.2436
▁Eliane	-12.2436
Laurine	-12.2437
IOT	-12.2441
8-7	-12.2441
imposent	-12.2442
emprunteur	-12.2444
▁intérimaire	-12.2445
▁NORD	-12.245
▁débuté	-12.2452
▁tablette	-12.2457
Croix	-12.2459
▁procèdent	-12.246
▁Esp	-12.246
QUIER	-12.2465
doux	-12.2465
éma	-12.247
▁diffuser	-12.247
champ	-12.2471
▁163-2	-12.2474
▁78-1	-12.2483
2-1-1	-12.249
▁DOR	-12.2496
▁diffusée	-12.2498
▁rapportée	-12.2502
SKI	-12.251
ssou	-12.2516
AGES	-12.2517
oit	-12.2518
▁Mines	-12.2519
fé	-12.2519
▁désign	-12.2519
▁équipée	-12.2525
emport	-12.2528
AMO	-12.2538
PROFESSIONNELLES	-12.2539
▁présumée	-12.2544
géni	-12.2546
▁condamnée	-12.2558
Calvados	-12.2563
homologation	-12.2563
Adresse	-12.2563
octobre	-12.2563
République	-12.2563
XII	-12.2568
install	-12.2568
▁supervis	-12.2571
Ghislain	-12.2572
▁immunosuppress	-12.2572
▁pédicure	-12.2572
FranceAgriMer	-12.2572
Geoffroy	-12.2572
Mamoudzou	-12.2572
Mélissa	-12.2572
Stanislas	-12.2572
ajournement	-12.2572
interprète	-12.2572
▁Adjoint	-12.2572
▁Construction	-12.2572
▁Dispositif	-12.2572
▁Statut	-12.2572
▁conchyliculture	-12.2572
▁croisement	-12.2572
▁distinguant	-12.2572
▁dégradation	-12.2572
▁encadrant	-12.2572
▁inhibiteur	-12.2572
▁recyclé	-12.2572
▁scolarisés	-12.2572
▁trésorier	-12.2572
▁urbaniste	-12.2572
interieur	-12.2572
▁grève	-12.2572
▁revue	-12.2572
▁Talents	-12.2572
Eglise	-12.2572
▁bilatérale	-12.2572
▁THOMAS	-12.2572
▁1121-1	-12.2572
▁fournissant	-12.2572
▁Liliane	-12.2572
▁cyber	-12.2572
▁Chambre	-12.2572
▁labiles	-12.2572
▁122-5	-12.2573
▁Pasteur	-12.2573
▁autotests	-12.2573
▁ROBERT	-12.2573
▁gardé	-12.2573
▁notable	-12.2573
DMARD	-12.2573
▁ACCOR	-12.2574
▁Alger	-12.2574
▁déchargement	-12.2576
▁troupeaux	-12.2581
mot	-12.2583
▁verte	-12.2583
accompagner	-12.2585
IGNAC	-12.2585
21064	-12.259
▁2231-1	-12.259
▁offert	-12.2592
21072	-12.2597
21025	-12.2597
▁aquatique	-12.2599
Garnier	-12.2603
▁immatriculé	-12.261
arge	-12.2611
21030	-12.2612
▁équi	-12.2618
▁décor	-12.2622
▁Taux	-12.263
Cheval	-12.264
▁effectuera	-12.2643
▁ciblé	-12.2645
▁jugé	-12.2647
amin	-12.2647
▁servi	-12.2651
ssard	-12.2654
▁constante	-12.2658
52-4	-12.2663
Roch	-12.2665
▁meilleur	-12.2668
▁0,6	-12.2677
▁314-2	-12.268
7-9	-12.2688
▁personnalisée	-12.2694
ROCHE	-12.2695
chev	-12.2696
incidence	-12.2703
Bénédicte	-12.2703
rubrique	-12.2704
arpentier	-12.2711
atterrissage	-12.2711
▁déclenchement	-12.2711
▁manufacturés	-12.2711
▁projection	-12.2711
▁quatorze	-12.2711
▁virement	-12.2711
▁locative	-12.2711
▁opter	-12.2711
▁entretenu	-12.2711
▁urologie	-12.2711
▁Agents	-12.2711
▁Montreuil	-12.2711
▁stable	-12.2711
▁injecté	-12.2712
▁relais	-12.2712
▁rencontrées	-12.2712
▁Exploitation	-12.2713
▁radiographique	-12.2713
▁retourner	-12.2714
▁emballages	-12.2714
▁caractérisation	-12.2715
ZIT	-12.2716
oxy	-12.2717
Francis	-12.2723
tout	-12.2729
21047	-12.2733
▁sanctionnée	-12.2733
▁polyarthrit	-12.2734
feu	-12.2736
THIER	-12.2737
21018	-12.2741
Claud	-12.2744
▁matérialis	-12.2762
étant	-12.2767
5-2,	-12.2769
gaz	-12.2772
▁CAST	-12.2772
érat	-12.2775
adou	-12.2785
▁123-4	-12.2788
▁Dia	-12.2803
▁GALL	-12.2804
▁film	-12.281
incitation	-12.2815
ONNIER	-12.2822
▁intervenu	-12.2825
RIQUE	-12.2825
▁FAL	-12.2827
▁Castel	-12.283
BOUR	-12.2844
architecte	-12.2846
joint	-12.2846
équivalent	-12.2846
bulletin	-12.2847
greffe	-12.2847
avril	-12.2847
efficient	-12.2847
orthophoniste	-12.285
▁8.1	-12.2851
Formulaire	-12.2852
Lefebvre	-12.2852
Tanguy	-12.2852
extrémité	-12.2852
▁NATUREL	-12.2852
▁Notification	-12.2852
▁Sécurité	-12.2852
▁acceptable	-12.2852
▁architectural	-12.2852
▁coordinateur	-12.2852
▁exécutif	-12.2852
▁humide	-12.2852
▁législatif	-12.2852
▁pondération	-12.2852
▁prescrire	-12.2852
▁spécimen	-12.2852
▁fonctionnalités	-12.2852
▁06301300	-12.2852
▁corticothérapie	-12.2852
offrir	-12.2852
▁descendant	-12.2852
▁parentalité	-12.2853
▁Melun	-12.2853
autrui	-12.2853
▁Langue	-12.2853
▁Rochelle	-12.2853
▁chien	-12.2854
▁assistent	-12.2856
▁divisé	-12.2856
ERON	-12.2856
▁intéressées	-12.2858
auss	-12.2859
charge	-12.2861
▁acquisitions	-12.2864
▁résistant	-12.2864
▁BOS	-12.2868
IFICATION	-12.2873
ANNÉE	-12.2878
▁prévisible	-12.2882
▁graphique	-12.2882
▁lauréat	-12.2883
Op	-12.2884
ESSON	-12.2884
GY	-12.2888
▁Enfin	-12.289
▁104-3	-12.2891
▁Roque	-12.2895
▁342-1	-12.2903
inp	-12.2917
▁1959	-12.292
▁chiffré	-12.292
▁162-23-	-12.2925
▁immédiat	-12.2929
52-6	-12.2929
21015	-12.2948
▁CORN	-12.2948
SEL	-12.2952
Marina	-12.2955
▁précédée	-12.296
▁répartie	-12.2962
▁prolonge	-12.2962
REZ	-12.2971
Tour	-12.2972
devenir	-12.2973
▁simplifié	-12.2974
encours	-12.2978
via	-12.2982
▁considér	-12.2983
▁prérempli	-12.2984
▁Générale	-12.2986
optimis	-12.2989
officiel	-12.2992
allemand	-12.2992
▁apatrides	-12.2994
0/09/2020	-12.2994
ENFiP	-12.2994
Enseignement	-12.2994
▁APPLICABLE	-12.2994
▁Alfred	-12.2994
▁Candidat	-12.2994
▁Courriel	-12.2994
▁Paralympiques	-12.2994
▁TITULAIRE	-12.2994
▁coproduction	-12.2994
▁cérébral	-12.2994
▁facilement	-12.2994
▁méthanisation	-12.2994
▁méthodologique	-12.2994
▁quinzième	-12.2994
▁terminaux	-12.2994
▁ukrainien	-12.2994
▁blessé	-12.2994
▁maquette	-12.2994
Ingénieur	-12.2994
esprit	-12.2994
▁gestes	-12.2995
Lozère	-12.2995
▁parution	-12.2995
▁sanctionnant	-12.2996
▁mutualisation	-12.2996
▁2020/12	-12.2996
▁SYST	-12.2997
moteur	-12.3004
▁2324-1	-12.3005
▁périodiquement	-12.3005
Romane	-12.3005
▁cotis	-12.3006
Port	-12.3007
donnees	-12.3018
▁3111-	-12.302
trois	-12.3022
▁732	-12.3024
21340	-12.3031
▁Tré	-12.3036
▁Aide	-12.3038
otti	-12.304
ouge	-12.3043
Malo	-12.3046
▁exposées	-12.3049
▁MOREAU	-12.3057
▁généralisation	-12.3064
▁coupe	-12.3066
▁314-3	-12.3073
Annecy	-12.3073
bault	-12.3083
▁5121-1	-12.309
Floriane	-12.3093
OMS	-12.3099
interentreprises	-12.3101
Steve	-12.3103
UILLE	-12.3107
ZOU	-12.3111
.3.2.	-12.3114
EMA	-12.3116
▁533-4	-12.313
Perrine	-12.313
OLO	-12.3133
Patricia	-12.3139
Connaissance	-12.3139
insuline	-12.3139
▁Plateforme	-12.3139
▁boucherie	-12.3139
▁posologie	-12.3139
▁structuration	-12.3139
▁stupéfiants	-12.3139
▁plainte	-12.3139
▁Chapelle	-12.3139
▁sénateur	-12.3139
▁flotte	-12.3139
▁MHz	-12.314
▁reconstitution	-12.314
dentaire	-12.314
▁232-23-3-	-12.314
sky	-12.3141
▁2021-376	-12.3141
VERN	-12.3141
▁Chargé	-12.3141
▁campus	-12.3142
point	-12.3143
▁Boris	-12.3143
▁démocratie	-12.3144
▁Analyser	-12.3144
▁combat	-12.3145
▁prioritairement	-12.3146
▁feux	-12.315
.4.1.	-12.3151
orienter	-12.3155
▁aidé	-12.3157
▁empêch	-12.3158
▁Micheline	-12.3162
▁noté	-12.3164
rave	-12.317
technique	-12.3173
place	-12.3174
▁conservateur	-12.3174
▁formalité	-12.3175
▁loisir	-12.3178
SEN	-12.3182
péri	-12.3182
agisse	-12.3193
▁Qui	-12.3195
VOIE	-12.3195
▁publier	-12.3195
Gon	-12.3197
▁passerelle	-12.3198
▁menée	-12.3202
▁Zo	-12.3218
▁Bade	-12.3238
ogo	-12.3239
ssement	-12.324
ouquet	-12.3254
▁supplé	-12.3277
titia	-12.328
▁Officie	-12.328
▁Bern	-12.3282
▁précède	-12.3283
GLEMENT	-12.3286
entreposage	-12.3286
intelligen	-12.3286
introduire	-12.3286
▁Papeete	-12.3286
▁Période	-12.3286
▁Tarifs	-12.3286
▁Volailles	-12.3286
▁discussion	-12.3286
▁harcèlement	-12.3286
▁latitude	-12.3286
▁moniteur	-12.3286
▁préfiguration	-12.3286
▁quarantaine	-12.3286
▁spectre	-12.3286
▁vulnérables	-12.3286
▁émoluments	-12.3286
▁Secteur	-12.3286
▁démographique	-12.3286
▁paix	-12.3287
▁2124-6	-12.3287
▁béton	-12.3287
▁ECTS	-12.3287
Normandie	-12.3288
ampus	-12.3289
▁viol	-12.3289
▁concourt	-12.3289
▁exonérations	-12.329
bureau	-12.3293
▁humain	-12.3294
▁SIMON	-12.3297
Opéra	-12.3299
QUER	-12.3302
▁murs	-12.3302
▁attendues	-12.3302
21097	-12.3303
▁actualisé	-12.3306
21036	-12.331
▁1221-2	-12.3317
▁541-10-1	-12.3321
examinateur	-12.3324
▁pathologique	-12.3324
▁calendaire	-12.3324
▁THO	-12.3327
écriture	-12.3328
▁consacr	-12.333
Ariane	-12.3331
amine	-12.3334
▁626-3	-12.3334
Dup	-12.3334
▁trop	-12.3338
Bresse	-12.3348
▁conservée	-12.3353
▁1964	-12.3353
.1.3.	-12.3355
▁INTER	-12.3356
▁1956	-12.3359
île	-12.3362
ouze	-12.3362
evich	-12.3377
▁strict	-12.339
XXX	-12.3401
▁dirige	-12.3406
▁Bout	-12.3412
Flore	-12.3423
étroit	-12.3424
oix	-12.3435
▁Yvon	-12.3435
américain	-12.3436
izumab	-12.3436
▁CICTA	-12.3436
▁Mathématiques	-12.3436
▁Présentation	-12.3436
▁défaillant	-12.3436
▁expiré	-12.3436
▁impérieux	-12.3436
▁numérisée	-12.3436
▁pétitionnaire	-12.3436
▁réciproque	-12.3436
▁régler	-12.3436
▁tuberculose	-12.3436
▁évolutive	-12.3436
Geoffrey	-12.3436
inflation	-12.3436
▁accède	-12.3436
▁battant	-12.3436
Yohan	-12.3436
▁CNSP	-12.3436
HUMIRA	-12.3436
▁restée	-12.3436
▁serveur	-12.3436
augmenter	-12.3436
Célia	-12.3436
▁rassemblement	-12.3436
▁COMMUNES	-12.3436
▁langage	-12.3436
▁cube	-12.3437
▁détiennent	-12.3437
▁échu	-12.3437
Peuvent	-12.3439
▁rembourser	-12.344
▁inclusif	-12.3441
▁rédiger	-12.3441
explication	-12.3441
gestion	-12.3444
▁spécifiées	-12.3446
▁déchargée	-12.3446
▁préremplie	-12.3447
21153	-12.3448
▁Place	-12.3449
▁Eco	-12.346
▁Mala	-12.3461
▁SYN	-12.3464
21032	-12.347
▁citoyen	-12.3471
Manche	-12.3471
Code	-12.3476
otariaux	-12.3477
▁1142-	-12.3481
▁7501	-12.3492
tain	-12.3492
reuil	-12.3493
▁311-4	-12.3495
▁0,9	-12.3496
Flavie	-12.3499
▁1907	-12.3506
ANJ	-12.351
▁CHEN	-12.3521
▁bras	-12.3528
ref	-12.3534
▁VAU	-12.3542
▁CIE	-12.3547
▁revêtu	-12.355
région	-12.3561
natura	-12.3564
▁évolu	-12.3566
lian	-12.357
vu	-12.3575
Amine	-12.3576
fense	-12.3586
immunité	-12.3586
▁récapitul	-12.3587
Matthias	-12.3587
▁Bobigny	-12.3587
▁COMPÉTENCES	-12.3587
▁LCSQA	-12.3587
▁Répartition	-12.3587
▁divulgation	-12.3587
▁glycémie	-12.3587
▁infectieux	-12.3587
▁mucoviscidose	-12.3587
▁organisant	-12.3587
▁parachute	-12.3587
▁privative	-12.3587
▁renonciation	-12.3587
▁simulation	-12.3587
Dimitri	-12.3587
▁légitime	-12.3587
▁spondyl	-12.3587
▁franchissement	-12.3587
▁Josette	-12.3587
88007	-12.3587
▁crime	-12.3587
▁terminé	-12.3588
▁démontré	-12.3588
▁Transport	-12.3588
ampleur	-12.3588
▁Germaine	-12.3588
▁normalisation	-12.3589
▁Francine	-12.3589
colonelle	-12.359
▁baie	-12.359
▁modifient	-12.3591
département	-12.3592
▁compromettre	-12.3592
▁joignant	-12.3593
insuffisance	-12.3593
▁FICHE	-12.3593
éducatif	-12.3593
Albert	-12.3594
Outre	-12.3594
▁toile	-12.3597
▁bâties	-12.3602
titre	-12.3605
▁432-1	-12.3606
▁cru	-12.3611
▁indiquent	-12.3612
▁Médi	-12.3615
▁7557	-12.3621
Att	-12.3623
immobilisation	-12.3624
21189	-12.3624
▁Prime	-12.3625
urin	-12.3626
▁délimitée	-12.3628
▁162-5	-12.3628
▁taxi	-12.3629
▁violence	-12.3629
▁fractionné	-12.3632
rolles	-12.3635
Ham	-12.3636
▁GIL	-12.3637
UVRE	-12.3643
2000).	-12.3645
▁exact	-12.3647
▁PAC	-12.3648
▁Salon	-12.3649
usine	-12.3652
▁111-2	-12.366
▁Sor	-12.3662
▁réunir	-12.3665
OUVE	-12.3672
▁Cab	-12.3675
istique	-12.3677
21019	-12.3689
Marcel	-12.3691
amateur	-12.3691
estime	-12.3706
▁pronon	-12.3709
▁assume	-12.3719
ULLE	-12.372
arbre	-12.373
▁modifie	-12.3731
eyre	-12.3732
amortissement	-12.3739
individu	-12.3741
adaptant	-12.3741
anticipation	-12.3741
appréhender	-12.3741
exigibilité	-12.3741
impératif	-12.3741
incertitude	-12.3741
éloignement	-12.3741
▁Bruxelles	-12.3741
▁Dunkerque	-12.3741
▁Lougansk	-12.3741
▁Surveillance	-12.3741
▁TOULOUSE	-12.3741
▁alternatif	-12.3741
▁chaussure	-12.3741
▁distanciation	-12.3741
▁fiscaux	-12.3741
▁ordinateur	-12.3741
▁originaux	-12.3741
▁réfère	-12.3741
▁transférer	-12.3741
▁argumenté	-12.3741
▁objective	-12.3741
▁qualitative	-12.3741
▁résilié	-12.3741
▁sectoriel	-12.3741
MEDEF	-12.3741
▁Lydie	-12.3741
▁chevaux	-12.3741
▁franco	-12.3741
▁nominatif	-12.3741
▁7343-1	-12.3741
21282	-12.3741
▁GROUPEMENT	-12.3741
21251	-12.3741
Jordan	-12.3741
assises	-12.3741
▁Internet	-12.3742
Régine	-12.3742
Antonin	-12.3742
▁fractionnement	-12.3742
▁Branch	-12.3743
ADEME	-12.3743
MWh	-12.3743
▁242-21	-12.3743
▁Emplois	-12.3743
▁hypothèques	-12.3744
▁stockés	-12.3746
incident	-12.3748
VERGNE	-12.3748
régisseur	-12.3749
Chantal	-12.3749
▁242-17	-12.375
structure	-12.375
CCF	-12.375
▁doyen	-12.3752
▁413-7	-12.3755
21246	-12.3756
gnol	-12.376
▁Petites	-12.376
pétit	-12.3764
Bert	-12.3766
mari	-12.3767
▁411-1	-12.3768
21349	-12.3769
▁confirmer	-12.3771
2021-03-30	-12.3773
écrit	-12.3776
ENNES	-12.3779
▁Jura	-12.3784
▁essentielle	-12.3786
▁cessent	-12.3788
PSI	-12.379
osité	-12.3791
Loiret	-12.3797
uck	-12.3803
echt	-12.3807
▁assimilée	-12.3807
▁RÉP	-12.3808
▁143-2	-12.3808
hol	-12.3811
21321	-12.3817
▁passager	-12.3817
▁BORD	-12.3821
SSEL	-12.3823
▁Kha	-12.3824
▁3142-1	-12.3825
ETAM	-12.3832
oulard	-12.3843
Arg	-12.3847
▁rappelé	-12.3848
.4.2.	-12.385
▁incit	-12.3859
Laye	-12.386
1-6.	-12.3861
▁syndical	-12.387
.1.4.	-12.3878
▁joign	-12.3892
▁paie	-12.3895
Extension	-12.3897
accouchement	-12.3897
ancrage	-12.3897
infliximab	-12.3897
intempéries	-12.3897
▁détenant	-12.3897
▁faisabilité	-12.3897
▁metformine	-12.3897
▁multimédia	-12.3897
▁préambule	-12.3897
▁restrictives	-12.3897
▁taekwondo	-12.3897
▁acheminé	-12.3897
Yoann	-12.3897
Syrie	-12.3897
▁drogues	-12.3897
▁fumée	-12.3897
▁fauteuil	-12.3897
21284	-12.3898
enseignementsup	-12.3898
opérer	-12.3898
▁articulaire	-12.3898
▁Ghislaine	-12.3898
▁06402200	-12.3898
89010	-12.3898
▁programmés	-12.3898
▁franchise	-12.3898
▁modestes	-12.3899
[...]
