<unk>	0
<s>	0
</s>	0
▁de	-3.03115
'	-3.25647
,	-3.42531
.	-3.7225
▁	-3.84439
▁la	-3.86161
▁l	-3.86322
▁du	-3.90993
s	-4.05751
▁et	-4.10611
▁des	-4.15228
▁à	-4.27543
▁d	-4.28529
▁les	-4.60363
▁le	-4.64682
-	-4.73216
▁au	-4.77803
▁en	-4.79923
▁(	-4.81512
▁:	-4.88916
▁;	-5.01778
▁«	-5.10142
▁est	-5.103
▁par	-5.11491
—	-5.26604
/	-5.29136
▁ou	-5.34891
)	-5.37433
▁L	-5.45182
▁dans	-5.46186
article	-5.48133
▁pour	-5.54966
e	-5.69864
▁aux	-5.70074
▁M	-5.70517
▁sont	-5.76978
▁Le	-5.81487
▁»	-5.82899
▁Mme	-5.87251
▁un	-5.9175
▁2023	-5.96913
▁sur	-6.01498
).	-6.02335
),	-6.07786
A	-6.07962
▁une	-6.09772
▁Les	-6.10935
▁1	-6.14702
er	-6.15158
un	-6.20004
▁arrêté	-6.20217
▁qui	-6.23306
▁présent	-6.23933
▁ministre	-6.25306
▁La	-6.35295
▁code	-6.3553
▁A	-6.35545
une	-6.39236
▁n	-6.39301
▁date	-6.42064
▁R	-6.44853
▁que	-6.50522
▁ainsi	-6.54685
▁fr	-6.54928
°	-6.5669
lr	-6.58452
es	-6.63179
▁portant	-6.72785
▁services	-6.76353
▁a	-6.77104
▁être	-6.77822
r	-6.78067
▁mots	-6.78609
▁Arrêté	-6.7925
arrete	-6.81144
▁titre	-6.81326
▁D	-6.81539
▁alinéa	-6.83516
S	-6.83552
▁dispositions	-6.83822
▁C	-6.84172
▁décret	-6.8582
▁I	-6.87236
▁2	-6.87649
ment	-6.89538
▁sécurité	-6.90962
▁conditions	-6.92176
▁cas	-6.93172
▁République	-6.95131
▁française	-6.95254
▁leur	-6.95307
▁ne	-6.95318
▁son	-6.95454
▁avec	-6.96363
▁sera	-6.99354
▁sous	-7.00334
▁ce	-7.00695
▁Par	-7.00923
▁pas	-7.02164
▁général	-7.0229
▁nationale	-7.02736
▁ans	-7.0369
▁1°	-7.05553
▁2023,	-7.06331
Etat	-7.06896
▁s	-7.07271
▁officiel	-7.07672
▁compter	-7.08739
▁Au	-7.11217
▁générale	-7.11692
▁3	-7.11741
▁décembre	-7.12259
▁2°	-7.127
▁formation	-7.13178
▁directeur	-7.13258
▁chargé	-7.13846
▁II	-7.14208
▁peut	-7.1425
▁santé	-7.1464
▁Journal	-7.14666
administration	-7.15388
de	-7.16182
près	-7.16602
▁P	-7.18721
é	-7.20249
▁service	-7.21631
arrêté	-7.21714
▁dont	-7.23643
▁qu	-7.23784
a	-7.24501
▁B	-7.24989
▁professionnelle	-7.25439
▁<	-7.25947
>	-7.25962
TABLE	-7.26042
▁publié	-7.2734
il	-7.27993
1	-7.28802
▁-	-7.29001
▁travail	-7.29011
▁même	-7.30193
▁4	-7.30627
▁durée	-7.32538
2	-7.331
▁Il	-7.33341
▁ses	-7.33974
▁sa	-7.34079
D	-7.34594
▁demande	-7.35177
ant	-7.35679
▁concours	-7.35821
▁Pour	-7.36309
cette	-7.36357
▁relatif	-7.38151
l	-7.38525
▁janvier	-7.40002
▁il	-7.40102
▁plus	-7.4207
▁sociale	-7.42093
▁5	-7.42653
▁candidats	-7.43717
▁articles	-7.45005
C	-7.45544
▁application	-7.45591
▁6	-7.46794
▁professionnel	-7.47983
▁premier	-7.48098
▁En	-7.48162
▁ministère	-7.48165
▁b	-7.48378
t	-7.48399
▁susvisé	-7.49071
▁ces	-7.4941
▁entre	-7.49786
▁juillet	-7.49917
▁société	-7.49919
▁modifié	-7.50338
▁se	-7.50718
3	-7.5208
▁prévues	-7.52245
5	-7.52885
▁national	-7.5332
▁S	-7.5341
▁liste	-7.54268
▁CHU	-7.54659
▁qualité	-7.55274
▁chef	-7.57486
exécution	-7.57533
▁Paris	-7.57887
▁finances	-7.5793
▁personnes	-7.5888
T	-7.59166
▁après	-7.59834
▁III	-7.59925
▁compte	-7.60398
▁DE	-7.60743
▁c	-7.61715
▁publique	-7.61956
▁septembre	-7.62043
6	-7.62336
▁publics	-7.63304
▁7	-7.634
▁mise	-7.63462
nt	-7.637
▁3°	-7.63932
▁Marie	-7.64145
9	-7.64261
▁21	-7.6427
le	-7.64308
H	-7.64569
▁juin	-7.64601
▁non	-7.64691
8	-7.65035
▁cadre	-7.65263
▁novembre	-7.65428
4	-7.65462
▁justice	-7.65745
▁avril	-7.66095
▁direction	-7.66176
▁mars	-7.66328
application	-7.66535
▁classe	-7.66752
▁nomination	-7.67011
▁suivantes	-7.67247
7	-7.67371
▁dossier	-7.67744
ou	-7.67789
▁deux	-7.68225
E	-7.68511
▁peuvent	-7.68651
▁candidat	-7.69037
▁12	-7.69213
▁tous	-7.69576
▁médecine	-7.70094
▁31	-7.70654
▁mai	-7.70792
▁octobre	-7.70996
M	-7.71101
▁montant	-7.71599
n	-7.71727
au	-7.72429
▁public	-7.72473
B	-7.72479
▁Art	-7.72619
▁mois	-7.73136
▁V	-7.73345
en	-7.73559
▁modalités	-7.73823
année	-7.74567
▁F	-7.7459
▁fonctions	-7.74609
▁février	-7.7481
c	-7.75244
▁recherche	-7.75988
0	-7.77042
▁30	-7.77492
▁gestion	-7.77565
▁»,	-7.77619
▁convention	-7.7849
▁2022	-7.78514
▁moins	-7.78563
d	-7.79098
▁10	-7.79718
▁fonction	-7.8058
▁conseil	-7.81077
et	-7.81302
▁titulaire	-7.82335
▁août	-7.82589
▁œuvre	-7.82666
▁remplacés	-7.82899
in	-7.83352
u	-7.83552
▁contrôle	-7.83598
▁civile	-7.83983
▁15	-7.8421
▁France	-7.84668
▁9	-7.84677
▁notaire	-7.84743
mer	-7.84937
▁doit	-7.85701
▁13	-7.85795
▁mentionnées	-7.86152
N	-7.86249
▁chaque	-7.86357
exercice	-7.86422
▁leurs	-7.86614
▁19	-7.86686
231	-7.87131
232	-7.87732
▁11	-7.87818
▁comptes	-7.87831
▁conformé	-7.88571
▁charge	-7.88914
230	-7.89377
y	-7.89394
re	-7.8977
▁supérieur	-7.89826
est	-7.8993
▁président	-7.90244
▁20	-7.90504
▁22	-7.90564
▁8	-7.907
évaluation	-7.90966
▁numérique	-7.91025
o	-7.91581
▁compétences	-7.91934
▁loi	-7.9213
▁notamment	-7.92742
▁section	-7.9311
▁Conseil	-7.93134
▁cours	-7.93212
▁T	-7.93279
▁selon	-7.93354
▁mentionnés	-7.93633
ci	-7.93827
G	-7.94083
▁rédigé	-7.94163
▁nombre	-7.94241
▁G	-7.94289
enseignement	-7.94472
▁corps	-7.95056
▁IV	-7.95305
I	-7.95732
P	-7.95947
▁données	-7.96973
▁17	-7.97019
▁2024	-7.97573
▁23	-7.97694
▁personne	-7.97787
▁membres	-7.97865
▁tout	-7.98159
▁sein	-7.98185
▁16	-7.98523
▁».	-7.98643
inscription	-7.99762
▁grade	-7.99878
▁Jean	-8.00106
▁outre	-8.00296
▁avant	-8.00622
économie	-8.00789
ette	-8.01344
▁situation	-8.01408
▁remplacé	-8.02056
▁comme	-8.02153
annexe	-8.02194
intérieur	-8.02237
ation	-8.02824
▁si	-8.02825
▁article	-8.02896
▁fin	-8.02922
▁règlement	-8.03223
▁14	-8.03469
▁droit	-8.03587
▁délai	-8.03634
▁souveraineté	-8.04086
▁techniques	-8.04424
▁Dans	-8.0552
▁certificat	-8.05702
▁trois	-8.05986
▁prise	-8.0605
F	-8.0614
R	-8.06142
établissement	-8.06878
▁bureau	-8.07152
▁prévue	-8.07306
i	-8.07549
▁H	-8.07826
▁Ce	-8.07963
ur	-8.0817
▁4°	-8.08319
▁concerne	-8.084
▁mentionnée	-8.08414
▁épreuves	-8.08445
▁Saint	-8.08814
▁annexe	-8.09264
▁voie	-8.09313
▁échéant	-8.09616
▁fixant	-8.0971
▁2023.	-8.1031
▁deuxième	-8.10779
▁25	-8.10903
▁été	-8.11016
▁activités	-8.11021
L	-8.11092
▁limite	-8.11196
▁judiciaire	-8.11213
objet	-8.11612
▁nom	-8.11662
▁24	-8.11704
▁mentionné	-8.12067
▁période	-8.12145
▁niveau	-8.12651
▁E	-8.12791
▁28	-8.12957
épreuve	-8.13499
▁soit	-8.13502
▁collective	-8.13691
▁ayant	-8.13788
▁chargés	-8.13905
▁vigueur	-8.14354
emploi	-8.14415
▁ANNEXE	-8.14715
information	-8.15004
▁18	-8.153
▁ci	-8.15595
activité	-8.15821
▁réserve	-8.15993
▁27	-8.16036
▁affaires	-8.16213
▁commission	-8.16408
▁travaux	-8.16496
accord	-8.16624
al	-8.17016
▁traitement	-8.17082
énergie	-8.17421
▁présente	-8.17566
cret	-8.17796
▁%	-8.18211
ent	-8.18264
▁26	-8.18315
ensemble	-8.18328
▁sans	-8.18559
és	-8.18656
▁agents	-8.18838
▁représentant	-8.19118
V	-8.19297
▁chacun	-8.19418
▁membre	-8.19477
▁partie	-8.1958
g	-8.20147
▁établissements	-8.20437
▁Décret	-8.20663
▁référence	-8.20688
▁relatives	-8.20774
▁opérations	-8.21223
▁lieu	-8.21256
ra	-8.21305
▁industrielle	-8.21353
▁Un	-8.21789
▁produits	-8.21827
▁informations	-8.21866
f	-8.2191
▁recrutement	-8.21974
▁site	-8.2207
fr	-8.22154
accès	-8.22224
▁résidence	-8.22592
▁applicables	-8.22903
▁nature	-8.22924
▁centre	-8.22989
▁mission	-8.23222
▁police	-8.23425
m	-8.23552
eau	-8.24079
▁publiques	-8.24289
▁première	-8.2433
▁autres	-8.24461
▁droits	-8.24627
▁contrat	-8.2572
▁projet	-8.26136
à	-8.26428
▁commissaire	-8.27059
▁Elle	-8.27151
▁protection	-8.27836
▁2021	-8.28248
éducation	-8.2826
organisation	-8.28307
la	-8.2841
aide	-8.28795
▁chapitre	-8.29117
▁hors	-8.2919
▁heures	-8.29203
an	-8.29224
▁fait	-8.29439
▁«-	-8.29552
▁directrice	-8.29601
▁mot	-8.29797
▁actes	-8.29926
or	-8.29928
▁responsabilité	-8.30088
age	-8.30444
organisme	-8.30464
▁partir	-8.30531
mi	-8.3174
▁garde	-8.32215
▁défense	-8.32274
▁29	-8.32535
▁jusqu	-8.32658
▁électronique	-8.33037
▁délégué	-8.33277
▁doivent	-8.33758
▁prévention	-8.33758
p	-8.33762
▁nommé	-8.34195
▁tard	-8.34212
▁€	-8.3433
environnement	-8.34828
▁N	-8.35136
▁ressources	-8.35571
▁faire	-8.35694
▁retraite	-8.35795
▁production	-8.36334
▁re	-8.36362
▁également	-8.36425
▁respect	-8.3655
▁zone	-8.3663
▁technique	-8.36696
examen	-8.36876
▁tableau	-8.37344
▁“	-8.38191
▁prévu	-8.38315
it	-8.39546
▁toute	-8.39796
▁rapport	-8.40667
▁matière	-8.40731
ne	-8.40862
▁mis	-8.41055
▁suivant	-8.41282
▁gaz	-8.41558
▁publication	-8.4169
▁région	-8.41692
▁personnel	-8.41845
▁décision	-8.42108
▁ré	-8.42312
▁nommée	-8.42458
▁relevant	-8.42799
b	-8.42822
UE	-8.43568
▁sceaux	-8.43587
▁effet	-8.43663
▁inter	-8.44997
▁lorsque	-8.45095
▁dernier	-8.45283
▁place	-8.45372
▁règles	-8.45461
v	-8.45519
▁entreprises	-8.45726
▁tribunal	-8.45789
▁compris	-8.46105
▁suivante	-8.46355
▁suivi	-8.46356
▁ont	-8.46406
▁département	-8.46416
▁territoires	-8.46793
▁modifiant	-8.46841
▁transition	-8.46944
▁jour	-8.46976
O	-8.47186
-5	-8.47521
les	-8.47731
autorité	-8.48248
▁réalisation	-8.48525
▁o	-8.48961
nd	-8.49096
Y	-8.49101
▁lors	-8.49379
▁professionnels	-8.4943
adresse	-8.49539
agriculture	-8.4978
▁prend	-8.49813
▁épouse	-8.49851
ée	-8.50002
on	-8.50286
▁autre	-8.50307
IN	-8.50627
▁suivants	-8.5186
▁collectivités	-8.52181
▁adjoint	-8.52567
h	-8.52623
▁spécialité	-8.52667
▁définies	-8.52765
us	-8.53094
▁mesures	-8.53103
▁pris	-8.53269
▁5°	-8.5339
▁fixé	-8.53429
▁Sont	-8.53553
ils	-8.53579
▁transport	-8.53977
▁défaut	-8.54269
appel	-8.54278
▁permettant	-8.54308
▁médecin	-8.54465
▁accord	-8.54583
▁développement	-8.54635
▁fixée	-8.54696
▁actions	-8.54932
▁préfet	-8.55274
▁jours	-8.55559
▁nécessaires	-8.55852
▁secrétaire	-8.56121
▁y	-8.56174
▁contre	-8.56649
▁suit	-8.56746
▁documents	-8.56807
▁comité	-8.56872
▁phrase	-8.57061
▁ligne	-8.57178
ar	-8.5721
aux	-8.57329
▁toutes	-8.57547
▁chargée	-8.5819
▁poste	-8.58521
▁LA	-8.58593
▁armées	-8.58784
▁2.	-8.58869
▁p	-8.59187
▁pièces	-8.59422
▁2019	-8.59621
▁DES	-8.6021
▁afin	-8.60478
▁financement	-8.60624
▁éléments	-8.60629
▁type	-8.60734
▁disposition	-8.60968
▁système	-8.61041
assurance	-8.61425
20	-8.61605
▁jury	-8.61619
aviation	-8.61663
exploitation	-8.61811
▁Ces	-8.62104
▁000	-8.62152
22	-8.62186
23	-8.62236
▁charges	-8.62333
▁remplacement	-8.62699
▁plusieurs	-8.62852
233	-8.62914
▁mention	-8.6294
▁modifiée	-8.63071
▁2020	-8.6343
▁six	-8.63672
ées	-8.63781
w	-8.63831
état	-8.6386
▁DU	-8.64307
▁modification	-8.64557
▁humaines	-8.647
▁territoire	-8.6542
1-1	-8.65524
el	-8.65561
▁base	-8.65972
▁postes	-8.66023
▁plan	-8.66154
▁médical	-8.66334
▁temps	-8.66364
di	-8.66454
▁procédure	-8.66556
(	-8.6665
▁cet	-8.66779
▁Lorsque	-8.66904
▁dé	-8.66965
▁écologique	-8.6727
▁champ	-8.67436
▁dispositif	-8.6745
▁réception	-8.67478
▁avis	-8.67487
effet	-8.67589
▁celles	-8.67768
▁troisième	-8.68157
▁complété	-8.68276
▁personnels	-8.68588
▁De	-8.68772
▁fixées	-8.68779
▁taux	-8.69133
▁programme	-8.69173
É	-8.69281
ssistance	-8.69558
▁Pierre	-8.69879
▁elle	-8.69963
elle	-8.70109
▁pêche	-8.70179
▁lui	-8.70218
▁donnée	-8.70366
▁soins	-8.7038
▁gendarmerie	-8.70705
▁certification	-8.70821
▁diplôme	-8.70841
▁relative	-8.70999
ouverture	-8.71713
▁emploi	-8.71887
▁budget	-8.72328
K	-8.72514
▁K	-8.72573
ie	-8.72863
opération	-8.73099
▁européen	-8.73733
▁LE	-8.74087
▁pendant	-8.7424
remière	-8.74534
▁cohésion	-8.74732
▁livre	-8.74762
Pierre	-8.7511
▁organismes	-8.75151
▁point	-8.75337
▁interne	-8.76127
▁prendre	-8.76234
▁maritime	-8.76689
▁médicale	-8.76807
13	-8.77629
Agence	-8.77705
▁1.	-8.77784
00	-8.77869
▁salariés	-8.77959
at	-8.77976
▁adjointe	-8.78025
▁exercer	-8.78077
11	-8.78229
▁missions	-8.78345
EN	-8.78385
U	-8.78594
▁remplacée	-8.78651
▁spécialités	-8.78781
▁prestations	-8.7894
is	-8.79085
▁conclu	-8.7919
▁groupe	-8.79273
ôpitaux	-8.79404
z	-8.79482
SPR	-8.79556
gouv	-8.7963
▁laquelle	-8.79721
Une	-8.79746
▁associés	-8.79878
ti	-8.7989
▁bis	-8.79894
▁m	-8.79978
ir	-8.80016
-1	-8.80124
▁social	-8.80236
officiers	-8.80248
▁étrangères	-8.80301
▁sens	-8.80404
▁principal	-8.80447
▁VI	-8.80574
▁décisions	-8.80633
action	-8.80714
▁Si	-8.80895
▁limitée	-8.80968
▁Publique	-8.81151
▁centrale	-8.81206
▁forme	-8.81271
▁paragraphe	-8.81442
▁f	-8.81936
▁supérieure	-8.82014
▁part	-8.82224
dit	-8.82638
office	-8.8284
▁profession	-8.83044
ot	-8.83144
▁systèmes	-8.8326
▁susvisée	-8.83519
▁université	-8.83569
▁navire	-8.83644
ont	-8.84101
▁cheffe	-8.84138
▁domaine	-8.84155
ct	-8.84217
J	-8.84332
▁moyens	-8.84392
▁régionale	-8.84432
te	-8.84492
autorisation	-8.84547
▁douanes	-8.84773
▁administrateur	-8.84854
ON	-8.85117
▁transports	-8.85143
utilisation	-8.85151
▁inséré	-8.85226
▁celle	-8.85544
▁physique	-8.85621
installation	-8.85686
▁procédures	-8.85728
▁ET	-8.85742
ac	-8.85742
-3	-8.8585
▁vue	-8.85865
▁née	-8.85922
▁cabinet	-8.8614
▁européenne	-8.86393
▁délégation	-8.86479
▁6°	-8.86504
▁W	-8.86669
ES	-8.86741
▁activité	-8.86884
▁cahier	-8.8714
10	-8.87229
▁aérienne	-8.87275
▁applicable	-8.87415
JUSC	-8.87417
▁inscriptions	-8.87445
▁vice	-8.87448
▁réseau	-8.87489
▁commerce	-8.87498
▁relatifs	-8.87577
▁ministériels	-8.87659
que	-8.87756
accueil	-8.87857
▁cinq	-8.87973
▁communication	-8.87978
▁administrative	-8.88126
lé	-8.88262
▁maladie	-8.88744
▁risques	-8.88767
ul	-8.88815
12	-8.89088
21	-8.89153
Institut	-8.89235
ch	-8.89266
▁attributions	-8.89273
après	-8.89315
▁handicap	-8.89572
tte	-8.89601
▁internet	-8.89739
▁in	-8.90127
avenant	-8.90469
▁catégorie	-8.90583
30	-8.90609
▁faisant	-8.90618
admission	-8.90732
▁moyen	-8.91212
▁celui	-8.91253
▁h	-8.91577
ard	-8.91601
▁emplois	-8.91623
ET	-8.91858
aptitude	-8.91858
ri	-8.91859
▁valeur	-8.91892
lo	-8.92173
▁signer	-8.92219
▁communes	-8.92287
▁3.	-8.9229
▁économique	-8.92603
id	-8.92813
am	-8.92989
▁insérés	-8.93091
▁patients	-8.93164
▁J	-8.93541
du	-8.9406
▁responsable	-8.94101
25	-8.946
▁représentants	-8.94617
▁2024.	-8.94733
▁précise	-8.94819
▁produit	-8.94925
▁document	-8.95176
RE	-8.95255
ro	-8.95366
▁Président	-8.95377
▁figurant	-8.95377
entrée	-8.9542
▁an	-8.95435
▁O	-8.95547
ine	-8.95788
ordre	-8.95788
▁structure	-8.95887
▁gestionnaire	-8.9591
France	-8.95974
ol	-8.95986
▁Nige	-8.96387
▁Centre	-8.96742
▁avoir	-8.9683
://	-8.9697
▁année	-8.97146
▁équipements	-8.97225
▁comptable	-8.974
▁parcours	-8.97451
▁dépenses	-8.97553
▁études	-8.97561
entreprise	-8.97904
ique	-8.97997
▁défini	-8.98117
▁déclaration	-8.98129
intérêt	-8.98149
absence	-8.98185
▁établi	-8.9827
▁siège	-8.98299
▁français	-8.98401
▁seront	-8.98445
▁libéral	-8.98507
▁temporaire	-8.98712
▁mesure	-8.98866
ER	-8.99072
▁installations	-8.99658
▁eaux	-8.99682
▁paiement	-8.998
2-1	-9.00189
▁second	-9.00224
▁concernant	-9.0026
usage	-9.00399
-2	-9.00739
01	-9.00993
um	-9.01054
insertion	-9.01133
▁rang	-9.01138
▁co	-9.01283
▁exigences	-9.01374
▁création	-9.01376
▁Commission	-9.01486
▁Des	-9.01537
▁63	-9.0185
inspection	-9.01899
▁quatre	-9.01988
▁culture	-9.0231
▁recours	-9.02373
té	-9.02746
-4	-9.02852
▁nommés	-9.03165
AL	-9.032
24	-9.03273
eur	-9.03306
▁construction	-9.03392
Marie	-9.03448
16	-9.03613
▁logement	-9.03652
▁accessible	-9.03899
▁examens	-9.039
▁patient	-9.04014
▁32	-9.04562
RI	-9.04754
▁matières	-9.04827
▁cour	-9.04878
ion	-9.05028
17	-9.05119
▁militaire	-9.05126
ité	-9.05211
▁militaires	-9.05405
▁jeunesse	-9.05575
lle	-9.05727
vi	-9.0581
1-2	-9.06256
▁établissement	-9.06605
▁frais	-9.06691
▁texte	-9.06701
▁régime	-9.06745
▁correspondant	-9.06878
▁numéro	-9.06962
▁sport	-9.07236
▁énergétique	-9.07241
▁état	-9.07378
▁renouvellement	-9.07429
k	-9.07646
▁tant	-9.0781
▁Partie	-9.07899
▁4.	-9.08182
▁abrogé	-9.08296
▁Délégation	-9.08307
▁g	-9.08356
▁scientifique	-9.08359
opérateur	-9.08461
▁régional	-9.08615
15	-9.08707
Union	-9.08744
LE	-9.08744
▁fonctionnement	-9.08876
EL	-9.08973
▁Est	-9.09106
▁égal	-9.09244
▁caractère	-9.09257
▁2016	-9.09272
▁unique	-9.09293
▁conseiller	-9.09335
ia	-9.09655
▁ingénieur	-9.09698
▁obligatoires	-9.09854
▁35	-9.09899
▁2018	-9.09932
chef	-9.10001
▁constaté	-9.10056
▁Lyon	-9.10088
exception	-9.10602
▁vie	-9.10729
agrément	-9.11088
▁Michel	-9.1114
02	-9.11176
ré	-9.11322
▁total	-9.11324
▁2017	-9.11355
AT	-9.11591
tra	-9.11761
art	-9.11771
extension	-9.12083
expérimentation	-9.12162
▁calcul	-9.12181
▁choix	-9.12359
50	-9.12369
31	-9.12423
▁lorsqu	-9.12506
identification	-9.12688
▁maximum	-9.1315
▁transmission	-9.13456
▁plein	-9.13482
▁Anne	-9.13659
Z	-9.13679
engagement	-9.13688
▁politique	-9.13749
▁page	-9.13934
▁fonds	-9.14245
▁proposition	-9.14507
ww	-9.14634
▁mettre	-9.14693
▁externe	-9.14776
▁euros	-9.14836
▁sanctions	-9.1486
▁maîtrise	-9.14907
ve	-9.15031
▁Ier	-9.15043
▁résultats	-9.15064
▁titulaires	-9.15257
18	-9.15294
▁juge	-9.15324
▁con	-9.15459
▁années	-9.1548
▁ceux	-9.15498
dessous	-9.15601
▁prévus	-9.1563
▁port	-9.15776
▁33	-9.15801
▁navigation	-9.16036
▁rubrique	-9.16156
▁projets	-9.163
▁fonctionnaires	-9.16331
air	-9.16385
▁permettre	-9.1652
▁définie	-9.166
▁François	-9.16605
▁bas	-9.16834
▁ski	-9.16904
▁Parlement	-9.16961
origine	-9.17063
▁compétente	-9.17104
14	-9.17166
▁performance	-9.17407
na	-9.17412
▁administratif	-9.17467
▁bord	-9.17557
▁aides	-9.17564
▁rue	-9.17578
3-1	-9.17671
▁fois	-9.17685
▁salariée	-9.17687
▁complémentaire	-9.17688
▁Article	-9.17704
03	-9.17758
MTR	-9.17771
▁principale	-9.17785
ance	-9.1786
li	-9.17879
▁transformation	-9.18032
26	-9.18227
aire	-9.18243
▁adresse	-9.18377
05	-9.18391
me	-9.1845
extrait	-9.18605
im	-9.18662
▁administratives	-9.1875
unité	-9.18947
▁surveillance	-9.18979
▁admis	-9.1898
Jean	-9.1899
▁conformité	-9.19247
▁début	-9.19359
▁comprend	-9.19462
▁obligations	-9.19483
▁né	-9.19525
▁financier	-9.19529
▁dernière	-9.19541
▁risque	-9.19597
▁secteur	-9.19671
▁orale	-9.19757
▁minutes	-9.19783
OT	-9.19839
▁commune	-9.199
▁employeurs	-9.19957
mé	-9.20026
▁milieu	-9.20056
▁référentiel	-9.20113
AS	-9.20124
▁alinéas	-9.20172
▁supprimés	-9.20272
ement	-9.20319
▁consommation	-9.20646
▁objectifs	-9.20695
ab	-9.20733
ME	-9.20779
▁critères	-9.20862
ma	-9.20874
▁associé	-9.21004
▁concernés	-9.21477
▁rémunération	-9.215
▁zones	-9.21566
applique	-9.21676
▁pro	-9.21763
08	-9.2177
▁pôle	-9.21806
32	-9.21857
ce	-9.22023
▁pharmaceutiques	-9.22065
▁2006	-9.22259
▁7°	-9.22269
▁fixe	-9.22324
▁marché	-9.22438
▁ministres	-9.22572
51	-9.22605
▁administratifs	-9.22739
▁manière	-9.22871
exclusion	-9.22949
▁recettes	-9.23018
▁crédits	-9.23028
▁particulier	-9.23042
40	-9.23242
▁nécessaire	-9.2325
▁unités	-9.23337
▁Gouvernement	-9.23382
▁parties	-9.23535
▁secrétariat	-9.23588
direction	-9.23623
Ecole	-9.23779
▁Philippe	-9.23908
ois	-9.24202
4-1	-9.24782
▁office	-9.24794
électricité	-9.24865
▁Cour	-9.25105
35	-9.25107
intégralité	-9.25157
▁demandes	-9.25157
urgence	-9.25195
x	-9.2528
▁déchets	-9.25305
▁délivrance	-9.25306
▁sociales	-9.25316
▁consulter	-9.25605
CE	-9.25673
▁présentation	-9.2569
▁tenu	-9.25743
issue	-9.25744
ad	-9.25822
19	-9.25867
▁chambre	-9.25899
34	-9.25964
ut	-9.26165
▁définis	-9.26167
and	-9.2627
▁modèle	-9.26432
▁agréé	-9.26588
▁clôture	-9.26659
▁commun	-9.26829
3-2	-9.26912
▁lesquelles	-9.2694
▁restant	-9.27115
33	-9.27166
chez	-9.27325
section	-9.27383
▁minimum	-9.27419
▁mer	-9.27434
▁épreuve	-9.27474
▁foi	-9.27581
AN	-9.27648
▁tiers	-9.27896
04	-9.2796
être	-9.28006
▁territoriale	-9.28081
▁vol	-9.28172
▁mandat	-9.28222
autres	-9.28452
-10	-9.28802
elles	-9.28836
dessus	-9.28843
▁sociaux	-9.28953
52	-9.29058
instruction	-9.29155
29	-9.2916
▁50	-9.2923
06	-9.29265
▁connaissance	-9.29314
assurer	-9.29459
ARD	-9.29533
▁capacité	-9.29635
▁soutien	-9.29657
▁effets	-9.29747
ag	-9.29811
▁alimentaire	-9.29963
mo	-9.29975
isation	-9.29983
exploitant	-9.30016
▁Nouvelle	-9.30183
aménagement	-9.30212
ANT	-9.30259
W	-9.30535
▁groupement	-9.30608
27	-9.30652
▁réaliser	-9.30886
▁nouvelle	-9.30908
▁territoriales	-9.30941
▁véhicules	-9.30974
accompagnement	-9.31036
ence	-9.31107
▁2007	-9.31123
▁lien	-9.31364
▁position	-9.31441
▁sanitaire	-9.31483
IOM	-9.31535
▁pré	-9.31536
ph	-9.31586
agence	-9.31681
▁offerts	-9.31769
caractéristiques	-9.31788
▁dépôt	-9.31969
équipe	-9.31971
07	-9.31997
to	-9.32002
▁dérogation	-9.32043
th	-9.32128
▁lequel	-9.32187
▁inférieur	-9.32381
▁financière	-9.32528
55	-9.32693
▁2015	-9.32958
ier	-9.3297
▁statut	-9.33346
53	-9.33355
▁note	-9.33361
▁attachée	-9.33432
Europe	-9.33556
espace	-9.33658
▁Vou	-9.33659
étranger	-9.33683
37	-9.33772
/20	-9.33811
▁raison	-9.33933
op	-9.33944
âge	-9.34048
▁images	-9.34053
▁retrait	-9.34115
▁candidature	-9.34468
▁comporte	-9.34497
▁34	-9.34515
▁2014	-9.34586
▁métiers	-9.34605
42	-9.34615
75	-9.34651
▁désignés	-9.34713
2-3	-9.34723
▁concession	-9.34777
▁égale	-9.34797
▁nucléaire	-9.3484
▁sûreté	-9.34945
▁division	-9.34963
▁avenant	-9.35005
45	-9.35035
▁soumis	-9.35066
▁41	-9.3515
▁inscription	-9.35509
▁délais	-9.3564
▁prime	-9.35793
▁navires	-9.35917
▁rural	-9.36092
▁créé	-9.3615
▁pouvez	-9.36187
▁pédagogique	-9.36197
▁mêmes	-9.36211
▁font	-9.36277
70	-9.36574
09	-9.36683
▁besoins	-9.3672
▁locaux	-9.36772
▁conforme	-9.36881
2-2	-9.36901
▁inférieure	-9.36902
80	-9.36911
▁extension	-9.37041
ha	-9.37074
▁périodes	-9.3708
▁Re	-9.37092
▁exerçant	-9.37191
▁https	-9.37232
▁stage	-9.37269
▁U	-9.37347
▁bâtiment	-9.37395
▁territorial	-9.37445
agent	-9.37473
ale	-9.37545
▁devra	-9.37586
▁suppléant	-9.37626
rie	-9.3765
qu	-9.37832
36	-9.3784
OU	-9.37862
28	-9.38488
▁résultant	-9.38546
▁admission	-9.38714
heure	-9.38789
▁0	-9.38865
▁Ma	-9.38877
▁Réunion	-9.38888
ill	-9.38926
▁prises	-9.38939
▁40	-9.3895
▁adjudant	-9.3906
▁lutte	-9.39138
▁reconnaissance	-9.39145
▁stipulations	-9.39145
▁valoir	-9.39145
▁agent	-9.39202
▁bénéficier	-9.39246
▁Tout	-9.39246
▁biens	-9.39571
▁hospitalière	-9.39575
44	-9.39624
▁préparation	-9.39661
président	-9.3971
43	-9.39882
▁moyenne	-9.39956
▁précédent	-9.40015
dé	-9.40021
▁rendues	-9.40072
▁autorités	-9.40094
autre	-9.40316
▁autorisée	-9.40341
▁cadres	-9.4046
▁courir	-9.40462
▁désigné	-9.40504
intervention	-9.40505
ter	-9.40569
41	-9.40656
▁permet	-9.40676
▁sociétés	-9.40692
▁réglementation	-9.40702
▁étendu	-9.40708
1-3	-9.40774
OR	-9.40814
obligation	-9.40862
▁met	-9.40985
▁élèves	-9.41171
▁promotion	-9.41226
▁36	-9.41248
▁EN	-9.4138
▁5.	-9.41439
min	-9.41471
▁vente	-9.41508
▁Bordeaux	-9.41577
co	-9.41586
▁coopération	-9.41689
▁postale	-9.4172
▁initiale	-9.41794
60	-9.41812
▁marchés	-9.41836
▁signature	-9.41841
ic	-9.41882
▁maître	-9.42087
om	-9.42148
▁surface	-9.42393
se	-9.42442
▁Bloc	-9.42638
▁dispositifs	-9.42655
lu	-9.42736
▁bénéfice	-9.42815
ces	-9.42857
▁compétence	-9.42928
72	-9.43119
tre	-9.43198
▁heure	-9.43212
▁capitaine	-9.43261
che	-9.43268
ta	-9.43293
▁authentifié	-9.43351
▁pratique	-9.43386
▁Haute	-9.434
97	-9.43519
▁chacune	-9.43668
▁liées	-9.43689
▁normale	-9.43728
▁nucléaires	-9.43824
AU	-9.43882
▁pénitentiaires	-9.43921
ay	-9.43942
▁cachet	-9.43979
▁demandeur	-9.43987
▁délivré	-9.44176
▁transfert	-9.4434
IER	-9.44403
▁Lille	-9.44455
▁Du	-9.44489
▁support	-9.44498
▁aérien	-9.44518
▁dossiers	-9.44558
cl	-9.4467
▁é	-9.44834
▁salarié	-9.44847
▁quatrième	-9.45066
▁session	-9.45195
▁rédaction	-9.45339
46	-9.45508
78	-9.45534
▁simplifiée	-9.45559
aires	-9.45697
▁notaires	-9.45702
▁visioconférence	-9.45705
▁45	-9.45774
▁acquis	-9.45785
expérience	-9.45798
▁points	-9.45857
▁registre	-9.45886
▁composition	-9.45888
▁départemental	-9.459
avis	-9.45918
65	-9.45924
▁terme	-9.45976
▁2012	-9.46017
ing	-9.46406
▁83	-9.4673
▁38	-9.46844
▁dès	-9.46903
▁ajouté	-9.46933
61	-9.47068
▁commandant	-9.47182
ge	-9.47203
▁rédigée	-9.47393
▁bilan	-9.47488
▁usage	-9.47537
Calédonie	-9.47554
audit	-9.47555
68	-9.47769
▁technicien	-9.47874
▁déroulement	-9.47905
▁transmis	-9.47934
aud	-9.47958
▁Toulouse	-9.48022
▁annexé	-9.4804
90	-9.48092
▁administratrice	-9.48157
93	-9.48246
39	-9.48257
▁Ils	-9.48257
77	-9.48303
▁distribution	-9.48586
95	-9.48654
▁Mayotte	-9.48775
appui	-9.48892
▁attaché	-9.48928
▁Cedex	-9.48964
ère	-9.48977
66	-9.48998
tique	-9.49094
▁écrite	-9.49133
62	-9.49232
bi	-9.4925
▁42	-9.49258
59	-9.49285
▁Marseille	-9.49307
appliquent	-9.49503
élève	-9.49593
▁périmètre	-9.49629
▁agricole	-9.49777
UR	-9.49784
54	-9.49846
▁places	-9.49956
▁44	-9.49961
▁autorisation	-9.50143
▁prix	-9.50206
▁conventions	-9.50454
▁matériel	-9.50478
encadrement	-9.505
rant	-9.50606
▁validation	-9.50683
▁8°	-9.5073
▁examen	-9.50861
▁lieutenant	-9.5095
▁économiques	-9.50964
▁Sous	-9.51065
▁procureur	-9.51131
eux	-9.51146
38	-9.51164
▁37	-9.51172
99	-9.51175
74	-9.51229
47	-9.51511
▁r	-9.51546
▁annuel	-9.51667
▁réseaux	-9.51669
sion	-9.51719
57	-9.51719
attribution	-9.51809
ex	-9.51817
▁relations	-9.51886
ba	-9.51998
58	-9.52039
▁cycle	-9.52041
▁enfants	-9.52168
-11	-9.52223
▁conduite	-9.52259
73	-9.52331
Rhône	-9.52333
▁assurer	-9.52396
▁définition	-9.52448
56	-9.52506
▁Paul	-9.5253
▁bénéficiaires	-9.52532
▁entreprise	-9.52678
ins	-9.52762
▁naturel	-9.52808
able	-9.52846
ront	-9.52856
76	-9.52963
▁présenter	-9.53058
▁divers	-9.5327
habitation	-9.53324
▁coefficient	-9.53386
ry	-9.53571
▁différents	-9.53684
▁mobilité	-9.53713
▁concerné	-9.53879
François	-9.53896
▁véhicule	-9.53936
▁autorisées	-9.54057
AC	-9.54078
▁prescriptions	-9.54086
67	-9.54194
▁tel	-9.54293
▁continue	-9.54379
▁ni	-9.54501
▁Toute	-9.5451
▁autorisant	-9.5451
▁devront	-9.54611
▁Sur	-9.54653
▁contrôles	-9.54701
▁sauf	-9.54711
entité	-9.54747
enregistrement	-9.54776
IS	-9.54844
63	-9.54886
▁moment	-9.55015
98	-9.55138
groupe	-9.55212
▁titres	-9.55214
▁Lorsqu	-9.55294
▁porte	-9.55346
▁papier	-9.55516
▁magistrats	-9.55556
RA	-9.5566
colonel	-9.55695
71	-9.55832
▁client	-9.5588
69	-9.55906
▁dispose	-9.55912
▁réalisé	-9.55934
offre	-9.56097
▁dix	-9.56176
86	-9.5622
▁civil	-9.56233
acquisition	-9.56242
analyse	-9.56248
▁option	-9.56262
▁Polynésie	-9.56297
▁maximale	-9.56399
79	-9.56555
5-1	-9.56574
▁réalisée	-9.56618
▁nouveau	-9.56624
▁maintenance	-9.56736
▁possible	-9.56736
▁(1	-9.56819
▁Co	-9.56933
DE	-9.56948
48	-9.57031
▁fins	-9.57101
▁VII	-9.57103
▁spécifiques	-9.57152
eurs	-9.57273
os	-9.57325
▁certificats	-9.57356
81	-9.57414
▁pouvant	-9.57558
▁depuis	-9.57593
▁académique	-9.57601
▁matériels	-9.57697
▁assure	-9.57744
alimentation	-9.57772
▁75	-9.57775
AM	-9.57849
▁femmes	-9.58002
85	-9.58127
▁vers	-9.58143
entretien	-9.5825
49	-9.58285
▁bénéficiaire	-9.58384
sur	-9.58453
64	-9.58479
▁2013	-9.58486
▁figurent	-9.58518
▁départementale	-9.58546
man	-9.58653
▁centres	-9.58656
▁bien	-9.58913
if	-9.58921
▁interdite	-9.5894
▁organisme	-9.5895
con	-9.58978
96	-9.59028
2023	-9.59031
▁participation	-9.59138
AR	-9.59311
▁lettre	-9.59323
OL	-9.59433
▁pilotage	-9.59434
▁autorisé	-9.59523
▁notification	-9.59537
intéressé	-9.59552
▁seconde	-9.59621
▁pourront	-9.59635
▁exceptionnelle	-9.59703
▁fiche	-9.59782
▁totale	-9.59819
up	-9.59822
iv	-9.59935
▁maintien	-9.5996
▁Etat	-9.60143
▁durable	-9.60324
activités	-9.60335
▁généraux	-9.60382
éri	-9.60474
▁fixés	-9.6054
▁condition	-9.60713
▁aéronefs	-9.60746
▁visées	-9.60995
incendie	-9.61021
▁réglementaires	-9.61032
ron	-9.61109
em	-9.61292
évolution	-9.61306
▁André	-9.61423
des	-9.61555
▁détachement	-9.61556
▁61	-9.61557
▁_	-9.61614
▁100	-9.61619
ction	-9.61647
▁pénale	-9.61718
lin	-9.61822
pa	-9.61924
études	-9.61962
▁remboursables	-9.61975
tant	-9.62008
▁Louis	-9.62086
inscrire	-9.62112
▁65	-9.622
▁financières	-9.62282
IOMA	-9.62303
ens	-9.62412
▁Parties	-9.62581
▁regard	-9.62636
▁financiers	-9.627
vers	-9.62982
▁Mar	-9.63054
▁familles	-9.63143
▁propre	-9.6316
▁Aux	-9.63214
▁comportant	-9.63289
▁major	-9.63338
▁scolaire	-9.63398
▁2008	-9.63428
▁ouvert	-9.63473
▁coordination	-9.63507
mar	-9.63587
▁budgétaire	-9.63606
X	-9.63608
83	-9.63613
▁sports	-9.63692
▁séance	-9.63711
▁noms	-9.63712
▁tarif	-9.63801
/2023-12-2	-9.63865
▁concernées	-9.63909
▁Cité	-9.63926
▁façon	-9.64056
avancement	-9.64099
▁52	-9.6411
▁normes	-9.64286
IE	-9.64306
▁In	-9.64367
▁spécifique	-9.64386
▁usagers	-9.64507
▁arrêtés	-9.64534
▁conseillère	-9.64608
éco	-9.64622
▁contrats	-9.64817
présidente	-9.64828
▁intérieure	-9.64849
▁Pro	-9.64905
▁changement	-9.64954
alinéa	-9.65047
▁faveur	-9.65052
▁pratiques	-9.65119
▁réalisées	-9.65122
▁suite	-9.65129
▁puissance	-9.65163
▁solidarités	-9.65186
ire	-9.65239
▁62	-9.65256
▁contenu	-9.65267
▁courrier	-9.65503
▁remboursement	-9.65504
ordonnance	-9.65508
▁connaissances	-9.65543
ly	-9.65553
▁sélection	-9.65554
▁mises	-9.6557
▁local	-9.6559
▁Rennes	-9.65611
▁lesquels	-9.65721
ure	-9.6573
92	-9.65781
▁mais	-9.65794
▁comptables	-9.65882
▁domicile	-9.65945
▁impôts	-9.65977
▁prêt	-9.65983
94	-9.66085
SS	-9.66357
tion	-9.6637
▁90	-9.66376
▁collectif	-9.66395
▁version	-9.66408
IL	-9.66509
ina	-9.66683
▁Guyane	-9.66684
▁Cha	-9.66761
▁inspecteur	-9.66771
TE	-9.66852
▁AU	-9.66892
▁certains	-9.66935
Autorité	-9.67009
TRE	-9.67112
ez	-9.67198
EC	-9.67257
▁chirurgie	-9.67484
▁signé	-9.67542
NA	-9.67569
▁considérée	-9.67712
▁objet	-9.67745
ui	-9.67751
▁secours	-9.67757
ix	-9.67759
enfant	-9.67862
▁individuelle	-9.68081
▁réduction	-9.681
▁opération	-9.68183
▁Jacques	-9.68372
▁établie	-9.68468
BO	-9.68493
▁préalable	-9.68641
association	-9.68883
▁suivent	-9.68905
▁conseillers	-9.69034
ouvrage	-9.69217
▁Sa	-9.69432
▁pénitentiaire	-9.69443
CI	-9.69478
CH	-9.69501
▁Tribuna	-9.69717
▁pension	-9.69802
▁entretien	-9.70107
IT	-9.70168
▁aériens	-9.7023
ver	-9.70277
▁branche	-9.70301
82	-9.7038
91	-9.70403
ologie	-9.70474
▁présidente	-9.70699
84	-9.70774
▁catégories	-9.70827
▁conception	-9.70891
▁circulation	-9.70894
indemnité	-9.70897
▁situations	-9.70898
LA	-9.70909
IR	-9.70933
▁modifications	-9.70975
outre	-9.71008
▁Z	-9.71044
ément	-9.71045
▁phase	-9.71122
▁contrôleur	-9.71174
abilité	-9.71234
▁répartition	-9.71245
6-1	-9.71246
88	-9.71274
ables	-9.71289
▁professeur	-9.71356
▁distance	-9.71361
institut	-9.71468
admissibilité	-9.7148
▁liés	-9.71481
▁forêts	-9.71482
▁Y	-9.71553
▁accès	-9.71572
▁compétent	-9.71746
▁marine	-9.71828
▁télé	-9.71922
▁participant	-9.71955
▁Concours	-9.7196
▁51	-9.71969
Martin	-9.7202
ler	-9.72053
▁Wallis	-9.72074
▁t	-9.72091
▁versement	-9.72098
vis	-9.72199
87	-9.72214
▁autorité	-9.72551
our	-9.72567
ib	-9.72599
UN	-9.72631
▁9°	-9.72659
▁stratégie	-9.72672
▁lignes	-9.72677
▁(1)	-9.72743
▁générales	-9.72763
▁susceptibles	-9.72817
▁directement	-9.72845
ateur	-9.72906
▁supprimé	-9.72963
▁informe	-9.72972
89	-9.73059
ec	-9.73186
MA	-9.73235
▁officiers	-9.73241
▁ville	-9.73277
▁aménagements	-9.73325
ATION	-9.73357
▁Con	-9.73401
▁pièce	-9.73418
▁60	-9.73485
oc	-9.73551
▁vingt	-9.7356
▁candidates	-9.736
▁Société	-9.73637
▁présence	-9.73637
▁termes	-9.73656
▁demander	-9.73867
▁collecte	-9.73879
fin	-9.74189
hi	-9.74204
▁format	-9.74236
▁certaines	-9.74297
IC	-9.74408
▁départements	-9.74463
tri	-9.74486
onne	-9.74577
▁références	-9.74595
▁carte	-9.74678
UC	-9.74712
EP	-9.74713
▁rend	-9.74822
com	-9.74841
teur	-9.74928
▁39	-9.74947
▁programmes	-9.74966
eu	-9.7497
▁réponse	-9.74978
▁vote	-9.74993
directeur	-9.75074
ations	-9.75137
▁i	-9.75216
▁précisant	-9.75231
va	-9.75247
ey	-9.75273
▁bon	-9.75444
▁patrimoine	-9.75471
res	-9.75491
▁méthode	-9.75534
▁taxe	-9.75538
▁politiques	-9.75592
▁différentes	-9.75633
▁universitaire	-9.75668
▁masse	-9.75717
▁brevet	-9.75842
▁consultation	-9.76046
po	-9.76443
adaptation	-9.76451
▁garantie	-9.76513
▁permis	-9.76588
oul	-9.76645
▁volume	-9.76713
ais	-9.7672
pe	-9.76915
gé	-9.76926
▁commissaires	-9.76972
▁agricoles	-9.77019
▁54	-9.77045
impôt	-9.77178
▁association	-9.77285
EAU	-9.77299
▁dû	-9.773
▁collège	-9.77339
▁spécial	-9.77401
▁associée	-9.77495
▁délivrée	-9.77544
▁Montpellier	-9.7759
▁Chevalier	-9.77717
▁mètres	-9.77728
ap	-9.77737
▁annuelle	-9.77784
▁Bernard	-9.77814
SE	-9.77876
▁Guadeloupe	-9.77918
▁CO	-9.78013
▁Toutefois	-9.78096
▁Claude	-9.78291
▁2011	-9.78343
▁ministériel	-9.78349
par	-9.78356
▁candidate	-9.78426
▁exercées	-9.78502
▁Ar	-9.78524
CO	-9.7856
▁qualification	-9.78596
▁soient	-9.78604
égalité	-9.78692
▁langue	-9.78732
▁Conform	-9.78734
▁Isabelle	-9.78756
▁devant	-9.79109
ière	-9.79168
▁ensemble	-9.79351
▁respectivement	-9.79371
CHE	-9.79502
▁près	-9.79614
▁Val	-9.79642
▁ouverts	-9.79658
réanimation	-9.79943
achat	-9.79989
▁Olivier	-9.80019
▁ma	-9.80063
▁attestation	-9.8012
▁validité	-9.80143
▁Jo	-9.80161
as	-9.80195
envoi	-9.8022
▁organisations	-9.80223
▁copie	-9.80273
▁forfaitaire	-9.80304
▁classes	-9.8038
▁désigne	-9.80509
▁installation	-9.80539
▁assurés	-9.80587
▁juridique	-9.80688
▁hospitalier	-9.8069
lan	-9.80698
-12	-9.80871
go	-9.81046
ner	-9.81359
▁réalisés	-9.81365
tes	-9.81662
▁pays	-9.8171
▁formations	-9.81719
▁43	-9.81826
▁régulation	-9.81838
▁remplacées	-9.81903
apprentissage	-9.81971
▁baccalauréat	-9.81977
bo	-9.81981
j	-9.81996
▁commande	-9.82065
▁Laurent	-9.82092
▁simple	-9.82102
AY	-9.82116
▁résultat	-9.82148
▁minimale	-9.8216
▁préfecture	-9.82203
▁ter	-9.82408
ign	-9.82432
enquête	-9.82462
▁cause	-9.82499
▁2,	-9.82558
▁pharmacie	-9.82586
orientation	-9.82595
ARM	-9.82613
▁Nantes	-9.82631
▁sportif	-9.82645
télésurveillance	-9.82659
▁licence	-9.82763
▁telle	-9.82781
no	-9.82844
▁universités	-9.82881
▁tels	-9.82882
▁constituée	-9.82886
▁probatoire	-9.82896
▁Sud	-9.82971
US	-9.83008
sse	-9.83081
obtention	-9.83162
amélioration	-9.83191
▁justificatives	-9.83245
industrie	-9.83258
▁aéronautique	-9.83273
▁protégé	-9.83299
▁actifs	-9.83306
▁situé	-9.83313
▁déléguée	-9.83582
nés	-9.8359
ca	-9.836
▁fond	-9.83634
▁Nicolas	-9.83643
plénipotentiaire	-9.83696
▁prestation	-9.8377
▁coûts	-9.83891
▁sciences	-9.83942
▁majoration	-9.83955
▁Ga	-9.84013
▁ponts	-9.84028
▁propriété	-9.84099
▁ouvrant	-9.84099
▁vendredi	-9.84368
▁e	-9.84379
▁X	-9.84389
▁73	-9.8439
mb	-9.84451
▁tribunaux	-9.84518
▁71	-9.84524
▁pourra	-9.84543
▁déroule	-9.84584
▁vérification	-9.84598
professionnel	-9.84697
OM	-9.84755
▁vertu	-9.84774
Q	-9.84821
indication	-9.84828
▁évaluation	-9.84843
▁cessation	-9.84915
qui	-9.84991
▁seule	-9.85011
▁montants	-9.85011
▁Henri	-9.85031
▁adressée	-9.85083
▁logements	-9.85127
all	-9.85167
do	-9.85179
▁Qu	-9.85215
assemblée	-9.85236
ue	-9.85264
▁correspond	-9.85348
▁directive	-9.85351
▁morale	-9.85352
si	-9.8539
▁terre	-9.85412
▁Strasbourg	-9.85453
▁plateforme	-9.8559
investissement	-9.85692
▁désignation	-9.85732
RO	-9.85744
▁matériaux	-9.85864
▁préjudice	-9.86
▁59	-9.86101
▁équivalent	-9.86116
PRM	-9.86364
▁nationalité	-9.86532
▁inspectrice	-9.8655
indice	-9.86551
int	-9.86611
▁norme	-9.86677
▁Martinique	-9.86693
▁propriétaire	-9.86767
TH	-9.86838
préfet	-9.86928
da	-9.86988
JUS	-9.8746
▁Christophe	-9.8747
▁route	-9.87519
ni	-9.87628
▁semaines	-9.87694
▁enseignants	-9.87801
fi	-9.87847
▁indirects	-9.87904
val	-9.87922
Miquelon	-9.87938
▁valeurs	-9.87941
▁lieux	-9.87965
▁Grand	-9.87969
▁VIII	-9.88015
ienne	-9.88022
▁2010	-9.88042
▁autorisés	-9.88052
▁BAR	-9.88056
▁inclus	-9.88087
▁annexes	-9.88347
objectif	-9.8837
▁dénommé	-9.88371
▁précisées	-9.88419
innovation	-9.88498
ho	-9.88569
▁trans	-9.88577
▁écrit	-9.88611
▁acheminé	-9.88639
▁utilisés	-9.88859
▁contexte	-9.88921
Alpes	-9.8893
▁information	-9.88959
▁diagnostic	-9.89002
▁structures	-9.89035
venir	-9.89039
État	-9.89062
rait	-9.89076
ssent	-9.89141
armée	-9.89177
▁éligibles	-9.89182
▁échelon	-9.892
▁Marc	-9.89355
▁unité	-9.89372
TI	-9.89392
▁fer	-9.89436
▁précité	-9.89444
attestation	-9.895
4-2	-9.89511
haque	-9.89534
▁responsables	-9.89539
aérodrome	-9.89594
AND	-9.89691
▁v	-9.89804
ise	-9.89863
▁46	-9.89881
▁fabrication	-9.89914
identité	-9.89932
ible	-9.90033
per	-9.90052
▁procéder	-9.90201
▁géographique	-9.90256
oire	-9.90294
gra	-9.90296
▁physiques	-9.90343
▁haut	-9.90373
▁visant	-9.90402
▁ajoutés	-9.90474
▁contractuel	-9.90547
▁Ch	-9.9061
ite	-9.9061
▁préalablement	-9.90612
gi	-9.90613
▁constitué	-9.90783
ig	-9.9091
▁internationale	-9.91009
▁É	-9.91033
mp	-9.91113
BERT	-9.9119
▁comprenant	-9.91205
▁professeurs	-9.91216
▁producteurs	-9.91219
Nicolas	-9.91262
AGR	-9.91279
▁subvention	-9.91283
▁vérifier	-9.91305
▁limites	-9.91475
▁nécessite	-9.91591
-14	-9.91607
az	-9.91695
▁négociation	-9.91784
▁coût	-9.92018
▁devient	-9.92078
▁somme	-9.92079
▁déc	-9.92089
▁voies	-9.92104
▁entité	-9.92109
AD	-9.9211
bu	-9.92159
▁COUR	-9.92168
▁laboratoire	-9.92221
cu	-9.92255
ah	-9.92269
▁BOU	-9.92274
vé	-9.92295
▁transmet	-9.92389
Ma	-9.9258
av	-9.9258
▁2005	-9.92594
▁besoin	-9.92602
▁conjoint	-9.92691
pr	-9.92803
▁permanente	-9.92894
▁définitive	-9.92971
▁Antoine	-9.92972
RES	-9.93024
▁sol	-9.93092
achèvement	-9.93247
1-6	-9.93291
ques	-9.93327
▁concernée	-9.93382
▁veille	-9.93383
▁naturelle	-9.93407
▁organisation	-9.93469
-17	-9.93547
PA	-9.93614
▁agréés	-9.93683
▁Mont	-9.93868
▁respecter	-9.93917
inspecteur	-9.93948
▁RE	-9.94001
nel	-9.94019
▁2022,	-9.94065
▁médicaments	-9.94184
▁comp	-9.94225
gissant	-9.9424
hébergement	-9.94583
▁aucun	-9.94609
▁crédit	-9.94719
▁An	-9.94759
▁Ré	-9.9478
▁décrit	-9.94843
éli	-9.94906
▁puis	-9.94975
académie	-9.94996
▁réglementaire	-9.95167
gue	-9.95218
▁visés	-9.95247
▁long	-9.95257
▁affectation	-9.95261
ari	-9.95286
urs	-9.95303
▁elles	-9.95411
▁Alain	-9.95431
2-6	-9.9545
AUD	-9.95593
Paul	-9.95633
▁formulaire	-9.95636
EU	-9.95692
▁2025	-9.95724
▁bâtiments	-9.95744
Anne	-9.95755
NI	-9.95796
end	-9.9583
ville	-9.95866
▁supprimée	-9.95889
port	-9.95901
▁décrets	-9.95949
vre	-9.95968
▁accompagnée	-9.96057
agit	-9.96131
nes	-9.96211
▁2006-164	-9.96239
2.	-9.96266
ive	-9.9627
cha	-9.96275
▁inscrits	-9.96337
nelle	-9.96397
io	-9.96426
▁Sophie	-9.96454
▁courriel	-9.96548
pi	-9.96562
▁Vi	-9.96646
assistance	-9.96674
▁Dominique	-9.9671
▁visite	-9.96718
▁indications	-9.96756
▁internes	-9.96763
▁CA	-9.96815
▁48	-9.96826
▁mode	-9.96833
▁visée	-9.96846
▁ex	-9.96876
be	-9.96918
▁ingénieurs	-9.96943
▁remise	-9.96949
ub	-9.97065
▁Loire	-9.97151
▁transitoire	-9.97156
ille	-9.97187
▁Joseph	-9.97287
▁per	-9.9729
lon	-9.9737
ifi	-9.97421
▁56	-9.97443
▁grossesse	-9.97462
▁55	-9.97612
▁outils	-9.97637
ert	-9.97743
▁étudiants	-9.97779
Loire	-9.97811
expertise	-9.97844
anne	-9.97918
▁durabilité	-9.97928
AG	-9.97977
▁CHA	-9.98054
▁Se	-9.98085
▁écoles	-9.98151
use	-9.98162
▁chiffre	-9.98233
▁autorisations	-9.98253
▁industries	-9.98275
ris	-9.98392
▁prescription	-9.98428
▁engagements	-9.98471
pro	-9.98512
ru	-9.98686
▁psychiatrie	-9.98699
GER	-9.98752
▁53	-9.98854
▁îles	-9.98855
iers	-9.98883
AP	-9.9889
employeur	-9.98924
Louis	-9.99082
▁salaires	-9.9917
▁pouvoir	-9.99225
▁dotation	-9.99229
▁MA	-9.99245
je	-9.99256
ori	-9.99333
armement	-9.99384
▁issus	-9.99436
▁Car	-9.99446
▁refus	-9.99473
Algérie	-9.9948
▁agréées	-9.99523
▁agrément	-9.99558
▁Catherine	-9.99577
ux	-9.99784
étude	-9.99809
▁espace	-9.9989
5-2	-9.99897
▁garanties	-9.99902
▁telles	-9.99932
invalidité	-9.99952
Tunisie	-9.99957
euros	-10.0011
▁82	-10.0014
fa	-10.0022
GE	-10.0028
▁sites	-10.003
TA	-10.0035
tif	-10.0039
▁cotisations	-10.004
iste	-10.0047
▁collectivité	-10.005
▁obtenu	-10.0051
▁vu	-10.0057
▁bonne	-10.0067
engage	-10.0067
autonomie	-10.007
▁valorisation	-10.0074
▁détention	-10.0075
▁voix	-10.0075
▁MAR	-10.0075
.3.	-10.0083
concours	-10.0086
▁Caisse	-10.0091
▁complémentaires	-10.0091
▁international	-10.0095
▁statuts	-10.0099
▁expérience	-10.0106
ène	-10.0124
▁RO	-10.0124
AB	-10.0127
▁commandement	-10.0134
▁64	-10.0142
▁Jeanne	-10.0144
▁thérapeutique	-10.0148
née	-10.0149
▁effectués	-10.0151
▁associées	-10.0156
▁spéciale	-10.0158
Philippe	-10.0167
vo	-10.0176
▁SA	-10.0179
▁affectés	-10.0182
LI	-10.0185
za	-10.0185
▁Fonds	-10.0186
▁lycée	-10.0186
ed	-10.0202
▁Grenoble	-10.0202
▁validé	-10.0202
/2023-07-2	-10.0205
▁présentant	-10.0208
▁7.	-10.021
▁suspension	-10.0218
▁obligatoire	-10.0219
▁divisionnaire	-10.0219
-1.	-10.022
IM	-10.0229
od	-10.0232
Accè	-10.0234
ative	-10.0239
oi	-10.0242
▁exerce	-10.0246
/2023-07-1	-10.025
ies	-10.025
école	-10.0251
ana	-10.0255
▁Charles	-10.0256
euse	-10.0258
ger	-10.0261
▁Dé	-10.0267
.1.	-10.028
▁convocation	-10.0283
▁congé	-10.0286
▁questions	-10.0302
▁2241-	-10.0313
▁seules	-10.0316
▁radié	-10.0321
▁intérieur	-10.0328
Baptiste	-10.0332
nier	-10.0334
▁rejet	-10.0344
▁ajoutée	-10.0344
vent	-10.0354
ran	-10.0359
iques	-10.036
EZ	-10.0363
ons	-10.0372
▁El	-10.038
▁possibilité	-10.0381
▁active	-10.0381
▁globale	-10.0387
NE	-10.039
▁Cet	-10.0398
▁223	-10.04
SI	-10.041
Marne	-10.0415
▁travailleurs	-10.042
/2023-04-2	-10.0422
▁Frédéric	-10.0424
▁6.	-10.0428
ren	-10.0434
▁fournir	-10.0441
▁conversion	-10.0447
équipement	-10.0456
urbanisme	-10.0463
▁Civil	-10.0463
▁entités	-10.0477
▁médecins	-10.0478
acte	-10.0478
▁nouvelles	-10.0481
▁réalise	-10.0485
▁133	-10.0505
ten	-10.0508
▁tenir	-10.0513
▁70	-10.0522
▁adressé	-10.0525
▁conservation	-10.0529
▁démarche	-10.0529
▁acteurs	-10.0531
▁partenaires	-10.0534
Saint	-10.0534
▁disponibles	-10.0542
ID	-10.0543
▁alors	-10.0546
▁Bar	-10.0549
▁uniquement	-10.0556
▁Nancy	-10.0563
Christophe	-10.0569
▁privé	-10.0575
cour	-10.0578
▁cinquième	-10.0596
ist	-10.0599
▁opérateurs	-10.0605
0-1	-10.0609
▁effectuée	-10.0612
▁placée	-10.0616
▁propres	-10.0616
▁Futuna	-10.0617
Camille	-10.062
▁informatique	-10.0623
▁accordée	-10.0625
enne	-10.0627
▁aide	-10.0628
environnementale	-10.0628
▁retour	-10.0631
▁enveloppe	-10.0634
▁qualifié	-10.0634
mont	-10.0645
▁Fédération	-10.0646
▁réparation	-10.0646
▁complet	-10.0647
ingénieurs	-10.0651
_	-10.0655
▁etc	-10.0666
▁Bou	-10.0672
eaux	-10.0679
▁2004	-10.0686
PE	-10.0687
▁départ	-10.0696
▁espaces	-10.0699
▁métier	-10.0699
▁tarifs	-10.07
▁filière	-10.0701
▁cession	-10.0707
▁contentieux	-10.0714
▁plafond	-10.0717
exercer	-10.0719
/2023-02-1	-10.0731
▁preuve	-10.0731
▁appartenant	-10.0747
▁législation	-10.0748
▁médicaux	-10.0748
ai	-10.0751
ELLE	-10.0755
▁dite	-10.0761
▁effectué	-10.0777
honneur	-10.0782
▁biologie	-10.0782
▁ressort	-10.0799
▁médico	-10.0799
▁Georges	-10.08
▁types	-10.0803
▁central	-10.0814
RY	-10.0815
▁tient	-10.0817
▁disponible	-10.082
BI	-10.0826
▁Po	-10.0833
▁déjà	-10.0833
▁saisie	-10.0837
▁accessibles	-10.0842
▁permettent	-10.085
▁plans	-10.085
.2.	-10.0855
non	-10.0858
▁aussi	-10.0861
▁audit	-10.0864
▁particulières	-10.088
▁j	-10.0881
habitat	-10.0883
▁programmation	-10.0885
▁Christian	-10.0886
▁règlements	-10.0887
épreuves	-10.0889
▁47	-10.0893
lement	-10.0907
▁opérationnel	-10.0912
emplois	-10.0915
▁détenteur	-10.0919
fé	-10.0926
OC	-10.0927
▁clinique	-10.0936
▁hommes	-10.0938
son	-10.0938
▁w	-10.0942
▁analyse	-10.0943
ob	-10.0947
▁dérogations	-10.095
▁transmettre	-10.0955
▁78	-10.0957
▁interrégionale	-10.0961
impossibilité	-10.0971
▁auquel	-10.0971
▁recommandé	-10.0984
Antoine	-10.0986
major	-10.0987
▁anesthésie	-10.0989
▁10°	-10.0992
▁existant	-10.0993
▁haute	-10.0996
tin	-10.1001
▁utilisé	-10.1003
œuvre	-10.1004
▁procède	-10.1006
▁Etats	-10.1008
▁informé	-10.1023
▁directeurs	-10.1031
▁Fa	-10.1033
/2023-08-0	-10.1037
▁effectuer	-10.1045
EX	-10.1052
LO	-10.1052
▁offertes	-10.1061
DI	-10.1083
cul	-10.1088
▁équipage	-10.109
▁trouve	-10.1094
▁pensions	-10.1098
1-8	-10.1102
▁stagiaire	-10.1103
APPEL	-10.1115
cal	-10.1125
▁citernes	-10.1133
▁juridiction	-10.1134
Marc	-10.1137
▁détermine	-10.114
expiration	-10.1146
▁trente	-10.1147
▁éco	-10.1147
▁restauration	-10.1147
né	-10.1153
▁Ca	-10.1156
▁Ha	-10.1162
▁libre	-10.1164
OUR	-10.1172
ali	-10.1175
gré	-10.118
/2023-02-0	-10.1182
▁Rouen	-10.1184
▁magistrat	-10.1186
▁Guillaume	-10.1196
▁liaison	-10.12
ki	-10.1207
▁campagne	-10.1217
▁participer	-10.1218
▁figure	-10.1218
▁composé	-10.1224
▁maritimes	-10.1235
/2023-03-0	-10.1235
▁forces	-10.1241
▁Vincent	-10.1261
▁fonctionnaire	-10.1268
▁précédant	-10.1271
Guillaume	-10.1275
8-1	-10.1278
▁rendu	-10.1278
▁conformes	-10.1284
▁Nord	-10.1311
▁Thierry	-10.1311
▁clients	-10.1314
▁attribuée	-10.1315
▁visé	-10.1318
▁81	-10.134
quelles	-10.1342
ud	-10.1356
▁Françoise	-10.1358
▁80	-10.1362
▁seul	-10.1366
EF	-10.1375
MO	-10.1377
▁vols	-10.1392
allocation	-10.1394
▁2009	-10.1396
architecture	-10.1397
▁excéder	-10.1397
▁René	-10.1402
Alexandre	-10.1404
▁mandataire	-10.1407
inc	-10.1409
▁relève	-10.1411
▁délibération	-10.1412
TION	-10.1415
▁minima	-10.142
Thomas	-10.1422
animation	-10.1425
▁numériques	-10.1427
▁72	-10.1427
▁surfaces	-10.1429
▁tenant	-10.1434
▁1984	-10.1439
▁placés	-10.1446
▁électrique	-10.1449
▁disponibilité	-10.1452
▁greffier	-10.1452
▁justifiant	-10.1452
▁Pr	-10.1452
▁Robert	-10.146
▁régionales	-10.1462
▁dénomination	-10.147
▁proximité	-10.147
isse	-10.1473
▁Ro	-10.1481
arrêt	-10.1485
▁minuit	-10.1488
erie	-10.1497
affectation	-10.1497
▁tâches	-10.1505
▁producteur	-10.1505
▁acte	-10.1505
▁Gu	-10.1509
▁anti	-10.1512
▁civils	-10.1512
CP	-10.1513
ani	-10.1515
▁aucune	-10.1518
/2023-06-2	-10.1522
▁victimes	-10.1522
▁chauffage	-10.1522
▁contrôlée	-10.1525
▁disciplines	-10.1528
▁émissions	-10.1528
▁contribution	-10.1542
▁quinze	-10.1543
app	-10.1548
▁Institut	-10.155
nant	-10.1551
▁Epreuve	-10.1562
▁diverses	-10.1568
▁entrent	-10.1575
▁traitements	-10.1576
▁stockage	-10.1582
OIS	-10.1587
oy	-10.159
▁greffe	-10.1599
▁pression	-10.1605
imp	-10.1611
▁chaleur	-10.1617
▁handicapées	-10.1624
▁normales	-10.1632
▁Nathalie	-10.164
émission	-10.1645
▁versée	-10.1645
ingénieur	-10.1652
▁Modalités	-10.1654
▁justifier	-10.1659
INE	-10.1659
▁capacités	-10.166
▁techniciens	-10.1668
nage	-10.167
élaboration	-10.1692
▁répondre	-10.1694
▁domaines	-10.1699
GI	-10.1702
▁nationales	-10.1702
MENT	-10.1708
▁méthodes	-10.1719
▁Hélène	-10.172
▁Dijon	-10.1729
ton	-10.1731
▁conduire	-10.1748
▁individuels	-10.1751
tal	-10.1751
▁66	-10.1755
option	-10.176
▁No	-10.177
▁obtenir	-10.1771
Denis	-10.1801
cr	-10.1801
▁soumises	-10.1804
artisanat	-10.1805
ja	-10.1812
▁libertés	-10.1816
▁Ile	-10.182
î	-10.1823
▁jeux	-10.1824
/2023-12-0	-10.1827
▁3,	-10.1827
QUE	-10.1828
dite	-10.1853
▁Ber	-10.1857
▁Daniel	-10.1869
mment	-10.187
ales	-10.187
/2023-09-2	-10.1872
uc	-10.1876
▁contribuant	-10.188
Ouest	-10.1886
ait	-10.1887
/2023-10-2	-10.1889
▁destinés	-10.1889
▁établit	-10.1896
▁Stéphane	-10.1899
▁PER	-10.191
tro	-10.1911
▁pa	-10.1917
▁consommateurs	-10.1921
▁Patrick	-10.1922
GUE	-10.193
lot	-10.1934
hy	-10.1935
▁placé	-10.194
JUSB	-10.1943
▁raisons	-10.1944
▁identifiée	-10.1955
▁grille	-10.1957
don	-10.1959
▁Yves	-10.1964
RU	-10.197
▁Claire	-10.1974
▁demandé	-10.1977
ification	-10.1978
yn	-10.198
LES	-10.1981
▁extérieure	-10.1985
▁métropole	-10.1995
▁suppléante	-10.1998
▁famille	-10.2001
IV	-10.2008
4.	-10.2011
▁produire	-10.2014
▁duquel	-10.2015
MI	-10.202
/2023-11-2	-10.2024
3-7	-10.2029
▁art	-10.2031
1-7	-10.2034
▁Tours	-10.2034
▁Eric	-10.2042
▁locale	-10.2048
▁prévoit	-10.2053
▁séjour	-10.2053
▁49	-10.206
▁judiciaires	-10.2063
▁Alexandre	-10.2065
▁complément	-10.207
▁flux	-10.2072
▁substances	-10.2074
▁fourniture	-10.2075
▁derniers	-10.2075
▁bloc	-10.208
▁quantité	-10.208
▁Université	-10.2081
▁stagiaires	-10.2081
4)	-10.2089
ga	-10.2089
▁adultes	-10.2094
▁grand	-10.2097
hospitalisation	-10.2111
actions	-10.2118
000	-10.2139
▁capital	-10.215
▁spectacle	-10.215
▁indemnités	-10.2154
▁via	-10.2159
FF	-10.216
▁magistrature	-10.2161
occasion	-10.2166
▁espèces	-10.2171
AI	-10.2172
cy	-10.2173
ç	-10.2173
TER	-10.2177
▁professions	-10.2185
ord	-10.2188
ô	-10.2189
▁reçu	-10.2195
Léa	-10.2196
▁LES	-10.2197
▁rendus	-10.2198
ième	-10.2198
▁définit	-10.2204
▁POUR	-10.2206
▁colonel	-10.2213
▁http	-10.2225
Atlantique	-10.2229
▁processus	-10.2229
▁compétentes	-10.2233
▁SI	-10.2234
▁considéré	-10.2234
att	-10.2235
/2023-12-1	-10.2235
▁renouvelable	-10.224
▁donné	-10.2243
▁multi	-10.2249
▁sortie	-10.2253
▁assurée	-10.2261
oux	-10.2263
▁requises	-10.2264
▁Ta	-10.2278
▁reste	-10.2279
▁relation	-10.2279
he	-10.2283
▁schéma	-10.2288
▁avocat	-10.2303
▁Julien	-10.2319
igne	-10.233
▁admise	-10.2334
▁organisée	-10.235
ort	-10.2355
université	-10.2356
tier	-10.2358
▁majeure	-10.236
▁bénéficiant	-10.2368
▁atteint	-10.2377
cé	-10.2389
▁suivie	-10.2392
▁indique	-10.2396
▁forfait	-10.2397
pér	-10.24
▁renseignements	-10.2407
BA	-10.2414
delà	-10.2414
iel	-10.2415
▁maire	-10.2416
ys	-10.2419
▁approuvé	-10.2421
EG	-10.2428
▁mineurs	-10.2434
habilitation	-10.2436
ien	-10.2438
â	-10.2443
▁solde	-10.2445
/2023-03-2	-10.2448
accréditation	-10.2448
mm	-10.2452
▁Pascal	-10.2456
▁hauteur	-10.2458
▁procès	-10.2468
▁Ra	-10.2469
▁choisi	-10.2472
7-1	-10.2476
▁garantir	-10.2483
▁sportive	-10.2485
intégration	-10.2486
▁urbain	-10.2488
vin	-10.2489
▁effectuées	-10.2504
▁Marcel	-10.2504
▁chambres	-10.2505
mes	-10.2505
/2023-05-2	-10.2506
▁constitue	-10.2506
VE	-10.251
▁2026	-10.2519
▁complétée	-10.2521
Julien	-10.2524
▁NOTAIRES	-10.253
▁donne	-10.254
▁étant	-10.2554
tel	-10.2558
chi	-10.2561
apprenti	-10.2569
▁Comité	-10.257
▁calendrier	-10.2571
▁individuel	-10.2581
▁thermique	-10.259
▁Al	-10.259
▁indicateurs	-10.2593
GU	-10.2594
ente	-10.26
▁destinataire	-10.261
▁nationaux	-10.261
ient	-10.2628
▁calculé	-10.2632
▁antérieure	-10.2643
▁Hospi	-10.2651
LIN	-10.2659
▁cargaison	-10.2672
▁contenant	-10.2672
▁détail	-10.2672
AZ	-10.2681
▁taxes	-10.2682
▁67	-10.2688
▁employés	-10.269
▁Ver	-10.269
vant	-10.2692
▁vis	-10.2692
▁Christine	-10.2694
▁exploitation	-10.2696
▁tenue	-10.2696
▁principes	-10.2698
/2023-10-1	-10.27
inter	-10.2703
▁cohérence	-10.2713
▁car	-10.2728
aéronef	-10.2733
▁Constitution	-10.2734
ret	-10.2741
ières	-10.2747
▁ancienne	-10.2747
SA	-10.2752
▁complète	-10.2755
▁immédiatement	-10.2758
▁associations	-10.2767
▁obligatoirement	-10.2768
▁environnement	-10.2771
▁imprimé	-10.2775
▁détaillé	-10.2777
▁ingénieure	-10.2782
▁ANNEXES	-10.2783
▁11°	-10.2786
AIS	-10.2789
▁Date	-10.2792
ines	-10.2795
▁musée	-10.2796
sta	-10.2796
▁maximal	-10.2802
AGRT	-10.2803
▁contractuels	-10.2809
asse	-10.2814
▁profit	-10.2817
Est	-10.2817
▁statistique	-10.2818
▁renseignement	-10.2828
ECOE	-10.2834
Seine	-10.2836
efficacité	-10.2838
▁Convention	-10.2838
▁Ne	-10.2841
▁Caen	-10.2843
...)	-10.2849
UL	-10.2851
Juliette	-10.286
▁diplômes	-10.286
line	-10.2861
▁internationales	-10.2868
Olivier	-10.2879
expression	-10.2883
écart	-10.2894
▁justificatifs	-10.2895
▁habilités	-10.2897
/2023-03-1	-10.2901
▁protocole	-10.2901
▁circulaire	-10.2903
▁accompagné	-10.2905
NIER	-10.2906
TO	-10.2909
TS	-10.2917
▁01	-10.2922
▁référent	-10.2922
▁distinct	-10.2922
▁Pays	-10.2923
mand	-10.2923
▁mines	-10.2927
▁Je	-10.2938
acc	-10.294
▁Valérie	-10.2941
▁inscrites	-10.2948
men	-10.296
▁demeure	-10.2965
ng	-10.298
RMH	-10.2981
▁annuels	-10.2987
-19	-10.2993
▁opérationnelle	-10.2997
mor	-10.3007
▁assurant	-10.3007
▁PA	-10.301
▁Bo	-10.3023
▁caisse	-10.3024
▁comptabilité	-10.3028
▁manquement	-10.3028
SC	-10.303
▁57	-10.3032
▁technologies	-10.3033
Ar	-10.3039
/2023-11-1	-10.3045
▁PAR	-10.3045
bou	-10.3049
▁PRO	-10.3049
▁personnalités	-10.305
▁86	-10.305
OS	-10.3052
effectue	-10.3053
mat	-10.306
/2023-06-1	-10.3066
▁locales	-10.3067
▁administrateurs	-10.307
▁contractuelle	-10.307
▁Clermont	-10.3071
▁facultative	-10.3071
▁enjeux	-10.3071
assure	-10.3072
avant	-10.3074
anomalie	-10.3092
▁recteur	-10.3092
432-13	-10.3093
gn	-10.3095
▁exercice	-10.31
▁CAR	-10.3104
▁raccordement	-10.3114
▁synthèse	-10.3114
▁carrière	-10.3114
ole	-10.3116
▁affecté	-10.3117
ILLE	-10.3118
▁Char	-10.312
▁ouvrages	-10.3121
▁observations	-10.3137
Marion	-10.3143
▁guerre	-10.3157
▁notarial	-10.3157
▁relevé	-10.3157
▁permanent	-10.3166
isé	-10.3166
▁montagne	-10.3172
EY	-10.3172
▁textes	-10.3172
▁500	-10.3173
▁Ba	-10.3174
aine	-10.3177
TR	-10.3178
out	-10.3192
▁classement	-10.3193
PL	-10.3194
iz	-10.3194
-1,	-10.3196
▁al	-10.3196
▁58	-10.3196
▁garantissant	-10.32
▁contact	-10.3201
▁Vice	-10.3201
interministériel	-10.3202
og	-10.3206
/2023-07-0	-10.3207
▁procédé	-10.3208
▁faite	-10.3212
▁Na	-10.3216
▁décrites	-10.322
▁brigade	-10.3222
▁Commandant	-10.3222
▁Chef	-10.3228
▁déterminé	-10.3228
social	-10.3229
▁reprise	-10.3231
Ile	-10.3236
▁établis	-10.3243
ECO	-10.3246
HE	-10.325
▁Cécile	-10.3257
ÉS	-10.3259
▁requis	-10.3264
▁Poitiers	-10.3266
verbal	-10.3266
▁donner	-10.3268
oud	-10.3273
oir	-10.3276
▁adaptée	-10.3278
ain	-10.3278
▁suppléants	-10.3281
▁Notaires	-10.3285
▁principaux	-10.3288
▁pédiatrie	-10.3288
▁CE	-10.3295
▁organisé	-10.3297
IGN	-10.3303
zi	-10.3306
▁partiel	-10.3308
OP	-10.3309
▁préparant	-10.331
6-2	-10.331
/2023-06-0	-10.3312
▁électroniques	-10.3314
▁bio	-10.3321
▁huit	-10.3325
▁91	-10.3331
Barthélemy	-10.3332
Office	-10.3332
▁facture	-10.3332
UF	-10.3334
▁inscrit	-10.3335
▁bar	-10.3343
entraînement	-10.3344
▁série	-10.3346
▁BO	-10.3346
apport	-10.335
▁effectifs	-10.3371
ives	-10.3373
▁marchandises	-10.3376
Amiens	-10.3376
▁radio	-10.3376
▁électriques	-10.3379
magistrature	-10.3386
▁Titulaire	-10.3398
▁réglementé	-10.3398
▁description	-10.3398
▁Reims	-10.3398
▁ZIT	-10.3399
RÉ	-10.34
entre	-10.3402
▁pilote	-10.3408
▁BEN	-10.3409
▁population	-10.3409
tér	-10.341
▁Camille	-10.3411
▁déploiement	-10.342
/2023-01-1	-10.3422
▁Non	-10.3427
▁77	-10.3434
ART	-10.3437
▁douze	-10.3442
▁sixième	-10.3444
▁organisateur	-10.345
▁DÉ	-10.3451
voir	-10.3452
▁bénéficie	-10.3456
▁consiste	-10.3465
aut	-10.3466
▁imposé	-10.3469
▁Thomas	-10.3478
▁Louise	-10.3481
▁certifications	-10.3488
/2023-04-0	-10.3495
ures	-10.3498
▁précédente	-10.3507
▁seuil	-10.3507
▁Conditions	-10.3509
▁alpin	-10.3509
▁donc	-10.351
▁partielle	-10.351
▁AL	-10.3511
▁Règlement	-10.3513
▁états	-10.3519
Sophie	-10.3522
▁fera	-10.3524
▁fonctionnelle	-10.3525
▁déposé	-10.3526
éta	-10.3529
▁Emmanuel	-10.353
sy	-10.3533
▁nouveaux	-10.3534
▁exceptionnel	-10.3541
▁situés	-10.3542
Mar	-10.3543
intitulé	-10.3545
approbation	-10.3545
▁1986	-10.3563
logique	-10.3566
▁formule	-10.3585
las	-10.3586
ste	-10.3589
ESR	-10.3592
éra	-10.3596
▁po	-10.3596
Chloé	-10.3599
▁intervient	-10.36
▁moteurs	-10.3606
▁déterminer	-10.3607
▁savoir	-10.3607
▁élément	-10.3607
effectuer	-10.3611
▁tri	-10.3615
▁conduit	-10.3616
▁Guy	-10.3617
▁substitut	-10.3621
▁consultative	-10.3622
▁déterminée	-10.3624
uy	-10.3628
RON	-10.363
▁brut	-10.3633
jet	-10.3637
même	-10.3638
▁vise	-10.364
▁juridiques	-10.364
▁85	-10.3647
isée	-10.3656
▁soumise	-10.3657
ze	-10.3657
▁Service	-10.366
4-3	-10.3664
fe	-10.3666
▁radiation	-10.3667
▁74	-10.3667
▁200	-10.3671
▁prononcée	-10.3671
▁communiqué	-10.3676
▁démission	-10.3677
▁médicament	-10.3683
Etienne	-10.3684
ND	-10.3689
gen	-10.3689
ECOP	-10.3694
RET	-10.3694
▁Santé	-10.3705
échange	-10.3707
Michel	-10.3707
▁ailleurs	-10.3713
▁compagnie	-10.3714
▁faits	-10.3716
avances	-10.3721
ici	-10.3725
▁couvert	-10.3731
ateurs	-10.3735
/2023-11-0	-10.3744
naire	-10.3746
assuré	-10.3753
▁Contrôle	-10.3759
▁monétaire	-10.3759
▁logistique	-10.3759
form	-10.3766
UT	-10.3772
▁Bruno	-10.3775
préfète	-10.3778
tage	-10.3779
▁passer	-10.3779
Quentin	-10.3782
EM	-10.3785
▁assistante	-10.3786
▁règle	-10.3789
▁morales	-10.3791
ts	-10.3794
▁valable	-10.3795
▁pourvoir	-10.3799
▁direct	-10.3801
▁Roger	-10.3805
▁Di	-10.3806
▁accepté	-10.3807
▁Cyclades	-10.3807
▁étrangère	-10.3823
▁contraire	-10.3828
▁détaché	-10.3828
▁Heure	-10.3829
▁Bi	-10.3833
▁exemple	-10.3841
▁calculée	-10.3842
▁action	-10.3843
▁degré	-10.3845
▁susmentionné	-10.3845
▁solidarité	-10.3846
▁susceptible	-10.3846
ENS	-10.3846
▁CH	-10.385
▁concurrence	-10.3851
égard	-10.3851
▁Code	-10.3856
▁requise	-10.3857
▁précitée	-10.3859
ug	-10.3867
▁acceptée	-10.3872
▁artistique	-10.3874
FR	-10.388
▁relèvent	-10.388
▁discipline	-10.3893
histoire	-10.3897
▁définissant	-10.3898
implantation	-10.39
▁ponctuelle	-10.3901
▁continu	-10.3904
▁propose	-10.3905
▁réelle	-10.3908
ILL	-10.3912
mon	-10.3913
.1.1.	-10.3916
cro	-10.3919
directrice	-10.392
ili	-10.3922
agents	-10.3925
▁sommes	-10.3931
▁chantier	-10.3944
▁accords	-10.3945
▁bénéficient	-10.3949
ach	-10.3952
/2023-02-2	-10.3967
rier	-10.3968
▁location	-10.3968
rat	-10.397
▁secteurs	-10.3979
quet	-10.398
EAE	-10.3982
▁destination	-10.3991
venu	-10.4
ff	-10.4008
indicateur	-10.4011
▁honoraire	-10.4013
▁ouvriers	-10.4014
▁SE	-10.4017
très	-10.4031
nat	-10.4033
▁Réalis	-10.4034
ara	-10.4036
▁partage	-10.4036
▁compatibles	-10.4042
NF	-10.4046
▁moteur	-10.4046
ust	-10.4047
SSI	-10.4052
Espace	-10.4062
iser	-10.4072
▁animaux	-10.4076
▁RÉ	-10.4079
▁report	-10.4085
hygiène	-10.4085
▁classification	-10.4085
Adrien	-10.4086
▁Olympiques	-10.4086
.2.1.	-10.4088
▁recueil	-10.4099
▁publiée	-10.4099
▁communications	-10.4099
▁exposé	-10.4105
▁Pa	-10.4107
▁salaire	-10.4109
▁vétérinaire	-10.4109
▁face	-10.411
dre	-10.4113
particulièrement	-10.4119
▁formes	-10.4121
▁poids	-10.4133
▁évaluer	-10.4134
▁référentiels	-10.4141
▁externes	-10.4148
alité	-10.4153
appareil	-10.4154
Luc	-10.4155
▁résolution	-10.4157
Angers	-10.4157
▁Brest	-10.4157
AUX	-10.4159
▁ancien	-10.416
organismes	-10.4165
▁offre	-10.4171
▁catastrophe	-10.4181
▁compensation	-10.4181
▁coordonnateur	-10.4182
NOR	-10.4187
▁2020-5	-10.4194
▁Section	-10.4195
rage	-10.4197
TIER	-10.4199
▁lundi	-10.4207
omb	-10.421
Laurent	-10.4213
▁aménagement	-10.4216
ères	-10.4223
aff	-10.4226
▁passagers	-10.4229
▁Nice	-10.4229
▁Gérard	-10.4229
▁connaître	-10.423
▁prestataire	-10.4231
▁DEL	-10.4242
2)	-10.4243
1.1	-10.4244
ang	-10.425
▁nécessité	-10.4253
▁repose	-10.4261
▁composée	-10.4269
▁commercial	-10.4271
sante	-10.4273
▁David	-10.4279
.4.	-10.4282
VAL	-10.4283
Lo	-10.4286
▁interventions	-10.4288
essai	-10.429
▁réputé	-10.4293
▁protégée	-10.43
▁provisoire	-10.4301
IX	-10.4305
▁millions	-10.4305
▁contribue	-10.431
▁8.	-10.4317
han	-10.4322
▁2002	-10.4323
▁hiérarchique	-10.4325
▁cotisation	-10.4329
2-8	-10.4329
▁maîtres	-10.4331
▁reconnue	-10.4338
▁effective	-10.434
▁Vu	-10.4342
▁prévisionnel	-10.4342
▁Pi	-10.4348
dia	-10.4348
immatriculation	-10.435
▁recouvrement	-10.435
êt	-10.4351
pon	-10.4353
ric	-10.4361
▁proposer	-10.4367
▁commissions	-10.4371
▁post	-10.4373
▁So	-10.4376
▁165-1	-10.4391
FI	-10.4395
▁Aucune	-10.4396
échéance	-10.4399
▁livraison	-10.4399
▁tabac	-10.4399
▁IX	-10.4415
▁gynécologie	-10.4423
▁rouge	-10.4424
▁double	-10.4424
9-1	-10.4428
VI	-10.4431
éro	-10.4431
▁dématérialisée	-10.4432
/2023-05-1	-10.4435
▁écrites	-10.4435
11-2	-10.4437
▁ministères	-10.444
auteur	-10.4452
▁équipe	-10.4466
▁95	-10.447
Association	-10.4472
▁Paralympiques	-10.4472
▁rénovation	-10.4472
▁4111-2	-10.4473
▁cassation	-10.4474
▁signe	-10.4489
▁Luc	-10.4495
BR	-10.4497
▁facturation	-10.4497
/2023-01-2	-10.4506
▁coordonnées	-10.4506
▁certificateur	-10.451
▁fonctionnel	-10.4518
▁loyer	-10.4522
▁manifestation	-10.4522
▁of	-10.4529
▁sus	-10.453
▁mentionne	-10.453
ED	-10.453
▁dénommée	-10.4544
▁élus	-10.4547
▁arme	-10.455
élection	-10.4555
▁spécialisé	-10.4559
La	-10.4562
PP	-10.4566
▁routière	-10.4572
exposition	-10.4576
▁transmises	-10.4581
▁orales	-10.4583
▁dés	-10.4584
Côte	-10.4585
/2023-08-	-10.4586
▁rapports	-10.4596
▁Nom	-10.4596
▁dispense	-10.4596
▁stationnement	-10.4596
▁contributions	-10.4598
▁Ou	-10.4598
▁approbation	-10.4606
HA	-10.4609
Vincent	-10.461
PO	-10.4615
▁exclusivement	-10.4624
IF	-10.4631
Pauline	-10.4638
▁dehors	-10.4639
▁évalué	-10.464
infrastructure	-10.4643
▁travers	-10.4647
▁Tableau	-10.4647
▁commerciale	-10.4647
▁modifier	-10.4648
NO	-10.4649
▁Juge	-10.4649
lis	-10.465
▁classés	-10.4654
▁versé	-10.4654
BRE	-10.4656
Rhin	-10.4659
pt	-10.466
ouche	-10.4667
▁assurances	-10.4669
▁croissance	-10.4672
▁sanction	-10.4673
▁Cas	-10.4674
▁désignées	-10.4675
▁Corse	-10.468
ANI	-10.4685
▁portée	-10.4694
▁théorique	-10.4697
Emma	-10.4698
▁mal	-10.4702
iff	-10.4712
.1.2.	-10.4712
Sébastien	-10.4713
ST	-10.4716
▁troupe	-10.4716
IG	-10.472
onfédération	-10.4722
▁fixation	-10.4722
II	-10.4731
aient	-10.4731
-15	-10.4737
▁spécialisée	-10.4741
▁variétés	-10.4747
ements	-10.475
▁saison	-10.4753
INS	-10.4756
Val	-10.4758
▁existe	-10.4758
duc	-10.476
31-1	-10.4761
▁décès	-10.4773
▁locataire	-10.4773
▁Xavier	-10.4776
▁XI	-10.4782
▁meilleurs	-10.4788
lais	-10.4793
Ana	-10.4793
▁porter	-10.4796
▁mixte	-10.4798
importance	-10.4799
▁conférences	-10.4799
▁(2)	-10.4804
▁déplacement	-10.481
net	-10.481
col	-10.4818
▁fédération	-10.4824
Ferrand	-10.4824
▁objectif	-10.4825
▁niveaux	-10.4834
ong	-10.4835
EMENT	-10.4836
can	-10.484
évaluer	-10.4843
▁affectée	-10.4849
▁qualifications	-10.4851
▁2.2.	-10.4854
▁Sébastien	-10.4858
▁76	-10.4863
car	-10.4875
▁rempli	-10.4897
▁administrations	-10.4897
▁Besançon	-10.4901
▁Suppléant	-10.4901
/2023-10-0	-10.491
alerte	-10.4911
indemnisation	-10.4914
informations	-10.4923
▁adopté	-10.4926
▁infrastructures	-10.493
Le	-10.4938
▁enregistré	-10.4939
▁Ex	-10.494
▁fil	-10.4945
▁ordre	-10.4946
culture	-10.4948
▁passage	-10.4954
▁notifiée	-10.4958
aille	-10.496
GA	-10.496
▁établir	-10.4963
ka	-10.4966
officier	-10.4966
▁Julie	-10.4968
RIS	-10.4969
2-7	-10.4971
▁presse	-10.498
EUX	-10.4982
EUR	-10.4988
tan	-10.4989
EV	-10.4992
adi	-10.4993
UGA	-10.4994
▁Stéphanie	-10.5
isme	-10.5004
▁Affectation	-10.5004
▁Sylvie	-10.5005
▁appelé	-10.5006
▁final	-10.5008
▁éventuellement	-10.5009
BE	-10.5012
▁constitutive	-10.502
AULT	-10.5026
▁déterminées	-10.503
bli	-10.5038
▁PI	-10.5039
ond	-10.5045
LAN	-10.505
/2023-04-1	-10.505
▁réel	-10.5055
▁habituel	-10.5056
Matthieu	-10.5056
▁disposant	-10.5056
QU	-10.506
▁interdit	-10.5064
▁Maurice	-10.5064
▁régionaux	-10.5071
▁propositions	-10.5074
▁69	-10.5077
▁circonstances	-10.5078
Mathilde	-10.5081
▁pu	-10.5086
▁classé	-10.5087
▁directe	-10.5087
▁groupes	-10.509
avance	-10.5091
▁présentée	-10.5092
▁régies	-10.5095
ore	-10.5097
▁68	-10.5101
Hugo	-10.5104
▁notifie	-10.5109
▁unitaire	-10.5109
▁privés	-10.5113
PR	-10.5117
▁liée	-10.5125
LET	-10.5126
appuie	-10.513
▁recommandations	-10.5149
SON	-10.5154
▁évalue	-10.5155
▁réunion	-10.5155
▁détermination	-10.5161
▁votre	-10.5163
▁Gabriel	-10.5164
Stéphane	-10.5165
▁614	-10.5172
MAR	-10.5172
▁postal	-10.5175
lier	-10.5179
▁interrégional	-10.5181
▁expert	-10.5182
▁photo	-10.5188
▁résidant	-10.5188
▁suivre	-10.5188
▁2000	-10.5188
▁déclarés	-10.5193
3-4	-10.5197
▁juridictions	-10.5199
▁accompagnement	-10.5204
▁CON	-10.5205
▁Ben	-10.5206
▁vivante	-10.5208
▁eu	-10.5208
▁porté	-10.5208
initiative	-10.5214
▁conducteur	-10.5214
▁Adresse	-10.5214
▁PO	-10.5216
▁Haut	-10.522
▁Véronique	-10.523
ayant	-10.5233
▁neuf	-10.5237
RIE	-10.5238
homologation	-10.5241
▁mentionnant	-10.5244
asile	-10.5244
▁souhaite	-10.5246
▁portées	-10.5252
ZE	-10.5255
administrateur	-10.5267
▁situe	-10.5268
échelle	-10.5268
accomplissement	-10.5268
échelon	-10.5268
Claire	-10.527
▁traité	-10.5281
▁versées	-10.5286
▁jeunes	-10.5293
AUT	-10.5294
▁rigueur	-10.5294
▁disciplinaire	-10.5301
ison	-10.5301
intéressée	-10.5313
▁périodique	-10.5321
▁transféré	-10.5321
▁imagerie	-10.5321
▁composer	-10.5322
▁séances	-10.5325
the	-10.5327
▁2003	-10.533
▁magistrate	-10.5331
▁Per	-10.5345
▁émis	-10.5345
let	-10.5348
▁attestant	-10.5348
▁continuité	-10.5349
▁grave	-10.535
▁Mon	-10.5351
▁va	-10.5351
▁poursuite	-10.5358
▁entraîne	-10.5361
CV	-10.5365
▁régimes	-10.5366
Or	-10.5369
▁Avant	-10.5371
▁développer	-10.5372
viennent	-10.5374
Julie	-10.5375
▁exemplaires	-10.5382
▁supports	-10.5382
raient	-10.5391
▁délivrer	-10.5395
▁contraintes	-10.5401
rée	-10.5401
bert	-10.5401
▁vous	-10.5403
outil	-10.541
▁enseignements	-10.5423
▁Jérôme	-10.5424
mine	-10.5424
▁nordique	-10.5429
appellation	-10.5429
▁placement	-10.543
auditeur	-10.5431
ny	-10.5431
▁intervenir	-10.5433
rin	-10.5435
▁avenue	-10.5435
Laura	-10.5436
GEN	-10.544
▁thérapeutiques	-10.544
▁populaire	-10.5456
▁soixante	-10.5456
ade	-10.5457
▁élevé	-10.5458
▁solutions	-10.546
Rapha	-10.5461
▁conc	-10.5463
ancienneté	-10.5471
▁atteinte	-10.5473
anc	-10.5482
▁revenus	-10.5483
accessibilité	-10.5484
élevage	-10.5484
▁12°	-10.5485
▁choisie	-10.5487
▁rappel	-10.5491
▁grands	-10.5498
▁pri	-10.5498
▁appel	-10.5501
▁diffusion	-10.5502
▁biologique	-10.5509
5-3	-10.5509
▁adapté	-10.5518
▁automobile	-10.5531
▁maladies	-10.5533
▁technologique	-10.5536
▁fichier	-10.5536
▁horaires	-10.5546
adjoint	-10.5548
PS	-10.555
affaires	-10.5551
ves	-10.5562
▁signataire	-10.5566
▁répondant	-10.5572
▁débit	-10.5572
▁constatation	-10.5577
Aix	-10.5579
▁cm	-10.559
omme	-10.5592
▁déclarations	-10.5593
▁capitalisable	-10.5593
▁signée	-10.5597
21-1	-10.5599
▁praticien	-10.56
▁admissibles	-10.5603
▁présenté	-10.5615
▁DI	-10.5618
▁infanterie	-10.562
Florian	-10.5621
▁téléphone	-10.5621
▁occupant	-10.5622
▁mentions	-10.5622
pré	-10.5626
▁Laurence	-10.563
▁parc	-10.563
venant	-10.5634
ante	-10.5635
▁approuvée	-10.5644
▁utilisées	-10.5646
▁génétique	-10.5649
RIN	-10.565
▁fondement	-10.5652
ges	-10.5653
▁équipes	-10.5655
Frédéric	-10.566
lat	-10.5662
ak	-10.5665
chet	-10.5667
▁destinées	-10.5679
▁351-1	-10.5685
atrice	-10.5686
▁répond	-10.5691
▁issues	-10.5692
▁sujet	-10.5705
▁sept	-10.5705
▁612	-10.5706
▁vo	-10.5707
▁revenu	-10.5708
▁peines	-10.571
▁couverture	-10.5711
cent	-10.5715
▁Sans	-10.5724
Ga	-10.5728
van	-10.5729
▁circuit	-10.5732
▁liquidation	-10.5732
▁naissance	-10.5732
▁répertoire	-10.5732
▁groupements	-10.5734
▁bois	-10.574
MP	-10.5744
Claude	-10.5745
-0	-10.5748
▁habilitée	-10.5749
▁documentation	-10.5753
▁nomenclature	-10.576
▁réadaptation	-10.5765
avoir	-10.5766
/2023-12-3	-10.5768
▁Sal	-10.5775
▁global	-10.5777
▁Contrat	-10.5788
▁Versailles	-10.5788
▁restructuration	-10.5788
▁satisfait	-10.5788
▁marque	-10.5789
spect	-10.5793
▁délibérations	-10.5793
▁transmise	-10.5802
▁Florence	-10.5804
ane	-10.5804
3-8	-10.5806
▁industriel	-10.5806
▁1.2.	-10.5811
▁prélèvement	-10.5819
▁renouvelé	-10.5833
AGE	-10.5836
▁Action	-10.5836
41-1	-10.5837
▁(2	-10.5838
▁priorité	-10.5845
▁bonification	-10.5846
▁concourir	-10.5846
▁équipé	-10.585
▁cela	-10.5851
▁Mo	-10.5851
▁88	-10.5852
▁Ecole	-10.5861
/2023-08-1	-10.587
▁utilisation	-10.5872
▁label	-10.5873
aye	-10.5873
Azur	-10.5873
entreprises	-10.5882
rand	-10.5883
MIC	-10.5884
▁cent	-10.5885
▁indemnité	-10.5894
ulaire	-10.5895
interdiction	-10.5902
cher	-10.5903
▁dépense	-10.5905
▁NF	-10.5916
▁exercices	-10.5923
Cédric	-10.593
▁84	-10.593
▁2.1.	-10.5937
avi	-10.5942
▁92	-10.5944
expert	-10.5946
▁lourd	-10.5955
amp	-10.5956
▁routier	-10.5959
▁Lo	-10.5959
ION	-10.596
oub	-10.596
lie	-10.5961
1)	-10.5962
▁ordres	-10.5962
▁âgées	-10.5963
ROU	-10.5964
▁conjointement	-10.5966
▁Del	-10.5966
▁issue	-10.5967
▁comprise	-10.5979
▁tour	-10.5984
MB	-10.5986
iane	-10.5986
▁Arnaud	-10.5986
▁satisfaire	-10.5987
▁température	-10.5987
▁carbone	-10.5992
22-1	-10.5998
▁auxquel	-10.6007
▁biodiversité	-10.6016
▁GA	-10.6026
▁mon	-10.6034
▁automatique	-10.6035
▁indépendant	-10.6044
▁usées	-10.6045
▁Disposition	-10.6046
sp	-10.605
dy	-10.605
▁tir	-10.6054
▁étrangers	-10.6057
▁traitées	-10.6059
▁éventuelles	-10.6068
▁Premier	-10.6074
▁dernières	-10.6087
▁réuni	-10.6088
▁on	-10.6089
▁important	-10.609
▁transporteur	-10.609
▁blocs	-10.609
ini	-10.6091
ANCE	-10.6097
TIN	-10.61
▁ferroviaire	-10.6103
Garonne	-10.6103
▁serre	-10.6103
ches	-10.6105
ju	-10.6107
▁habilité	-10.6107
▁rattaché	-10.6116
▁supplémentaires	-10.6117
Charles	-10.6124
Maxime	-10.6124
Manon	-10.6125
cinq	-10.6128
infirmier	-10.6128
▁cré	-10.6129
▁Référentiel	-10.6132
▁Autres	-10.6132
Alexis	-10.6132
▁conseils	-10.6132
▁Soit	-10.6134
▁chargées	-10.6138
▁dédié	-10.6138
▁aéronef	-10.614
▁Caroline	-10.6141
▁remis	-10.6142
▁syndicales	-10.6143
III	-10.6145
▁93	-10.6153
cadre	-10.6154
▁particulière	-10.6157
▁premiers	-10.6159
▁immobilière	-10.6161
▁Raymond	-10.6161
▁charte	-10.6161
ologue	-10.6162
▁k	-10.6163
ov	-10.6168
▁intercommunale	-10.617
▁livret	-10.6171
▁perte	-10.6172
▁FA	-10.6175
▁indiqué	-10.6182
ault	-10.6184
▁Che	-10.6186
▁prélèvements	-10.6187
▁intermédiaires	-10.6188
▁tutelle	-10.619
▁infractions	-10.6194
▁sportives	-10.6199
▁préalables	-10.6202
▁Da	-10.6209
▁but	-10.6213
▁MOR	-10.6217
▁taille	-10.6221
▁veiller	-10.6222
court	-10.6223
▁climatique	-10.6227
▁vérifications	-10.6228
▁trimestre	-10.6229
assi	-10.6233
HI	-10.6235
▁proche	-10.6241
octroi	-10.6249
▁diplomatique	-10.6249
▁rôle	-10.6249
utilité	-10.6249
▁présentent	-10.6262
adulte	-10.6275
▁test	-10.6277
STE	-10.6277
▁BER	-10.6277
isés	-10.6278
▁nettoyage	-10.6278
▁faible	-10.6278
Audrey	-10.6278
UM	-10.6283
der	-10.6284
▁scientifiques	-10.6284
.2.2.	-10.6286
▁exprimé	-10.6286
▁situées	-10.6287
▁crise	-10.6289
▁Pointe	-10.6297
▁radiée	-10.6298
▁mécaniques	-10.6303
Xavier	-10.6304
uff	-10.6305
▁inspecteurs	-10.6306
HER	-10.6308
FA	-10.6308
▁quater	-10.6308
▁étapes	-10.6311
NET	-10.6318
ll	-10.6319
chercheurs	-10.6319
her	-10.6323
▁recherches	-10.6324
▁162-22	-10.6333
▁inscrite	-10.6333
Clément	-10.6334
▁listes	-10.6337
▁grande	-10.6337
historique	-10.6338
augmentation	-10.6338
▁96	-10.634
ép	-10.6344
▁achats	-10.6346
▁Ja	-10.6349
OSS	-10.6349
▁conventionnelle	-10.635
▁Didier	-10.6354
▁Bourg	-10.636
ifié	-10.6366
▁danger	-10.6368
IQUE	-10.6369
tré	-10.6371
▁rejeté	-10.6371
▁totalité	-10.6373
▁secret	-10.6373
VER	-10.6375
rn	-10.6376
▁exclu	-10.6379
▁statutaires	-10.6384
CHER	-10.6386
▁parts	-10.6388
▁accéder	-10.6393
▁échanges	-10.6395
David	-10.6395
▁occurrence	-10.6397
▁incluant	-10.6397
▁génie	-10.6397
▁aura	-10.6401
▁comportement	-10.6404
▁déposée	-10.6405
infraction	-10.6424
Haute	-10.6425
▁couleur	-10.6427
▁demandée	-10.6431
pli	-10.6431
▁213-1	-10.6435
▁justifie	-10.6442
▁graphique	-10.6444
AIRE	-10.6452
DR	-10.6453
exécut	-10.6455
▁justification	-10.6457
▁LISTE	-10.6457
anglais	-10.6458
URE	-10.646
▁parcelle	-10.6461
▁désignée	-10.6462
dits	-10.647
▁rémunérations	-10.6487
▁recevoir	-10.6488
▁adaptées	-10.649
▁VER	-10.6492
▁Seine	-10.6492
▁orientations	-10.6495
▁pertinent	-10.6504
▁départementales	-10.6506
▁pédagogiques	-10.6514
▁communiquer	-10.6516
▁fusion	-10.6518
▁tuteur	-10.6518
DO	-10.652
atifs	-10.6522
▁ultérieurement	-10.6522
▁téléversement	-10.6523
ita	-10.6526
Al	-10.6526
▁Gilles	-10.6533
cf	-10.6535
▁tarifaire	-10.6535
▁BE	-10.6536
▁particuliers	-10.6537
log	-10.6539
▁portent	-10.6544
éna	-10.6545
▁SAINT	-10.6548
▁NO	-10.6552
▁supplémentaire	-10.6564
▁Limoges	-10.6578
▁redevable	-10.6578
LOU	-10.658
Yann	-10.6581
▁dirigeant	-10.6584
ARR	-10.6593
▁accompli	-10.6593
▁sort	-10.6595
▁prescrit	-10.6595
image	-10.6598
zo	-10.6602
Pologne	-10.6609
appréciation	-10.6609
▁extraordinaire	-10.6609
▁indiquant	-10.6609
▁radiologie	-10.6609
MON	-10.6611
amb	-10.6613
▁2.3.	-10.6614
▁ST	-10.6618
▁1987	-10.6619
▁adjoints	-10.6624
▁jugement	-10.6624
▁confié	-10.6626
▁87	-10.6629
▁utiliser	-10.6631
▁sévère	-10.6639
établir	-10.6642
/2014	-10.6643
▁apportées	-10.6647
▁aérodromes	-10.6647
▁1988	-10.6649
▁confiées	-10.6653
▁Gr	-10.6654
▁recev	-10.6655
▁classées	-10.6655
ettre	-10.6662
▁Ministère	-10.667
▁décédé	-10.667
▁navigabilité	-10.667
▁pollution	-10.667
chimie	-10.667
cardiovasculaire	-10.6672
▁remet	-10.6677
ros	-10.6679
▁Mor	-10.6682
oli	-10.6695
▁respecte	-10.6696
▁médicales	-10.6697
ICH	-10.6699
▁Coefficient	-10.6701
▁moitié	-10.6701
Romain	-10.6705
CL	-10.6706
▁directions	-10.6715
▁officier	-10.672
▁conséquences	-10.6722
▁notifié	-10.6725
▁hospitaliers	-10.6725
arrivée	-10.6732
▁effectue	-10.6742
▁2027	-10.6746
apprécier	-10.6748
▁déplacements	-10.6748
▁intérêts	-10.6751
▁fiscales	-10.6753
▁AUX	-10.6759
▁recommandée	-10.677
▁89	-10.6771
▁proposé	-10.6772
▁joint	-10.6779
▁stratégique	-10.6782
▁intervenant	-10.6785
usse	-10.6788
organe	-10.6793
one	-10.6794
attention	-10.6794
adoption	-10.6795
Etablissement	-10.68
▁susmentionnée	-10.6801
▁notes	-10.6808
▁Th	-10.6809
MAN	-10.6811
cept	-10.6816
▁COR	-10.6817
cor	-10.682
/2023-09-0	-10.682
▁Céline	-10.6821
▁ballast	-10.6825
▁pourcentage	-10.6825
pre	-10.6832
logiques	-10.6836
▁HT	-10.6837
-2.	-10.6848
▁participe	-10.6851
ck	-10.6853
▁régis	-10.6855
▁résident	-10.6855
▁occupé	-10.6856
▁organique	-10.6856
nom	-10.6857
AMP	-10.686
RAEP	-10.686
▁Lors	-10.6861
▁pénal	-10.687
lia	-10.6873
▁stock	-10.6875
▁94	-10.6877
▁obtenue	-10.6881
▁adaptation	-10.6885
CHI	-10.6886
échantillon	-10.6887
▁auto	-10.6888
▁Garantie	-10.6889
Théo	-10.689
▁TABLEAU	-10.6892
▁consulté	-10.69
bra	-10.69
position	-10.6902
▁fraction	-10.6903
42-1	-10.6912
site	-10.6917
▁fournisseurs	-10.6917
issement	-10.6918
▁batterie	-10.6919
▁située	-10.6922
PI	-10.693
TÉ	-10.6931
▁candidatures	-10.6932
▁prenant	-10.6937
ian	-10.6939
▁mm	-10.6943
▁Etablissement	-10.6944
▁éducative	-10.695
▁fermeture	-10.695
▁ouvré	-10.695
équipements	-10.6956
cité	-10.6957
ate	-10.6958
▁entend	-10.6963
▁1978	-10.6964
▁dépôts	-10.6973
rine	-10.6974
▁qualifiées	-10.698
▁Assesseur	-10.6982
▁CNIL	-10.6982
Arthur	-10.6982
▁utilisateurs	-10.6986
▁assuré	-10.6987
▁précisé	-10.6989
▁enregistrées	-10.6999
bon	-10.7
▁daté	-10.7003
ven	-10.7004
▁principe	-10.7006
▁mensuelle	-10.7009
▁différence	-10.7014
▁pénétration	-10.7014
Amélie	-10.7014
audition	-10.7015
actif	-10.7015
ARI	-10.7016
yl	-10.7019
gal	-10.7025
Charlotte	-10.7025
RS	-10.7027
▁821-1	-10.7033
/2023-08-2	-10.7038
utilisateur	-10.7042
Pyrénées	-10.7046
excède	-10.7046
▁comprennent	-10.7046
▁communique	-10.7048
▁correspondance	-10.7048
▁privée	-10.705
▁finalité	-10.7051
▁finale	-10.7064
▁technologie	-10.7071
▁Définition	-10.7078
▁majorité	-10.7081
▁abrogés	-10.7083
HO	-10.7085
▁concour	-10.7087
étudiant	-10.709
gan	-10.7091
▁disposent	-10.7093
▁reconnu	-10.7093
▁régie	-10.7093
▁Go	-10.7095
▁peine	-10.7103
▁Taux	-10.7109
▁barème	-10.711
▁encore	-10.711
rad	-10.7116
▁immobilier	-10.7118
▁Com	-10.7121
▁représente	-10.7127
▁Alpes	-10.714
▁nouvel	-10.7141
▁détection	-10.7142
▁envoyé	-10.7142
▁indexation	-10.7142
empêchement	-10.7146
▁implanté	-10.7148
avocat	-10.7149
▁savoirs	-10.7154
immobilier	-10.7156
▁2019).	-10.716
▁voyage	-10.7173
occupation	-10.7174
▁convoqué	-10.7174
▁violences	-10.7174
▁eux	-10.7177
▁biologiques	-10.7177
▁appareils	-10.7179
éné	-10.7186
▁initial	-10.7191
TREL	-10.7196
vert	-10.7197
▁sanitaires	-10.72
thé	-10.72
▁solution	-10.7201
ORD	-10.7202
immeuble	-10.7203
▁512	-10.7206
épargne	-10.7206
▁Sécurité	-10.7206
▁déontologie	-10.7206
▁fabricant	-10.7206
▁réintégré	-10.7206
▁étude	-10.7207
▁motif	-10.721
▁quel	-10.7216
▁attribué	-10.7219
▁potentiel	-10.7219
NT	-10.722
graphique	-10.7221
▁gestionnaires	-10.7225
▁utilisée	-10.7229
ition	-10.7231
eb	-10.7232
▁longue	-10.7237
perfectionnement	-10.7239
▁PR	-10.724
▁Hauts	-10.7248
aéronefs	-10.7251
PH	-10.7251
▁équivalente	-10.7258
ox	-10.7259
▁répartis	-10.7264
▁qualifiée	-10.7264
▁sub	-10.7266
▁équipement	-10.7267
▁internationaux	-10.7271
▁sollicité	-10.7271
▁élaboré	-10.7271
▁attachés	-10.7275
▁infirmiers	-10.7275
3.1.	-10.7277
axe	-10.7278
▁indication	-10.7278
▁dose	-10.7282
▁Côte	-10.7287
assistant	-10.7288
Université	-10.7289
conformité	-10.7291
hapitre	-10.7299
▁prénom	-10.7302
▁statistiques	-10.7303
escadron	-10.7304
▁école	-10.7306
▁Sch	-10.7307
plo	-10.7309
▁investissements	-10.7313
▁constitutives	-10.7317
tine	-10.7319
▁HA	-10.732
impact	-10.7322
▁approprié	-10.7324
JO	-10.7325
▁annexée	-10.7331
exigence	-10.7333
Clémence	-10.7337
▁représentation	-10.7337
▁préfète	-10.7343
▁162-1	-10.7343
▁Ju	-10.7344
▁forte	-10.7353
▁évaluées	-10.7355
ditrice	-10.7356
Jacques	-10.7356
▁représentatives	-10.7356
oral	-10.736
▁JA	-10.7362
▁emballages	-10.7363
▁statu	-10.7364
équilibre	-10.737
▁favorable	-10.737
Moselle	-10.7371
▁minimales	-10.7371
▁faciliter	-10.7384
▁préciser	-10.7387
gues	-10.7388
▁habilitation	-10.739
pin	-10.7392
▁décider	-10.7393
▁climat	-10.7393
TU	-10.7396
▁délégataire	-10.7403
▁Limite	-10.7403
▁for	-10.7406
assiette	-10.7407
▁sections	-10.7407
▁Nota	-10.7414
4-4	-10.7422
académique	-10.7422
▁majoré	-10.7423
Yves	-10.7426
▁recyclage	-10.7436
▁treizième	-10.7436
▁impliqu	-10.7436
▁syndicat	-10.7436
▁chefs	-10.744
▁Hervé	-10.7444
ich	-10.7452
PORT	-10.7461
▁naturels	-10.7466
▁cultures	-10.7466
▁forêt	-10.7469
▁chronique	-10.7469
▁trafic	-10.7469
▁Banque	-10.7469
▁menace	-10.7469
▁culturels	-10.7473
▁Annexe	-10.7477
11-3	-10.7478
▁favoriser	-10.7481
▁1985	-10.7482
▁Unité	-10.7483
vier	-10.7489
Marine	-10.7494
ALL	-10.7496
▁intervention	-10.7497
LER	-10.7499
▁Associés	-10.7502
Edouard	-10.7502
▁personnalité	-10.7502
▁redevance	-10.7503
▁Or	-10.7507
matique	-10.751
▁civiles	-10.7511
▁Su	-10.7513
▁régions	-10.7513
▁Bri	-10.7522
Clara	-10.7526
Eric	-10.7532
▁Bulletin	-10.7536
▁solidaire	-10.7536
tor	-10.7539
▁évolutions	-10.7547
ati	-10.7552
iller	-10.7562
FO	-10.7568
pompiers	-10.7569
▁cinquante	-10.7569
▁concertation	-10.7569
▁journée	-10.7574
▁Accord	-10.7577
▁renouvelables	-10.7584
▁décor	-10.7586
urant	-10.7588
▁réparti	-10.7588
▁planning	-10.7603
▁toutefois	-10.7603
▁vieillesse	-10.7603
▁intégré	-10.7605
▁fournisseur	-10.7605
▁utile	-10.7605
▁Beau	-10.7608
▁permettra	-10.7608
Lucie	-10.7609
endre	-10.7612
▁enseignant	-10.7614
▁principales	-10.7623
▁pouvoirs	-10.7624
fort	-10.7627
Provence	-10.7629
Annexe	-10.7629
VO	-10.7634
▁contacter	-10.7637
▁Français	-10.7637
▁Officier	-10.7637
▁tranche	-10.7637
ext	-10.7638
▁jeudi	-10.7638
▁plantes	-10.7642
__	-10.7652
▁instances	-10.7658
▁valider	-10.7659
hydrocarbures	-10.7663
▁Martine	-10.7669
acceptation	-10.7671
▁conventionnels	-10.7673
▁impositions	-10.7674
▁Services	-10.7682
▁constatée	-10.7684
gie	-10.7685
▁St	-10.7688
32-2	-10.7692
▁07	-10.7696
▁difficultés	-10.7696
▁ordonnance	-10.7702
▁préfectoral	-10.7705
▁chien	-10.7706
▁déconcentrés	-10.7709
▁motifs	-10.771
▁SU	-10.7716
▁atteints	-10.7718
▁composantes	-10.7729
nalisation	-10.7731
not	-10.7734
Pa	-10.7736
respect	-10.7737
▁limitation	-10.7739
▁pétrolier	-10.7739
▁ventilation	-10.7739
▁réforme	-10.7741
vée	-10.7748
çon	-10.7753
▁Victor	-10.7754
▁cible	-10.7754
▁instructions	-10.7755
▁lié	-10.7758
▁individuelles	-10.7759
ult	-10.7759
CK	-10.7769
institution	-10.7771
▁motivée	-10.7772
▁utilisant	-10.7773
▁éducatif	-10.7773
existence	-10.7773
Valentin	-10.7775
▁Bureau	-10.7776
▁supérieurs	-10.7776
DON	-10.7778
▁mineure	-10.7788
partie	-10.7792
▁Charlotte	-10.7795
▁spécialisés	-10.7798
Emmanuel	-10.7798
Organisation	-10.7803
étape	-10.7805
221-16	-10.7807
femme	-10.7807
kinésithérapeute	-10.7808
▁périodicité	-10.7808
▁révision	-10.7808
▁colonne	-10.7808
inventaire	-10.7808
▁221-15	-10.7808
171	-10.7809
Damien	-10.781
▁COM	-10.7811
Elodie	-10.7842
▁Corps	-10.7842
Justine	-10.7842
▁Denis	-10.7844
▁prévenir	-10.7844
▁éligible	-10.7853
▁accordé	-10.7862
Laure	-10.7871
▁Sandrine	-10.7877
▁frontières	-10.7877
▁séparé	-10.7877
▁tableaux	-10.7889
▁79	-10.7894
économies	-10.7904
LON	-10.7907
Cha	-10.7909
▁dialogue	-10.7911
▁221-14	-10.7911
▁Jacqueline	-10.7911
▁constituent	-10.792
▁vins	-10.792
▁Rou	-10.7921
▁agences	-10.7927
SSA	-10.7927
AK	-10.793
TZ	-10.793
▁quantités	-10.7931
▁porteur	-10.7932
PC	-10.7938
▁Madeleine	-10.7939
▁prestataires	-10.7943
Margaux	-10.7946
Légifrance	-10.7946
▁Durée	-10.7947
été	-10.7948
▁courant	-10.7953
▁réunions	-10.7958
▁renforcer	-10.7963
▁chaude	-10.7964
coup	-10.7968
▁saisi	-10.7976
ÉES	-10.7977
dernier	-10.798
▁tonnes	-10.7981
▁résidentiel	-10.7982
▁Monique	-10.7983
▁considération	-10.7983
▁2025.	-10.7984
▁spécialisées	-10.7985
▁Organisation	-10.7986
appar	-10.7986
formation	-10.7987
▁étendue	-10.7989
▁Inter	-10.7992
ENNE	-10.7995
▁importante	-10.7997
▁contribuer	-10.8004
ZA	-10.8012
Pascal	-10.8016
équivalence	-10.8016
aéroport	-10.8016
Maritime	-10.8025
▁ouverture	-10.8026
igu	-10.8034
▁Pauline	-10.8036
▁formulée	-10.8037
▁engagées	-10.8041
acheminement	-10.8051
▁Direction	-10.8051
arm	-10.8056
▁effectif	-10.8056
▁régisseur	-10.8059
Co	-10.806
ata	-10.8075
▁facteurs	-10.8075
▁Emmanuelle	-10.8075
▁compétents	-10.8085
▁scrutin	-10.8087
▁suppression	-10.8087
Fabien	-10.8087
Arnaud	-10.8088
▁passation	-10.8089
off	-10.809
arri	-10.8097
euil	-10.8099
▁valide	-10.8099
▁1990	-10.8102
▁gr	-10.8102
cho	-10.8104
▁utilise	-10.811
▁appliquée	-10.8116
▁150	-10.8117
▁voir	-10.8117
▁Nombre	-10.8122
traitant	-10.8122
ime	-10.8122
▁paragraphes	-10.8125
▁signalement	-10.8127
tron	-10.8131
▁justificatif	-10.8133
▁documentaire	-10.8143
Florent	-10.8158
ingénierie	-10.8158
terie	-10.8165
arch	-10.8165
▁Do	-10.8167
▁Gui	-10.817
▁consignes	-10.8173
▁encadr	-10.818
▁déterminés	-10.8181
▁dédiée	-10.8186
▁redevances	-10.8193
assemblage	-10.8194
▁Trésor	-10.8194
▁déclare	-10.8194
▁pompe	-10.8194
▁capable	-10.8194
▁évaluations	-10.8199
▁commerciales	-10.8201
▁définir	-10.8205
▁mobile	-10.8206
▁prévisionnelle	-10.8206
▁321-1	-10.8219
▁expertise	-10.8221
mardi	-10.8221
▁tenus	-10.8229
▁combat	-10.8229
▁locatif	-10.823
▁métropolitaine	-10.823
▁Gra	-10.8237
oyer	-10.8238
▁localisation	-10.8252
▁exercent	-10.8255
▁Martin	-10.8256
▁OU	-10.8261
éligibilité	-10.8265
▁automatisé	-10.8265
▁vaisseau	-10.8265
▁établissant	-10.8266
▁Benoît	-10.8267
▁respectives	-10.8269
▁intitulé	-10.8278
Oise	-10.8281
▁stricte	-10.8285
▁tests	-10.8289
▁plafonds	-10.8295
▁sujets	-10.8301
▁entrant	-10.8302
isson	-10.8304
▁1989	-10.8313
▁412	-10.8315
▁logiciel	-10.8316
▁Laure	-10.8317
cyc	-10.8328
▁environnemental	-10.8329
VEN	-10.8331
▁MONT	-10.8333
forme	-10.8334
/2023-09-1	-10.8335
▁reçoivent	-10.8338
ARTICLE	-10.8338
▁partagé	-10.8338
▁retenue	-10.8338
opposition	-10.8339
▁exploité	-10.834
▁essais	-10.8343
ath	-10.8343
▁commercialis	-10.8346
No	-10.8352
ost	-10.8352
▁1.1.	-10.8355
ALI	-10.8365
▁profil	-10.8374
▁autonomie	-10.8384
départementale	-10.8388
tour	-10.8391
▁exercé	-10.8401
▁paramètres	-10.8402
▁proportion	-10.8406
HOU	-10.8407
▁Franck	-10.8409
▁légales	-10.841
▁connexes	-10.8411
▁navigant	-10.8411
▁résiliation	-10.8411
▁BON	-10.8413
rh	-10.8414
▁certifié	-10.8423
taire	-10.8427
rac	-10.8429
▁13°	-10.8437
▁obstétrique	-10.8439
41-2	-10.8439
gon	-10.844
▁organise	-10.8441
LY	-10.8442
▁Pas	-10.8444
▁reçoit	-10.8447
▁contrôlés	-10.8448
▁MARTIN	-10.8449
amende	-10.845
bel	-10.845
LOT	-10.8453
qué	-10.8456
bri	-10.8457
.1.3.	-10.846
Rémi	-10.8461
▁comprendre	-10.8467
ANC	-10.8468
▁Port	-10.8468
isant	-10.8469
▁déclarées	-10.8471
approche	-10.8475
▁annuellement	-10.8478
GES	-10.8481
▁Tous	-10.8481
endant	-10.8482
▁distribué	-10.8484
▁volailles	-10.8484
Germain	-10.8484
sapeurs	-10.8484
▁renvoi	-10.8487
ico	-10.8487
▁Aucun	-10.8489
▁afférentes	-10.8491
▁Gi	-10.8492
▁Bretagne	-10.8494
▁constitution	-10.8496
▁rendre	-10.8497
administrateurs	-10.85
ONNE	-10.8503
▁Bel	-10.8506
▁significatives	-10.8506
▁obtenus	-10.8507
emplacement	-10.852
emballages	-10.852
autoconsommation	-10.8521
▁SERVICE	-10.8521
▁déclarant	-10.8521
▁positionnement	-10.8521
▁dangereuses	-10.8521
NOT	-10.8522
▁adaptés	-10.8524
resse	-10.8525
▁modes	-10.8526
EST	-10.8528
IEN	-10.8529
ira	-10.8538
▁exigée	-10.8542
▁proposées	-10.8543
format	-10.8543
ty	-10.8547
llier	-10.8547
▁Virginie	-10.8555
▁Emilie	-10.8556
▁bail	-10.8559
vol	-10.8559
▁longueur	-10.8562
▁justifient	-10.8564
QUI	-10.8564
intermédiaire	-10.8569
▁station	-10.8569
ssé	-10.8569
▁personnelle	-10.857
▁événements	-10.8576
hu	-10.8577
elli	-10.8582
▁insérée	-10.8582
ip	-10.8582
▁législatives	-10.8582
▁exprimée	-10.8587
my	-10.8594
▁constituant	-10.8595
▁territoriaux	-10.8595
▁forestier	-10.8595
▁Nicole	-10.8595
Fanny	-10.8595
▁fuite	-10.8595
▁chasse	-10.8595
ieux	-10.8598
▁prénoms	-10.8599
▁écarts	-10.8601
itz	-10.8602
▁CAM	-10.8603
▁GO	-10.8608
GNE	-10.8612
▁supérieures	-10.8615
▁SP	-10.8616
lla	-10.8617
▁300	-10.8617
huit	-10.8619
▁terminale	-10.8623
faciale	-10.8632
▁cellule	-10.8632
▁réduire	-10.8632
▁révisé	-10.8633
▁audiovisuelle	-10.8633
▁réussite	-10.8633
▁SCH	-10.8633
▁fondation	-10.8634
▁sols	-10.8645
▁destiné	-10.8645
▁2001	-10.8645
▁homologué	-10.8651
▁légal	-10.8655
ria	-10.8667
▁fournit	-10.8669
▁bataillon	-10.867
▁pied	-10.867
land	-10.868
▁capture	-10.868
▁attendue	-10.8683
informatique	-10.8683
OUX	-10.8691
QUET	-10.8693
▁Pascale	-10.8694
▁recrutés	-10.8698
▁main	-10.8707
▁scolarité	-10.8707
enfance	-10.8708
VILLE	-10.8716
ZI	-10.8719
info	-10.8721
▁portail	-10.8722
éviter	-10.8735
▁Mou	-10.8741
métrique	-10.8745
▁donnant	-10.8745
auto	-10.8746
▁réunit	-10.8752
▁tr	-10.8753
▁Fort	-10.8754
▁congés	-10.8755
▁pose	-10.8756
▁SAS	-10.8756
.6.	-10.8757
den	-10.8769
vel	-10.8771
lic	-10.8772
Gironde	-10.8783
▁modernisation	-10.8784
▁TRA	-10.879
▁ultérieur	-10.8796
▁acquises	-10.8796
▁complét	-10.8799
222	-10.8801
▁constat	-10.8804
INT	-10.8805
▁Var	-10.8807
▁Bertrand	-10.8808
▁mobiles	-10.8808
▁CCH	-10.8816
▁majeurs	-10.8818
▁management	-10.8821
Savoie	-10.8821
▁micro	-10.8821
▁septième	-10.8822
dg	-10.8822
▁Elisabeth	-10.8825
ast	-10.8833
▁BOUR	-10.8835
▁éventuels	-10.8837
Hélène	-10.8839
aval	-10.884
▁déroulera	-10.8844
enseigne	-10.885
BL	-10.8852
PT	-10.8853
▁réservée	-10.8857
Cyril	-10.8859
▁accusé	-10.8859
▁pulvérisation	-10.8859
▁bailleur	-10.8859
▁Voie	-10.886
cur	-10.8862
Benjamin	-10.8878
atteindre	-10.8878
▁AR	-10.888
homme	-10.8885
▁413	-10.8887
▁créer	-10.8888
Aquitaine	-10.8898
▁affranchie	-10.8898
▁efficace	-10.8898
▁retirer	-10.8898
▁instituée	-10.8898
▁fiscale	-10.8899
▁1991	-10.891
2.1	-10.8911
Sarah	-10.8917
▁Simon	-10.8917
▁sage	-10.8924
▁visites	-10.8932
RH	-10.8935
▁Sauf	-10.8936
...).	-10.8939
▁invité	-10.894
▁conservées	-10.8943
▁sessions	-10.8943
▁Lucie	-10.8944
oui	-10.8944
▁obligation	-10.8951
▁GUIL	-10.8952
▁tarifaires	-10.8958
DC	-10.8959
ÉE	-10.8959
gh	-10.8969
▁Tran	-10.8969
espèce	-10.8971
▁communauté	-10.8975
▁évaluateurs	-10.8975
▁définitif	-10.8979
ECOT	-10.8983
▁net	-10.8984
ENER	-10.8985
▁Ville	-10.8985
UG	-10.8988
roy	-10.8989
uit	-10.899
ié	-10.8993
▁populations	-10.8994
TON	-10.8995
▁fiches	-10.9002
▁conclusions	-10.9004
uz	-10.9005
hab	-10.9005
cation	-10.9007
▁végétal	-10.9013
▁vitesse	-10.9013
▁Albert	-10.9014
▁bande	-10.9016
▁réintégration	-10.9018
▁trace	-10.9018
illy	-10.9019
▁Auvergne	-10.9023
▁formé	-10.9027
▁Marine	-10.9034
Victor	-10.9036
▁coordonné	-10.9039
▁combustible	-10.9041
ome	-10.9043
En	-10.905
▁2023-2024	-10.9052
▁confidentialité	-10.9052
▁cultivées	-10.9052
▁gratuit	-10.9052
▁volontaires	-10.9053
Manche	-10.9054
▁détenus	-10.9059
ym	-10.9059
Jo	-10.907
instance	-10.9075
▁localement	-10.9076
▁force	-10.9083
▁suffisa	-10.9087
UNE	-10.9087
▁fournis	-10.9088
▁utiles	-10.9089
▁coopérative	-10.9091
▁satisfaisant	-10.9091
▁conduis	-10.9092
▁alimentaires	-10.9095
AVI	-10.91
▁BRI	-10.91
▁monde	-10.9103
▁Barb	-10.9105
▁certificative	-10.9107
▁identifiés	-10.9108
ble	-10.9118
▁semaine	-10.9121
▁Peuvent	-10.9131
▁substitution	-10.9133
▁PE	-10.9135
▁masseur	-10.9136
adapter	-10.9141
▁pluriannuelle	-10.9149
▁horaire	-10.9153
ARTI	-10.9154
VRE	-10.9159
▁établies	-10.9159
▁ministérielle	-10.9169
▁maisons	-10.9169
▁commis	-10.9169
▁accrédité	-10.917
▁confiance	-10.917
▁identique	-10.917
▁pertinence	-10.9171
▁mère	-10.9173
voi	-10.9176
▁délivrés	-10.9184
ssa	-10.9186
▁impact	-10.9187
▁exploitants	-10.9188
▁CHAR	-10.9188
▁Autorité	-10.9192
OUL	-10.9194
▁avenants	-10.92
thérapie	-10.9209
▁quarante	-10.9209
▁rupture	-10.9209
▁Mathilde	-10.9212
▁Corinne	-10.9212
▁employeur	-10.9213
▁citerne	-10.9218
▁suffisante	-10.9221
hér	-10.9222
▁extérieur	-10.9225
agne	-10.9227
Caroline	-10.9236
▁JU	-10.9239
CN	-10.9241
▁250	-10.9244
Ludovic	-10.9249
▁alternative	-10.9249
▁régularisation	-10.9249
▁semestre	-10.9249
▁Général	-10.9249
▁insuffisante	-10.9249
▁plage	-10.9249
▁praticiens	-10.9252
▁Mathieu	-10.9252
▁Delphine	-10.9257
▁annuelles	-10.9264
▁162-17	-10.927
▁Am	-10.9271
▁Agnès	-10.9277
▁Liste	-10.9283
▁réduit	-10.9284
Unis	-10.9286
Académie	-10.9289
▁appartient	-10.9289
▁primaire	-10.9289
▁rapide	-10.9289
▁autonome	-10.9289
dire	-10.929
▁paritaire	-10.929
gui	-10.929
▁maintenu	-10.9292
▁libellé	-10.9293
▁couverts	-10.9295
▁Provence	-10.9299
▁BTS	-10.9303
▁Mise	-10.9307
▁BAP	-10.9307
▁dispensés	-10.9311
ancien	-10.9313
▁arrête	-10.9316
Elise	-10.9323
11-4	-10.9329
▁prévoyance	-10.9329
▁restreint	-10.9329
gastro	-10.9329
▁consultable	-10.9329
▁Qualité	-10.933
▁dommages	-10.933
stru	-10.9332
▁fiscal	-10.9339
DOU	-10.9341
/2023-05-0	-10.9351
▁créée	-10.9353
Futuna	-10.9359
trice	-10.9361
▁participations	-10.9361
▁question	-10.9364
INI	-10.9367
▁Ci	-10.9367
▁concevoir	-10.9369
▁indiciaire	-10.9369
▁probation	-10.9369
▁titularisation	-10.9369
▁traçabilité	-10.9369
fenêtre	-10.9369
▁estime	-10.937
oni	-10.9377
▁Maxime	-10.938
▁intervenants	-10.9384
▁géographiques	-10.9394
▁533	-10.9404
imposition	-10.9407
MES	-10.9408
▁confér	-10.9409
▁permanence	-10.9409
▁prennent	-10.9409
▁préventive	-10.9409
▁214	-10.941
▁prêts	-10.9437
mètre	-10.944
Thierry	-10.9441
▁CS	-10.9442
▁Van	-10.9444
▁versements	-10.9447
usqu	-10.9447
▁proposée	-10.9448
▁indiquée	-10.9449
titude	-10.945
intolérance	-10.945
▁Donnée	-10.945
▁forestière	-10.945
▁renforcement	-10.9451
aj	-10.9452
▁chargement	-10.9463
▁Alice	-10.9468
▁appelée	-10.947
▁compléter	-10.9473
6-3	-10.9475
▁connexion	-10.9485
TREA	-10.9485
▁Royaume	-10.9491
▁facturé	-10.9491
▁samedi	-10.9491
alpinisme	-10.9491
▁assistant	-10.9494
▁Réalisation	-10.9497
eff	-10.9503
avion	-10.9503
▁brute	-10.9511
DES	-10.9514
TES	-10.9522
▁constituer	-10.9527
▁spécifi	-10.9528
▁bateau	-10.953
Mohamed	-10.9531
▁plastique	-10.9531
▁géré	-10.9533
accompagner	-10.9544
antenne	-10.9548
▁513	-10.9551
agri	-10.9561
▁appliquées	-10.9569
▁Dispositif	-10.9572
▁clientèle	-10.9572
▁consentement	-10.9572
▁Serge	-10.9572
▁bateaux	-10.9573
▁conventionnel	-10.9576
Jules	-10.958
▁seuls	-10.9581
▁hydrocarbures	-10.9582
▁Tour	-10.9584
santé	-10.9586
Louise	-10.961
▁opérationnelles	-10.9612
▁régulier	-10.9614
▁Museum	-10.9614
▁minimal	-10.9624
100	-10.9627
▁culturelles	-10.9638
JEAN	-10.9638
▁disposer	-10.9639
▁72-3	-10.9642
▁Hu	-10.9652
▁abroge	-10.9655
▁accessoires	-10.9655
nou	-10.9657
▁engins	-10.9658
▁régulièrement	-10.9663
▁Sou	-10.9664
ASSE	-10.9666
▁limiter	-10.9672
Cher	-10.9681
▁BU	-10.9685
▁SUR	-10.9691
Mathieu	-10.9693
▁volontaire	-10.9696
▁mélange	-10.9696
▁futur	-10.9696
▁informatiques	-10.9697
Nord	-10.9701
▁Bu	-10.9705
▁Deux	-10.9706
▁subventions	-10.9715
▁vaccin	-10.9724
▁apporter	-10.9729
▁Patricia	-10.9733
administratif	-10.9734
Mélanie	-10.9738
▁Lieutenant	-10.9738
▁mutation	-10.9738
▁module	-10.9738
▁ISO	-10.9741
euses	-10.9742
▁mensuel	-10.9745
ATI	-10.9754
▁Ri	-10.9769
▁kg	-10.9771
▁dépasse	-10.9773
▁lire	-10.9776
▁régiment	-10.9779
Occitanie	-10.978
▁tôt	-10.978
▁conçu	-10.978
▁tension	-10.978
▁institutions	-10.9784
SIEC	-10.98
NY	-10.9802
▁consignations	-10.9805
ham	-10.9808
▁thèmes	-10.981
char	-10.9811
ial	-10.9817
index	-10.9822
▁âgés	-10.9826
▁2261-	-10.9831
▁120	-10.9839
égu	-10.9842
▁immatriculée	-10.9842
▁MOD	-10.9844
▁vérifié	-10.9845
RIER	-10.9848
psycho	-10.9854
▁vérifie	-10.9857
Ann	-10.9858
portions	-10.9861
intranet	-10.9864
▁Légion	-10.9864
▁Traitement	-10.9864
▁radioélectrique	-10.9864
▁Francis	-10.9864
▁provenant	-10.9866
▁fréquence	-10.9866
▁CSP	-10.9872
cot	-10.9878
▁Bien	-10.9885
▁dispensée	-10.9887
▁étudiant	-10.9888
▁Mi	-10.9888
CES	-10.989
▁publicité	-10.9895
▁perçues	-10.9898
▁garanti	-10.9902
▁représentante	-10.9902
exprim	-10.9904
aquaculture	-10.9906
incidence	-10.9906
▁délimité	-10.9906
▁précédemment	-10.9906
▁construit	-10.9906
▁thématique	-10.9906
document	-10.9907
justice	-10.9908
▁615	-10.9912
▁serait	-10.9916
▁vivant	-10.9917
▁Forme	-10.9922
▁App	-10.9925
▁géo	-10.9928
▁fixer	-10.9928
▁handicapés	-10.993
▁maison	-10.993
nis	-10.9939
▁indépendants	-10.9939
▁Plan	-10.9941
SAN	-10.9941
▁Bour	-10.9942
▁analyses	-10.9947
▁ROU	-10.9949
Anthony	-10.9949
intégrité	-10.9949
▁RÉFÉRENTIEL	-10.9949
▁Toulon	-10.9949
▁bancaire	-10.9949
▁plate	-10.9949
loi	-10.9952
▁111	-10.9952
▁technologiques	-10.9952
▁passé	-10.9953
▁Son	-10.9955
mettant	-10.9955
bar	-10.9961
part	-10.9961
Charente	-10.997
▁LO	-10.9971
▁actif	-10.9973
▁entendu	-10.9975
▁3.2.	-10.9975
pp	-10.9976
▁GAR	-10.998
▁capt	-10.9982
▁Romain	-10.9986
mel	-10.9988
observation	-10.9988
▁rapportant	-10.9991
▁institué	-10.9991
▁bulletin	-10.9992
▁poursuivre	-10.9992
▁Seuls	-10.9992
▁liquides	-10.9994
▁réduite	-10.9997
▁1983	-11.0007
▁pharmaceutique	-11.0009
▁autour	-11.0011
pprovisionnement	-11.0012
▁engagés	-11.0017
gar	-11.0027
▁Sylvain	-11.0028
dou	-11.0031
Thibault	-11.0035
▁GRDF	-11.0035
▁Magistrat	-11.0035
▁déduction	-11.0035
▁dérivées	-11.0035
▁personnalisé	-11.0035
Agathe	-11.0035
▁atteste	-11.0035
Uni	-11.0041
▁gros	-11.0044
In	-11.0046
▁Etienne	-11.0046
▁San	-11.0048
1.2	-11.0049
/2023-11	-11.0051
▁secondaire	-11.0067
▁court	-11.0069
MICC	-11.0071
▁prévision	-11.0077
▁conflit	-11.0078
Aude	-11.008
issant	-11.0088
▁stratégiques	-11.0094
çant	-11.0096
▁14°	-11.0097
▁CAP	-11.0102
▁petites	-11.0102
ché	-11.0109
▁Option	-11.0121
▁démonstration	-11.0121
▁motivation	-11.0121
INRIA	-11.0121
▁conservent	-11.0125
agir	-11.0133
juridictionnelle	-11.0134
▁informer	-11.0137
▁COL	-11.0138
PER	-11.0139
▁réutilisation	-11.014
▁dentaire	-11.0147
orm	-11.0147
▁subi	-11.0147
▁Thérèse	-11.0149
▁intermédiaire	-11.0154
▁Cla	-11.0157
faire	-11.0162
CR	-11.0163
Saône	-11.0165
▁gériatrie	-11.0165
▁lendemain	-11.0165
▁progression	-11.0165
▁récapitulatif	-11.0165
▁Metz	-11.0165
▁HU	-11.0165
▁stade	-11.0165
▁journalière	-11.0168
exportation	-11.0169
dan	-11.0171
identifier	-11.0171
▁mécanique	-11.0172
▁contrôleurs	-11.0179
LU	-11.018
▁estimé	-11.018
otre	-11.0187
illon	-11.0188
▁stages	-11.0191
▁130	-11.0192
▁limité	-11.0201
ray	-11.0201
▁rapporteur	-11.0203
▁225	-11.0204
▁GRA	-11.0204
▁Cor	-11.0208
▁incomplet	-11.0208
Eure	-11.021
▁mieux	-11.021
ola	-11.0211
▁NATIONALE	-11.0214
Hubert	-11.0218
PIN	-11.0219
22-2	-11.022
ture	-11.0221
deux	-11.0223
▁urgences	-11.0229
ê	-11.0236
▁intention	-11.0237
kWh	-11.024
▁caractéris	-11.0246
▁antérieur	-11.0247
▁cursus	-11.0252
▁dissolution	-11.0252
▁cuve	-11.0252
▁langues	-11.0253
▁(3)	-11.0254
▁bassin	-11.0255
▁fournies	-11.0257
▁MOU	-11.0258
▁Béatrice	-11.0258
▁actuellement	-11.0258
aéronautique	-11.0259
Jérôme	-11.0261
/2023-06-	-11.0265
▁afférents	-11.027
▁Lucien	-11.0274
▁BP	-11.0278
LLIER	-11.0284
▁posté	-11.0287
ache	-11.0293
har	-11.0295
▁démarches	-11.0296
Inès	-11.0296
interprétation	-11.0296
▁sauvegarde	-11.0296
▁respectant	-11.03
▁On	-11.0303
▁salle	-11.0304
exige	-11.0306
▁terrain	-11.0306
▁auteurs	-11.0308
▁intéressés	-11.0311
vient	-11.0316
écriture	-11.0317
▁QU	-11.0318
Lucas	-11.0319
▁333	-11.0324
/2023-01-	-11.0338
▁Signature	-11.034
▁Sociale	-11.034
éducateur	-11.034
▁servant	-11.034
▁tracé	-11.034
▁vétérinaires	-11.034
▁Ho	-11.0341
jour	-11.0341
▁raccordé	-11.0341
▁phases	-11.0341
lou	-11.0343
éré	-11.0343
22-4	-11.0344
type	-11.0352
▁échange	-11.0355
ange	-11.0358
▁conclusion	-11.0358
▁Clément	-11.0358
sous	-11.0358
aliment	-11.0359
▁dotations	-11.0368
étend	-11.0368
▁accident	-11.0371
NC	-11.0373
▁retenues	-11.0378
chimique	-11.0381
électro	-11.0385
▁Numéro	-11.0385
▁sensibilisation	-11.0385
▁volonté	-11.0385
▁était	-11.0385
▁prévoir	-11.0387
CIP	-11.0387
RAND	-11.0388
▁contrôler	-11.0393
▁ouverte	-11.0393
2.2	-11.0399
▁proposés	-11.0404
code	-11.0408
▁2241-1	-11.0413
▁Objectifs	-11.042
ROS	-11.0421
hal	-11.0422
animal	-11.0423
▁contenus	-11.0423
32-4	-11.0425
▁Pré	-11.0425
▁métropolitain	-11.0429
Grégoire	-11.0429
▁cavalerie	-11.0429
▁copropriété	-11.0429
effort	-11.043
DG	-11.0433
▁affectées	-11.0435
▁destinée	-11.0435
ministérielle	-11.0437
▁DMP	-11.0447
▁Sarah	-11.0452
gr	-11.0461
▁bilans	-11.0461
▁envisagée	-11.0462
individuellement	-11.0468
▁imparti	-11.0468
ica	-11.0469
▁remplir	-11.047
vasculaire	-11.0472
aspirant	-11.0474
▁blindé	-11.0474
▁superficie	-11.0474
▁surveillant	-11.0474
▁citoyen	-11.0474
▁Emile	-11.0474
pan	-11.0474
▁113	-11.048
▁Aurélie	-11.0482
▁ét	-11.0485
▁quelque	-11.0488
▁immobiliers	-11.0488
▁humaine	-11.0497
▁commandes	-11.0497
hors	-11.0503
wa	-11.0508
6-4	-11.0514
▁supplément	-11.0518
▁côté	-11.0519
▁nécessitant	-11.0519
▁Gestion	-11.0519
▁sexe	-11.052
▁Information	-11.052
▁162-22-6	-11.0521
Muriel	-11.0522
▁RH	-11.0527
jo	-11.0532
▁standard	-11.0533
événement	-11.0533
▁fraudes	-11.0534
encontre	-11.0544
▁comporter	-11.0548
engager	-11.055
REL	-11.0562
▁Gilbert	-11.0565
▁milliard	-11.0565
Benoit	-11.0565
Manuel	-11.0565
▁Ka	-11.0566
▁effectu	-11.0567
▁honoraires	-11.0568
▁budgétaires	-11.0569
aucun	-11.0575
▁014	-11.0576
ano	-11.0576
nière	-11.0577
▁conséquence	-11.0579
▁parents	-11.0582
RAT	-11.0583
▁universitaires	-11.0583
LL	-11.0587
grade	-11.0592
Comp	-11.0598
pose	-11.0599
▁rémunér	-11.0606
▁organisées	-11.0609
Arcueil	-11.061
atalogue	-11.061
▁contient	-11.061
▁restitution	-11.061
bin	-11.0611
▁fiscalité	-11.0611
▁poly	-11.0612
▁déposer	-11.0626
▁facteur	-11.0627
Bas	-11.0632
▁démontr	-11.0635
pour	-11.0643
chan	-11.0645
▁revêt	-11.0649
KO	-11.0649
▁ouvertes	-11.0655
▁SELARL	-11.0656
▁pathologie	-11.0656
▁prescripteur	-11.0656
▁Outre	-11.0657
▁train	-11.0658
▁fichiers	-11.0659
▁règlementaires	-11.0672
bourg	-11.0673
IERE	-11.0675
▁2028	-11.0676
▁légale	-11.0679
23-1	-11.069
nie	-11.0693
ella	-11.0694
▁assimilés	-11.0695
▁standardisée	-11.0702
▁piste	-11.0707
▁améliorer	-11.0714
Cécile	-11.0721
met	-11.0722
▁assurent	-11.0723
▁correspondantes	-11.0733
attachés	-11.0735
Finistère	-11.0748
▁plaisance	-11.0748
▁résidus	-11.0748
▁variable	-11.0748
▁Pôle	-11.0748
▁boissons	-11.0748
▁thon	-11.0749
▁planification	-11.0752
▁immeubles	-11.0753
▁correspondent	-11.0757
▁consultés	-11.0761
ANS	-11.0763
▁experts	-11.0766
ima	-11.077
▁indiquées	-11.0774
exerce	-11.0775
professionnelle	-11.0775
▁installée	-11.0778
▁large	-11.0793
hôpital	-11.0794
▁DIPL	-11.0795
▁vaut	-11.0797
abri	-11.0804
ACT	-11.0809
▁Nature	-11.082
bilité	-11.0821
▁pharmacien	-11.0828
▁professeure	-11.0829
fac	-11.0832
assé	-11.0834
Ukraine	-11.084
▁semences	-11.084
▁vocation	-11.0841
▁compréhension	-11.0841
▁Sciences	-11.0844
Chris	-11.0844
Aurélien	-11.0849
21-4	-11.085
▁fourni	-11.0857
▁énergies	-11.0859
ino	-11.087
▁consomm	-11.0879
▁amende	-11.0879
HÉ	-11.088
▁élabore	-11.0883
▁Suzanne	-11.0887
▁constructeur	-11.0887
▁correction	-11.0887
▁dérogatoire	-11.0887
▁mathématiques	-11.0887
▁naturalisation	-11.0887
▁orthopédique	-11.0887
▁optique	-11.0887
▁anciens	-11.089
▁Fiche	-11.0891
tendant	-11.0894
▁délivre	-11.0902
communications	-11.0909
accident	-11.091
imi	-11.0917
▁trimestres	-11.0919
▁quota	-11.0919
▁Tra	-11.0925
▁résulte	-11.0929
▁subordonnée	-11.0933
▁Ernest	-11.0934
échec	-11.0934
inscrivent	-11.0935
acheteur	-11.0936
IO	-11.0936
▁attestations	-11.0938
▁contenues	-11.0944
▁1982	-11.095
LÉ	-11.095
▁consultations	-11.0951
▁considérés	-11.0957
▁plaques	-11.0957
▁départementaux	-11.096
arthrite	-11.0961
▁BEL	-11.0963
▁Normandie	-11.0964
/2023-09-	-11.0966
gel	-11.0967
▁instance	-11.0971
▁installé	-11.0972
ALLE	-11.0974
ACC	-11.0979
▁ASSOCIES	-11.0981
▁hydraulique	-11.0981
▁instituant	-11.0981
▁pneumatiques	-11.0981
isolation	-11.0981
▁pénalité	-11.0983
▁intérim	-11.0987
▁conserver	-11.0992
▁forfaits	-11.0995
▁conclue	-11.0996
▁1994	-11.0998
▁jointe	-11.0999
▁renouvelée	-11.1002
Léo	-11.101
ena	-11.1012
CON	-11.1019
OLI	-11.1021
▁identifier	-11.1021
▁présentés	-11.1022
▁libellée	-11.1025
Yvelines	-11.1029
indépendance	-11.1029
▁complexe	-11.1029
▁remontée	-11.1029
▁puisse	-11.1029
▁AM	-11.1029
▁signalisation	-11.103
ida	-11.1031
▁fermé	-11.1032
▁chimiques	-11.1033
▁SAP	-11.1036
▁personnelles	-11.1039
▁gouvernement	-11.104
gre	-11.104
IP	-11.1052
23-4	-11.1054
Alice	-11.1056
durée	-11.1058
▁correspondante	-11.1059
Maritimes	-11.1064
ILLARD	-11.1064
▁confirm	-11.1066
▁élevée	-11.1073
▁consécutive	-11.1076
▁indemnitaire	-11.1076
▁progressive	-11.1076
▁vidéo	-11.1076
▁retard	-11.1076
▁dérouleront	-11.1079
GRE	-11.108
ENCE	-11.1081
esse	-11.1081
▁rejets	-11.1088
din	-11.1093
1.3	-11.1093
ilité	-11.1101
5.1	-11.1102
VET	-11.111
▁agréée	-11.1111
▁représenté	-11.1115
▁COU	-11.1116
▁caisses	-11.1116
▁2.4.	-11.1122
▁anonyme	-11.1124
▁spatial	-11.1124
▁esthétique	-11.1126
ancé	-11.1126
▁intervenu	-11.1129
▁élections	-11.1131
▁assistants	-11.1134
MER	-11.1135
▁ressortissants	-11.1143
▁marins	-11.1145
DEC	-11.1146
▁400	-11.1147
▁PROFESSIONNEL	-11.1153
gag	-11.1155
istant	-11.1156
REAU	-11.1157
éléments	-11.1161
station	-11.1169
▁bouillie	-11.1172
▁enneigé	-11.1172
▁foncière	-11.1172
▁formulaires	-11.1172
▁Ham	-11.1176
pol	-11.1177
▁troupeau	-11.118
/2013	-11.1181
▁Patrice	-11.1185
atteinte	-11.1198
ber	-11.1205
▁Groupe	-11.121
Lionel	-11.1212
▁FRAN	-11.122
▁salariale	-11.1221
OST	-11.1228
Hugues	-11.1229
plan	-11.1229
ECOB	-11.1231
▁enquêtes	-11.1234
OB	-11.1238
▁libérales	-11.1238
▁exclus	-11.1243
RN	-11.1249
▁Sol	-11.1253
Karine	-11.1254
▁marin	-11.1255
▁temporairement	-11.1258
▁machines	-11.1265
cap	-11.1268
developpement	-11.1269
▁psychologue	-11.1269
▁pulvérisateur	-11.1269
injection	-11.1269
Samuel	-11.1269
▁quartiers	-11.127
/2023-10	-11.1272
ARS	-11.128
▁souhaitent	-11.128
▁cumul	-11.1291
BER	-11.1294
▁passe	-11.1299
▁crises	-11.13
enseignant	-11.1301
▁Brigitte	-11.1309
Estelle	-11.1309
▁225-1	-11.1317
▁gouvernance	-11.1318
▁maternité	-11.1318
▁méthotrexate	-11.1318
▁récupération	-11.1318
▁composante	-11.1326
7-2	-11.1327
▁promus	-11.1329
▁organisationnel	-11.1329
hon	-11.1336
▁consécutifs	-11.134
▁prioritaire	-11.1347
mu	-11.1348
laine	-11.1349
organisateur	-11.1352
durable	-11.1352
nalité	-11.1354
▁accidents	-11.1359
adolescent	-11.1363
atelier	-11.1364
▁CAG	-11.1364
▁familiales	-11.1366
▁Geneviève	-11.1367
▁Michèle	-11.1367
▁FORMATION	-11.1367
▁ensuite	-11.1367
interromp	-11.1367
▁Guill	-11.1375
▁823-1	-11.1377
▁verte	-11.1377
▁événement	-11.1377
▁déclarée	-11.1377
.2.3.	-11.138
▁grandes	-11.1381
▁préparer	-11.1391
▁atteindre	-11.1392
▁installés	-11.1393
oz	-11.1395
▁amont	-11.1402
QUES	-11.1406
▁Vol	-11.1408
Myriam	-11.1416
▁maintenir	-11.1416
▁Petit	-11.1417
▁tourisme	-11.1417
▁électeurs	-11.1419
▁retenus	-11.1425
ANG	-11.1439
ING	-11.144
▁Bouches	-11.1446
▁CR	-11.1448
▁hôpitaux	-11.1449
service	-11.1451
Bruno	-11.1453
▁certaine	-11.1455
arb	-11.1456
▁transporteurs	-11.1463
FER	-11.1464
Bénédicte	-11.1466
nutrition	-11.1466
▁assisté	-11.1466
▁fluvial	-11.1466
▁trésorerie	-11.1466
▁récolte	-11.1466
IVE	-11.1466
pdf	-11.1466
▁cité	-11.1471
ETTE	-11.1474
SER	-11.1476
▁servi	-11.1485
▁Bor	-11.1486
▁Benjamin	-11.1491
▁péri	-11.1494
bat	-11.1494
▁Et	-11.1496
▁2030	-11.1501
obtenir	-11.1503
Na	-11.1509
▁arts	-11.1509
▁irrecevable	-11.1515
▁CMG	-11.1516
▁amené	-11.1516
DER	-11.1516
interface	-11.1518
▁211-1	-11.1529
pou	-11.1532
▁Léon	-11.1534
▁puni	-11.1536
▁effectivement	-11.1536
▁nuit	-11.1539
bio	-11.1539
▁2.5.	-11.154
Micha	-11.154
3.2.	-11.1543
▁comportent	-11.1545
Patrick	-11.1554
▁régulière	-11.1555
▁souscrite	-11.1557
illet	-11.1557
effectuent	-11.156
ACH	-11.1563
adhésion	-11.1565
▁foncier	-11.1565
▁habitants	-11.1565
▁inclut	-11.1565
▁présidé	-11.1565
▁moniteur	-11.1565
▁aspects	-11.1566
▁Roland	-11.1566
▁concernent	-11.1568
▁peu	-11.1571
▁combustibles	-11.158
ILI	-11.1581
▁régi	-11.1584
berg	-11.1588
▁représenter	-11.1589
iot	-11.1594
▁mg	-11.1594
OY	-11.1595
abord	-11.1603
▁fraude	-11.1603
Isabelle	-11.1606
▁Fabrice	-11.1609
▁clause	-11.1616
▁navigables	-11.1616
▁montage	-11.1616
eille	-11.1618
▁participent	-11.1623
▁partenariats	-11.1627
réf	-11.1631
▁seuils	-11.1638
▁3.1.	-11.1651
▁propos	-11.1653
û	-11.1657
extérieur	-11.1658
exonération	-11.1663
▁menées	-11.1665
▁message	-11.1665
▁exploitations	-11.1666
▁cardiaque	-11.1666
▁sauvetage	-11.1666
▁substitue	-11.1666
▁hépato	-11.1667
▁Cré	-11.1668
▁commissariat	-11.1669
▁prépare	-11.1693
▁servir	-11.1696
▁organisés	-11.1697
▁pertes	-11.1704
attente	-11.1714
▁dynamique	-11.1717
▁Activité	-11.1717
▁rampe	-11.1717
Amandine	-11.1717
entérologie	-11.1718
▁Certificat	-11.1719
▁muni	-11.1723
ek	-11.1729
▁sexuelle	-11.1742
lay	-11.1746
déquation	-11.175
▁soin	-11.1754
▁dimensions	-11.1764
▁sources	-11.1767
▁Fondation	-11.1768
▁problème	-11.1768
▁toiture	-11.1768
▁variation	-11.1768
▁162-22-7	-11.1768
▁lecture	-11.1768
MIN	-11.1776
rectorat	-11.1776
Calais	-11.1776
▁attribués	-11.1777
▁Ko	-11.178
ech	-11.1782
▁stocks	-11.1784
▁1992	-11.1786
▁cesse	-11.179
DJ	-11.179
▁mille	-11.1798
▁logiciels	-11.1799
▁standards	-11.1803
▁indiqués	-11.1805
▁terrains	-11.1808
▁formateur	-11.1811
▁meilleure	-11.1813
tribunaux	-11.1814
ssage	-11.1817
▁mercredi	-11.1819
▁mobilisé	-11.1819
▁mécanisme	-11.1819
▁cyber	-11.1819
▁master	-11.1819
Margot	-11.1819
Vilaine	-11.1819
▁normal	-11.182
▁remplissent	-11.182
▁impérativement	-11.1821
Jeanne	-11.1822
▁821-2	-11.1823
▁exploite	-11.1837
VES	-11.1837
▁212-1	-11.1838
▁Bas	-11.1843
▁facilit	-11.185
rice	-11.185
articul	-11.185
/2023-01-0	-11.1851
▁conserve	-11.1854
▁exemplaire	-11.186
▁consolidés	-11.1865
gramme	-11.1866
Dominique	-11.1866
«	-11.1866
gede	-11.1867
▁gain	-11.187
interruption	-11.1871
▁Fernand	-11.1871
▁combiné	-11.1871
▁remettre	-11.1872
▁intitulée	-11.1873
▁préavis	-11.1876
▁Cal	-11.1885
RR	-11.1889
▁641	-11.1898
▁électoral	-11.1908
Christine	-11.1919
Gabriel	-11.1919
▁suspendre	-11.1923
▁précision	-11.1923
▁huitième	-11.1923
▁Elément	-11.1925
▁nominal	-11.1925
▁Garant	-11.1928
▁Stade	-11.193
▁allouée	-11.1931
▁composants	-11.1931
argent	-11.1932
ROY	-11.1933
▁dépassement	-11.1935
SANT	-11.1945
RAN	-11.1947
REK	-11.1951
▁procédés	-11.1957
▁313-1	-11.1965
▁ménages	-11.1966
▁Christiane	-11.197
Benoît	-11.1972
€	-11.1972
▁manuel	-11.1973
▁oncologie	-11.1975
▁traiter	-11.1975
uschw	-11.1975
▁archives	-11.198
▁SPORT	-11.1983
▁formateurs	-11.1991
▁1942	-11.1999
▁mouvements	-11.2001
▁présentées	-11.2015
▁critère	-11.2017
▁suffisant	-11.2018
▁TOU	-11.2019
▁réemploi	-11.2022
▁fréquences	-11.2024
▁déclaré	-11.2025
▁retenu	-11.2025
▁compose	-11.2025
▁quelle	-11.2026
▁appropriées	-11.2027
asso	-11.2027
active	-11.2027
▁lauréats	-11.2027
▁réclamation	-11.2027
▁PFMP	-11.2027
▁transmettent	-11.2027
▁téléversé	-11.2027
▁civique	-11.2027
▁zéro	-11.2027
acompte	-11.2028
Armor	-11.2029
▁respectent	-11.2031
▁détenu	-11.2032
ILLET	-11.2042
▁6221-	-11.2045
▁pertinentes	-11.2051
oll	-11.2056
hen	-11.2057
5-4	-11.2062
ama	-11.2071
▁Alexandra	-11.2071
inclusion	-11.2076
▁composant	-11.2078
ITE	-11.2079
alternance	-11.208
évacuation	-11.208
▁Christelle	-11.208
▁affiché	-11.208
▁développé	-11.208
▁expérimental	-11.208
▁réservation	-11.208
▁similaire	-11.208
▁identifiant	-11.2081
▁Richard	-11.2085
EURS	-11.2086
▁canal	-11.2093
▁choisir	-11.2102
chon	-11.2108
cat	-11.2115
af	-11.2124
ick	-11.213
▁Cayenne	-11.2133
▁prothèse	-11.2133
▁préservation	-11.2133
▁réserviste	-11.2133
technique	-11.2133
▁remplit	-11.2144
▁demandent	-11.2147
▁repos	-11.215
Eva	-11.215
ITÉ	-11.2158
gro	-11.2161
▁conjointe	-11.2161
entend	-11.2164
▁pharmaciens	-11.2164
▁GUI	-11.2165
igny	-11.2165
Lisa	-11.2167
▁femme	-11.2171
▁préside	-11.2177
quin	-11.2181
▁apporte	-11.2182
Emploi	-11.2186
hypothèse	-11.2186
▁Spécialité	-11.2186
▁bénéficié	-11.2186
▁critique	-11.2186
▁indispensable	-11.2186
▁détient	-11.2186
education	-11.2186
▁guide	-11.2187
▁répression	-11.2187
Franck	-11.2189
DEL	-11.2193
.4.1.	-11.2195
▁détenues	-11.2199
BOU	-11.2202
engagent	-11.2202
▁table	-11.2205
4.3	-11.2211
NAUD	-11.2213
vet	-11.2214
ération	-11.2218
assister	-11.2223
NES	-11.2233
▁maintenue	-11.2235
Laboratoire	-11.2239
William	-11.2239
▁collectés	-11.2239
▁dépistage	-11.2239
▁gérer	-11.2239
▁vacance	-11.2239
assesseur	-11.2239
▁Creuses	-11.2239
Franche	-11.224
▁Zone	-11.2241
sociaux	-11.2243
Comté	-11.2243
xi	-11.2244
▁ruralité	-11.2247
▁Carole	-11.2252
igue	-11.2259
RAY	-11.2262
▁couvre	-11.2263
▁déten	-11.2263
▁vacants	-11.2265
AIRES	-11.2275
▁culturel	-11.2284
▁substance	-11.2288
poli	-11.2291
▁modulation	-11.2293
▁Ainsi	-11.2293
▁cancer	-11.2293
▁envisage	-11.2296
effectif	-11.2297
Emilie	-11.2297
Isère	-11.2298
armateur	-11.2298
José	-11.2312
▁7500	-11.2313
DD	-11.2313
▁exigé	-11.2317
32-5	-11.2318
▁environ	-11.2323
ban	-11.2324
illard	-11.2336
▁organiser	-11.2345
▁réservé	-11.2346
▁Champ	-11.2347
▁boulevard	-11.2347
▁transparence	-11.2347
soriasi	-11.2347
▁corrigé	-11.2347
▁mettent	-11.2347
▁prochain	-11.2347
Aurore	-11.2349
▁spécialiste	-11.2349
aidant	-11.235
Henri	-11.2353
▁inv	-11.2354
engin	-11.2359
▁préparatoires	-11.2369
▁Jan	-11.2372
▁antérieurement	-11.2375
Anton	-11.238
ministérielles	-11.2382
▁donneur	-11.2384
▁vit	-11.2385
UZ	-11.239
8-2	-11.24
ige	-11.2401
activation	-11.2401
exactitude	-11.2401
▁déléguer	-11.2401
▁gamètes	-11.2401
Frédérique	-11.2401
▁augmenté	-11.2401
▁dépendantes	-11.2402
▁intégralement	-11.2402
▁Unités	-11.2402
▁pourvus	-11.2402
▁signal	-11.2406
inscrit	-11.2407
Céline	-11.2408
▁souscrit	-11.2411
▁agro	-11.2415
gli	-11.242
ENE	-11.2425
187	-11.2431
▁Exp	-11.2431
ulation	-11.2433
ISSE	-11.2449
▁liquide	-11.2453
▁intégrée	-11.2454
Paragraphe	-11.2456
élimination	-11.2456
▁Candidat	-11.2456
▁sergent	-11.2456
▁virus	-11.2456
▁consultatif	-11.2456
▁urbaine	-11.2457
▁SAL	-11.2459
MENE	-11.246
Indre	-11.2461
oto	-11.2468
AMM	-11.247
▁accomplis	-11.2472
VEL	-11.248
Blanc	-11.2488
▁ophtalmologie	-11.2489
▁potentielle	-11.2489
3.3	-11.2493
Johan	-11.2494
LAND	-11.2495
volta	-11.2496
igné	-11.2497
hélicoptère	-11.2511
▁Assurer	-11.2511
▁frégate	-11.2511
▁mémoire	-11.2511
azote	-11.2511
▁sécurisation	-11.2512
▁nos	-11.2516
▁1.3.	-11.2518
▁ouvrir	-11.2526
recrutement	-11.2528
▁Fait	-11.2531
pha	-11.2537
Ille	-11.2545
▁514	-11.2549
uch	-11.2553
▁GAU	-11.2555
▁pourvu	-11.2566
▁quartier	-11.2566
extinction	-11.2566
▁créancier	-11.2566
▁domestique	-11.2566
▁réalisant	-11.2566
▁réflexion	-11.2566
▁Trois	-11.2566
écoulement	-11.2566
▁élu	-11.2571
▁finition	-11.2572
▁diversité	-11.2573
équipage	-11.2577
André	-11.2577
MANN	-11.2579
iche	-11.2586
DANS	-11.2595
▁renforcé	-11.2615
▁Tunis	-11.262
instructeur	-11.2622
▁pavillon	-11.2622
▁résistance	-11.2622
▁titularisé	-11.2622
attractivité	-11.2622
▁rectification	-11.2622
▁Selon	-11.2624
▁spécialisation	-11.2626
▁Gar	-11.2633
sept	-11.2636
▁613	-11.264
once	-11.2642
12-5	-11.2643
▁requêtes	-11.2646
▁auxiliaires	-11.2648
ko	-11.2649
ouz	-11.2652
OFF	-11.2666
▁modules	-11.2677
▁Créteil	-11.2678
▁doctorat	-11.2678
▁grâce	-11.2678
insuffisance	-11.2678
▁chemin	-11.2678
▁source	-11.2679
▁menée	-11.2679
▁reversement	-11.268
▁PARIS	-11.2681
▁apporté	-11.2682
▁neurologie	-11.2683
ographie	-11.2684
▁prononcer	-11.2689
système	-11.269
CHA	-11.2691
▁822-1	-11.2693
▁mur	-11.2695
▁montagn	-11.2696
usager	-11.2699
▁certifiés	-11.2708
▁justifiée	-11.2713
implant	-11.2716
▁sang	-11.2726
opératoire	-11.2734
▁Directeur	-11.2734
▁Présentation	-11.2734
▁construire	-11.2734
▁spécifications	-11.2734
investigation	-11.2734
▁décidé	-11.2734
géographie	-11.2734
▁refusé	-11.2737
CPT	-11.2749
▁531	-11.2755
arc	-11.2755
▁empêch	-11.2764
4-7	-11.2769
actuel	-11.2773
▁équipés	-11.2779
ERE	-11.2781
ieu	-11.2787
▁médiation	-11.279
▁Personne	-11.279
Liban	-11.2791
▁Rose	-11.2791
▁transactions	-11.2792
▁BRUN	-11.2793
▁largeur	-11.2794
STA	-11.2795
▁saisine	-11.2799
atoire	-11.2801
max	-11.2808
▁extérieurs	-11.2808
▁adéquat	-11.2811
NOU	-11.2812
▁agente	-11.2821
▁Marguerite	-11.2823
▁rattachée	-11.2824
▁RCS	-11.2827
JORF	-11.2847
▁concentration	-11.2847
▁fondamentaux	-11.2847
▁métaux	-11.2847
▁perception	-11.2847
▁pneumologie	-11.2847
▁souscription	-11.2847
▁attesté	-11.2847
▁213-0	-11.2847
▁organisatrice	-11.2847
▁fruits	-11.2848
gène	-11.2852
▁indirectement	-11.2858
▁donnent	-11.2861
▁majeur	-11.2874
▁noté	-11.2875
nent	-11.2879
▁terrestres	-11.2882
ik	-11.2888
▁pourrait	-11.2903
▁Communication	-11.2904
▁fourragère	-11.2904
▁méthodologie	-11.2904
Essonne	-11.2904
affecte	-11.2904
importation	-11.2909
▁humains	-11.291
▁troubles	-11.2912
▁Denise	-11.2914
Form	-11.2915
IRM	-11.2919
ADI	-11.2922
procureure	-11.2924
▁chirurgien	-11.2926
▁prioritaires	-11.2928
NARD	-11.2937
▁Chau	-11.295
onnet	-11.2953
▁147	-11.2961
Orléans	-11.2962
▁Lorraine	-11.2962
▁faculté	-11.2962
▁plongée	-11.2962
▁musique	-11.2962
▁raisonnable	-11.2962
▁golf	-11.2962
▁téléservice	-11.2962
ONE	-11.2963
▁vitale	-11.2963
Noémie	-11.2967
▁assimilé	-11.2969
▁sécurisé	-11.2972
▁indirecte	-11.2972
LAT	-11.2973
▁devrait	-11.2977
Rémy	-11.2982
▁1993	-11.2986
alli	-11.2986
ANNE	-11.2986
apprécie	-11.2989
.8.	-11.299
▁Gard	-11.2993
▁MER	-11.2996
ssez	-11.2997
▁445	-11.3
▁Gall	-11.3001
llant	-11.3001
gni	-11.3005
▁prononce	-11.3008
▁rétabli	-11.3012
▁dépend	-11.3012
▁interrégion	-11.3015
George	-11.3016
▁perspective	-11.302
▁traumatologique	-11.302
▁Chantal	-11.302
▁uniforme	-11.302
▁consistant	-11.302
▁descriptif	-11.302
▁score	-11.302
▁Maria	-11.3021
▁petits	-11.3021
▁effluents	-11.3022
▁feu	-11.3029
Alain	-11.3042
attaché	-11.3051
/2023-07-	-11.3054
▁acquise	-11.3056
COM	-11.3061
zone	-11.3065
▁recto	-11.3071
SKI	-11.3073
évènement	-11.3078
▁Critères	-11.3078
▁Description	-11.3078
▁téléchargement	-11.3078
▁jugé	-11.3078
Yannick	-11.3078
▁Titre	-11.3079
▁Château	-11.3081
SAC	-11.3082
rev	-11.3093
▁643	-11.3093
▁indépendante	-11.3094
Robin	-11.3095
▁consultée	-11.3097
▁vaccination	-11.3098
▁1996	-11.3099
four	-11.31
Catherine	-11.31
Marseille	-11.31
▁Bal	-11.3101
▁Enfin	-11.3105
dro	-11.312
▁appliqués	-11.3122
▁retiré	-11.3124
▁seulement	-11.3125
Jonathan	-11.3136
▁Bourgogne	-11.3136
▁Département	-11.3136
▁Justice	-11.3136
▁contingent	-11.3136
▁hebdomadaire	-11.3136
▁interfère	-11.3136
▁notice	-11.3136
▁séquence	-11.3136
▁énoncées	-11.3136
Marianne	-11.3136
▁livré	-11.3137
▁contractante	-11.314
▁réservés	-11.3141
▁pluridisciplina	-11.3146
▁précisés	-11.3147
▁conservés	-11.3153
▁assiste	-11.3154
▁contreparties	-11.316
animaux	-11.316
Guadeloupe	-11.316
HT	-11.3164
▁familiale	-11.3166
▁dépasser	-11.3191
INSCRIPTION	-11.3195
▁communautaire	-11.3195
▁consacré	-11.3195
▁hybride	-11.3195
▁servitudes	-11.3195
▁Type	-11.3195
▁biais	-11.3195
▁mondial	-11.3195
▁téléprocédure	-11.3195
avantage	-11.3196
▁exercée	-11.3198
▁décide	-11.3214
▁réparties	-11.3219
acteur	-11.3232
rig	-11.3237
▁The	-11.3237
otte	-11.3239
ANE	-11.3243
▁ARMÉE	-11.3243
▁Règle	-11.3244
▁fournie	-11.3246
▁socio	-11.3248
▁solliciter	-11.3249
▁BAL	-11.325
▁formalités	-11.325
CQ	-11.3253
▁insuffisa	-11.3254
▁Chorus	-11.3254
▁Recueil	-11.3254
▁acquitté	-11.3254
▁diligence	-11.3254
▁obstacle	-11.3254
▁diffuse	-11.3254
OLLE	-11.3267
▁kW	-11.3272
▁doté	-11.3273
▁franc	-11.3274
CAR	-11.3275
Guyane	-11.3281
▁approuv	-11.3282
▁plu	-11.3284
tivité	-11.3286
▁attendus	-11.3289
▁communiquées	-11.3289
DU	-11.329
▁coupe	-11.3302
▁créances	-11.3307
fip	-11.3307
adj	-11.331
audiovisuel	-11.3313
▁décollage	-11.3314
▁trajectoire	-11.3314
▁Transport	-11.3314
▁visa	-11.3314
▁polytechnique	-11.3314
tologie	-11.3318
▁adolescents	-11.3318
mal	-11.332
▁organes	-11.3321
▁Bra	-11.3322
Julia	-11.3332
nay	-11.3332
▁démontrer	-11.3342
olle	-11.3349
▁SOU	-11.3352
ANO	-11.3357
Lise	-11.3358
ADR	-11.3359
▁Ni	-11.3362
q	-11.3366
▁téléverse	-11.3366
Drôme	-11.3374
incapacité	-11.3374
▁Situation	-11.3374
▁déficit	-11.3374
▁énumérées	-11.3374
œufs	-11.3374
▁manœuvre	-11.3374
isolant	-11.3374
pierre	-11.3374
Régis	-11.3375
▁ballon	-11.3375
▁postérieure	-11.3379
UY	-11.338
▁certifiée	-11.3381
IST	-11.3389
▁coordonne	-11.3403
quatre	-11.3403
épi	-11.3404
bb	-11.3415
NAT	-11.3424
uranium	-11.3434
▁dimanche	-11.3434
▁distributeur	-11.3434
▁différé	-11.3434
écologie	-11.3434
▁Travail	-11.3434
▁confort	-11.3436
pur	-11.3438
date	-11.3438
▁Chi	-11.344
erreur	-11.344
▁éventuelle	-11.3442
▁Groupement	-11.3447
emballage	-11.3448
▁FL	-11.3448
▁appliqué	-11.3464
▁consulaires	-11.3467
-6.	-11.3478
▁mutuelle	-11.348
▁prononcé	-11.3484
ROUX	-11.3485
MONT	-11.3493
▁collection	-11.3494
▁déterminant	-11.3494
▁mémento	-11.3494
▁remplissant	-11.3494
▁spéciaux	-11.3494
▁tarification	-11.3494
▁DEMANDE	-11.3494
▁adopte	-11.3494
Corentin	-11.3495
▁Niveau	-11.3496
▁préval	-11.3498
ouge	-11.35
OUD	-11.3508
▁devenue	-11.351
▁difficulté	-11.351
▁Four	-11.352
titulaire	-11.3527
▁mairie	-11.3528
6.1	-11.3536
▁Bre	-11.3538
▁développe	-11.3552
▁sépar	-11.3554
IDE	-11.3555
▁aéroportuaire	-11.3555
▁Bpifrance	-11.3555
▁défaillance	-11.3555
▁conditionnement	-11.3555
ANGE	-11.3556
▁couple	-11.3557
▁détenir	-11.3557
Alban	-11.3566
▁thème	-11.3572
ctif	-11.3574
bd	-11.3575
ajoute	-11.3577
exemption	-11.3577
▁1999	-11.358
TY	-11.3581
▁valablement	-11.3583
▁restrictions	-11.3585
▁issu	-11.3589
Bouches	-11.359
compte	-11.359
▁favoris	-11.3595
▁basse	-11.3596
▁existantes	-11.3603
▁explicite	-11.3609
impos	-11.3615
▁Défense	-11.3617
▁circonscription	-11.3617
▁démocratique	-11.3617
▁médias	-11.3617
▁promulgation	-11.3617
Micka	-11.3618
cel	-11.3619
Orient	-11.363
▁4.2.	-11.3632
EAUX	-11.3644
utiliser	-11.3653
▁Cam	-11.3657
BRO	-11.3659
▁312-1	-11.3669
ILLON	-11.3672
artisan	-11.3677
huissier	-11.3679
▁Développe	-11.3679
▁patrimonial	-11.3679
▁postulant	-11.3679
Saclay	-11.3679
▁constant	-11.3679
▁densité	-11.3679
▁artisanale	-11.3679
▁Mobilité	-11.3679
▁élargie	-11.3679
▁climatisation	-11.368
infection	-11.3692
▁mesurée	-11.3703
gou	-11.371
finances	-11.3716
LEM	-11.3717
▁comptabilis	-11.3717
▁subir	-11.372
HEL	-11.3721
▁postérieur	-11.3724
édaillé	-11.3729
chard	-11.3735
uel	-11.374
▁présentiel	-11.3741
architecte	-11.3741
hôtel	-11.3741
intégrer	-11.3741
▁Syndicat	-11.3741
▁jauge	-11.3741
▁générateur	-11.3741
écrire	-11.3741
annonce	-11.3741
▁rayon	-11.3741
avarie	-11.3742
▁verre	-11.3742
▁SIRET	-11.3742
audience	-11.3742
▁4.1.	-11.3743
Morgane	-11.3746
▁CLA	-11.3749
▁soute	-11.375
▁tissu	-11.3752
ado	-11.3754
estimation	-11.3772
commissaire	-11.3779
existe	-11.378
régional	-11.378
cq	-11.3799
liquant	-11.3799
jon	-11.3799
▁correctives	-11.3801
Méditerranée	-11.3803
acquérir	-11.3803
▁biométhane	-11.3803
▁cohérent	-11.3803
▁comparaison	-11.3803
▁intellectuelle	-11.3803
▁longitude	-11.3803
▁prorata	-11.3803
▁navale	-11.3804
▁Annie	-11.3804
▁suspendu	-11.381
COURT	-11.3819
DIS	-11.3819
charge	-11.3827
▁1980	-11.3832
▁collabor	-11.386
▁CHAU	-11.3864
assujetti	-11.3866
épisode	-11.3866
▁dermatologie	-11.3866
▁consenti	-11.3866
diabétologie	-11.3866
▁TITRE	-11.3866
▁publie	-11.3867
▁SIIV	-11.3867
▁mener	-11.3868
▁821-6	-11.3868
▁2022-172	-11.387
▁dotée	-11.3872
▁verticales	-11.3876
▁universel	-11.3878
▁anticipée	-11.3884
▁0,1	-11.3892
UP	-11.3901
olo	-11.3907
glo	-11.3907
▁constitutionnel	-11.3908
Conseil	-11.3908
fond	-11.391
▁165	-11.3913
▁jeu	-11.3918
▁Sta	-11.3929
▁intensive	-11.3929
▁kilomètre	-11.3929
▁marquage	-11.3929
▁dirigé	-11.3929
▁Commune	-11.3929
▁latérales	-11.3929
▁VHU	-11.3929
▁SIREN	-11.3929
▁exclusif	-11.393
▁Bon	-11.3934
▁confirmation	-11.3937
▁5.2.	-11.3951
▁820	-11.3953
▁Belle	-11.3962
Aurélie	-11.397
▁aptitudes	-11.3972
TTE	-11.3974
▁adressent	-11.3975
▁NON	-11.3975
▁541-10	-11.3977
Sonia	-11.3981
Hérault	-11.3993
lès	-11.3993
▁immunologie	-11.3993
▁légaux	-11.3993
▁problématique	-11.3993
▁synthétique	-11.3993
▁urgent	-11.3993
▁kVA	-11.3993
▁rattachement	-11.3993
▁convient	-11.3995
▁remplace	-11.3995
▁convenu	-11.3996
▁JOU	-11.3997
▁821-4	-11.3998
▁blanc	-11.3999
ÉTAT	-11.4001
LIER	-11.4004
rès	-11.4006
▁restent	-11.4009
▁Substitute	-11.401
▁significative	-11.4018
▁liberté	-11.4018
TEAU	-11.4025
ENTI	-11.4033
▁Gre	-11.4035
étendue	-11.404
▁suspendue	-11.405
▁PAC	-11.4053
▁chaîne	-11.4057
▁manutention	-11.4057
▁mobilisation	-11.4057
▁valorisé	-11.4057
▁litige	-11.4057
Renan	-11.4057
Magali	-11.4058
▁visible	-11.4059
▁Andrée	-11.406
▁collaboration	-11.4063
▁0,5	-11.4066
▁BRA	-11.4067
▁animale	-11.4069
▁MAL	-11.4069
émetteur	-11.4071
▁431	-11.4071
▁verser	-11.4074
Roman	-11.4078
RIC	-11.408
PF	-11.4083
▁1962	-11.4083
▁1998	-11.4084
▁311-1	-11.4088
▁souhait	-11.4089
zy	-11.4092
▁Voir	-11.4095
nac	-11.4101
bout	-11.4103
améliorer	-11.4104
Corse	-11.4104
enveloppe	-11.4104
▁légère	-11.4122
▁quelconque	-11.4122
▁rayonnement	-11.4122
▁soutenance	-11.4122
▁centraux	-11.4122
▁constate	-11.4132
7.1	-11.4142
▁appropriée	-11.4147
kh	-11.4156
▁SOUS	-11.4157
▁Entre	-11.4163
▁engagée	-11.4169
▁322	-11.4173
affilié	-11.4183
▁THI	-11.4186
OPÉRATION	-11.4187
▁Analys	-11.4187
▁cuisine	-11.4187
▁individualisé	-11.4187
▁amiable	-11.4187
▁ménagers	-11.4187
bol	-11.4197
Loir	-11.4199
dine	-11.4207
med	-11.4211
doc	-11.4212
▁rencontr	-11.4214
▁petite	-11.4216
KI	-11.4226
CU	-11.4232
OZ	-11.4235
Accord	-11.4237
▁All	-11.4239
▁faut	-11.4246
incident	-11.4248
/2023-03-3	-11.4252
▁Métiers	-11.4252
▁percevoir	-11.4252
▁significatif	-11.4252
▁télépilote	-11.4252
▁tennis	-11.4252
▁débat	-11.4255
▁214-1	-11.4258
▁immédiate	-11.4261
IAN	-11.4261
▁connue	-11.4262
mandant	-11.4272
VIN	-11.4272
▁prolongée	-11.4276
▁Base	-11.4278
▁culturelle	-11.4301
ppliquer	-11.4304
Nathalie	-11.4304
▁renseigné	-11.4309
▁courante	-11.4313
Ange	-11.4313
▁MAU	-11.4316
AIR	-11.4318
▁provision	-11.4318
________________	-11.4318
▁collectées	-11.4318
▁gravité	-11.4318
▁radioprotection	-11.4318
▁minoré	-11.4318
▁faune	-11.4319
dentiste	-11.4323
ignon	-11.4335
file	-11.4356
ommercialisation	-11.4372
▁pluri	-11.4375
ssement	-11.4378
observatoire	-11.4384
astreinte	-11.4384
▁Médecin	-11.4384
▁OFFICE	-11.4384
▁analytique	-11.4384
▁dévolues	-11.4384
▁exigible	-11.4384
▁destruction	-11.4384
Laetitia	-11.4385
▁achevé	-11.4385
▁lavage	-11.4385
▁revalorisation	-11.4389
▁GOU	-11.4389
▁contrôleuse	-11.4402
▁réputée	-11.4407
▁mouvement	-11.4417
Alix	-11.443
▁Kh	-11.4439
recrute	-11.444
OUT	-11.4445
GH	-11.4448
▁métallurgiques	-11.4451
▁sauvage	-11.4451
▁Fabienne	-11.4451
▁1.4.	-11.4452
UCH	-11.4453
OUSS	-11.4455
CCF	-11.4455
▁quart	-11.4458
huile	-11.4476
▁parentale	-11.4484
▁FOR	-11.449
▁614-1	-11.4495
▁ENTRE	-11.4503
▁bâti	-11.4507
économique	-11.4508
recherche	-11.4508
lieu	-11.451
ÉPREUVE	-11.4517
cadastr	-11.4518
Jérémy	-11.4518
▁Considérant	-11.4518
▁compétition	-11.4518
▁parachutiste	-11.4518
▁pratiquant	-11.4518
▁prélevé	-11.4518
Pitre	-11.4518
écran	-11.4518
▁examinateurs	-11.4521
▁grammes	-11.4522
ppe	-11.4523
TRO	-11.4542
▁désigner	-11.4566
Simon	-11.4577
contractant	-11.4581
Valentine	-11.4582
▁posséd	-11.4585
▁Organisme	-11.4585
▁appartiennent	-11.4585
▁remboursé	-11.4585
▁listés	-11.4586
▁plancher	-11.459
▁quotidienne	-11.459
▁recueilli	-11.459
OTTE	-11.4591
▁réhabilitation	-11.4593
▁pont	-11.46
▁carré	-11.46
BEL	-11.4601
DIER	-11.4619
arbre	-11.4621
2.3	-11.4622
▁respectées	-11.4626
▁statutaire	-11.4631
▁Simone	-11.4633
▁extra	-11.465
▁tradition	-11.4653
Stratégique	-11.4653
embryon	-11.4653
expédition	-11.4653
écrivant	-11.4653
▁légumes	-11.4653
ADEME	-11.4653
▁italienne	-11.4653
édition	-11.4653
▁isolé	-11.4654
▁exécutée	-11.4655
▁Ti	-11.4659
▁répondent	-11.466
tab	-11.4662
▁foyer	-11.4668
▁afférent	-11.468
▁analyser	-11.4685
mann	-11.4701
▁ratio	-11.4717
agglomération	-11.4722
éclairage	-11.4722
▁débarquement	-11.4722
▁député	-11.4722
▁littoral	-11.4722
▁référendaire	-11.4722
▁spécificités	-11.4722
▁fabriqu	-11.4722
▁insaisissables	-11.4722
▁intéressant	-11.4722
▁répét	-11.4722
éthique	-11.4722
accise	-11.4723
Nathan	-11.4724
place	-11.4724
▁apparaître	-11.4724
▁instruments	-11.4724
phys	-11.4734
3.2	-11.4745
▁541-1	-11.4751
▁identifié	-11.4766
▁maîtriser	-11.4768
▁principalement	-11.4768
AYE	-11.4777
▁remplacer	-11.4777
hino	-11.4784
inématographique	-11.4784
▁Pont	-11.4785
▁franco	-11.4787
acquitte	-11.4791
apprenant	-11.4791
ÉVALUATION	-11.4791
▁Antilles	-11.4791
▁CONCOURS	-11.4791
▁ciblée	-11.4791
▁intégrant	-11.4791
▁libéraux	-11.4791
▁manifeste	-11.4791
▁satisfaction	-11.4791
alcool	-11.4791
entreposage	-11.4791
▁programmée	-11.4791
▁gérant	-11.4791
▁162-23-	-11.4791
▁XX	-11.4794
Sandra	-11.4797
▁242-7	-11.4799
▁alertes	-11.48
ONI	-11.4802
hât	-11.4804
6.2	-11.4805
▁envisagé	-11.4809
ity	-11.4817
▁éventuel	-11.4825
stat	-11.4826
▁préparatoire	-11.4832
▁contrepartie	-11.4836
▁821-13	-11.4836
▁matérielle	-11.4836
▁alloué	-11.4849
▁Renée	-11.485
Thibaut	-11.486
▁bibliothèque	-11.486
▁provoque	-11.486
▁substantielle	-11.486
cérale	-11.486
▁viande	-11.4861
▁clos	-11.4862
▁suis	-11.4863
internationales	-11.4865
ORI	-11.4867
dap	-11.4874
▁feuille	-11.4876
▁BAT	-11.4877
▁requérante	-11.4878
LARD	-11.4888
▁moral	-11.4897
▁mobiliser	-11.4901
▁travailleur	-11.4903
ika	-11.4906
ainsi	-11.4913
▁BEAU	-11.4915
obst	-11.4918
électeur	-11.4927
composante	-11.4929
suppléant	-11.4929
candidat	-11.4929
eq	-11.4929
appuyant	-11.493
emprise	-11.493
▁Objet	-11.493
▁carburant	-11.493
▁ordinaire	-11.493
▁renvoyé	-11.493
▁tuyautage	-11.493
▁filiale	-11.493
▁Colette	-11.493
▁821-5	-11.493
▁notion	-11.493
éventu	-11.4931
▁autoriser	-11.4931
▁amendements	-11.4934
▁Danielle	-11.4948
▁joue	-11.4949
▁KER	-11.4956
HON	-11.496
▁débiteur	-11.4968
TRET	-11.4974
▁syndicale	-11.4975
Bains	-11.4979
agriculteur	-11.4997
examinateur	-11.4997
Assemblée	-11.5001
actualisation	-11.5001
appendice	-11.5001
▁Principau	-11.5001
▁couvrant	-11.5001
▁prépondérante	-11.5001
▁prévoient	-11.5001
▁terminaux	-11.5001
▁possède	-11.5001
▁SPÉCIALITÉ	-11.5001
▁Avec	-11.5001
▁centré	-11.5001
▁Prénom	-11.5001
▁voyageurs	-11.5002
océan	-11.5003
Franc	-11.5012
▁revers	-11.5014
▁Bonn	-11.5023
AMI	-11.5027
▁1979	-11.5027
CHARD	-11.5028
bour	-11.5031
▁assortie	-11.5037
accompagne	-11.5039
ULT	-11.5042
▁337-	-11.5044
▁admissible	-11.5046
dra	-11.5049
▁conclure	-11.5058
▁condamnation	-11.5071
▁examiné	-11.5071
▁récépissé	-11.5071
▁énumérés	-11.5071
▁nominative	-11.5071
▁multiplié	-11.5072
▁Compte	-11.5072
▁passeport	-11.5072
Christian	-11.5074
▁correctement	-11.5077
▁éman	-11.5078
issi	-11.5084
ASSI	-11.5087
ji	-11.5093
▁Gain	-11.5094
▁Puy	-11.5095
value	-11.5109
▁pluriannuel	-11.511
▁formalisé	-11.5113
REY	-11.5123
raud	-11.5138
ordonnateur	-11.5142
céder	-11.5143
▁hébergé	-11.5143
Grégory	-11.5143
▁infectieuse	-11.5143
▁ANFR	-11.5143
Sabine	-11.5143
▁payé	-11.5145
▁Respect	-11.5145
▁Etude	-11.5145
ASSO	-11.5152
chevalier	-11.5165
MY	-11.5172
vous	-11.5173
.1.4.	-11.5173
GUY	-11.5189
▁Tarif	-11.5193
invit	-11.5193
Allemagne	-11.5215
amortissement	-11.5215
▁Professionnelle	-11.5215
▁continental	-11.5215
▁supervision	-11.5215
▁Gustave	-11.5215
▁ruraux	-11.5215
Ghislain	-11.5215
▁nautique	-11.5215
▁francisation	-11.5216
▁recevabilité	-11.5216
▁logis	-11.5219
Virginie	-11.522
▁renseignée	-11.5224
BAUD	-11.5226
41-4	-11.5237
▁corr	-11.5252
TREP	-11.5269
▁signalé	-11.5271
▁intègre	-11.5276
▁0,0	-11.5286
▁CERTIFICAT	-11.5287
▁administré	-11.5287
▁indéterminée	-11.5287
▁Pleines	-11.5287
▁revue	-11.5287
▁TRANS	-11.5288
▁Nadine	-11.5288
▁proportionnelle	-11.5288
accepte	-11.5289
Bastien	-11.5289
______...	-11.529
Mont	-11.529
Valérie	-11.5294
ava	-11.5296
▁161-1	-11.5299
▁rendement	-11.5303
▁mineur	-11.5308
LLI	-11.5316
▁Etre	-11.5318
▁conservé	-11.5326
▁implique	-11.5331
▁cumulé	-11.5336
liste	-11.5337
ROT	-11.5346
▁UNITÉ	-11.5349
Calvados	-11.536
aluminium	-11.536
▁criminelle	-11.536
▁dénonciation	-11.536
▁kilogramme	-11.536
▁malveillance	-11.536
▁téléphonique	-11.536
▁portuaire	-11.536
▁interarmées	-11.5361
▁étaient	-11.5361
▁Maison	-11.5367
▁journalier	-11.5369
33-3	-11.539
▁Montant	-11.5394
Elsa	-11.5396
▁homologu	-11.5397
▁repris	-11.5403
canton	-11.5405
▁reçues	-11.5411
▁figurer	-11.5411
ELLI	-11.5412
Clémentine	-11.5414
OMI	-11.5425
▁lots	-11.5428
affiliation	-11.5434
▁161-22-1	-11.5434
▁façade	-11.5434
▁prolongation	-11.5434
▁diamètre	-11.5434
▁web	-11.5435
▁coexiste	-11.5435
autorise	-11.5436
▁PROFESSIONNELLE	-11.5437
▁zonale	-11.5438
Fabrice	-11.5444
Joseph	-11.5444
▁SEC	-11.5449
accomplir	-11.545
DRH	-11.5451
Alex	-11.5458
▁prenantes	-11.5466
OIR	-11.5482
▁partenaire	-11.5489
dix	-11.5495
▁émet	-11.5497
insaisissab	-11.5508
Morbihan	-11.5508
▁digestive	-11.5508
▁prudentiel	-11.5508
▁télécopie	-11.5508
▁Opération	-11.5508
▁suspect	-11.5508
▁assum	-11.5508
▁couvrir	-11.551
▁COMPÉTENCES	-11.5511
▁simultanément	-11.5513
anna	-11.5518
▁milieux	-11.5518
Alexandra	-11.552
Sylvain	-11.552
Stéphanie	-11.552
EFF	-11.5522
▁mono	-11.5525
▁conditionné	-11.5531
▁coll	-11.5531
Tom	-11.5532
▁556	-11.5533
▁Bro	-11.5535
▁formuler	-11.5536
puis	-11.5539
▁(75)	-11.5557
Ville	-11.5565
Séverine	-11.5583
expéditeur	-11.5583
influence	-11.5583
▁Identification	-11.5583
▁agrégé	-11.5583
▁compatibilité	-11.5583
▁délibère	-11.5583
▁idiopathique	-11.5583
▁protéger	-11.5583
▁reconduit	-11.5583
▁systémique	-11.5583
Océane	-11.5583
▁club	-11.5583
enceinte	-11.5583
ature	-11.5584
▁dixième	-11.5585
Italie	-11.5587
▁pacte	-11.5591
allée	-11.5592
informer	-11.5597
trois	-11.5603
▁CODE	-11.5604
ock	-11.5604
▁Perr	-11.5607
▁1971	-11.5611
NER	-11.5615
Terre	-11.5617
▁ultérieure	-11.562
▁volet	-11.5624
MEND	-11.5637
▁partenariat	-11.5641
▁promu	-11.5643
▁actuelle	-11.565
▁avancée	-11.5651
▁Aline	-11.5653
▁quotidien	-11.5653
OUCHE	-11.5656
Administration	-11.5658
Constance	-11.5658
▁dissoute	-11.5658
▁fédéral	-11.5658
▁prospective	-11.5658
▁stabilité	-11.5658
▁Langue	-11.5658
élément	-11.566
amendement	-11.5661
360	-11.5665
▁représentée	-11.5672
▁POU	-11.5676
ulum	-11.5676
▁CDC	-11.568
▁sanctionné	-11.5682
▁automatiquement	-11.5685
droit	-11.5685
ERRE	-11.5686
▁Za	-11.5705
▁courte	-11.5706
▁FERR	-11.5727
▁sise	-11.5729
▁Membre	-11.5733
▁constitutif	-11.5733
▁hiérarchie	-11.5733
▁prorogation	-11.5733
▁ambassadeur	-11.5734
▁Mission	-11.5734
▁Parcours	-11.5734
▁léger	-11.5734
▁subordonné	-11.5735
▁spécifiées	-11.5737
▁9474	-11.5742
▁recueillies	-11.5749
Bernard	-11.5751
lieutenant	-11.5751
▁rapproch	-11.5751
géni	-11.5752
▁recouvr	-11.5756
▁enregistrements	-11.576
▁justifié	-11.5762
issa	-11.5763
AOUI	-11.5766
urric	-11.5777
CAM	-11.5779
▁compatible	-11.5796
affichage	-11.581
▁Sorbonne	-11.581
▁acoustique	-11.581
▁conservateur	-11.581
▁différend	-11.581
▁observé	-11.581
Joséphine	-11.581
Tristan	-11.581
▁endocrinologie	-11.581
▁NSF	-11.581
▁affiliés	-11.5814
▁détecter	-11.5814
vez	-11.5818
▁différente	-11.5821
IGP	-11.5822
▁FRANCE	-11.5823
▁retirée	-11.5826
ok	-11.5826
occuper	-11.5839
▁543-	-11.585
NEL	-11.5854
▁8.1.	-11.5858
▁dirige	-11.5873
affaire	-11.5877
▁copropriétaires	-11.5887
▁découverte	-11.5887
▁mutualité	-11.5887
▁photographie	-11.5887
▁vénéréologie	-11.5887
▁précoce	-11.5887
filtrage	-11.5887
▁desquels	-11.5887
▁vitae	-11.5887
▁CLASSE	-11.5887
Vendée	-11.5887
▁collaborateurs	-11.5887
▁châssis	-11.5888
ectificatif	-11.589
▁Terres	-11.589
▁Roche	-11.5898
▁débitant	-11.5905
PROFESSIONNELLES	-11.5914
▁parental	-11.5918
ical	-11.5919
▁1997	-11.592
▁236-1	-11.5928
cardi	-11.5931
excédant	-11.5964
▁possession	-11.5964
▁valoriser	-11.5964
▁lisible	-11.5964
▁revient	-11.5969
script	-11.5978
▁électorales	-11.5986
▁Point	-11.5995
old	-11.6007
indiquer	-11.6011
clerc	-11.6019
▁ressource	-11.6032
génér	-11.6032
▁consommateur	-11.6033
ORT	-11.6034
▁arrondi	-11.604
▁GALL	-11.6041
Augustin	-11.6042
Caractéristiques	-11.6042
ajustement	-11.6042
▁dérivés	-11.6042
▁Absent	-11.6042
▁douzième	-11.6042
▁munitions	-11.6042
▁questionnaire	-11.6043
optimisation	-11.6046
▁agriculteurs	-11.6046
▁attentes	-11.6048
▁troupeaux	-11.605
▁ARMÉES	-11.6057
▁Bru	-11.6059
ECOD	-11.6065
coefficient	-11.6066
hiver	-11.6068
kg	-11.6073
MOU	-11.6079
main	-11.6086
pot	-11.6091
import	-11.6114
▁renouve	-11.612
authentification	-11.6121
laryngologie	-11.6121
▁Installation	-11.6121
▁bovins	-11.6121
▁mécanicien	-11.6121
▁attendre	-11.6121
▁docteur	-11.6121
▁Demande	-11.6122
douane	-11.6123
▁GRAND	-11.6129
▁commence	-11.6129
EDF	-11.6133
▁expresse	-11.6139
JUST	-11.614
intention	-11.6147
Daniel	-11.6148
▁bureaux	-11.6155
TOUR	-11.6156
▁Thi	-11.6167
▁âgé	-11.6179
▁certifie	-11.6189
py	-11.6192
ossi	-11.6196
▁cortico	-11.62
▁contenir	-11.62
▁inadéquate	-11.62
▁Contenu	-11.6201
▁caporal	-11.6201
▁regroupement	-11.6201
diplomatie	-11.6201
original	-11.6201
Sarthe	-11.6201
OIT	-11.6202
MWh	-11.6202
▁consul	-11.6204
▁ateliers	-11.6206
UTC	-11.6216
▁académies	-11.6219
Bertrand	-11.6229
▁123-1	-11.6238
mbert	-11.6254
optimis	-11.6272
interieur	-11.628
IFICATION	-11.628
introduction	-11.628
▁Nîmes	-11.628
▁chômage	-11.628
▁monnaie	-11.628
▁structuré	-11.628
outillage	-11.6281
▁prolonge	-11.6281
▁DMN	-11.6281
▁financer	-11.6281
▁banque	-11.6281
▁vrac	-11.6282
▁froid	-11.6283
▁BIO	-11.6284
▁certifier	-11.6292
Solène	-11.6292
▁Coll	-11.6304
HAR	-11.6308
émettre	-11.6308
▁543-1	-11.6312
HAN	-11.6313
▁sécurisée	-11.6315
▁pondérée	-11.6318
▁journal	-11.6325
▁fondée	-11.6327
▁généraliste	-11.6327
ECOI	-11.6343
▁technic	-11.6353
▁gendarme	-11.636
explosif	-11.6361
infirmière	-11.6361
▁Préparer	-11.6361
▁maréchal	-11.6361
▁polluant	-11.6361
▁résilience	-11.6361
▁subaquatique	-11.6361
▁transbordement	-11.6361
CFDT	-11.6361
annulation	-11.6361
▁chats	-11.6361
Félix	-11.6361
▁cinéma	-11.6361
▁gestes	-11.6361
▁psychologique	-11.6361
▁super	-11.6361
▁propulsion	-11.6362
▁discriminations	-11.6363
emprunteur	-11.6366
▁gère	-11.6372
▁généré	-11.6374
▁intérimaire	-11.6376
▁municipale	-11.6386
oulet	-11.6389
notamment	-11.6394
▁capteur	-11.6405
EPS	-11.6406
▁modérée	-11.6411
▁dépose	-11.6417
▁314-1	-11.6417
2.1.1.	-11.6438
énoncé	-11.6442
▁Concevoir	-11.6442
▁contravention	-11.6442
▁corvette	-11.6442
▁pétrole	-11.6442
▁toujours	-11.6442
▁souvent	-11.6442
▁monothérapie	-11.6443
▁toile	-11.6444
▁macro	-11.6444
▁motivé	-11.6445
▁conviennent	-11.6446
▁Rousse	-11.6448
▁renforcée	-11.6453
PEC	-11.6469
1-5-1	-11.6473
▁1981	-11.6473
hui	-11.6474
avec	-11.648
▁coordonner	-11.6486
olin	-11.6505
ELIN	-11.6514
▁corporel	-11.6524
▁essentielles	-11.6524
▁incompatible	-11.6524
▁prérempli	-11.6524
▁solidité	-11.6524
▁souterrain	-11.6524
▁parfaite	-11.6524
▁payer	-11.6524
▁conférence	-11.6525
▁solaire	-11.6526
œ	-11.6527
▁tend	-11.6531
élaborer	-11.6532
ACHE	-11.6539
bach	-11.654
▁CEE	-11.6543
▁Basse	-11.6553
▁neuro	-11.6555
Didier	-11.6561
Florence	-11.6561
classe	-11.6564
▁LOI	-11.6566
▁additionnel	-11.6569
▁cumulée	-11.6576
▁passée	-11.6578
▁Brun	-11.6589
▁évoluer	-11.6592
▁hydro	-11.6598
▁contrôlé	-11.6603
▁transit	-11.6605
ij	-11.6606
EDI	-11.6606
empreinte	-11.6607
▁Dénomination	-11.6607
▁configuration	-11.6607
▁diplômé	-11.6607
▁délinquance	-11.6607
▁plainte	-11.6607
▁plénière	-11.6607
▁promouvoir	-11.6607
▁prorogé	-11.6607
▁recourir	-11.6607
▁rhumatologie	-11.6607
▁instruit	-11.6607
▁tête	-11.6607
▁remplissage	-11.6608
Elisa	-11.6608
Lucile	-11.6609
/2023-05-	-11.6616
oût	-11.662
▁appréciée	-11.663
▁nécessitent	-11.6635
attache	-11.6641
conseil	-11.6646
interne	-11.6666
ESSE	-11.6667
ECH	-11.6681
▁exclusive	-11.6685
abrogation	-11.669
ameublement	-11.669
embarcation	-11.669
▁Accompagn	-11.669
▁Bernadette	-11.669
▁Exigences	-11.669
▁inutile	-11.669
▁pédiatrique	-11.669
▁relogement	-11.669
▁succès	-11.669
▁vulnérabilité	-11.669
▁gamme	-11.669
▁locative	-11.669
▁financés	-11.669
▁préparé	-11.6691
▁PETIT	-11.6691
▁Lésion	-11.6691
▁opéré	-11.6691
Acheteur	-11.6691
▁Programme	-11.6691
▁embarqué	-11.6694
▁mentale	-11.6695
Diane	-11.6698
MENH	-11.6721
chin	-11.6721
Gilles	-11.6731
▁sud	-11.6746
▁incorpor	-11.6758
écrit	-11.6761
oncernant	-11.6769
Observatoire	-11.6774
Vaucluse	-11.6774
transfrontalière	-11.6774
▁australes	-11.6774
▁brigadier	-11.6774
▁complexité	-11.6774
▁dégagement	-11.6774
▁jardin	-11.6774
▁linguistique	-11.6774
▁phénomène	-11.6774
ordinateur	-11.6774
▁Active	-11.6774
▁métallique	-11.6774
▁34009	-11.6774
▁quorum	-11.6774
▁pérenne	-11.6774
▁muté	-11.6775
échantillonnage	-11.6775
TFP	-11.6784
▁Réseau	-11.6785
▁faute	-11.6788
▁postérieurement	-11.679
THIER	-11.6799
▁1973	-11.6808
Art	-11.6812
jan	-11.6813
▁337-1	-11.6819
zon	-11.6821
▁diminué	-11.6859
▁inadapté	-11.6859
▁évidence	-11.6859
Huissier	-11.6859
▁performant	-11.6859
▁Celui	-11.6859
opinion	-11.6859
▁parlementaire	-11.686
▁OPS	-11.6864
▁souhaitant	-11.6868
▁communiquent	-11.6872
▁reportée	-11.6874
5349	-11.6883
natal	-11.6888
▁1963	-11.6892
▁modéré	-11.6892
LAIN	-11.69
citerne	-11.6903
▁immatriculé	-11.6903
▁visuelle	-11.6904
oth	-11.6906
▁considér	-11.6906
communication	-11.6912
ajout	-11.6914
▁GUER	-11.6929
▁HAS	-11.693
Bâtiment	-11.6945
▁Fonctionnement	-11.6945
▁Muséum	-11.6945
▁biomasse	-11.6945
▁défavorable	-11.6945
▁introduit	-11.6945
▁juvénile	-11.6945
▁prairie	-11.6945
▁terrorisme	-11.6945
horizon	-11.6945
▁Prévention	-11.6945
▁chauffe	-11.6945
▁conteneur	-11.6945
▁envoyer	-11.6945
▁expressément	-11.6945
▁paie	-11.6945
▁National	-11.6948
▁montre	-11.6949
impartialité	-11.6956
CHAL	-11.696
CHO	-11.6967
▁prescrites	-11.6983
BAN	-11.6983
▁1970	-11.6984
▁421-1	-11.6985
▁exempt	-11.7
Emmanuelle	-11.7004
Nous	-11.7012
CY	-11.7022
▁saisir	-11.7023
▁fréquent	-11.7031
ÉNERGIE	-11.7031
étanchéité	-11.7031
▁Nanterre	-11.7031
▁médiateur	-11.7031
▁perçoit	-11.7031
▁télécharger	-11.7031
▁recense	-11.7031
▁CENTRE	-11.7031
abandon	-11.7031
▁trajet	-11.7031
rvico	-11.7032
excédent	-11.7032
▁sollicite	-11.7033
CGT	-11.7036
ILLI	-11.7036
▁interaction	-11.7036
▁dimension	-11.7037
▁GIP	-11.7039
▁6113-	-11.7043
▁garantit	-11.7043
incorporation	-11.7048
articulation	-11.7049
▁gazeux	-11.705
angle	-11.7053
▁1958	-11.7065
émie	-11.7077
commun	-11.7083
▁dématérialisé	-11.7085
gué	-11.709
▁indu	-11.7112
▁change	-11.7114
▁2016/679	-11.7118
▁213-6.	-11.7118
▁Production	-11.7118
▁scellé	-11.7118
▁scénario	-11.7118
▁îlots	-11.7118
▁marqué	-11.7118
métrie	-11.7118
▁paysages	-11.7118
▁MICHEL	-11.7118
ONG	-11.7118
▁SIMON	-11.7119
▁directoire	-11.712
▁Chargé	-11.712
▁bleu	-11.7125
▁machine	-11.7125
▁TERRE	-11.7127
/2023-12	-11.7127
▁désign	-11.7144
▁octroyée	-11.7149
▁Dela	-11.7153
▁Ferr	-11.7153
GAR	-11.7175
exercent	-11.7179
▁circul	-11.7194
vic	-11.7196
Gauthier	-11.7206
▁Capacité	-11.7206
▁Evaluation	-11.7206
▁Maîtrise	-11.7206
▁déchargement	-11.7206
▁déclenche	-11.7206
▁furets	-11.7206
▁parallèle	-11.7206
▁recherché	-11.7206
▁végétaux	-11.7206
▁Henry	-11.7206
▁Mérite	-11.7206
▁Chacune	-11.7206
▁absent	-11.7206
▁listées	-11.7206
▁siége	-11.7206
▁Rochelle	-11.7207
▁2.6.	-11.7209
▁infections	-11.7211
▁confirmé	-11.7215
▁UNITÉS	-11.7219
▁choisit	-11.7229
▁CHARGE	-11.7251
.4.2.	-11.727
11-9	-11.7271
▁Boul	-11.7272
▁706	-11.7283
▁tiré	-11.7285
▁conventionné	-11.7285
Erwan	-11.7294
PUBLIQUE	-11.7294
accompagnateur	-11.7294
antarctiques	-11.7294
explication	-11.7294
▁Communiquer	-11.7294
▁Gascogne	-11.7294
▁Période	-11.7294
▁__________	-11.7294
▁facturable	-11.7294
▁imputable	-11.7294
▁reconversion	-11.7294
▁rédactrice	-11.7294
INRAE	-11.7294
▁apposé	-11.7294
▁dégradé	-11.7294
▁ultime	-11.7294
▁propag	-11.7294
▁présumé	-11.7294
▁OUVR	-11.7294
colonelle	-11.7295
▁dangereux	-11.7296
hôpitaux	-11.7296
▁tirage	-11.7302
imo	-11.7302
▁réalité	-11.7302
▁clairement	-11.7303
Abdel	-11.7304
▁consolidé	-11.7305
▁créance	-11.7308
▁euro	-11.731
PIERRE	-11.7312
hem	-11.7315
ABA	-11.7326
▁mort	-11.7331
Brice	-11.7335
42-4	-11.7348
vingt	-11.7351
pression	-11.7364
▁formul	-11.7366
▁vertical	-11.737
▁siéger	-11.7383
▁Yvonne	-11.7383
▁atomique	-11.7383
▁bénévole	-11.7383
▁précédé	-11.7383
▁réquisition	-11.7383
amiral	-11.7383
scénariste	-11.7383
▁physico	-11.7383
▁expliqu	-11.7383
onglet	-11.7384
▁rencontrées	-11.7386
▁confier	-11.7389
▁1333-1	-11.7392
▁perdu	-11.7393
▁rétro	-11.7394
▁employé	-11.7396
▁victime	-11.7396
▁Notaire	-11.7398
▁répartir	-11.7413
ORE	-11.7417
Jouy	-11.7419
1.4	-11.743
iii	-11.7433
42-2	-11.7434
▁CAST	-11.746
▁diagnostique	-11.746
/2023-1	-11.7462
istique	-11.7463
Recrutement	-11.7473
▁absorb	-11.7473
▁Conception	-11.7473
▁Utilisation	-11.7473
▁citoyenneté	-11.7473
▁collégial	-11.7473
▁républicaine	-11.7473
▁DROIT	-11.7473
Vanessa	-11.7473
▁Renard	-11.7474
▁ACTIVITÉS	-11.7474
▁soumettre	-11.7474
▁filtre	-11.7476
VIS	-11.7484
▁organis	-11.749
▁Kar	-11.7512
FORT	-11.7516
▁familial	-11.7519
▁anime	-11.7521
heim	-11.7524
praticien	-11.7534
Laurence	-11.7535
IEM	-11.7535
bord	-11.7546
univers	-11.7547
▁singulier	-11.7564
hématologie	-11.7564
verbaux	-11.7564
ÉDUCATION	-11.7564
▁575/2013	-11.7564
▁contamination	-11.7564
▁douanière	-11.7564
▁délégant	-11.7564
▁métallurgie	-11.7564
▁néphrologie	-11.7564
▁revitalisation	-11.7564
▁gauche	-11.7564
▁étanche	-11.7564
▁Logement	-11.7564
▁Bastia	-11.7564
▁écoulé	-11.7565
▁teneur	-11.7565
▁rédige	-11.7565
▁posée	-11.7568
▁Mesure	-11.7571
extraction	-11.7573
▁résultent	-11.7574
▁732-1	-11.7574
LAM	-11.7575
▁recueillir	-11.758
▁ménage	-11.758
▁examine	-11.7586
▁22,9	-11.7592
départemental	-11.7619
Euro	-11.7628
ISSON	-11.7643
joignent	-11.765
Assurance	-11.7656
Mehdi	-11.7656
▁Claudine	-11.7656
▁PRÉSENT	-11.7656
▁Procédure	-11.7656
▁distingue	-11.7656
INSEE	-11.7656
▁négatif	-11.7656
▁bruit	-11.7656
▁denrées	-11.7656
▁socle	-11.7656
▁Formation	-11.7656
▁tracteur	-11.7656
ambition	-11.7657
▁CONTR	-11.7659
▁apte	-11.7662
▁Jour	-11.7663
opportunité	-11.7667
▁Coût	-11.7668
▁Mass	-11.7681
32,4	-11.7688
POV	-11.7695
Rachel	-11.7696
temps	-11.7723
contrôle	-11.7724
/2023-13	-11.7727
instrument	-11.7745
connaitre	-11.7748
Adèle	-11.7749
appuyer	-11.7749
emprisonnement	-11.7749
excellence	-11.7749
▁Notification	-11.7749
▁Protection	-11.7749
▁compensatoire	-11.7749
▁consolidation	-11.7749
▁délibérative	-11.7749
▁rigidité	-11.7749
▁recharge	-11.7752
intervalle	-11.7752
soit	-11.7753
▁manipulation	-11.7754
▁vision	-11.7755
▁classifiées	-11.7757
▁421-2	-11.776
▁apports	-11.7764
▁Objectif	-11.7768
▁perçue	-11.7768
▁411-1	-11.777
fondateur	-11.778
/2023-04-	-11.778
31-4	-11.7795
.1.5.	-11.7813
Auvergne	-11.7818
Hervé	-11.7818
Maroc	-11.7818
appartenance	-11.7842
▁Représentant	-11.7842
▁conservatoire	-11.7842
▁diminution	-11.7842
▁positif	-11.7842
▁professorat	-11.7842
▁tiennent	-11.7842
▁financées	-11.7842
▁comparable	-11.7842
▁fibre	-11.7842
▁Certain	-11.7842
▁ÉTABLISSEMENTS	-11.7842
amiante	-11.7842
▁FICHE	-11.7842
Gaulle	-11.7843
éloign	-11.7843
▁Musée	-11.7844
▁Moyen	-11.7845
▁offert	-11.785
opère	-11.7851
▁voirie	-11.7858
▁allocations	-11.7861
ILLO	-11.7866
urologie	-11.7873
FIN	-11.7875
tude	-11.7878
▁connecté	-11.7891
▁SAR	-11.7908
export	-11.7921
IAHP	-11.7936
Olivia	-11.7936
▁Décision	-11.7936
▁Monaco	-11.7936
▁SÉCURITÉ	-11.7936
▁agroalimentaire	-11.7936
▁défectueux	-11.7936
▁positive	-11.7936
▁provenance	-11.7936
▁prévisible	-11.7936
▁périphérique	-11.7936
▁rectificative	-11.7936
▁représentatif	-11.7936
▁Annick	-11.7936
▁glace	-11.7936
▁incombe	-11.7936
▁ouvrable	-11.7936
incitation	-11.7936
▁démontable	-11.7936
▁libération	-11.7936
▁MINIST	-11.7936
▁hausse	-11.7936
▁SANTÉ	-11.7937
▁fonctionnalités	-11.7937
Coralie	-11.7937
▁Cercl	-11.7937
▁consultant	-11.7937
ack	-11.7941
▁institutionnel	-11.7941
-1246	-11.7942
ême	-11.7944
OYER	-11.7951
▁VFR	-11.7954
▁paramètre	-11.7959
▁terminal	-11.796
TOIRE	-11.7977
onze	-11.7982
▁bordereau	-11.7986
▁rassembl	-11.7993
organiser	-11.8011
▁connu	-11.8018
▁2.3.2.	-11.8023
ordonner	-11.8031
▁Absence	-11.8032
Dôme	-11.8032
Mulhouse	-11.8032
traitance	-11.8032
ysfonctionnement	-11.8032
▁OFFICIERS	-11.8032
▁considère	-11.8032
▁mobilier	-11.8032
▁privilégié	-11.8032
▁préliminaire	-11.8032
▁remplaçant	-11.8032
▁toléré	-11.8032
▁Représenté	-11.8032
▁cloison	-11.8032
▁Douai	-11.8032
Kévin	-11.8032
▁férié	-11.8032
▁baisse	-11.8032
Meurthe	-11.8032
▁fournissent	-11.8033
▁délit	-11.8033
▁divisé	-11.8035
Champagne	-11.8038
▁exonérations	-11.8038
Barbara	-11.8054
entendent	-11.8055
amy	-11.8079
Delphine	-11.8109
nergi	-11.8122
éditeur	-11.8123
ommissariat	-11.8123
effluent	-11.8124
chaussée	-11.8128
▁Maintenance	-11.8128
▁NOTARIAL	-11.8128
▁modulé	-11.8128
▁multilatéral	-11.8128
▁participé	-11.8128
▁probabilité	-11.8128
orienter	-11.8128
▁361-4	-11.8128
▁touristique	-11.8128
▁94-6	-11.8128
▁buses	-11.8129
▁immobilisations	-11.8129
▁éditeurs	-11.8131
▁colis	-11.8133
▁établissent	-11.8137
▁additionnelle	-11.8172
ETTI	-11.8187
viendra	-11.8193
Alexia	-11.8199
▁Bouch	-11.8203
Axel	-11.8221
EMPLOIS	-11.8225
efficience	-11.8225
inflation	-11.8225
interrogation	-11.8225
▁MARPOL	-11.8225
▁SIISN	-11.8225
▁affectant	-11.8225
▁câbles	-11.8225
▁déchargé	-11.8225
▁horizontale	-11.8225
▁olympique	-11.8225
▁panneaux	-11.8225
▁scission	-11.8225
▁simplification	-11.8225
▁soutenir	-11.8225
▁cumulatives	-11.8225
▁cédé	-11.8225
▁marche	-11.8226
▁Culture	-11.8226
▁démissionnaire	-11.8226
▁emprunts	-11.8227
▁mutualisation	-11.8228
▁avantages	-11.8233
▁puissent	-11.8235
▁Poste	-11.8236
péd	-11.8238
▁diagnostiqueur	-11.8239
▁différent	-11.8252
▁EURO	-11.8254
EMBRE	-11.8256
moul	-11.8305
systématiquement	-11.8307
argument	-11.8319
▁MENTION	-11.8323
Alsace	-11.8323
effacement	-11.8323
intensité	-11.8323
podologue	-11.8323
soignant	-11.8323
équilibrage	-11.8323
▁2021/2115	-11.8323
▁PUBLIC	-11.8323
▁chancelier	-11.8323
▁conciliation	-11.8323
▁cédant	-11.8323
▁démarrage	-11.8323
▁multinationales	-11.8323
▁sexies	-11.8323
▁remarque	-11.8323
▁COMMUN	-11.8323
▁PDF	-11.8323
▁stable	-11.8324
▁manufacturés	-11.8324
▁820-1	-11.8363
produits	-11.8366
▁0,2	-11.8367
▁connect	-11.8374
.1.1.2.	-11.84
paragraphe	-11.8409
dentaire	-11.8409
:	-11.8409
rendu	-11.8415
▁connaît	-11.8418
FORM	-11.842
▁investi	-11.8421
attester	-11.8422
▁modélis	-11.8422
Eugénie	-11.8422
Jérémie	-11.8422
Sèvres	-11.8422
atterrissage	-11.8422
▁Eiffel	-11.8422
▁contesté	-11.8422
▁croquis	-11.8422
▁plafonné	-11.8422
▁poursuivie	-11.8422
▁satisfont	-11.8422
▁téléchargeable	-11.8422
▁actionnaires	-11.8422
Pontoise	-11.8422
▁Louvre	-11.8422
▁Fuite	-11.8422
▁soussigné	-11.8422
▁différencié	-11.8422
▁ÉPREUVES	-11.8422
Zoé	-11.8423
intéressement	-11.8423
▁marge	-11.8424
▁adhérents	-11.8425
▁concessionnaire	-11.8426
▁009	-11.8435
CNR	-11.8447
▁OUI	-11.845
▁Aide	-11.8494
21-9	-11.8495
gouvernemental	-11.8499
yclades	-11.8513
ZON	-11.8513
▁claire	-11.8514
▁Adjudant	-11.8522
▁648/2012	-11.8522
▁Compétences	-11.8522
▁JUSTICE	-11.8522
▁Préparation	-11.8522
▁entièrement	-11.8522
▁financeurs	-11.8522
▁prétendre	-11.8522
▁requiert	-11.8522
▁syndrome	-11.8522
Victoire	-11.8522
▁001°	-11.8522
▁contourne	-11.8522
▁soutenu	-11.8522
▁passif	-11.8523
▁DURAND	-11.8526
▁soumet	-11.8528
café	-11.853
▁GÉNÉRALE	-11.8547
anémie	-11.8549
▁législative	-11.8556
GÉ	-11.8592
médecin	-11.8616
ommage	-11.8621
▁Organiser	-11.8623
▁artificielle	-11.8623
▁coproduction	-11.8623
▁indépendamment	-11.8623
▁inflammables	-11.8623
▁opposable	-11.8623
▁symptôme	-11.8623
▁transfusion	-11.8623
▁CONSEIL	-11.8623
▁solides	-11.8623
matelas	-11.8623
▁Mention	-11.8623
▁accepter	-11.8623
▁Palais	-11.8624
Célia	-11.8625
▁Prise	-11.8626
▁incidents	-11.8628
▁joign	-11.863
.1.1.1.	-11.8633
▁1225-	-11.8634
▁saisit	-11.8639
▁feux	-11.8641
USSE	-11.8671
▁OPTI	-11.8673
écoute	-11.8675
étiques	-11.8698
▁NATIONAL	-11.8712
règlement	-11.8718
▁vérifi	-11.8719
stauration	-11.8723
ACTIVITÉ	-11.8725
▁Villeneuve	-11.8725
▁pédicure	-11.8725
▁RELATIVE	-11.8725
▁annulés	-11.8725
▁cartographie	-11.8725
▁lucratif	-11.8725
▁manquant	-11.8725
▁pratiqué	-11.8725
Maxence	-11.8725
Belgique	-11.8725
▁gardien	-11.8725
▁notation	-11.8726
▁Alger	-11.8727
▁Note	-11.8735
Karim	-11.8737
▁Arch	-11.8763
oussa	-11.8787
0-6	-11.8797
travail	-11.8823
Concours	-11.8824
Disposition	-11.8824
;	-11.8824
édicament	-11.8827
extrémité	-11.8828
insérer	-11.8828
▁CNPMEM	-11.8828
▁Complément	-11.8828
▁Corrosion	-11.8828
▁DIRECTION	-11.8828
▁Document	-11.8828
▁Identifier	-11.8828
▁aquatique	-11.8828
▁calibre	-11.8828
▁contestation	-11.8828
▁préférence	-11.8828
abonnement	-11.8828
▁Fonction	-11.8828
▁Modification	-11.8828
▁survenance	-11.8828
▁flotte	-11.8828
Secteurs	-11.8828
interprété	-11.8828
▁Brevet	-11.8828
▁manuelle	-11.8831
▁sollicitent	-11.8834
stéro	-11.8839
brou	-11.8867
▁terrestre	-11.8869
▁meilleur	-11.8882
▁recouvré	-11.89
▁Substitut	-11.8905
Fili	-11.8918
▁engagé	-11.8929
identifiant	-11.893
Sylvie	-11.893
»	-11.8931
Gérald	-11.8932
▁préfigurat	-11.8932
Ajaccio	-11.8932
Stanislas	-11.8932
▁Evelyne	-11.8932
▁Financement	-11.8932
▁acceptable	-11.8932
▁criminalité	-11.8932
▁déclarative	-11.8932
▁exonéré	-11.8932
▁joindre	-11.8932
▁précède	-11.8932
▁sinistre	-11.8932
▁tentative	-11.8932
▁vulnérable	-11.8932
Amaury	-11.8932
▁prud	-11.8932
Hélo	-11.8933
▁concept	-11.8935
SNIA	-11.8936
▁unions	-11.894
Orange	-11.8942
▁caractérisation	-11.8946
▁représentative	-11.8975
▁formalis	-11.8976
effectuera	-11.8981
▁mesuré	-11.8996
▁mutualisé	-11.9022
Carine	-11.9031
IGNE	-11.9033
indiqué	-11.9037
Angélique	-11.9038
attribuer	-11.9038
▁FONCTION	-11.9038
▁GOUVERNE	-11.9038
▁Maître	-11.9038
▁SPÉCIFIQUE	-11.9038
▁associant	-11.9038
▁exhaustive	-11.9038
▁ordonné	-11.9038
▁signification	-11.9038
EXAMEN	-11.9038
Mathias	-11.9038
▁tacite	-11.9038
Sabrina	-11.9038
Sandrine	-11.9038
▁COMPTE	-11.9038
/858	-11.9038
▁CONTRAT	-11.9039
▁pathologiques	-11.9039
arrondissement	-11.9041
▁22-10-	-11.9043
ILLY	-11.9049
▁gare	-11.9052
Aube	-11.9092
▁613-1	-11.9093
ompagnie	-11.9139
▁chèque	-11.9144
▁accueillant	-11.9144
▁chimiothérapie	-11.9144
▁contractualis	-11.9144
▁covid	-11.9144
▁onéreux	-11.9144
▁profondeur	-11.9144
▁signifie	-11.9144
▁éliminatoire	-11.9144
Clarisse	-11.9144
▁enchères	-11.9144
▁161-17-2	-11.9144
augmenter	-11.9144
▁journaliste	-11.9145
affiche	-11.9145
infanterie	-11.9146
▁fuel	-11.9147
Axelle	-11.915
gestion	-11.915
reprendre	-11.9152
FAM	-11.9181
Orly	-11.9192
▁assorti	-11.9196
registre	-11.9217
examiner	-11.9226
▁dispensé	-11.9241
Andorre	-11.9251
▁textile	-11.9251
Dordogne	-11.9251
▁ambulatoire	-11.9251
▁contemporain	-11.9251
▁dégradation	-11.9251
▁injectable	-11.9251
▁mérite	-11.9251
▁quinquies	-11.9251
▁remarquable	-11.9251
▁Mireille	-11.9251
▁relance	-11.9251
▁Déformation	-11.9253
▁policiers	-11.9255
seize	-11.9256
accélération	-11.9258
BERG	-11.9259
vêtement	-11.9267
▁541-10-1	-11.9273
▁cumulable	-11.928
▁0,3	-11.9285
enregistrer	-11.9289
▁habilit	-11.9298
▁recommandation	-11.9301
▁consulaire	-11.9303
▁Corn	-11.9303
▁encadrée	-11.9352
▁revaloris	-11.9352
accalauréat	-11.9354
entraîne	-11.9357
▁intégral	-11.9358
département	-11.9358
▁perfor	-11.936
Eléonore	-11.936
Honoré	-11.936
Ludivine	-11.936
ampleur	-11.936
assainissement	-11.936
▁DOSSIER	-11.936
▁Danièle	-11.936
▁associative	-11.936
▁faisabilité	-11.936
▁football	-11.936
▁reclassement	-11.936
▁rinçage	-11.936
▁symptomatique	-11.936
restaurant	-11.936
▁transformé	-11.936
Evry	-11.936
▁litres	-11.9361
hélice	-11.9361
Adeline	-11.9362
▁allié	-11.9363
▁réacteur	-11.9364
présent	-11.9367
▁1.5.	-11.9368
▁attendu	-11.9369
KHA	-11.937
▁Marqu	-11.9382
▁touch	-11.9426
▁apprécié	-11.944
OINE	-11.9457
▁______	-11.9467
Rodolphe	-11.947
météorologique	-11.947
▁Commissaire	-11.947
▁chancellerie	-11.947
▁chauffé	-11.947
▁digital	-11.947
▁rugby	-11.947
▁témoin	-11.947
▁caisson	-11.947
▁oiseaux	-11.947
▁transverse	-11.947
▁BERNARD	-11.9471
▁résumé	-11.9471
Orientales	-11.9471
▁messagerie	-11.9472
autoroute	-11.9477
public	-11.9479
secteur	-11.948
session	-11.9483
Orne	-11.9513
Vallée	-11.9529
▁précis	-11.9543
édic	-11.9544
Carla	-11.9545
▁006	-11.9558
appréhender	-11.9581
arbitrage	-11.9581
ÉCONOMIE	-11.9581
▁Avocat	-11.9581
▁Maladie	-11.9581
▁commerciaux	-11.9581
▁démolition	-11.9581
▁détruit	-11.9581
▁monuments	-11.9581
▁réglage	-11.9581
▁rétention	-11.9581
▁vidéoprotection	-11.9581
▁électronicien	-11.9581
▁cumac	-11.9581
▁cotisant	-11.9581
▁accueillie	-11.9581
▁Corneille	-11.9581
Gautier	-11.9581
▁3512-1	-11.9582
▁photonique	-11.9582
▁porc	-11.9582
italien	-11.9586
▁Amélior	-11.9588
ELLA	-11.9589
joint	-11.9592
connexion	-11.9596
▁reprend	-11.9597
▁évit	-11.9612
......	-11.9633
▁restriction	-11.9638
▁plaque	-11.9639
▁CHEV	-11.9649
ambassade	-11.9693
▁84-810	-11.9694
▁participative	-11.9694
▁régularité	-11.9694
▁traduit	-11.9694
▁Domaine	-11.9694
▁MODALIT	-11.9694
▁RICHARD	-11.9694
▁présélection	-11.9694
▁goutte	-11.9694
▁télétravail	-11.9694
▁ajouter	-11.9695
▁ROUSSEL	-11.9695
▁nourri	-11.9695
▁exécuter	-11.9695
Afrique	-11.9696
argumentation	-11.9697
▁paix	-11.9698
▁6323-1	-11.9698
▁821-3	-11.97
échelonnement	-11.9704
▁exact	-11.9707
chauffage	-11.9708
établit	-11.9709
corps	-11.9709
ENTE	-11.9713
Malo	-11.9717
▁auxiliaire	-11.9753
▁vacant	-11.9753
metier	-11.9768
▁varie	-11.9775
Perrine	-11.9779
rrégularité	-11.9807
▁SGFGAS	-11.9807
▁quindecies	-11.9807
▁sylvicole	-11.9807
▁taxation	-11.9807
▁Eugène	-11.9807
▁aménagé	-11.9807
▁motorisation	-11.9807
▁potable	-11.9807
▁barrière	-11.9807
▁fiabilité	-11.9807
▁plantation	-11.9807
allemand	-11.9808
▁85-9	-11.9808
▁Relation	-11.9808
▁Marthe	-11.981
horaire	-11.9824
neuf	-11.9825
accéder	-11.9827
▁AUTO	-11.984
▁doute	-11.9856
41-9	-11.9862
▁visuel	-11.9862
Adam	-11.9874
œu	-11.9918
▁matériau	-11.9921
▁légion	-11.9922
▁hémorragique	-11.9922
▁minimis	-11.9922
▁prérequis	-11.9922
▁pédagogie	-11.9922
▁qualificative	-11.9922
▁repérage	-11.9922
▁rythme	-11.9922
▁traduction	-11.9922
▁étudié	-11.9922
Tanguy	-11.9922
immersion	-11.9922
▁compenser	-11.9922
▁majoritaire	-11.9922
▁résiduel	-11.9922
▁tapis	-11.9922
esprit	-11.9922
▁6527-2	-11.9922
▁IMDG	-11.9922
Expertise	-11.9922
Flavie	-11.9922
▁langage	-11.9923
Kevin	-11.9923
▁vanne	-11.9928
▁vide	-11.9932
associé	-11.9942
▁induit	-11.9964
▁requête	-11.9987
▁consigne	-11.9988
▁poursuit	-11.9998
ouvreur	-12.0014
▁apparaît	-12.0035
BOURG	-12.0035
petit	-12.0037
artificialis	-12.0038
▁Cergy	-12.0038
GLEMENT	-12.0038
orthophoniste	-12.0038
stupéfiants	-12.0038
▁concubin	-12.0038
▁fondamentale	-12.0038
▁franchise	-12.0038
▁lisibilité	-12.0038
▁radicalisation	-12.0038
▁reproduction	-12.0038
▁Adjoint	-12.0038
▁Londres	-12.0038
Armelle	-12.0039
émergen	-12.0039
▁interlocuteurs	-12.0041
▁Havre	-12.0042
exposé	-12.0059
▁trop	-12.0083
▁NOTAIRE	-12.0145
▁matériali	-12.0156
anguille	-12.0156
▁Chambéry	-12.0156
▁Communauté	-12.0156
▁Notarial	-12.0156
▁RÉGION	-12.0156
▁Vendôme	-12.0156
▁respiratoire	-12.0156
▁supprimer	-12.0156
▁unilatérale	-12.0156
▁cœur	-12.0156
▁Odette	-12.0156
▁bref	-12.0156
▁cybersécurité	-12.0156
Blandine	-12.0156
▁métal	-12.0156
Nelly	-12.0156
hydrogène	-12.0157
▁expose	-12.0157
▁FOURN	-12.0162
intègrent	-12.0174
▁Médaill	-12.0178
chambres	-12.0184
▁impose	-12.0211
▁recevable	-12.0213
modalit	-12.0275
acquéreur	-12.0275
atmosphère	-12.0275
ddictologie	-12.0275
implication	-12.0275
▁Examen	-12.0275
▁anatomie	-12.0275
▁azoté	-12.0275
▁classique	-12.0275
▁dépassant	-12.0275
▁paramédical	-12.0275
▁poursuivra	-12.0275
▁sécuritaire	-12.0275
▁tertiaire	-12.0275
▁Gaston	-12.0275
▁Club	-12.0275
▁Filière	-12.0275
▁enquêteurs	-12.0275
impayé	-12.0275
▁Solange	-12.0275
▁paramétr	-12.0276
▁normalisation	-12.0277
▁dépendance	-12.0277
▁bonifié	-12.0278
▁821-7	-12.0278
▁importé	-12.0286
rubrique	-12.0304
fondatrice	-12.0318
ifférentiel	-12.0342
brun	-12.0343
chercheur	-12.0349
▁ressortissant	-12.035
foyers	-12.0374
antécédent	-12.0396
épandage	-12.0396
▁APPLICABLES	-12.0396
▁Catégorie	-12.0396
▁Chirurgie	-12.0396
▁Gisèle	-12.0396
▁habitable	-12.0396
▁typologie	-12.0396
▁vocabulaire	-12.0396
COFRAC	-12.0396
immunité	-12.0396
▁Boulogne	-12.0396
▁Tarbes	-12.0396
▁Colmar	-12.0396
▁Région	-12.0396
Martial	-12.0396
▁centralisée	-12.0398
▁vigne	-12.0401
▁avancé	-12.0406
dépendant	-12.041
STAN	-12.0411
défini	-12.0427
ertinence	-12.0516
Clotilde	-12.0517
Yasmine	-12.0517
amorçage	-12.0517
insémination	-12.0517
▁Auguste	-12.0517
▁Conservatoire	-12.0517
▁Effectu	-12.0517
▁certifiant	-12.0517
▁contradictoire	-12.0517
▁discours	-12.0517
▁essences	-12.0517
▁illicite	-12.0517
▁légitime	-12.0517
▁pétitionnaire	-12.0517
▁recyclé	-12.0517
▁rhumato	-12.0517
▁serveur	-12.0517
▁émérite	-12.0517
Astrid	-12.0518
▁quote	-12.0521
CGC	-12.0522
▁minéral	-12.0534
République	-12.0552
▁dioxy	-12.0558
▁pilot	-12.0581
▁anticipé	-12.0606
▁correcte	-12.0631
Ardèche	-12.0641
abattement	-12.0641
officine	-12.0641
▁DISPOSITION	-12.0641
▁Monténégro	-12.0641
▁RéPAP	-12.0641
▁Transmission	-12.0641
▁chirurgical	-12.0641
▁contracté	-12.0641
▁diabète	-12.0641
▁flottant	-12.0641
▁impossible	-12.0641
▁labellisation	-12.0641
▁magasin	-12.0641
▁préserver	-12.0641
▁reconnaît	-12.0641
▁sollicitant	-12.0641
▁tropicales	-12.0641
▁voisinage	-12.0641
extradition	-12.0641
▁illustr	-12.0641
▁Indien	-12.0641
entraide	-12.0641
▁UGB	-12.0641
▁TVA	-12.0641
▁générique	-12.0642
ESSION	-12.0642
alarme	-12.0642
▁Aimé	-12.065
pprofondissement	-12.0654
financement	-12.0679
Agnès	-12.0679
encadr	-12.0682
créateur	-12.0683
▁silenc	-12.0692
▁indemnis	-12.0703
europa	-12.0714
▁science	-12.0724
▁municipal	-12.0728
lectricité	-12.0754
policier	-12.0762
niveau	-12.0764
entrepreneur	-12.0766
▁Cependant	-12.0766
▁Choisir	-12.0766
▁GENDARMERIE	-12.0766
▁Indicateur	-12.0766
▁Nouméa	-12.0766
▁RELATIF	-12.0766
▁THOMAS	-12.0766
▁biologiste	-12.0766
▁délibérant	-12.0766
▁hygroréglable	-12.0766
▁myélo	-12.0766
Yohan	-12.0766
▁chances	-12.0766
▁orienté	-12.0766
Mélissa	-12.0766
▁INFORMATIONS	-12.0766
▁Second	-12.0766
▁aviaire	-12.0767
-728	-12.0767
▁reconstruction	-12.0768
242-17	-12.077
▁systématique	-12.0787
SAPA	-12.0794
quota	-12.0807
▁proportionné	-12.0807
Agri	-12.0818
▁archiv	-12.083
▁occupe	-12.0845
adhérent	-12.0889
▁hospi	-12.0893
▁absolue	-12.0893
▁cataract	-12.0893
▁contiennent	-12.0893
▁démographiques	-12.0893
▁peinture	-12.0893
▁photocopie	-12.0893
▁proclamation	-12.0893
▁équilibré	-12.0893
Extension	-12.0893
▁seringue	-12.0893
▁Patient	-12.0893
▁nitrate	-12.0893
Roxane	-12.0893
Syrie	-12.0893
▁maitrise	-12.0893
▁6527-1	-12.0893
▁carnet	-12.0894
▁Eliane	-12.0894
▁montée	-12.0895
▁desservi	-12.0895
▁(500	-12.0895
▁minier	-12.0897
▁référencé	-12.0934
▁iso	-12.0943
▁requérant	-12.0988
Ariège	-12.1021
Jennifer	-12.1021
Philippine	-12.1021
RGPD	-12.1021
accession	-12.1021
pâtisserie	-12.1021
▁ACCORD	-12.1021
▁CONVENTION	-12.1021
▁Mouvement	-12.1021
▁Nguyen	-12.1021
▁SOCIALE	-12.1021
▁combustion	-12.1021
▁démantèlement	-12.1021
▁imputé	-12.1021
▁malveillant	-12.1021
▁onzième	-12.1021
▁parisiens	-12.1021
▁polyvalent	-12.1021
▁pulmonaire	-12.1021
▁télésoin	-12.1021
Jessica	-12.1021
Emeline	-12.1021
Gwena	-12.1021
Ahmed	-12.1021
▁Commande	-12.1021
Aisne	-12.1021
▁blanche	-12.1022
impression	-12.1022
Ronan	-12.1025
▁alimenté	-12.1039
▁162-22-1	-12.1054
▁Corbe	-12.106
Normandie	-12.1068
Thérèse	-12.1068
RCS	-12.107
Santé	-12.1072
caisse	-12.1113
carton	-12.1139
ORGANISMES	-12.1151
▁Application	-12.1151
▁Jacky	-12.1151
▁PASSCOG	-12.1151
▁Structure	-12.1151
▁distinguant	-12.1151
▁injecté	-12.1151
▁renoncer	-12.1151
▁renseigner	-12.1151
▁récidive	-12.1151
▁récipients	-12.1151
▁rédacteur	-12.1151
▁suffrages	-12.1151
▁thèse	-12.1151
▁tolérance	-12.1151
▁vendeur	-12.1151
▁épidémiologique	-12.1151
▁détaillant	-12.1151
▁614-36	-12.1151
▁Droit	-12.1151
▁sensibles	-12.1151
▁juste	-12.1151
▁MENTIONNÉ	-12.1151
▁HSH	-12.1151
▁NICOL	-12.1151
▁Vérifi	-12.1151
▁Dotation	-12.1151
▁Belfort	-12.1151
▁Bercy	-12.1153
▁occasionnel	-12.1173
nombre	-12.1202
▁scie	-12.1215
FranceAgriMer	-12.1282
nfluenza	-12.1282
▁IDACIO	-12.1282
▁SUPÉRIEUR	-12.1282
▁alphabétique	-12.1282
▁difficile	-12.1282
▁démontage	-12.1282
▁jouissance	-12.1282
▁perçoivent	-12.1282
▁récurrent	-12.1282
▁sensibilité	-12.1282
Natacha	-12.1282
méthyl	-12.1282
▁tunnel	-12.1282
▁voiture	-12.1282
▁CERTIFICATION	-12.1283
▁génération	-12.1283
▁Deuxième	-12.1283
procureur	-12.1284
▁Melun	-12.1284
odontologie	-12.1305
surveillance	-12.1308
comptable	-12.1337
Véronique	-12.1337
exemple	-12.1337
132-1	-12.1347
▁perturb	-12.1416
incertitude	-12.1416
▁Forfait	-12.1416
▁GROUPE	-12.1416
▁RPNR	-12.1416
▁convoque	-12.1416
▁facilement	-12.1416
▁gravure	-12.1416
▁kilowatt	-12.1416
▁lympho	-12.1416
▁maniement	-12.1416
▁méconnaissance	-12.1416
▁pathogène	-12.1416
▁recensées	-12.1416
▁EQR	-12.1416
▁leucémie	-12.1416
▁linéaire	-12.1416
▁guichet	-12.1416
▁Sénat	-12.1416
▁Antenne	-12.1416
▁moderne	-12.1416
▁312-4	-12.1416
▁polaire	-12.1417
▁2019-144	-12.1418
▁menu	-12.1419
isolement	-12.1422
MTX	-12.1422
▁Sauv	-12.1433
également	-12.1449
%	-12.1474
Section	-12.1474
▁cheval	-12.1509
Industrie	-12.1551
TECHNIQUE	-12.1551
intelligence	-12.1551
interopérabilité	-12.1551
épaisseur	-12.1551
▁Déclaration	-12.1551
▁Implant	-12.1551
▁Soutien	-12.1551
▁conservatrice	-12.1551
▁intrafamiliales	-12.1551
▁littéraire	-12.1551
▁modificative	-12.1551
▁multiplication	-12.1551
▁privilège	-12.1551
▁préparateur	-12.1551
▁Campus	-12.1551
▁comparant	-12.1551
▁Mayenne	-12.1551
Vosges	-12.1551
defense	-12.1551
▁6325-2	-12.1551
▁Francine	-12.1551
▁battant	-12.1551
▁TMD	-12.1551
▁avait	-12.1551
▁récente	-12.1551
▁Cyrille	-12.1551
▁vitrage	-12.1551
▁décoratifs	-12.1552
remorque	-12.1552
▁Cadre	-12.1553
▁162-31-	-12.1559
▁garant	-12.1572
géomètre	-12.1572
Émilie	-12.1584
rthrite	-12.1609
environ	-12.1613
transmission	-12.1614
ocalisation	-12.1615
▁syndic	-12.1685
▁GIRARD	-12.1688
▁Perpignan	-12.1688
Thibaud	-12.1688
accouchement	-12.1688
archéologie	-12.1688
▁Gendarmerie	-12.1688
▁Prescription	-12.1688
▁Réglementation	-12.1688
▁analogue	-12.1688
▁capitaux	-12.1688
▁confidentiel	-12.1688
▁immobilisé	-12.1688
▁impératif	-12.1688
▁infecté	-12.1688
▁innovantes	-12.1688
▁pondération	-12.1688
▁prérogatives	-12.1688
▁rattrapage	-12.1688
▁reconduction	-12.1688
▁refroidissement	-12.1688
▁sectoriel	-12.1688
▁simulation	-12.1688
▁242-21	-12.1688
orifice	-12.1688
▁côte	-12.1688
▁Liliane	-12.1688
▁Jocelyne	-12.1688
▁argumenter	-12.1688
▁découpe	-12.1688
124-1	-12.1691
▁sureté	-12.1691
▁chaudière	-12.1692
▁sécuris	-12.174
numéro	-12.1754
▁intercommunal	-12.1783
▁odontologi	-12.1802
▁Collect	-12.1804
ENFiP	-12.1827
EXIGENCE	-12.1827
Environnement	-12.1827
Geoffroy	-12.1827
Timothée	-12.1827
aspiration	-12.1827
automatisation	-12.1827
▁Etablir	-12.1827
▁POPULAIRE	-12.1827
▁cultural	-12.1827
▁précaution	-12.1827
▁remédier	-12.1827
▁transférer	-12.1827
▁trimestriel	-12.1827
ESPACE	-12.1827
▁décimale	-12.1827
▁bétail	-12.1827
▁Géraldine	-12.1827
▁animée	-12.1827
▁sucre	-12.1827
Avignon	-12.1827
▁gardé	-12.1827
Salomé	-12.1827
▁bourse	-12.1827
tretenir	-12.1827
▁PEYR	-12.1838
▁mobilise	-12.1885
fonction	-12.1896
▁prolongé	-12.1915
sciences	-12.1924
▁modalité	-12.1942
érologie	-12.1953
admissio	-12.1963
▁01-44-59-44-	-12.1967
Mohammed	-12.1967
hypothèque	-12.1967
obtient	-12.1967
▁Accueil	-12.1967
▁Fabrication	-12.1967
▁Mathématiques	-12.1967
▁concrète	-12.1967
▁déployé	-12.1967
▁expérimenté	-12.1967
▁rotation	-12.1967
▁Constant	-12.1968
▁subdivision	-12.1968
Rénov	-12.1968
▁Usure	-12.1968
▁Force	-12.1968
▁233-16	-12.1969
▁nulle	-12.1969
Laurie	-12.1983
▁SSR	-12.1986
▁découvr	-12.2017
▁strict	-12.2034
▁million	-12.2087
▁abouti	-12.209
embarqu	-12.2104
Télécom	-12.211
Ophélie	-12.211
anticipation	-12.211
initiation	-12.211
observer	-12.211
ématérialisation	-12.211
▁160-8	-12.211
▁2023-2027	-12.211
▁Crohn	-12.211
▁JEUNESSE	-12.211
▁PROGRAMME	-12.211
▁combinaison	-12.211
▁dividende	-12.211
▁détecté	-12.211
▁excessive	-12.211
▁inclure	-12.211
▁instauré	-12.211
▁méthodologique	-12.211
▁négoce	-12.211
▁orthopédie	-12.211
▁phyto	-12.211
▁piéton	-12.211
▁renonciation	-12.211
▁roulant	-12.211
▁caution	-12.211
▁taxi	-12.211
▁sondage	-12.2111
▁Débit	-12.2111
▁sexistes	-12.2111
aturation	-12.2112
▁6325-1	-12.2112
▁84-43	-12.2114
▁54-10-	-12.2114
▁occasionné	-12.2115
▁chaud	-12.2179
▁pondéré	-12.2186
prévu	-12.2188
Robert	-12.2189
équivalent	-12.2191
EPMSP	-12.2255
Nadège	-12.2255
▁Bobigny	-12.2255
▁SITUATION	-12.2255
▁Territoire	-12.2255
▁bipolaire	-12.2255
▁filtrant	-12.2255
▁motorisés	-12.2255
▁originaux	-12.2255
▁reconstitution	-12.2255
▁redressement	-12.2255
▁satellite	-12.2255
▁télévision	-12.2255
▁Chambre	-12.2255
▁commencé	-12.2255
▁inhérent	-12.2255
owski	-12.2255
▁pseudo	-12.2255
▁récepteur	-12.2255
Charlène	-12.2255
Hiver	-12.2258
Sylvia	-12.2259
utter	-12.2315
Flora	-12.2347
▁trouble	-12.2383
▁déconcentré	-12.2383
titia	-12.2401
ministere	-12.2402
html	-12.2402
▁architectural	-12.2402
▁souple	-12.2402
▁spontané	-12.2402
ENSEIGNEMENT	-12.2402
Nièvre	-12.2402
agression	-12.2402
traînant	-12.2402
▁5126-6	-12.2402
▁CATÉGORIE	-12.2402
▁LAURENT	-12.2402
▁agronomique	-12.2402
▁biogaz	-12.2402
▁boucherie	-12.2402
▁convenance	-12.2402
▁dimensionnement	-12.2402
▁domicilié	-12.2402
▁réservoir	-12.2402
▁soldat	-12.2402
▁étroite	-12.2402
Espagne	-12.2402
▁référé	-12.2402
▁résilié	-12.2402
▁6325-4	-12.2402
▁confrère	-12.2402
▁accru	-12.2402
▁CASF	-12.2402
▁CNRS	-12.2403
▁terminé	-12.2403
▁fournissant	-12.2403
▁assise	-12.2403
nématographiques	-12.2417
explicit	-12.2421
125-5	-12.2422
CAF	-12.2424
adress	-12.2459
régime	-12.249
▁5.5.	-12.2505
emprunt	-12.2538
▁récapitul	-12.2551
Rodrigue	-12.2551
enlèvement	-12.2551
harmonisation	-12.2551
▁Beauvais	-12.2551
▁Intérieur	-12.2551
▁célébration	-12.2551
▁qualifiant	-12.2551
▁requalification	-12.2551
▁récupéré	-12.2551
▁sénateur	-12.2551
▁triennal	-12.2551
▁with	-12.2551
▁Garcia	-12.2551
▁encaissé	-12.2551
anticiper	-12.2551
▁Edith	-12.2551
▁flore	-12.2551
▁Blessé	-12.2552
▁déroger	-12.2552
▁renfort	-12.2552
▁chute	-12.2552
MIANTE	-12.2552
CNOA	-12.2552
▁corticothérapie	-12.2552
▁PREMI	-12.2552
▁travaillant	-12.2552
▁descriptive	-12.2552
▁genre	-12.2553
▁cardio	-12.2584
▁simplifié	-12.2641
▁humain	-12.2642
portail	-12.2643
sécurité	-12.2643
▁désinfect	-12.266
▁classifié	-12.2689
▁simultané	-12.2693
▁enrichi	-12.2702
Technicien	-12.2703
Aveyron	-12.2703
Hôpital	-12.2703
opposer	-12.2703
▁Conduite	-12.2703
▁Impact	-12.2703
▁Intitulé	-12.2703
▁Lefebvre	-12.2703
▁Ministre	-12.2703
▁RECRUTEMENT	-12.2703
▁contribuable	-12.2703
▁désormais	-12.2703
▁germinaux	-12.2703
▁homogène	-12.2703
▁participatif	-12.2703
▁pauvreté	-12.2703
▁plongeur	-12.2703
▁procuration	-12.2703
▁quantitative	-12.2703
▁sourds	-12.2703
▁négative	-12.2703
▁informatisé	-12.2703
abattage	-12.2703
▁déduit	-12.2703
▁crues	-12.2703
▁emporte	-12.2703
Mathis	-12.2703
affirm	-12.2704
▁2021-110	-12.2711
commission	-12.2799
oxygène	-12.2806
▁approfondi	-12.2818
Steve	-12.2825
▁cabine	-12.2849
medicaments	-12.2857
▁terdecies	-12.2857
Dorothée	-12.2857
exigibilité	-12.2857
expulsion	-12.2857
éclairer	-12.2857
▁Construction	-12.2857
▁Méthode	-12.2857
▁conçoit	-12.2857
▁dépouillement	-12.2857
▁détiennent	-12.2857
▁scléros	-12.2857
▁Commerce	-12.2857
▁INTERNE	-12.2857
▁Quatre	-12.2857
altiport	-12.2857
▁transparent	-12.2857
▁Filtre	-12.2857
▁Recherche	-12.2857
▁paysager	-12.2857
▁335-5	-12.2857
▁balise	-12.2857
▁exécutif	-12.2857
▁dignité	-12.2857
Canada	-12.2857
PUIS	-12.2857
▁acheté	-12.2858
Ambre	-12.2859
Rayer	-12.2889
APPLICATION	-12.3013
Aymeric	-12.3013
attelage	-12.3013
▁Dunkerque	-12.3013
▁Matériel	-12.3013
▁Montreuil	-12.3013
▁Papeete	-12.3013
▁REQUISE	-12.3013
▁frigorifique	-12.3013
▁incomplète	-12.3013
▁indicatif	-12.3013
▁minoration	-12.3013
▁mobilières	-12.3013
▁projection	-12.3013
▁prévoyant	-12.3013
▁vœux	-12.3013
▁élévation	-12.3013
▁335-6	-12.3013
▁Edmond	-12.3013
▁Suivi	-12.3013
▁Navire	-12.3013
▁fausse	-12.3013
Dimitri	-12.3013
▁parisienne	-12.3013
▁ÉCOLE	-12.3013
▁attitude	-12.3013
Jordan	-12.3014
▁proroge	-12.3014
▁ovine	-12.3014
▁Bleu	-12.302
▁optimisé	-12.3023
pôle	-12.312
international	-12.3125
pharmaceutique	-12.3142
addition	-12.3172
interprète	-12.3172
▁ASSOCIÉ	-12.3172
▁MILITAIRE	-12.3172
▁Public	-12.3172
▁RÉCAPITULATIF	-12.3172
▁Secrétaire	-12.3172
▁ambassadrice	-12.3172
▁bilatéral	-12.3172
▁cynotechnique	-12.3172
▁maroquinerie	-12.3172
▁meubles	-12.3172
▁psychique	-12.3172
▁théâtre	-12.3172
▁Figure	-12.3172
▁artérielle	-12.3172
▁axiale	-12.3172
▁campus	-12.3172
▁diminue	-12.3172
▁pollué	-12.3172
▁stylo	-12.3172
▁rénové	-12.3172
élargissement	-12.3172
▁CPGE	-12.3172
▁162-5	-12.3173
▁2022-176	-12.3178
▁Délai	-12.3227
archivage	-12.3236
▁Natur	-12.325
http	-12.3283
intérim	-12.3283
▁zonal	-12.3324
▁Alphonse	-12.3333
Cameroun	-12.3333
▁Capitaine	-12.3333
▁Contribuer	-12.3333
▁Evolution	-12.3333
▁Intervention	-12.3333
▁Prestations	-12.3333
▁SISERI	-12.3333
▁apatride	-12.3333
▁bioliquides	-12.3333
▁harcèlement	-12.3333
▁incombant	-12.3333
▁innovants	-12.3333
▁justiciable	-12.3333
▁paramédicaux	-12.3333
▁quinzième	-12.3333
▁visualisation	-12.3333
▁préconisé	-12.3333
▁Entretien	-12.3333
▁LAMBERT	-12.3333
▁Lumière	-12.3333
▁instrumentation	-12.3333
▁SMR	-12.3333
▁associe	-12.3333
▁Météo	-12.3335
Laurine	-12.3335
encaissement	-12.3336
allég	-12.3355
Maurice	-12.345
Article	-12.345
retraite	-12.345
bureau	-12.3459
▁confie	-12.3487
passer	-12.3492
interlocuteur	-12.3493
discrimination	-12.3493
affectataire	-12.3497
espagnol	-12.3497
harmacologie	-12.3497
hôtellerie	-12.3497
orphelin	-12.3497
▁Défaut	-12.3497
▁Enseignement	-12.3497
▁aquacole	-12.3497
▁cognitive	-12.3497
▁compartiment	-12.3497
▁consacre	-12.3497
▁fidélisation	-12.3497
▁optimale	-12.3497
▁pompage	-12.3497
▁préconisations	-12.3497
▁qualitative	-12.3497
▁successives	-12.3497
▁usagés	-12.3497
▁ventilateur	-12.3497
▁initié	-12.3497
▁questionnement	-12.3497
▁virement	-12.3497
Guilhem	-12.3497
appareillage	-12.3497
▁malades	-12.3497
endettement	-12.3497
▁cuisson	-12.3497
Fatima	-12.3497
IDCC	-12.3497
▁GMT	-12.3497
▁compromis	-12.3498
▁publicitaire	-12.3498
▁tierce	-12.3498
▁desserte	-12.3498
HOMME	-12.3499
▁6214-	-12.351
conventionnement	-12.3512
nationale	-12.353
Bretagne	-12.3619
division	-12.3619
▁Cinq	-12.3652
INFORMATION	-12.3663
actualité	-12.3664
Capucine	-12.3664
Madagascar	-12.3664
Participation	-12.3664
cybercriminalité	-12.3664
immigration	-12.3664
uvéite	-12.3664
▁Répartition	-12.3664
▁Standard	-12.3664
▁Stratégie	-12.3664
▁York	-12.3664
▁assimilable	-12.3664
▁complémentarité	-12.3664
▁comprimé	-12.3664
▁franchissement	-12.3664
▁invalides	-12.3664
▁moléculaire	-12.3664
▁métastatique	-12.3664
▁prescrire	-12.3664
▁pécuniaire	-12.3664
▁sécheresse	-12.3664
▁232-6-3	-12.3664
▁nocives	-12.3664
NOVA	-12.3664
affermi	-12.3664
upload	-12.3664
▁variété	-12.3665
▁converti	-12.3665
▁découle	-12.3668
▁massif	-12.3669
ourriel	-12.3683
ouvrir	-12.3722
▁express	-12.3779
cabinet	-12.3792
International	-12.3796
omission	-12.3832
▁CAHIER	-12.3833
▁CULTURE	-12.3833
▁Calendrier	-12.3833
▁DÉPARTEMENT	-12.3833
▁Définir	-12.3833
▁Dérogation	-12.3833
▁biomédecine	-12.3833
▁confection	-12.3833
▁covoiturage	-12.3833
▁discontinu	-12.3833
▁inchangé	-12.3833
▁longitudinal	-12.3833
▁polyarticulaire	-12.3833
▁privative	-12.3833
▁pyrotechnique	-12.3833
▁sujétion	-12.3833
▁HUISSIERS	-12.3833
▁Inscription	-12.3833
réalisateur	-12.3833
▁maquette	-12.3833
▁ramené	-12.3833
▁dérogé	-12.3833
▁cirque	-12.3833
▁style	-12.3833
Yoann	-12.3834
▁argumentée	-12.3834
CFE	-12.3842
Sofia	-12.386
Morgan	-12.386
Charline	-12.3878
étu	-12.3914
exploit	-12.3927
Carole	-12.3967
régisseur	-12.3967
avenue	-12.3968
ésumé	-12.4005
Irlande	-12.4006
indisponibilité	-12.4006
▁Alfred	-12.4006
▁Ressources	-12.4006
▁chocolat	-12.4006
▁doctorant	-12.4006
▁délibérer	-12.4006
▁explicative	-12.4006
▁gracieux	-12.4006
▁ionisants	-12.4006
▁jurisprudence	-12.4006
▁modulaire	-12.4006
▁réciproque	-12.4006
▁scaphandre	-12.4006
▁soutirage	-12.4006
▁succursal	-12.4006
▁trésorier	-12.4006
▁Module	-12.4006
Apolline	-12.4006
▁tumeur	-12.4006
▁Modern	-12.4006
ANNÉE	-12.4006
▁dégagé	-12.4006
▁corrective	-12.4012
▁Jacque	-12.4014
enjeu	-12.4022
▁4221-	-12.4024
élargi	-12.4025
disciplinaire	-12.4107
▁octroyé	-12.4117
engrais	-12.4121
▁modifie	-12.417
▁manipul	-12.4171
Philip	-12.418
▁SPÉCIAL	-12.4181
economie	-12.4181
Corrèze	-12.4181
Délivrance	-12.4181
EXPLOITATION	-12.4181
confiserie	-12.4181
ergonomie	-12.4181
hépatite	-12.4181
▁Introduction	-12.4181
▁Métropole	-12.4181
▁POLICE	-12.4181
▁Pièce	-12.4181
▁Présenter	-12.4181
▁cautionnement	-12.4181
▁chronologique	-12.4181
▁diabétique	-12.4181
▁kilométrique	-12.4181
▁mixité	-12.4181
▁timbre	-12.4181
Nazaire	-12.4181
▁Education	-12.4181
avertissement	-12.4181
▁rénale	-12.4181
Alicia	-12.4181
▁contrainte	-12.4191
DENIS	-12.4193
▁mutualis	-12.4203
▁neuropsychologi	-12.43
éligible	-12.4327
responsable	-12.4327
▁Constitu	-12.4359
simplifie	-12.436
ATTESTATION	-12.436
Maximilien	-12.436
arrangement	-12.436
lizumab	-12.436
observance	-12.436
▁2024-2025	-12.436
▁CAPITALISABLE	-12.436
▁Lydie	-12.436
▁Mamoudzou	-12.436
▁Mobile	-12.436
▁bagages	-12.436
▁centimètres	-12.436
▁chiffonnette	-12.436
▁discrétion	-12.436
▁gymniques	-12.436
▁harmonisé	-12.436
▁humanitaire	-12.436
▁meublé	-12.436
▁nuisibles	-12.436
▁randonnée	-12.436
▁salmonelle	-12.436
▁snowboard	-12.436
CECRL	-12.436
autrui	-12.436
▁Aéroport	-12.436
▁ralenti	-12.436
▁Girard	-12.436
▁Dossier	-12.436
▁Cuve	-12.436
▁remorqueur	-12.436
traiteur	-12.436
Katia	-12.4371
▁formalité	-12.4373
Dorian	-12.4382
▁évolue	-12.4393
fontaine	-12.4404
▁immédiat	-12.4488
intéress	-12.4513
carbone	-12.4513
inscriv	-12.4539
ALISATION	-12.454
gifrance	-12.4541
FONTAINE	-12.4541
expropriation	-12.4541
irrigation	-12.4541
terroriste	-12.4541
▁2018/1139	-12.4541
▁233-28-4	-12.4541
▁Angèle	-12.4541
▁Health	-12.4541
▁LCDT	-12.4541
▁Technologies	-12.4541
▁domanial	-12.4541
▁mobilisant	-12.4541
▁métrologie	-12.4541
▁pluviales	-12.4541
▁produisant	-12.4541
▁précarité	-12.4541
▁pâturage	-12.4541
▁pénétrer	-12.4541
▁transfère	-12.4541
▁utilisatrice	-12.4541
▁vidange	-12.4541
▁CICTA	-12.4541
▁Optimis	-12.4541
▁fractionnement	-12.4541
▁centimes	-12.4541
Maryline	-12.4542
Andrea	-12.4542
opathie	-12.4542
▁Affaire	-12.4542
▁MEDICAL	-12.4542
PJJ	-12.4543
PÉRIM	-12.4543
externalis	-12.455
Béatrice	-12.4701
salariés	-12.4702
Olympique	-12.4723
algorithme	-12.4727
adalimumab	-12.4727
doprothèse	-12.4727
exploration	-12.4727
▁Boîte	-12.4727
▁GIRAUD	-12.4727
▁Mauvais	-12.4727
▁Préalable	-12.4727
▁Valenciennes	-12.4727
▁consignés	-12.4727
▁doctrine	-12.4727
▁inhibiteur	-12.4727
▁nuisances	-12.4727
▁objective	-12.4727
▁opposé	-12.4727
▁portefeuille	-12.4727
▁produisent	-12.4727
▁péréquation	-12.4727
▁retenir	-12.4727
▁transpondeur	-12.4727
▁téléchargé	-12.4727
▁composite	-12.4727
▁paraît	-12.4727
▁coronaire	-12.4727
Ecurie	-12.4727
▁Pompe	-12.4727
Frank	-12.4727
▁313-3	-12.4727
▁2011-197	-12.4727
toxic	-12.4728
androst	-12.4728
▁SIGNÉ	-12.4728
Prince	-12.4731
▁tâche	-12.4747
▁remboursable	-12.4747
atténuation	-12.4761
▁mutuel	-12.4771
2016-05	-12.4806
▁assign	-12.4809
▁rembourse	-12.4905
▁abaissé	-12.4915
▁chiffré	-12.4915
▁négocié	-12.4915
▁répercut	-12.4915
Aéronautique	-12.4915
PRIMÉ	-12.4915
thoracique	-12.4915
épidémie	-12.4915
▁Collège	-12.4915
▁DUFOUR	-12.4915
▁DÉFINIS	-12.4915
▁FORMULAIRE	-12.4915
▁HOSPITALIER	-12.4915
▁XELJANZ	-12.4915
▁ankylosante	-12.4915
▁carnivore	-12.4915
▁ciblés	-12.4915
▁complications	-12.4915
▁conséquent	-12.4915
▁déroulant	-12.4915
▁interpréter	-12.4915
▁licenciement	-12.4915
▁numérisée	-12.4915
▁posteriori	-12.4915
▁soutenabilité	-12.4915
▁veillant	-12.4915
▁évolué	-12.4915
CFTC	-12.4915
rothésiste	-12.4915
▁MULLER	-12.4915
▁installe	-12.4915
▁fossile	-12.4915
▁radioactives	-12.4915
▁quotité	-12.4915
▁Josiane	-12.4915
▁Châl	-12.4915
harmonie	-12.4915
altération	-12.4916
▁relié	-12.4916
▁ROBIN	-12.4916
paraissent	-12.4917
Vitale	-12.4917
PACTE	-12.4943
Aubin	-12.4969
approvisionn	-12.5017
▁témoign	-12.5051
région	-12.5077
Richard	-12.509
Elisabeth	-12.509
Ambassade	-12.5108
Geoffrey	-12.5108
▁BRGM	-12.5108
▁Exemple	-12.5108
▁NGUYEN	-12.5108
▁PRÉALABLE	-12.5108
▁Proposer	-12.5108
▁Secrétariat	-12.5108
▁accédant	-12.5108
▁bavarde	-12.5108
▁concordance	-12.5108
▁corriger	-12.5108
▁discussion	-12.5108
▁doctoral	-12.5108
▁détournement	-12.5108
▁explosive	-12.5108
▁flottaison	-12.5108
▁nullité	-12.5108
▁particularité	-12.5108
▁plâtre	-12.5108
▁portfolio	-12.5108
▁utilisable	-12.5108
▁vieillissement	-12.5108
▁volontariat	-12.5108
connaissant	-12.5108
▁CANDIDAT	-12.5108
▁Régime	-12.5108
▁découlant	-12.5108
▁déplacer	-12.5108
▁spondyl	-12.5108
▁004°	-12.5108
▁Phase	-12.5108
▁journaux	-12.5108
encourager	-12.5108
crimes	-12.5108
flamme	-12.5109
Lydia	-12.5113
Linda	-12.5114
▁saurai	-12.5146
▁JANVI	-12.5192
assignation	-12.5221
▁délivr	-12.526
construction	-12.5288
calendrier	-12.529
Sciences	-12.529
Corinne	-12.529
“	-12.6355
<	-13.2323
è	-13.8494
